#version: 0.2
¾ à
¦ ¾à
à ¦¾à
à¦¾à ¦
§ ĩ
à §ĩ
¦ °
à ¦°
§ į
à §į
¦ ¿
à ¦¿
à§į à
à§įà ¦
¦ ¨
à ¦¨
¦ ķ
à ¦ķ
à¦¿ à
¦ ¬
à §
à ¦¬
à¦¿à ¦
¦ ¸
à ¦¸
¦ ¼
à ¦¼
¦ ®
à ¦®
¯ à¦¼
à§ĩ à
à§ĩà ¦
¦ ª
à ¦ª
¦ ¤
à ¦¤
à¦¾à¦ °
à§ ģ
¦ ²
à ¦²
Ġ à¦ķ
Ġ à¦¸
Ġ à¦¬
¦ ¦
à ¦¦
à§ĩ à¦°
à§ ĭ
Ġ à¦ª
à§į à¦°
¦ ¹
à ¦¹
à§įà¦ ¯
¦ Ĩ
à ¦Ĩ
¦ ¯à¦¼
à ¦¯à¦¼
à§ Ģ
à¦¾à¦ ¨
¦ ı
à ¦ı
à ¥
à¥ ¤
Ġ à¦Ĩ
¦ ľ
à ¦ľ
Ġ à¦®
Ġ à¦ı
¦ Ĺ
à ¦Ĺ
Ġ à¦¨
Ġ à¦¹
¦ Ł
à ¦Ł
à§įà¦ ¤
Ġ à¦¦
¦ ¶
à ¦¶
Ġà¦ķ à¦°
¦ ħ
à ¦ħ
Ġ à¦¤
à§ĩ à¦¨
¦ ļ
à ¦ļ
¦ ĩ
à ¦ĩ
Ġ à¦ħ
Ġ à¦ľ
¦ Ń
à ¦Ń
à¦¿ à¦ķ
à¦¾à¦ ²
à¦¿à¦ ¯à¦¼
à¦¾à¦ ¯à¦¼
¦ ¯
à ¦¯
à¦¿ à¦¨
¦ ĵ
à ¦ĵ
à¦¾à¦ ®
à¦° à§įà¦
Ġà¦ª à§įà¦°
Ġ à¦°
¦ ¡
à ¦¡
Ġ à§
Ġ à¦¶
à¦¿à¦ ¤
¦ ¥
à ¦¥
à¦¾à¦ ķ
¦ Ľ
à ¦Ľ
Ġ à¦¯
¦ ĸ
à ¦ĸ
à§ĩà¦ Ľ
¦ §
à ¦§
Ġ à¦Ĺ
à¦¾à¦ ¦
à§įà¦ Ł
¦ ī
à ¦ī
Ġ à¦ļ
à§įà¦ ¬
¦ «
à ¦«
à¦¾à¦ ¤
à¦¿ à¦°
à¦¾à¦ ¬
Ġà¦¬ à¦¿à¦
à¦¾à¦ ¸
¦ Ĥ
à ¦Ĥ
¦ £
à ¦£
à¦¾à¦ ĩ
Ġ à¦ĵ
à¦ķ à§ĩ
Ġ à¦ī
à¦¿à¦ ²
à§ģ à¦²
Ġ à¦Ń
à§ĩà¦ ²
à§ĩà¦ ¶
à§ģ à¦°
à§įà¦ ·
à¦¾à¦ ľ
Ġà¦¹ à¦¯à¦¼
â Ģ
à¦¤ à§ĩ
Ġà¦ª à¦°
à¦¨ à§įà¦
Ġ à¦¥
Ġà¦ı à¦ķ
à§ ¦
à¦¡ à¦¼
Ġ à¦²
Ġà¦¸ à¦®
à§ĩà¦Ľ à§ĩ
à¦¾à¦ ¹
à¦¿à¦¯à¦¼ à§ĩ
à¦Ł à¦¿
Ġ à¦«
Ġ à¦ĩ
à§ Ĥ
à§ ĥ
§ à§
à¦¬ à§ĩ
à§ĩà¦ ĩ
à¦¿à ¦¬
à¦¾à¦ ª
à§įà¦ ª
Ġ à¦ĸ
¦ ·
à ¦·
Ġ à¦Ľ
à§įà¦ ¥
Ġà¦¬ à¦²
Ļ à§įà¦
Ġà¦ħ à¦¨
à¦¿à¦ ¸
Ġà¦Ĩ à¦®
à§ĩ à¦ķ
Ġà¦ķà¦° à§ĩ
Ġ à¦Ł
à§ĩà¦ ĸ
¡ à¦¼
à¦¨ à§įà¦¤
Ġà¦¬ à¦¾à¦
à§ģ à¦¨
Ġà¦ľ à¦¨
à¦¿à¦ ¶
à§ĭ à¦¨
Ļà§įà¦ Ĺ
¦ ĺ
à ¦ĺ
à¦ķ à§įà¦·
à§ĩà¦ ¯à¦¼
Ġà¦¬ à§įà¦¯
à§įà¦ ²
à§Ģ à¦°
Ġ Ġ
à§ĩ à¦ķà§ĩ
Ġà¦¨ à
Ġà¦¨à ¦
Ġà¦¨à¦ ¾
Ġà§ ¨
à¦ķ à§įà¦¤
à¦¾à¦ Ĺ
à§įà¦ ®
à§ĭ à¦Ĺ
à§ĩà¦ Ł
à¦¦ à§ĩà¦°
Ġ à¦¡
Ġà¦¥ à§ĩà¦ķà§ĩ
à¦¾à¦ ¶
Ġà¦¸ à¦Ĥ
à¦² à§ĩ
Ġà¦¤ à¦¾à¦°
Ġà¦ı à¦¬
à§ĩà¦ ¤
à¦¾à¦¦ à§ĩà¦°
à¦ķ à¦¾à¦°
Ġà¦ªà§įà¦° à¦¤
à¦¦ à§įà¦
Ġ à¦§
Ġ à¦ĺ
à¦¨ à§ĩ
à¦¿à¦ ľ
à¦¾à¦ ļ
à¦¿à¦ ®
Ġà¦ı à¦ĩ
à¦¿à¦ Ł
Ġà¦Ĩ à¦°
¦ Ļà§įà¦Ĺ
à ¦Ļà§įà¦Ĺ
à§Ģ à¦¯à¦¼
à¦¨ à§ĩà¦°
à§ §à§
à¦¾à¦ §
à¦¾à¦ ģ
Ġà¦ıà¦¬ à¦Ĥ
à¦¾à¦ Ł
Ġ (
à¦¿à¦¤ à§ĩ
à¦¿à¦ ¦
à§įà¦ ¨
Ġà¦ľ à¦¾à¦¨
Ġà¦ª à¦¾à¦°
à¦¬ à¦¾à¦°
à§ĩà¦ ĵ
Ġà¦ī à¦ª
à§įà¦ ķ
Ġà¦ķà¦° à
Ġà¦ķà¦°à ¦
Ġà¦ķà¦°à¦ ¾
¦ ł
à ¦ł
à¦°à§įà¦ ¬
à§įà¦ Ľ
à§ĩ à¦®
à¦¾à¦ ĵ
à§ĩà¦Ľ à§ĩà¦¨
à¦¾à¦ ¡à¦¼
à¦° à
à¦°à ¦
à§ĩà¦ ·
à¦¨ à
à¦¨à ¦
à§įà¦ ļ
à¦¨à¦ ¾
à§ĭ à¦°
Ġ âĢ
à¦°à¦ ¾
à§įà¦ ¡
Ġà¦¦ à§ģ
à¦¯à¦¼ à¦¾à¦°
à¦¤ à¦¿
Ġà¦® à§ģ
à¦¸ à§įà¦¥
à§ ¨
Ġà§ §à§
âĢ Ļ
Ġà¦ľà¦¨ à§įà¦¯
à§ Į
à§ģ à¦·
à§ Ī
à§ĩ à¦¸
à¦Ľ à§ĩ
à§įà¦ ¸
à¦¾à¦¬ à§ĩ
à¦ª à§įà¦°
Ĥ à¦²
Ġà¦¤ à¦¿à¦¨
à¦¦à§įà¦ §
à¦¾à¦ķ à§ĩ
à¦Ł à
à¦Łà ¦
à¦Łà¦ ¾
Ġà¦ķ à¦¾à¦°
à¦¯à¦¼ à
à¦¯à¦¼à ¦
à¦¨à§įà¦ ¦
à¦¿à¦ ·
à§įà¦¯ à¦¾à¦¨
à¦¯à¦¼à¦ ¾
à¦° à§ĩ
Ġà¦¨ à¦¿
à¦¨à§įà¦¤ à§įà¦°
Ġà¦Ĩ à¦²
Ġà¦¹ à¦¬à§ĩ
Ġà¦¹à¦¯à¦¼ à§ĩà¦Ľà§ĩ
à§įà¦ ¦
à¦ĸ à¦¨
à¦® à¦¾à¦¨
à¦§ à§įà¦¯
Ġà§¨ à§¦
à¦° à§įà¦¤
à¦¿à¦ Ĥ
Ġà¦¬à¦¿à¦ ¶
à§ĥ à¦¤
Ġà¦¦ à§ĩà¦ĸ
Ġà¦Ĩ à¦¸
à§ĩà¦ ¦
à§įà¦ ľ
à¦ľ à¦¨
Ġà¦® à§ĭ
à¦¾à¦ķ à
à¦¾à¦ķà ¦
à¦¾à¦ķà¦ ¾
Ġà¦® à¦¾à¦¨
à¦¾à¦ ĸ
à¦ª à¦°
Ġà¦¸ à§įà¦¬
Ġà¦¬à¦¾à¦ Ĥà¦²
à§įà¦ ł
Ġà¦Ĩ à¦Ĺ
Ġà¦ı à¦°
à§ģ à¦®
Ġà¦ħ à¦¬
Ġà¦ķ à§ĭà¦¨
à¦¾à¦¦ à§ĩà¦¶
Ġà¦ķà¦° à¦¤à§ĩ
. .
à¦¨ à¦¿
Ġà¦¨ à¦¿à¦¯à¦¼à§ĩ
à¦¿à¦ ª
Ġà¦Ĩ à¦ª
Ġà¦ıà¦ķ à¦Łà¦¿
à¦¤ à
à¦¤à ¦
à¦¾à¦¤ à§ĩ
à¦¾à¦¨ à§ĩ
Ġà¦¸ à§ģ
Ġà¦Ĺ à§įà¦°
à§ĩ à¦¬
Ġà¦ħ à¦Ń
Ġà¦¤à¦¿à¦¨ à¦¿
à¦¾à¦ ¥
à¦¨à§įà¦ §
à¦¿à¦¯à¦¼ à
à¦¿à¦¯à¦¼à ¦
Ġà¦¸à¦® à§įà¦ª
à¦¿à¦¯à¦¼à¦ ¾
à¦¾à¦ Ĥ
Ġà¦¸à¦® à¦¯à¦¼
à§ĩà¦ ľ
à¦¤à¦ ¾
à¦¿à¦ķ à§įà¦·
à¦¨ à¦¾à¦°
à¦¸ à§įà¦¤
à¦¿à¦ ī
à¦¾à¦¤ à§įà¦°
Ġà¦ķ à¦®
à¦¿à¦ Ľ
¦ ŀ
à ¦ŀ
Ġà¦® à¦§à§įà¦¯
ĠâĢ ĺ
à§ĭ à¦²
à¦¾à¦¨ à§įà¦¤
à¦¿à¦ ļ
à¦¾à¦ Ľ
à§ģ à¦ķ
Ġà¦¸ à¦¬
Ġà¦¸ à¦°
Ġà¦¯ à§ĩ
i n
à§ĭ à¦®
à§įà¦Ľ à§ĩ
Ġà¦¬à§įà¦¯ à¦¬
à¦¾à¦ľ à¦¾à¦°
Ġà¦Ľ à¦¿à¦²
à¦ª à§ģà¦°
Ġà¦¬à¦¿à¦ Ń
à¦¤ à§įà¦¤
Ġà¦¦ à§ĩà¦¶
Ġà¦¬à¦¾à¦Ĥà¦² à¦¾à¦¦à§ĩà¦¶
à§įà¦¯ à¦¾à¦²
à§ «
Ġà¦¬à¦² à§ĩà¦¨
a n
à§ĩà¦Ľ à¦¿à¦²
à¦¿à¦ķ à§ĩ
Ġà¦¥ à¦¾à¦ķ
Ġà¦ķà¦° à§ĩà¦¨
à§ģ à¦ķà§įà¦¤
à§ĩà¦² à
à§ĩà¦²à ¦
à§ ©
à§ĩà¦²à¦ ¾
Ġà§¨à§¦ à§§à§
à¦Ļà§įà¦Ĺ à§ĩ
à¦§ à¦¾à¦¨
Ġà¦¹à¦¯à¦¼ à§ĩ
Ġà¦ª à¦¡à¦¼
à§ģ à¦¬
¦ ¢
à ¦¢
à¦¿à¦¨ à§įà¦¤
à¦Ĺ à§įà¦°
à§ ª
¦ ģ
à ¦ģ
à§ģà¦° à§ģ
Ġà¦ķ à¦¥
à¦¤ à§įà¦¯
à¦¾à¦ £
à§ĭ à¦ķ
à¦° à§ĩà¦°
à§ĭ à¦Ł
à¦¾à¦² à§ĩ
Ġà¦° à¦¾à¦ľ
Ġà¦Ĩ à¦¬
à¦¾à¦° à
à¦¾à¦°à ¦
e r
à¦¾à¦°à¦ ¾
à¦¾à¦® à§Ģ
à¦°à§įà¦ ®
à¦¿à¦ ¯
Ġà¦ķ à¦¾à¦ľ
à¦°à§įà¦ ¥
Ġà¦¨ à¦¾à¦®
à¦¾à¦° à§ĩà¦°
Ġà¦¬à¦¿à¦¶ à§įà¦¬
Ġà¦ı à¦¸
à¦¸ à¦²
à¦¿à¦Ľ à§ģ
à¦¾à¦ ·
Ġà¦ªà§įà¦° à¦ķ
à§ §
à§ĩà¦¨ à§įà¦Ł
à¦¯à¦¼ à§ĩ
à§Ģ à¦¨
à§Ģ à¦¬
Ġà¦®à¦§à§įà¦¯ à§ĩ
à¦¿à¦ ¡
Ġà¦¸ à¦Ļà§įà¦Ĺà§ĩ
Ġà¦¬ à¦Ľ
Ġà¦¹ à¦²
Ġà¦¯ à¦¾à¦¯à¦¼
à§įà¦ ŀ
Ġà¦ĺ à¦Ł
à¦¸ à§įà¦¯
Ġà¦¦ à¦¿à¦¨
Ġà¦ı à¦®
à§įà¦¬ à¦°
Ġà¦¸ à¦¹
Ġà¦¤ à¦¾à¦¦à§ĩà¦°
à¦¾à¦¨ à§ĩà¦°
à§ °
Ġà¦ķà¦° à§įà¦®
Ġà¦¶ à¦¿à¦ķà§įà¦·
Ġà¦ķ à§ĭ
Ġà¦¬à¦² à§ĩ
à§įà¦Ł à§įà¦°
à¦¬ à¦¾à¦¦
o n
à¦¾à¦ ī
à¦¿à¦¨à§įà¦¤ à§ģ
Ġà¦¬à¦¿à¦ ·
¦ Ŀ
à ¦Ŀ
Ġà¦ķ à¦¿à¦Ľà§ģ
Ġà¦¸à¦° à¦ķà¦¾à¦°
à¦° à¦£
à¦¯à¦¼ à§ĩà¦°
Ġà¦ķ à§įà¦·
Ġà¦¦ à¦¿à¦¯à¦¼à§ĩ
à§ĩà¦ ª
à¦¤ à§įà¦°
à¦¾à¦ «
à¦¿à¦ ¹
à¦Ĺ à§ģà¦²
Ġà¦¨à¦¿ à¦°à§įà¦¬
à¦· à§įà¦Ł
Ġ :
à¦¤ à§ĭ
a t
a r
Ġà¦Ĩ à¦ĩ
à¦¤ à¦¾à¦°
à¦¿à¦ ĵ
à§ģ à¦¦à§įà¦§
à§Ĥ à¦²
à¦¿à¦ Ń
Ġà¦ķà¦¥ à
Ġà¦ķà¦¥à ¦
Ġà¦ķà¦¥à¦ ¾
à¦² à
à¦²à ¦
Ġà¦¬ à§ĩà¦¶
Ġ à¦¢
Ġà§ §
Ġà¦® à¦¹
Ġà¦®à¦¾à¦¨ à§ģà¦·
Ġ 2
à¦¬ à¦°
à§ĩà¦ ¡
à¦ķ à§įà¦°
à§ İ
à§ĭ à¦§
à¦¿à¦ ı
Ġà¦¬ à
Ġà¦¬à ¦
à¦¾à¦° à¦£
à§ĭ à¦¸
Ġà¦¬à¦ ¾
à¦°à§įà¦ £
à¦¾à¦° à§ĩ
à§Ģ à¦¦à§ĩà¦°
Ġà¦¨ à¦¿à¦ľ
Ġà§ ©
Ġà¦ħà¦¨ à§ĩà¦ķ
à§įà¦¯ à¦®
Ġà¦¬à¦¾à¦ ¡à¦¼
à§ ®
Ġà¦ļ à¦²
Ġà¦¦ à¦²
à¦¬ à§įà¦¯
Ġà¦ķà¦° à¦¾à¦°
à¦¿à¦ Ĺ
à¦ŀ à§įà¦ľ
à§ Ń
à¦ĵ à¦¯à¦¼
Ġà¦¹ à¦¾à¦¸
Ġ t
à¦¾à¦¨ à
à¦¾à¦¨à ¦
Ġà¦¹ à¦ļ
Ġà¦¸ à¦¾à¦®
à¦¾à¦¨à¦ ¾
Ġà¦ķ à¦¿à¦¨à§įà¦¤à§ģ
à¦ķ à§ĩà¦°
à¦²à¦ ¾
Ġà¦¤ à¦¾à¦ģ
à¦¨à§įà¦¤à§įà¦° à§Ģ
à§Ģ à¦Ĺ
Ġà¦ªà§įà¦° à¦§à¦¾à¦¨
à§ ¬
à¦¨à§įà¦ ¨
à§ģà¦² à¦¿à¦¶
Ġà¦¨ à¦¿à¦¯à¦¼
Ġà¦Ĩà¦® à¦¿
à¦² à§įà¦ª
Ġà¦Ĩà¦® à¦¾à¦°
à¦Ń à¦¾à¦¬à§ĩ
Ġà¦ªà¦° à¦¿à¦¬
Ġà¦ĩ à¦ī
à§Ģ à¦¤
à¦¾à¦ ł
Ġà¦Ĩ à¦¹
Ġà¦° à¦¾à¦ĸ
à§ ¯
Ġà¦Ń à¦¾à¦°
Ġà¦¸ à§įà¦¥
e s
Ġà¦¶ à§ģà¦°à§ģ
à¦¿à¦¨ à§įà¦¨
o r
à¦¿à¦ ĸ
à§ĩà¦² à§ĩ
à§ĩà¦¯à¦¼ à§ĩ
Ġà¦ı à¦²
à¦¾à¦° à§įà¦¥
Ġà¦ı à¦ĸà¦¨
Ġ -
à¦¾à¦² à§ĭ
§ İ
e n
Ġà¦ķ à§ĩà¦¨
à¦¥ à¦®
Ġà¦¨ à§ĩà¦¤
Ġà¦ªà¦° à§įà¦¯
Ġ |
Ġà¦¹ à¦¿à¦¸
Ġà¦¬ à¦¿à¦°
Ġà¦¨à¦¿à¦°à§įà¦¬ à¦¾à¦ļ
Ġà¦ª à§ģà¦²à¦¿à¦¶
Ġà¦¸ à¦¦
Ġà¦Ĩà¦® à¦¾à¦¦à§ĩà¦°
Ġà¦¹à¦ļ à§įà¦Ľà§ĩ
à¦¸ à¦®
Ġà¦° à¦¯à¦¼
Ġà¦® à¦¾à¦°
Ġà¦Ĩ à¦ľ
Ġà¦¸ à¦Ń
à§ĩà¦¯à¦¼ à¦¾à¦°
Ġà¦¤ à
Ġà¦¤à ¦
Ġà¦¤à¦ ¾
Ġà¦ľ à¦¾à¦¤
Ġà¦ªà§įà¦° à¦¶
à¦¾à¦¥ à§ĩ
à¦°à§įà¦ ·
o m
Ġà¦ķà¦¾à¦° à¦£
Ġà¦ķ à¦¾à¦Ľ
à¦¬ à§ĩà¦¨
à¦¿à¦¯à¦¼ à¦¾à¦°
à¦°à§įà¦ ķ
Ù İ
à§ģ à¦Ł
Ġà¦¸ à§ĩà¦ĩ
à¦¯ à§ĭà¦Ĺ
à§ģ à¦§
Ġà¦ħà¦Ń à¦¿à¦¯
à§ĩ à¦¬à§ĩ
Ġà¦īà¦ª à¦ľ
à¦¾à¦ Ń
¦ ĥ
à ¦ĥ
à¦¾à¦¡à¦¼ à
à¦¾à¦¡à¦¼à ¦
à¦¾à¦¡à¦¼à¦ ¾
Ġà¦Ĩ à¦Ľà§ĩ
à¦ķ à¦¾à¦²
à§ĭ à¦°à§įà¦
Ġà¦Ĩà¦® à¦°à¦¾
Ġà¦ķ à¦¿
Ġà¦ªà¦¾à¦° à§ĩ
à§ģà¦· à§įà¦ł
à¦Ľ à§ĩà¦¨
Ġà¦¤à¦¾à¦° à
Ġà¦¤à¦¾à¦°à ¦
Ġà¦¤à¦¾à¦°à¦ ¾
Ġà¦ķ à¦²
Ġà¦¸ à¦¾à¦¥à§ĩ
Ġà¦Ĩ à¦¦
Ġà¦¶ à§ĩà¦·
à§ĩà¦® à§įà¦¬à¦°
Ġà¦ķà¦° à§ĩà¦Ľà§ĩ
Ġà¦ķà§ĭà¦¨ à§ĭ
à¦¾à¦¨ à§ĭ
Ġà¦ĩ à¦¸à¦²
à¦¨à§įà¦ ¡
Ġà¦ķ à§įà¦°
Ġà¦ªà§įà¦° à¦¥à¦®
Ġà¦¨ à¦¯à¦¼
à¦¹ à¦¾à¦°
à¦¦ à¦¿à¦¨
a l
Ġà¦¸ à§ĩ
à¦¾à¦§ à§įà¦¯à¦®
Ġà¦¬à¦Ľ à¦°
à§įà¦ §
Ġà¦¬ à§ĩà¦
à§ģ à¦¦
Ġà¦¬ à¦¾à¦¸
Ġà¦Ł à§įà¦°
à¦° à¦¿
Ġ 1
Ġà¦¤ à¦¬à§ĩ
à§ĭ à¦ª
à¦¾à¦ĵ à¦¯à¦¼à¦¾
Ġà¦Ł à¦¾à¦ķà¦¾
à¦¿à¦ §
à¦¤ à§ģà¦¨
à¦¾à¦ĩ à¦²
à¦¾à¦¦ à¦ķ
à§ĭ à¦·
Ġà¦¬à¦¿à¦ ľ
Ġà¦¨ à§ĩà¦ĩ
à¦¾à¦¨ à¦¿
Ġà¦Ĺ à¦¤
0 1
à¦¿à¦¬ à¦¾à¦°
Ġà¦¶ à§įà¦°
Ġà¦¦à§ģ à¦ĩ
Ġà¦¬à¦¿à¦Ń à¦¾à¦Ĺ
Ġà¦°à¦¯à¦¼ à§ĩà¦Ľà§ĩ
Ġà¦¦ à§ĩà¦¯à¦¼
Ġà§ «
Ġà¦° à¦¹
.. .
Ġà¦¬à¦¿à¦ ¦
à§¨ à§¦
à¦¯à¦¼ à§ĭ
à¦°à§įà¦ ľ
§ °
Ġà¦¹ à¦¾à¦ľà¦¾à¦°
Ġà¦¦ à¦¿à¦¯à¦¼
Ġà¦Ĩà¦Ĺ à§ĩ
Ġà¦ķà¦° à§ĩà¦Ľà§ĩà¦¨
à¦¾à¦° à§Ģ
à¦¦ à¦¿
Ġà¦ªà§įà¦°à¦ķ à¦¾à¦¶
à¦¾à¦² à§ĩà¦°
Ġà¦ıà¦® à¦¨
Ġà¦ħà¦¨ à§ģ
à¦¿à¦Ł à¦¿
Ġà¦ĩà¦¸à¦² à¦¾à¦®
à¦¸ à§įà¦ķ
à¦¦à§įà¦ ¦
à¦¾à¦· à§įà¦Łà§įà¦°
à¦°à§įà¦ ¶
à¦¾à¦ĩ à¦¨
Ġà¦¬à¦¿à¦Ń à¦¿à¦¨à§įà¦¨
à¦¨ à¦¾à¦¯à¦¼
Ġà¦¬ à¦¿à¦ķ
Ġà¦ī à¦¦
Ġà¦ªà¦° à¦¿à¦ļ
Ġà¦¹ à¦¤à§ĩ
Ġà¦¬ à¦¡à¦¼
Ġà§ ª
à§ģ à¦¤
Ġà¦¦ à§ĩà¦ĵ
Ġà¦ħ à¦°à§įà¦¥
à§ĭ à¦ļ
Ġà¦ļ à¦¾à¦²
à§įà¦ Ń
Ġà¦ħà¦¨ à§įà¦¯
à§ĩà¦ ¹
Ġà¦ĵ à¦¯à¦¼
Ġà¦¬ à§ĥ
à§ĩà¦² à¦¾à¦°
Ġà¦ª à§ģà¦°
à¦¿à¦· à§įà¦ł
à¦¨ à§įà¦¯
à¦¸ à¦¹
Ġà¦¨ à¦¤à§ģà¦¨
à¦¿à¦ķ à¦¾à¦°
Ġà¦® à¦¾à¦¸
h e
Ġà¦¬ à¦¾à¦°
Ġ s
à¦¬ à¦¿
Ġà¦ª à§Ĥ
Ġà¦Ĩ à¦¶
à¦¿à¦¤ à§įà¦°
à¦ķ à¦²
à¦® à¦¿à¦ķ
i t
à§įà¦² à¦¾à¦¹
à§įà¦Ł à¦¾à¦°
à¦Ĩ à¦®
à§įà¦¦ à§įà¦°
Ġà¦ħà¦¨ à§ģà¦·à§įà¦ł
Ġà¦ħ à¦§
Ġà¦¬à¦¿à¦· à¦¯à¦¼
i s
à¦¾à¦ķ à¦¾à¦°
Ġ à¦ł
à¦ª à¦¿
Ġà¦Ńà¦¾à¦° à¦¤
à¦°à§įà¦ ¦
Ġà¦ķà¦¾à¦Ľ à§ĩ
Ġà¦Ĩà¦ª à¦¨à¦¾à¦°
à¦ª à§įà¦¤
Ġà¦®à§ģ à¦ĸ
Ġà¦® à¦¨à§ĩ
Ġà¦Ĩ à¦¨
à¦¾à¦ ¯
Ġà¦ħà¦¬ à¦¸à§įà¦¥
à¦Ĺà§ģà¦² à§ĭ
Ġà¦® à¦¾à¦®
Ġà¦® à¦¾à¦§à§įà¦¯à¦®
Ġà¦ľà¦¾à¦¨ à¦¾à¦¨
Ļà§įà¦ ķ
Ġà¦¹à¦¿à¦¸ à§ĩà¦¬à§ĩ
Ġà¦¤ à¦¥
l e
Ġà¦ĩ à¦¨
à¦¤ à¦¿à¦ķ
Ġà¦® à¦¨
à¦¾à¦ĩ à¦Ł
Ġà¦ľ à§Ģà¦¬
à§įà¦Ł à
à§įà¦Łà ¦
à§įà¦Łà¦ ¾
o u
Ġà¦¬ à¦¨à§įà¦§
Ġà¦¤ à§ģà¦²
Ġà¦¦ à§įà¦¬
Ġ à¥¤
à§ĩà¦¤ à§ĩ
à¦¸ à§įà¦Ł
Ġà¦ħ à§įà¦¯
à¦Ĥ à¦¶
Ġ b
à¦¿à¦ «
Ġà¦ıà¦ķ à¦Łà¦¾
à¦ŀ à§įà¦ļ
à¦¬ à¦¿à¦¦
Ġà¦¨ à¦¿à¦°
Ġà§§ à§¦
à¦® à¦¨à§įà¦¤à§įà¦°à§Ģ
à§Ģà¦° à
à§Ģà¦°à ¦
à§Ģà¦°à¦ ¾
Ġà¦ī à¦¤à§įà¦¤
Ġà¦¸ à¦¾à¦§
à¦¾à¦® à§ĩà¦°
Ġà¦ĵ à¦ĩ
à¦¸ à§įà¦¬
à§ģ à¦¯à¦¼à¦¾à¦°
Ġà¦® à§įà¦¯
Ġà¦§ à¦°
Ġà¦¹ à¦¾à¦°
Ġà¦® à§ĥà¦¤
à§ĭ à¦¯à¦¼
à§įà¦¯à¦¾à¦¨ à§įà¦¡
Ġà¦¸ à¦¾à¦°
Ġà¦°à¦¹ à¦®à¦¾à¦¨
à§ģà¦¦à§įà¦§ à§ĩ
à§ĭ à¦¹
Ġà¦¬à§ĩà¦¶ à¦¿
Ġà¦ī à¦ł
Ġà¦ľà¦¾à¦¤ à§Ģà¦¯à¦¼
à¦¿à¦¸ à§įà¦¤
Ġà¦¸à¦¦ à¦¸à§įà¦¯
Ġà¦¬ à¦¸
Ġà¦ªà¦°à§įà¦¯ à¦¨à§įà¦¤
Ġà¦Ń à¦¾à¦²à§ĭ
Ġà¦¦à§ĩà¦ĸ à
Ġà¦¦à§ĩà¦ĸà ¦
Ġà¦¦à§ĩà¦ĸà¦ ¾
Ġ S
Ġ B
à§ĩà¦¤ à§įà¦°
à¦¬ à¦¾à¦¸
r e
ĠĠ Ġ
Ġà¦¹ à¦ĵ
Ġà¦¤ à¦¾à¦ĩ
Ġà¦¬ à§įà¦°
Ġ à¦Ŀ
Ġà¦¯ à
Ġà¦¯à ¦
à¦¤ à§įà¦¬
à§ĩà¦¶ à¦¨
à¦¾à¦¯à¦¼ à§Ģ
Ġà¦Ĺ à§ĩà¦Ľà§ĩ
Ġà¦¯à¦ ¾
Ġà¦¤ à§ĭ
Ġà¦ħ à¦ªà¦°
Ġà¦Ľ à¦¾à¦¤à§įà¦°
à§ģ à¦¡à¦¼
à§Ģ à¦ķà§įà¦·
Ġ A
à¦¨ à§Ģ
Ġà¦¬à¦¿à¦ ı
Ġà¦¤ à§Ī
Ġà¦¹ à§ĭà¦¸
à¦ķà§įà¦· à§ĩ
à§ĩà¦Ľà¦¿à¦² à§ĩà¦¨
Ġà¦ħà¦Ńà¦¿à¦¯ à§ĭà¦Ĺ
Ġà¦¤à¦¾à¦ģ à¦°
à§įà¦¯ à
à§įà¦¯à ¦
Ġà¦ĩà¦ī à¦¨
à§įà¦¯à¦ ¾
Ġà¦ħ à¦ª
à¦ķ à¦®
Ġà¦¯ à§ĭà¦Ĺ
Ġà¦ª à¦¾à¦²
à§ģ à¦ģ
Ġà¦¦à§ĩà¦¶ à§ĩà¦°
à§ĩà¦Ľ à¦¿
e d
Ġà¦¸à¦Ĥ à¦¬à¦¾à¦¦
i c
à¦ª à¦¾à¦¤
à§įà¦¯ à§ĩ
Ġà¦ķà¦° à§ģà¦¨
Ġ p
Ġ c
à¦¿à¦ķ à
à¦¿à¦ķà ¦
à¦¿à¦ķà¦ ¾
à¦² à¦¾à¦°
Ġà¦¢ à¦¾à¦ķà¦¾
Ġà¦¸ à§įà¦Ł
Ġà¦¦ à¦¾à¦¬
Ġà¦ªà§įà¦°à¦¤ à¦¿à¦¬
Ġà¦¬à§įà¦¯à¦¬ à¦¹à¦¾à¦°
à§ģ à¦ľ
à¦² à§ĩà¦¨
Ġà¦¥ à¦¾à¦ķà§ĩ
Ġà§ ¬
à¦¯à¦¼ à¦¨
Ġà¦ªà§įà¦°à¦¤ à¦¿à¦·à§įà¦ł
Ġà¦Ľà¦¿à¦² à§ĩà¦¨
Ġà¦¬à¦¿à¦ ª
Ġà¦® à¦¤à§ĭ
Ġà§ ¦
à§ģ à¦£
Ġà¦ķ à§įà¦¯
à¦¿à §İ
Ġà¦®à§ģ à¦ķà§įà¦¤
Ġà¦¸à¦Ń à¦¾à¦ª
Ġà¦ª à¦¦
Ġ a
Ġà¦¸ à§įà¦ķ
Ġà¦ķ à¦¯à¦¼
Ġà¦¸ à¦°à§įà¦¬
à¦¿à¦· à§įà¦Ł
Ġà¦¶ à¦¹
à§ĭà¦°à§įà¦ Ł
Ġà¦¯ à¦¾à¦ļ
Ġà¦¸à¦®à§įà¦ª à¦¾à¦¦à¦ķ
Ġà¦ķà¦°à§įà¦® à¦ķ
Ġ2 01
Ġà¦ī à¦ļ
à¦¾à¦¯à¦¼ à§ĩà¦°
Ġà¦¤à¦¥ à§įà¦¯
Ġà¦¹ à¦²à§ĩ
à¦¿à¦¤ à§įà¦¬
à§įà¦¯ à§ģ
à§¦ à§¦
Ġà¦¸ à¦¾à¦¹
Ġà¦ª à¦¾à¦¶
Ġà¦ħ à¦Ĥà¦¶
à¦¾à¦ Ļà§įà¦Ĺ
à¦² à§įà¦²
Ġà¦¬ à¦¿à¦¨
à¦¸ à
à¦¸à ¦
Ġà¦¦ à¦¿à¦ķà§ĩ
âĢ Į
Ġà¦¦ à¦¿à¦¤à§ĩ
Ġà¦® à§Ĥà¦²
à§Ĥ à¦°à§įà¦£
Ġà¦¯ à¦¦à¦¿
à¦¾à¦ ¡
Ġà¦ļ à¦¾à¦°
Ġà¦®à¦¾à¦§à§įà¦¯à¦® à§ĩ
Ġà¦ĸ à§ģà¦¬
à¦¯ à§ģà¦ķà§įà¦¤
Ġ P
à¦¸à¦ ¾
à§ĩà¦ Ĺ
Ġà¦² à¦¾à¦Ĺ
à¦Ĺ à¦ŀà§įà¦ľ
à¦ĵà¦¯à¦¼ à¦¾à¦®à§Ģ
Ġà¦¦ à¦¿à¦²
Ġà¦¹à§ĭà¦¸ à§ĩà¦¨
à¦¿à¦¨ à¦¿
Ġà¦¸à¦®à§įà¦ª à¦°à§įà¦ķ
à¦¯à¦¼à§ĭ à¦ľà¦¨
à§Ģ à¦¤à§ĩ
Ġà¦ªà¦¾à¦° à§ĩà¦¨
à¦¾à¦¸ à§įà¦¤
Ġà§ Ń
Ġà¦¬à¦¿à¦° à§ģà¦¦à§įà¦§à§ĩ
Ġà¦ī à¦¨à§įà¦¨
Ġà¦ķ à§Ģ
à¦¾à¦® à§įà¦ª
Ġà¦¬ à§Ī
Ġà¦¬à¦¿à¦ı à¦¨
à¦¾à¦¸ à§įà¦¥
à§ģ à¦ĸ
Ġà¦ªà§įà¦° à¦¾à¦¯à¦¼
Ġà¦Ĩà¦° à¦ĵ
Ġà¦ħ à¦«
à§Ģà¦Ĺ à§ĩà¦°
l a
Ġà¦Ĩà¦ª à¦¨à¦¿
à¦¸à§įà¦¥ à
à¦¸à§įà¦¥à ¦
à¦¸à§įà¦¥à¦ ¾
à¦¾à¦ĵ à¦¯à¦¼à¦¾à¦°
Ġà¦¸à¦¾à¦§ à¦¾à¦°à¦£
à§Ģ à¦²
Ġà¦¶ à¦¤
à¦¹ à¦£
Ġà¦² à§ĩà¦ĸ
Ġà¦¤ à¦¾à¦ķà§ĩ
Ġà¦ľ à§ĩà¦²à¦¾
Ġà¦¶ à¦¿à¦¶
Ġà¦¬à¦¿à¦¶ à§ĩà¦·
Ġà¦® à¦¿à¦²
à¦ķà¦¾à¦° à§Ģ
ĠĠ ĠĠ
Ġà¦¯ à¦¾à¦¬à§ĩ
à¦¨à§įà¦ ®
à§ĥ à¦·à§įà¦Ł
Ġà¦¸ à¦¾à¦Ĥ
Ġà¦¬à§įà¦¯ à¦ķà§įà¦¤
Ġ Ø
à¦² à§ĩà¦°
à¦ı à¦°
Ġà¦® à¦¤
e w
Ġà¦Ĩ à¦Ł
à§ ·
Ġà¦ķ à§ĩà¦
Ġà¦Ń à¦¾à¦ĩ
à¦¾à¦ķ à¦¾à¦¯à¦¼
Ġà¦ķà§ĩà¦¨ à§įà¦¦à§įà¦°
Ġà¦¤ à¦ĸà¦¨
à¦¬à¦¿à¦¦ à§įà¦¯à¦¾à¦²
à¦¿à¦ī à¦ľ
Ġà¦ħ à¦¤
Ġà¦ª à¦¾à¦ł
Ġà¦Ĺ à¦£
Ġà¦¦à§ĩà¦ĵ à¦¯à¦¼à¦¾
à§įà¦¯ à§ĩà¦°
Ġ M
Ġà¦ªà¦° à§Ģà¦ķà§įà¦·
Ġà§ ®
à¦£ à
à¦£à ¦
à§ĩà¦ĸ à¦¾à¦¨à§ĩ
à¦£à¦ ¾
Ġà¦¶ à§ĩà¦ĸ
Ġà¦ħ à¦¸
à¦¿à¦¤ à
à¦¿à¦¤à ¦
à¦¿à¦¤à¦ ¾
Ġà¦ªà§įà¦° à¦¦
à§ĭ à¦ľ
s t
Ġà¦Ĩ à¦ĵà¦¯à¦¼à¦¾à¦®à§Ģ
à§ĥ à¦·
Ġà¦¸ à§ĩà¦Ł
Ġà¦ī à¦¦à§įà¦¦
Ġà¦² à¦ķà§įà¦·
Ġà¦® à§ĩà¦¯à¦¼
Ġà¦ķà¦°à§įà¦®à¦ķ à¦°à§įà¦¤
Ġà¦² à§ĭà¦ķ
Ġà¦ķà¦¯à¦¼ à§ĩà¦ķ
à¦°à§įà¦ ĺ
à§ģ à¦Ĺ
Ġà¦ĸ à¦¬à¦°
à§ĩà¦® à¦¨
à¦¡à¦¼ à
à¦¡à¦¼à ¦
à¦¡à¦¼à¦ ¾
Ġ C
Ġà§§à§ ¯
Ġà¦¸à¦® à§įà¦®
à¦ķ à¦°
Ġà¦¹ à¦¤à§įà¦¯
Ġà¦¬à§įà¦¯ à¦¾à¦ª
Ġà¦ī à§İ
Ġà¦ĺ à§ĭà¦·
à§ģ à¦ª
Ġà¦¬à¦¿à¦ ¸
in g
à¦Ł à§įà¦Ł
Ġà¦ıà¦ķ à¦ľà¦¨
à¦® à
à¦¿à¦¨ à
à¦¿à¦¨à ¦
à¦®à ¦
à¦¿à¦¨à¦ ¾
Ġà¦¸ à§Ĥ
à¦®à¦ ¾
Ġ m
à¦¬ à
à¦¿à¦ £
Ġà¦¬à¦¿à¦¶à§įà¦¬ à¦¬à¦¿à¦¦à§įà¦¯à¦¾à¦²
à¦¬à ¦
Ġà¦ķ à§įà¦²
à¦¬à¦ ¾
Ġà¦¬à¦¿à¦ ļ
Ġà¦§ à¦°à§ĩ
Ġ f
à¦¸ à§įà¦ª
à¦° à¦®
Ġà¦ķà¦¾à¦°à¦£ à§ĩ
Ġà¦Ĩà¦ĩ à¦¨
à¦ı à¦¸
Ġ w
Ġà§¨à§¦à§§à§ ®
Ġà¦¬ à¦°
Ġà¦¸ à¦¾à¦²à§ĩ
Ġà¦ªà¦° à§ĩ
à¦¾à¦Ĥ à¦¶
à¦Ĺà§įà¦° à¦¾à¦®
à¦¸ à¦¿
Ġà¦¸à§įà¦¥ à¦¾à¦¨
Ġà¦ķà¦° à¦Ľà§ĩ
Ġà¦¹ à¦¾à¦®
Ġà¦® à¦¾à¦²
Ġà¦Ĩ à¦¬à¦¾à¦°
à¦¿à¦¯à¦¼ à¦¾à¦¨
Ġà¦« à¦¿à¦°
à¦¬ à¦°à§įà¦¤
Ġà¦®à¦¾à¦¨à§ģà¦· à§ĩà¦°
Ġà¦Ĺ à§ĩà¦²
à¦ļ à¦¾à¦°
Ġà¦ªà§įà¦°à¦¤ à¦¿
à¦¿à¦¯à¦¼ à§ĩà¦Ľà§ĩ
Ġà¦ļ à¦¿à¦ķ
à§ĩà¦ «
âĢ ¦
à¦Ł à¦¿à¦°
Ù Ħ
Ġà¦¤ à¦¾à¦¹
Ġà¦ªà¦°à¦¿à¦ļ à¦¾à¦²
à§įà¦¤ à¦¾à¦°
à¦² à§ĭ
à¦¿à¦¦ à§įà¦§
¦ Ĳ
à ¦Ĳ
à¦ı à¦ĩ
à¦¾à¦¹ à§Ģ
Ġà¦ļ à¦¾à¦ĩ
Ġà§ ¯
âĢ Ŀ
Ġà¦¬ à¦¾à¦¬
à§ĭ à¦¬
Ġà¦¬à¦¾à¦Ĥà¦²à¦¾à¦¦à§ĩà¦¶ à§ĩà¦°
Ġà¦¸à¦® à§įà¦Ń
Ġà¦¹ à¦¾à¦¤
à¦¿à¦¹ à¦¤
Ġà¦īà¦ªà¦ľ à§ĩà¦²à¦¾
Ġà¦¹à¦² à§ĭ
Ġà¦¸ à¦¾à¦¬
0 0
à¦¨à§įà¦¤à§įà¦° à¦£
Ġà¦ĸ à§ĩà¦²
à¦°à§įà¦ §
à¦Ń à¦¾à¦°
à¦¾à §İ
Ġ T
Ġà¦¤à§Ī à¦°à¦¿
¦ Ī
à ¦Ī
à§ģà¦¯à¦¼à¦¾à¦° à¦¿
à¦ı à¦ķ
Ġà¦¨à¦¿à¦°à§įà¦¬à¦¾à¦ļ à¦¨
Ġà¦ª à§Į
Ġà¦ķà§ĩà¦ ī
à¦Ĺ à¦°
i l
à¦¶ à§įà¦¯
Ġà¦Ĩà¦¹ à¦®
à§ģ à¦¯à¦¼
Ġà¦¦ à¦¾à¦¯à¦¼
à¦¨ à¦¿à¦ķ
à¦¸ à¦Ĥ
à§įà¦ŀ à¦¾à¦¨
âĢ ĺ
à¦¾à¦ģ à¦ļ
Ġà¦¯ à§ģà¦ķà§įà¦¤
Ġà¦² à¦¾à¦ĸ
à¦¤ à¦®
à¦¾à¦ª à§įà¦¤
à¦¬ à¦¨à§įà¦§
à§ĩà¦· à§įà¦Łà¦¾
Ġà¦¸ à§įà¦ª
à¦°à§įà¦ ¨
à¦¾à¦ Ĥà¦²
Ġà¦¨à¦¿ à¦°à§įà¦¦
à¦¾à¦¹ à¦¿à¦¨
à¦® à¦¨
à¦¿à¦¶ à§įà¦ļ
Ġà¦¬à¦¿à¦· à¦¯à¦¼à§ĩ
à¦¾à¦¤ à
à¦¾à¦¤à ¦
Ġà¦¸à¦Ńà¦¾à¦ª à¦¤à¦¿
Ġà¦ĩ à¦¤
Ġà¦ªà§Ĥ à¦°à§įà¦¬
Ġà¦¶ à§ģà¦§
à¦¿à¦ķ à§ĩà¦Ł
Ġà¦ł à¦¿à¦ķ
à¦¾à¦¤à¦ ¾
Ġà¦ļ à§ĩà¦¯à¦¼à¦¾à¦°
a d
à§ĩà¦° à
à§ĩà¦°à ¦
Ġ à¦Ĳ
à§ĭ à¦¦
à§Ĥ à¦ª
à¦° à¦¾à¦·à§įà¦Łà§įà¦°
à¦¡à¦¼ à§ĩ
à§ĩà¦°à¦ ¾
à¦® à§įà¦¯à¦¾à¦¨
Ġà¦¬à¦² à
Ġà¦¬à¦²à ¦
Ġà¦¬à¦²à¦ ¾
Ġà¦¸ à§įà¦¤
Ġà¦¦ à§Ĥ
Ġà¦Ĩà¦° à§ĭ
Ġà¦ªà§įà¦°à¦¶ à§įà¦¨
à¦Ł à¦¾à¦°
Ġ N
à¦£ à§ĩà¦°
Ġà¦¬ à¦¿à¦¬
Ġà¦®à§įà¦¯ à¦¾à¦ļ
à¦¾à¦ Ŀ
Ġà¦¹à¦¾à¦¸ à¦ªà¦¾à¦¤
Ġà¦ª à¦¾à¦ĵà¦¯à¦¼à¦¾
à¦¿à¦² à§įà¦ª
Ġà¦¬ à§ģ
à¦ª à¦¾à¦°
Ġà¦ļà¦¿à¦ķ à¦¿à§İ
à ¤
Ùİ Ø
à¦ķ à¦¿
Ġà¦¬à§įà¦¯ à¦¾à¦Ĥ
Ġà¦īà¦ª à¦¸à§įà¦¥
Ġà¦ķà¦² à§ĩà¦ľ
Ġà¦ħà¦« à¦¿à¦¸
Ġà¦¸ à¦ķà¦²
à§įà¦¯ à¦¾à¦ķ
Ġà¦Ĩà¦² à§ĭà¦ļ
à¦¨à§įà¦¦ à¦°
à§Ī à¦¤à¦¿à¦ķ
en t
Ġà¦¸ à¦¾à¦²
Ġà¦¨ à¦¿à¦¹à¦¤
Ġà¦ľ à¦¾à¦®
Ġà¦¤ à¦¾à¦²
à§ĩà¦ķ à§įà¦¸
Ġà¦ķ à¦¾à¦®
à¦¿à¦ ¥
Ġà¦Ń à§Ĥ
Ġà¦° à§ĩà¦ĸ
Ġà¦¨à¦¿à¦ľ à§ĩà¦°
à¦¾à¦° à¦¿
Ġà¦ªà¦¡à¦¼ à§ĩ
Ġà¦ª à¦¥
Ġà¦¬ à¦¹
Ġà¦¶ à¦°
à§įà¦° à§Ģ
Ġà¦ªà§įà¦°à¦§à¦¾à¦¨ à¦®à¦¨à§įà¦¤à§įà¦°à§Ģ
à¦Ľ à¦¿
Ġà¦ĸ à¦¾à¦¨
à¦¾à §°
ĠâĢ ĵ
Ġà¦¦ à§ĩà¦¨
Ġà¦ķà§ĭ à¦Łà¦¿
Ġ d
à¦¬ à¦¾à¦Ĥà¦²
Ġà¦ļ à§Į
Ġ à¦Łà¦¿
Ġà¦² à¦¿à¦ĸ
à¦¾à¦Ł à¦¿
à§ĩà¦¸ à§įà¦Ł
Ġà¦Ĩ à¦¤
Ġà¦¦à¦² à§ĩà¦°
à¦¾à¦¨ à§ĭà¦°
Ġà§§à§ ¨
i on
Ġà¦ķà¦¾à¦° à§įà¦¯
à§ĩà¦¦ à¦¨
à¦¸ à¦¦
à§ĩà¦¤à§įà¦° à§ĩ
à¦Ĺ à¦¤
à§ģ à¦ĩ
ew s
à§ĩà¦¦ à§ĩà¦°
Ġà¦ª à¦¾à¦ķ
à¦ķ à
à¦ķà ¦
à¥¤ âĢĻ
à¦° à¦¾à¦ľ
à¦¾à¦ª à¦¨
Ġà¦ı à¦Łà¦¾
Ġà¦ķà¦° à¦¬à§ĩ
à¦ķà¦ ¾
à¦° à¦¿à¦ķ
à¦¾à¦§ à§Ģà¦¨
à¦Ĩ à¦°
Ġà¦īà¦ª à¦°
Ġ h
Ġà¦Ń à§ĭà¦Ł
à¦¾à¦® à§įà¦®
Ġ D
à¦¾à¦² à§Ģ
à¦ķ à¦¾à¦¶
à¦ª à¦¿à¦°
à¦¸ à¦¬
Ġà¦¡ à¦¿à¦¸
à¦¦ à¦¿à¦ķà§ĩ
i d
à§įà¦ £
Ġà¦Ĺ à¦¿à¦¯à¦¼à§ĩ
Ġà¦ı à¦Łà¦¿
Ġ o
à¦¿à¦¯à¦¼ à§ĩà¦Ľà§ĩà¦¨
Ġà¦¦à§ĩà¦¯à¦¼ à
Ġà¦¦à§ĩà¦¯à¦¼à ¦
Ġà¦¦à§ĩà¦¯à¦¼à¦ ¾
Ġà¦ħ à¦ķ
Ġà¦ªà§įà¦° à¦¸à§įà¦¤
à¦ķà§įà¦° à¦¾à¦¨à§įà¦¤
à¦¤ à¦¾à¦¯à¦¼
à§ĭà¦¨ à
à§ĭà¦¨à ¦
à§ĭà¦¨à¦ ¾
à§ĩà¦¸ à¦¬
à¦¾à¦°à§įà¦¥ à§Ģ
Ġà¦Ĺ à§ģà¦°à§ģ
Ġà¦ªà¦° à¦¿à¦·
à¦¾à¦ĩ à¦ķ
Ġà¦¯ à¦ĸà¦¨
Ġà¦¬à¦² à§ĩà¦Ľà§ĩà¦¨
Ġà¦¬à¦Ľ à¦°à§ĩà¦°
Ġà¦¨ à¦¿à¦¶à§įà¦ļ
Ġà¦¸ à¦«
Ġà¦ªà§įà¦°à¦¤ à§įà¦¯
Ġà¦ĩà¦īà¦¨ à¦¿à¦¯à¦¼
Ġà¦Ĩà¦¦ à¦¾à¦²
à§ĩà¦ķ à§įà¦·
à¦¿à¦ ĩ
à¦¿à¦¨ à§įà¦¦
an g
à§ĩà¦¨ à§įà¦¸
l o
à¦°à§įà¦ Ń
Ġà¦® à¦¾à¦¹
à¦¬ à¦¿à¦°
à§įà¦¯ à¦¾à¦°
Ġà¦¬ à¦¾à¦ľà¦¾à¦°
à¦ķà§įà¦° à¦®
à¦Ĩ à¦ª
à§ģà¦° à§Ģ
Ġà¦¹à¦ĵ à¦¯à¦¼à¦¾à¦°
Ġà¦® à¦¾à¦Ŀ
Ġà¦ª à¦¾à¦¨
à¦¸ à¦¾à¦°
c om
Ġà¦¨à¦¿ à¦°à§įà¦®
à¦¨ à§Īà¦¤à¦¿à¦ķ
à§ĭ à¦Ń
Ġà¦īà¦¤à§įà¦¤ à¦°
Ġà¦¬ à¦ķà§įà¦¤
Ġà§¨à§¦à§§à§ ¯
Ġà¦ı à¦ĸ
Ġà¦¬ à¦¯à¦¼
Ġà¦¸à¦Ĥ à¦ĸ
à¦¨à§įà¦ ¸
Ġà¦ĵ à¦ªà¦°
Ġà¦Ń à¦¾à¦²
Ġà¦¸à¦® à¦¸à§įà¦¯
Ġà¦¸ à¦¾à¦²à§ĩà¦°
Ġà¦¶ à¦¾à¦¹
Ġà¦¤ à§ĭà¦®
à¦¿à¦¡ à¦¿à¦ĵ
à¦² à¦¾à¦®
à¦¾à¦¸à§įà¦¥ à§įà¦¯
à¦¸ à§Ĥ
Ġà¦¦à§ĩà¦¶ à§ĩ
à¦¿à¦¦ à§ĩà¦°
Ġà¦īà¦ªà¦ľ à§ĩà¦²à¦¾à¦°
Ġà¦ľà¦¾à¦¨ à
Ġà¦ľà¦¾à¦¨à ¦
Ġà¦ľà¦¾à¦¨à¦ ¾
à§ģà¦² à§ĭ
a m
à¦Ļà§įà¦Ĺ à¦²
Ġ à¦Ī
Ġà¦Ľ à¦¬à¦¿
à¦¸ à¦°
à§įà¦Ł à§ĭ
à§ĩà¦Ł à§ĩ
Ġà¦¨ à¦¾à¦°
Ġà¦ī à¦¦à§įà¦§
Ġà¦¦ à¦¿à¦¬
Ġà¦¬à¦¾à¦ ģ
à¦¾à¦¡à¦¼ à¦¿
à¦¿à¦ Ļà§įà¦Ĺ
Ġà¦¦ à¦°
à§ĩà¦¨ à§ĩ
à¦Ĺ à¦ł
Ġà¦§ à¦°à§įà¦®
à¦¾à¦Ł à
à¦¾à¦Łà ¦
à¦¾à¦Łà¦ ¾
Ġà¦ĸ à¦¾à¦²
Ġà¦ıà¦¸ à¦¬
Ġà¦¦à¦¾à¦¬ à¦¿
Ġt he
à§įà¦Ľ à§ĩà¦¨
à§ĩà¦ Ń
Ġà¦ķà¦° à§įà¦¤
Ġà¦ıà¦ķ à¦ĩ
Ġà¦Ń à¦¾à¦¬
à¦¡à¦¼ à¦¿à¦¯à¦¼à§ĩ
Ġà¦¥ à¦¾à¦¨
Ġ I
Ġà¦Ľ à§ĭà¦Ł
à¦® à¦¾à¦°
à¦£ à§įà¦¡
Ġà¦ħà¦¨à§ģà¦·à§įà¦ł à¦¿à¦¤
Ġà¦ħà¦Ń à¦¿à¦¨
à¦² à¦¾à¦¯à¦¼
Ġà¦¯à¦¾à¦ļ à§įà¦Ľà§ĩ
Ġà¦ķ à§ĩ
Ġà¦ªà§įà¦° à¦¯à¦¼à§ĭà¦ľà¦¨
Ġà¦ľà§Ģà¦¬ à¦¨
Ġ /
à§ĭ à¦ģ
ĠâĢ ľ
Ġà¦¸ à§įà¦®
Ġà¦ī à¦ĩ
à§įà¦¯ à¦¾à¦¯à¦¼
Ġà¦® à¦¿à¦¨
Ġà¦¸ à¦¿à¦¨
Ùİ Ù
. com
Ġà¦¬ à¦°à§įà¦¤
Ġà¦° à¦¾à¦·à§įà¦Łà§įà¦°
Ġà¦¶à¦¿à¦¶ à§ģ
Ù Ĳ
Ġà¦ªà§įà¦° à¦¬
Ġà¦¶ à§ģà¦¨
Ġà¦¦ à¦¾à¦ģ
Ġà¦¬ à§ĩà¦°
Ġà¦Ĺ à§ĭà¦²
à¦¸ à§ĩ
à§ĩà¦ ļ
Ġà¦Ń à¦¾à¦·
à¦¾à¦¸ à§ĩà¦°
à¦¾à¦ī à¦¨
Ġà¦¨à¦¾à¦® à§ĩ
an d
Ġà¦¯ à§ĩà¦¨
Ġà¦¬à¦°à§įà¦¤ à¦®à¦¾à¦¨
Ġà¦¸à§įà¦ķ à§ģà¦²
à¦¾à¦ķ à§įà¦·
Ġà¦¦ à¦ķà§įà¦·
à¦¬ à¦¾à¦¯à¦¼
Ġà§§à§ ª
à¦¾à¦¤ à¦¿à¦ķ
Ġà¦ļà§Į à¦§
à¦¿à¦¤ à§įà¦¤
Ġà¦¥ à§ĩà¦ķ
Ġà¦ļ à¦²à§ĩ
Ġà¦ļà§ĩà¦¯à¦¼à¦¾à¦° à¦®à§įà¦¯à¦¾à¦¨
Ġà¦Ľ à¦¾à¦¡à¦¼à¦¾
à§ģà¦² à¦¾à¦ĩ
Ġà¦īà¦ªà¦¸à§įà¦¥ à¦¿à¦¤
Ġà¦®à¦¾à¦° à§įà¦ķ
Ġà¦¸ à¦¿à¦²
Ġà¦Ľ à¦¾à¦¡à¦¼
r o
Ġà¦ľ à¦®
e t
Ġà¦¬ à¦¾à¦ĩ
Ġà¦¯ à§ĩà¦¤à§ĩ
Ġà¦¹à¦¯à¦¼ à§ĩà¦Ľà¦¿à¦²
à¦ªà§ģà¦° à§ĩ
¡à¦¼ à§ĩ
Ġà¦§à¦° à¦¨à§ĩà¦°
Ġà¦¸ à¦¿à¦°
Ġà¦¶à§ģà¦§ à§ģ
à§įà¦° à¦¿
Ġà¦¸à¦¾à¦® à¦¨à§ĩ
Ġà¦¸à¦°à¦ķà¦¾à¦° à§ĩà¦°
Ġà¦¯ à§ģà¦¬
Ġà¦¨ à¦¾à¦°à§Ģ
Ġà§§à§ §
à¦Ń à¦¾à¦¬
Ġà¦ķ à§ĥà¦·
Ġà¦¯ à¦¾à¦¨
Ġà¦ıà¦¬ à¦¾à¦°
à¦¾à¦¬ à¦¾à¦°
Ġà¦Ĩ à¦¨à§įà¦¤
Ġà¦ļ à§ĩà¦·à§įà¦Łà¦¾
Ġà¦¨ à¦Ń
à§ĩà¦ª à§įà¦Ł
à§ĩà¦¸ à§įà¦ķ
à§¨à§¦ à§§à§
Ġà¦¨à¦¿à¦° à¦¾à¦ª
a y
à§ĥ à¦¤à¦¿
à¦Łà§įà¦Ł à¦Ĺà§įà¦°à¦¾à¦®
Ġà¦° à¦¾à¦¤
à¦¬ à¦¾à¦¨
à¦¹ à¦¾à¦®à§įà¦®
Ġà¦¸ à¦¿à¦¦à§įà¦§
Ġà¦¦ à§Ģ
à¦ķ à¦¦à§ĩà¦°
Ġà¦Ĺà§įà¦° à¦¹à¦£
Ġ R
Ġà¦¤à§ģà¦² à§ĩ
à¦¾à¦® à§ĩ
Ġà¦¬à§ģ à¦Ŀ
à§įà §°
Ġà¦¬à¦¾à¦Ĥà¦² à
Ġà¦¬à¦¾à¦Ĥà¦²à ¦
Ġà¦¬à¦¾à¦Ĥà¦²à¦ ¾
à¦¦ à§ģà¦²
Ġà¦Ĩà¦¤ à§įà¦®
à¦Ĩ à¦ĩ
Ġ in
Ġà¦ķà§įà¦° à¦¿à¦ķà§ĩà¦Ł
Ġà¦¹ à¦¾à¦¤à§ĩ
Ġà¦¯ à§Į
Ġà¦« à¦²à§ĩ
Ġà¦¬à§įà¦¯à¦¬ à¦¸à§įà¦¥à¦¾
à¦¶ à§ĩà¦·
à§ĭ à¦ĸ
à¦¦ à¦¾à¦°
à¦¬à¦¾à¦¦ à¦¿à¦ķ
Ġà¦ĺà§ĭà¦· à¦£à¦¾
à¦® à§įà¦¬
à¦ļ à§įà¦Ľ
Ġà¦ķà¦° à¦¬à§ĩà¦¨
à¦¾à¦¯à¦¼ à§ĩ
Ġà¦ªà§įà¦° à§ĩà¦¸
Ġà¦¨à§ĩà¦¤ à
Ġà¦¨à§ĩà¦¤à ¦
Ġà¦¨à§ĩà¦¤à¦ ¾
Ġà¦¶à¦¿à¦ķà§įà¦· à
Ġà¦¶à¦¿à¦ķà§įà¦·à ¦
Ġà¦¶à¦¿à¦ķà§įà¦·à¦ ¾
à§įà¦¯ à¦¾à¦Ł
Ġà¦ľ à§ģà¦¨
Ġà¦° à§ĭà¦Ĺ
à¦¿à¦Ł à¦¿à¦°
Ġà¦¨à¦¿à¦°à§įà¦¦ à§ĩà¦¶
Ġà¦ķà¦° à¦¿
à¦¦ à§Ģ
à¦¨à§įà¦¤ à¦¬à§įà¦¯
Ġà¦ıà¦² à¦¾à¦ķà¦¾à¦¯à¦¼
a s
à¦¬à¦°à§įà¦¤ à§Ģ
à¦¤ à§ĩà¦°
Ġà¦ľ à¦¾à¦¯à¦¼
Ġà¦Ĩà¦ª à¦¨
à¦¶ à¦¨
à¦¦ à§ĩà¦¶
Ġà¦īà¦ļ à§įà¦ļ
Ġà¦®à§ĥà¦¤ à§įà¦¯à§ģ
Ġà¦« à§ĩà¦°
Ġà¦ı à¦¨
Ġà¦¬à¦¿à¦ļ à¦¾à¦°
Ġà¦¸ à§ĩà¦ĸà¦¾à¦¨à§ĩ
à¦²à§įà¦² à§ĩà¦ĸ
Ġà¦ľ à¦¨à§įà¦®
Ġà¦ķà¦° à¦Ľà§ĩà¦¨
Ġà§§à§ «
Ġà¦®à§ĭ à¦Ł
Ġà¦¨ à¦¿à¦¤à§ĩ
à¦¸ à§ĩà¦°
Ġà¦ķà¦°à§įà¦®à¦ķà¦°à§įà¦¤ à
Ġà¦ķà¦°à§įà¦®à¦ķà¦°à§įà¦¤à ¦
Ġà¦ķà¦°à§įà¦®à¦ķà¦°à§įà¦¤à¦ ¾
Ġà¦¬ à¦Ļà§įà¦Ĺ
Ġà¦®à¦¾à¦° à§įà¦ļ
Ġà¦¸à§ģ à¦¯à§ĭà¦Ĺ
à¦ķ à¦¾à¦²à§ĩ
Ġà¦¶ à¦¿à¦²à§įà¦ª
à¦¬ à¦¿à¦¶
Ġà¦¬ à§įà¦²
Ġà¦¬à§ĥ à¦¹
à§įà¦° à¦®
Ġà¦¤à¦¾à¦¹ à¦²à§ĩ
Ġà¦° à¦¾à¦¨
Ġà¦ª à§įà¦²
Ġà¦® à¦¾à¦¤à§įà¦°
à¦¿à¦¨ à¦¿à¦§
à¦°à§įà¦ľ à¦¾à¦¤à¦¿à¦ķ
à¦¿à¦ľ à§įà¦ŀ
à¦¿à¦ Ĩ
à¦°à§įà¦ Ĺ
Ġà¦¸ à¦ļ
à¦¬ à¦¿à¦§
Ġ Ù
Ġ 0
Ġà¦ªà§įà¦°à¦¶ à¦¾à¦¸
Ġà¦« à§ģà¦Ł
Ġà¦Ĩà¦² à¦®
Ġà¦Ĩà¦Ł à¦ķ
à§ĩà¦¬ à§įà¦°
Ġà¦ĺà¦Ł à¦¨à¦¾
Ġà¦¬ à¦¾à¦¨
Ġà¦®à¦¾à¦¨ à¦¬
Ġà¦¨ à§ĩà¦ĵ
Ġà¦¨ à¦¿à¦īà¦ľ
à¦ħ à¦¨
t h
Ù Ĵ
à¦Ľ à¦¿à¦²
Ġà¦¬ à¦ĩ
Ġà¦« à¦²
Ġà¦¸ à¦¡à¦¼
Ġà¦ĩ à¦®
Ġ "
c h
à¦ı à¦®
Ġà¦ħà¦¨ à§įà¦¤
à¦¿à¦¤ à§Ģà¦¯à¦¼
Ġà¦¸à§įà¦¥à¦¾à¦¨ à§Ģà¦¯à¦¼
Ġo f
à§ģà¦§ à¦¬à¦¾à¦°
Ġà¦ª à§ĩà¦¯à¦¼
Ġà¦ķ à§ĭà¦®
à¦Ł à§ģ
à¦ķ à§įà¦¸
à¦¾à¦¯à¦¼ à¦ķ
Ġà¦¤ à¦°
à¦¦ à¦¨à§įà¦¤
Ġà¦ķà§įà¦· à¦®
ŀ à§įà¦ľ
Ġ n
à¦¸à§įà¦ª à¦¤
à¦¾à¦¶ à¦¿
Ġà¦Ĩà¦Ĺ à¦¾à¦®à§Ģ
Ġà¦ķà§įà¦· à§ĩà¦¤à§įà¦°à§ĩ
Ġà¦¨ à§ĩà¦¯à¦¼
Ġà¦¸à¦¿à¦¦à§įà¦§ à¦¾à¦¨à§įà¦¤
Ġà¦ı à¦¤à§ĩ
Ġà¦¶ à§ģà¦ķ
Ġà¦¸ à§ĩà¦¨
Ġà¦ľ à¦¯à¦¼
Ġà¦¦à¦¿à¦¯à¦¼ à§ĩà¦Ľà§ĩ
Ġà¦ľ à§ģà¦²à¦¾à¦ĩ
Ġà¦ªà¦¾à¦ķ à¦¿à¦¸à§įà¦¤
à§ĭà¦® à¦¬à¦¾à¦°
Ġà¦Ń à¦¿à¦¡à¦¿à¦ĵ
Ġ ,
i m
Ġà¦¸à¦®à§įà¦ªà¦°à§įà¦ķ à§ĩ
Ġà¦ªà§įà¦° à¦ļ
Ġà¦īà¦¦ à§įà¦¯
e x
à¦¿à¦¸ à§įà¦Ł
Ġà¦Ń à¦¬
Ġà¦¬à¦ķà§įà¦¤ à¦¬à§įà¦¯
à§įà¦¯ à¦¾à¦¤
Ġà¦ª à¦¾à¦ģà¦ļ
à§įà¦Łà§ĭ à¦¬à¦°
Ġà¦¸à¦¾à¦Ĥ à¦¬à¦¾à¦¦à¦¿à¦ķ
Ġà¦ķ à¦¾à¦²
Ġà¦ªà¦° à¦¿à¦¸
à¦¿à¦ı à¦®
Ġà¦² à§Ģà¦Ĺà§ĩà¦°
Ġà¦ªà¦°à¦¿à¦¬ à¦°à§įà¦¤
Ġà¦¸ à§Į
ŀ à§įà¦ļ
Ġà¦¦à¦¾à¦¯à¦¼ à¦¿à¦¤à§įà¦¬
Ġà¦¡ à¦¾à¦ķ
c t
à¦Ļà§įà¦Ĺà¦² à¦¬à¦¾à¦°
à¦¾à¦ĵ à¦¯à¦¼
à§ĩà¦ªà§įà¦Ł à§ĩà¦®à§įà¦¬à¦°
à§ģ à¦¶
à¦¸à§įà¦ªà¦¤ à¦¿à¦¬à¦¾à¦°
Ġà¦Ĩ à¦¨à§įà¦¦
Ġà¦ķà¦® à¦¿à¦¶
Ġà¦ĩ à¦Ĥ
Ġà¦¸à¦¬ à¦¾à¦ĩ
à¦¾à¦¦ à
à¦¾à¦¦à ¦
à¦¾à¦¦à¦ ¾
Ġà¦Ĩà¦² à§įà¦²à¦¾à¦¹
à§ĩà¦² à¦¾à¦¯à¦¼
à¦ķà§įà¦· à¦£
à¦ļ à§ĩà¦¯à¦¼à§ĩ
à¦¾à¦¯ à§ĭà¦Ĺ
Ġà¦¯ à¦¾à¦°à¦¾
Ġà¦Ĩ à¦¯à¦¼
Ġà¦ħ à¦§à§įà¦¯
à§įà¦¯à¦¾à¦¨ à§įà¦¯
Ġà¦Ĺà§ģà¦°à§ģ à¦¤à§įà¦¬
Ġà¦®à§ģ à¦¸à¦²
à§ģ à¦Ń
u r
Ġ '
à¦¬ à¦¾à¦ľà¦¾à¦°
Ġà¦ķ à¦ĸà¦¨
à¦ªà§įà¦° à¦¿à¦²
Ġà¦¸ à¦¤à§įà¦¯
à¦¹à¦¾à¦®à§įà¦® à¦¦
Ġà¦ħ à¦¥
Ġà¦¹à¦¯à¦¼ à¦¨à¦¿
Ġà¦ļà§Įà¦§ à§ģà¦°à§Ģ
Ġà¦¥ à¦¾à¦ķà¦¾
Ġà¦īà¦¦à§įà¦§ à¦¾à¦°
Ġà¦¨à¦Ń à§ĩà¦®à§įà¦¬à¦°
Ġà¦¶ à¦ķà§įà¦¤
Ġà¦® à§ĩ
à¦ª à¦¤à§įà¦°
Ġà¦¦à§ĩà¦ĸ à§ĩ
Ġà¦¬à¦¿à¦ ®
à¦² à§ĩà¦ĵ
Ġà¦° à¦¿à¦ª
Ġà¦ķà§ĭà¦¨ à¦ĵ
Ġà¦« à§ĭà¦¨
à§ĩà¦² à§ĩà¦°
Ġà¦¹ à¦¨
Ġà¦¸ à§ĥà¦·à§įà¦Ł
Ġà¦ķ à¦¤
Ġà¦¨ à¦¬
à¦° à§ģà¦²
Ġà¦¬à§įà¦¯à¦¬ à¦¸
Ġà¦ļ à§ĭà¦ĸ
¦ Ļà§įà¦ķ
à ¦Ļà§įà¦ķ
Ġà¦¸à¦® à¦¾à¦ľ
Ġà¦¬à¦¿à¦ ²
Ġà¦¸à§įà¦¬ à¦¾à¦¸à§įà¦¥à§įà¦¯
Ġà¦¹ à¦ķ
à§§à§ ¯
Ġà¦¦ à¦¶
Ġà¦¨à¦¿à¦¶à§įà¦ļ à¦¿à¦¤
Ġà¦ªà§įà¦°à¦¤ à¦¿à¦¨à¦¿à¦§
Ġà¦ı à¦¤
Ġà¦¸ à¦¨à§įà¦¤
Ġà¦® à¦¾à¦¥
à¦¬à¦¾à¦Ĥà¦² à¦¾à¦¦à§ĩà¦¶
Ġà¦ľà¦¾à¦¯à¦¼ à¦Ĺ
à§ĥ à¦¹
à¦¾à¦§ à¦¿à¦ķ
à¦¾à¦¬ à¦²
Ġà¦¶à¦¤ à¦¾à¦Ĥà¦¶
à¦° à¦¤
Ġà¦ı à¦Ĺ
Ġà¦¸à¦®à§įà¦Ń à¦¬
Ġà¦ķà¦°à§įà¦¤ à§ĥ
Ġà¦¡ à§ĩà¦¸à§įà¦ķ
à§Ģ à¦ķà§ĩ
Ġà¦® à
Ġà¦®à ¦
Ġà¦ıà¦ĸ à¦¾à¦¨à§ĩ
Ġà¦® à¦¨à§įà¦¤à¦¬à§įà¦¯
à¦¾à¦ķ à¦¿
Ġà¦ıà¦¸ à§ĩ
Ġà¦¸à¦¬ à¦ļà§ĩà¦¯à¦¼à§ĩ
Ġ ...
Ġà¦¸à¦°à¦ķà¦¾à¦° à¦¿
Ġà¦®à¦ ¾
Ġà¦¦à§ĩà¦ĸ à¦¤à§ĩ
à¦¾à¦¨ à§įà¦¡
Ġà¦¸ à¦ķà¦¾à¦²
à¦¾à¦° à§įà¦¸
à¦¿à¦¯à¦¼ à¦¾à¦¯à¦¼
à§įà¦° à¦¬à¦¾à¦°
Ġà¦¶à¦¿à¦ķà§įà¦· à¦ķ
Ġà¦¦à¦¿à¦¯à¦¼ à§ĩà¦Ľà§ĩà¦¨
Ġà¦Ĺ à§ģà¦²
Ġà¦Ĩà¦¨à§įà¦¦ à§ĭà¦²
Ġà¦¥à¦¾à¦ķ à¦¬à§ĩ
- à¦¬
Ġà¦¶ à¦¨
à§ĭ à¦¡
à§Ģ à¦ķ
Ġà¦¦ à§ĩà¦¬
Ġà¦ĩ à¦¯à¦¼
Ġà¦¥à§ĩà¦ķ à§ĩà¦ĩ
Ġà¦¸à¦Ĥ à¦¸à¦¦
âĢĻ à¦°
Ġà¦ªà§įà¦° à¦¯à§ģà¦ķà§įà¦¤
Ġà¦ªà§įà¦° à¦®
Ġà¦¬ à¦¿à¦¤
à¦¬ à¦²
Ġà¦« à§ĩà¦¬à§įà¦°
à§ģ à¦¸
) ,
Ġà¦¡à¦¿à¦¸ à§ĩà¦®à§įà¦¬à¦°
Ġà¦Ľ à§ĩà¦²à§ĩ
Ġà¦®à¦¾à¦® à¦²à¦¾
Ġà¦¦à§įà¦¬ à¦¿à¦¤à§Ģà¦¯à¦¼
a g
Ġà¦¬à§ĥ à¦¦à§įà¦§
à¦¬ à§įà¦¦
Ġà¦¬à¦¿à¦ıà¦¨ à¦ªà¦¿
Ġà¦¸à¦¾à¦¬ à§ĩà¦ķ
Ġà¦ħà¦ķ à§įà¦Łà§ĭà¦¬à¦°
e l
à¦°à§įà¦¤ à¦¿
Ġ L
Ġà¦¶ à§Ģ
Ġà¦¹à¦¤à§įà¦¯ à
Ġà¦¹à¦¤à§įà¦¯à ¦
Ġà¦¹à¦¤à§įà¦¯à¦ ¾
Ġà¦« à§ĩà¦²
Ġà¦Ĩà¦¬ à§įà¦¦
à§ģà¦° à¦¿
Ġà¦Ń à§ģà¦²
Ġà¦Ĩ à¦ķ
à¦¤ à¦¿à¦¨à¦¿
Ġ Â
Ġà¦ľà¦¾à¦¨ à¦¿à¦¯à¦¼à§ĩà¦Ľà§ĩà¦¨
u n
Ġà¦® à¦¾à¦ł
Ġà¦¬à¦¾à¦¸ à§įà¦¤
o l
Ġà¦¤à¦¾à¦° à¦¿à¦ĸ
Ġà¦¸ à§ĩà¦ªà§įà¦Łà§ĩà¦®à§įà¦¬à¦°
Ġà¦ħà¦¨ à§įà¦¯à¦¾à¦¨à§įà¦¯
Ġà¦ķà§ĭà¦® à§įà¦ª
Ġà¦« à¦°
à¦ľ à§įà¦ŀ
Ġà¦ķ à¦¨
Ġà§¨à§¦à§§à§ Ń
Ġà¦Ńà¦¾à¦°à¦¤ à§ĩà¦°
à§ĥ à¦¥
Ġà¦Ĩà¦² à§Ģ
à¦¯ à¦¾à¦¯à¦¼à§Ģ
à¦¾à¦¬ à§ĩà¦¨
Ġà¦¸à§Ĥ à¦¤à§įà¦°
à¦ľ à¦¾à¦¤
à¦¿à¦ı à¦¸
Ġà¦Ĩà¦¨à§įà¦¤ à¦°à§įà¦ľà¦¾à¦¤à¦¿à¦ķ
Ġà¦¦ à§įà¦°
à§ĭ à¦¶
Ġà¦īà¦¦ à§įà¦¬
Ġt o
Ġà¦ķà¦° à¦²à§ĩ
Ġà¦° à¦¬
Ġà¦ı à¦ªà§įà¦°à¦¿à¦²
Ġà¦¬à§įà¦¯à¦¾à¦Ĥ à¦ķ
à¦¾à¦¤ à§ĩà¦°
Ġà¦ī à¦²à§įà¦²à§ĩà¦ĸ
Ġ H
à¦° à§įà¦¯
à¦Ĺà§įà¦° à¦¹
à¦² à¦¾à¦ĩà¦¨
Ġà¦ĸ à§ģà¦²
Ġà¦ªà¦° à¦¿à¦®
Ġà¦®à¦¿à¦¨ à¦¿à¦Ł
Ù ı
Ġà¦¸à¦Ĥ à¦Ĺà¦ł
à¦¸ à¦Ń
Ġà¦¨ à¦¿à¦ļ
à¦¾à¦² à
à¦¾à¦²à ¦
Ġà¦ªà§įà¦°à¦¤à¦¿à¦·à§įà¦ł à¦¾à¦¨
Ġà¦Ĩà¦²à§ĭà¦ļ à¦¨à¦¾
Ġ F
v i
Ġà¦¬à¦¿à¦ľ à§įà¦ŀ
Ġà¦Ĩà¦¹ à¦¤
à¦¾à¦²à¦ ¾
à¦Ł à¦¾à¦ĩ
à§ĥà¦¤ à§įà¦¬
o t
e m
ang la
Ġà¦ľ à¦°
Ġ _
Ġà¦ªà§ģà¦²à¦¿à¦¶ à§ĩà¦°
Ġà¦¸à¦¹ à¦ľ
Ġà¦ķ à§ģà¦®
Ġà¦ļ à¦¾à¦ķ
à¦¿à¦¹ à¦¾à¦¸
Ġà¦®à¦¹ à¦¿à¦²
Ġà¦¸à¦¦ à¦°
- à¦®
Ġà¦¬ à¦¾à¦¦
Ġà¦¸ à§Ģ
Ġà¦Ĺà§įà¦° à§ĩà¦«
Ġà¦ĵ à¦¯à¦¼à¦¾à¦°
à¦¤ à§ĩà¦ĩ
à¦¤ à¦°
Ġà¦¹à¦ĵ à¦¯à¦¼à¦¾
à¦¿à¦Ł à¦¾à¦°
à¦¸à¦® à§įà¦ª
Ġà¦Ĩà¦® à¦¾à¦ķà§ĩ
à¦ª à§Ĥà¦°à§įà¦£
Ġà¦ª à¦¾à¦¯à¦¼
Ġà¦¸à¦®à¦¯à¦¼ à§ĩ
Ġà¦Ĺ à¦²à§įà¦ª
Ġà¦Ĺ à¦¾à¦¨
Ġà¦¯ à§ĩà¦®à¦¨
Ġà¦ħà¦¨à§ģ à¦¯à¦¾à¦¯à¦¼à§Ģ
à¦ľ à§Ģà¦¬
à§ĩà¦¦ à
à§ĩà¦¦à ¦
à§ĩà¦¦à¦ ¾
Ġà¦¨à¦¿à¦¯à¦¼ à¦®
à§ĭà¦°à§įà¦ ¡
Ġ 3
à¦¯à¦¼à§ĭ à¦ľ
à¦¾à¦¡à¦¼ à§ĩ
Ġà¦¸à¦Ĥ à¦¶
Ġà¦Ĺà§įà¦° à¦¾à¦®à§ĩà¦°
Ġà¦¬à¦¾à¦ §
Ġà¦ķ à¦¬
Ġà¦¯ à¦¾à¦°
Ġà¦¬à¦¿à¦ıà¦¨ à¦ªà¦¿à¦°
à¦¾à¦° à§įà¦®
Ġà¦¦à¦ķà§įà¦· à¦¿à¦£
Ġà¦° à¦¾à¦¯à¦¼
Ġà¦¦à§Ģ à¦°à§įà¦ĺ
Ġà¦¸à¦Ĥ à¦¸à§įà¦ķ
Ġà¦¹à¦¯à¦¼ à§ĩà¦Ľà§ĩà¦¨
Ġà¦®à§ĭ à¦¬
à¦¤ à¦¿à¦°
à¦¾à¦ª à¦¾à¦¶à¦¿
à¦® à§Ĥà¦²
Ġà¦¯ à¦¾à¦¤à§įà¦°
à¦¶ à§įà¦ļ
Ġà¦īà¦¨à§įà¦¨ à¦¯à¦¼à¦¨
à§ģ à¦ķà§ĩ
Ġà¦Ĺ à¦ł
Ġà¦ľ à¦²
Ġà¦® à¦ľ
Ġà¦¬à¦² à¦¤à§ĩ
Ġà¦° à¦¾à¦¸à§įà¦¤
Ġà§§à§ ®
Ġà¦®à¦¾à¦Ŀ à§ĩ
Ġà¦¨ à¦¿à¦¬
Ġà¦¸ à¦¨à§įà¦§
Ġà¦¯à§ĭà¦Ĺ à¦¾à¦¯à§ĭà¦Ĺ
à¦¨à§įà¦¦ à§įà¦°
Ġà¦¨ à¦¾à¦¨à¦¾
u l
Ġà¦¸à¦®à§įà¦® à§ĩà¦²
Ġà¦¨ à¦¿à¦·
) à¥¤
Ġà¦Ń à¦¾à¦Ĺ
à¦¿à¦ķ à¦²à§įà¦ª
Ġà¦ļà¦² à¦Ľà§ĩ
Ġà¦īà¦¦à§įà¦¯ à§ĭà¦Ĺ
Ġà¦¸à¦®à¦¸à§įà¦¯ à
Ġà¦¸à¦®à¦¸à§įà¦¯à ¦
Ġà¦¸à¦®à¦¸à§įà¦¯à¦ ¾
à¦¬ à§ĩà¦·
Ġà¦ħà¦¬ à¦¶à§įà¦¯
à¦ľ à§įà¦ľ
Ġà¦¸à¦®à§įà¦ª à§įà¦°
Ġà¦ª à§ĥà¦¥
Ġà¦¨ à¦¾à¦Ĺ
à§ĩà¦¤ à¦¨
à§§ à§¦
Ġà¦¹à¦¾à¦¸à¦ªà¦¾à¦¤ à¦¾à¦²à§ĩ
Ġà¦® à§Į
Ġà¦ļ à¦Łà§įà¦Łà¦Ĺà§įà¦°à¦¾à¦®
Ġà¦°à¦¿à¦ª à§ĭà¦°à§įà¦Ł
Ġà¦¶à§ĩà¦· à§ĩ
à§ģà¦ģ à¦ľ
Ġà¦¨ à¦®
à¦ª à¦ķà§įà¦·
Ġà¦« à§įà¦°
à¦¸à§įà¦¤ à§įà¦°
Ġà¦ªà§įà¦° à¦¾à¦£
à¦ķ à¦°à§įà¦®
Ġà¦Ĺ à§ĭ
Ġà¦Ĩà¦¸ à§ĩ
Ġà¦°à§ĩà¦ĸ à§ĩ
Ġà¦Ĩà¦Ĺ à¦¸à§įà¦Ł
Ġà¦Ĩ à¦«
Ġà¦¹à¦² à§ĩà¦ĵ
Ġà¦ªà¦°à§Ģà¦ķà§įà¦· à
Ġà¦ªà¦°à§Ģà¦ķà§įà¦·à ¦
Ġà¦ªà¦°à§Ģà¦ķà§įà¦·à¦ ¾
Ġà¦¸à¦Ĥà¦ĸ à§įà¦¯à¦¾
Ġà¦ķ à¦¿à¦Ĥ
Ġà¦ª à¦ķà§įà¦·
Ġà¦ıà¦ķ à¦Łà§ģ
Ġà¦¬ à§ģà¦§à¦¬à¦¾à¦°
à§ĩà¦ £
à¦Ĩ à¦ľ
Ġà¦ªà§įà¦°à¦ķ à¦²à§įà¦ª
- -
à¦ķ à§įà¦¯
Ġà¦² à§Ģà¦Ĺ
Ġ [
à¦¦ à§įà¦°
i g
Ġà¦¸à§ĩà¦Ł à
Ġà¦¸à§ĩà¦Łà ¦
Ġà¦¸à§ĩà¦Łà¦ ¾
à¦² à§Ģà¦Ĺà§ĩà¦°
à¦¬ à¦¾à¦¬
Ġà¦¨ à¦ľ
à¦¸à§Ĥ à¦ļ
Ġà¦¬à¦¿à¦Ńà¦¾à¦Ĺ à§ĩà¦°
Ġ and
Ġà¦¸ à§ĭà¦®à¦¬à¦¾à¦°
Ġà¦¸à§įà¦¬ à¦¾à¦§à§Ģà¦¨
Ġà¦¶à¦¿à¦ķà§įà¦· à¦¾à¦°à§įà¦¥
Ġà¦ļ à§ĩà¦¯à¦¼à§ĩ
Ġà¦¬à¦¾à¦¡à¦¼ à¦¿
Ġà¦° à¦¾à¦¤à§ĩ
Ġà¦°à¦¾à¦ľ à¦¨à§Īà¦¤à¦¿à¦ķ
Ġà¦ĺà¦Ł à¦¨à¦¾à¦¯à¦¼
Ġà¦¬à¦¿à¦·à¦¯à¦¼ à¦Łà¦¿
Ġ g
à¦¾à¦ Ļ
Ġà¦ªà§įà¦°à¦¦ à¦¾à¦¨
Ġà¦ªà¦¾à¦¶ à¦¾à¦ªà¦¾à¦¶à¦¿
Ġà¦¯ à¦¤
Ġà§§à§ ©
Ġà¦ªà¦¾à¦² à¦¨
Ġà¦¨à¦¿à¦°à¦¾à¦ª à¦¤à§įà¦¤
à¦¿à¦¨ à§ĩà¦°
à¦¿à¦¤ à¦¿
Ġà¦Ĺà§įà¦°à§ĩà¦« à¦¤à¦¾à¦°
Ġ J
à§ģà¦® à¦¿
à§ĭ à¦¯à¦¼à¦¾à¦°
Ġà§§à§ ¬
à¦¨ à§Ģà¦¤
Ġà¦¤ à¦¦à¦¨à§įà¦¤
à¦¿à¦¸ à¦¿
Ġà¦® à¦Ļà§įà¦Ĺà¦²à¦¬à¦¾à¦°
Ġà¦ķ à¦¾à¦Ł
Ġà¦¯ à§ģà¦Ĺ
à¦¾à¦¸ à§įà¦Ł
Ġà¦ľ à¦¾à¦¹
à¦¾à¦ľ à¦¿à¦ķ
Ġà¦¨à¦¿à¦°à§įà¦¬à¦¾à¦ļ à¦¨à§ĩ
à§ĭà¦¸ à§įà¦Ł
i r
Ġà¦¸ à¦¾à¦¤
Ġà¦ľà¦¨ à¦Ĺ
Ġà¦§ à¦¾à¦°
Ġà¦°à¦¾à¦ĸ à
Ġà¦°à¦¾à¦ĸà ¦
Ġà¦°à¦¾à¦ĸà¦ ¾
Ġà¦®à§ģà¦ķà§įà¦¤ à¦¿à¦¯
Ġà¦¬à§ĥà¦¹ à¦¸à§įà¦ªà¦¤à¦¿à¦¬à¦¾à¦°
Ġà¦¬à§įà¦¯ à¦¾à¦Ł
Ġà¦ħà¦¨ à§ģà¦®
Ġà¦¸à¦¿à¦² à§ĩà¦Ł
à¦Ĩà¦® à¦¿
à¦¾à¦ģ à¦¦
Ġà¦¬à¦Ļà§įà¦Ĺ à¦¬à¦¨à§įà¦§
à¦¾à¦² à¦¿
à¦ķ à¦¾à¦ª
à¦¾à¦£ à§įà¦¡
à¦² à¦¿
Ġà¦¨à§ĩà¦¤ à§ĥà¦¤à§įà¦¬
Ġà¦¬à¦¿à¦¶à§įà¦¬à¦¬à¦¿à¦¦à§įà¦¯à¦¾à¦² à¦¯à¦¼à§ĩà¦°
Ġà¦ķ à¦¾à¦ī
à§ĩà¦¬ à
à§ĩà¦¬à ¦
à§ĩà¦¬à¦ ¾
Ġà¦¶à¦° à§Ģà¦°
Ġà¦¬à¦¿à¦ §
Ġà¦Ń à¦¯à¦¼
à§Ģ à¦¤à¦¿
Ġà¦¬ à¦¦
à¦ªà§įà¦° à¦¿à¦¯à¦¼
à¦¨à§įà¦¤à§įà¦°à¦£ à¦¾à¦²
à¦¿à¦° à
à¦¿à¦°à ¦
Ġà¦ļà¦¿à¦ķà¦¿à§İ à¦¸
à¦¿à¦°à¦ ¾
à¦¿à¦ı à¦¨
à§ģ à¦Łà¦¿
Ġà¦Ĩà¦¹à¦® à§ĩà¦¦
Ġà¦ı à¦Ľ
à¦¨à§įà¦¤à§įà¦° à§Ģà¦°
à§ĭà¦² à
à§ĭà¦²à ¦
à§ĭà¦²à¦ ¾
à§Ģ à¦¦
Ġà¦Ĺ à¦¬à§ĩà¦·
Ġà¦ıà¦° à¦ªà¦°
Ġà¦ħà¦ªà¦° à¦¾à¦¹
Ġ O
Ġà¦ıà¦Ĺ à¦¿à¦¯à¦¼à§ĩ
Ġà§© à§¦
Ġà¦® à¦¾à¦¦
Ġà¦ĵ à¦ł
à§ ±
Ġà¦¬à§ĩà¦ Ĺ
Ġà¦¸ à¦ªà§įà¦¤
Ġà¦¯ à¦¾à¦ĵà¦¯à¦¼à¦¾à¦°
Ġà¦ķà§ĭ à¦¥
Ġà¦īà¦ª à¦²
à¦ªà§įà¦° à¦ķà¦¾à¦¶
Ġà¦®à§ĭ à¦¹à¦¾à¦®à§įà¦®à¦¦
à¦¾à¦¸ à§Ģ
à¦¬ à§įà¦°
à¦°à§įà¦ ¡
Ġà¦¦à¦¾à¦ģ à¦¡à¦¼
Ġà¦¥à¦¾à¦ķ à¦¤à§ĩ
à¦¾à¦¨ à¦¿à¦°
Ġà¦īà¦¦à§įà¦¦ à§ĩà¦¶
i v
Ġà¦¹à¦¾à¦¸ à¦¾à¦¨
Ġà¦ıà¦² à¦¾à¦ķà¦¾à¦°
Ġà¦¬à¦¿à¦¦ à§įà¦¯à¦¾à¦²
à¦¾à¦ķ à§įà¦¤
à§ĩà¦ ģ
Ġà¦ı à¦ķà§ĩ
Ġà¦ļ à¦¾à¦ª
Ġà¦¶à§ģà¦ķ à§įà¦°à¦¬à¦¾à¦°
à¦° à¦¾à¦¸
Ġ on
Ġà§¨ à§ª
Ġà¦ľà¦¾à¦¨ à§ģà¦¯à¦¼à¦¾à¦°à¦¿
à¦¾à¦¥ à¦®à¦¿à¦ķ
Ġà¦°à¦¾à¦ľ à¦§à¦¾à¦¨
Ġà¦ªà§Į à¦ģ
Ġà¦ª à¦¾à¦¨à¦¿
Ġà¦ªà§įà¦° à¦¸
Ġà¦ªà§įà¦°à¦ķà¦¾à¦¶ à¦¿à¦¤
à¦¸ à§Ģ
à¦ĵ à¦¯à¦¼à¦¾à¦°
Ġ G
à¦¡ à§ĩà¦Ł
Ġà¦¦ à¦¾à¦®
Ġà¦¬ à§ĭ
à¦¿à¦¤ à§įà¦¯
à¦¾à¦® à¦¾à¦¨
Ġà¦°à¦¾à¦ĸ à¦¤à§ĩ
Ġà¦ªà¦°à¦¿à¦¸ à§įà¦¥
à¦¬ à§ĭ
Ġà¦īà¦ĩ à¦ķ
Ġà¦ĵà¦¯à¦¼ à§ĩà¦¬
Ġà¦¸ à§ģà¦°
Ġà¦®à§ĭà¦¬ à¦¾à¦ĩà¦²
Ġà¦® à¦¨à§įà¦¤à§įà¦°à¦£à¦¾à¦²
à§įà¦ķ à¦¾à¦°
Ġà¦¸à§įà¦¤ à§įà¦°à§Ģ
Ġà¦¬à¦¿à¦® à¦¾à¦¨
Ġà¦®à¦¹ à¦¾à¦¨
à¦¤ à§ĩà¦¨
Ġà¦¦à§ģ à¦Łà¦¿
à¦ª à§Ĥ
à¦Ł à§ĩ
à¦ļ à§įà¦ļ
Ġà¦¦à¦¿à¦¨ à§ĩà¦°
Ġà¦¬à§įà¦¯à¦¾à¦ª à¦¾à¦°à§ĩ
Ġà¦¶ à¦¾à¦¨à§įà¦¤
Ġà¦ªà¦° à¦¿à¦ķà¦²à§įà¦ª
Ġà¦¯à§Į à¦¨
Ġà¦® à¦¿à¦¡
Ġà¦¸à§ģ à¦¨à§įà¦¦à¦°
à¦¿à¦¯à¦¼ à¦¨
Ġà¦¬à§Ī à¦ł
Ġà¦¶à§Ģ à¦°à§įà¦·
u s
Ġà¦¬ à¦¾à¦¤
à§ĭà¦¹ à¦¿à¦Ļà§įà¦Ĺ
Ġà¦² à¦¾à¦Ń
Ġ .
Ġà¦ľà¦¾à¦¨ à¦¤à§ĩ
Ġà¦¬à¦¿à¦¦ à§ĩà¦¶
Ġà¦¶à§įà¦° à¦®à¦¿à¦ķ
Ġà¦ļ à¦¾à¦¨
Ġà¦¹ à¦ĩ
Ġà¦² à¦¾à¦ĩ
Ġà¦¸à¦¡à¦¼ à¦ķ
à§įà¦° à¦¯à¦¼
Ġà¦ķà¦® à¦¿à¦Łà¦¿à¦°
Ġà¦Ĩà¦¬ à§ĩà¦¦à¦¨
Ġà¦¬à§ĩà¦ ¡à¦¼
Ġà¦īà¦¦à§įà¦¦ à¦¿à¦¨
Ġà¦¬ à¦¨à§įà¦¦
Ġà¦¸à¦¹ à¦¯à§ĭà¦Ĺ
Ġà¦¬ à¦¾à¦¹à¦¿à¦¨
âĢ ĵ
Ġà¦¬à¦¿à¦° à§ĭà¦§
à¦¾à¦ļ à¦¾à¦°
à¦° à§Ģ
u t
Ġà§§à§ Ń
à¦°à¦£ à§ĩà¦°
Ġà¦¬à¦¿à¦¸ à§įà¦¤à¦¾à¦°
Ġà¦¬à¦¾à¦¬ à
Ġà¦¬à¦¾à¦¬à ¦
Ġà¦¬à¦¾à¦¬à¦ ¾
Ġà¦ªà§įà¦°à¦¤ à¦¿à¦¦
Ġà¦ªà¦°à¦¿à¦¬ à¦¾à¦°à§ĩà¦°
Ġà¦ª à§ĩà¦¯à¦¼à§ĩ
Ġà¦¶à¦¨ à¦¿à¦¬à¦¾à¦°
Ġà¦ªà¦¾à¦° à¦¬à§ĩà¦¨
ar t
Ġà¦«à¦¿à¦° à§ĩ
Ġà¦ª à¦¯à¦¼
à¦¾à¦ª à¦ķ
Ġà¦ħà¦¨à§ģ à¦¸
à§Į à¦¶
à¦¿à¦ķ à§įà¦¤
Ġà¦¨ à¦¾à¦ĩ
Ġà¦Ĩ à¦ķà§įà¦°à¦¾à¦¨à§įà¦¤
Ġà¦§ à¦¾à¦°à¦£
Ġà¦ħà¦ªà¦° à¦¾à¦§
Ġà¦ªà§įà¦°à¦¤à¦¿à¦¨à¦¿à¦§ à¦¿
Ġà§¨à§¦ à§¨à§¦
à¦¢ à¦¾à¦ķà¦¾
Ġà§¨ à§«
Ġà¦® à§ĩà¦¡
o b
Ġà¦¯ à¦¥
Ġà¦¯à§ģà¦ķà§įà¦¤ à¦°à¦¾à¦·à§įà¦Łà§įà¦°
à§ĩà¦¨ à§įà¦¦à§įà¦°
Ġà¦Ĺà¦¤ à¦ķà¦¾à¦²
Ġ at
Ġà¦¨à¦¿à¦°à§įà¦® à¦¾à¦£
Ġà¦¦à§įà¦° à§ģà¦¤
Ġà¦¸à§ģ à¦ªà¦¾à¦°
Ġà¦²à§ĩà¦ĸ à
Ġà¦²à§ĩà¦ĸà ¦
Ġà¦²à§ĩà¦ĸà¦ ¾
Ġà¦¸à§ĥà¦·à§įà¦Ł à¦¿
m ent
Ġà¦Ľ à¦¬
o w
Ġà¦¸ à¦ķà¦¾à¦²à§ĩ
Ġà¦ªà¦°à¦¿à¦¬ à¦¾à¦°
Ġt h
Ġà¦¬à¦¿à¦¶à§įà¦¬ à¦¾à¦¸
§ ÙĦ
Ġà¦¬ à¦¾à¦ľ
Ġà¦ªà§įà¦° à§ĩà¦®
Ġà¦° à¦ķà§įà¦·
à¦® à¦¾à¦¤à§įà¦°
à§įà¦¯ à¦¾à¦¸
Ġà¦¯ à¦¾à¦ĵà¦¯à¦¼à¦¾
à¦¿à¦¯à¦¼ à¦¾à¦²
à¦¿à¦¯ à§ĭà¦Ĺ
à¦ĸ à¦¾à¦¨
Ġà¦ķ à¦ł
Ġ E
Ġà¦Ń à¦°à§įà¦¤à¦¿
à¦ľ à¦¿
Ġà¦®à¦¨ à§ĭà¦¨
Ġà¦ķà§ĩà¦¨à§įà¦¦à§įà¦° à§Ģà¦¯à¦¼
à¦¾à¦¦ à¦¿
à¦² à¦¾à¦ĩ
: à§©
à§Ĥ à¦¹
à¦° à¦¸
à¦¿à¦ ł
Ġà¦ªà¦°à¦¿à¦¬ à§ĩà¦¶
à¦¶à§įà¦ļ à¦¿à¦®
Ġà¦ļ à¦¿à¦¨à§įà¦¤
Ġà¦ª à§ģà¦¨
Ġà¦«à§ĩà¦¬à§įà¦° à§ģà¦¯à¦¼à¦¾à¦°à¦¿
h t
à¦¾à¦ļ à§įà¦Ľà§ĩ
Ġà¦¬à¦¾à¦ £
Ġà¦¥à¦¾à¦¨ à¦¾à¦°
à§Ģ à¦ª
à¦ķ à¦°à¦¾
Ġà¦ķ à§ĭà¦°
Ġà¦®à¦¾à¦² à¦¿à¦ķ
: à§«
Ġà¦¦ à¦¿à¦ļ
à§ĩà¦° à§ĩ
Ġà¦ħà¦¬à¦¸à§įà¦¥ à¦¾à¦¯à¦¼
à§įà¦¬ à¦¾à¦¸
Ġà¦ª à¦£
Ġà¦ħà¦¬à¦¸à§įà¦¥ à¦¾à¦¨
Ġà¦ªà§įà¦°à¦¯à§ģà¦ķà§įà¦¤ à¦¿
Ġà¦¸à§įà¦¬ à¦ª
à§ĩà¦ķ à§įà¦Ł
à¦ľ à¦¨à§ĩà¦°
à¦°à§įà¦· à¦£
Ġà¦ķà¦¾à¦ľ à§ĩ
Ġà¦Ĩ à¦§
: à§ª
Ġà¦ķ à¦¾à¦ª
Ġà¦ĩà¦¨ à§įà¦Łà¦¾à¦°
Ġà¦¦à§ĩà¦ĵ à¦¯à¦¼à¦¾à¦°
Ġà¦¶ à§ģà¦Ń
Ġà¦Ń à¦¾à¦¬à§ĩ
¦ ĭ
à¦² à§Ģ
à ¦ĭ
Ġà¦¸à¦® à¦°à§įà¦¥
Ġà¦ıà¦ķ à§įà¦¸
Ġà¦ª à¦¤à§įà¦°
Ġà¦Ńà¦¾à¦°à¦¤ à§Ģà¦¯à¦¼
à¦¦ à¦¾à¦¨
Ġ W
à§ĩà¦¨ à§įà¦¡
à¦¿à¦¡ à§ĩà¦¨à§įà¦Ł
à¦® à¦¯à¦¼
à§§à§ ¨
Ġà¦® à¦¿à¦¶
Ġà¦Ń à¦¿à¦¤à§įà¦¤
Ġà¦¨à§ĩà¦ĵ à¦¯à¦¼à¦¾
Ġà¦ªà¦¾à¦° à§įà¦Ł
Ġà¦¸à¦¾à¦¹ à¦¾à¦¯
Ġà¦¤à¦¾à¦° à¦ªà¦°
Ġà¦ªà¦°à¦¿à¦¬à¦°à§įà¦¤ à¦¨
Ġà¦¬ à¦¾à¦²
Ġà¦ħà¦¤ à¦¿à¦¥
c k
Ġà¦¶ à¦¬à§įà¦¦
à§įà¦¤ à
à§įà¦¤à ¦
à§įà¦¤à¦ ¾
Ġà¦ķà¦¾à¦° à§įà¦¯à¦¾à¦²
à¦¾à¦¬ à§ĩà¦°
à¦¬ à¦¾à¦¡à¦¼
Ġà¦ªà§įà¦° à¦¾à¦¥à¦®à¦¿à¦ķ
Ġà¦¬à§įà¦¯à¦¬ à¦¸à§įà¦¥
Ġà¦ªà¦°à¦¿à¦ļà¦¾à¦² à¦ķ
r a
à¦Ł à§įà¦°
Ġà¦ĺà¦Ł à¦¨
Ġà¦¬à¦¿à¦¶à§įà¦¬à¦¬à¦¿à¦¦à§įà¦¯à¦¾à¦² à¦¯à¦¼
Ġà¦¸à¦ªà§įà¦¤ à¦¾à¦¹
à¦¾à¦¬ à¦¾à¦¦
à¦Ĺ à§įà¦¨
Ġà¦¤ à§įà¦°
à¦Ĺà§ģà¦² à¦¿
à¦°à§įà¦ Ł
2 4
à¦¾à¦¸ à¦¨
Ġà¦¸à¦Ĥ à¦ĺ
Ġà¦« à§ĩà¦¸à¦¬
Ġà¦¡ à¦¿à¦ľ
à¦¨à§įà¦ ¥
Ġà¦¶ à§ĩà¦¯à¦¼à¦¾à¦°
Ġà¦¸ à¦¾à¦ĩ
Ġà¦¸ à¦¾à¦ľ
à¦¨à§Ģ à¦¤à¦¿
Ġà¦¸à¦Ĥ à¦Ĺà§įà¦°à¦¹
Ġà¦® à¦¸
à¦¤ à¦¬à§ĩ
om e
à¦ķ à¦¿à¦¨à§įà¦¤à§ģ
à§ĩà¦¶ à¦¨à§ĩà¦°
Ġà¦ªà§įà¦° à¦¾à¦°à§įà¦¥à§Ģ
Ġà¦ħà¦¨à§ģà¦·à§įà¦ł à¦¾à¦¨à§ĩ
Ġà¦¨à¦¿à¦¯à¦¼ à§ĭà¦Ĺ
à¦ªà§ģà¦° à§ĩà¦°
à¦ķà¦¾à¦° à¦¿
Ġà¦ķ à¦¾à¦¨
à¦¿à¦Ĥ à¦¹
Ġà¦Ĺ à§ĩà¦²à§ĩ
Ġà¦¸ à§Ī
Ġà¦Ĺà§įà¦° à§ģà¦ª
Ġà§¨à§¦ à§¦
à¦¿à¦¨ à¦¾à¦°
à¦¾à¦° à§įà¦Ł
Ġà¦° à¦ķà§įà¦¤
à¦°à§įà¦ĺ à¦Ł
à¦¡à¦¼ à¦¿
Ġà¦¬à¦¾à¦ĩ à¦°à§ĩ
à§ģà¦° à§ĩ
Ġà¦ĸà¦¾à¦² à§ĩà¦¦à¦¾
Ġà¦° à§Ĥà¦ª
à¦¿à¦Ĩ à¦ĩ
Ġà¦¨ à¦¾à¦Ł
à¦Ĺà§ģà¦² à§ĭà¦°
Ġà¦® à¦°
à§Ģ à¦ķà¦¾à¦°
Ġà¦¸ à¦¾à¦ķà§įà¦·
Ġà¦Ł à¦¾à¦ķà¦¾à¦°
Ġà¦¯ à§ģà¦¦à§įà¦§
à¦¡à¦¼ à¦¾à¦ĩ
Ġà¦ªà§ģà¦° à§ĭ
Ġà¦®à§ģ à¦¹
Ġà¦ª à¦ķà§įà¦·à§ĩ
Ġà¦¬à¦¸ à§ĩ
Ġà¦° à¦¾à¦¶
à¦¾à¦° à¦¿à¦¤
Ġà¦¬à¦² à¦²à§ĩà¦¨
à§ĭà¦§ à¦¨
Ġà¦ĺà¦Ł à§ĩ
Ġà¦¡ à§įà¦°
a k
à¦² à§Ģà¦Ĺ
Ġà¦Ĩ à¦¯à¦¼à§ĭà¦ľ
Ġà¦Ĩà¦¬à§įà¦¦ à§ģà¦²
Ġà¦² à¦¾à¦²
Ġà¦ķà¦°à§įà¦® à¦¸à§Ĥà¦ļ
Ġà¦®à§ĥà¦¤ à§įà¦¯
à¦ķà§įà¦· à§ĩà¦ª
à§ģ à¦¹
âĢ Ķ
Ġà¦ľ à§ĩà¦²à¦¾à¦°
à¦® à¦¿
Ġà¦¤à¦° à§ģà¦£
à¦¿à¦ ĥ
Ġà¦ĸ à¦¾à¦¦
à¦ªà§įà¦° à¦¾à¦ªà§įà¦¤
Ġà¦ķ à§°
Ġà¦¨à¦¿à¦ľ à§ĩà¦¦à§ĩà¦°
Ġà¦« à¦¾à¦ģ
Ġà¦¬à¦¾à¦Ĥà¦²à¦¾à¦¦à§ĩà¦¶ à§ĩ
Ġà¦ĺ à¦¨
Ġà¦Ĺà§ģà¦°à§ģà¦¤à§įà¦¬ à¦ªà§Ĥà¦°à§įà¦£
Ġà¦ķà¦¿à¦Ĥ à¦¬à¦¾
- à¦¸
: à§¦
à¦¿à¦ľ à§įà¦¯
Ġà¦ªà§ģà¦° à§ģà¦·
à¦¶ à§Ģà¦²
Ġà¦®à§ģà¦ĸ à§ĩ
Ġà¦Ńà§Ĥ à¦®à¦¿à¦ķ
à§ĩà¦ľ à¦¿
Ġà¦¸à§ģ à¦¬à¦¿à¦§
à§ģà¦¡à¦¼ à§ĩ
Ġà¦¹à¦¾à¦¸ à¦¿à¦¨à¦¾
Ġà¦¬ à¦°à§įà¦£
à¦¿à¦¶ à§ĭà¦°
Ġà¦ĩà¦īà¦¨à¦¿à¦¯à¦¼ à¦¨à§ĩà¦°
Ġà¦Ĩà¦° à§ĩà¦ķ
à§ĩà¦ §
Ġà¦ħ à¦°à§įà¦ľ
à¦ª à¦¤à¦¿
Ġà¦ªà¦¾à¦¶ à§ĩ
Ġà¦ıà¦¸ à§ĩà¦Ľà§ĩ
à¦¿à¦¯à¦¼ à¦¾à¦®
Ġà¦® à§ĩà¦¯à¦¼à§ĩ
- à§¦
à¦« à¦¿à¦ķ
Ġà¦ħà¦§ à¦¿à¦ķ
Ù Ĩ
à§ĭ à¦¯à¦¼à¦¾
à¦¤à§įà¦¤ à§įà¦¬
Ġà¦ļ à¦¾à¦¯à¦¼
à¦¾à¦ ĥ
Ġà¦®à§ĩà¦¡ à¦¿à¦ķ
Ġà¦¶à§įà¦° à§ĩà¦£
Ġà¦Ĩ à¦Ľà§ĩà¦¨
Ġà¦Ĺ à¦¡à¦¼à§ĩ
à¦« à§ĭà¦¨
Ġà¦¸ à¦¾à¦¡à¦¼à§ĩ
Ġà¦¦à§Ĥ à¦°
à¦Ń à§Ĥ
Ġà¦ħà¦¥ à¦¬à¦¾
Ġà¦ľ à¦Ļà§įà¦Ĺ
à§ĩà¦ ¡à¦¼à§ĩ
à¦² à§įà¦¯à¦¾à¦¨à§įà¦¡
u b
Ġà¦®à¦¾à¦°à§įà¦ķ à¦¿à¦¨
à§ĩà¦Ł à§ĩà¦°
: à§¨
Ġà¦¨ à¦¿à¦¨
) ;
Ġà¦ħ à¦ŀà§įà¦ļ
à¦¾à¦¦ à¦¾à¦°
2 0
à¦¹ à¦¨
Ġà¦ªà¦¥ à§ĩ
Ġà¦¬à§ĩà¦Ĺ à¦®
Ġà¦ª à§ĭà¦¸à§įà¦Ł
à¦°à§įà¦¶ à¦¨
Ġà¦¨à¦® à§įà¦¬à¦°
Ġà¦¦à¦¿à¦¬ à¦¸
à¦¿à¦Ń à¦¾à¦¬à§ĩ
Ġ à¦ĭ
à§§à§ Ń
Ġà¦ĺ à¦£
Ġà¦¬à¦¿à¦ķ à§įà¦°à¦¿
Ġà¦®à¦¹ à¦¾à¦¸
Ġà¦¬à¦¾à¦¡à¦¼ à¦¿à¦¤à§ĩ
à¦¿à¦Ĺ à§įà¦°
- à¦ª
Ġà¦¸à¦¾à¦® à¦¾à¦ľà¦¿à¦ķ
à¦ł à¦¿à¦ķ
Ġà¦¬à¦¿à¦¸à§įà¦¤à¦¾à¦° à¦¿à¦¤
à¦Ĺà§įà¦° à¦¹à¦£
Ġà¦Ĩà¦¨ à¦¨à§įà¦¦
Ġà¦ķà¦¾à¦°à§įà¦¯ à¦ķà§įà¦°à¦®
i a
es t
Ġà¦¨à¦¿à¦¯à¦¼ à¦¨à§įà¦¤à§įà¦°à¦£
Ġà¦®à§Ĥà¦² à§įà¦¯
à¦¾à¦¨ à§Ģ
Ġà¦īà¦ļ à¦¿à¦¤
Ġà¦®à§ĭ à¦ĥ
Ġà¦īà§İ à¦ª
? ?
Ġà¦Ł à¦¾à¦ĩ
à§ĩà¦¸ à¦°
à¦¾à¦® à§Ĥà¦²
Ġà¦¥à¦¾à¦ķ à¦¾à¦°
Ġà¦° à¦¾à¦¸
à¦¾à¦« à¦²
à¦ªà§įà¦° à¦¤
Ġà¦¨ à§Į
Ġà¦¬à¦¿à¦ľ à§įà¦ŀà¦¾à¦¨
¦ Ļ
à ¦Ļ
Ġà¦ķà¦°à§įà¦¤à§ĥ à¦ªà¦ķà§įà¦·
à¦¾à¦ľ à§Ģ
Ġà¦« à§ģà¦²
Ġà¦ķà¦° à¦²à§ĩà¦¨
Ġà¦ªà§įà¦°à§ĩà¦¸ à¦¿à¦¡à§ĩà¦¨à§įà¦Ł
à§įà¦¯ à¦¾à¦®
Ġà¦ªà§ĥà¦¥ à¦¿à¦¬
i f
Ġà¦ªà§įà¦° à¦Ńà¦¾à¦¬
Ġà¦° à§ĭà¦¹à¦¿à¦Ļà§įà¦Ĺ
à¦¾à¦ī à¦¨à§įà¦¡
Ġà¦¬ à§ĭà¦°à§įà¦¡
Ġà¦®à§ģà¦¸à¦² à¦¿à¦®
à§ĭà¦¦ à¦¨
Ġà¦ªà¦°à¦¿à¦® à¦¾à¦£
Ġà¦° à§ĩà¦ľ
Ġà¦¹ à¦¤
! !
Ġà¦Ĩà¦¶ à
Ġà¦Ĩà¦¶à ¦
at e
Ġà¦Ĩà¦¶à¦ ¾
Ġà¦ĵ à¦°
- à¦ıà¦°
Ġà¦ĸ à¦¾à¦¬à¦¾à¦°
à¦¥ à
à¦¥à ¦
à¦¥à¦ ¾
Ġà¦¦ à¦¿à¦ķ
Ġ K
à¦¾à¦ ŀà§įà¦ļ
Ġà¦¸ à§ĩà¦²
à¦¿à¦ī à¦Ł
Ġà¦Ĺ à§ĭà¦ª
Ġà§¨ à§¨
Ġà¦¸à¦¹ à¦¾à¦¯à¦¼
Ġà¦« à§įà¦²
c e
Ġà¦Ĩà¦¦à¦¾à¦² à¦¤
Ġà¦¸ à¦Ļà§įà¦Ĺ
à¦¾à¦Ń à¦¾à¦¬
Ġà¦® à¦¾à¦°à¦¾
Ġà¦¸à§įà¦¬à¦ª à§įà¦¨
ex t
à¦Ĺ à¦¾à¦ģ
Ġà¦¨à¦¾à¦Ĺ à¦°à¦¿à¦ķ
à¦Ł à¦¾à¦¯à¦¼
à¦® à§ĩà¦¨à§įà¦Ł
Ġà¦® à¦¾à¦¦à¦ķ
Ġà¦Ł à§ĩà¦¸à§įà¦Ł
Ġà¦¸à¦¨à§įà¦¤ à¦¾à¦¨
à§ĩà¦¨ à¦¾à¦°
à§ģ à¦¤à¦¿
Ġà¦ĩà¦īà¦¨à¦¿à¦¯à¦¼ à¦¨
à§ĩà¦® à§ĩ
Ġà¦ħà¦Ńà¦¿à¦¯ à¦¾à¦¨
à¦² à§ĩà¦ĩ
Ġà¦¹ à§ģà¦®
Ġà¦¨à¦¿à¦°à§įà¦¬ à¦¾à¦¹à§Ģ
Ġà¦¹à¦¾à¦® à¦²à¦¾
Ġà¦¬à¦¿à¦¶à§įà¦¬ à¦ķà¦¾à¦ª
à¦¾à¦¸ à¦¹
Ġà¦ļ à¦°
Ġà¦¸à¦ļ à¦¿à¦¬
à§įà¦¯à¦¾à¦¨ à§įà¦¸
Ġà¦¦ à¦¾à¦°
Ġà¦¤à¦¾à¦ģ à¦¦à§ĩà¦°
à¦® à§ģà¦¦
à¦® à¦¨à§įà¦¤à§įà¦°à§Ģà¦°
à¦¦à§įà¦§ à
à¦¦à§įà¦§à ¦
Ġà¦® à¦¾à¦Ľ
à¦¦à§įà¦§à¦ ¾
Ġà¦ĩà¦¤ à¦¿à¦¹à¦¾à¦¸
à¦¿à¦¬ à¦¿
à§ģà¦ľ à§įà¦ľ
Ġà¦Ĩ à¦¯à¦¼à§ĭà¦ľà¦¨
Ġà¦¹à¦¿à¦¸ à¦¾à¦¬à§ĩ
à§ĥà¦¤ à¦¿à¦ķ
r i
à§įà¦¯ à¦¾à¦ª
à¦° à¦¬
Ġà¦ª à§ĩà¦²
Ġà¦¸à¦Ń à
Ġà¦¸à¦Ńà ¦
Ġà¦¸à¦Ńà¦ ¾
à¦ľ à¦¾à¦°
Ġà¦ª à§ĩà¦¤à§ĩ
à¦® à¦¤
Ġà¦¦ à§Ī
Ġà¦¦à¦¿à¦¨ à§ĩ
Ġà§¨ à§§
Ġ l
Ġà¦Ĺà§įà¦° à¦¾à¦®
Ġà¦¸ à¦¬à¦¾à¦°
Ġà¦ľà¦¨ à§ĩà¦°
Ġà¦ľ à¦¡à¦¼
Ġà¦ĩ à¦²
Ġà¦¤ à§ģà¦®à¦¿
à§ĩà¦¨ à§ĩà¦°
¦ Ļà§įà¦
à ¦Ļà§įà¦
à¦¿à¦° à¦¿à¦ķà§įà¦¤
à¦® à¦¿à¦¨
Ġà¦Ĩà¦¹ à§įà¦¬
Ġà¦®à¦¸ à¦ľ
) .
Ġà¦īà¦ł à§ĩ
à¦¬à¦¿à¦¶ à§įà¦¬
à¦¿à¦² à§įà¦²
Ġà¦ħà§įà¦¯ à¦¾à¦ª
à§ĭà¦ļ à§įà¦ļ
à¦ļà§įà¦ļ à¦¿à¦¤à§įà¦°
Ġà¦¬à¦¿à¦¶à§įà¦¬ à§ĩà¦°
à¦ĩ à¦ī
à¦¿à¦² à§ĩà¦°
Ġà§¨à§¦à§§à§ ¬
à¦® à¦¾à¦§à§įà¦¯à¦®
à§ĭà¦¨ à¦¾à¦°
à¦¿à¦ª à¦¿
Ġà¦®à¦¾à¦ł à§ĩ
Ġ 4
à¦ļ à§ĩ
Ġà¦¦à§įà¦¬ à¦¾à¦°à¦¾
à¦ı à¦¨
à¦ª à§įà¦²
à¦¶ à¦¿à¦ķà§įà¦·
ĠÂ »
à¦¡ à¦¿
à§ĩà¦¬ à¦²
Ġà¦¨ à¦¿à¦²
Ġà¦Ń à§ĩà¦
Ġà¦¸à¦®à§įà¦Ń à¦¾à¦¬
à§ĩà¦· à§įà¦Ł
Ġ k
Ġà¦ķà¦° à¦Ľà¦¿
Ġà¦ª à¦¶à§įà¦ļà¦¿à¦®
Ġà¦¸ à¦¨à§įà¦¤à§įà¦°
o o
Ġà¦Ĩà¦® à§ĩà¦°
Ġà¦ķà¦° à§ĩà¦Ľà¦¿à¦²à§ĩà¦¨
Ġà¦¬à¦°à§įà¦¤à¦®à¦¾à¦¨ à§ĩ
à¦° à¦¾à¦¨
à§ĩà¦ ŀà§įà¦ľ
Ġà¦ľà¦¾à¦¨ à¦¿à¦¯à¦¼à§ĩà¦Ľà§ĩ
à¦ľ à
à¦ľà ¦
à¦ľà¦ ¾
Ġà¦¨à¦¿ à¦°à§įà¦§
à¦¿à¦Ĺ à¦¤
Ġà¦¦à§ģ à¦°à§įà¦ĺà¦Ł
à¦¯à§ĭà¦Ĺ à§įà¦¯
Ġà¦ĺ à¦°à§ĩ
Ġà¦ª à§ĩà¦¶
ĠN ews
Ġà¦ªà§įà¦°à¦¤à¦¿à¦¬ à§ĩà¦¦
Ġà¦Ĺ à¦¾à¦Ľ
à§įà¦° à¦¿à¦ķ
Ġà¦¨à¦¿à¦°à¦¾à¦ªà¦¤à§įà¦¤ à
Ġà¦¨à¦¿à¦°à¦¾à¦ªà¦¤à§įà¦¤à ¦
Ġà¦¨à¦¿à¦°à¦¾à¦ªà¦¤à§įà¦¤à¦ ¾
à¦¸à§įà¦ķ à¦¾à¦°
à¦ķà§įà¦¸ à¦¬à¦¾à¦ľà¦¾à¦°
Ġà¦ľà¦¨ à¦ªà§įà¦°à¦¿à¦¯à¦¼
Ġà¦¹ à¦¾à¦²
Ġà¦Ĩà¦¨à§įà¦¦à§ĭà¦² à¦¨
Ġà¦ī à¦²
à¦ªà§Ĥ à¦°à§įà¦¬
Ġà¦®à§ģ à¦ľ
Ġà¦¤à§ĭà¦® à¦¾à¦°
Ġà¦®à¦¾à¦¸ à§ĩ
Ġà¦ħà¦¤ à¦¿à¦°à¦¿à¦ķà§įà¦¤
à§ģà¦· à§įà¦Ł
à§įà¦² à¦¿à¦·à§įà¦Ł
Ġà¦ķà¦° à§ĩà¦Ľà¦¿à¦²
Ġà¦¬à§įà¦¯à¦ķà§įà¦¤ à¦¿
Ġà¦¦ à§ĭà¦ķ
Ġà¦Ĩà¦¸ à¦Ľà§ĩ
à¦¸ à§ģ
à¦¾à¦ķ à¦¿à¦¬
Ġ U
Ġà¦¯ à¦¾à¦¤à§ĩ
Ġà§¨ à§©
à¦¦à§įà¦¦ à¦¿à¦¨
Ġà¦ħ à¦¤à§įà¦¯
Ġà¦¬à§įà¦¯à¦¬ à¦¹
Ġà¦¸à¦¿à¦° à¦¿à¦ľ
à¦¾à¦Ĺ à¦¤
Ġà¦Ĺ à¦¿à¦¯à¦¼
à¦¾à¦¦ à¦¨
Ġà¦ķ à¦¿à¦¨
ou s
Ù Ĭ
à¦¾à¦ Ļà§įà¦ķ
Ġà¦¸ à¦¤
Ġà¦Ł à§ĩà¦ķ
à§Ĥ à¦°
à§ĥà¦¤ à§įà¦¤
Ġà¦¬ à¦¿à¦¯à¦¼à§ĩ
à¦¬ à¦¿à¦ľ
à¦¸à¦® à¦¯à¦¼
Ġà¦ľà¦¾à¦¨ à¦¾à¦¯à¦¼
Ġà¦¬à¦¿à¦ľ à§ĩà¦ª
at ion
à¦¸à§įà¦¥ à¦¾à¦¨
Ġà¦ľ à§ĭà¦°
Ġà¦²à¦ķà§įà¦· à§įà¦¯
Ġà¦° à¦ķà¦®
Ġà¦¯ à§ĩà¦ĸà¦¾à¦¨à§ĩ
Ġà¦ªà§įà¦°à¦¤à¦¿à¦¬ à¦¾à¦¦
Ġà¦¸à¦¿à¦¨ à§ĩà¦®
Ġà¦ĸ à§ģà¦ģà¦ľ
Ġà¦¨ à¦¦
Ġà¦ĸ à§ĩà¦²à¦¾
Ġà¦ķà¦® à¦¿à¦Łà¦¿
Ġà¦Ĩà¦ªà¦¨ à¦¾à¦ķà§ĩ
à¦Ł à¦¿à¦¤à§ĩ
Ġà¦ªà§įà¦°à¦¤ à¦¿à¦°
à¦¨ à§Ģà¦¯à¦¼
à¦¾à¦¤ à¦¾à¦°
Ġà¦¨à§ĩà¦¯à¦¼ à
Ġà¦¨à§ĩà¦¯à¦¼à ¦
Ġà¦¨à§ĩà¦¯à¦¼à¦ ¾
Ø §
Ġà¦¥à¦¾à¦ķ à¦²à§ĩ
Ġà¦ļà¦² à¦ļà§įà¦ļà¦¿à¦¤à§įà¦°
Ġà¦ħà¦¨à§įà¦¯ à¦¤à¦®
Ġà¦¬ à¦¨
ĠB angla
Ġà¦ĺà¦Ł à¦¨à¦¾à¦°
Ġà¦Ľ à§ĩà¦¡à¦¼à§ĩ
à¦ľ à¦¾à¦¨
Ġà¦Ń à§ĩà¦¤
Ġà¦Ĺ à¦Ń
à§ĩà¦ĸ à¦¾à¦¨
à¦¾à¦Ńà¦¾à¦¬ à¦¿à¦ķ
à§ĥà¦¤ à§Ģà¦¯à¦¼
Ġà¦Ĩà¦Ĺ à§ģà¦¨
à¦Ł à§ĭ
ou r
Ġà¦¸à¦Ĥ à¦°
à¦Ľ à¦¨à§įà¦¦
/ /
à§įà¦ «
à§įà¦¯ à¦¾à¦Ĺ
Â ł
à¦¦ à¦¿à¦ĵ
Ġà¦¤à¦¾à¦ģ à¦ķà§ĩ
Ġà¦ķà¦° à§ĩà¦Ľà¦¿
a il
Ġà¦Ĺà§įà¦° à§ĩà¦ª
Ġà¦Ĩà¦Ĺ à§ĩà¦°
Ġà¦Ĩà¦² à§ĭ
à¦Ł à¦¨
Ġà¦Ĩà¦¸ à
Ġà¦Ĩà¦¸à ¦
Ġà¦Ĩà¦¸à¦ ¾
Ġà¦¸à¦® à¦¾à¦§
à¦¿à¦¯à¦¼ à§ĭà¦Ĺ
Ġà¦Ĩà¦¬ à¦¦à§ģà¦²
Ġà¦īà¦ªà¦² à¦ķà§įà¦·à§ĩ
à¦« à
à¦«à ¦
Ġà¦¨à¦¾à¦® à§ĩà¦°
Ġà¦¥à¦¾à¦ķ à§ĩà¦¨
à¦«à¦ ¾
à¦¹ à¦¾à¦Ł
Ġà¦®à¦¾à¦® à¦²à¦¾à¦¯à¦¼
à¦¯à¦¼ à¦¦
Ġà¦ķà¦ĸà¦¨ à§ĭ
Ġà¦¸ à§ĩà¦¨à§įà¦Ł
Ġà¦Ł à§ĩà¦²
à¦Ĩ à¦²
à¦ª à¦¥
Ġà¦®à¦¨à§ĭà¦¨ à¦¯à¦¼à¦¨
Ġà¦ħà¦§à§įà¦¯ à¦¾à¦ªà¦ķ
à§įà¦· à¦¿à¦ķ
Ġà¦ļ à§ģà¦ķà§įà¦¤
i k
Ġà¦ª à¦²
Ġà¦ķà¦® à§įà¦ª
Ġà¦®à§įà¦¯à¦¾à¦ļ à§ĩ
à§§à§ ®
Ġà¦¬à§ĭ à¦Ŀ
Ġ 5
à¦¦ à§ģ
Ġà¦ª à¦¾à¦¹
à§ĥ à¦£
Ġà¦¹ à§ĭà¦ķ
à¦Ń à¦¾à¦Ĺ
Ġà¦² à¦¾à¦¶
à¦¿à¦° à§ĩ
à¦¸ à¦¾à¦ĩà¦Ł
à¦¿à¦ķ à¦¾à¦¯à¦¼
à¦ļ à¦¨à¦¾
Ġà¦ķà¦² à¦ķ
a p
à¦¸ à¦¿à¦ķ
à¦¿à¦¤ à¦¾à¦°
à§ģà¦¦ à§įà¦°
Ġà¦¬ à¦¾à¦ķ
Ġà¦ĩ à¦¨à§įà¦¡
Ġà¦ıà¦ĸà¦¨ à¦ĵ
Ġà¦Ĩà¦Ĺ à§ĩà¦ĩ
Ġà¦®à¦¾à¦¹ à¦®à§ģà¦¦
à§ĩà¦ļ à§įà¦Ľ
à¦Ĩ à¦Ĺ
à¦Ĩà¦® à¦¾à¦¦à§ĩà¦°
Ġà¦¸ à¦¿à¦Łà¦¿
à¦Ĩà¦® à¦¾à¦°
Ġà¦ħà¦§ à¦¿à¦ķà¦¾à¦°
a b
Ġà¦Ĺ à¦¾à¦¡à¦¼
Ġà¦« à¦¿à¦²
Ġà¦¨ à¦¿à¦ķ
Ġà¦¬à¦Ļà§įà¦Ĺà¦¬à¦¨à§įà¦§ à§ģ
Ġà¦¸à¦Ĥ à¦ķ
Ġà¦Ľ à¦¯à¦¼
à§ĭà¦ģ à¦ľ
à¦¶ à¦¾à¦¹à§Ģ
Ù ħ
Ġà¦ª à§ģ
Ġà¦ªà¦¯à¦¼ à§ĩà¦¨à§įà¦Ł
à§ĩà¦¤ à§ģ
à§§à§ «
Ġà¦¦ à§ĥà¦·à§įà¦Ł
Ġà¦¸à¦¾à¦¹à¦¾à¦¯ à§įà¦¯
Ġà¦¤ à¦¾à¦¤à§ĩ
Ġà¦ª à¦¦à§įà¦§
t er
Ġà¦® à¦¨à§įà¦¤à§įà¦°à§Ģ
à¦¦à§įà¦ Ń
à¦¿à¦ī à¦¨
Ġà¦ĺ à§ģà¦®
- à¦ķ
Ġà¦ª à¦°à§įà¦¬
à¦® à§įà¦ª
t p
Ġà¦® à§įà¦¯à¦¾à¦¨
à¦¾à¦¨ à§įà¦¸
Ġà¦ļà¦¿à¦ķà¦¿à§İ à¦¸à¦¾
Ġà¦ħà¦¨ à¦²à¦¾à¦ĩà¦¨
à¦¾à¦īà¦¨ à§įà¦Ł
Ġà¦®à¦¾à¦® à¦²à¦¾à¦°
Ġà¦® à¦¡
Ġà¦¸à¦®à¦¯à¦¼ à§ĩà¦°
Ġà¦ª à¦¾à¦ĩ
à§įà¦¯à§ģ à§İ
Ġà¦ħ à¦¸à§įà¦¤à§įà¦°
Ġ +
Ġà¦ıà¦ĸà¦¨ à§ĭ
à¦¾à¦¹ à¦¿à¦¦
Ġà¦ķ à¦¿à¦¶à§ĭà¦°
Ġà¦ķà§įà¦¯ à¦¾à¦®à§įà¦ª
Ġà¦ªà¦£ à§įà¦¯
Ġà¦ª à¦¾à¦¸
Ġà¦Ĩà¦¸ à¦¾à¦®
à§įà¦Ľ à¦¿à¦²
à§ģà¦ľà§įà¦ľ à¦¾à¦®à¦¾à¦¨
Ġ v
Ġà¦ªà§įà¦°à¦¬ à§ĩà¦¶
à¦§à§įà¦¯ à§ĩ
Ġà¦®à¦¹à¦¿à¦² à
Ġà¦®à¦¹à¦¿à¦²à ¦
Ġà¦®à¦¹à¦¿à¦²à¦ ¾
Ġà¦ķ à¦¾à¦¦à§ĩà¦°
Ġà¦ĸ à¦°
Ġà¦ľ à¦¿à¦¨
à§ĩà¦¨ à¦¿
Ġà¦¨à¦¿à¦¬ à¦¨à§įà¦§
Ġà¦« à¦¾à¦°
Ġà¦¸ à§ĩà¦¬à¦¾
Ġà¦ªà§įà¦°à¦® à¦¾à¦£
à¦¤à§įà¦¤ à¦°
à§įà¦¯ à¦¾à¦¬
Ġà¦ıà¦Ľ à¦¾à¦¡à¦¼à¦¾
Ġà¦¹à¦² à§ĩà¦¨
Ġà¦¶à¦¹ à¦°à§ĩà¦°
Ġà¦¬à¦¾à¦¸à§įà¦¤ à¦¬à¦¾à¦¯à¦¼
Ġà¦ªà§įà¦° à¦ļà¦¾à¦°
Ġ =
Ġà¦ĺ à¦°
Ġà¦ı à¦¶
Ġà¦¶ à¦¾à¦ĸ
Ġà¦ħ à¦²
2 01
Ġà¦¸à¦Ń à¦¾à¦¯à¦¼
à¦¾à¦ ĺ
Ġà¦¹ à¦ĵà¦¯à¦¼
Ġà¦¹à¦¯à¦¼ à¦¤à§ĭ
Ġà¦¸à¦°à§įà¦¬ à§ĭà¦ļà§įà¦ļ
Ġà¦ªà¦°à¦¿à¦ķà¦²à§įà¦ª à¦¨à¦¾
Ġà¦¬à¦¾à¦ľà¦¾à¦° à§ĩ
Ġà¦¸ à¦¾à¦°à¦¾
à§Ģà¦° à§ĩ
Ġà¦ªà§įà¦° à¦¾à¦°à§įà¦¥
Ġà¦ħ à§įà¦¯à¦¾à¦¨à§įà¦¡
à¦ĩ à¦¨
.. ..
Ġà¦¹ à¦¾à¦ĩ
à§ĭà¦¬ à¦¬à¦¾à¦°
Ġà¦ķà¦° à§ĭà¦¨à¦¾
Ġà¦ªà§įà¦°à¦¤ à¦¿à¦¯à§ĭà¦Ĺ
à¦¾à¦¯à¦¼ à¦£
Ġà¦¸ à§ĩà¦°à¦¾
à§ĩà¦® à§įà¦¬
à¦¾à¦¸ à§ĩ
ĠØ §ÙĦ
à¦¾à¦¨à§įà¦¤ à¦°
Ġà¦īà§İ à¦¸
l y
Ġà¦ħà¦¬à¦¸à§įà¦¥ à
Ġà¦ħà¦¬à¦¸à§įà¦¥à ¦
Ġà¦ħà¦¬à¦¸à§įà¦¥à¦ ¾
Ġà¦Ĺ à§ĥà¦¹
Ġà¦¦ à§ĩà¦¯à¦¼à¦¾à¦°
âĢĻ à¥¤
Ġà¦¬à§ĥà¦¦à§įà¦§ à¦¿
Ġà¦¸à¦« à¦²
Ġà¦®à§ģà¦ķà§įà¦¤ à¦¿
Ġà¦¬à§ĥ à¦·à§įà¦Ł
Ġà¦ľ à§įà¦¬
Ġà¦¸à§Ģ à¦®à¦¾à¦¨
Ġà¦ľ à¦¿à¦ľà§įà¦ŀ
Ġà¦¸à¦Ĥà¦¶ à§įà¦²à¦¿à¦·à§įà¦Ł
Ġà¦¦ à§ĥ
à§ĩà¦¤ à
Ġà¦Ĺ à¦¡à¦¼
à§ĩà¦¤à ¦
à§ĩà¦¤à¦ ¾
à§ĩà¦ĩ à¦²
Ġà¦ĩ à¦¤à§įà¦¯
Ġà¦ĸ à¦¾à¦°
à¦¨ à¦¿à¦ľ
à¦¦ à§ĩ
Ġà¦ļà¦¾à¦² à§ģ
Ġà¦ªà¦°à¦¿à¦· à¦¦à§ĩà¦°
Ġà¦§ à¦°à¦¾
Ġà¦¹ à¦¿à¦¨à§įà¦¦
à§ģà¦² à§ĩà¦°
er s
à¦¶ à
à¦£ à§ĩ
à¦¶à ¦
à¦¶à¦ ¾
Ġà¦¸ à¦łà¦¿à¦ķ
Ġà¦¨ à¦Ĺà¦°
Ġà¦ķà¦¾à¦ľ à§ĩà¦°
à¦ªà§įà¦° à¦§à¦¾à¦¨
Ġà¦¨ à¦¾à¦ķà¦¿
o st
Ġà¦ªà§įà¦°à¦¸à§įà¦¤ à¦¾à¦¬
Ġà¦ħà§įà¦¯ à¦¾à¦ķ
Ġà¦¬à¦¨à§įà¦§ à§ģ
Ġà¦®à¦¾à¦¸ à§ĩà¦°
Ġà¦ªà¦¾à¦° à¦¿
Ġà¦ħà¦«à¦¿à¦¸ à¦¾à¦°
Ġà¦¸à¦Ĥà¦Ĺà¦ł à¦¨
Ġà¦ıà¦² à¦¾à¦ķà¦¾
Ġà¦ħà¦ª à§ĩà¦ķà§įà¦·
Ġà¦¦à§ģ à¦°à§įà¦¨
Ġà¦ľà¦¾à¦¨ à¦¾à¦¨à§ĭ
à§įà¦Ľ à¦¿
Ġà¦ļ à¦¿à¦¤à§įà¦°
Ġà¦ªà§įà¦°à¦ķ à§įà¦°
Ġà¦¸à¦Ĥ à¦¸à§įà¦¥
Ġà¦¬à¦¿à¦ª à¦ķà§įà¦·à§ĩ
à¥¤ âĢĿ
Ġà¦ªà§įà¦°à¦¤à¦¿à¦¬ à§ĩà¦¦à¦¨
Ġà¦¬ à¦¿à¦ķà§įà¦·
Ġà¦¯ à¦¾à¦¬
Ġà¦ªà§įà¦°à¦¤ à¦¿à¦Łà¦¿
Ġà¦Ĩà¦ª à¦¡à§ĩà¦Ł
Ġà¦ª à¦Ľà¦¨à§įà¦¦
Ġà¦¬à¦¾à¦ Ĺ
à§įà¦¯ à¦¾à¦®à§įà¦ª
Ġà¦¦à¦° à¦ķà¦¾à¦°
Ġà¦ķà¦¯à¦¼à§ĩà¦ķ à¦Łà¦¿
Ġà¦Ł à§ģ
Ġà¦¤ à¦¾à¦ķ
à§įà¦° à¦¾à¦®
à§Ĥ à¦°à§įà¦¤
à¦® à¦¹
Ġà¦¶ à¦¿à¦°
à¦ķà§įà¦· à¦®
à¦¾à¦¶ à¦¨
Ġà¦ªà¦¾à¦° à¦¬à§ĩ
Ġà¦¬à§įà¦¯à¦¬à¦¸ à¦¾à¦¯à¦¼
Ġà¦ĩà¦ī à¦°
Ġà¦ľà¦¾à¦¨ à¦¿à¦¯à¦¼à§ĩ
Ġ V
Ġà¦Ĩà¦¹à¦® à¦¦
à¦¤ à¦¨à§įà¦¤à§įà¦°
H ome
Ġà¦¬à¦¿à¦ľ à¦¯à¦¼
Ġà¦Ĺà§įà¦°à§ĩà¦ª à§įà¦¤à¦¾à¦°
Ġà¦¥à¦¾à¦¨ à¦¾à¦¯à¦¼
Ġà¦¸ à¦¾à¦ĩà¦Ł
à¦¬ à§ģ
Ġà¦¨ à¦Ĥ
à¦¿à¦Ĥ à¦¸
Ġ201 8
à¦Ĥ à¦¸
Ġà¦ĸ à§ģà¦¨
Ġà¦ªà¦¾à¦ķà¦¿à¦¸à§įà¦¤ à¦¾à¦¨
à¦¾à¦® à¦°à§įà¦¶
Ġà¦« à§ĩà¦²à§ĩ
Ġà¦¸à§įà¦¬ à¦¾à¦®à§Ģ
Ġà¦ļà¦¾à¦² à¦¿à¦¯à¦¼à§ĩ
Ġà¦«à§ĩà¦¸à¦¬ à§ģà¦ķ
Ġà¦ħà¦¨à§ģà¦·à§įà¦ł à¦¾à¦¨
à¦ķ à§ĥà¦¤
à¦¿à¦· à§įà¦¯
à§ĭà¦² à¦¾à¦°
: //
Ġà¦¶à¦¹ à¦°
o s
Ġà¦¶ à¦¿à¦ķà¦¾à¦°
à§§à§ §
Ġà¦¸à¦®à§įà¦ª à§Ĥà¦°à§įà¦£
Ġà¦Ĩà¦¬ à§ģ
Ġà¦¨ à¦¿à¦®
Ġà¦¬à¦¿à¦¤ à¦°à¦£
Ġà¦ª à§ĩà¦°
à§ģ à¦¯à¦¼à¦¾
Ġ y
à¦¦ à§įà¦¬
à¦¦ à¦²
Ġà¦ħ à¦®
Ġà¦¤ à§ĥà¦¤à§Ģà¦¯à¦¼
â Ĩ
Ġà¦ķ à¦¿à¦Ńà¦¾à¦¬à§ĩ
Ġà¦Ĺà¦ł à¦¨
Ġà¦ª à¦¿à¦Ľ
à¦¸ à¦¿à¦²
Ù ĩ
Ġà¦¨à¦¿à¦° à§įà¦¯à¦¾à¦¤
Ġà¦ª à¦¾à¦ĵà¦¯à¦¼à¦¾à¦°
Ġà¦ªà§įà¦° à¦¿à¦¯à¦¼
Ġà¦¨à¦¿à¦°à§įà¦¬à¦¾à¦ļ à¦¨à§ĩà¦°
Ġà¦¨ à§ĩà¦¨
Ġà¦¬à¦¾à¦£ à¦¿à¦ľà§įà¦¯
Ġà¦¦ à¦°à§įà¦¶
Ġà¦Ĩà¦Ĺ à§įà¦°
e p
Ġà¦ªà§įà¦°à¦¶ à¦¿à¦ķà§įà¦·
Ġà¦¬à¦¿à¦¨ à¦¿à¦¯à¦¼à§ĭà¦Ĺ
Ġà¦° à§ĭà¦¡
Ġà¦Ĩà¦¦à¦¾à¦² à¦¤à§ĩ
Ġà¦¹ à¦¾à¦ľ
Ġà¦Ĩà¦¸ à¦²à§ĩ
Ġà¦¤à¦¾à¦ģ à¦°à¦¾
Ġà¦° à¦Ĥ
Ġà¦¸ à§ĩà¦ķà§įà¦¸
o v
Ġà¦ªà¦° à¦¾à¦®à¦°à§įà¦¶
Ġà¦ļ à§ĩà¦¯à¦¼
à¦¸ à¦¨
à¦²à§ĭ à¦¡
Ġà¦ªà¦¦ à§ĩ
Ġà¦¸à¦Ĥ à¦¸à§įà¦¥à¦¾
Ġà¦¹à¦¾à¦° à¦¿à¦¯à¦¼à§ĩ
Ġà¦¶à¦¿à¦ķà§įà¦· à¦¾à¦°à§įà¦¥à§Ģ
Ġà¦¸à¦¹ à¦ķà¦¾à¦°à§Ģ
Ġà¦Ľ à§ĩà¦²
Ġà¦¶à¦¿à¦ķà§įà¦·à¦¾à¦°à§įà¦¥ à§Ģà¦¦à§ĩà¦°
Ġà¦ªà¦¡à¦¼ à§ĩà¦Ľà§ĩ
Ġà¦ªà§Įà¦ģ à¦Ľ
Ġà¦ĸà¦¾à¦¦ à§įà¦¯
Ġà¦ħà¦¨ à§ģà¦°
Ġà¦Ĳ à¦¤
Ġà¦¬à¦Ľ à¦°à§ĩ
Ġà¦¦à§ģ à¦ªà§ģà¦°à§ĩ
Ġà¦¬à¦¿à¦·à¦¯à¦¼ à¦ķ
- à¦°
Ġà¦¸à¦¾à¦° à§įà¦Ń
Ġà¦¬à¦¹ à§ģ
Ġà¦ªà§įà¦°à¦¤à¦¿à¦¦ à¦¿à¦¨
Ġà¦ĵà¦¯à¦¼à¦¾à¦° à§įà¦¡
à¦° à¦¾à¦«
Ġà¦ĵà¦¯à¦¼à§ĩà¦¬ à¦¸à¦¾à¦ĩà¦Ł
Ġà¦ªà¦°à¦¿à¦ļ à¦¯à¦¼
Ġà¦¬à§įà¦¯à¦¾à¦ª à¦ķ
à§įà¦¯à¦¾à¦¨ à§įà¦Ł
à¦¾à¦¹ à¦¾à¦°
à§¨ à§ª
or e
es s
à¦¾à¦¬ à§ĩà¦¶
âĢ ľ
Ġà¦¸à¦Ńà¦¾à¦ª à¦¤
Ġà¦Ĺ à¦°
Ġà§« à§¦
à§ģ à¦ļ
Ġà¦¸à§įà¦¥ à¦¾à¦¨à§ĩ
Ġà¦ĸà§ģà¦¬ à¦ĩ
Ġà¦° à§ĩà¦²
Ġà§¨ à§¬
Ġà¦ªà§ģà¦° à¦¸à§įà¦ķà¦¾à¦°
à¦¨ à§įà¦Ł
à§ģà¦° à
à§ģà¦°à ¦
à§ģà¦°à¦ ¾
Ġà¦Łà§įà¦° à¦¾à¦®à§įà¦ª
à¦¿à¦¯à¦¼ à¦°
Ġ201 9
Ġà¦ħ à¦¶
à§§à§ ¬
Ġ re
Ġà¦¶ à¦¾à¦°
à¦¿à¦¤ à¦¿à¦°
Ġà¦Ĺ à¦¾à¦¡à¦¼à¦¿
in d
Ġ2 0
à¦ķ à¦¿à¦Ľà§ģ
n d
Ġà¦®à§ģà¦ľ à¦¿à¦¬
Ġà¦¬à§įà¦¯à¦¬à¦¸ à¦¾à¦¯à¦¼à§Ģ
w w
à¦Ĺ à¦¾à¦°
à¦Ł à§ĩà¦°
Ġà¦¬à¦¯à¦¼ à¦¸
Ġà¦¬à§ĩà¦ ¡à¦¼à§ĩ
Ġà¦¡ à¦Ł
à¦¾à¦² à¦ķ
Ġà¦ľà§Ģà¦¬ à¦¨à§ĩà¦°
o p
Ġà¦®à§ĩà¦¯à¦¼ à¦°
à¦° à¦¿à¦°
Ġà¦Ĩ à¦°à§įà¦¥
Ġà¦¬à¦¿à¦¦ à§įà¦¯à§ģà§İ
Ġà¦² à¦¿à¦®
u m
Ġà¦ħà¦¬à¦¶à§įà¦¯ à¦ĩ
Ġà¦ķà¦¾à¦® à¦¾à¦²
Ġà¦®à¦¸à¦ľ à¦¿à¦¦
à¦¾à¦¹ à¦¤
Ġà¦¬à¦¾à¦ ļ
à§§à§ ©
à¦¾à¦ĩ à¦Ń
à¦¿à¦² à§ĩ
à¦¬ à¦¨
Ġ à¦·
à¦¾à¦ĩ à¦¡
Ġà¦Ĩà¦° à¦¬
Ġà¦¬à¦¾à¦ Ļ
Ġà¦¬à§ĩà¦ ģ
Ġà¦ķà§ģà¦® à¦¾à¦°
Ġà¦ľ à¦¿à¦¯à¦¼à¦¾à¦°
Ġà¦ªà¦°à¦¿à¦ļà¦¾à¦² à¦¨à¦¾
à§¨ à§«
Ġà¦¦à¦¿à¦² à§ĩà¦¨
à¦¾à¦¦ à§Ģ
Ġà¦¢ à¦¾à¦ķà¦¾à¦°
Ġà¦¸ à§ĩà¦ĸà¦¾à¦¨
b er
Ġà¦¡ à¦²à¦¾à¦°
à§įà¦Łà§įà¦° à§ĩà¦²
à¦¸ à¦¿à¦Ĥà¦¹
à¦¾à¦¨ à¦¿à¦ķ
à¦¤ à¦¾à¦ĩ
à¦¿à¦ļ à¦¾à¦°
Ġà¦Ĩà¦¸ à¦¤à§ĩ
Ġà¦ħ à¦Ĺà§įà¦°
à¦¾à¦§ à¦¿à¦ķà¦¾à¦°
Ġà¦¶ à¦¿à¦¬
Ġà¦Ńà¦¾à¦²à§ĭ à¦¬à¦¾à¦¸
Ġà¦ı à¦¡
à§ĭà¦ª à¦¾à¦§
Ġà¦īà¦¨à§įà¦¨ à¦¯à¦¼
Ġà¦ªà¦°à§Ģà¦ķà§įà¦· à¦¾à¦°
à¦¸ à¦°à§įà¦¬
à¦¿à¦¸ à¦Ĥ
à¦¿à¦¶ à¦¨
ic le
Ġà¦¬ à¦°à§įà¦·
à§įà¦ Ĺ
Ġà¦ªà§Ĥ à¦°à§įà¦£
Ġà¦īà¦¦à§įà¦¬ à§ĭà¦§à¦¨
e c
à§įà¦¯à¦® à¦¨à§įà¦¤à§įà¦°à§Ģ
Ġà¦® à¦¿à¦¯à¦¼à¦¾
Ġà¦¹à¦ĵà¦¯à¦¼ à¦¾à¦¯à¦¼
Ġà¦°à¦¾à¦ĸ à¦¾à¦°
à¦ļ à¦¿à¦¤à§įà¦°
à¦¤ à¦¾à¦¬
à¦¾à¦® à¦¤
à§ģà¦¯à¦¼à¦¾à¦° à§Ģ
ÙİØ §
Ġà¦¦ à¦ĸ
à¦¾à¦¸ à
à¦¾à¦¸à ¦
à¦¾à¦¸à¦ ¾
Ġà¦¸à§įà¦¬ à¦¾à¦Ńà¦¾à¦¬à¦¿à¦ķ
à¦« à§įà¦°
à§ģà¦° à§ĩà¦°
à¦¾à¦ª à¦¨à¦¾
Ġà¦ķà§įà¦· à¦¤
Ġà¦¸ à§ģà¦¨
Ġà¦ħà¦¤à¦¿à¦¥ à¦¿
Ġà¦®à§ĩà¦¡à¦¿à¦ķ à§ĩà¦²
Ġà¦ª à§ĩà¦Ľ
à¦¬ à¦¿à¦¨
Ġà¦¬à§įà¦¯à¦¾à¦Ĥ à¦ķà§ĩà¦°
à¦¿à¦¶ à¦¾à¦²
Ġà¦¶à¦¹ à§Ģà¦¦
à¦ĺ à¦¾à¦¤
Ġà¦ªà¦°à§įà¦¯ à¦¾à¦¯à¦¼à§ĩ
à§ĭà¦¨ à§ĭ
Ġà¦° à¦¾à¦®
Ġà¦Ńà§Ĥà¦®à¦¿à¦ķ à
Ġà¦Ńà§Ĥà¦®à¦¿à¦ķà ¦
Ġà¦Ńà§Ĥà¦®à¦¿à¦ķà¦ ¾
à¦¸ à¦Ļà§įà¦Ĺ
Ġà¦ı à¦Ł
Ġà¦ª à§įà§°
Ġà¦ķà¦ł à¦¿à¦¨
Ġà¦Łà§įà¦° à§ĩà¦¡
Ġà¦®à§ģà¦ķà§įà¦¤à¦¿à¦¯ à§ĭ
à¦¨ à¦¾à¦¥
Ġà¦¸à¦Ĥ à¦ķà§įà¦°à¦¾à¦¨à§įà¦¤
Ġà¦Ĳ à¦ķà§įà¦¯
re vi
Ġà¦°à¦¾à¦ĸ à§ĩà¦¨
Ġà¦ĵ à¦ª
à§Ĥ à¦¤
Ġà¦ªà§įà¦°à¦§à¦¾à¦¨ à¦®à¦¨à§įà¦¤à§įà¦°à§Ģà¦°
ï ¿
à¦Ļà§įà¦ ĸ
Ġà¦ªà¦°à¦¿à¦¸à§įà¦¥ à¦¿à¦¤à¦¿
Ġà¦¨à¦¿à¦¯à¦¼ à§ĩà¦Ľà§ĩ
à¦¾à¦ļ à§įà¦Ľà§ĩà¦¨
Ġà¦¬à¦¿à¦ķà§įà¦· à§ĭà¦Ń
ï¿ ½
à¦¸ à¦¾à¦®
Ġà¦¬à§įà¦¯à¦¾à¦ª à¦¾à¦°
à¦¤ à¦¾à¦®
à¦¾à¦ĩ à¦ľ
Ġà¦ªà§įà¦°à¦¯à¦¼à§ĭà¦ľà¦¨ à§Ģà¦¯à¦¼
à¦£ à§įà¦ł
à¦¬ à¦¨à§įà¦¦
Ġà§ ·
à§ģà¦² à¦¿
à§§à§ ª
1 8
Ġà¦ªà§Į à¦°
Ġà¦ľà¦¾à¦¯à¦¼à¦Ĺ à¦¾à¦¯à¦¼
Ġà¦°à¦¾à¦ľ à¦¨à§Ģà¦¤
Ġà¦¸à¦®à§įà¦® à¦¾à¦¨
Ġà¦ĩà¦¤à§įà¦¯ à¦¾à¦¦à¦¿
à¦Ĩà¦ª à¦¨à¦¾à¦°
Ġà¦īà§İ à¦¸à¦¬
§ ·
Ġà¦¦ à§ĩà¦¬à§ĩ
Ġà¦¨à¦¿à¦ľ à§ĩà¦ķà§ĩ
à§įà¦¯ à¦¾à¦£
Ġà¦ĸà¦° à¦ļ
à§ĩà¦ķ à¦°à§įà¦¡
à¦¹ à¦¤à§įà¦¯
Ġà¦ļ à¦¾à¦·
Ġà¦Ĩà¦¹à§įà¦¬ à¦¾à¦¨
Ġà¦¶ à¦¾à¦¸à§įà¦¤
Ġà¦¸à§Ĥà¦¤à§įà¦° à§ĩ
Ġà¦¹ à¦¾à¦ģ
à¦¨à¦¿ à¦°à§įà¦¬
Ġà¦ķ à¦Ĥ
Ġà¦§à¦¾à¦°à¦£ à
Ġà¦§à¦¾à¦°à¦£à ¦
Ġà¦§à¦¾à¦°à¦£à¦ ¾
in e
Ġà¦¬à§ģà¦Ŀ à¦¤à§ĩ
à¦Ĩ à¦¨
Ġà¦ķ à§ĩà¦¬à¦²
Ġ 6
Ġà¦¨à¦¿à¦¯à¦¼à¦® à¦¿à¦¤
Ġf or
à¦¨à§įà¦¯ à¦¬à¦¾à¦¦
revi ous
ÙĴ Ø
Ġà¦ķà¦¾à¦ī à¦¨à§įà¦¸
à¦¬ à¦Ļà§įà¦Ĺ
Ġà¦ļ à¦¾à¦ģà¦¦
Ġà¦Ŀ à§ģà¦ģ
à§Įà¦¶ à¦²
Ġà¦® à¦¯à¦¼
Ġà¦Ĺà§įà¦° à¦¾à¦®à§ĩ
Ġà¦¶à§įà¦° à§Ģ
à¦ı à¦«
Ġà¦ªà§įà¦°à¦¤à¦¿à¦° à§ĭà¦§
Ġà¦ªà¦¡à¦¼ à¦¤à§ĩ
es h
à¦¿à¦Ł à§ĩà¦¡
Ġà¦ª à¦¤
à§ĥ à¦¦à§įà¦§
Ġà¦¸à¦® à¦¸à§įà¦¤
à¦¾à¦¤ à§įà¦®
Ġà¦ĩà¦Ĥ à¦°
Ġà¦¯ à¦¦à¦¿à¦ĵ
Ġà¦ªà¦°à¦¿à¦· à¦¦
à¦¿à¦ķ à§ĩà¦°
Ġà¦¨à¦¿à¦°à§įà¦¬à¦¾à¦ļ à¦¿à¦¤
Ġà¦¸à¦Ĥà¦ĺ à¦°à§įà¦·
à¦Ĺà§įà¦° à§ĩà¦¸
à¦¿à¦¯à¦¼ à§ĩà¦°
à¦® à§ĩà¦°
Ġà§¨ à§Ń
à¦ī à¦ª
Ġà¦ĸà¦¾à¦° à¦¾à¦ª
à§Ī à¦§
Ġà§¨ à§®
Ġà¦ħà¦¨à§ĩà¦ķ à§ĩà¦ĩ
Ġà¦¸ à¦¨à§įà¦¦
Ġà¦°à¦¾à¦ľ à§įà¦¯
Ġà¦ķà§ĭ à¦ļ
à¦¨ à¦¾à¦®
à¦¿à¦ī à¦¡
Ġà¦ªà¦° à¦¿à¦£
à¦¸ à¦¿à¦°
Ġà¦ªà¦¡à¦¼ à
Ġà¦ªà¦¡à¦¼à ¦
Ġà¦ªà¦¡à¦¼à¦ ¾
Ġà¦°à¦¾à¦ľà¦§à¦¾à¦¨ à§Ģà¦°
à¦¬ à¦¿à¦¤à§įà¦°
à¦¾à¦Ĺ à§ģà¦²à§ĭ
Ġà¦ªà§įà¦° à¦¯à¦¼
à¦¤ à§Ģ
Ġà¦Ľ à¦¡à¦¼à¦¿à¦¯à¦¼à§ĩ
à§ģà¦¨ à
à§ģà¦¨à ¦
à§ģà¦¨à¦ ¾
Ġà¦® à¦¿
à§įà¦² à¦¾à¦®
Ġà¦¦à¦² à§Ģà¦¯à¦¼
à§ģ à¦¡
Ġà¦¬à§Ī à¦¶
Ġà¦ħà¦¬ à§įà¦¯
Ġà¦° à§ĭà¦¬à¦¬à¦¾à¦°
Ġà¦¬ à¦¾à¦¹
Ġà¦ª à¦¾à¦¬à§ĩà¦¨
Ġ/ /
Ġà¦ļà¦¿à¦¨à§įà¦¤ à
Ġà¦ļà¦¿à¦¨à§įà¦¤à ¦
Ġà¦ļà¦¿à¦¨à§įà¦¤à¦ ¾
à§ĩà¦Ľà¦¿à¦² à¦¾à¦®
Ġà¦ľà¦¡à¦¼ à¦¿à¦¤
à¦¾à¦ķ à¦°à§įà¦®
ÙİÙ ĳ
Ġà¦ķ à¦ķà§įà¦¸à¦¬à¦¾à¦ľà¦¾à¦°
Ġà¦ħà¦°à§įà¦¥ à¦¾à§İ
Ġà¦¨ à¦¿à¦ī
Ġà¦ļà¦¾à¦ĩ à¦²à§ĩ
Ġà¦ħà¦Ńà¦¿à¦¨ à¦¯à¦¼
à¦¾à¦¨ à§įà¦¦
Ġà¦ķà§įà¦·à¦® à¦¤à¦¾
à¦ªà§įà¦° à¦¥à¦®
Ġà¦¸à¦Ńà¦¾à¦ªà¦¤ à¦¿à¦¤à§įà¦¬
à§ĭ à¦¡à¦¼
Ġà¦¬à¦¾à¦ģ à¦ļ
à¦Ĺ à¦£
à§ĥ à¦¦
Ġà¦° à¦¸
Ġà¦¬à¦¿à¦ľà§įà¦ŀ à¦ªà§įà¦¤
à¦¾à¦¬ à§įà¦¦
Ġà¦ªà§Ĥà¦°à§įà¦¬ à¦¾à¦¹
Ġà¦Ĩà¦¬ à§ģà¦²
Ġà¦ªà¦¾à¦ł à¦¾à¦¨à§ĭ
à¦¿à¦ķ à§įà¦¸
Ġà¦«à§ģà¦Ł à¦¬à¦²
à¦¾à¦² à§ĩà¦¨
à§ģà¦² à§įà¦²à¦¾à¦¹
Ġà¦¸à§ģà¦¬à¦¿à¦§ à
Ġà¦¸à§ģà¦¬à¦¿à¦§à ¦
Ġà¦¸à§ģà¦¬à¦¿à¦§à¦ ¾
à§ģà¦¨ à¦¿à¦ķ
Ġà¦ªà§įà¦°à¦¸à§įà¦¤ à§ģà¦¤
en g
Ġà¦ķ à¦·à§įà¦Ł
Ġà¦ĩ à¦°
Ġà¦¤à¦¾à¦² à¦¿à¦ķà¦¾
à¦¹ à§Ģà¦¨
à¦¿à¦Ł à¦¾à¦²
à§ĭ à¦ķà§įà¦¤
Ġà¦¬à¦² à¦Ľà§ĩà¦¨
Ġà¦¸à§Ģà¦®à¦¾à¦¨ à§įà¦¤
Ġà¦Ń à¦¾à¦Ļ
v e
Ġà¦ļ à§Ģ
à¦¸ à¦¾à¦¨
is t
à¦ł à¦¾à§İ
Ġà¦®à¦¾à¦¥ à¦¾à¦¯à¦¼
Ġà¦ķà¦®à¦¿à¦¶ à¦¨
Ġà¦ıà¦ķ à¦¾à¦§à¦¿à¦ķ
Ġà¦² à¦¡à¦¼à¦¾à¦ĩ
Ġà¦® à¦¿à¦¥
Ġà¦ıà¦ķ à¦¬à¦¾à¦°
Ġà¦¤ à§ĩà¦®à¦¨
1 0
Ġ ?
à¦ª à¦¾à¦¶
Ġà¦Ńà¦¾à¦· à
Ġà¦Ńà¦¾à¦·à ¦
Ġà¦Ńà¦¾à¦·à¦ ¾
Ġà¦ľ à§ĩà¦¨à¦¾à¦°
à¦®à¦¨ à¦¸à¦¿à¦Ĥà¦¹
Ġà¦¬à¦¿à¦¶ à¦¾à¦²
Ġà¦® à¦¨à§įà¦¦
ar e
Ġà¦Ńà¦¬ à¦¿à¦·à§įà¦¯
Ġà¦īà¦ĩà¦ķ à§ĩà¦Ł
Ġà¦®à§ĥà¦¤à§įà¦¯ à§ģà¦°
Ġà¦¦à§ģ à¦ĥ
à¦Ĩà¦® à¦°à¦¾
Ġà¦²à¦¿à¦® à¦¿à¦Łà§ĩà¦¡
- à§¨
à¦¬ à¦¾à¦¹
Ġà¦° à§ĩà¦ķà¦°à§įà¦¡
à¦¾à¦¸ à¦°à¦¿
Ġà¦°à¦¯à¦¼ à§ĩà¦Ľà§ĩà¦¨
à§ĩà¦ ¡à¦¼
à¦¬ à§Ģ
Ġà¦® à§ĩà¦¨à§ĩ
Ġà¦¹à¦¤à§įà¦¯ à¦¾à¦°
Ġà¦ĩ à¦ļà§įà¦Ľ
Ġà¦ª à§ĭà¦¶
à¦¾à¦ª à§Ģ
Ġà¦īà¦ł à§ĩà¦Ľà§ĩ
Ġà¦ķ à¦¿à¦¨à¦¾
Ġà¦Ĩà¦ĩà¦¨ à¦ľà§Ģà¦¬
Ġà¦°à¦¬ à¦¿à¦¬à¦¾à¦°
Ġà¦¤ à§ĩà¦²
Ġà¦īà¦ª à¦¾à¦¯à¦¼
à¦¬ à¦Ľ
N ext
Ġà¦ħà¦§ à¦¿à¦¦
Ġà¦Ĩ à¦ĵ
Ġà¦Ĺ à¦°à¦®
Ġà¦ħà¦Ń à¦¿à¦ľà§įà¦ŀ
à¦¬à¦° à¦¾à¦¹
Ġà¦ķ à§ĩà¦®à¦¨
Ġà¦¸à¦¹à¦¾à¦¯à¦¼ à¦¤à¦¾
Ġà¦® à¦¾à¦ĩ
à¦ļ à¦¿à¦¬
Ġà¦¬à¦¾à¦§ à§įà¦¯
Ġà¦¬à¦¾à¦¡à¦¼ à¦¿à¦°
à¦¿à¦¦ à§įà¦°
Ġà¦¬à¦¿à¦°à§ĭà¦§ à§Ģ
à¦ķ à¦¬
Ġà¦¬à¦¾à¦ļ à§įà¦ļ
à¦¾à¦¦ à¦¶
Ġà¦« à¦¾à¦ĩà¦¨
Ġà¦¨ à¦¾à¦ľ
à§ĥà¦£ à¦®à§Ĥà¦²
o d
à§ģà¦ķ à§ģ
Ġà¦ľ à¦®à¦¾
Ġ is
Ġà¦ľà¦¾à¦¯à¦¼à¦Ĺ à
Ġà¦ľà¦¾à¦¯à¦¼à¦Ĺà ¦
Ġà¦ľà¦¾à¦¯à¦¼à¦Ĺà¦ ¾
Ġà¦ª à¦ŀà§įà¦ļ
Ġà¦ħà¦ªà¦°à¦¾à¦¹ à§įà¦£
Ġà¦Ĩ à¦ģ
Ġà¦ħà¦°à§įà¦ľ à¦¨
Ġà¦¹à¦¾à¦® à¦²à¦¾à¦°
Ġà¦¬à¦² à¦²
à§ĭà¦· à§įà¦ł
à¦ı à¦¦à¦¿à¦ķà§ĩ
Ġà¦ķà§ĥà¦· à¦¿
Ġà¦ħà¦Ĥà¦¶ à¦Ĺà§įà¦°à¦¹à¦£
Ġà¦Ĩà¦Ĺà§įà¦° à¦¹
Ġà¦ªà§įà¦° à¦¬à¦¾à¦¸
Ġà¦ħà¦Ńà¦¿à¦¯à§ĭà¦Ĺ à§ĩ
Ġà¦ľ à§ĩà¦²
P revious
Ġ1 0
à¦¿à¦® à
à¦¿à¦®à ¦
à¦¿à¦®à¦ ¾
Ġà¦¸à¦® à¦¾à¦¬à§ĩà¦¶
Ġà¦¹ à§ĩà¦²
à¦¨ à¦¿à¦īà¦ľ
à¦¿à¦ ¡à¦¼
Ġà¦ļà¦° à¦¿à¦¤à§įà¦°
Ġà¦¸à¦®à§įà¦®à§ĩà¦² à¦¨à§ĩ
à§ĩà¦¨ à§įà¦¦
Ġà¦Ĺà¦Ń à§Ģà¦°
à¦Ľ à¦¾à¦¤à§įà¦°
à¦°à§įà¦Ń à¦°
à¦¸à¦Ń à
à¦¸à¦Ńà ¦
à¦¸à¦Ńà¦ ¾
Ġà¦¥ à¦¾à¦¨à¦¾
Ġà¦¬à§įà¦¯à¦¬ à¦¸à¦¾
Ġà¦¹ à¦¸à§įà¦¤
à¦¾à¦Ł à¦¿à¦°
Ġà¦ķà¦¿à¦Ľà§ģ à¦ĩ
Ġà¦ıà¦®à¦¨ à¦ķà¦¿
Ġà¦Ĩ à¦ķà¦¾à¦¶
Ġà¦ľ à§ĭà¦Ł
à¦ķ à§įà¦²
à¦¬à¦¾à¦° à§ĩà¦°
Ġà¦¨ à§ĩà¦®à§ĩ
Ġà¦Ĩà¦¸ à¦¾à¦°
à¦ķ à¦°à¦£
à¦¶ à¦¾à¦¹
à¦¿à¦¸ à§ĩà¦°
Ġà¦¬à¦¾à¦° à§įà¦¤à¦¾
à¦ķ à§ģà¦®
à¦¾à¦¤ à¦¿
Ġà¦¬ à§ĭà¦¨
Ġà¦¸à¦®à§įà¦ª à¦¨à§įà¦¨
Ġà¦ªà§įà¦°à¦¶à¦¾à¦¸ à¦¨
Ġà¦ħà¦ª à¦¾à¦°
à§ĥ à¦Ļà§įà¦ĸ
Ġà¦Ń à¦¿à¦¨à§įà¦¨
Ġà¦Ĩà¦²à§įà¦²à¦¾à¦¹ à¦°
à§ĩà¦Ł à
à§ĩà¦Łà ¦
à§ĩà¦Łà¦ ¾
Ġà¦ļ à¦¿à¦ł
à¦¿à¦Ń à¦¿
Ġà§¨à§¦à§§à§ «
Ġà¦¸à§Į à¦¦à¦¿
Ġà¦ľ à¦¬
Ġà¦ľà¦¾à¦¤ à¦¿à¦°
à¦¾à¦¦ à§įà¦¦
Ġà¦®à¦¿à¦¡ à¦¿à¦¯à¦¼à¦¾
Ġà¦¤à¦¿à¦¨ à¦Łà¦¿
Ġà¦¹ à§ĭà¦Ł
à¦² à¦¿à¦ķ
Ġà¦²à¦¾à¦Ĺ à§ĩ
Ġà¦®à¦¾à¦¦ à§įà¦°
Ġà¦ħà¦ªà¦°à¦¾à¦¹ à§įà¦¨
Ġà¦¬ à§ĩà¦¸à¦°
Ġà¦ªà¦°à¦¿à¦ļ à¦¿à¦¤
Ġà¦²à¦¿à¦ĸ à§ĩà¦Ľà§ĩà¦¨
Ġà¦ħ à¦¸à§įà¦¬
Ġà¦ļ à¦¾à¦®
Ġà¦Ĩ à¦ī
Ġà¦¸à¦®à§įà¦ªà§įà¦° à¦¤à¦¿
Ġà¦ħà¦¬ à§Īà¦§
Ġà¦ķà¦¾à¦°à§įà¦¯ à¦ķà¦°
Ġà¦¸à¦° à¦¬à¦°à¦¾à¦¹
à¦¦à¦¿à¦¨ à§ĩà¦°
Ġà¦ķà¦° à§ĭà¦¨
à¦ķà¦¾à¦² à§Ģà¦¨
à¦Ĥ à¦ĸ
Ġà¦¶ à¦¿à¦ĸ
Ġà¦Ľ à§ģà¦Ł
Ġs t
Ġà¦ķà§ĭà¦¥ à¦¾à¦¯à¦¼
Ġà¦¦à§ĩà¦ĸ à§ģà¦¨
à¦°à§įà¦ ļ
à¦¦ à
Ġà¦Ĩà¦ĩ à¦¸
à¦¦à ¦
à¦¦à¦ ¾
à¦Ĺ à¦¾à¦¨
Ġà¦® à§ĩà¦Ł
à¦¿à¦® à§ĩà¦°
Ġà¦§ à§įà¦¬
à§įà¦¯ à§ģà¦¤
Ġà¦¸à¦¤ à¦°à§įà¦ķ
à¦¾à¦¹à¦¿à¦¨ à§Ģ
Ġà¦ªà¦¦ à¦ķà§įà¦·à§ĩà¦ª
à¦¨à§įà¦¯ à
à¦¨à§įà¦¯à ¦
à¦¨à§įà¦¯à¦ ¾
Ġà¦ªà¦° à¦¿à¦¦
Ġà¦ķ à¦¿à¦²
Ġà¦¯ à¦¾à¦ĩ
à¦¤à§įà¦¤ à¦¿
art icle
à§ĩà¦ĩ à¦¨
Ġà¦¥à¦¾à¦ķ à¦¾à¦¯à¦¼
Ġà¦ħà¦§ à¦¿à¦¨
à¦ķà¦¾à¦° à§ĩ
Ġà¦¬à§įà¦° à¦¿à¦Ł
à¦¨ à§įà¦¬
Ġà¦®à¦¡ à§ĩà¦²
Ġà¦ĩà¦¨à§įà¦Łà¦¾à¦° à¦¨
Ġà¦ķà¦Ĥ à¦Ĺà§įà¦°à§ĩà¦¸
à¦« à¦¤
Ġà¦ħà¦¨à§įà¦¤ à¦¤
Ġà¦ªà§ĩà¦¯à¦¼ à§ĩà¦Ľà§ĩ
Ġà¦¹ à¦¤à§ĭ
Ġà¦ªà§įà¦° à¦ľ
à¦¾à¦¤ à¦¾à¦¯à¦¼
Ġà¦ķà¦° à¦²
Ġà¦¨à§ĩà¦¤à§ĥà¦¤à§įà¦¬ à§ĩ
Ġà¦Ĺ à¦¿à¦¯à¦¼à§ĩà¦Ľà§ĩ
Ġà¦ľ à¦¾à¦ª
ĠâĢ ¦
à¦¾à¦Ĺ à¦°
Ġà¦Ĺ à§ĩà¦Ľà§ĩà¦¨
Ġà§¨ à§¯
e b
Ġà¦ªà¦¡à¦¼ à§ģà¦¨
Ġà¦ķà¦²à§ĩà¦ľ à§ĩà¦°
à¦ķà§įà¦· à¦¿à¦¤
à§© à§¦
Ġà¦Ĩà¦¦ à§ĩà¦¶
à¦¾à¦¯à¦¼ à¦¾à¦°
Ġà¦¦à¦¿à¦ļ à§įà¦Ľà§ĩ
à§ĩà¦¨ à
à§ĩà¦¨à ¦
à§ĩà¦¨à¦ ¾
s e
à¦¨ à¦¿à¦°
Ġ à¤
Ġà¦®à¦¹à¦¾à¦¨ à¦Ĺà¦°
Ġà¦ªà¦° à¦¬à¦°à§įà¦¤à§Ģ
Ġà¦¦à§Ī à¦¨à¦¿à¦ķ
Ġà¦¸à¦° à¦¾à¦¸à¦°à¦¿
Ġà¦ķ à¦¾à¦²à§ĭ
Ġà¦ĸà§ģà¦ģà¦ľ à§ĩ
Ġà¦Ĩà¦°à§įà¦¥ à¦¿à¦ķ
Ġà¦ķà¦° à¦¬
à¦¿à¦ª à§įà¦°
à¦¾à¦§ à¦¾à¦°à¦£
Ġà¦Ńà§ĩà¦ Ļ
Ġà¦Ľà¦¿à¦² à§ĭ
Ġà¦¬à¦° à¦Ĥ
Ġà¦Ī à¦¦
Ġà¦ķà¦°à§įà¦¤à§ĥ à¦ķ
Ġà¦¦à¦¾à¦¬ à¦¿à¦¤à§ĩ
Ġà¦® à§ĩà¦¹
Ġà¦¨ à¦¦à§Ģ
Ġà¦¬à¦¾à¦ģ à¦§
Ġà¦¸à¦® à¦¾à¦²à§ĭ
Ġà¦¨à§ĩà¦¤ à¦¾à¦ķà¦°à§įà¦®
Ġà¦¦à§ģ à¦°à§įà¦¬
Ġà¦¡ à
Ġà¦¡à ¦
Ġà¦® à¦¾à¦¯à¦¼à§ĩà¦°
Ġà¦¡à¦ ¾
à¦¾à¦ľ à§ĩà¦°
Ġà¦ķà¦¿à¦Ľà§ģ à¦Łà¦¾
à¦ķà¦¾à¦° à§Ģà¦¦à§ĩà¦°
Ġà¦¸ à§ĭà¦¹
Ġà¦ª à
Ġà¦¸ à§ĩà¦ķ
Ġà¦ªà§įà¦°à¦ķ à§ĥà¦¤
Ġà¦ķ à¦¬à¦¿à¦°
i p
Ġà¦ķà¦®à¦¿à¦¶ à¦¨à¦¾à¦°
à¦¬à¦¿à¦ľ à§įà¦ŀà¦¾à¦¨
Ġà¦ªà ¦
Ġà¦ªà¦ ¾
Ġà¦īà¦¦à§įà¦¯à§ĭà¦Ĺ à§ĩ
à§ĩà¦¤à§įà¦° à§Ģ
à§ĩà¦Ń à¦¾à¦¬à§ĩ
Ġà¦Ĩà¦² à¦¾à¦¦à¦¾
Ġà¦ķ à¦¾à¦ł
Ġà¦¦ à¦¾à¦¯à¦¼à§ĩà¦°
Ġà¦ħ à¦Ļà§įà¦Ĺ
à¦¤ à§ģ
à¦¾à¦ķ à§įà¦ķ
Ù Ī
à§įà¦¬ à¦²
Ġà¦®à¦¾à¦¨ à§ĩ
à¦Ĺà§ģà¦²à§ĭ à¦¤à§ĩ
Ġà¦¢ à¦¾à¦ķà¦¾à¦¯à¦¼
Ġà¦Ĺà§ģà¦² à¦¿
Ġà¦¬à¦¿à¦¬ à§ĩà¦ļ
Ġà¦§ à¦¨à§įà¦¯à¦¬à¦¾à¦¦
à¦Ĺà¦¾à¦ģ à¦ĵ
Ġà¦¸à§įà¦¬ à§Ģà¦ķà¦¾à¦°
Ġà¦ħà¦¸ à§įà¦Łà§įà¦°à§ĩà¦²
Ġà¦² à§ĩà¦¨
em ber
à§ĩà¦· à§įà¦ł
à¦Ĺà¦ŀà§įà¦ľ à§ĩ
Ġà¦® à¦¿à¦Ľ
Ġà¦Ĺ à§ģà¦£
à¦¾à¦ĵ à¦²
à¦« à§ģà¦²
Ġà¦¸à¦¾à¦¹ à¦¿à¦¤à§įà¦¯
Ġà¦¹à¦¾à¦¸à¦ªà¦¾à¦¤ à¦¾à¦²
Ġà¦ħ à¦ľ
Ġà¦¨ à§įà¦¯
Ġà¦ª à¦¿à¦ıà¦®
Ġà¦ıà¦ĩ à¦ļ
à§įà¦ ¶
Ġà¦Ľ à¦¬à¦¿à¦°
Ġà¦ĵà¦ł à§ĩ
Ġà¦ªà§įà¦°à¦¸à§įà¦¤ à§ģà¦¤à¦¿
- à¦ı
Ġà¦Ĩà¦¸ à¦¬à§ĩ
a h
Ġà¦¨ à§Ģà¦¤
Ġà¦° à¦®
Ġà¦ľ à¦¿à¦¯à¦¼à¦¾
Ġà¦ķ à¦¾à¦¶
Ġà¦¸à¦®à§įà¦®à§ĩà¦² à¦¨
à¦Ľ à¦²
à¦ľà¦¨ à¦ķ
Ġà¦Ł à
Ġà¦Łà ¦
Ġà¦Łà¦ ¾
Ġà¦°à¦ķà§įà¦· à
Ġà¦°à¦ķà§įà¦·à ¦
Ġà¦°à¦ķà§įà¦·à¦ ¾
Ġà¦¸à§Ī à¦¯à¦¼à¦¦
à¦¿à¦¨ à§Ģ
Ġà¦ķ à¦¾à¦ģ
- à§¨à§¦à§§à§
Ġà¦Ľà¦¾à¦¤à§įà¦° à¦²à§Ģà¦Ĺà§ĩà¦°
Ġà¦Ĩ à¦ļ
Ġà¦®à¦¾à¦¥ à
Ġà¦®à¦¾à¦¥à ¦
Ġà¦®à¦¾à¦¥à¦ ¾
à¦¾à¦¤ à§ĩà¦ĩ
Ġà¦® à¦¾à¦¤
Ġà¦ļ à§ģà¦²
à¦ķ à§ĭ
Ġà¦¬à§Īà¦ł à¦ķ
à§Ģà¦Ĺ à¦ŀà§įà¦ľ
à¦ķ à¦¾à¦¬
Ġà¦¸à¦ļ à§ĩà¦¤à¦¨
à¦ķà§įà¦°à¦® à¦£
Ġà¦ħà§įà¦¯ à¦¾à¦¡
à§įà¦¨ à
à§įà¦¨à ¦
à§įà¦¨à¦ ¾
Ġà¦¬à¦¿à¦ķ à¦²à§įà¦ª
Ġà¦¨ à¦¾à¦¸
Ġà¦¸ à§ĩà¦Ĺ
Ġà¦°à¦¹à¦®à¦¾à¦¨ à§ĩà¦°
à¦®à¦¾à¦¨ à§ĩà¦°
Ġà¦ļà¦² à¦¾à¦ļ
Ġà¦¶à¦ķà§įà¦¤ à¦¿
Ġà¦¬à§įà¦² à¦Ĺ
Ġà¦² à§ĩà¦Ĺ
à§Ĥ à¦¡à¦¼
Ġà¦¤ à§ĥà¦£à¦®à§Ĥà¦²
à¦Ńà¦¾à¦¬ à§ĩà¦ĩ
Ġà¦® à§ĩà¦¸
Ġà¦° à¦Ļ
Ġà¦ªà¦° à¦¿à¦¶
à¦¾à¦¡à¦¼ à¦¾à¦ĵ
Ġà¦ľà¦¨à§įà¦¯ à§ĩ
Ġ 7
Ġà¦¥à¦¾à¦ķ à¦²à§ĩà¦ĵ
Ġà¦ļà§ĭà¦ĸ à§ĩ
Ġà¦¨ à§ģà¦°
Ġà¦ľà¦¾à¦¨ à¦¿
Ġà¦®à¦¾à¦¨à§ģà¦· à¦ķà§ĩ
Ġà¦ªà§ĭà¦¶ à¦¾à¦ķ
Ġà¦® à¦¿à¦¯à¦¼à¦¾à¦¨
it h
Ġà¦®à¦§à§įà¦¯ à§ĩà¦ĩ
à¦® à§ģà¦ķà§įà¦¤
à¦¿à¦Ĥ à¦¯à¦¼à§ĩà¦°
Ġà¦ĭ à¦£
à¦¦à§ĩà¦¶ à§ĩà¦°
1 1
à§įà¦¬ à¦¿à¦ķ
Ġ !
Ġà§ °
Ġà¦ļ à¦®
Ġà¦ķ à§ģ
Ġà¦Ĩà¦ªà¦¨ à¦¾à¦¦à§ĩà¦°
Ġà¦ªà§įà¦°à¦¤à§įà¦¯ à§ĩà¦ķ
Ġà¦¹ à¦łà¦¾à§İ
Ġà¦ªà§įà¦° à¦¿à¦¨
Ġà¦ĩà¦īà¦° à§ĭà¦ª
à¦ľ à¦²
om ment
Ġà¦Ĺ à§ģ
Ġà¦¸à¦® à¦¨à§įà¦¬
Ġà¦ķà¦¾à¦° à¦¾à¦Ĺ
Ġà¦ľ à¦¾à¦²
Ġà¦ħà¦¨ à§ĩà¦ķà§ĩ
Ġà¦® à¦¤à§ĩ
Ġà¦ħà¦¨à§ģà¦® à¦¤à¦¿
2 5
Ġ r
Ġà¦¸à¦¾à¦Ĥà¦¬à¦¾à¦¦à¦¿à¦ķ à¦¦à§ĩà¦°
Ġà¦ķà¦® à§ĩ
Ġà¦ªà¦¾à¦ķà¦¿à¦¸à§įà¦¤ à¦¾à¦¨à§ĩà¦°
à§ģ à¦¤à§ĩ
à¦¬à§įà¦¯ à¦¾à¦ªà§Ģ
Ġà¦īà¦¨à§įà¦¨ à¦¤
Ġ201 7
Ġà¦¦à¦¿à¦² à§ĩ
Ġà¦°à¦¾à¦ľ à¦¨à§Ģà¦¤à¦¿
Ġà§ª à§¦
Ġà¦®à§ģà¦¹ à§Ĥà¦°à§įà¦¤
à¦¾à¦īà¦¨ à¦²à§ĭà¦¡
Ġà¦Ń à¦°
Ġà¦¦ à§ĩà¦¹
à¦¦ à¦¾à¦¯à¦¼
Ġà¦Ĩ à¦ĸ
à§ĭà¦ªà¦¾à¦§ à§įà¦¯à¦¾à¦¯à¦¼
Ġà¦ıà¦ķ à¦®à¦¾à¦¤à§įà¦°
Ġà¦¸à§įà¦¬à¦¾à¦§à§Ģà¦¨ à¦¤à¦¾
Ġà¦¬ à¦¾à¦ķà¦¿
Ġà¦¯à¦¾à¦¯à¦¼ à¦¨à¦¿
Ġà¦¤ à¦¾à¦®
Ġà¦ķà¦° à§ĩà¦ĩ
à§ĭà¦¨ à¦¾à¦²
Ġà¦¦ à¦²à§ĩ
Ġà¦® à§ĩà¦
Ġà¦¬à§įà¦¯à¦ķà§įà¦¤ à¦¿à¦Ĺà¦¤
à¦¸ à§ģà¦®
Ġà¦¬à¦¾à¦¹à¦¿à¦¨ à§Ģà¦°
Ġà¦ħà¦¥ à¦ļ
à¦¾à¦Ĺ à¦ľ
Ġà¦¸à§ģ à¦ĸ
Ġà¦²à§ĩà¦ĸ à¦ķ
Ġà¦ħà¦¤à§įà¦¯ à¦¨à§įà¦¤
à¦¹ à¦¿
Ġà¦Ńà§ĩà¦Ļ à§ĩ
Ġà¦®à¦¨à§įà¦¤à§įà¦°à¦£à¦¾à¦² à¦¯à¦¼à§ĩà¦°
Ġà¦ľà§ĩà¦¨à¦¾à¦° à§ĩà¦²
Ġà¦ķ à¦®à¦¾à¦¨
Ġà¦¹ à§ĥà¦¦
Ġà¦§ à¦°à§įà¦·
Ġ j
Ġà¦¸à¦¨à§įà¦¦ à§ĩà¦¹
à¦¿à¦Ĩ à¦°
Ġà¦ı à¦¦à§ĩà¦°
à¦¦ à§ĩà¦¹
Ġà¦ı à¦¨à§įà¦¡
Ġà¦¨à§ĩà¦ĵ à¦¯à¦¼à¦¾à¦°
Ġà¦ķà¦¾à¦° à§įà¦¡
à¦¿à¦¸à¦Ĥ à¦ĺ
Ġà¦¸ à§įà¦¨
Ġà¦§ à¦¾à¦¨
Ġà¦®à§ĭ à¦¸à§įà¦¤
u p
Ġà¦² à¦¿à¦Ĺ
Ġà¦ķà§ĭà¦¥ à¦¾à¦ĵ
Ġà¦ķ à§ģà¦°
à¦¿à¦¹ à§įà¦¨
Ġà¦Ĺà§įà¦° à¦¾à¦¹
à¦¨ à§ĭ
Ġà¦¡ à¦¾à¦¯à¦¼
Ġà¦¬à¦¾à¦¤ à¦¿à¦²
à§ĥà¦· à§įà¦ł
à¦¶ à¦¿à¦²à§įà¦ª
à§įà¦¡ à¦¾à¦°
Ġà¦ķà§Ģ à¦Ńà¦¾à¦¬à§ĩ
Ġà¦¦à§ĭà¦ķ à¦¾à¦¨
Ġà¦®à¦¨à§įà¦¤à§įà¦°à¦£à¦¾à¦² à¦¯à¦¼
à¦¨ à¦Ĺà¦°
à§įà¦¯à¦¾à¦¨ à§ĩà¦²
Ġà¦®à¦¾à¦¨ à¦¸à¦¿à¦ķ
Ġà¦ľ à§ĩà¦¨à§ĩ
à¥ ¥
à¦¶ à¦¾à¦°
Ġà¦ľ à¦¿à¦¤
à¦¶ à§įà¦°
Ġà¦ªà§įà¦°à¦¶à§įà¦¨ à§ĩà¦°
à¦¾à¦®à§Ĥà¦² à¦ķ
Ġà¦ªà§įà¦°à¦¤ à¦¿à¦ķ
Ġà¦ļ à§Ĥà¦¡à¦¼
Ġà¦¨ à¦¾à¦¨
à¦® à§ĩ
à§įà¦¯ à¦¬
Ġà¦¨ à§ĭà¦Ł
à¦ľà¦¾à¦¤ à§Ģà¦¯à¦¼
Ġà¦¬ à§ĩà¦²
Ġà¦ļ à¦ķà§įà¦°
Ġà¦ªà§įà¦°à¦¥à¦® à§ĩ
à¦Ł à¦¿à¦ķà§ĩ
Ġà¦ĺà¦£ à§įà¦Łà¦¾
à¦¿à¦² à
à¦¿à¦²à ¦
à¦¿à¦²à¦ ¾
Ġà¦¬à¦² à¦Ľà§ĩ
Ġ 8
Ġà¦° à§ģà¦®
Ġà¦ª à¦¬à¦¿à¦¤à§įà¦°
a in
à¦¸à¦® à§Ĥà¦¹
à¦¿à¦¤ à¦¾à¦¯à¦¼
Ġà¦ľ à¦¾à¦°à§įà¦®
Ġà¦ķ à¦¬à¦¿
Ġà¦ĩ à¦ŀà§įà¦ľ
Ġà¦ľà§Ģà¦¬ à¦¨à§ĩ
Ġà¦īà§İà¦ª à¦¾à¦¦à¦¨
Ġ article
Ġà¦¬à¦¿à¦¦à§įà¦¯à¦¾à¦² à¦¯à¦¼
à¦¿à¦¸ à§įà¦Łà§įà¦°
Ġà¦¬à§įà¦¯ à¦°à§įà¦¥
à¦¨à¦¿à¦°à§įà¦¬ à¦¾à¦ļ
Ġà¦ħà¦§à¦¿à¦¨ à¦¾à¦¯à¦¼à¦ķ
à¦¬ à¦¿à¦ıà¦¨
à¦¶ à§ĭà¦°
à¦¯ à§ĩ
Ġà¦¬à¦¿à¦¤ à¦°à§įà¦ķ
Ġà¦®à§ģ à¦¦à§įà¦°
Ġà¦¬ à¦¾à¦¯à¦¼
Ġà¦ĸ à§ģà¦¶
im e
à¦¿à¦¨à§įà¦¦ à
à¦¿à¦¨à§įà¦¦à ¦
à¦¿à¦¨à§įà¦¦à¦ ¾
Ġà¦¸à¦°à§įà¦¬ à¦¶à§ĩà¦·
Ġà¦Ńà¦¾à¦° à¦ªà§įà¦°à¦¾à¦ªà§įà¦¤
à¦¾à¦¶à¦¨ à¦¾à¦²
Ġà¦²à¦ķà§įà¦· à§įà¦¯à§ĩ
à¦Ĺà¦ŀà§įà¦ľ à§ĩà¦°
Ġà¦ĩà¦¸à¦²à¦¾à¦® à§ĩà¦°
Ġà¦Ł à¦¾à¦°
à¦¾à¦« à¦¿à¦ľ
Ġà¦ķà¦° à¦¾à¦¯à¦¼
à¦¿à¦ī à¦Łà¦¾à¦°
Ġà¦® à¦¨à§įà¦¤à§įà¦°
Ġà¦Ĺà¦¬à§ĩà¦· à¦£à¦¾
à¦¿à¦® à¦¯à¦¼
Ġà¦¬ à§Ģà¦°
Ġ 9
Ġà¦¸à¦®à¦¾à¦§ à¦¾à¦¨
ï »
Ġà¦Ńà¦¬ à¦¨
Ġà¦ķà¦°à§įà¦®à¦¸à§Ĥà¦ļ à¦¿
Ġà¦ľ à¦¿à¦¯à¦¼
à¦¬ à¦¾à¦Ĺ
Ġà¦Ĺ à§ĭà¦¯à¦¼
à¦Ń à¦¯à¦¼
Ġà¦ħà¦¨à§ģà¦° à§ĭà¦§
Ġà¦¹à¦¾à¦¸ à¦¿à¦¨à¦¾à¦°
Ġà¦ª à¦¾à¦¬à§ĩ
Ġà¦°à§ĭà¦¹à¦¿à¦Ļà§įà¦Ĺ à
Ġà¦°à§ĭà¦¹à¦¿à¦Ļà§įà¦Ĺà ¦
Ġà¦°à§ĭà¦¹à¦¿à¦Ļà§įà¦Ĺà¦ ¾
à¦¾à¦¹ à¦¿à¦ķ
Ġà¦ľà¦¨à¦Ĺ à¦£à§ĩà¦°
Ġà¦ªà§įà¦°à¦¶à¦¿à¦ķà§įà¦· à¦£
d esh
Ġà¦¦à¦¾à¦ģ à¦¡à¦¼à¦¿à¦¯à¦¼à§ĩ
on t
Ġà¦¸ à§įà¦Łà§įà¦°
- à§§
à§įà¦° à¦¤à¦¿à¦ķ
Ġà¦ľà¦¨ à¦ķà§ĩ
à¦¾à¦ĩà¦ķ à§ĩà¦²
Ġà¦¨à¦¿à¦ļ à§ĩ
Ġà¦¸ à§ĩà¦¦
Ġà¦¹à¦¿à¦¨à§įà¦¦ à§ģ
Ġà¦¯ à§ĩà¦ķ
Ġà¦ķà¦² à§įà¦¯à¦¾à¦£
Ġà¦¹ à¦¾à¦ĩà¦ķ
Ġà¦ıà¦® à¦ªà¦¿
Ġà¦¸à§ģ à¦¸à§įà¦¥
Ġà¦¶ à§ĭà¦ķ
Ġà¦Ĩà¦¦ à¦¾à¦¯à¦¼
Ġà¦ķ à¦£à§įà¦ł
l is
Ġà¦¯à§ģà¦¬ à¦ķ
Ġà¦ªà§įà¦°à¦® à§ģà¦ĸ
Ġà¦ļ à§įà¦¯à¦¾à¦®à§įà¦ª
Ġà¦ĩà¦¸à¦² à¦¾à¦®à§Ģ
Ġà¦¸à§įà¦® à¦¾à¦°à§įà¦Ł
Ġà¦ĺ à§ģà¦°à§ĩ
Ġ e
Ġà¦ħ à¦¸à¦®
à¦· à§ģà¦§
à¦Ľà¦¿à¦² à§ĩà¦¨
à¦® à§įà¦®
à¦¿à¦¤ à§ĩà¦ĩ
à¦ķà§įà¦¤ à¦¿
Ġà¦ķ à§ĩà¦Łà§ĩ
Ġà¦¬à¦¿à¦ľà§ĩà¦ª à¦¿
Ġà¦Ĩà¦¸ à§ĩà¦¨
à¦ļ à¦Łà§įà¦Łà¦Ĺà§įà¦°à¦¾à¦®
à§Ģ à¦®
à¦°à§įà¦ ¸
Ġà¦ªà¦¾à¦¹ à¦¾à¦¡à¦¼
à¦¾à¦ª à§ģà¦°
Ġà¦Ĩ à§°
Ġà¦¨à¦¿à¦ķ à¦Ł
à¦ħ à¦Ń
Ġà¦¸ à¦¾à¦ª
Ġà¦Ĩ à¦¨à¦¾
Ġà¦ħà¦°à§įà¦¥ à¦¨à§Īà¦¤à¦¿à¦ķ
Ġà¦ĵà¦¯à¦¼ à¦¾à¦¨
Ġà¦Ĩà¦¸ à¦¨à§ĩ
Ġà¦ķà§ĭ à¦°à§įà¦Ł
à¦¾à¦ª à§įà¦°
Ġà¦¤ à¦¾à¦ª
à¦¶ à¦¤
Ġà¦ª à§°
Ġà¦ķà¦¾à¦īà¦¨à§įà¦¸ à¦¿à¦²
à¦¿à¦Ł à
à¦¿à¦Łà ¦
à¦¿à¦Łà¦ ¾
à¦¬ à¦¿à¦ķ
Ġà¦¸ à¦¨
or t
Ġà¦¬à¦¾à¦¹à¦¿à¦¨ à§Ģ
Ġà¦ļ à
Ġà¦ļà ¦
Ġà¦ļà¦ ¾
Ġà¦¬ à¦¸à§įà¦¤
Ġà¦¸à¦¿à¦¨ à¦¿à¦¯à¦¼à¦°
Ġà¦¬à¦¿à¦ľà§įà¦ŀ à¦¾à¦ªà¦¨
lo g
à¦Ĺ à§ģà¦¡à¦¼
à¦ħ à¦¬
Ġà¦¦à§ģ à¦ªà§ģà¦°
- à¦ĩ
Ġà¦¸ à¦ķà§įà¦·à¦®
Ġà¦¨à¦ľ à¦°à§ģà¦²
Ġà¦® à§ĩà¦¶
à¦ķ à¦¤
Ġà¦¤ à§İ
Ġà¦Ń à¦¿à¦¤
Ġà¦ľ à§įà¦ŀà¦¾à¦¨
à¦¾à¦¬ à
Ġà¦° à¦¶
à¦¾à¦¬à ¦
à¦¾à¦¬à¦ ¾
Ġà¦ªà§ĩà¦¯à¦¼ à§ĩà¦Ľà§ĩà¦¨
Ġà¦¶ à§Ģà¦¤
Ġà¦Ĩà¦¶ à¦Ļà§įà¦ķ
Ġà¦¬ à§ģà¦¦à§įà¦§
Ġà¦ļà§ģà¦ķà§įà¦¤ à¦¿
Ġà¦ªà§įà¦°à¦¤à¦¿à¦¬à§ĩà¦¦ à¦ķ
Ġà¦¬ à§ĩà¦²à¦¾
à¦¡à¦¼ à¦¾à¦°
à¦¿à §°
Ġà¦® à§ģà¦°
Ġà¦¸à§įà¦¥ à¦¾à¦¯à¦¼à§Ģ
Ġà¦¬à¦¿à¦ķ à§įà¦°
à¦Ĺà§įà¦° à¦¾à¦®à§ĩà¦°
Ġà¦ķ à§ĥà¦¤
Ġà¦ķà¦°à§įà¦® à§Ģ
à¦ªà§įà¦° à¦¶
à§ģà¦² à¦¤
à¦¸ à¦Ļà§įà¦Ĺà§ĩ
Ġà¦¬à¦¾à¦¸ à¦¾à¦¯à¦¼
à¦¾à¦¦ à¦¾à¦¨
ĠT he
Ġà¦¨à¦¿ à¦°à§įà¦Ńà¦°
1 2
Ġà¦ıà¦ķà§ĩ à¦¬à¦¾à¦°
Ġà¦¬ à¦¿à¦¯à¦¼à§ĩà¦°
Ġà¦¯à§ģà¦ķà§įà¦¤à¦°à¦¾à¦·à§įà¦Łà§įà¦° à§ĩà¦°
Ġà¦ªà¦°à¦¿à¦£ à¦¤
Ġ $
Ġà¦¯à§ģà¦Ĺ à§įà¦®
Ġà¦¹ à¦¾à¦¬
à¦ľà¦¨ à¦ķà§ĩ
Ġà¦® à§ĩà¦°
à¦¿à¦Ĺ à¦ŀà§įà¦ľ
Ġà¦ı à¦ľ
Ġà¦ļà§Ĥà¦¡à¦¼ à¦¾à¦¨à§įà¦¤
à¦¬à§įà¦¯ à¦¬
Ġà¦ªà§įà¦° à¦¾à¦ªà§įà¦¤
Ġà¦ĺà¦Ł à§ĩà¦Ľà§ĩ
Ġà¦¹ à¦ľ
Ġà¦¸à¦¨à§įà¦¤à§įà¦° à¦¾à¦¸
Ġà¦¶à¦¹ à¦°à§ĩ
Ġà¦ī à¦¤
Ġà¦ķ à¦¾à¦Ĺà¦ľ
à¦ķ à§ĭà¦°
id e
à§ĩà¦ ı
à¦ĸ à¦¾à¦¨à§ĩ
à¦¬ à¦¨à§ĩ
Ġà¦¯ à§ĩà¦¸à¦¬
Ġà¦ľà¦° à§ģà¦°à¦¿
Ġà¦ļ à¦°à¦®
Ġà¦ĸ à¦¾à¦¤
Ġà¦¸à¦®à§įà¦Ńà¦¾à¦¬ à¦¨à¦¾
Ġà¦®à§ģà¦¸à¦² à¦®à¦¾à¦¨
à¦« à§ĩ
Ġà¦¸à§ĩà¦¨ à¦¾à¦¬
Ġà¦¸à¦¾à¦® à§įà¦ª
à¦¤ à¦¨
à§ĭà¦§ à§Ģ
à§ģà¦ĸ à¦¿
Ġà¦ĩà¦¨ à¦¸à§įà¦Ł
Ġà¦¬à§ĩà¦¸à¦° à¦ķà¦¾à¦°à¦¿
Ġà¦¨à¦¿à¦· à§ĩà¦§
Ġà¦ıà¦ķ à¦¦à¦¿à¦¨
à¦¿à¦¸à§įà¦¤ à¦¾à¦°à¦¿à¦¤
Ġà¦¹à¦¾à¦ĩà¦ķ à§ĭà¦°à§įà¦Ł
Ġà¦Ń à§ĭà¦°
Ġà¦ľà¦¾à¦® à¦¾à¦¯à¦¼
Ġà¦ĺà¦Łà¦¨ à¦¾à¦¸à§įà¦¥
à§ĥ à¦¨à§įà¦¦
à¦® à§ģ
Ġà¦¨à¦¿à¦® à§įà¦¨
à¦ļ à¦²
Ġà¦¸ à§ĩà¦®
Ġà¦ªà§įà¦° à¦£
Ġà¦ľ à¦Ĺ
à¦° à§Ĥà¦ª
à¦¾à¦¡ à§ĩà¦®
ar y
Ġà¦¦à§ģ à¦§
Ġà¦¸à¦®à¦°à§įà¦¥ à¦¨
Ġà¦¶ à¦¾à¦®
à¦¾à¦¯à¦¼ à¦¨
Ġà¦¸à§ĩà¦Ł à¦¿
Ġà¦ļ à¦¨à§įà¦¦à§įà¦°
Ġà¦ľà¦® à¦¿
Ġà¦ĩà¦īà¦¨ à¦¿à¦Ł
à§ģ à¦¸à§įà¦¥
à ´
Ġà¦¬à§įà¦¯ à¦¯à¦¼
Ġà¦ļà¦² à¦¤à¦¿
à¦« à¦¾à¦°
Ġà¦ĸà§ģà¦² à§ĩ
Ġà¦ķà§įà¦¯ à¦¾à¦®à§ĩà¦°
Ø ±
à§« à§¦
Ġà¦¬à¦¾à¦§ à
Ġà¦¬à¦¾à¦§à ¦
Ġà¦¬à¦¾à¦§à¦ ¾
à§ģà¦® à¦¾à¦¤à§įà¦°
Ġà¦Ńà¦¿à¦¤à§įà¦¤ à¦¿à¦¤à§ĩ
Ġà¦Łà§įà¦° à§ĩà¦¨
Ġà¦Ńà¦¾à¦· à¦¾à¦¯à¦¼
Ġà¦Ľà¦¾à¦¡à¦¼ à¦¾à¦ĵ
à¦¾à¦¹ à¦¿à¦¤
à¦¬ à§ĥà¦¹
Ġà¦¯à¦¾à¦ļ à§įà¦Ľà§ĩà¦¨
à¦¾à¦° à§įà¦ľ
Ġà¦®à¦¿à¦¨à¦¿à¦Ł à§ĩ
Ġà¦ľà¦¿à¦¨ à¦¿à¦¸
à¦ı à¦²
it s
à¦°à§įà¦ ª
Ġà¦¬à§ĩà¦¡à¦¼ à§ĩà¦Ľà§ĩ
à¦¾à¦² à§įà¦²à¦¾à¦¹
Ġà¦ª à¦¾à¦¤à¦¾
Ġà¦¨à¦¿à¦ľ à¦¸à§įà¦¬
Ġà¦¸à¦Ńà¦¾à¦ªà¦¤à¦¿à¦¤à§įà¦¬ à§ĩ
Ġà¦ķà¦¬ à¦¿à¦¤à¦¾
à¦ª à§ģ
à¦¿à¦ī à¦²
Ġà¦īà¦ªà¦ľ à§ĩà¦²à¦¾à¦¯à¦¼
Ġà¦ĵ à¦·à§ģà¦§
Ġà¦¯ à§ĩà¦¤
Ġà¦® à¦¿à¦°
à¦¾à¦° à§įà¦¡
à¦¿à¦ī à¦°
à§¦à§¦ à§¦
Ġà¦ķà§įà¦· à¦¤à¦¿
Ġà¦¬ à§ģà¦ķ
Ġà¦ķà§ĭà¦®à§įà¦ª à¦¾à¦¨à¦¿
Ġà¦ªà§įà¦° à¦Ń
b d
à¦¾à¦¤ à¦ķ
à¦ľà¦¨ à§įà¦¯
Ġà¦Ĩà¦¯à¦¼à§ĭà¦ľ à¦¿à¦¤
Ġà¦¦à§Ĥ à¦°à§ĩ
Ġà¦¨ à§ĩà¦Ł
à¦¾à¦Ń à¦¾à¦ĩ
à¦¾à¦¨ à§įà¦¯
Ġà¦®à§ģà¦ķà§įà¦¤à¦¿à¦¯ à§ģà¦¦à§įà¦§
Ġà¦¸à§įà¦¥ à¦¾à¦ªà¦¨
Ġà¦ķà¦ĸà¦¨ à¦ĵ
Ġà¦° à§ĭà¦ľ
Ġà¦°à¦¿à¦ªà§ĭà¦°à§įà¦Ł à¦¾à¦°
à¦ªà§įà¦° à¦¯à§ģà¦ķà§įà¦¤
à¦° à¦¾à¦¯à¦¼
Ġà¦¨à¦¿à¦°à¦¾à¦ª à¦¦
Ġà¦ªà§ĥà¦¥à¦¿à¦¬ à§Ģà¦°
à¦¬ à§įà¦²
Ġb y
Ġà¦¬ à¦¿
Ġà¦ļ à§Ģà¦¨
Ġà¦ĩà¦ŀà§įà¦ľ à¦¿à¦¨
Ġà¦ķà¦° à¦¤à§ĩà¦¨
Ġà¦ī à¦¦à§įà¦Ń
Ġà¦¸à¦¹à¦¯à§ĭà¦Ĺ à¦¿à¦¤à¦¾
ĠÙ Ī
Ġà¦¸à¦¾à¦ķà§įà¦· à¦¾à§İ
Ġà¦ķà¦¾à¦° à§ĭ
Ġà¦ª à§ĭ
à§ĭà¦® à
à§ĭà¦®à ¦
à§ĭà¦®à¦ ¾
Ġà¦ħà¦¬à§įà¦¯ à¦¾à¦¹à¦¤
Ġà¦ªà§įà¦°à¦¤à¦¿à¦·à§įà¦ł à¦¾à¦¨à§ĩà¦°
Ġà¦Ĩà¦ľ à¦ķà§ĩà¦°
Ġà¦īà¦¦à§įà¦¦à§ĩà¦¶ à§įà¦¯
Ġà¦ħà¦¸ à§ģà¦¸à§įà¦¥
Ġà¦¨ à§Ģà¦²
Ġà¦Ĩà¦¸ à¦¨
Ġà¦Ĩà¦§ à§ģà¦¨à¦¿à¦ķ
Ġà¦¨à¦¦ à§Ģà¦°
à¦ĸ à¦¾à¦¨à¦¾
à§įà¦¯à¦¾à¦ķ à§įà¦¸
à¦¿à¦¶ à¦¾à¦²à§Ģ
à¦Ńà¦¾à¦° à¦¤
Ġà¦Ĩà¦ĩ à¦¨à§ĩà¦°
à¦¾à¦ª à¦°
Ġà¦ħà¦§à¦¿à¦¦ à¦ªà§įà¦¤
Ġà¦¨à¦¿à¦°à§įà¦§ à¦¾à¦°à¦£
Ġà¦¨à¦¾à¦Ł à¦ķ
Ġà¦Ĺà¦£ à¦®à¦¾à¦§à§įà¦¯à¦®
Ġà¦¸à¦®à§įà¦ª à¦¦
Ġà¦Ĩ à¦ķà§įà¦¤
Ġà¦¸ à§ĭà¦¨
Ġà¦¨à¦¾à¦° à§Ģà¦°
Ġà¦¯ à¦¾à¦¦à§ĩà¦°
Ġà¦Ĩà¦® à¦¿à¦°
eng al
à¦¾à¦¦ à§ģ
Ġà¦¯ à¦¨à§įà¦¤à§įà¦°
Ġà¦²à§ĩà¦¨ à¦¦
à¦¿à¦ª à§Ĥà¦°à§įà¦£
Ġà¦¦à§ĩà¦ĸ à¦¾à¦°
Ġà¦ķà§įà¦¯ à¦¾à¦°
Ġà¦¬à¦² à§ĩà¦ĵ
ic k
Ġà¦¦à¦ĸ à¦²
Ġà¦¸ à¦¾à¦ķà¦¿à¦¬
Ġà¦¸ à¦¿à¦¸à§įà¦Ł
Ġà¦¹ à¦¬à§ĩà¦¨
Ġ >
Ġà¦®à§įà¦¯à¦¾à¦¨ à§ĩà¦ľ
Ġà¦¬ à¦ľ
Ġà¦¨à¦¿à¦· à¦¿à¦¦à§įà¦§
à§Ģà¦¬ à§įà¦°
Ġà¦¬à¦¿à¦ķ à§ĩà¦²à§ĩ
Ġà¦Ĩà¦® à¦¿à¦¨
Ġà¦¸ à§įà¦²
Ġà¦§ à¦°à§įà¦·à¦£
Ġà¦¡ à¦¿à¦Ń
à¦²à¦ Ļà§įà¦ķ
ĠC h
Ġà¦ªà¦°à¦¿à¦¬ à¦¹à¦¨
Ġà¦¡ à¦¾à¦īà¦¨à¦²à§ĭà¦¡
Ġ1 2
à¦¬ à¦¿à¦¸à§įà¦¤à¦¾à¦°à¦¿à¦¤
à¦¾à¦¶ à
à¦¾à¦¶à ¦
à§ĩà¦Ł à¦¿à¦Ĥ
à¦¾à¦¶à¦ ¾
Ġà¦¹ à¦¾à¦¨
Ġà¦¬à¦¾à¦Ĥà¦²à¦¾à¦¦à§ĩà¦¶ à¦¿
Ġà¦¸à¦Ĥà¦Ĺà¦ł à¦¨à§ĩà¦°
Ġà¦®à§ģà¦ĸ à§ĭà¦®
Ġà¦¦à§ĥ à¦¶à§įà¦¯
à§ĥà¦Ļà§įà¦ĸ à¦²à¦¾
à¦¾à¦ľ à¦¨
Ġà¦ļ à¦¾à¦¹à¦¿à¦¦
Ġà¦¬à§ĩà¦¶ à¦¿à¦°
Ġà¦¬à§Īà¦ł à¦ķà§ĩ
Ġà¦Ł à¦¿à¦ª
Ġà¦¦ à§įà¦¯
Ġà¦ļ à¦¿à¦¹à§įà¦¨
à¦¿à¦¸ à¦¹
Ġà¦ªà§įà¦°à¦¸ à¦Ļà§įà¦Ĺà§ĩ
à¦ķ à§įà¦ķ
à¦® à¦¸
à¦¨à§įà¦¦ à§įà¦¬
u st
Ġà¦¸ à¦¾à¦¨
à¦¸ à§ĩà¦ĩ
Ġà¦ªà§įà¦° à¦¾à¦ķ
à¦¯à¦¼ à§ĩà¦¶
Ġà¦ı à¦¯à¦¼à¦¾à¦°
à§ĩà¦ķà§įà¦Ł à¦°
à¦¾à¦¨à§įà¦¤ à§įà¦°à¦¿à¦ķ
Ġà¦¨à¦¿à¦°à§įà¦¦ à¦¿à¦·à§įà¦Ł
Ġà¦ļà¦² à§ĩà¦Ľà§ĩ
Ġà¦¬à§įà¦¯à¦ķà§įà¦¤ à¦¿à¦°
à¦ª à§ĭà¦°à§įà¦Ł
Ġà¦Ĺ à§įà¦²
Ġà¦¸à§įà¦¬ à¦¾à¦°à§įà¦¥
s h
Ġà¦¶ à¦°à§įà¦¤
Ġà¦°à¦¾à¦¸à§įà¦¤ à¦¾à¦¯à¦¼
Ġà¦¸à¦Ĥ à¦Ĺ
à§ĭà¦¯à¦¼ à¦¾à¦¡à¦¼
Ġà¦Ĺ à¦¾à¦ľà§Ģ
Ġb e
à¦¿à¦¦ à§įà¦¦
Ġà¦¬à¦¿à¦¶à§ĩà¦· à¦ľà§įà¦ŀ
Ġà¦°à¦¾à¦ľ à¦¶à¦¾à¦¹à§Ģ
à§ĩà¦Ł à¦°
Ġà¦¡à¦¾à¦ķ à§įà¦¤à¦¾à¦°
Ġà¦ķà¦¿à¦² à§ĭà¦®
Ġà¦¯à§ĭà¦Ĺ à§įà¦¯
Ġà¦ķà§įà¦² à¦¿à¦ķ
Ġà¦ħ à§įà¦¯à¦¾à¦²
Ġà¦ļ à¦Łà§įà¦Ł
Ġà¦§ à§Ģà¦°à§ĩ
* *
Ġà¦¨à¦ľ à¦°
à¦¾à¦Ł à§ĩ
Ġà¦ľ à¦¬à¦¾à¦¬
Ġà¦¦ à¦¾à¦¸
Ġà¦¬à¦¾à¦¸à§įà¦¤ à¦¬
Ġà¦ª à§ĥà¦·à§įà¦ł
Ġà¦¦à§ĩà¦¶ à¦Łà¦¿à¦°
à§ĩà¦ Ļà§įà¦Ĺ
an t
Ġà¦ªà§įà¦°à¦¤ à¦¿à¦®
Ġà¦ĸ à§ĭà¦ģà¦ľ
% a
à¦¾à¦ķ à§ģà¦°
Ġà¦Ĺ à§ĩà¦®
à¦¾à¦ķ à§ĩà¦°
Ġà¦¤ à¦¤
Ġ à¥¥
Ġà¦ĸ à§ĩà¦²à¦¾à¦°
Ġà¦¤à¦¾à¦¦à§ĩà¦° à¦ķà§ĩ
Ġà¦Ł à¦¿à¦ķ
à¦ı à¦ĸà¦¨
à¦ķ à§ĩà¦ĩ
Ġà¦¸ à¦¾à¦«à¦²
à§įà¦« à§ĭà¦°
Ġà¦®à§ĭ à¦ķà¦¾à¦¬
Ġà¦¬à§įà¦¯ à¦¸à§įà¦¤
Ġà§© à§§
à¦¸ à¦¾à¦²
Ġà¦¶à¦ķà§įà¦¤ à¦¿à¦¶à¦¾à¦²à§Ģ
Ġà¦¡à¦¿à¦ľ à¦¿à¦Łà¦¾à¦²
Ġà¦ī à¦¨à§įà¦®
Ġà¦ķà¦¾à¦ľ à§Ģ
Ġà¦ªà¦¾à¦°à§ĩà¦¨ à¦¿
Ġà§¨à§¦à§§à§ ª
Ġà¦®à§ģà¦ķà§įà¦¤à¦¿à¦¯à§ĭ à¦¦à§įà¦§à¦¾
Ġà¦®à§ģà¦ĸà§ĭà¦® à§ģà¦ĸà¦¿
à¦ľ à§ĩà¦²à¦¾
Ġà¦ªà¦¾à¦°à§įà¦Ł à¦¿à¦°
Ġà¦ľà¦¾à¦¨ à§ĩà¦¨
Ġà¦¦à¦¿à¦² à§įà¦²
à¦ĩ à¦¯à¦¼
Ġà¦¸ à¦¾à¦¦
Ġà¦® à¦®
e ad
Ġà¦ķà§ĭà¦®à§įà¦ª à¦¾à¦¨à¦¿à¦°
à¦ķà§įà¦° à¦¿à¦¯à¦¼
Ġà¦¹à¦¾à¦¸à¦ªà¦¾à¦¤ à¦¾à¦²à§ĩà¦°
Ġà¦¬à¦¿à¦¦à§įà¦¯à¦¾à¦² à¦¯à¦¼à§ĩà¦°
Ġà¦¦ à§Į
Ġà¦ı à¦Ńà¦¾à¦¬à§ĩ
Ġà¦¬à¦¿à¦Ńà¦¾à¦Ĺ à§ĩ
Ġà¦°à¦¾à¦¸à§įà¦¤ à
Ġà¦°à¦¾à¦¸à§įà¦¤à ¦
Ġà¦°à¦¾à¦¸à§įà¦¤à¦ ¾
Ġà¦¸à§įà¦® à¦°à¦£
Ġà¦«à¦² à¦¾à¦«à¦²
Ġà¦®à¦¹à¦¾à¦¸ à¦ļà¦¿à¦¬
Ġà¦ľà¦¾à¦¤ à¦¿à¦¸à¦Ĥà¦ĺ
Ġà¦® à§ģà¦¨
à¦ı à¦¬à¦¾à¦°
ag e
ou t
Ġà¦¬à¦¿à¦ľà§įà¦ŀà¦ªà§įà¦¤ à¦¿
à¦¿à¦¨ à§ĩ
Ġà¦¤à¦¥ à
Ġà¦¤à¦¥à ¦
Ġà¦¤à¦¥à¦ ¾
Ġà¦ĩà¦Ĥ à¦²à§įà¦¯à¦¾à¦¨à§įà¦¡
à¦¾à¦¬ à¦¹
à¦ªà§įà¦°à¦ķà¦¾à¦¶ à¦¿à¦¤
Ġà¦¬à§ĩà¦° à¦¿à¦¯à¦¼à§ĩ
Ġà¦® à¦¿à¦¸
Ġà¦ļ à¦¿à¦°
à§ģ à¦¯à¦¼à§ĩ
à¦¿à¦® à¦¾à¦¨
Ġà¦®à§Ĥà¦² à¦¤
à¦¹ à¦¾à¦¨
à¦Ĩà¦ª à¦¨à¦¿
Ġà¦Ĩà¦¦à¦¾à¦² à¦¤à§ĩà¦°
ig ht
ï¿½ ï¿½
à¦¬à¦¾à¦Ĥà¦² à
à¦¬à¦¾à¦Ĥà¦²à ¦
à¦¬à¦¾à¦Ĥà¦²à¦ ¾
al l
Ġà¦° à¦¾à¦¹
Ġà¦¤ à§įà¦¬
- à¦Ĩ
Ġà¦ķà¦¯à¦¼à§ĩà¦ķ à¦ľà¦¨
Ġà¦¦à¦¶ à¦®à¦¿à¦ķ
Ġà¦Ĺ à§ģà¦²à§ĭ
Ġà¦¶à¦¿à¦¶à§ģ à¦¦à§ĩà¦°
à¦¯ à¦¨à§įà¦¤à§įà¦°
à¦® à§ģà¦ĸ
Ġà¦¨ à¦¨
Ġà¦¸à§įà¦ª à¦·à§įà¦Ł
à§Ģ à¦·
-- --
Ġà¦¨à¦¿à¦¯à¦¼ à§ĩà¦Ľà§ĩà¦¨
à¦ķ à¦¿à¦°
à¦ħ à¦°à§įà¦¥
à¦¾à¦ Ī
Ġà¦¹ à§įà¦¯
Ġà¦Ńà¦¾à¦° à¦¤à§ĩ
Ġà¦ķà§įà¦·à¦® à¦¤à¦¾à¦¯à¦¼
Ġà¦ĸ à§ĩà¦¤à§ĩ
à¦¯ à¦¾à¦¤à§įà¦°
à¦¿à¦Ĥ à¦¯à¦¼à§ĩ
à¦¾à¦¬ à¦¿
à§ĩà¦¸ à§ĩ
Ġà¦²à§ĭà¦ķ à¦ľà¦¨
Ġà¦¸à§įà¦¬ à¦°à§įà¦£
Ġà¦ĸà§ĩà¦² à§ĭà¦¯à¦¼à¦¾à¦¡à¦¼
( '
Ġà¦¤ à§Ģà¦¬à§įà¦°
à¦® à§įà¦¯
Ġà¦¸à¦¬à¦¾à¦ĩ à¦ķà§ĩ
Ġà¦ı à¦«
à¦¸à§įà¦ķ à§ĥà¦¤à¦¿à¦ķ
à¦¶à§ĩà¦· à§ĩ
p r
Ġà¦ļà¦¾à¦ķ à¦°à¦¿
Ġà¦īà¦¦à§įà¦¦à§ĩà¦¶ à§įà¦¯à§ĩ
à§Ĥ à¦¨à§įà¦¯
Ġà¦ķà¦¾à¦ī à¦ķà§ĩ
à¦¯à¦¼ à¦¾à¦²
f f
Ġà¦¹à§ģà¦® à¦ķà¦¿
Ġà¦ķà¦®à§įà¦ª à¦¿à¦īà¦Łà¦¾à¦°
Ġà¦¬à¦¿à¦§ à¦¾à¦¨
Ġà¦¸à¦¾à¦® à¦°à¦¿à¦ķ
Ġà¦¬à¦¾à¦Ĥà¦² à¦¾à¦°
Ġà¦ªà§Įà¦ģ à¦Ľà§ĩ
à§¨ à§¨
Ġà¦¸à¦¾à¦°à§įà¦Ń à¦¿à¦¸
à¦¹à¦¤à§įà¦¯ à
à¦¹à¦¤à§įà¦¯à ¦
à¦¹à¦¤à§įà¦¯à¦ ¾
Ġà¦ıà¦ķ à¦¾à¦¡à§ĩà¦®
Ġà¦¨ à¦¿à¦ĸ
à¦¾à¦¬à¦² à¦¿à¦ķ
Ġà¦ħ à¦¨à§įà¦§
Ġà¦ľ à¦¾à¦°à¦¿
Ġà¦ħà¦ªà§ĩà¦ķà§įà¦· à
Ġà¦ħà¦ªà§ĩà¦ķà§įà¦·à ¦
Ġà¦ħà¦ªà§ĩà¦ķà§įà¦·à¦ ¾
Ġà¦¦ à¦¾à¦¨
Ġ }
Ġà¦¤à§ģà¦² à¦¨à¦¾à¦¯à¦¼
Ġà¦Ł à§ģà¦ĩ
à¦ĸ à§ģà¦²
à¦¿à¦ ĺ
à¦¾à¦ĵà¦¯à¦¼ à¦¾à¦¯à¦¼
Ġà¦¸à¦® à¦¿à¦¤à¦¿à¦°
Ġà¦ª à¦¾à¦ĸ
Ġà¦¸à¦Ĥ à¦²
q u
Ġà¦®à§Į à¦¸à§ģà¦®
Ġà¦ļà¦¿à¦ķà¦¿à§İà¦¸ à¦ķ
Ġà¦¨ à¦·à§įà¦Ł
Ġà¦¸à¦Ĥà¦¸à§įà¦¥ à¦¾à¦°
Ġà¦Ńà¦¾à¦ĩ à¦°à¦¾à¦¸
Ġà¦ªà¦¡à¦¼ à¦¾à¦°
Ġà¦¹à¦¾à¦® à¦²à¦¾à¦¯à¦¼
or n
Ġà¦¦à§ĩà¦ĸ à¦¿
Ġà¦¹à¦¾à¦° à§įà¦¡
Ġà¦¬à¦² à§ĩà¦ĩ
Ġà¦ıà¦ķ à¦¾à¦¦à¦¶
à§ĩà¦¶ à¦¨à§ĩ
Ġà¦ķà§ĭà¦®à§įà¦ª à¦¾à¦¨
à¦¯à¦¼ à¦¾à¦ľ
Ġà¦¬à¦¸ à¦¬à¦¾à¦¸
Ġà¦¹à¦¿à¦¸ à¦¾à¦¬
Ġà¦¹ à¦¾à¦ī
à¦¬à¦¾à¦¯à¦¼ à¦¦à§ģà¦²
Ġà¦° à¦¿à¦ľ
Ġà¦ªà§įà¦°à¦ķà¦²à§įà¦ª à§ĩà¦°
Ġà¦¸ à¦ŀà§įà¦ļ
Ġà¦ıà¦ĸ à¦¾à¦¨
% A
Ġà¦ħ à¦²à§įà¦ª
ht tp
Ġà¦¶à¦¿à¦¶ à§ģà¦°
Ġà¦¦à§ģà¦ĥ à¦ĸ
Ġà¦ħà¦¨à§ģà¦¸ à¦¾à¦°à§ĩ
à¦ķà§įà¦· à
à¦ķà§įà¦·à ¦
à¦ķà§įà¦·à¦ ¾
à§įà¦² à§ĩà¦·
Ġà¦¤à¦¾à¦² à¦¿à¦ķà¦¾à¦¯à¦¼
Ġà¦¬ à§ĭà¦§
Ġà¦¤à§ĭà¦® à¦¾à¦¦à§ĩà¦°
Ġà¦ı à¦¨à§ĩ
iv e
Ġà¦¸à¦Ĥà¦° à¦ķà§įà¦·à¦¿à¦¤
o c
Ġà¦¨ à¦°
Ġà¦Ĩà¦ĵ à¦¤à¦¾à¦¯à¦¼
Ġà¦ķà§įà¦°à¦¿à¦ķà§ĩà¦Ł à¦¾à¦°
à§Ģ à¦¨à§įà¦¦à§įà¦°
Ġà¦¨à¦¾à¦° à¦¾à¦¯à¦¼à¦£
Ġà¦° à§ĩà¦¡
à¦¾à¦ĩ à¦¸
Ġà¦° à¦¾à¦¨à§ĩà¦°
Ġà¦¬à¦¾à¦¸à§įà¦¤à¦¬à¦¾à¦¯à¦¼ à¦¨
Ġà¦ª à§ĩà¦Ł
à¦¬ à§ģà¦¬
Ġà¦ħà¦Ń à§įà¦¯
lo w
à§¨ à§§
Ġà¦¬à§įà¦¯à¦¬à¦¸à§įà¦¥ à¦¾à¦ªà¦¨à¦¾
Ġà¦« à§ĭà¦°
Ġà¦ħà¦¨à§ģà¦® à§ĭà¦¦à¦¨
Ġà¦Ń à¦¾à¦¸
Ġà¦Ĩà¦ĩà¦¨à¦ľà§Ģà¦¬ à§Ģ
- à¦¶
Ġà¦®à¦¿à¦Ľ à¦¿à¦²
Ġà¦ħà§įà¦¯ à¦¾à¦¸
Ġà¦Ĺà§ĭà¦ª à¦¨
Ġà¦ªà§įà¦° à¦¾à¦¨à§įà¦¤
Ġà¦¬à¦¯à¦¼ à¦¸à§Ģ
à¦¬ à§ĩà¦°
à¦ĸ à¦¾à¦²
à¦¿à¦ª à§įà¦¤
à¦¾à¦ļà¦¾à¦° à§įà¦¯
Ġà¦Ĩà¦ķà§įà¦¤ à¦¾à¦°
Ġà¦ĸ à§įà¦°
Ġà§§à§¦ à§¦
Ġà¦ħ à¦°à§įà¦§
Ġà¦¬à¦¾à¦¡à¦¼ à¦Ľà§ĩ
Ġà¦ķà§ģà¦® à¦¿à¦²à§įà¦²
à¦¾à¦® à¦¾à¦°
à¦¿à¦ı à¦²
Ġà¦« à¦ĸ
Ġà¦¦à§ģà¦°à§įà¦¨ à§Ģà¦¤à¦¿
Ġà¦ļà§įà¦¯à¦¾à¦®à§įà¦ª à¦¿à¦¯à¦¼à¦¨
à¦²à¦¾à¦ĩ à¦¨à§ĩ
Ġà¦ħ à¦°
à§Ģ à¦ľ
Ġà¦Ĩà¦¶ à§įà¦°à¦¯à¦¼
Ġà¦¡ à¦¿
Ġà¦ķà§įà¦² à¦¾à¦¬
Ġà¦ķ à§ĩà¦ľà¦¿
Ġà¦¬à¦¿à¦¸ à§įà¦«à§ĭà¦°
Ġà¦² à¦¾à¦ĩà¦¨
Ġà¦¸à¦¿à¦¸à§įà¦Ł à§ĩà¦®
Ġà¦ªà¦°à§Ģà¦ķà§įà¦· à¦¾à¦¯à¦¼
à¦ĵà¦¯à¦¼ à§įà¦¯à¦¾à¦°
Ġà¦¸à§ģ à¦ĩ
Ġà¦¸à§įà¦¤ à§įà¦°
à¦¬ à§ĩà¦¶
Ġà¦¨à¦¿à¦°à§įà¦¬à¦¾à¦ļ à¦¨à§Ģ
Ġà¦ªà§ĩà¦Ľ à¦¨à§ĩ
Ġà¦¦ à§ģà¦°
Ġà¦ª à¦¾à¦Ł
à§Ģà¦° à¦¿à¦ķ
à§ĩà¦¹ à§ĩà¦¤à§ģ
à¦¾à¦¨à§įà¦¤ à¦¿
à¦ª à§ģà¦²à¦¿à¦¶
à¦® à§ĭ
Ġà¦ķà¦¾à¦°à§įà¦¯à¦¾à¦² à¦¯à¦¼à§ĩ
l ine
à¦¸à§įà¦¬ à¦¾à¦¸à§įà¦¥à§įà¦¯
Ġà¦¦à§ģ à¦°à§įà¦Ĺ
Ġ| |
Ġà¦Ń à§ĭà¦Ĺ
Ġà§§à§¯ à§Ń
Ġà¦ľ à§ĩà¦²à¦¾à¦¯à¦¼
Ġà¦ĺ à¦°à§ĩà¦°
Ġà¦¶à§ģà¦¨ à§ĩ
Ġà¦īà¦ª à¦°à§ĩ
ĠâĢĺ âĢĺ
Ġà¦ľà¦¨à¦Ĺ à¦£
Ġà¦¬à¦¾à¦° à§įà¦·à¦¿à¦ķ
Ġà¦ĵ à¦¸à¦¿
à¦¨ à¦¤à§ģà¦¨
Ġ1 1
à¦¤à§įà¦¯ à¦¾à¦Ĺ
Ġà¦Ĩà¦¬ à¦¹
à¦§ à¦°à§įà¦®
Ġà¦¹ à¦°
Ġà¦« à¦°à¦®
Ġà¦ªà¦°à¦¿à¦· à§įà¦ķà¦¾à¦°
Ġà¦ĩà¦¨à§įà¦Łà¦¾à¦°à¦¨ à§ĩà¦Ł
Ġà¦Ĩà¦¨à§įà¦¦à§ĭà¦² à¦¨à§ĩà¦°
il l
Ġà¦ķà¦ł à§ĭà¦°
Ġà¦Ĩà¦« à§įà¦°
Ġà¦ªà§Ĥ à¦°à¦£
Ġà¦ļà¦²à¦¾à¦ļ à¦²
à¦¾à¦ľ à
à¦¾à¦ľà ¦
à¦¾à¦ľà¦ ¾
Ġà¦Ĺ à§Į
Ġà¦° à¦¿à¦¯à¦¼
Ġà¦ľà§įà¦¬ à¦¾à¦²
à¦£ à¦¾à¦°
à¦Ĺà§ģà¦² à¦¿à¦°
Ġà¦ķà¦° à¦¿à¦®
Ġà¦ªà¦¦à§įà¦§ à¦¤à¦¿
a st
à¦Ń à§ĭà¦Ĺ
à¦¿à¦° à§ĩà¦°
Ġà¦ļà¦² à¦¬à§ĩ
Ġà¦Ĳà¦¤ à¦¿à¦¹
Ġà¦¸à¦¬ à§ģà¦ľ
à¦¯ à¦°à¦¤
à¦ª à¦°à§ĩ
Ġà¦Ĩà§° à§ģ
Ġà¦Ń à§įà¦°à¦®
Ġà¦ĸ à§ĩà¦¯à¦¼à§ĩ
à¦¹ à
à¦® à¦¾à¦¸
Ġà¦Ł à§įà¦¯
à¦¹à ¦
à¦¹à¦ ¾
Ġà¦ªà§įà¦°à¦¤ à¦¿à¦ª
à¦¾à¦Ļà§įà¦Ĺ à
à¦¾à¦Ļà§įà¦Ĺà ¦
à¦¾à¦Ļà§įà¦Ĺà¦ ¾
Ġà¦¸à¦¿à¦° à¦¾à¦ľ
Ġà¦§à¦°à§įà¦® à§Ģà¦¯à¦¼
ÙĲ ÙĬ
Ġc h
Ġà¦Ľà¦¬ à¦¿à¦¤à§ĩ
Ġà¦¯ à§ĩà¦Ńà¦¾à¦¬à§ĩ
à¦¾à¦° à¦¨
Ġà¦ķà¦¾à¦°à§įà¦¯à¦¾à¦² à¦¯à¦¼
ĠP M
Ġà¦ªà¦° à¦°à¦¾à¦·à§įà¦Łà§įà¦°
Ġà¦¸à¦¦à¦¸à§įà¦¯ à¦°à¦¾
à¦¬à¦¿à¦¶ à§ĩà¦·
Ġà¦ªà§įà¦°à¦¶à¦¾à¦¸ à¦¨à§ĩà¦°
Ġà¦ķà¦¿à¦²à§ĭà¦® à¦¿à¦Łà¦¾à¦°
Ġà¦¬à¦¿à¦ļà¦¾à¦° à¦ªà¦¤à¦¿
Ġà¦¸à¦Ĥ à¦¬
Ġ20 20
à¦¾à¦ĵà¦² à¦¾à¦¨à¦¾
à¦Ĺà¦ł à¦¨à¦¿à¦ķ
Ġà¦¸à¦¾à¦Ĥ à¦¸à§įà¦ķà§ĥà¦¤à¦¿à¦ķ
Ġà¦¸ à¦¿
Ġà¦ªà§ģ à¦¤à§įà¦°
Ġà¦ª à§įà¦¯à¦¾à¦°
à¦°à§įà¦ľ à
à¦°à§įà¦ľà ¦
à¦°à§įà¦ľà¦ ¾
âĢĻ ,
Ġà¦ķà§įà¦· à§ĩà¦¤à§įà¦°
à¦¿à¦¡ à¦¿
Ġà¦Ĩà¦¦ à¦°à§įà¦¶
Ġà¦¸ à§ģà¦®
à§ģà¦ķ à§ģà¦°
- à¦ľ
Ġà¦°à¦¾à¦ĸ à§ĩ
à¦Ł à¦¿à¦²
Ġà¦¸à§įà¦¬ à§Ģà¦ķ
u g
Ġà¦¹à¦¾à¦ľ à¦¿à¦°
Ġà¦¢ à§ģà¦ķ
à¦¨à§įà¦¦ à¦¨
Ġà¦ħà¦¬à¦¸à§įà¦¥ à¦¿à¦¤
u d
Ġà¦¡ à¦¿à¦Ĺ
âĢ į
à¦« à¦¿
Ġà¦¸à¦¾à¦¹ à§ĩà¦¬
à¦¦ à¦°
Ġà¦¨à¦¿à¦ľ à§ĩ
Ġà¦ī à¦Ńà¦¯à¦¼
Ġ1 9
1 9
Ġà¦¸ à¦¾à¦¦à¦¾
à¦§ à¦°
Ġà¦¬à¦¦ à¦²à§ĩ
à¦« à¦¿à¦²
Ġà¦¨ à¦¾à¦¯à¦¼
à¦¾à¦ľ à§įà¦ŀ
S T
à§ĩà¦ ŀà§įà¦ļ
à¦§ à§ĩ
Ġa g
Ġà¦īà¦¤à§įà¦¤ à§ĩà¦ľ
Ġà¦Łà§ĩà¦ķ à¦¨
à¦ªà§įà¦° à§ĩà¦¸
Ġà¦§à¦¾à¦° à¦¾à¦¬
: à§¦à§¦
Ġà¦ĩà¦® à¦¾à¦®
à¦¾à¦® à§ĩà¦¨à§įà¦Ł
Ġà¦®à¦¾à¦¨à¦¬ à¦¬à¦¨à§įà¦§
à¦® à¦°
Ġà¦¸à¦Ĥ à¦¸
à¦¾à¦¤ à§įà¦¤
Ġà¦ıà¦¸ à¦®à¦¯à¦¼
à¦ķ à§ĩà¦¨à§įà¦¦à§įà¦°
à¦Ĺ à§Ģà¦°
Ġà¦¸à¦« à¦°
à¦® à§įà¦Ń
Ġà¦°à¦¾à¦ľà¦§à¦¾à¦¨ à§Ģ
à§ĭà¦°à§įà¦ ¸
Ġà¦§à§įà¦¬ à¦Ĥà¦¸
- à¦¨
Ġà¦¸ à§ĩà¦¬
à¦¯ à¦¾à¦ªà¦¨
à¦¾à¦ģ à¦ª
- à¦ħ
Ġà¦¸ à¦¿à¦¦à§įà¦¦
Ġà¦ªà¦¾à¦° à§įà¦ķ
Ġà¦ª à¦¿à¦¤à¦¾
Ġà¦¤à¦¾à¦° à¦ķà¦¾
Ġà¦ĸà§ĩà¦² à¦¤à§ĩ
Ġ #
à¦ĸà¦¾à¦¨ à§ĩà¦ķ
à¦« à§ĩà¦°
à¦Ĺ à¦¿à¦¤
à¦¾à¦Ł à¦¿à¦¤à§ĩ
Ġà¦¸à§ĩà¦¨ à
Ġà¦¸à§ĩà¦¨à ¦
Ġà¦¸à§ĩà¦¨à¦ ¾
à¦ı à¦Ľ
Ġà¦¤ à¦¬à§ģ
Ġà¦ĩà¦¤ à¦¿à¦®
Ġà¦Ĩà¦² à¦¾à¦ĩ
Ġà¦ľà¦Ļà§įà¦Ĺ à¦¿
Ġà¦ĸ à§ĭà¦²à¦¾
Ġà¦ıà¦² à¦¾à¦ķ
Ġà¦Ĺà§ĩà¦² à§ĩà¦¨
à¦¨à¦¿à¦ľ à¦¸à§įà¦¬
Ġà¦ħà§įà¦¯à¦¾à¦ķ à¦¾à¦īà¦¨à§įà¦Ł
à¦¦ à§įà¦¯
Ġà¦¨à¦¿à¦°à§įà¦¯à¦¾à¦¤ à¦¨
Ġà¦¬ à§ĩà¦¤à¦¨
Ġà¦¸à¦® à§ģà¦¦à§įà¦°
à¦ł à¦¿à¦¤
à¦¢ à¦¼
. )
à¦ıà¦ķ à¦Łà¦¿
Ġà¦¶à¦¾à¦¨à§įà¦¤ à¦¿
Ġà¦Ĩà¦¸à¦¾à¦® à¦¿
Ġà¦¸à§įà¦¬ à¦¾à¦ķà§įà¦·
Ġà¦¸ à¦¿à¦ķ
Ġà¦¹ à¦¾à¦¯à¦¼
à¦« à¦²
Ġà¦® à¦§
Ġà¦ªà§įà¦°à¦ļ à§ģà¦°
Ġà¦ķà¦¥ à¦¾à¦¯à¦¼
Ġà¦ª à¦¾à¦¥
Ġà¦Ĺà§ĭà¦¯à¦¼ à§ĩà¦¨à§įà¦¦
à¦ľ à¦¾à¦¨à¦¾
à¦ķ à§ģà¦²
Ġà¦¨ à¦Ĺ
à§ģà¦¡à¦¼ à¦¿
à¦¾à¦¦ à¦¨à¦¾
Ġà¦ħ à¦Ĺà§įà¦¨
à¦¿à¦¤à§įà¦¤ à¦¿à¦ķ
à¦¾à¦ĩ à¦®
Ġà¦¨ à§ĩà¦¯à¦¼à¦¾à¦°
Ġà¦ªà§įà¦°à¦¶à¦¾à¦¸ à¦ķ
à¦¦ à¦²à§ĩà¦°
Ġà¦Ĩà¦ī à¦Ł
Ġà¦Ĩ à¦ĺà¦¾à¦¤
Ġà¦® à¦ŀà§įà¦ļ
à¦Ĩà¦ª à¦¡à§ĩà¦Ł
Ġà¦¬à§ĩà¦¶ à§Ģ
à¦¾à¦¦ à§ĩ
Ġà¦¬à§įà¦°à¦¿à¦Ł à¦¿à¦¶
à§¨à§¦ à§¦
Ġà¦Ĩà¦¨ à§ĭà¦¯à¦¼à¦¾à¦°
à¦¸à¦®à§įà¦ª à¦¾à¦¦à¦ķ
Ġà¦ªà§įà¦°à¦¯à¦¼ à§ĭà¦Ĺ
ct ion
Ġà¦¶à¦¾à¦° à§Ģà¦°à¦¿à¦ķ
Ġà¦Ńà§ĩà¦¤ à¦°à§ĩ
Ġà¦¸à¦¨à§įà¦§ à§įà¦¯à¦¾à¦¯à¦¼
à¦¾à¦®à§Ĥà¦² à§įà¦¯à§ĩ
Ġà¦īà¦ª à¦¾à¦¦à¦¾à¦¨
n ews
Ġà¦«à¦¿à¦° à¦¿à¦¯à¦¼à§ĩ
Ġà¦§ à¦°à¦£à§ĩà¦°
Ġà¦Ľà¦¾à¦¤à§įà¦° à¦²à§Ģà¦Ĺ
Ġà¦ªà§įà¦° à§ĭà¦Ĺ
à¦ķà¦¾à¦° à§ĩà¦°
- à§©
à¦ª à§ĭà¦°
à¦¿à¦ ģ
Ġà¦° à¦¾à¦¨à§ĩ
à¦¾à¦²à§įà¦²à¦¾à¦¹ à§ģ
Ġà¦ĩà¦Ĥà¦° à§ĩà¦ľà¦¿
Ġà¦ª à¦¶
à¦¥ à§įà¦¯
Ġà¦¨à¦¿à¦¶à§įà¦ļ à¦¯à¦¼
à¦¡ à§ĩ
Ġà¦¬à¦² à¦¾à¦°
Ġà¦¬à¦¿à¦ª à¦°
Ġà¦¸à¦¦à¦¸à§įà¦¯ à¦¦à§ĩà¦°
Ġà¦Ĩà¦¨ à¦¤à§ĩ
à¦¬ à§Ģà¦°
Ġà¦¬à¦¿à¦¶à§įà¦¬à¦¬à¦¿à¦¦à§įà¦¯à¦¾à¦² à¦¯à¦¼à§ĩ
Ġà¦ªà§įà¦° à¦¯
- à¦Ł
Ġà¦Ł à§ĩà¦¬
à§ĩà¦ļà§įà¦Ľ à
à§ĩà¦ļà§įà¦Ľà ¦
à§ĩà¦ļà§įà¦Ľà¦ ¾
Ġà¦ª à§ĩà¦ģ
à¦¶ à§ĩ
à¦ªà¦° à¦¿à¦¬
à¦¾à¦ª à§ĩà¦°
à¦¸à¦Ĥ à¦ĸ
Ġà¦ıà¦Ľ à¦¾à¦¡à¦¼à¦¾à¦ĵ
Ġà§§à§¯ à§¯
Ġà¦® à¦¾à¦¶
on g
Ġà¦īà¦ª à¦¦
à¦¾à¦ ŀà§įà¦ľ
à¦¾à¦¤à§įà¦® à¦ķ
Ġà¦ħ à¦Ł
Ġà¦īà¦¨à§įà¦¨à¦¯à¦¼ à¦¨à§ĩà¦°
à¦¹ à¦°
Ġà¦ķà¦¾à¦°à¦¾à¦Ĺ à¦¾à¦°à§ĩ
à¦² à¦Ń
Ġà¦«à¦ĸ à¦°à§ģà¦²
Ġà¦ľ à¦¾à¦Ĺ
Ġà¦Ń à¦¾à¦¡à¦¼à¦¾
à¦ª à¦¦
Ġà¦¯ à¦¾à¦¬à§ĩà¦¨
à¦¾à¦² à¦¾à¦²
Ġà¦Ľ à¦¡à¦¼
Ġà¦¸à¦®à¦¾à¦ľ à§ĩà¦°
Ġà¦¸à§Ĥ à¦ļ
à§ĭ à¦¤
Ġà¦¸ à§ĩà¦¤
Ġà¦ļ à§įà¦¯à¦¾à¦²
Ġà¦Ī à¦¦à§ĩà¦°
Ġà¦ªà§įà¦°à¦ķà§įà¦° à¦¿à¦¯à¦¼à¦¾
Ġà¦¸à¦¿à¦¨à§ĩà¦® à
Ġà¦¸à¦¿à¦¨à§ĩà¦®à ¦
Ġà¦¸à¦¿à¦¨à§ĩà¦®à¦ ¾
Ġà¦ķ à§Įà¦¶à¦²
Ġà¦¯ à¦¾à¦ķ
Ġà¦ĩà¦ī à¦ªà¦¿
it y
Ġà¦ķà§ĩà¦¨à§įà¦¦à§įà¦° à§ĩ
Ġà¦¦ à§ĩà¦¡à¦¼
à¦¬ à§ģà¦§à¦¬à¦¾à¦°
à¦¤à¦ ĥ
Ġà¦®à§ĩà¦ ĺ
à¦®à¦¾à¦° à§įà¦ķ
Ġà¦Ĺ à§įà¦¯à¦¾à¦¸
Ġà¦Ĩà¦¬ à§ĩà¦¦
Ġw h
Ġà¦°à¦¾à¦·à§įà¦Łà§įà¦° à¦ªà¦¤à¦¿
Ġà¦ħà¦¨à§įà¦¯ à¦¦à¦¿à¦ķà§ĩ
Ġà¦¹à¦¤à§įà¦¯ à¦¾à¦ķ
Ġà¦¬à¦¾à¦¬ à¦¾à¦°
Ġà¦¹ à¦¬
Ġà¦ªà¦¾à¦² à¦¿à¦¯à¦¼à§ĩ
Ø ¨
Ġà¦ªà§įà¦° à¦¾à¦ļ
à¦¿à¦ī à¦¬
Ġà¦ķà¦° à¦²à§ĩà¦ĵ
à¦¦ à§ģà¦°
Ġà¦¸ à§ģà¦²à¦¤
Ġà¦ļà¦¿à¦ł à¦¿
Ġà¦¶à§ģà¦§ à§ģà¦®à¦¾à¦¤à§įà¦°
à¦®à§Ĥà¦² à¦ķ
Ġà¦¸à§įà¦¥ à¦Ĺà¦¿à¦¤
à§ģà¦° à§ģà¦°
Ġà¦Ĺà§ĭà¦² à¦¾à¦®
Ġà¦¬à¦¿à¦ķ à¦¾à¦¶
à¦°à§įà¦§ à§įà¦¬
à¦¬à¦¾à¦Ĥà¦²à¦¾à¦¦à§ĩà¦¶ à§ĩà¦°
Ġà¦«à¦° à¦¿à¦¦
Ġà¦¸à¦¾à¦® à¦Ĺà§įà¦°
à¦ķ à§ĭà¦¨
Ġà¦ľ à¦¿à¦®
Ġà¦¬ à§ĭà¦²
Ġà¦¬à¦¿à¦¶ à¦¿à¦·à§įà¦Ł
Ġà¦¨à¦¿à¦ľ à§ĩà¦ĩ
à§įà¦ª à§ĭà¦°
Ġà¦¤ à§ĭà¦²à¦¾
Ġà¦¨ à¦¿à¦ĥ
à¦® à¦¾à¦°à§ĩà¦°
à¦¿à¦¶ à§įà¦°
Ġ )
Ġà¦ķà§įà¦·à¦¤ à¦¿à¦Ĺà§įà¦°
à¦Ń à¦¿à¦¡à¦¿à¦ĵ
Ġà¦¸à¦®à¦¸à§įà¦¯ à¦¾à¦°
à¦ĵà¦¯à¦¼à¦¾à¦° à§įà¦ķ
à¦ª à¦¾à¦¡à¦¼à¦¾
Ġà¦² à§ģà¦ķ
à¦¾à¦¹à¦¿à¦¨ à§Ģà¦°
Ġà¦ķà§įà¦° à¦®
Ġà¦ĵ à¦¬à¦¾à¦¯à¦¼à¦¦à§ģà¦²
Ġà¦Ĺà§įà¦° à¦¨à§įà¦¥
Ġà¦¬à¦¿à¦ Ĺ
Ġà¦Ńà§ĩà¦¤ à¦°
Ġà¦¯à¦¥ à§ĩà¦·à§įà¦Ł
à¦² à§ĩà¦ĸ
Ġà¦ĩ à¦ķà¦¬
Ġà¦¹ à§ĭà¦®
à¦ħ à¦¨à§įà¦¯
Ġà¦¤ à¦®
Ġà¦¸à¦Ĥ à¦¯à§ĭà¦Ĺ
Ġà¦¬à¦¿à¦ ¡
Ġà¦ļà§įà¦¯à¦¾à¦² à§ĩà¦ŀà§įà¦ľ
Ġà¦² à¦¨à§įà¦¡
Ġà¦¤ à§įà¦¯à¦¾à¦Ĺ
Ġà¦§ à¦¾à¦ķà§įà¦ķ
âĢĻ -
Ġà¦ķà§įà¦° à§Ģ
ĠØ ¹
Ġà¦ĺ à§ģà¦°
à¦Ł à§ģà¦ķà§ģ
à¦¾à §·
à§ģà¦·à§įà¦ł à¦¾à¦¨à¦¿à¦ķ
à¦¿à¦ļ à§įà¦Ľ
à§¨ à§©
Ġà¦®à¦¹à¦¾à¦¸ à¦¡à¦¼
1 7
Ġà¦® à¦¾à¦ĵà¦²à¦¾à¦¨à¦¾
à¦¾à¦ª à§ĩ
à¦¶ à§įà¦¬à¦°
Ġà¦¨à§ĩà¦¤ à¦¾à¦°à¦¾
Ġà¦ľ à§įà¦¯
Ġà¦¶à¦°à§Ģà¦° à§ĩà¦°
à¦ķ à¦¾à¦®
à¦¾à¦ª à¦¤à¦¿
Ġà¦®à¦¾à¦¹ à¦¬à§ģà¦¬
à¦¿à¦Ĥ à¦ķ
Ġà¦¸à¦¾à¦Ĥ à¦Ĺà¦łà¦¨à¦¿à¦ķ
Ġà¦Ł à¦¿à¦Ńà¦¿
Ġà¦Ĩà¦¸ à§įà¦¤
Ġà¦Ńà¦¯à¦¼ à¦¾à¦¬à¦¹
à¦ªà§įà¦°à¦¯à§ģà¦ķà§įà¦¤ à¦¿
Ġà¦ļà§ĩà¦¯à¦¼à¦¾à¦° à¦ªà¦¾à¦°
Ġà¦¨à¦¾à¦° à§Ģà¦¦à§ĩà¦°
à§ĭà¦¯à¦¼ à§ĩà¦¨à§įà¦Ł
Ġà¦ļ à¦¤à§ģ
à¦¬ à¦¹
a ve
Ġà¦¬à§įà¦¯à¦¬à¦¹ à¦¾à¦°à§ĩà¦°
Ġà¦¸à§įà¦ķà§ģà¦² à§ĩà¦°
à¦¿à¦ıà¦¸ à¦ĩ
Ġà¦ĸ à¦¾à¦ĵà¦¯à¦¼à¦¾
Ġà¦Ĩà¦¸ à¦¨à§ĩà¦°
Ġà¦«à¦¾à¦° à§ģà¦ķ
d ay
Ġà¦Ł à¦¾à¦¨
à¦¬à§ĥà¦¹ à¦¸à§įà¦ªà¦¤à¦¿à¦¬à¦¾à¦°
Ġà¦ħà¦Ńà¦¿à¦¯ à§ģà¦ķà§įà¦¤
à§ĩà¦Ł à¦¿
ĠI n
à¦¤à¦¿à¦ķ à§įà¦°à¦®
Ġà¦°à¦¾à¦ľ à§įà¦¯à§ĩà¦°
à¦® à¦Ļà§įà¦Ĺà¦²à¦¬à¦¾à¦°
Ġà¦Ł à¦¾à¦ķà¦¾à¦¯à¦¼
Ġà¦ĸ à§ĩà¦²à§ĩ
Ġà¦¥à¦¾à¦ķ à¦¬à§ĩà¦¨
à¦«à¦¿à¦ķ à§ģà¦²
ĠĠĠĠ ĠĠĠĠ
Ġà¦§à¦¾à¦°à¦¾à¦¬ à¦¾à¦¹à¦¿à¦ķ
Ġ &
Ġà¦¬ à§ģà¦²
Ġà¦¬à¦¿à¦ª à§ģà¦²
i z
Ġà¦Ĺà¦£ à¦¤à¦¨à§įà¦¤à§įà¦°
Ġà¦ªà¦° à§ĩà¦°
Ġw ith
Ġà¦ĸà§ģà¦¶ à¦¿
Ġà¦¯ à¦¿à¦¨à¦¿
Ġà¦¦ à§ĩ
âĨ ĳ
à§įà¦® à¦£
à§ĭ à¦¤à§ĩ
Ġà¦¬à¦¿à¦¶ à§įà¦²à§ĩà¦·
à¦ī à¦¤à§įà¦¤à¦°
Ġà¦¨à¦¿à¦°à§įà¦§ à¦¾à¦°à¦¿à¦¤
à¦¸ à§ĭà¦®à¦¬à¦¾à¦°
i es
Ġ Y
Ġà¦° à§ĩà¦¸
Ġà¦¸à¦¨à§įà¦§ à§įà¦¯à¦¾
on e
à¦¿à¦Ń à¦¾à¦¬
à¦¾à¦® à§Ģà¦°
Ġà¦¸ à¦¿à¦®
Ġà¦¨à¦¿à¦°à§įà¦¦à§ĩà¦¶ à¦¨à¦¾
1 5
à¦«à§įà¦° à¦¨à§įà¦Ł
. à¦ķà¦®
Ġà¦¸à§ģ à¦ªà§įà¦°
Ġà¦«à§ĩà¦° à¦¤
Ġà¦ĺ à¦¿à¦°à§ĩ
Ġà¦ħà¦§à¦¿à¦ķ à¦¾à¦Ĥà¦¶
à§¨ à§¬
Ġà¦¬à§ĩà¦ģ à¦ļà§ĩ
Ġà¦¯à§Į à¦¥
à¦¿à¦Ń à¦¾à¦°à§įà¦¸
à§ĩà¦ľ à§ĩ
Ġà¦ªà§įà¦° à§ĩà¦°
a z
Ġà¦¶à¦¿à¦ķà§įà¦·à¦¾à¦°à§įà¦¥ à§Ģà¦°à¦¾
Ġà¦ħ à¦¸à§įà¦¥
à¦ħà¦¨ à¦²à¦¾à¦ĩà¦¨
Ġà¦ķà¦° à§įà¦ªà§ĭà¦°
à§įà¦¬ à¦¾à¦°
à¦¿à¦® à¦¾à¦¨à¦¾
Ġà¦ľà¦¾à¦® à¦¿à¦¨
Ġà¦ľà¦¨à§įà¦¯ à¦ĩ
Ġà¦¡ à§ĩà¦Ń
Ġà¦Ĩà¦Ł à¦ķà§ĩ
Ġà¦®à¦¿à¦² à§ĩ
Ġà¦®à¦¾à¦§à§įà¦¯à¦® à¦¿à¦ķ
Ġ: :
Ġà¦ĵ à¦Ń
à§Ģ à¦¨à§ĩ
à¦¿à¦¡ à¦¿à¦¯à¦¼à¦¾
Ġà¦ªà§įà¦°à¦¾à¦ķ à§ĥà¦¤à¦¿à¦ķ
à¦Ĩ à¦¸
Ġà¦ħà¦Ńà¦¿à¦¨ à§ĩà¦¤à§įà¦°à§Ģ
Ġà¦ĩ à¦¸à¦°
v er
1 4
Ġà¦¨à§ĩà¦¤ à¦¾à¦¦à§ĩà¦°
Ġà¦¬à§ĥà¦·à§įà¦Ł à¦¿
Ġà¦ķà¦° à¦ªà§ĭà¦°
Ġà¦¦ à§ĭà¦¯à¦¼à¦¾
Ġà¦ªà¦¾à¦°à§įà¦Ł à¦¿
à§ª à§¦
à¦¬ à§ĥà¦¨à§įà¦¦
Ġà¦¤ à§ĩ
à¦ģ à¦ļ
Ġà¦Ĺà§ĭ à¦Łà¦¾
à¦¾à¦Ł à§ĩà¦°
Ġà¦¶à¦°à§Ģà¦° à§ĩ
Ġà¦¤à¦¾à¦°à¦¿à¦ĸ à§ĩ
Ġà¦Ĺà§įà¦°à§ģà¦ª à§ĩà¦°
Ġà¦Ł à¦¿à¦®
à¦ª à¦ķà§įà¦·à§ĩ
Ġà¦®à§ģ à¦¹à¦¾à¦®à§įà¦®à¦¦
Ġà¦ħ à¦¸à¦¹
Ġà¦¹à¦ļ à§įà¦Ľà§ĩà¦¨
à¦¾à¦¯à¦¼ à
à¦¾à¦¯à¦¼à ¦
à¦¾à¦¯à¦¼à¦ ¾
à¦« à¦°
Ġà¦¬à¦² à¦¿à¦īà¦¡
Ġà¦¬à¦¿à¦ķ à§ĩà¦²
Ġà¦ķà¦° à¦¬à§ĭ
à¦Ń à§ĭà¦ķ
à¦¦ à¦ķà§įà¦·
Ġà¦¤à§ģà¦² à¦¤à§ĩ
Ġà¦¦à¦¾à¦° à§ģà¦£
Ġà¦Ĩà¦ļ à¦°à¦£
Ġà¦¬à¦¿à¦ª à§įà¦²
Ġà¦® à¦°à§įà¦¯
à§įà¦® à
à§įà¦®à ¦
à§įà¦®à¦ ¾
à¦ª à¦¾à¦²
Ġà¦¦à§ĩà¦¬ à§ĩà¦¨
Ġà¦«à§įà¦° à¦¾à¦¨à§įà¦¸
Ġà¦¨à¦¿à¦·à§ĩà¦§ à¦¾à¦ľà§įà¦ŀ
en d
à¦¤ à¦¿à¦¤à§ĩ
à¦¬ à¦°à§įà¦·
Ġà¦ª à¦łà¦¿à¦¤
Ġà¦Ĩà¦ĩ à¦¨à§ĩ
à¦¾à¦® à
à¦¾à¦®à ¦
à¦¾à¦®à¦ ¾
à§Ģà¦¬ à¦¾à¦ľà¦¾à¦°
à§ĩà¦ ī
à¦¿à¦¯à¦¼ à¦¾à¦¸
Ġà¦ķà¦²à¦ķ à¦¾à¦¤à¦¾
Ġà¦ķà¦® à¦¿à¦īà¦¨
Ġà¦Ĩà¦ķ à¦°à§įà¦·à¦£
à¦¾à¦ī à¦²
Ġ2 4
Ġà¦¦à¦¿à¦¯à¦¼ à§ĩà¦Ľà¦¿à¦²à§ĩà¦¨
Ġà¦ı à¦Łà¦¾à¦ĩ
Ġà¦ķà¦®à¦¿à¦¶ à¦¨à§ĩà¦°
à¦°à§įà¦¶ à¦ķ
Ġà¦¸à§Ģ à¦®
Ġà¦° à§ĭ
à§Ģà¦¤ à¦¿à¦°
Ġà¦¸à§įà¦¬ à¦°à¦¾à¦·à§įà¦Łà§įà¦°
à¦ķ à§Ģ
à¦° à¦Ĥ
Ġà¦¶ à¦¾à¦¸
Ġà¦Ńà¦¾à¦ĩ à¦°
Ġa s
à¦¸à§įà¦¥à¦¾à¦¨ à§Ģà¦¯à¦¼
Ġà¦®à¦¿à¦² à¦¿à¦¯à¦¼à§ĩ
Ġà¦ªà§įà¦°à¦ľ à¦¨à§įà¦®
à¦¿à¦ Ŀ
Ġà¦¸à¦® à¦¾à¦¨
Ġà¦®à§įà¦¯à¦¾à¦ļ à§ĩà¦°
à¦¾à¦Ļà§įà¦Ĺ à§Ģà¦°
Ġà¦¶à§ģà¦Ń à§ĩà¦ļà§įà¦Ľà¦¾
Ġà¦¸à¦ªà§įà¦¤à¦¾à¦¹ à§ĩ
à¦¾à¦ļ à¦ķ
Ġà¦® à¦¾à¦Ĥ
Ġà¦ı à¦Ĺà§ģà¦²à§ĭ
Ġà¦ķà¦° à¦¤
Ġà¦® à¦¿à¦ľ
à¦¸à§Ĥ à¦¤à§įà¦°
Ġà¦¨ à§Ģ
Ġà¦¡à¦Ł à¦ķà¦®
Ġà¦°à¦¾à¦¸ à§Ĥà¦²
Ġà¦¬à¦° à¦¾à¦¦à§įà¦¦
u ck
à¦ħ à¦ªà¦°
Ġà¦ħà¦Ńà¦¿à¦ľà§įà¦ŀ à¦¤à¦¾
Ġà¦ª à¦¾à¦¬
à¦Ń à¦¾à¦·
Ġà¦¸à§įà¦ķà§ģà¦² à§ĩ
Ġà¦ħà¦Ń à¦¿à¦¬
à§įà¦¯ à¦ķ
Ġà¦ī à¦ľà§įà¦ľ
Ġà¦Łà§įà¦° à¦¾à¦ķ
Ġà¦¸à¦°à¦ķà¦¾à¦° à§Ģ
à§įà¦¯ à¦¾à¦¡
à¦¶ à§ģà¦ķ
à¦¿à¦² à§įà¦¯à¦¾à¦¨à§įà¦¡
Ġà¦®à§ģà¦ľà¦¿à¦¬ à§ģà¦°
Ġà¦¦à§ģà¦°à§įà¦ĺà¦Ł à¦¨à¦¾à¦¯à¦¼
Ġà¦ĸ à§ĩà¦¯à¦¼
Ġà¦Ĩ à¦ķà§įà¦°à¦®à¦£
Ġà¦« à¦¾à¦īà¦¨à§įà¦¡
ĠĠ ĠĠĠ
Ġà¦Ĩà¦ªà¦¨à¦¾à¦° à
Ġà¦Ĩà¦ªà¦¨à¦¾à¦°à ¦
Ġà¦Ĩà¦ªà¦¨à¦¾à¦°à¦ ¾
Ġà¦Ńà§ĭà¦Ł à¦¾à¦°
Ġà¦¶à¦¾à¦¹ à¦ľ
Ġà¦® à¦¨à§ĩà¦°
à¦ķ à§ĩà¦ĵ
Ġà¦ĸà§ģà¦² à¦¨à¦¾
à§® à§¦
Ġà¦¬à¦² à§ĩà¦Ľà¦¿à¦²à§ĩà¦¨
Ġ201 6
l d
Ġà¦ľà¦° à¦¿à¦®à¦¾à¦¨à¦¾
Ġà¦ĸ à§ĭà¦ķ
Ġà¦ĩ à¦¸à§įà¦¯
Ġà¦ľà¦¾à¦¨ à§ĩ
à¦¿à¦ķ à§įà¦¯à¦¾à¦²
Ġà¦ľ à¦Łà¦¿à¦²
à¦Ńà§ĭà¦ķ à§ĩà¦Ł
Ġp ro
Ġà¦¯à¦¾à¦¤à§įà¦° à§Ģ
Ġà¦¶à¦° à§Ģ
Ġà¦Ĩà¦¬à¦¾à¦° à¦ĵ
ub lis
à§ģ à¦¦à§ĩà¦°
à¦§ à¦¾à¦¨à§ĩ
Ġà¦¶à¦¾à¦¸à§įà¦¤ à¦¿
à¦¿à¦ķ à¦°
à¦¦ à¦¹
Ġà¦ħ à¦¤à¦¿
Ġà¦® à§ĩà¦§
à¦² à¦¿à¦¤
Ġà¦° à¦¿à¦¸
Ġà¦¬ à¦¾à¦®
Ġà¦® à§Ĥ
Ġà¦®à¦¿à¦¥ à§įà¦¯à¦¾
à¦¸à¦°à§įà¦¬ à¦¶à§ĩà¦·
Ġà¦¸à§ĩà¦Ĺ à§ģà¦²à§ĭ
à¦¤ à¦¾à¦¨à§įà¦¤à§įà¦°à¦¿à¦ķ
à¦¤à¦ Ļà§įà¦ķ
à¦ı à¦¬
à¦Ĩà¦Ĺ à¦¾à¦®à§Ģ
à¦® à¦¾à¦£
3 0
Ġà¦ıà¦° à¦ĩ
Ġà¦¸à¦¾à¦® à¦¾à¦¨à§įà¦¯
Ġ an
Ġà¦¨à¦¿à¦¯à¦¼ à§ĩà¦ĩ
à¦ª à¦¾à¦ķ
à¦¿à¦Ĺ à§ģà¦²à§ĭ
Ġà¦®à§ĩà¦¯à¦¼ à§ĩà¦¦à§ĩà¦°
Ġà¦¸à§įà¦Ł à§ĩà¦¡
Ġà¦¨ à§Ģà¦¤à¦¿
Ġà¦Ń à¦ķà§įà¦¤
à§ĭà¦¸ à¦¿à¦¯à¦¼
Ġà¦ªà¦¾à¦°à§ĩà¦¨ à¦¨à¦¿
Ġà¦Ĩ à¦Ľà¦¿
Ġà¦Ĩà¦² à§ĭà¦ķ
Ġà¦¸à¦¿à¦¦à§įà¦¦ à¦¿à¦ķ
à¦¾à¦ĸ à¦¾à¦²à§Ģ
Ġà¦¦ à§ĭà¦·
Ġà¦¨ à§ĩà¦ª
à¦¿à¦ļ à¦¾à¦²à¦ķ
à¦¿à¦· à¦¯à¦¼
Ġà¦Ńà¦¾à¦ĩ à¦¸
Ġà¦ª à¦¾à¦¤
à¦¦à§ĩà¦¶ à§ĩ
à¦« à¦¾à¦¯à¦¼
Ġà¦ªà¦° à¦¾à¦ľ
Ġà¦ªà¦¤à§įà¦° à¦¿à¦ķà¦¾
à§ģà¦² à§ĭà¦°
à§ĭ à¦¡à¦¼à¦¾
à¦ıà¦¸ à¦¸à¦¿
à¦°à§įà¦¨ à¦¾à¦®à§ĩà¦¨à§įà¦Ł
Ġà¦¬à¦¿à¦ļ à§įà¦Ľ
Ġà¦ªà¦¡à¦¼ à§ĩà¦¨
Ġà¦Ŀ à¦¡à¦¼
Ġà¦¦à§Ģà¦°à§įà¦ĺ à¦¦à¦¿à¦¨
Ġà¦®à¦¤ à¦¾à¦®à¦¤
Ġà¦¬à§įà¦¯à¦¬à¦¹ à§ĥà¦¤
Ġà¦ķà¦° à¦²à¦¾à¦®
Ġà¦Ĺ à§ģà¦Ĺ
Ġà¦¬à§įà¦¯ à¦¾à¦ĸ
Ġà¦ķà¦¾à¦°à¦£ à§ĩà¦ĩ
Ġà¦®à§ĩà¦¯à¦¼ à§ĩà¦°
Ġà¦¸à¦Ĥà¦ķ à¦Ł
Ġà¦ļà¦¾à¦¹à¦¿à¦¦ à
Ġà¦ļà¦¾à¦¹à¦¿à¦¦à ¦
Ġà¦ļà¦¾à¦¹à¦¿à¦¦à¦ ¾
Ġà¦ķà§įà¦² à¦¾à¦¸
Ġà¦® à§ĩà¦ľ
Ġà¦®à¦¾à¦® à§ģà¦¨
à¦¿à¦· à§įà¦ķ
Ġà¦Ĩ à¦¡à¦¼
/ à§¦
Ġà¦ªà¦°à¦¿à¦ļà¦¾à¦² à¦¿à¦¤
Ġà¦¬à¦Ľà¦° à¦ĸà¦¾à¦¨à§ĩà¦ķ
_ _
Ġà¦Ĩà¦¨ à§ģà¦·à§įà¦łà¦¾à¦¨à¦¿à¦ķ
Ġà¦¸à¦« à¦Ł
à§ĩà¦¶ à§Ģ
à¦Ĥ à¦ķ
Ġà¦ªà¦¾à¦² à¦¿à¦¤
à¦¾à¦ķ à§įà¦¸
âĢ¦ âĢ¦
Ġà¦ª à§įà¦¯à¦¾à¦ķ
Ġà¦ķà§ĥà¦· à¦ķ
à¦¿à¦¹à¦¾à¦¸ à¦¿à¦ķ
Ġà¦ª à¦¾à¦¡à¦¼
à§ĩà¦® à¦¨à¦¿
à¦ĵà¦¯à¦¼à¦¾à¦° à§įà¦¡
Ġà§¬ à§¦
e e
Ġà¦ķà¦® à¦ªà§įà¦²
à¦¿à¦¶ à§Ģà¦²
à¦¶ à¦¾à¦¦
à¦¸à¦Ń à¦¾à¦¯à¦¼
ĠS h
Ġà¦ĩà¦² à§ĩà¦ķ
Ġà¦®à§ģà¦ĸ à§įà¦¯à¦®à¦¨à§įà¦¤à§įà¦°à§Ģ
Ġ â
à¦¹ à¦¾à¦ľ
Ġà¦¬à¦Ļà§įà¦Ĺà¦¬à¦¨à§įà¦§ à§ģà¦°
ar d
à¦°à¦¾à¦ľ à¦¶à¦¾à¦¹à§Ģ
Ġ1 5
Ġà¦ªà§įà¦°à¦¤à¦¿à¦ķ à§įà¦°
Ġà¦Łà§ĩà¦² à¦¿à¦Ń
Ġà¦¬à§įà¦° à¦¾à¦ľ
at ed
Ġà¦Ĺà¦¿à¦¯à¦¼ à§ĩà¦Ľà¦¿à¦²
à¦® à¦¾à¦²
Ġy ou
Ġà¦ı à¦¦à¦¿à¦ķà§ĩ
à§įà¦² à¦¾à¦²à§įà¦²à¦¾à¦¹à§ģ
Ġà¦¤à§ĭà¦® à¦°à¦¾
Ġà¦ªà§įà¦° à¦«
Ġà¦¬à¦¾à¦ Ľ
Ġà¦«à§ģà¦Ł à¦¬
Ġà¦¨à§ģà¦° à§ģà¦²
Ġà¦ľ à¦¯à¦¼à§ĩà¦°
Ġà¦¹ à¦¯à¦°à¦¤
à¦¸à¦® à§įà¦¯à¦¾à¦¨
in k
à¦¿à¦Ł à¦¨
Ġà¦¬à¦¾à¦¡à¦¼ à¦¿à¦¯à¦¼à§ĩ
Ġà¦¸à§įà¦¬à¦¾à¦ķà§įà¦· à¦°
Ġà¦¶à¦¿à¦²à§įà¦ª à§Ģ
Ġà¦¬à¦² à§ĩà¦Ľà§ĩ
à§ĭ à§±
Ġà¦®à§ģ à¦Ľà¦²
Ġà¦ĩà¦ļà§įà¦Ľ à
Ġà¦ĩà¦ļà§įà¦Ľà ¦
Ġà¦ĩà¦ļà§įà¦Ľà¦ ¾
Ġà¦¤ à¦¾à¦¡à¦¼
Ġà¦¦ à¦ªà§įà¦¤
Ġà¦¸à§įà¦¥ à¦¾à¦ª
1 6
o g
Ġà¦ªà§įà¦°à¦¤à¦¿à¦¬à¦¾à¦¦ à§ĩ
à¦¿à¦¦ à§ģà¦²
Ġà¦ħà¦¨à§įà¦¤ à¦°à§įà¦Ń
à¦¾à¦ŀà§įà¦ļ à¦²
he d
à¦¸ à¦¾à¦°à¦£
à§ĩà¦° à¦¿
Ġà¦¦à§ģ à¦ľà¦¨
à§ĥà¦¤ à¦¿à¦°
Ġà¦¥à¦¾à¦ķ à§ģà¦¨
Ġà¦¯à¦¾à¦¤à§įà¦° à
Ġà¦¯à¦¾à¦¤à§įà¦°à ¦
Ġà¦¯à¦¾à¦¤à§įà¦°à¦ ¾
Ġà¦ĩ à¦Ń
à¦¾à¦¬ à§Ģ
Ġà¦Ĩà¦²à¦¾à¦ĩ à¦¹à¦¿
à¦¿à¦¸ à§įà¦Łà¦¾à¦°
à¦¬ à¦¦à§įà¦§
à§ĩà¦¦ à¦¾à¦°
Ġà¦®à§ĩà¦¶ à¦¿à¦¨
engal i
Ġà¦¤à§Ī à¦°à¦¿à¦°
Ġà¦¤ à¦¤à§įà¦¤à§įà¦¬
à¦Ł à¦ª
Ġà¦° à¦¿à¦®
à¦¤ à¦¥à§įà¦¯
à¦¸ à¦®à¦¾à¦¨
à¦¶à¦¨ à¦¿à¦¬à¦¾à¦°
Ġà¦ķ à§įà¦¯à¦¾à¦²
Ġà¦ıà¦° à¦ķà¦®
Ġà¦ļà§ĭà¦ĸ à§ĩà¦°
Ġ x
à§Ģà¦¯à¦¼ à
à§Ģà¦¯à¦¼à ¦
à§Ģà¦¯à¦¼à¦ ¾
Ġà¦Ł à¦¾à¦¨à¦¾
à¦¾à¦¹ à§įà¦®à¦£
Ġà¦¦ à§ģà¦¨
Ġà¦ħà¦¬ à¦¦à¦¾à¦¨
à§įà¦Ł à¦¿
ÙİÙ Ĩ
Ġà¦Ĩà¦°à§ĩà¦ķ à¦Łà¦¿
Ġà¦¤à¦¾à¦° à§ĩà¦ķ
Ġà¦®à¦¾à¦¨à¦¬à¦¬à¦¨à§įà¦§ à¦¨
Ġà¦°à¦¬ à§Ģà¦¨à§įà¦¦à§įà¦°
Ġà¦ľ à¦¡à¦¼à¦¿à¦¯à¦¼à§ĩ
Ġà¦ªà§įà¦°à¦¤à¦¿à¦® à¦¨à§įà¦¤à§įà¦°à§Ģ
Ġà¦¶à§įà¦° à¦¦à§įà¦§à¦¾
or y
Ġà¦¨à¦¾à¦® à¦¾à¦ľ
à¦Ĩà¦° à¦ĵ
Ġà¦ĩ à¦¨à§įà¦¸
à§įà¦¬ à¦¤à§įà¦¯
ĠBangla desh
Ġà¦ķà¦°à§ĭà¦¨ à¦¾à¦Ńà¦¾à¦ĩ
Ġà¦Ńà¦¾à¦² à¦¬à¦¾à¦¸
Ġà¦²à§ĩà¦¨à¦¦ à§ĩà¦¨
Ġh t
Ġà¦ªà¦¾à¦° à§įà¦¥
Ġà¦§ à¦¾à¦°à¦¾
Ġà¦¬à¦°à§įà¦£ à¦¨à¦¾
à¦ı à¦®à¦¨
Ġà¦Ĩ à¦¤à¦Ļà§įà¦ķ
Ġà¦§à¦°à§įà¦· à¦£à§ĩà¦°
Ġà¦ªà§Ĥà¦°à§įà¦¬à¦¾à¦¹ à§įà¦£
Ġà§¨à§¦à§§à§ ©
à§ĥà¦¤ à¦¿à¦¤à§ĩ
oo k
Ġà¦ħà¦ŀà§įà¦ļ à¦²
Ġà¦ļà§Ģ à¦¨à§ĩà¦°
Ġà¦¤ à§ĩà¦®à¦¨à¦¿
à¦¦ à¦®
à¦¿à¦¹ à§Ģà¦¨
Ġà¦ĩà¦īà¦¨ à¦¿à¦Ńà¦¾à¦°à§įà¦¸
Ġà¦ĩà¦ķà¦¬ à¦¾à¦²
à¦¤ à¦¾à¦ģ
Ġà¦ľà¦¬ à¦¾à¦¬à§ĩ
Ġà¦Ĩà¦¶à¦Ļà§įà¦ķ à
Ġà¦Ĩà¦¶à¦Ļà§įà¦ķà ¦
Ġà¦Ĩà¦¶à¦Ļà§įà¦ķà¦ ¾
Ġà¦ľ à§ģà¦¡à¦¼à§ĩ
Ġs h
Ġà¦¨ à¦ķ
Ġà¦ªà§įà¦°à¦¿à¦¨ à§įà¦Ł
u re
Ġà¦¦à§ģà¦°à§įà¦ĺà¦Ł à¦¨à¦¾
Ġà¦Łà§ģ à¦°à§įà¦¨à¦¾à¦®à§ĩà¦¨à§įà¦Ł
Ġà¦ļà¦¾à¦² à¦ķ
à¦² à§ĭà¦ķ
Ġà¦¸ à§ĭà¦¨à¦¾à¦°
à§ĭà¦¶ à§įà¦¯à¦¾à¦²
Ġà¦®à¦¯à¦¼ à¦®à¦¨à¦¸à¦¿à¦Ĥà¦¹
à¦¾à¦ļ à§įà¦Ľà¦¿
à¦ī à¦²à§įà¦²à§ĩà¦ĸ
à¦¦ à¦¾à¦¤à¦¾
ic e
Ġà¦²à¦¾à¦Ĺ à¦¬à§ĩ
Ġà¦¸ à¦¿à¦Ĥ
Ġà¦¬à¦° à¦¿à¦¶à¦¾à¦²
Ġà¦Ĩà¦® à¦¦
à¦ªà§įà¦°à¦§à¦¾à¦¨ à¦®à¦¨à§įà¦¤à§įà¦°à§Ģ
Ġà¦¸à¦¾à¦° à§įà¦ķ
Ġà§© à§«
Ġà¦ķ à¦¾à¦¯à¦¼
à¦¿à¦¬ à¦¾à¦ļà¦ķ
Ġà¦¯ à§ĩà¦¹à§ĩà¦¤à§ģ
à¦° à¦¨
Ġà¦ļ à¦¿à¦¨
à¦ľ à§ĩà¦°
Ġà¦¦à§ĩà¦ĸ à¦¿à¦¯à¦¼à§ĩ
Ġà¦¬à¦² à¦¿
à¦¸ à§ĩà¦¨à§įà¦¸
à¦¡à¦¼ à¦¯à¦¨à§įà¦¤à§įà¦°
Ġà¦¬à§ĭà¦°à§įà¦¡ à§ĩà¦°
Ġà¦ĸ à¦¾à¦¤à§ĩ
Ġà¦® à§ĩà¦²
à¦¸à§įà¦Ł à¦¾à¦«
à§ģà¦¨ à¦¿
à¦ĵà¦¯à¦¼ à¦¾à¦¨
à¦¿à¦¯à¦¼ à¦®
Ġà¦¸ à¦¾à¦¯à¦¼
Ġà¦¸à§įà¦¬ à§ĩà¦ļà§įà¦Ľ
a c
Ġà¦īà¦ª à¦¹à¦¾à¦°
Ġà¦ªà§įà¦°à¦¤à¦¿à¦·à§įà¦ł à
Ġà¦ªà§įà¦°à¦¤à¦¿à¦·à§įà¦łà ¦
Ġà¦ªà§įà¦°à¦¤à¦¿à¦·à§įà¦łà¦ ¾
Ġà¦ª à¦Ł
i al
er e
- à¦ļ
à¦° à§ĭà¦§
Ġà¦¦à§ĩà¦ĵ à¦¯à¦¼
Ġà¦¸à§įà¦®à¦¾à¦°à§įà¦Ł à¦«à§ĭà¦¨
Ġà¦¶ à¦¾à¦¸à¦¨
Ġà¦ļà¦¾à¦² à¦¾à¦¨à§ĭ
Ġà¦¨à¦¬ à§Ģ
ĠS t
Ġà¦ªà¦¾à¦¨ à¦¿à¦°
Ġà¦°à¦¹ à¦¸à§įà¦¯
Ġà¦ķà¦¾à¦° à¦¾à¦¦
Ġà¦īà¦ªà¦¦ à§ĩà¦·à§įà¦Łà¦¾
Ġà¦¹ à§Ī
à¦¾à¦ĩ à¦²à§ĩ
Ġà¦²à¦¿à¦ĸ à¦¿à¦¤
Ġà¦ª à§ģà¦ģà¦ľ
Ġà¦¸à¦ķà¦² à§ĩà¦°
Ġà¦¨à¦¾à¦® à¦ķ
Ġà¦® à§ĩà¦²à¦¾
Ġà¦¬à¦ķà§įà¦¤à¦¬à§įà¦¯ à§ĩ
Ġà¦®à§ĭ à¦¡à¦¼
Ġà¦Ĩà¦« à¦Ĺà¦¾à¦¨
Ġà¦Ĩà¦ľ à¦¿à¦ľ
Ġà¦¶à¦¾à¦ĸ à
Ġà¦¶à¦¾à¦ĸà ¦
Ġà¦¶à¦¾à¦ĸà¦ ¾
Ġà¦ªà§įà¦°à¦¯ à§ĭà¦ľ
Ġà¦¹ à¦¬à¦¾à¦°
Ġà¦ªà¦° à¦ĵ
Ġà¦¬à¦¾à¦Ļ à¦¾à¦²à¦¿
ĠÙ ħ
Ġà¦ķ à¦¾à¦ģà¦ļ
Ġà¦¸à¦° à¦¿à¦¯à¦¼à§ĩ
à¦¿à¦· à§įà¦ķà¦¾à¦°
à¦¿à¦¸à§įà¦¤ à¦¾à¦¨
Ġà¦¬à¦¾à¦ Ł
Ġà¦ľà¦¾à¦® à¦¾à¦²
Ġà¦¸à¦¾à¦§à¦¾à¦°à¦£ à¦¤
Ġà¦¨à§ĩà¦¤ à§ĥ
à¦¤ à§ĭà¦®
Ġà¦ªà§įà¦° à§ĩà¦ķà§įà¦·
Ġht tp
Ġà¦®à¦¿ à¦°à§įà¦ľà¦¾
Ġà¦ª à¦¾à¦¬à¦²à¦¿à¦ķ
Ġà¦¯à§ĩà¦ķ à§ĭà¦¨à§ĭ
Ġà¦¶à¦¾à¦ĸ à¦¾à¦°
Ġà¦®à§ģà¦¹à§Ĥà¦°à§įà¦¤ à§ĩ
Ġà¦ı à¦°à¦¾
/ à§¨à§¦à§§à§
Ġà¦Ńà§ģà¦² à§ĩ
à§ģà¦² à
à§ģà¦²à ¦
à§ģà¦²à¦ ¾
Ġà¦¬ à§Į
Ġà¦ħà¦¨à§ģà¦·à§įà¦ł à¦¾à¦¨à§ĩà¦°
Ġà¦Ĺà§ĭà¦¯à¦¼à§ĩà¦¨à§įà¦¦ à
Ġà¦Ĺà§ĭà¦¯à¦¼à§ĩà¦¨à§įà¦¦à ¦
Ġà¦Ĺà§ĭà¦¯à¦¼à§ĩà¦¨à§įà¦¦à¦ ¾
Ġà¦¸à¦Ĥà¦¸à§įà¦ķ à§ĥà¦¤à¦¿
à¦¾à¦Ł à¦¾à¦°
Ġà¦ķà§įà¦·à¦® à¦¤
Ġà¦®à§ģ à¦¶
Ġà¦ªà§Ĥà¦°à§įà¦¬ à§ĩ
Ġà¦ĸ à¦¾à¦¨à§ĩà¦°
Ġà¦®à§ģà¦ķà§įà¦¤ à¦¿à¦°
Ġà¦¬à¦¿à¦¦à§ĩà¦¶ à¦¿
Ġà¦¶à¦¿à¦° à§ĭà¦¨
o y
à¦¿à¦ı à¦«
Ġà¦Ĺ à¦°à§įà¦Ń
Ġà¦ļà¦¤à§ģ à¦°à§įà¦¥
Ġà¦¸à¦¬ à¦ķà¦¿à¦Ľà§ģ
Ġà¦¬ à¦¨à§įà¦¯
Ġà¦¸à¦Ĥà¦° à¦ķà§įà¦·à¦£
à¦¾à¦Ľ à¦¿
Ġà¦¡ à¦¿à¦®
ow n
Ġà¦ªà§įà¦°à¦¬à¦¾à¦¸ à§Ģ
r u
Ġà¦¦à§ģ à¦Łà§ĭ
à¦¶à§ģà¦ķ à§įà¦°à¦¬à¦¾à¦°
à¦¸à¦Ļà§įà¦Ĺ à¦®
à¦¡ à¦¿à¦¸
Ġà¦¸à¦¬ à¦¸à¦®à¦¯à¦¼
à¦¸ à§įà¦®
à¦ĸà§ģà¦² à¦¨à¦¾
Ġà¦ļ à§ĩà¦ķ
à¦¾à¦¤ à¦¨
à¦¾à¦² à¦¿à¦°
p h
1 3
à¦² à§ĩà¦Ł
à¦ĵ à¦¯à¦¼à§ĩ
à¦¶ à§Ģ
Ġà¦ĺ à¦¾à¦Ł
Ġà¦¹à§ĭà¦Ł à§ĩà¦²
Ġà¦¶à§įà¦°à§ĩà¦£ à¦¿à¦°
0 4
Ġà¦¬à¦¿à¦¨ à¦¾à¦®à§Ĥà¦²à§įà¦¯à§ĩ
à¦¿à¦Ł à¦¿à¦īà¦Ł
à§¨ à§Ń
r om
à¥¤ [
à¦¸ à¦¾à¦Ĥ
Ġà¦¬à¦¿à¦ Ł
Ġà¦ķà¦°à§ĩà¦¨ à¦¿
¦ Ĭ
0 9
à ¦Ĭ
T ime
Ġà¦¤ à¦¾à¦ĵ
i an
Ġà¦Ŀà§ģà¦ģ à¦ķà¦¿
- à¦¦
à¦§ à¦¾à¦°
Ġà¦°à¦¾à¦ĸ à§ģà¦¨
Ġà¦¬ à§ĭà¦®à¦¾
à¦¾à¦¹ à¦¾à¦¨
Ġà¦ħà¦Ńà¦¿à¦¯ à¦¾à¦¨à§ĩ
à¦¾à¦® à¦¿à¦¨
Ġa m
Ġà¦Ĺà§ģà¦°à§ģ à¦¤à¦°
à¦ĩ à¦¸à¦²
Ġà¦ıà¦¬ à¦¾à¦°à§ĩà¦°
à¦ķà¦¾à¦° à§Ģà¦°à¦¾
à§ģà¦¬ à¦¾à¦¦
ay s
à¦¸à¦Ĥ à¦¬à¦¾à¦¦
à¦¿à¦¬ à¦¿à¦°
Ġà¦Ĩà¦²à¦® à¦Ĺà§Ģà¦°
Ġà¦¸à¦¾à¦° à¦¾à¦¦à§ĩà¦¶
Ġà¦¸à¦¾à¦®à§įà¦ª à§įà¦°à¦¤à¦¿à¦ķ
à¦¸à¦Ń à¦¾à¦ªà¦¤à¦¿
ĠØ £
Ġà¦° à§ģà¦Ł
Ġà¦ıà¦ķà§ĩà¦¬à¦¾à¦° à§ĩ
Ġà¦Ł à¦¾à¦¯à¦¼
Ġà¦®à¦® à¦¤à¦¾
Ġà¦¤ à§ģà¦°
à¦¾à¦Ĥ à¦ķ
à¦¾à¦ĩà¦² à§ĩà¦°
Ġà¦¨ à§Ĥà¦°
Ġà¦¯ à¦¶à§ĭà¦°
Ġà¦Ľ à¦¾à¦ª
Ġà¦Ń à¦Ĺ
à¦¾à¦¬ à¦°
it e
Ġà¦ªà§įà¦°à¦¦ à¦°à§įà¦¶
à§ĭà¦§ à¦¨à§Ģ
Ġà¦® à§ĭà¦°
Ġà¦ī à¦ķà§įà¦¤
à¦¾à¦ķà§įà¦¤ à¦¨
Ġà¦ĩ à¦ľ
Ġà¦ķ à¦¾à¦¬
à¦« à¦°à§įà¦®
à¦ķà¦¾à¦² à§ĩà¦°
Ġà¦¬à¦¾à¦¸ à¦¿à¦¨à§įà¦¦à¦¾
ĠA r
à¦ĺ à¦¾à¦Ł
à¦¸ à§ģà¦°
Ġà¦¹ à¦¾à¦¦
Ġà¦Ĩà¦¶ à¦°à¦¾à¦«
Ġà¦ħà¦¨à§ĩà¦ķ à§ĩà¦°
Ġà¦ħà¦ŀà§įà¦ļ à¦²à§ĩà¦°
à¦¿à¦ Ļà§įà¦ķ
Ġà¦¬à§Īà¦¶ à¦¿à¦·à§įà¦Ł
Ġà¦ªà§ĥà¦¥ à¦ķ
à¦ľ à¦¯à¦¼
Ġà¦¸à¦¨à§įà¦¤à§įà¦° à¦¾à¦¸à§Ģ
à¦Ĩ à¦¨à§įà¦¤
Ġà¦¶à¦¿à¦ķà§įà¦· à¦¾à¦°
Ġà¦ħà¦«à¦¿à¦¸ à§ĩ
Ġà¦ķà¦° à¦²à§ĭ
Ġà¦¹à§ĭà¦¸à§ĩà¦¨ à§ĩà¦°
à¦ī à¦²
Ġà¦¦à§ģà¦°à§įà¦¬ à¦²
à¦ħà¦¨ à§ĩà¦ķ
Ġà¦¨à§ĩà¦Ł à¦ĵà¦¯à¦¼à¦¾à¦°à§įà¦ķ
Ġà¦Ń à¦¿à¦ľ
Ġà¦¸à¦Ĥà¦¸à§įà¦ķ à¦°à¦£
Ġà¦¸ à§ĩà¦¤à§ģ
Ġà¦¢ à§ģà¦ķà§ĩ
Ġà¦· à¦¡à¦¼à¦¯à¦¨à§įà¦¤à§įà¦°
Ġà¦ªà§įà¦°à¦ķà¦¾à¦¶ à§ĩà¦°
Ġà¦¤à§Ī à¦°à§Ģ
à¦ªà¦° à¦¬à¦°à§įà¦¤à§Ģ
Ġà¦ªà¦¡à¦¼ à¦¾à¦¶
Ġà¦®à¦¾à¦² à¦¯à¦¼à§ĩà¦¶
t e
Ġà¦ķà§ĩà¦¨à§įà¦¦à§įà¦° à§ĩà¦°
Ġà¦¹à¦¾à¦¤ à§ĩà¦°
Ġà¦ħà¦¨à§ģà¦¸ à¦°à¦£
Ġà¦ħà¦¬ à¦¹
Ġà¦Ĺà¦ł à¦¿à¦¤
Ġà¦ļ à§įà¦¯à¦¾à¦¨à§ĩà¦²
Ġ it
Ġà¦ķà¦¾à¦¶ à§įà¦®
Ġà¦ĵ à¦¦à§ĩà¦°
Ġà¦ļà¦² à¦¤à§ĩ
Ġà¦ķà¦¾à¦ª à¦¡à¦¼
Ġà¦¸à¦Ĥ à¦¬à¦¿à¦§
à¦° à¦ķà¦®
Ġà¦īà¦ł à¦¤à§ĩ
Ġà¦ľà¦¾à¦¹ à¦¾à¦Ļà§įà¦Ĺà§Ģà¦°
Ġà¦¸à¦®à¦¾à¦²à§ĭ à¦ļà¦¨à¦¾
Ġà¦¸à§ĩà¦¨à§įà¦Ł à¦¾à¦°
Ġà¦° à¦ļà¦¨à¦¾
à¦ıà¦ĩ à¦ļ
à¦Ĺ à¦¿à¦°
Ġà¦ķà¦¾à¦° à¦ĵ
à¦¬à¦¾à¦¦ à§Ģ
Ġà¦¬à§įà¦¯à¦¾à¦Ł à¦¸à¦®à§įà¦¯à¦¾à¦¨
à¦ļ à¦¾à¦°à§Ģ
Ġà¦¸à¦¨à§įà¦¤ à¦¾à¦¨à§ĩà¦°
Ġà¦¬à¦¿à¦¦ à¦¾à¦¯à¦¼
Ġà§¦ à§¦
à¦ĺ à¦Ł
à¦· à§įà¦ł
Ġà¦ķà¦®à¦ªà§įà¦² à§ĩà¦ķà§įà¦¸
Ġà¦ħà¦§ à§Ģà¦¨à§ĩ
Ġà¦ħà¦Ń à¦¾à¦¬
Ġà¦ı à¦ľà¦¨à§įà¦¯
Ġth at
à§ĩà¦¯à¦¼ à
à§ĩà¦¯à¦¼à ¦
Ġ1 8
à§ĩà¦¯à¦¼à¦ ¾
Ġà¦Ĩà¦¯à¦¼à§ĭà¦ľ à¦¨à§ĩ
Ġà¦®à¦¨ à¦¿à¦°
o k
Ġà¦ħà¦ŀà§įà¦ļ à¦²à§ĩ
Ġà¦Łà§įà¦°à§ĩà¦¡ à¦¿à¦Ĥ
Ġà¦Ľà¦¾à¦¤à§įà¦° à§Ģ
Ġà¦ĩà¦ŀà§įà¦ľà¦¿à¦¨ à¦¿à¦¯à¦¼à¦¾à¦°
à¦¨à§įà¦ ł
à¦¾à¦¨ à¦¾à¦¯à¦¼
Ġà¦ļà¦¾à¦° à¦Łà¦¿
Ġà¦ĵà¦¯à¦¼ à¦¾à¦²
à¦ıà¦° à¦ªà¦°
à¦¿à¦¨ à¦¾à¦ĩ
Ġà¦ķà¦¾à¦īà¦¨à§įà¦¸à¦¿à¦² à¦°
Ġà¦ķà¦²à§ĩà¦ľ à§ĩ
Ġà¦ªà¦° à¦¬à¦°à§įà¦¤
à¦¬ à¦¿à¦Ń
Ġà¦ķà¦¾à¦® à¦¨à¦¾
à¦ķ à¦¾à¦¨
g et
0 6
Ġà¦ĵ à¦ľà¦¨
Ġà¦Ĺà§ĭ à¦²à§ĩ
Ġà¦¬à¦¾à¦ľ à§ĩà¦Ł
Ġà¦¸à§ģà¦¨ à¦¾à¦®
0 5
Ġà¦ªà§įà¦°à¦¤à¦¿à¦¬à§ĩà¦¦ à¦¨à§ĩ
à¦¾à¦ľ à¦ªà§ģà¦°
à¦¬à¦°à§įà¦¤ à¦®à¦¾à¦¨
Ġà¦Ĩà¦° à¦¿à¦«
Ġà¦ķà§ĭ à¦°à§įà¦¸
p t
Ġà¦¶ à§ģà¦°à§ģà¦°
Ġà¦ķà¦°à§įà¦®à¦ķà¦°à§įà¦¤ à¦¾à¦°à¦¾
Ġà¦ł à¦¾à¦ķà§ģà¦°
Ġà¦ı à¦ıà¦®
Ġà¦¬à§įà¦¯ à¦¾à¦ķ
à¦ľ à§ģà¦¡à¦¼à§ĩ
à¦¾à¦¨ à§ģà¦°
à¦¤ à¦¾à¦°à¦¾
à¦¸à¦® à§įà¦®
Ġà¦¬à§įà¦² à¦ķ
Ġà¦ªà¦°à¦¿à¦¦ à¦°à§įà¦¶à¦¨
' s
à¦¹ à¦²
Ġà¦ķà§įà¦¯ à¦¾à¦ª
Ġà¦ħà¦§à§įà¦¯ à¦ķà§įà¦·
Ġà¦¸à§Į à¦¨à§įà¦¦à¦°
Ġà¦ľà¦¨à§įà¦® à¦¦à¦¿à¦¨
à§© à§«
à¦¾à¦ĩ à¦¯à¦¼à§ĩà¦°
à§įà¦® à§Ģ
Ġà¦¹à¦¾à¦¬ à¦¿à¦¬
Ġà¦Ĳà¦¤ à¦¿à¦¹à¦¾à¦¸à¦¿à¦ķ
à¦¬à¦¿à¦° à§ĭà¦§à§Ģ
à¦ĩ à¦Ĥ
Ġà¦¦ à¦¾à¦¯à¦¼à§Ģ
à¦¿à¦ª à§ģà¦°
Ġà¦ħ à¦¡
Ġà¦¶à¦¨ à¦¾à¦ķà§įà¦¤
Ġà¦¹ à¦¾à¦Ł
à¦īà¦²à§įà¦²à§ĩà¦ĸ à§įà¦¯
Ġà¦ªà§įà¦°à¦¦ à§ĩà¦¶
Ġà¦ļà¦¾à¦° à§įà¦ľ
Ġà¦ħà¦°à§įà¦¥ à¦¨à§Ģà¦¤
Ġ he
Ġà¦ļà¦¿à¦¹à§įà¦¨ à¦¿à¦¤
Ġà¦¦à§ģ à¦°à§įà¦¦
Ġà¦Ĩà¦®à§ĩà¦° à¦¿à¦ķà¦¾
Ġà¦¬à¦¨à§įà¦¦ à§įà¦¯
Ġà¦Ĩ à¦°à§įà¦ľ
Ġà¦ªà§Ĥà¦°à§įà¦¬à¦¾à¦¹ à§įà¦¨
Ùİ ÙĦ
Ġà¦¬à¦¿à¦° à¦¾à¦Ł
Ġà¦ķà§įà¦·à¦¤à¦¿à¦Ĺà§įà¦° à¦¸à§įà¦¤
Ġà¦ªà§įà¦°à§ĩà¦¸ à¦ķà§įà¦²
Ġà¦ĸ à¦¬
Ġà¦°à¦Ĥ à¦ªà§ģà¦°
Ġà¦¬à¦¾à¦° à¦¬à¦¾à¦°
à§įà¦¯ à¦®à¦¾à¦¨
Ġà¦®à§ģà¦Ľà¦² à¦¿à¦®
à¦ĵ à¦ĩ
Ġà¦ľà¦¨ à¦ķ
à§įà¦¬ à¦¨à§įà¦¦à§įà¦¬
à¦° à§ģà¦®
à¦ª à¦¾à¦¡à¦¼
Ġà¦ļà¦¾à¦® à¦ļ
Ġà¦®à¦¾à¦ĩ à¦ķà§įà¦°
Ġà¦ªà§įà¦°à§ĭà¦Ĺ à§įà¦°à¦¾à¦®
à¦Ĺ à§įà¦§
Ġà¦® à¦ŀà§įà¦ľ
i b
à¦ī à¦¦à§įà¦¦à¦¿à¦¨
Ġà¦ª à¦°à§įà¦¦
Ġà¦® à¦¦
lo ad
i le
Ġà¦¶à§įà¦°à§Ģ à¦²à¦Ļà§įà¦ķ
Ġà¦ħà¦§ à¦¿à¦¬
Ġà¦ªà§įà¦°à¦¤à¦¿à¦¬ à¦¨à§įà¦§
à¦¿à¦¸ à¦¿à¦°
Ġà¦¨à§ĩà¦¤ à¦¾à¦°
Ġà¦¬à¦¸ à§ģ
ĠØ ¨
Ġag o
Ġà¦¬à§ĭà¦Ŀ à
Ġà¦¬à§ĭà¦Ŀà ¦
Ġà¦¬à§ĭà¦Ŀà¦ ¾
Ġà¦®à¦¾à¦¸ à§įà¦Łà¦¾à¦°
à¦¬ à¦§
Ġà¦®à¦¾à¦¶ à¦°à¦¾à¦«
ĠO n
Ġà¦¸ à§ģà¦·à§įà¦ł
Ġà¦ĸ à¦¾à¦¬
à§¨ à§®
Ġà¦ħà¦¨à§ģ à¦ªà§įà¦°
Ġà¦ĩà¦¤ à§ĭà¦®
Ġà¦¦ à¦¾à¦ĸ
Ġà¦¬ à§ĩà¦¨
Ġà¦ĵ à¦°à¦¾
à¦¬ à¦¯à¦¼
Ġà¦ªà¦¾à¦° à¦²à§ĩ
Ġà¦¸à¦® à§ĥà¦¦à§įà¦§
Ġà¦ķ à§ĩà¦°
à¦¾à¦°à¦£ à
à¦¾à¦°à¦£à ¦
à¦¾à¦°à¦£à¦ ¾
Ġà¦¬ à§ĩà¦ķ
Ġà¦¸à¦¦à¦¸à§įà¦¯ à§ĩà¦°
à¦¤à¦¾à¦° à¦¿à¦ĸ
Ġà¦Ľ à¦¿à¦¨
à§ģ à¦®à¦¾à¦¨
à¦¤ à¦¿à¦¨
Ġà¦¬à¦² à¦²à¦¾à¦®
à¦¸ à¦¾à¦§à¦¾à¦°à¦£
Ġà§Ń à§¦
Ġà¦ª à§ĩà¦²à§ĩ
Ġà¦īà¦¦ à¦¾à¦¹
à¦ļ à¦°
à¦¾à¦« à¦¿à¦ķ
à§įà¦° à§ĩà¦Ł
Ġà¦ħà¦¨à§įà¦¤à¦°à§įà¦Ń à§ģà¦ķà§įà¦¤
à¦¬ à¦¨à§įà¦¦à¦°
Ġà¦ªà¦¾à¦¨ à¦¿à¦¤à§ĩ
Ġà¦ª à¦¾à¦ļà§įà¦Ľà§ĩ
à§ĥà¦¤à§įà¦¤ à¦¿
à¦Ń à¦¬
Ġà¦¨à¦¿à¦ĸ à§ĭà¦ģà¦ľ
à¦¨à§įà¦¯ à¦¾à¦¶à¦¨à¦¾à¦²
Ġà¦ªà¦¾à¦¶ à§ĩà¦°
j ob
Ġà¦¨ à§ĩà¦¬
Ġà¦¹ à¦¿à¦®
- à¦ķà¦°à§įà¦®
à¦¬à¦¾à¦¨ à§įà¦§
à¦¸à¦¿à¦² à§ĩà¦Ł
à¦¾à¦¨ à¦¾à¦°
à¦¬à¦° à¦¿à¦¶à¦¾à¦²
Ġà¦¸à¦Ĥà¦ĺà¦°à§įà¦· à§ĩ
à¦¶à¦¿à¦ķà§įà¦· à
à¦¶à¦¿à¦ķà§įà¦·à ¦
à¦¶à¦¿à¦ķà§įà¦·à¦ ¾
à¦° à§ĭ
à¦¬ à§Ī
Ġà¦ħà¦¬ à¦¾à¦ķ
Ġà¦«à§ĩà¦¸à¦¬ à§ģà¦ķà§ĩ
Ġà¦¸à¦Ĥà¦Ĺà§įà¦°à¦¹ à§ĩà¦°
Ġp m
¦ Ķ
à ¦Ķ
Ġà¦¶ à§Ĥà¦¨à§įà¦¯
Ġà¦ª à¦¿à¦Ł
Ġà¦¶ à¦¾à¦®à§Ģ
Ġà¦¶à¦¾à¦¹ à¦°
Ġà¦ħà¦Ńà¦¿à¦¨ à§ĩà¦¤à¦¾
à¦°à¦ ŀà§įà¦ľ
0 7
à¦¹ à¦¬
Ġà¦ĺà¦¨ à§įà¦Łà¦¾
Ġà¦ªà¦°à§įà¦¯ à¦¬à§ĩ
Ġà¦¶ à§Ī
Ġà¦ľà¦¾à¦¨ à§ģà¦¯à¦¼à¦¾à¦°à§Ģ
Ġà¦¦à§įà¦¬ à§Ģà¦ª
Ġà¦ħà¦¨à§ĩà¦ķ à¦Łà¦¾
Ġà¦¨ à¦®à§įà¦¬
Ġà¦®à¦° à¦¦à§ĩà¦¹
Ġà¦¬ à¦Ĺà§ģà¦¡à¦¼
à¦¸ à¦¿à¦¨
Ġà¦« à¦¸à¦²
% e
Ġà¦ī à¦¡à¦¼
Ġà¦¬à¦¿à¦ ĸ
Ġà¦Ľà¦¾à¦¡à¦¼ à¦¾à¦ĩ
Ġà¦¬à¦¿à¦¬ à¦¾à¦¹
à¦¦ à§ĩà¦¬
Ġà¦ħà¦Ń à¦¿à¦Ńà¦¾à¦¬
Ġà¦Ĩ à¦¨à¦¾à¦°
à¦¬ à¦¡à¦¼
à¦® à§ĭà¦¬
Ġà¦¸à§ĩà¦¦ à¦¿à¦¨
à¦¤ à¦²
Ġà¦Ĺ à§ģà¦ľ
à¦® à§ĭà¦¹
Ø ³
à§įà¦² à§Ģà¦²
Ġà¦¬à¦¾à¦£à¦¿à¦ľà§įà¦¯ à¦¿à¦ķ
Ġà¦®à¦¾à¦¸ à§ģà¦¦
Ġà¦¸à¦¤à§įà¦¯ à¦¿
Ġà¦ħà¦°à§įà¦¥ à¦¬à¦Ľ
Â »
à ®
Ġà¦¶à¦¤ à¦¾à¦§à¦¿à¦ķ
Ġà¦ħà¦¸ à¦Ĥà¦ĸ
à¦¬à¦¾à¦° à§įà¦·à¦¿à¦ķ
Ġà¦ı à¦¦à¦¿à¦¨
Ġà¦¸à¦®à¦¨à§įà¦¬ à¦¯à¦¼
à¦¾à¦¹ à§įà¦¨
am e
Ġà¦¬ à§ĩà¦¸
Ġà¦¹ à¦¿à¦ľ
à¦¿à¦¯à¦¼ à¦¾à¦ķ
Ġà¦¬à¦¿à¦ĸ à§įà¦¯à¦¾à¦¤
Ġà¦Ŀ à§ģà¦²
Ġà¦¸à§ģà¦ªà§įà¦° à¦¿à¦®
à§ĭà¦ļ à¦¨à¦¾
- à§§à§¨
Ġà¦® à¦¿à¦Ł
à¦« à¦°à¦®
à¦¿à¦¤ à¦¿à¦¤à§ĩ
2 6
à¦¹ à¦¾à¦¸
à¦ªà§įà¦° à§ĩà¦®
Ġà¦ļà¦² à¦®à¦¾à¦¨
Ġà¦¸ à¦ķà§įà¦°à¦¿à¦¯à¦¼
à¦Ĺ à§ĭà¦²
p d
Ġà¦Ĺ à¦²
à§Ĥ à¦¨
Ġà¦¹ à¦¾à¦¦à§Ģ
n t
Ġà¦ªà§ĩà¦² à§ĩà¦¨
à¦¿à §
Ġà¦¬à¦¿à¦¨ à§ĭà¦¦à¦¨
omment s
à¦ªà¦¿à¦° à¦¾à¦ĩà¦Ł
à¦¾à¦ī à¦°
Ġà¦Ĩà¦ľ à¦¾à¦¦
( "
Ġà¦¶ à§įà¦¯à¦¾à¦®
Ġà¦¸à¦¾à¦«à¦² à§įà¦¯
Ø ¯
à¦® à§ĩà¦¯à¦¼
à¦¿à §·
e ar
Ġà¦Ĺ à¦¾à¦¨à§ĩà¦°
à¦¿à¦¯à¦¼ à¦¾à¦®à§ĩ
à¦°à§įà¦ļ à
à¦°à§įà¦ļà ¦
à¦°à§įà¦ļà¦ ¾
à¦¿à¦¯à¦¼ à§ĩà¦Ł
Ġà¦¸à§ģ à¦¦
Ġà¦¸à¦®à§įà¦ªà¦°à§įà¦ķ à¦¿à¦¤
à¦¿à¦ľ à§ĩà¦°
Ġà¦ĵà¦¯à¦¼ à§ĩà¦¸à§įà¦Ł
0 8
Ġà¦ªà§įà¦° à¦ķà¦¾à¦°
à¦Ł à§ĩà¦ķ
Ġà¦¨à¦¿à¦·à§ĩà¦§à¦¾à¦ľà§įà¦ŀ à
Ġà¦¨à¦¿à¦·à§ĩà¦§à¦¾à¦ľà§įà¦ŀà ¦
Ġà¦¨à¦¿à¦·à§ĩà¦§à¦¾à¦ľà§įà¦ŀà¦ ¾
à§įà¦°à¦¯à¦¼ à§ĩà¦¡
- à§§à§¯
à¦¿à¦¬ à¦¿à¦¦
Ġà¦īà¦¨à§įà¦¨à¦¯à¦¼ à¦¨à§ĩ
à¦¬ à¦¿à¦¬
à§ĩà¦¡ à¦¾à¦°
Ġà¦¶ à¦¤à§įà¦°
Ġà¦¬à§įà¦¯ à¦¾à¦°
Ġà¦ĵà¦¯à¦¼ à¦¾à¦¸
Ġà¦¦à¦¿à¦ļ à§įà¦Ľà§ĩà¦¨
Ġà¦¸à§įà¦® à§ĥà¦¤à¦¿
Ġà¦ħà¦¸à¦Ĥà¦ĸ à§įà¦¯
à¦¦à¦ķà§įà¦· à¦¿à¦£
Ġà¦ªà§ģà¦° à¦¨à§ĭ
at a
Ġà¦°à§ĭà¦¹à¦¿à¦Ļà§įà¦Ĺ à¦¾à¦¦à§ĩà¦°
Ġà¦«à¦¾à¦ģ à¦¸
Ġà¦¸à¦Ĥà¦¸à§įà¦ķ à¦¾à¦°
Ġà¦¢ à¦¾à¦ķ
à§įà¦Ł à§ĩ
% E
Ġà¦ķ à§ģà¦²
Ġà¦ªà§įà¦°à¦¤à¦¿à¦¯à§ĭà¦Ĺ à¦¿à¦¤à¦¾
à¦¾à¦ Ĩ
à¦¾à¦² à¦¾à¦°
à¦¯à¦¼ à¦¿à¦ķ
à§İ à¦ķà¦¾à¦°
à¦¾à¦¯à¦¼ à§ĩà¦¤
Ġà¦ľà¦¾à¦¨ à¦¾à¦²à§ĩà¦¨
Ġ are
Ġà¦ĩà¦¯à¦¼ à¦¾à¦¬à¦¾
Ġà¦¬à§ĩà¦¶à¦¿à¦° à¦Ńà¦¾à¦Ĺ
à¦¿à¦Ł à¦¿à¦¤à§ĩ
p p
Ġà¦¶ à§ģà¦Ł
Ġà¦ħà¦ª à¦¹
Ġà¦° à§ģà¦¬
Ġà¦ļà¦¾à¦² à¦¾à¦¯à¦¼
Ġt its
Ġà¦ļà¦¿à¦ķà¦¿à§İ à¦¸à¦¾à¦°
Ġà¦ķ à§ĭà¦Ł
Ġà¦« à¦¾à¦ĩà¦²
Ġà¦¸à¦« à¦°à§ĩ
à¦¨ à¦Ĥ
à§ĭ à¦ķà§ĩ
Ġà¦ķà¦°à§įà¦® à§Ģà¦¦à§ĩà¦°
à¦Ĺà§ģà¦²à§ĭ à¦ķà§ĩ
à¦¬ à¦¾à¦¡à¦¼à¦¿
Ġà¦®à¦¾à¦¨à¦¬ à¦¾à¦§à¦¿à¦ķà¦¾à¦°
à§ĩà¦ľ à§ĩà¦°
à¦¾à¦Ĺ à¦¡à¦¼
Ġà¦ħà¦¨ à¦²à¦¾à¦ĩà¦¨à§ĩ
Ġà¦ħà¦¨à§ģà¦¸ à¦¨à§įà¦§
Ġà¦ķ à¦¾à¦²à§ĩà¦°
à¦¨à§ĩ à¦¸
Ġà¦ł à§ĩà¦ķ
à¦¿à¦¸ à
à¦¿à¦¸à ¦
à¦¿à¦¸à¦ ¾
Ġà¦ªà¦° à¦ĩ
à¦¾à¦¯ à¦¥
à¦¬ à§įà¦§
Ġà¦¸à¦¾à¦² à¦¾à¦®
Ġà¦¦à¦¿à¦¯à¦¼ à§ĩà¦Ľà¦¿à¦²
Ġà¦¬à¦¾à¦¨ à§įà¦¦
à¦ĩ à¦²
Ġà¦¨à¦¿à¦¯à¦¼à¦¨à§įà¦¤à§įà¦°à¦£ à§ĩ
à¦¾à¦¬à¦¾à¦¦ à§Ģ
à¦Ĺ à¦¾à¦Ľ
Ġà¦¬à¦¿à¦Ńà¦¾à¦Ĺ à§Ģà¦¯à¦¼
Ġà¦² à¦Ĺ
Ġà¦¸à¦¹à¦ľ à§ĩà¦ĩ
à§ĭà¦Ĺ à¦¾à¦¨
à¦®à¦¾à¦¨ à§ģà¦·
Ġà¦¥à§ĩà¦ķ à§ĩà¦ĵ
Ġà¦ªà§įà¦° à¦¾à¦ķà§įà¦¤à¦¨
Ġà¦¸à¦¡à¦¼ à¦ķà§ĩà¦°
Ġà¦ĵ à¦¯à¦¼à¦¾
Ġà¦° à¦ªà§įà¦¤
Ġà¦«à§ĩà¦° à¦¾à¦°
à§ģà¦¬ à¦¿à¦§
Ġà¦ľ à§ĩà¦°
Ġà¦ªà¦¦ à¦¤à§įà¦¯à¦¾à¦Ĺ
Ġà¦Ł à§ģà¦ķ
Ġ à¦Ĭ
Ġà¦¶à§įà¦° à§ĩà¦·à§įà¦ł
Ġà¦¦à§ĩà¦ĸ à¦¾à¦¨à§ĭ
Ġà¦ªà§įà¦°à¦¤à¦¿à¦·à§įà¦ł à¦¿à¦¤
à§Ģ à¦°à§įà¦£
Ġà¦ªà¦°à¦¿à¦® à¦¾à¦¨
ĠÙ ģ
Ġà¦ĩ à¦«
Ġà¦°à¦¾à¦ľ à¦¿
s s
Ġà¦° à§ģà¦¹
Ġà¦²à¦¿à¦ĸ à§ĩ
à¦¬ à¦£
Ġ1 6
Ġà§¦ à§¨
Ġà¦Ĩ à¦°à§įà¦Ł
Ġà¦¤ à¦²à¦¾
Ġà¦Ĩà¦¬ à¦¾à¦¸
à¦Ńà¦¾à¦° à¦¤à§ĩà¦°
à¦¤ à§ģà¦²
Ġà¦ķà¦¾à¦° à¦ĸà¦¾à¦¨
Ġà¦¬à¦¿à¦ķ à¦¾à¦²
Ġà¦« à§įà¦°à¦¿
Ġà¦¯à§Įà¦¨ à¦¸à¦Ļà§įà¦Ĺà¦®
à§ĩà¦Ĺ à§ĩ
Ġà¦ķà¦¿à¦Ľà§ģ à¦¦à¦¿à¦¨
Ġà¦¶ à§ĭà¦¨à¦¾
Ġà¦ľà¦¿à¦ľà§įà¦ŀ à¦¾à¦¸
à¦® à§ģà¦²
Ġà¦Ń à§ĩà¦¬à§ĩ
à¦¾à¦Ľ à¦¾à¦¡à¦¼à¦¾
Ġà¦¥à¦¾à¦ķ à¦Ľà§ĩ
Ġà¦® à§ĩà¦¨
à¦ª à§ĩà¦ķà§įà¦·
Ġà¦ªà§įà¦° à¦¯à¦¼à§ĭà¦ľ
Ġà¦Ľ à§ģà¦Łà¦¿
Ġ if
Ġà¦¨à¦¿à¦¬à¦¨à§įà¦§ à¦¨
Ġà¦ľ à¦¾à¦«
à¦Ń à¦¿
à¦¯à§ĭà¦Ĺ à§Ģ
Ġà¦¬à§įà¦¯à¦¾à¦ĸ à§įà¦¯à¦¾
0 3
ĠA l
à¦ļ à§įà¦Ľà§ĩ
Ġà¦®à¦¾à¦¤à§įà¦° à
Ġà¦®à¦¾à¦¤à§įà¦°à ¦
Ġà¦®à¦¾à¦¤à§įà¦°à¦ ¾
à¦¤ à§ĩà¦ĵ
a j
à¦¸à¦®à§įà¦ª à§įà¦°
Ġà¦ķ à§įà¦¯à¦¾à¦¨à§įà¦¸
à§ģ à¦ªà§įà¦¤
Ġà¦ªà§ĭ à¦·à§įà¦Ł
Ġà¦°à§ĭà¦Ĺ à§Ģ
à¦ª à¦¾à¦¨
Ġ à¦Ķ
Ġà¦¸à§ģà¦·à§įà¦ł à§ģ
Ġà§¦ à§¯
Ġà¦¤à¦¾à¦ķ à¦¿à¦¯à¦¼à§ĩ
à§Įà¦¶ à¦²à§Ģ
ï» ¿
Ġà¦¡à¦¿à¦Ĺ à§įà¦°à¦¿
Ġà¦ľà¦¾à¦°à§įà¦® à¦¾à¦¨
à¦Ł à¦ķ
Ġà¦² à¦¿à¦Ļà§įà¦Ĺ
Ġà¦¸à¦Ļà§įà¦Ĺ à§Ģà¦¤
Ġà¦ķà§įà¦°à§Ģ à¦¡à¦¼à¦¾
Ġà¦°à¦¾à¦ľ à
Ġà¦°à¦¾à¦ľà ¦
Ġà¦°à¦¾à¦ľà¦ ¾
Ġà¦¬à§įà¦¯ à¦¾à¦Ĺ
Ġà¦¸à¦Ĥ à¦¯à§ģà¦ķà§įà¦¤
Ġà¦¶à¦¿à¦ķà§įà¦· à¦¾à¦¬
Ġà¦ľà¦¾à¦¨ à¦¾à¦¤à§ĩ
à§ģà¦° à§Ģà¦°
Ġà¦ªà¦°à¦¿à¦¶ à§ĭà¦§
Ġà¦Ĩà¦²à§ĭà¦ļ à¦¨à¦¾à¦¯à¦¼
Ġà¦ķà¦¤ à¦Łà¦¾
à¦¾à¦® à§ĭ
Ġà¦ªà§įà¦°à¦¦ à¦°à§įà¦¶à¦¨
à¦¾à¦Ĺ à¦²
Ġà¦Ĩà¦¸ à¦¾à¦¦
Ġà¦Ĩà¦ĩ à¦ª
Ġà¦¸à§įà¦¤à§įà¦° à§Ģà¦°
Ġà¦² à¦®à§įà¦¬
Ġà¦ļà¦Łà§įà¦Ł à¦Ĺà§įà¦°à¦¾à¦®à§ĩà¦°
Ġà§¦ à§§
à¦¨à§įà¦¦ à¦ķà¦¾à¦°
à¦°à¦Ĥ à¦ªà§ģà¦°
Ġà¦¬à¦ľ à¦¾à¦¯à¦¼
à¦Ĺ à¦¤à¦¿
Ġà¦¬à¦¿à¦¸ à§įà¦¤
Ġà¦¯à¦¥ à¦¾à¦¯à¦¥
à¦¦ à¦°à§įà¦¶
Ġà¦ľ à§ĩà¦¨
Ĩ à¦ĩ
à§Ģ à¦¹
Ġà¦Ĩ à¦Ľ
à¦ªà§ģà¦° à¦¿
Ġà¦¦à§Ģ à¦ª
Ġà¦ħà¦¨à§ģ à¦Ńà§Ĥ
Ġà¦īà¦¦ à¦¯à¦¾à¦ªà¦¨
Ġà¦¤à§įà¦° à¦¾à¦£
Ġà¦ķà¦° à§ĭ
à§ĩà¦° à¦ªà§ģà¦°
Ġà¦¦à¦² à¦ķà§ĩ
Ġà¦®à¦¾à¦°à§įà¦ķ à§ĩà¦Ł
à¦Ĩ à¦¬
Ġà¦¯ à¦¾à¦ģ
Ġà¦®à¦¾à¦¨ à¦¿à¦ķ
à¦®à¦¯à¦¼ à¦®à¦¨à¦¸à¦¿à¦Ĥà¦¹
Ġà¦ħà¦°à§įà¦¥ à¦¨à§Ģà¦¤à¦¿
Ġà¦ķà¦°à§įà¦¤à§ĥà¦ªà¦ķà§įà¦· à§ĩà¦°
Ġà¦ıà¦¶ à¦¿à¦¯à¦¼à¦¾
à¦¬ à§ĭà¦§
Ġà¦ıà¦ķ à¦ķ
à¦ªà§įà¦°à¦¶ à§įà¦¨
Ġ1 4
Ġà¦¬à¦¿à¦ı à¦¸
Ġà¦²à§ĩà¦ĸ à¦¾à¦°
Ġà¦ı à¦¤à§ĭ
Ġà¦¹à¦¿à¦¸ à§ĩà¦¬
Ġà¦Ń à¦°à§įà¦¤
Ġà¦ļ à§ģà¦°à¦¿
Ġà¦ªà¦¾à¦° à§įà¦¬à¦¤à§įà¦¯
Ġà¦ĩà¦® à¦°à¦¾à¦¨
Ġà¦ªà¦¡à¦¼ à¦¬à§ĩ
Ġà¦¬à¦¯à¦¼ à¦¸à§ĩ
Ġà¦ļ à¦¾à¦ĩà¦²
Ġà¦Ĺ à§ģà¦¨
Ġà¦ķà¦°à§ĩà¦¨ à¦¨à¦¿
Ġà¦¡ à¦¿à¦ª
Ġà¦®à§ĭà¦Ł à¦°à¦¸
Ġà¦Ĩà¦¬à§įà¦¦ à§ģà¦°
Ġà¦¥ à¦¾à¦®
Ġà¦ªà¦¡à¦¼ à¦Ľà§ĩ
à¦¾à¦¬à¦² à§Ģ
à¦¬à¦¾à¦¸ à§Ģ
à¦¾à¦ ¢
Ġà¦²à¦¾à¦ĩ à¦¸à§ĩà¦¨à§įà¦¸
âĢĮ à§įà¦¯à¦¾à¦¬
Ġà¦ķ à¦²à§įà¦ª
à¦¬à¦¾à¦¡à¦¼ à§Ģ
à¦¿à¦¬à¦¾à¦° à¦¿à¦ķ
Ġà¦¨à¦¿à¦°à§įà¦® à¦¿à¦¤
à§¨ à§¯
Ġà¦ķà§įà¦· à§ģà¦¦à§įà¦°
Ġà¦°à§ĩà¦ĸ à§ĩà¦Ľà§ĩ
Ġà¦¸à§ĩà¦² à¦¿à¦®
Ġà¦®à¦¾à¦¨ à§ĩà¦°
Ġà¦¨ à§įà¦¯à¦¾à¦¯à¦¼
Ġà§¨à§¦à§§à§ ¨
Ġà¦¸à¦¹à¦¯à§ĭà¦Ĺ à§Ģ
Ġà¦¤ à¦¾à¦¨
à¦¾à¦ķ à¦¾à¦°à§Ģ
à§įà¦¨ à¦¾à¦°
ww w
Ġà¦ıà¦ķ à¦¸à¦Ļà§įà¦Ĺà§ĩ
Ġà¦¬à¦¿à¦¦ à§įà¦°
Ġà¦ľ à¦¾à¦ķ
Ġà¦¬à¦¿à¦ ¹
2 3
à¦¿à¦¯ à§ģà¦ķà§įà¦¤
Ġà¦ħ à¦ķà§įà¦·
Ġà¦® à¦¾à¦Łà¦¿
or d
Ġà¦īà¦ļ à§įà¦Ľ
Ġà¦¸à§Ĥ à¦°à§įà¦¯
Ġ le
Ġà¦īà¦ª à¦¨à§įà¦¯
à¦£ à¦¾à¦¯à¦¼
ĠP ro
Ġà¦¹ à§ĭà¦¯à¦¼
Ġà¦¸à¦¾à¦² à§įà¦²à¦¾à¦²à§įà¦²à¦¾à¦¹à§ģ
Ġà¦°à¦¾à¦¸à§įà¦¤ à¦¾à¦°
Ġà¦ªà¦¿à¦Ľ à¦¿à¦¯à¦¼à§ĩ
Ġà¦§ à¦¨
Ġà¦¨à§ĩà¦¤à§ĥ à¦¬à§ĥà¦¨à§įà¦¦
à§ĭà¦¨à¦¾à¦² à§įà¦¡
à¦¾à¦§ à§įà¦¯
- à¦ªà¦°
Ġà¦Ĺ à¦¾à¦¯à¦¼à§ĩ
Ġà¦¸à§ģà¦ªà¦¾à¦° à¦¿à¦¶
Ġà§® à§¦
Ġà¦ľ à¦¾à¦°
Ġà¦¡ à¦¾à¦¨
à¦° à¦¾à¦ĵ
à¦¾à¦ľ à¦¿
Ġà¦ıà¦¸ à§ĩà¦Ľà§ĩà¦¨
Ġà¦¬à¦¿à¦¬à§ĩà¦ļ à¦¨à¦¾
Ġà¦®à¦¿à¦² à¦¿à¦¯à¦¼à¦¨
à¦°à¦¾à¦ľ à§įà¦¯
à¦¾à¦ĩ à¦¯à¦¼à¦¾
à¦ªà§įà¦° à¦¾à¦ļ
à¦Ĩà¦¨à§įà¦¤ à¦°à§įà¦ľà¦¾à¦¤à¦¿à¦ķ
Ġà¦¦ à¦¿à¦¤
à¦ķ à¦¾à¦ł
à¦²à¦Ń à§Ģà¦¬à¦¾à¦ľà¦¾à¦°
Ġà¦¸ à¦¿à¦Ļà§įà¦Ĺ
Ġà¦®à§ģ à¦¨à§įà¦¸
Ġà¦¸ à¦¿à¦Ĥà¦¹
Ġà¦¸à¦¾à¦§ à¦¾à¦°à¦¨
à§įà¦Ł à¦¾à¦¯à¦¼
Ġà¦¸à§įà¦ķ à§įà¦°
Ġà¦¬à¦¨à§įà¦¦ à§ģà¦ķ
Ġ *
Ġà¦Ńà¦¾à¦²à§ĭà¦¬à¦¾à¦¸ à
Ġà¦Ńà¦¾à¦²à§ĭà¦¬à¦¾à¦¸à ¦
Ġà¦Ńà¦¾à¦²à§ĭà¦¬à¦¾à¦¸à¦ ¾
à¦¾à¦¸ à§ĩà¦¬
Ġà¦®à¦¾à¦Ĥ à¦¸
Ġà¦¤à¦¾à¦ª à¦®à¦¾à¦¤à§įà¦°
Ġà¦ķà§ģà¦®à¦¿à¦²à§įà¦² à
Ġà¦ķà§ģà¦®à¦¿à¦²à§įà¦²à ¦
Ġà¦ķà§ģà¦®à¦¿à¦²à§įà¦²à¦ ¾
à§İ à¦¸à§įà¦¯
à¦¾à¦¤ à§ĩà¦ĵ
Ġà¦ªà¦¾à¦¸ à¦ªà§ĭà¦°à§įà¦Ł
à¦Ĺ à¦¡à¦¼
Ġà¦®à¦¸à¦ľà¦¿à¦¦ à§ĩ
à¦Ń à§Ģ
à§ĭà¦ľ à
à§ĭà¦ľà ¦
à§ĭà¦ľà¦ ¾
Ġà¦Ĩà¦ĩ à¦ıà¦¸
Ġà¦¬à§Īà¦¶à¦¿à¦·à§įà¦Ł à§įà¦¯
Ġà¦Ľà¦¿à¦² à¦¾à¦®
Ġà¦ķà¦°à§įà¦®à¦ķà¦°à§įà¦¤ à¦¾à¦¦à§ĩà¦°
Ġà¦® à¦¿à¦·à§įà¦Ł
Ġà¦° à¦¾à¦¬
?? ??
Ġà¦¬à¦¦ à¦²
à¦ĩ à¦¤
- à¦¹
Ġà¦ªà¦°à¦¬à¦°à§įà¦¤ à§Ģà¦¤à§ĩ
Ġà¦ª à§ĭà¦°à§įà¦Ł
Ġà¦ª à¦²à§įà¦²
Ġà¦ħà¦¤à¦¿à¦¥ à¦¿à¦°
a ck
Ġà¦¥à¦¾à¦ķ à¦¿
Ġà¦ķ à§ģà¦¯à¦¼
Ġà¦ķà§įà¦· à¦®à¦¾
Ġà¦ľà¦¿à¦ľà§įà¦ŀ à¦¾à¦¸à¦¾
à§ĩà¦¤ à¦¾à¦°
, à§¦à§¦à§¦
à¦ª à¦¨à§įà¦¥
à¦ŀà§įà¦ļ à¦¿à¦¤
Ġà¦ªà§įà¦°à¦¤à¦¿à¦ª à¦ķà§įà¦·
Ġà¦īà¦¦à¦¾à¦¹ à¦°à¦£
Ġ1 3
Ġà¦¬à§Ī à¦§
Ġ i
Ġà¦¤ à§ĭà¦²à¦¾à¦°
Ġà¦ħ à¦Ĺ
Ø ª
Ġà¦ªà§įà¦°à¦¤ à§Ģà¦ķ
Ġà¦¸à§įà¦¬à§Ģà¦ķ à§ĥà¦¤à¦¿
Ġà¦Ĩà¦®à¦¦ à¦¾à¦¨à¦¿
Ġà¦° à¦¿à¦ķ
Ġà¦ħà¦¸à¦¹ à¦¾à¦¯à¦¼
Ġà¦¬à¦¿à¦¶à§įà¦¬ à§ĩ
Ġà¦¶à§ģà¦¨ à¦¾à¦¨à¦¿
ail y
à¥ į
Ġà¦Ĺà¦° à§ģ
0 2
Ġà¦¸ à§įà¦Łà¦¾à¦°
à§įà¦² à
à§įà¦²à ¦
à§įà¦²à¦ ¾
Ġà¦Ľ à§ĩà¦²à§ĩà¦°
Ġà¦¤à§ĭà¦® à¦¾à¦ķà§ĩ
à¦ī à¦ĩ
Ġà¦Ĩà¦¤à§įà¦® à¦¹à¦¤à§įà¦¯à¦¾
à§Ģà¦¬ à¦¨
à§įà¦Ł à¦°
à¦¾à¦£à§įà¦¡ à§ĩà¦°
Ġà¦Ńà§ĭà¦Ł à§ĩà¦°
Ġà¦¨à¦¿à¦¯à¦¼ à¦¨à§įà¦¤à§įà¦°
" à¥¤
à¦ķà¦¾à¦° à§Ģà¦°
Ġà¦¦à¦¾à¦¬ à§Ģ
à¦¾à¦Ĺ à§įà¦°
Ġà¦Ĩà¦¸ à¦Ľà§ĩà¦¨
à¦§à§įà¦¯ à§ĩà¦ĩ
Ġà¦Ĺ à¦¾à¦ģ
Ġà¦¸à¦¾à¦° à§įà¦¬à¦¿à¦ķ
à§¬ à§¦
à§ģà¦¤ à§įà¦¬
Ġà¦¦à§ģ à¦¦
à¦¾à¦ķ à¦¾à¦²
Ġà¦ļ à§ĭà¦°
Ùı ÙĪ
Ġà¦ıà¦ķ à§įà¦·
Ġà¦Ĩà¦² à§Ģà¦°
Ġn ews
Ġà¦Ĺ à¦¾à¦ĩ
Ġà¦ªà§įà¦°à¦¤ à¦¿à¦¶à§įà¦°
Ġà¦¨ à§ĩà¦¬à§ĩ
à¦¾à¦¹à§įà¦®à¦£ à¦¬à¦¾à¦¡à¦¼
Ġà¦¨à§Į à¦ķà¦¾
à§įà¦¨ à¦¾à¦¨
Ġà¦¨à¦Ĺà¦° à§Ģà¦°
Ġà¦ķà¦° à¦¿à¦¯à¦¼à§ĩ
Ġà¦¬ à¦¨à§įà¦¦à¦°
à¦°à¦¸ à¦Ńà¦¾à¦°
Ġà¦«à¦° à§ĩà¦ķà§įà¦¸
à¦¿à¦¯à¦¼ à§ĩà¦Ľà¦¿à¦²à§ĩà¦¨
à¦ĺ à¦°
Ġà¦¸à¦°à¦ķà¦¾à¦° à¦ķà§ĩ
Ġà¦Ń à¦¿à¦¡à¦¼
Ġà¦¤ à¦²
à¦ŀà§įà¦ļ à¦²à¦¿à¦ķ
Ġà¦ħà¦Ńà§įà¦¯ à¦¨à§įà¦¤
ĠP r
Ġà¦°à¦¶ à¦¿à¦¦
à¦¿à¦¯à¦¼ à¦¾à¦ķà§ĩ
Ġà¦ħà¦¨à§ģ à¦ª
Ġà¦¬ à¦ķà§įà¦¸
Ġà¦¸à¦®à¦¾à¦²à§ĭ à¦ļ
low job
Ġà¦¸ à¦¤à§įà¦¤à§įà¦¬
i e
Ġà¦¬à§ģà¦Ŀ à§ĩ
Ġà¦¸à¦Ĥà¦Ĺ à§Ģà¦¤
à¦² à¦¾à¦²
Ġà¦¬à¦¹ à¦¨
à¦° à¦¾à¦®
Ġà¦¨ à§ĭ
Ġà¦Ľà¦¬ à¦¿à¦Łà¦¿
Ġ al
Ġà¦¬à¦¿à¦ľà¦¯à¦¼ à§Ģ
à¦® à¦¿à¦°
à§ģà¦¦ à
à§ģà¦¦à ¦
à§ģà¦¦à¦ ¾
Ġà¦Łà¦¿à¦ķ à¦¿à¦Ł
à¦¾à¦¸à§įà¦¤ à§įà¦°
à¦¯ à§ģà¦¦à§įà¦§
Ġà¦¬à§ĥà¦¦à§įà¦§ à¦¿à¦°
à§įà¦¯ à§ĭà¦Ĺ
Ġà¦°à¦¾à¦¶ à¦¿à¦¯à¦¼à¦¾
Ġà¦ķà¦¾à¦° à
Ġà¦ķà¦¾à¦°à ¦
Ġà¦ķà¦¾à¦°à¦ ¾
Ġà¦īà¦ª à¦ķ
Ġà¦¸à¦Ĥ à¦Ĺà§įà¦°à¦¾à¦®
Ġà¦Ĩà¦ĵà¦¯à¦¼à¦¾à¦®à§Ģ à¦²à§Ģà¦Ĺà§ĩà¦°
Ġà¦«à¦¾à¦ĩà¦¨ à¦¾à¦²à§ĩ
à§ģà¦° à¦¿à¦°
à§ĩà¦ķ à§ĩà¦°
- à¦ªà§įà¦°
à§ĩà¦®à§įà¦¬ à¦¾à¦°
Ġà¦®à§įà¦¯ à¦¾à¦ľ
Ġà¦¤ à§ģ
Ġà¦®à§ģà¦ķà§įà¦¤à¦¿à¦¯à§ģà¦¦à§įà¦§ à§ĩà¦°
à¦¤à¦° à¦¾à¦Ĥ
Ġà¦¨à§Ģà¦¤ à¦¿à¦®
à§įà¦Ł à¦¨
à¦² à¦ķ
à¦¸ à§ģà¦²
Ġ vi
à¦¶ à§įà¦°à§Ģ
Ġà¦¸ à§ĩà¦ŀà§įà¦ļ
Ġà¦° à¦¾à¦¯à¦¼à§ĩà¦°
Ġà¦¸à§įà¦¬ à¦¾à¦®à§Ģà¦°
Ġà¦¬à¦¾à¦° à§įà¦¸
Ġà¦īà§İà¦ª à¦¾à¦¦
Ġà¦ķà¦° à¦Ľà¦¿à¦²
à¦ĩ à¦¯à¦¼à¦¾
à¦°à§įà¦¡ à¦¾à¦°
à¦¡ à§ĩà¦¸à§įà¦ķ
à¦¾à¦¸ à§Ģà¦¨
Ġà¦¸à§įà¦¬à¦¾à¦§à§Ģà¦¨ à¦¤à¦¾à¦°
Ġà¦² à¦ķ
Ġ1 7
Ġà¦°à¦¾à¦¤ à§ĩà¦°
Ġà¦¸à§ģ à¦¤à¦°à¦¾à¦Ĥ
Ġà¦Ĺà§ĩà¦² à§ĭ
Ġà¦¦à¦¿à¦¯à¦¼ à§ĩà¦ĩ
à§įà¦° à¦¾à¦¨à§įà¦¤
Ġà¦¸à¦¾à¦° à§įà¦ľ
Ġth is
Ġà¦Ĺ à§ĭà¦·à§įà¦ł
à¦¡ à§įà¦°
Ġà¦¶à§įà¦°à¦®à¦¿à¦ķ à¦¦à§ĩà¦°
à¦¿à¦Ń à¦¾à¦°
Ġà§¦ à§©
Ġà¦¬ à¦°à§įà¦ľ
à¦¿à¦¨à¦¾à¦ĩ à¦¦à¦¹
- à§ª
Ġà¦ªà¦¾à¦¥ à¦°
Ġà¦Ĩà¦¸ à¦²
à¦°à¦¾à¦ľ à¦§à¦¾à¦¨
Ġà¦¨ à¦ĵ
à¦¯à¦¼ à¦Ĥ
Ġà¦²à¦¾à¦Ĺ à¦¿à¦¯à¦¼à§ĩ
à§Ģ à¦¡à¦¼
Ġà¦¦ à¦®à¦¨
Ġà¦ķà¦¾à¦° à¦¨
Ġà¦Ĩà¦¤à§įà¦® à§Ģà¦¯à¦¼
à¦¶ à¦¾à¦¨
Ġà¦¸ à§ĭà¦¶à§įà¦¯à¦¾à¦²
Ġà¦¬à¦¾à¦¬ à§ģ
à¦¾à¦° à¦ķ
Ġà¦ľà¦¾à¦¤ à¦¿
00 0
Ġà¦ħà¦¸à§įà¦¬ à§Ģà¦ķà¦¾à¦°
Ġà¦ªà§įà¦° à¦ľà¦¾à¦¤
Ġà¦¬à¦¾à¦ ĺ
n g
Ġà¦Ńà§įà¦°à¦® à¦£
à¦ıà¦Ľ à¦¾à¦¡à¦¼à¦¾
m ail
Ġà¦ĵ à¦Ńà¦¾à¦°
Ġà¦ĸ à¦¾à¦ĵà¦¯à¦¼à¦¾à¦°
Ġà¦ħà¦¬ à¦°à§ĭà¦§
Ġà¦Ł à¦¾à¦Ļà§įà¦Ĺ
Ġà¦ķà§įà¦¯à¦¾à¦®à§ĩà¦° à
Ġà¦ķà§įà¦¯à¦¾à¦®à§ĩà¦°à ¦
Ġà¦ķà§įà¦¯à¦¾à¦®à§ĩà¦°à¦ ¾
Ġà¦Ĳà¦ķà§įà¦¯ à¦«à§įà¦°à¦¨à§įà¦Ł
à¦ľ à¦¿à¦°
2 7
Ġà¦¡ à§ĩà¦ķà§ĩ
Ġà¦ª à§ģà¦ľ
Ġà¦ªà§Į à¦°à¦¸à¦Ńà¦¾à¦°
Ġà¦¦à§ģ à¦°à§įà¦Ń
Ġà¦ķ à¦¨à§įà¦¯à¦¾
Ġà¦ªà§ģà¦°à§ĭ à¦ªà§ģà¦°à¦¿
à¦¾à¦¬ à§ģ
- à¦Ń
Ġà¦¶ à§ĭà¦Ń
à¦¸ à¦¾à¦¹
à¦¾à¦® à¦¾à¦²
à¦ķ à§ĥà¦·
Ġà¦ªà¦° à§ĩà¦ĩ
on d
ublis hed
Ġà¦ĩ à¦¹
Ġà¦¹à§ģà¦® à¦¾à¦¯à¦¼
à§ģà¦¯à¦¼ à§ĩà¦²
Ġà¦² à§ģà¦Ł
Ġà¦« à¦Ł
à§ĭà¦² à¦¨
Ġà¦ªà§įà¦°à¦¤à¦¿à¦¦ à§įà¦¬à¦¨à§įà¦¦à§įà¦¬
à§Ģà¦° à§ĩà¦°
âĢĮ à§įà¦¯
Ġà¦¦ à§ĭ
à¦¸ à§Į
r y
Ġà¦¸à¦¾à¦Ĥ à¦¸à¦¦
Ġà¦Ĩà¦ª à¦¿à¦²
à¦¬ à¦¿à¦·à¦¯à¦¼
Ġà¦« à§ĩà¦¨
Ġà¦ªà§įà¦°à¦ķ à§Įà¦¶à¦²à§Ģ
Ġà¦¶à§ģà¦°à§ģ à¦¤à§ĩ
Ġà¦¸ à§ĩà¦°
Ġà¦® à§ĩà¦°à§ĩ
Ġ la
Ġà¦¯à¦¾à¦ļ à§įà¦Ľà¦¿à¦²
à¦° à¦¾à¦¤
à¦¿à¦Ł à¦°
Ġà¦īà¦ľà§įà¦ľ à§įà¦¬à¦²
à¦¾à¦£ à§Ģ
Ġà¦ª à¦¿à¦¸
à¦¯à§ģà¦ķà§įà¦¤ à¦°à¦¾à¦·à§įà¦Łà§įà¦°
Ġà¦«à§ĩà¦¬à§įà¦° à§ģà¦¯à¦¼à¦¾à¦°à§Ģ
Ġà¦ªà§įà¦°à¦¶ à¦Ĥ
Ġà¦¸à¦«à¦Ł à¦ĵà¦¯à¦¼à§įà¦¯à¦¾à¦°
Ġà¦Ĺà§ģà¦Ĺ à¦²
Ġà¦¸ à§įà¦¯à¦¾à¦°
Ġà¦¯à¦¾à¦¨ à¦¬à¦¾à¦¹
Ù ĥ
Ġà¦¶ à§ĭ
à¦¿à¦ķ à§ĩà¦¶à¦¨
Ġà¦ķà¦¾à¦¨ à¦¾à¦¡
Ġà¦¨à¦° à§ĩà¦¨à§įà¦¦à§įà¦°
Ġà¦¶à§ģà¦¨ à¦¤à§ĩ
Ġà¦¬à¦¿à¦¸ à§įà¦®
Ġà¦® à¦¾à¦Ĺ
Ġà¦Ńà§Ĥ à¦®à¦¿
Ġà¦ıà¦ķ à
Ġà¦ıà¦ķà ¦
Ġà¦ıà¦ķà¦ ¾
Ġà¦Łà¦¾à¦ĩ à¦®à¦¸
Ġà¦¬à¦¿à¦ Ľ
à¦¾à¦ª à¦¿
Ġà¦¬à¦¾à¦¡à¦¼ à¦¤à¦¿
Ġà¦² à¦ľà§įà¦ľ
Ġà§¦ à§®
Ġà¦¸ à¦¿à¦ª
Ġà¦ľ à¦¹
à§ģà¦Ł à¦¿à¦°
Ġà¦®à¦¨à§įà¦¦ à¦¿à¦°
à¦¦ à§ģà¦ĩ
Ġà¦ĩà¦Ĥà¦° à§ĩà¦ľ
Ġà¦ķ à¦¾à¦Łà¦¾
Ġà¦ª à¦¾à¦ļà§įà¦Ľà§ĩà¦¨
Ġà¦ĸ à¦¾à¦¯à¦¼
Ġà¦¤à§ģà¦° à¦¸à§įà¦ķ
h a
Ġà¦®à¦¿à¦² à¦¨
Ġà¦Ĺà¦¾à¦Ľ à§ĩà¦°
Ġà¦¸à¦¿à¦°à¦¿à¦ľ à§ĩà¦°
à¥į à¤
Ġà¦¬ à§ĩà¦Ľà§ĩ
Ġà¦Ĺà§ĭà¦ª à¦¾à¦²
Ġà¦ķà§įà¦· à§ĭà¦Ń
Ġà¦Ĺà¦¾à¦¡à¦¼ à¦¿à¦°
à¦¾à¦¬ à¦¦à§įà¦§
Ġà¦¤ à§ĭà¦²
Ġà¦§à¦° à¦¤à§ĩ
Ġà§© à§©
Ġà¦¸ à¦°à§ĩ
Ġà¦°à¦¾à¦ľ à§įà¦¯à§ĩ
Ġb angla
Ġà¦īà¦²à§įà¦²à§ĩà¦ĸ à¦¯à§ĭà¦Ĺà§įà¦¯
Ġà¦Ĺà§ĩà¦² à§ĩà¦ĵ
s p
Ġà¦Ł à¦¨
Ġà¦¦à§ĥà¦·à§įà¦Ł à¦¿
Ġà¦Ĩà¦°à§įà¦ľ à§ĩà¦¨à§įà¦Ł
Ġà¦¬à¦¿à¦¶à§įà¦¬à¦ķà¦¾à¦ª à§ĩà¦°
- à§¨à§¦
Ġà¦®à§ĭ à¦¦à§Ģ
Ġà¦« à¦¾à¦¯à¦¼à¦¾à¦°
Ġà¦¹à¦¾à¦¸ à¦¿
à¦Ł à¦¾à¦ķà§ĩ
Ġà¦¸à¦¹ à¦¿à¦Ĥà¦¸
Ġà¦¦ à¦¤à§įà¦¤
ĠJ an
Ġà¦® à¦¾à¦Łà¦¿à¦¤à§ĩ
Ġà¦®à§ģà¦ĸ à§ĩà¦°
Ġà¦ĩ à¦Ł
à¦Ĺà¦¤ à¦ķà¦¾à¦²
Ġà¦Ń à¦¿à¦Ł
Ġà¦ķà§įà¦² à¦¿à¦¨
Ġà¦¶ à¦¿à¦ķ
Ġà¦¸à¦Ĥà¦¸ à¦¦à§ĩà¦°
Ġà¦¦à§ĩà¦ĸ à§ĩà¦¨
Ġà¦ķà¦°à§įà¦®à¦ķà¦°à§įà¦¤ à¦¾à¦°
Ġà¦Ĺà§įà¦°à¦¹à¦£ à§ĩà¦°
Ġà¦« à¦¿à¦ļà¦¾à¦°
Ġà¦¹ à§įà¦°
Ġà¦ĸà¦¾à¦¤ à§ģà¦¨
Ġà¦®à¦¿à¦¯à¦¼à¦¾à¦¨ à¦®à¦¾à¦°
Ġà¦ķà§įà¦¯ à¦¾à¦Ł
à§ĭ à¦ľà¦¨
Ġà¦®à¦¨ à§ĭ
Ġà¦Łà§įà¦° à¦¾à¦¸à§įà¦Ł
ĠT h
à¦¿à¦® à§įà¦ª
Ġà§ª à§«
Ġà¦¸à¦¾à¦®à¦Ĺà§įà¦° à§Ģ
Ġà¦ĩà¦¤à¦¿à¦® à¦§à§įà¦¯à§ĩ
à¦Ĩ à¦ĵà¦¯à¦¼à¦¾à¦®à§Ģ
à¦¿à¦¦ à¦¾à¦°
Ġà¦ļ à§ĩà¦¹
Ġà¦¦ à¦®
Ġà¦¦ à¦«à¦¾
Ġà¦§à¦°à§įà¦® à§ĩà¦°
Ġà¦¬à¦¿à¦¨ à
Ġà¦¬à¦¿à¦¨à ¦
Ġà¦¬à¦¿à¦¨à¦ ¾
Ġà¦®à¦¿à¦¶ à§įà¦°
Ġà¦® à¦¿à¦Łà¦¾à¦°
à¦¶ à¦¿à¦ª
Ġà¦ľà¦¾à¦¹ à¦¾à¦¨
2 8
Ġà¦¶ à¦°à¦£
Ġà¦ķ à§ģà¦¡à¦¼
Ġà¦¸à§įà¦Ł à¦ķ
à¦¾à¦®à§Ģ à¦£
- à§«
an th
à¦° à¦¾à¦ĩ
Ġà¦ķà§ĥà¦· à§įà¦£
Ġà¦ħà¦«à¦¿à¦¸ à§ĩà¦°
à¦¹ à§ĩ
Ġà¦ªà§įà¦°à¦« à§ĩà¦¸à¦°
Ġà¦Ńà¦¬ à¦¨à§ĩà¦°
Ġà¦Ńà¦¿à¦¤à§įà¦¤ à¦¿
Ġà¦®à§ĩà¦Ł à§įà¦°
à¦ļ à§ģà¦°
Ġà¦ķà§įà¦° à¦¯à¦¼
à¦¶ à§ģà¦§
Ġà¦« à¦¯à¦¼
Ġà¦¤à¦¾à¦² à¦¿à¦ķ
Ġà¦īà¦ªà¦¸à§įà¦¥ à¦¾à¦ªà¦¨
Ġà¦¬à§įà¦¯ à¦¥à¦¾
à¦Ĩà¦ľ à¦ķà§ĩà¦°
à¦ªà¦¥ à§ĩ
Ġà¦ħ à¦¸à§įà¦¤
à¦¬ à¦¾à¦ĩ
Ġà¦ķà§įà¦² à¦¾à¦¬à§ĩà¦°
Ġà¦ªà¦¾à¦° à¦¿à¦¬à¦¾à¦°à¦¿à¦ķ
Ġà¦ķà¦¾à¦° à¦¨à§ĩ
Ġà¦¬à¦¿à¦¦à§įà¦° à§ĭà¦¹
à¦¸à¦° à¦ķà¦¾à¦°à¦¿
à¦¿à¦² à¦¾à¦°
Ġà¦¹à¦¾à¦¦ à¦¿à¦¸
Ġà¦¬à¦¿à¦ľà§ĩà¦ª à¦¿à¦°
à¦¾à §
Ġà¦īà¦¨à§įà¦¨ à¦¤à¦¿
ĠI nd
à¦Ľ à¦°
à§įà¦² à§įà¦¡
Ġà¦ĩà¦¨ à¦¿à¦Ĥà¦¸
à¦ļà§įà¦Ľ à¦¦
Ġà¦¹ à§ĩà¦¡
à¦¿à¦¸à§įà¦¤ à¦¾à¦¨à§ĩà¦°
Ġà¦ªà¦° à§įà¦¯à¦¾à¦²
Ġà¦° à§ĭà¦§
Ġà¦²à¦®à§įà¦¬ à
Ġà¦²à¦®à§įà¦¬à ¦
Ġà¦²à¦®à§įà¦¬à¦ ¾
Ġà¦ľ à¦¿à¦¤à§ĩ
à¦¿à¦¬ à¦¾à¦ľà¦¾à¦°
Ġà¦¬à¦¿à¦ª à¦¦
Ġà¦¡à¦¿à¦ľ à¦¾à¦ĩà¦¨
Ġà¦Ĺ à¦¤à¦¿
Ġà¦ľà¦¾à¦¹ à¦¾à¦ľ
Ġà¦¡à¦¾à¦ķ à¦¾à¦¤
on s
Ġà¦® à§İà¦¸à§įà¦¯
Ġà¦® à§ĩà¦Ĺ
Ġ lo
Ġà¦ķà§ĩà¦¨ à¦¨à¦¾
Ġà¦¸à¦¡à¦¼ à¦ķà§ĩ
Ġà¦ĩ à¦ļà§įà¦Ľà§ĩ
Ġà¦ĺà¦Łà¦¨à¦¾à¦¸à§įà¦¥ à¦²à§ĩ
Ġà¦¸à¦®à§įà¦® à§ģà¦ĸ
à¦¶ à¦¿à¦¶
à¦¤ à¦¾à¦¹
à¦¡ à§įà¦¡
à¦¸ à¦¾à¦¬
Ġà¦¶à¦¾à¦®à§Ģ à¦®
Ġà¦¹à¦¯à¦¼ à§ĩà¦Ľà¦¿à¦²à§ĩà¦¨
Ġà¦ª à¦¾à¦ª
Ġà¦« à§ĩà¦²à¦¾
Ġà¦Ĩ à¦ŀà§įà¦ļà¦²à¦¿à¦ķ
Ġà¦¬à¦¾à¦¸ à
Ġà¦¬à¦¾à¦¸à ¦
Ġà¦¬à¦¾à¦¸à¦ ¾
Ġà¦Ľ à§ģà¦ģ
Ġà¦¡ à¦²
Ġà¦¸à§įà¦Ł à§ĩà¦¶à¦¨
Ġà¦¬à¦¿à¦¦à§ĩà¦¶ à§ĩ
Ġà¦ķà¦¾à¦°à¦¾à¦¦ à¦£à§įà¦¡
à¦¬à¦¿à¦¨ à¦¿à¦®à¦¯à¦¼
Ġà¦ªà§įà¦°à¦¤à¦¿à¦ķà§įà¦° à¦¿à¦¯à¦¼à¦¾
Ġà¦° à¦ļ
Ġà¦¹à¦¤ à¦¾à¦¶
Ġà¦ķà¦¿à¦¨ à§ĩ
Ġà¦ķà¦¿à¦¨ à¦¤à§ĩ
Ġà¦®à§ĭà¦¸à§įà¦¤ à¦«à¦¾
ĠM ar
Ġà¦§à¦° à§ĩà¦ĩ
Ġà¦¶à¦¿à¦ķà§įà¦· à¦ķà¦¦à§ĩà¦°
à¦¾à¦® à¦¿
Ġà¦ªà¦°à§įà¦¯ à¦¾à¦¯à¦¼à§ĩà¦°
à¦¦ à¦¾à¦¯à¦¼à§ĩà¦°
Ġà¦¸à¦® à§įà¦¬
Ġà¦¨à¦¾à¦°à¦¾à¦¯à¦¼à¦£ à¦Ĺà¦ŀà§įà¦ľ
à¦ª à§ĩ
Ġà¦¬à§ģ à¦ķà§ĩ
Ġà¦®à§ĩà¦¡à¦¿à¦ķ à§įà¦¯à¦¾à¦²
Ġf rom
Ġà§§à§ §à§
à¦¿à¦ķ à¦¾à¦¨
Ġà¦¨à¦¿à¦ļ à§įà¦Ľà§ĩ
à¦ŀà§įà¦ľ à¦¨
à¦ķà§ĩà¦° à
à¦ķà§ĩà¦°à ¦
à¦ķà§ĩà¦°à¦ ¾
à¦ı à¦Łà¦¾
Ġà¦¸ à¦¾à¦¥
à¦ªà§ģà¦° à§ģà¦·
Ġà¦ªà¦¡à¦¼ à§ĩà¦Ľà§ĩà¦¨
ed ia
Ġà¦¨ à¦¾à¦ļ
Ġà¦¦à¦° à¦ľà¦¾
ĠN ov
Ġà¦¬à¦¾à¦ľà¦¾à¦° à§ĩà¦°
à¦¿à¦¹ à¦¾à¦¸à§ĩà¦°
Ġà¦¬ à¦Ĥà¦¶
Ġà¦¯à¦¤ à§įà¦¨
Ġà¦¶à¦°à§Ģ à¦«
Ġà¦Łà¦¿à¦ª à¦¸
Ġà¦² à§ģ
Ġà¦¹à¦¾à¦°à§įà¦¡ à¦ķà§ĭà¦°
à¦ļ à¦¾à¦ª
Ġà¦Ńà¦¾à¦ĩ à¦¯à¦¼à§ĩà¦°
Ġà¦ªà¦¾à¦° à¦Ľà§ĩà¦¨
à§ĩà¦¨à§įà¦¡ à¦¾à¦°
Ġà¦Łà§ģà¦ĩ à¦Ł
Ġà¦¦à¦¾à¦ĸ à¦¿à¦²
Ġn ew
Ġà¦¬à¦°à§įà¦£ à¦¿à¦¤
Ġà¦¶ à§įà¦¬
Ġà¦® à¦¶
Ġà¦¤à¦¾à¦² à§ģà¦ķ
Ġà¦¸à¦¹à¦ľ à§ĩ
Ġà¦¨ à§ĩà¦®
Ġà¦ĵ à¦¸à¦®à¦¾à¦¨
Ġà¦° à§ģà¦ª
Ġà¦®à§ĩà¦¯à¦¼ à¦¾à¦¦
Ġà¦®à¦¤à§ĭ à¦ĩ
Ġà¦¤ à¦¾à§İ
Ġà¦ķà¦²à¦ķ à¦¾à¦¤à¦¾à¦°
Ġà¦¹à¦ļ à§įà¦Ľà¦¿à¦²
Ġà¦ķ à§įà¦¯à¦¾à¦¨
ð Ł
Ġà¦¸à¦Ĥà¦¸à¦¦ à§ĩ
Ġd e
http s
à¦¯ à§ģà¦¦à§įà¦§à§ĩ
Ġà¦Ĩà¦² à¦¾à¦ª
à§ĩà¦ª à§ĩ
Ġà¦Ŀà§ģà¦ģ à¦ķ
Ù ĳ
à¦®à§ĭà¦¬ à¦¾à¦ĩà¦²
Ġà¦ķà¦° à¦¿à¦¯à¦¼à¦¾
Ġà¦° à¦¾à¦Ĺ
ost ed
à¦¸ à¦¾à¦¥à§ĩ
Ġà¦¤ à¦¾à¦ľ
à¦¦ à§ĩà¦ĸ
Ġà¦¸à¦ªà§įà¦¤à¦¾à¦¹ à§ĩà¦°
Ġà¦¬à§ĩà¦ģ à¦§à§ĩ
à¦¤ à¦¾à¦ķà§ĩ
Ġà¦° à¦¿à¦Ń
Ġà§¦ à§§à§Ń
Ġà¦¡ à§ģ
Ġà¦ªà§įà¦°à¦¤à§įà¦¯ à¦¾à¦¶
à¦¤à§įà¦¤ à¦®
is h
Ġà¦¸à§įà¦Ł à¦¾à¦ĩà¦²
. C
Ġà¦¸ à¦¾à¦ģ
Ġà¦¬à¦¿à¦ļà¦¾à¦° à¦ķ
Ġà¦®à§ĩà¦¯à¦¼ à§ĩà¦°à¦¾
à¦¸ à§įà¦Łà¦¾à¦°
Ġà¦ªà§ģà¦¨ à¦°à¦¾à¦¯à¦¼
Ġà¦Ĩà¦®à§ĩà¦° à¦¿à¦ķà¦¾à¦°
à¦ķà¦°à§įà¦® à§Ģ
Ġà¦īà¦¦à§įà¦¦à§ĩà¦¶ à§ĩ
à¦¦à§įà¦¦ à§Ģà¦¨
Ġà¦Ĩà¦¹ à¦¸à¦¾à¦¨
Ġà¦ħà¦® à¦¿à¦¤
à¦ķ à¦¾à¦®à§Ģ
Ġà¦¹à¦¾à¦ģ à¦Ł
Ġà¦¶ à¦ªà¦¥
Ġà¦ħ à¦ľà§įà¦ŀ
Ġà¦ķà¦°à§ĭà¦¨à¦¾à¦Ńà¦¾à¦ĩ à¦°à¦¾à¦¸
à¦¾à¦Ĺà¦¡à¦¼ à¦¾à¦Ľ
Ġà¦Ĺ à¦²à¦¾à¦¯à¦¼
Ġà¦®à§ĭ à¦²à§įà¦²
Ġà¦¸à¦¾à¦¤ à¦ķà§įà¦·
a ce
Ġà¦°à¦¾à¦ľà¦¨à§Ģà¦¤ à¦¿à¦°
à¦¸ à§įà¦¬à¦°
à¦ªà§įà¦° à¦¤à§įà¦¯
Ġà¦ħà¦°à§įà¦¥ à¦®à¦¨à§įà¦¤à§įà¦°à§Ģ
Ġà¦«à§įà¦² à¦¾à¦ĩà¦Ł
Ġà¦ħà¦¸ à¦¾à¦§à¦¾à¦°à¦£
Ġà¦¸ à¦²
Ġà¦ľ à§ĭà¦¨
Ġà¦² à§ĩà¦¬
Ġà¦¤ à§ĭà¦°
à¥¤ à¥¤
Ġà¦ĩ à¦¬à¦¨à§ĩ
Ġà¦ĩà¦¨à¦¸à§įà¦Ł à¦¿à¦Łà¦¿à¦īà¦Ł
Ġà¦¸à¦¤à§įà¦¤à§įà¦¬ à§ĩà¦ĵ
Ġà¦ħà¦¬ à¦¶à§ĩà¦·à§ĩ
Ġà¦¤à¦ĸà¦¨ à¦ĩ
Ġà¦¨à¦¿à¦· à§įà¦ª
Ġà¦¹à¦¾à¦® à¦¿à¦¦
Ġà¦ªà¦ķà§įà¦· à§ĩà¦°
or g
Ġà¦¸à¦¤à§įà¦¯ à¦¿à¦ĩ
Ġà¦¹à¦¾à¦² à¦ķà¦¾
Ġà¦ļà§Įà¦§ à§ģà¦°à§Ģà¦°
Ġà¦ıà¦° à¦¶à¦¾à¦¦
t r
Ġà¦¸à§ĩà¦ķ à§ĩà¦¨à§įà¦¡
à¦¨ à¦¾à¦Ł
Ġà¦ľà¦¾à¦®à¦¾à¦¯à¦¼ à¦¾à¦¤
Ġà¦¸à§įà¦¬ à¦²à§įà¦ª
Ġà¦ķ à§Į
Ġà¦ļà¦® à§İà¦ķà¦¾à¦°
Ġà¦ħà§įà¦¯ à¦¾à¦Ł
Ġà¦¸à¦¨à§įà¦§ à¦¾à¦¨
Ġà¦¸à§įà¦¬ à¦¾à¦Ĺà¦¤
Ġà¦ªà§įà¦°à¦¾à¦ļ à§Ģà¦¨
Ġà¦¸ à¦¾à¦«
Ġà¦°à§ĭà¦Ĺ à§Ģà¦°
Ġà¦ĵà¦Ń à¦¾à¦°à§ĩ
Ġà¦¦ à¦¾à¦Ĺ
Ġ2 5
ĠâĢ Ķ
Ġà¦¸ à§ĩà¦ľ
Ġà¦ĩà¦¤à§ĭà¦® à¦§à§įà¦¯à§ĩ
Ġà¦ªà¦°à¦¿à¦¸à§įà¦¥ à¦¿à¦¤à¦¿à¦¤à§ĩ
Ġà¦¬à¦¿à¦ªà¦° à§Ģà¦¤à§ĩ
à¦¦ à§Ĥà¦¤
Ġà¦¸à¦¾à¦² à¦®à¦¾à¦¨
Ġà¦°à¦¾à¦·à§įà¦Łà§įà¦° à§Ģà¦¯à¦¼
Ġà¦ªà§įà¦° à¦¿à¦®
Ġà¦¨à¦¿à¦īà¦ľ à¦¿à¦²à§įà¦¯à¦¾à¦¨à§įà¦¡
Ġà¦¬ à§Ģà¦ľ
à¦¶ à§ĩà¦ĸ
Ġà¦¬à¦¿à¦ª à¦°à§įà¦¯
Ġà§© à§Ń
Ġ {
Ġà¦¬à¦¾à¦² à¦¿à¦ķà¦¾
à¦¡à¦¼ à¦¿à¦°
Ġà¦¹à§ĥà¦¦ à¦¯à¦¼
Ġà¦¬à¦¨à§įà¦¦à§įà¦¯ à§ĭà¦ªà¦¾à¦§à§įà¦¯à¦¾à¦¯à¦¼
an k
Ġà¦® à¦¾à¦ľ
Ġà¦« à¦¿
r ou
ĠB engali
Ġà¦ĸ à§įà¦¯à¦¾à¦¤
à§ģ à¦«
Ġà¦īà¦ĩà¦ķ à§ĩà¦Łà§ĩ
Ġà¦īà¦¦à§įà¦¯ à§ĭà¦ķà§įà¦¤
à¦Ĺ à§ĭà¦ª
Ġà¦ª à§ĩà¦¸
Ġà¦ĺà¦Łà¦¨ à¦¾à¦Łà¦¿
Ġà¦ĩà¦¤à¦¿à¦¹à¦¾à¦¸ à§ĩ
Ġà¦ķà¦¾à¦° à¦ĸà¦¾à¦¨à¦¾
à¦Ļà§įà¦ ĺ
Ø ¹
à¦ķ à¦¿à¦²
Ġà¦¸à§Įà¦¨à§įà¦¦à¦° à§įà¦¯
Ġà¦īà¦ĩ à¦¨à§įà¦¡
Ġà¦ªà¦¾à¦ł à¦ķ
à¦ĵà¦¯à¦¼ à¦¾à¦ľ
à¦ķ à¦¤à¦¾
Ġà¦¸à¦® à§Ĥà¦¹
Ġà¦« à¦¾à¦°à§įà¦®
2 9
à¦ªà§Ĥà¦°à§įà¦¬ à¦¬à¦°à§įà¦¤à§Ģ
à¦Ń à¦¿à¦¤à§įà¦¤à¦¿à¦ķ
Ġà¦Ľà§ģà¦Ł à§ĩ
Ġà¦Łà§įà¦°à¦¾à¦®à§įà¦ª à§ĩà¦°
Ġà¦®à§ģ à¦®à§įà¦¬
Ġà¦¸ à¦¾à¦¡à¦¼à¦¾
Ġà¦® à¦¾à¦¯à¦¼
Ġà¦¬à¦¿à¦ļà§įà¦Ľ à¦¿à¦¨à§įà¦¨
Ġà¦¬à¦¿à¦®à¦¾à¦¨ à¦¬à¦¨à§įà¦¦
Ġà¦¸à¦® à¦¿à¦¤à¦¿
Ġà¦ķ à§ģà¦ª
Ġà¦¨à¦¿à¦°à¦¾à¦ªà¦¤à§įà¦¤ à¦¾à¦°
Ġà¦ªà§įà¦°à¦¶à¦Ĥ à¦¸à¦¾
à¦¤ à¦¾à¦²
Ġà¦ª à¦¿à¦ł
Ġà¦¬à¦¿à¦¶à§įà¦¬à¦ķà¦¾à¦ª à§ĩ
à¦² à¦¿à¦ĸ
Ġà¦¬à¦¾à¦Ĥà¦² à¦¾à¦¯à¦¼
à¦¾à¦Ľ à§ĩ
Ġà§¦ à§ª
à¦ĸ à¦¾à¦²à§Ģ
Ġà¦²à¦¾à¦ĩ à¦«
Ġà¦® à¦¸à§įà¦¤
Ġà¦ķà¦° à§ĩà¦ĵ
à§ĩà¦ĩ à¦²à¦¿
Ġà¦¶à§įà¦° à¦®
à¦¿à¦¯à¦¼ à§ĩà¦Ľà¦¿à¦²
Ġà¦¬ à¦ī
Ġà¦ķà¦¾à¦Ľ à¦¾à¦ķ
Ġà¦¬à¦¾à¦ģ à¦¶
Ġà¦ľà¦¨ à¦¾à¦¬
Ġà¦¬à¦¾à¦Ľ à¦¾à¦ĩ
Ġà¦¬à§įà¦¯ à¦¾à¦¬
à¦¸à§įà¦¬ à¦¤à§įà¦¬
à¦® à§ĭà¦Ł
à¦¬à¦¿à¦ıà¦¨ à¦ªà¦¿
à¦¾à¦® à§ģà¦²
Ġà¦ıà¦²à¦¾à¦ķ à¦¾à¦¬
Ġà¦ıà¦ķà§įà¦· à§ĩà¦¤à§įà¦°à§ĩ
Ġà¦¹à¦¯à¦¼ à¦°
à§İ à¦¸
Ġà¦Ĩà¦²à§ĭà¦ļ à¦¨à¦¾à¦°
à§ĭ à¦«
Ġà¦¤ à¦¾à¦Ľà¦¾à¦¡à¦¼à¦¾
Ġà¦¦ à¦£à§įà¦¡
Ġà¦¸à§įà¦¬ à¦¯à¦¼à¦Ĥ
Ġà¦ĵà¦¯à¦¼à¦¾à¦¨ à¦¡à§ĩ
Ġà¦ľà¦® à¦¿à¦°
: :
à¦¤ à¦¾à¦¦à§ĩà¦°
00 3
Ġà¦ķà§ĭ à¦¡
Ġà¦ªà¦¶à§įà¦ļà¦¿à¦® à¦¬à¦Ļà§įà¦Ĺ
Ġà¦§ à§ĭà¦¨
Ġà¦¹à¦¯à¦¼ à¦¤
Ġà¦¦ à¦¾à¦ĵ
Ġà¦ħ à§įà¦¯à¦¾à¦¨
Ġà¦ı à¦²à§ĩ
Ġà¦Ĺà¦¾à¦¨ à§įà¦§
Ġà¦²à§ĩà¦Ĺ à§ĩ
Ġà¦īà¦ª à¦Ńà§ĭà¦Ĺ
à¦®à§įà¦® à¦¦
Ġà¦ĩà¦® à§ĩà¦ĩà¦²
Ġà¦ĸ à¦¨à§įà¦¦à¦ķà¦¾à¦°
Ġà¦ħ à¦¦
à¦ħà¦¨ à§ģà¦·à§įà¦ł
Ġà§© à§¨
Ġà¦¬ à¦°à§įà¦§
Ġà¦ļ à§ĩà¦¤
Ġà¦°à¦¾à¦¨ à§įà¦¨à¦¾
Ġà¦¸à¦Ĥà¦¬à¦¾à¦¦ à¦®à¦¾à¦§à§įà¦¯à¦®
à¦¹ à¦¯à¦¼
Ġà¦ªà§įà¦°à¦¤à§įà¦¯ à¦¾à¦¹à¦¾à¦°
à¦¿à¦¸ à§įà¦¥
à¦¾à¦¨ à§įà¦Ł
Ġà¦®à¦¹ à¦¾à¦ªà¦°
Ġà¦Łà¦¾à¦ĩ à¦Ĺà¦¾à¦°
Ġà¦ķà¦°à§įà¦® à¦°à¦¤
Ġà¦®à¦¾à¦¦à§įà¦° à¦¾à¦¸
Ġà§¨à§¦à§§à§ §
Ġà¦¨à¦¿à¦ļ à§ĩà¦°
Ġà¦ĸ à¦¾à¦ģ
Ġà¦ķ à§ģà¦ķ
à§įà¦¬ à¦¸à§įà¦¤
ĠR ead
Ġà¦ķ à¦¾à¦¤
Ġà¦ªà§įà¦°à¦¯à¦¼à§ĭà¦ľ à¦¨à§ĩ
Ġà¦¬à¦¾à¦Ĥà¦²à¦¾à¦¦à§ĩà¦¶ à¦ķà§ĩ
Ġà¦ĸ à¦¾à¦¤à§ĩà¦°
) -
à§ĩà¦¨à§įà¦Ł à§ĩà¦°
à¦¬ à¦¿à¦¸
à¦¾à¦Ń à§ģà¦ķà§įà¦¤
âĢĻ à¦Łà¦¿
Ġà¦²à¦ķà§įà¦· à¦£
Ġà¦®à¦¿à¦¯à¦¼à¦¾à¦¨ à¦®à¦¾à¦°à§ĩà¦°
à¦¯ à§Į
Ġà¦Ńà¦¾à¦· à¦¾à¦°
re e
à¦¬à¦Ļà§įà¦Ĺ à¦¬à¦¨à§įà¦§
à§ĭà¦°à§įà¦Ł à¦¸
Ġà¦ľà¦¿à¦¯à¦¼ à¦¾à¦ķà§ĩ
Ġà¦ľ à¦¿
Ġà¦Ĩà¦²à§ĭà¦ļ à¦¿à¦¤
Ġà¦Ĺ à§ģà¦ģ
Ġà¦Ł à§ĩà¦¨à§ĩ
Ġà¦¸à¦®à§įà¦Ńà¦¾à¦¬ à§įà¦¯
à¦ªà¦¾à¦¶ à§ĩ
Ġà¦ķà§ĭ à¦¯à¦¼à¦¾à¦°
à¦¾à §ĩ
Ġà¦¨ à§ĭà¦¯à¦¼
Ġà¦¯à¦¾à¦ļ à¦¾à¦ĩ
our s
Ġà¦¸à¦¿à¦²à§ĩà¦Ł à§ĩà¦°
Ġà¦īà¦ª à¦ķà¦¾à¦°
à¦¶à¦¿à¦²à§įà¦ª à§Ģ
X X
Ġà¦ħà¦§à¦¿à¦¦à¦ªà§įà¦¤ à¦°à§ĩà¦°
Ġà¦« à§ĩà¦¡à¦¾à¦°
à¤ ¾à
Ġà¦®à§ģà¦ķà§įà¦¤à¦¿à¦¯à§ĭ à¦¦à§įà¦§
Ġà¦ª à§ĭà¦·
Ġà¦ħà¦Ń à¦¿à¦·
à¦¿à¦¹ à¦¾à¦°
Ġà¦° à¦£
à¦¯ à¦¦à¦¿
à§Ģà¦ķà§įà¦· à
à§Ģà¦ķà§įà¦·à ¦
à§Ģà¦ķà§įà¦·à¦ ¾
Ġà¦ĸà¦¾à¦² à¦¿
Ġà¦° à¦ĵ
à¦® à§ĥà¦¤
à¦¾à¦ĵà¦¯à¦¼ à¦¾à¦¤
Ġà¦Ł à§ĩà¦°
Ġà¦ª à§ĩà¦°à§ĩ
Ġà¦¶à§Ģà¦°à§įà¦· à¦ķ
Ġà¦¦à¦¿à¦² à¦¾à¦®
à¦ª à¦¾à¦ł
Ġà§§à§¯ à§®
Ġà¦¬à¦Ļà§įà¦Ĺ à¦¾à¦¬à§įà¦¦
à§ģà¦² à¦¾à¦°
à§ģà¦¯à¦¼ à¦¾à¦²
Ġà¦¨ à¦¿à¦ª
Ġà¦¨à¦¦ à§Ģà¦¤à§ĩ
Ġà¦¹ à¦¾à¦ĵ
Ġà¦ķà¦¾à¦Ľà¦¾à¦ķ à¦¾à¦Ľà¦¿
Ġà¦¸à§įà¦¬à§ĩà¦ļà§įà¦Ľ à¦¾à¦¸à§ĩà¦¬
Ġà¦¯à¦¾à¦¬ à¦¤
Ġb lowjob
à¤¾à ¤
p e
Ġà¦®à¦¤ à¦¬à¦¿à¦¨à¦¿à¦®à¦¯à¦¼
Ġà¦ķ à¦¾à¦ģà¦¦
à¦¨ à¦¾à¦Ĺ
Ġà¦¬à¦¾à¦¡à¦¼ à¦¾à¦¤à§ĩ
Ġà¦¯ à§ģà¦¦à§įà¦§à§ĩ
Ġà¦Ľà§ĭà¦Ł à§įà¦Ł
Ġà¦ľà¦¿à¦ľà§įà¦ŀ à§ĩà¦¸
Ġà¦īà¦¦à§įà¦¬ à§ĩà¦Ĺ
Ġc om
Ġà¦ªà¦£ à§įà¦¯à§ĩà¦°
Ġà§¯ à§¦
Ġà¦¦à¦¾à¦ģà¦¡à¦¼ à¦¿à¦¯à¦¼à§ĩà¦Ľà§ĩ
Ġà¦¬à§įà¦°à¦¾à¦ľ à¦¿à¦²
Ġà¦ļà§ĩà¦¯à¦¼à¦¾à¦°à¦ªà¦¾à¦° à¦¸à¦¨
Ġà¦¤à§İ à¦ªà¦°
à¦ıà¦ķ à§įà¦¸
à§ĩà¦° à¦¹à¦¾à¦Ł
Ġà¦ĸà§įà¦° à¦¿à¦¸à§įà¦Ł
- à¦Ĺ
as h
à¦¶ à§ĩà¦¯à¦¼à¦¾à¦°
Ġà¦°à§ĩà¦ĸ à§ĩà¦Ľà§ĩà¦¨
à¦« à§ĩà¦¸à¦¬
Ġà¦ªà§įà¦°à¦¬ à¦²
à¦¿à¦« à§ĭà¦°
à¦Ńà§Ĥ à¦®à¦¿
Ġà¦ªà¦°à§įà¦¯ à¦Łà¦¨
Ġà¦¸ à§įà¦°
à¦¾à¦¬ à¦¨
à¦Ĩ à¦¬à¦¾à¦°
Ġà¦Ĩ à¦ķà¦¾à¦°
Ġà¦Ĩà¦² à¦¹à¦¾à¦ľ
à¦ª à¦¤à¦¿à¦°
Ġà¦¦à§Ĥà¦° à¦¤à§įà¦¬
Ġà¦łà¦¿à¦ķ à¦¾à¦¨à¦¾
Ġà¦§à¦¾à¦ķà§įà¦ķ à
Ġà¦§à¦¾à¦ķà§įà¦ķà ¦
Ġà¦§à¦¾à¦ķà§įà¦ķà¦ ¾
Ġà¦īà¦ª à¦¯à§ģà¦ķà§įà¦¤
à¦¿à¦Ĺ à¦¾à¦°
Ġà¦®à¦¾à¦® à¦²
Ġà¦ĩà¦²à§ĩà¦ķ à¦Łà§įà¦°
Ġà¦®à¦¾à¦¨à¦¬ à¦¿à¦ķ
Ġà¦¬à§įà¦° à§įà¦¯à¦¾à¦¨à§įà¦¡
Ġà¦Ĩà¦Ĺ à§ĩà¦ĵ
Ġà¦ĩà¦¨ à¦¿à¦Ĥ
à§¯ à§¯
Ġà¦ĵà¦ª à¦°à§ĩ
Ġà¦ªà¦°à¦¿à¦¬à¦°à§įà¦¤ à§ĩ
Ġà¦ħà¦¬ à¦²
Ġà¦ħà¦¨ à§ģà¦¬à¦¾à¦¦
Ġà¦¨à¦¿à¦°à§įà¦¯à¦¾à¦¤ à¦¨à§ĩà¦°
Ġà¦Ĺ à¦¾à¦°à§įà¦¡
à¦¾à¦¸ à¦®
Ġà¦Ĩà¦ĩà¦¨ à¦¶
Ġà¦¨ à¦¡à¦¼
Ġà¦ļà¦¾à¦ķ à¦°
Ġà¦¬à¦¿à¦¨ à¦¿à¦®à¦¯à¦¼
Ġà¦ªà¦° à¦ªà¦°
âĨ Ĵ
à§ª à§«
Ġà¦ħà¦¸à§įà¦Łà§įà¦°à§ĩà¦² à¦¿à¦¯à¦¼à¦¾
Ġà¦ī à¦¨à¦¿
Ġà¦Ĩà¦Ĺà§įà¦°à¦¹ à§Ģ
Ġà¦ªà§įà¦°à¦ķà¦¾à¦¶ à¦ķ
à¦² à§Ī
Ġà¦¸à§ģà¦® à¦¨
Ġà¦°à§ĩà¦ľ à¦¿à¦¸à§įà¦Łà§įà¦°
Ġà¦¸à¦®à¦¾à¦ľ à§ĩ
à§Ĥ à¦Ł
Ġà¦ĺà§ĭà¦· à¦£à¦¾à¦°
à¦¨ à¦¬
Ġà¦ħà¦¬à¦¸à§įà¦¥ à¦¾à¦°
Ġà¦ķà¦° à§įà¦£
Ġà¦ĸà§ĩà¦² à¦¾à¦§
Ġà¦¡ à¦¾à¦²
Ġà¦¸ à¦¿à¦¬
Ġà¦ĵà¦° à¦«à§ĩ
Ġà¦Ĳà¦¤à¦¿à¦¹ à§įà¦¯
Ġà¦® à¦¿à¦¯à¦¼à¦¾à¦°
Ġà¦ķ à¦¬à¦°
Ġà¦®à¦¾à¦Ľ à§ĩà¦°
Ġà¦Ĩà¦²à§ĭ à¦ķà§ĩ
Ġà¦¯ à§ĩà¦Łà¦¾
Ġà¦«à§ĭà¦¨ à§ĩ
Ġà¦ª à¦¾à¦ļà¦¾à¦°
à¦¿à¦® à¦¿
Ġà¦Łà§ĩà¦¬ à¦¿à¦²
Ġà¦Ńà§Ĥ à¦®
Ġà¦ıà¦¶ à¦¿à¦¯à¦¼à¦¾à¦¨
Ġà¦¬ à§ĩà¦¦
Ġà¦¦à¦¾à¦¯à¦¼ à§ĩ
Ġà¦ªà¦¤ à¦¾à¦ķà¦¾
Ġà¦¸ à¦¾à¦Ĺà¦°
à§ĭ à¦¤à¦¾
a v
Ġà¦¦à§ĩà¦ĸ à§ĩà¦Ľà¦¿
Ġà¦ıà¦¸ à¦ıà¦®
Ġà¦ĩà¦« à¦¤à¦¾à¦°
Ġà§¦ à§«
Ġà¦ķ à¦¾à¦¸à§įà¦Ł
h ri
à¦¾à¦ĩà¦Ń à§ĩà¦Ł
Ġà¦ī à¦ģà¦ļ
à¦¦à¦¾à¦¯à¦¼ à¦¿à¦ķ
Ġà¦®à§ĥà¦¤à§įà¦¯ à§ģà¦¦
Ġà¦¬à¦¿à¦¦ à§įà¦¯à§ģà¦¤
Ġà¦¸à§įà¦¬ à¦ľà¦¨
à¦¶à§įà¦¯ à¦¾à¦®
Ġà¦¦à¦¿à¦¯à¦¼ à§ĩà¦Ľà¦¿
Ġà¦®à§ĭ à¦¶à¦¾à¦°
à¦¾à¦°à§įà¦¥ à§Ģà¦¦à§ĩà¦°
Ġà¦ªà¦¾à¦° à¦Ń
Ġà¦¦à¦°à§įà¦¶ à¦ķ
à¦¸ à¦¾à¦®à§įà¦ª
Ġà¦¨à¦¿à¦°à§įà¦®à¦¾à¦£ à§ĩà¦°
Ġà¦īà¦ª à¦¾à¦ļà¦¾à¦°à§įà¦¯
Ġà§¦ à§Ń
à§° à§ĩ
Ġà¦ĸ à¦¾à¦ĵà¦¯à¦¼
Ġà¦ĩà¦² à¦¿à¦¶
Ġà¦¬à¦¿à¦¨ à¦¿à¦®
Ġà¦°à¦¾à¦¸ à§ĩà¦²
Ġà¦ª à¦¿à¦ª
à¦Ĩà¦ĩ à¦¨
Ġà¦Ĩà¦¬ à§ĩà¦Ĺ
Ġà¦¸à§ĭà¦¹ à§ĩà¦²
à¦¾à¦¶ à§ĩà¦°
Ġà¦ªà¦¿à¦Ľ à¦¨à§ĩ
Ġà¦ķà¦® à§ĩà¦Ľà§ĩ
Ġà¦ľà¦¾à¦¨ à¦¾à¦°
à¦¸à¦®à§įà¦ªà§įà¦° à¦¤à¦¿
à¦ĩ à¦ļ
Ġà¦« à¦ľ
à¦ĸ à¦¬à¦°
Ġà¦ĺ à§Ĥà¦°à§įà¦£
Ġà¦¬à§Īà¦¶ à¦¾à¦ĸ
Ġà§© à§¬
Ġà¦ıà¦² à§ĭ
ĠV i
à¦ĩà¦¯à¦¼ à¦°à§įà¦ķ
à¦¿à¦Ľ à§ģà¦°
Ġà¦ľà§ĭà¦Ł à§ĩà¦°
un e
Ġà¦Ĺ à§įà¦¯à¦¾à¦²
Ġà¦¸à¦¾à¦® à¦¨à§ĩà¦°
Ġà¦°à¦¾à¦ľ à¦¸à§įà¦¬
g le
à¦¬à¦¿à¦¦ à§ĩà¦¶
à¦°à§įà¦ª à¦£
à¦¾à¦Ĺ à¦¾à¦°
Ġà¦ªà¦¾à¦° à¦¬
Ġà¦ĵ à¦ķà§ĩ
Ġà¦Ńà§ĩà¦ Ļà§įà¦Ĺ
a ch
Ġà¦Łà§įà¦° à¦¾à¦ĩ
Ġà¦Ī à¦¶à§įà¦¬à¦°
Ġà¦¦à§ģà¦° à§įà¦¯à§ĭà¦Ĺ
Ġà¦¹ à¦¾à¦°à§ĩ
Ġà¦ķà¦° à¦¤à§ĩà¦ĩ
à¦¦à§įà¦Ń à§ģà¦¤
Ġm e
Ġà¦Ĩà¦¸ à¦¾à¦®à§Ģ
Ġà¦¦à¦° à¦¿à¦¦à§įà¦°
Ġà¦° à§ģ
Ġà¦Ľ à¦¿à¦Ł
Ġà¦° à¦¾à¦¨à¦¾
Ġà¦Ĩà¦¸à§įà¦¤ à§ĩ
à§ģà¦² à§ĩ
Ġà¦Ĩ à¦¯à¦¼à§ĩà¦°
Ġà¦®à¦¾à¦¤ à§ĥ
à¦¬à¦¾à¦Ĥà¦²à¦¾à¦¦à§ĩà¦¶ à§ĩ
à¦Ń à§ģà¦ķà§įà¦¤
à¦¾à¦ĩà¦¨ à¦¬à¦¾à¦¬
Ġà¦¤à¦¾à¦® à¦¿à¦®
Ġà¦°à¦¬à§Ģà¦¨à§įà¦¦à§įà¦° à¦¨à¦¾à¦¥
âĢ ¢
Ġà¦Łà§įà¦° à¦¾à¦¨à§įà¦¸
Ġà¦®à§ĩà¦¯à¦¼ à§ĩà¦ķà§ĩ
Ġà¦®à§ĭ à¦¹
Ġà¦°à¦¿à¦® à¦¾à¦¨à§įà¦¡
Ġà¦ªà§įà¦°à¦¥à¦® à¦¬à¦¾à¦°à§ĩà¦°
Ġà¦¯à§ģà¦¬ à¦²à§Ģà¦Ĺà§ĩà¦°
Ġà¦¦ à¦®à§įà¦ª
Ġà¦ħà§įà¦¯ à¦¾à¦®
à¦ķ à¦ķà§įà¦¸à¦¬à¦¾à¦ľà¦¾à¦°
à¦ı à¦¤à§ĩ
Ġà¦¶ à§ĭà¦¨
Ġà¦®à§ģà¦¶ à¦«à¦¿à¦ķ
Ġà¦¨ à§Ī
( );
à¦¦ à§Ģà¦°
Ġà¦ļà¦¿à¦ķà¦¿à§İà¦¸ à¦¾à¦§à§Ģà¦¨
Ġà¦®à¦ľ à§ģà¦®
à¦¶ à¦¾à¦²à§Ģ
Ġà¦¸à§ĩà¦¨à¦¾à¦¬ à¦¾à¦¹à¦¿à¦¨à§Ģ
Ġà¦īà¦¤ à§įà¦¥
à¦¾à¦² à§Ģà¦°
Ġà¦Ĺ à§įà¦¯
a i
Ġà¦®à§įà¦¯à¦¾à¦ľ à¦¿à¦¸à§įà¦Łà§įà¦°
Ġà¦¨à¦¿à¦¯à¦¼ à§ĩà¦ĵ
Ġà¦Ĩà¦¬à¦¹ à¦¾à¦ĵà¦¯à¦¼à¦¾
à¦¾à¦® à¦¾à¦°à§Ģ
à§ĭ à¦ķà¦¾à¦°
Ġà¦¨à§įà¦¯ à¦¾à¦¶à¦¨à¦¾à¦²
à¦¨ à¦¿à¦®
à¦¡ à¦¿à¦ľ
Ġà¦¤à¦¾à¦ªà¦®à¦¾à¦¤à§įà¦° à
Ġà¦¤à¦¾à¦ªà¦®à¦¾à¦¤à§įà¦°à ¦
Ġà¦¤à¦¾à¦ªà¦®à¦¾à¦¤à§įà¦°à¦ ¾
Ġà¦ª à§ģà¦·à§įà¦Ł
Ġà¦®à¦¾à¦¹ à¦«
à¦¹ à§ģà¦®
Ġ ;
Ð °
Ġà¦Ńà¦¿à¦¤ à¦°à§ĩ
Ġà¦¬à¦² à¦Ľà¦¿
at h
Ġà¦° à¦«à¦¿à¦ķà§ģà¦²
à§ĭà¦° à§ĩ
Ġà¦īà¦¤à§įà¦¤à§ĩà¦ľ à¦¨à¦¾
Ġà¦ľà¦® à¦¿à¦¤à§ĩ
Ġà¦ªà§įà¦°à§ĩà¦® à§ĩà¦°
Ġà¦ªà¦°à¦¿à¦¶ à§įà¦°à¦®
à¦¿à¦¯à¦¼ à¦¤
Ġà¦ªà§įà¦°à¦ļ à¦²à¦¿à¦¤
2 2
Ġà¦¬à§įà¦¯à¦¬ à¦§à¦¾à¦¨à§ĩ
Ġà¦¸à¦¾à¦ĩ à¦«
à¦ľà§Ģà¦¬ à¦¨
Ġ201 5
à¦ķ à¦¨
Ġà¦®à¦¹à¦¿à¦² à¦¾à¦°
= =
Ġà¦ĩà¦¨à§įà¦Łà¦¾à¦° à¦¨à§įà¦¯à¦¾à¦¶à¦¨à¦¾à¦²
Ġà¦¸à§ĩà¦¨à¦¾à¦¬ à¦¾à¦¹à¦¿à¦¨à§Ģà¦°
" ,
Ġà¦¸à¦® à¦¾à¦ªà§įà¦¤
à¦¶ à¦°
à¦°à§Ģ à¦£
Ġà¦¬à¦¾à¦Ĥà¦²à¦¾à¦¦à§ĩà¦¶ à§Ģ
Ġà¦¶ à¦¾à¦ķ
à¦°à¦¬ à¦¿à¦¬à¦¾à¦°
Ġà¦Łà§ĩà¦²à¦¿à¦Ń à¦¿à¦¶à¦¨
à¦¬à¦Ľ à¦°
âĢ¦ ]
à¦ķ à¦¯à¦¼
Ġà¦ķà¦® à¦ªà¦ķà§įà¦·à§ĩ
Ġà¦ĵà¦¯à¦¼à¦¾à¦° à§įà¦²à§įà¦¡
Ġà¦¨à¦Ĺ à¦¦
Ġà¦°à¦¹ à¦¿à¦®
Ġà¦ħà¦¨à§įà¦¯ à¦¦à§ĩà¦°
Ġà¦ļ à§įà¦¯à¦¾à¦Ł
Ġà¦ķà¦° à¦£
Ġà¦¬à¦° à¦¾à¦¬à¦°
Ġà¦¶ à¦Ļà§įà¦ķ
an s
Ġà¦ª à¦¾à¦¯à¦¼à§ĩ
à¦Ń à¦¾à¦ĩ
à§ĩà¦¶ à§įà¦¬à¦°
à¦¾à¦«à¦¿à¦ľ à§ģà¦°
el l
Ġà¦Ĩà¦ª à¦¾à¦¤
à¦¾à¦ģà¦ª à¦¾à¦ĩà¦¨à¦¬à¦¾à¦¬
Ġà¦¨ à¦¿à¦¶
à¦¯ à
Ġà¦ĩ à¦¨à§įà¦¦
à¦ľ à§įà¦ŀà¦¾à¦¨
Ġà¦ªà§ĥà¦¥à¦¿à¦¬ à§Ģ
Ġà¦Ĺà¦£ à¦¤à¦¾à¦¨à§įà¦¤à§įà¦°à¦¿à¦ķ
Ġà¦²à¦¿à¦ĸ à¦¤à§ĩ
Ġà¦īà¦¤à§įà¦¤ à¦®
à¦¯à ¦
à¦ĸà¦¾à¦² à§ĩà¦¦à¦¾
à¦¯à¦ ¾
Ġà¦ĩà¦° à¦¾à¦¨à§ĩà¦°
Ġà§¨à§¦ à§§à§¦
Ġà¦ªà¦° à¦¿à¦ª
à¦® à¦¾à¦®
Ġà¦®à§ģ à¦¸à§įà¦¤
à¦ľ à§ĩ
ĠC omments
à¦¸ à¦ķà¦²
Ġà¦¤à¦¿à¦¨ à¦ľà¦¨
Ġà§¦ à§¬
Ġà¦¬à§Į à¦¦à§įà¦§
Ġà¦¹à§įà¦¯ à¦¾à¦ģ
à¦ļ à§ĩà¦ŀà§įà¦ľ
à¦ķ à¦¾à¦¯à¦¼
Ġà¦¶ à§įà¦¬à¦¾à¦¸
à§ĩà¦¶ à¦¾à¦¦à¦¾à¦°
Ġà¦ħà¦§à¦¿à¦¦à¦ªà§įà¦¤ à¦°
Ġà¦¬à¦¿à¦¦à§įà¦¯à¦¾à¦² à¦¯à¦¼à§ĩ
Ġà¦ªà¦¦à§įà¦§ à¦¤à¦¿à¦¤à§ĩ
Ġà¦ªà¦¾à¦° à¦Ľà§ĩ
à¦¾à¦² à¦¯à¦¼
Ġà¦ªà¦°à¦¿à¦¸à§įà¦¥ à¦¿à¦¤à¦¿à¦°
Ġà¦ªà§įà¦°à§ĩà¦° à¦£
Ġà¦¸ à¦°à¦ŀà§įà¦ľ
Ġà¦®à¦¾à¦° à¦¾à¦¤à§įà¦®à¦ķ
à§įà¦° à¦¦à¦¾à¦¯à¦¼à¦¿à¦ķ
à¦¤ à¦²à¦¾
Ġà¦Ĺà§įà¦° à¦¾à¦®à§Ģà¦£
à¦° à¦ķà§įà¦·
à¦¬à¦¾à¦° à§įà¦¤à¦¾
Ġà¦ķà¦¾à¦°à§įà¦¯à¦¾à¦² à¦¯à¦¼à§ĩà¦°
la m
Ġà¦¨à§ĩà¦¤à¦¾à¦ķà¦°à§įà¦® à§Ģà¦¦à§ĩà¦°
Ġà¦Ń à¦¯à¦¼à§ĩ
Ġà¦ħà¦¶ à§įà¦²à§Ģà¦²
Ġà¦¸à§įà¦® à§ĥà¦¤
à¦¸ à¦¾à¦¤
Ġà¦¬à§įà¦¯à¦¬à¦¸à¦¾à¦¯à¦¼ à§Ģà¦¦à§ĩà¦°
Ġà¦°à¦Ļ à§ĩà¦°
Ġà¦Ľ à¦¾à¦¯à¦¼
Ġà¦¸ à§ĩà¦¸à¦¬
Ġà¦®à¦¹ à¦¾à¦ķ
Ġn ot
à¦¹ à¦¾à¦ľà¦¾à¦°
Ġà¦¸à§įà¦¬ à¦¤à§įà¦¬
Ġà¦ķà¦°à§įà¦® à¦ļà¦¾à¦°
à¦ªà§įà¦°à¦¤ à¦¿à¦¬
Ġà¦ªà§ĩà¦ģ à¦¯à¦¼à¦¾à¦ľ
Ġà¦²à¦¾à¦ĩ à¦Ń
Ġà¦®à§įà¦¯à¦¾à¦¨à§ĩà¦ľ à¦¾à¦°
Ġà¦® à¦°à§įà¦®
à¦¤ à¦¨à§ĩ
à¦¾à¦¸ à¦¿
Ġà¦ķà¦¾à¦° à¦¿à¦Ĺ
à¦ļ à¦¨à§įà¦¦à§įà¦°
Ġà¦ªà§įà¦°à¦¸ à¦Ļà§įà¦Ĺ
Ġà¦ĩà¦¸à¦²à¦¾à¦® à¦¿à¦ķ
Ġà¦Ĩà¦¨à§įà¦¦à§ĭà¦² à¦¨à§ĩ
Ġà¦¯à§ģà¦¦à§įà¦§ à§ĩà¦°
Ġà¦ªà§įà¦° à¦¬à¦¨à§įà¦§
à¦® à¦¨à§įà¦¡
Ġà¦ķ à¦ª
à§įà¦Ń à¦¬
à¦¨ à¦Ń
à¦ļà¦¾à¦° à§įà¦ľ
Ġà¦ªà¦°à¦¿à¦¬à¦°à§įà¦¤ à¦¨à§ĩà¦°
Ġà¦ļà¦°à¦¿à¦¤à§įà¦° à§ĩ
Ġà¦ĺà¦£ à§įà¦Łà¦¾à¦°
à¦¾à¦ł à¦¿
à¦īà¦ª à¦ľà§ĩà¦²à¦¾
Ġà¦¬à¦¿à¦¶à§įà¦²à§ĩà¦· à¦£
Ġà¦ħà§įà¦¯à¦¾à¦¡ à¦Ńà§ĭà¦ķà§ĩà¦Ł
Ġà¦ªà§įà¦°à¦¯à§ģà¦ķà§įà¦¤ à¦¿à¦°
Ġà¦Łà§ĩà¦ķà¦¨ à¦¾à¦«
à§ģà¦ĸ à§Ģ
Ġà¦Ĩà¦¬à¦¾à¦¸ à¦¿à¦ķ
à¦¶à§ģà¦§ à§ģ
Ġv ar
Ġà¦¹ à¦¾à¦«
Ġà¦Ńà§ĩà¦Ļà§įà¦Ĺ à§ĩ
Ġà¦Ń à¦Ļà§įà¦Ĺ
à¦¦ à§Ī
Ġà¦¸à§įà¦Łà§ĩà¦¡ à¦¿à¦¯à¦¼à¦¾à¦®à§ĩ
Ġà¦°à¦¾à¦¶ à¦¿à¦¯à¦¼à¦¾à¦°
à¦ª à§ĩà¦°
Ġà¦®à¦¿à¦ľ à¦¾à¦¨à§ģà¦°
Ġà¦¤à¦¾à¦²à§ģà¦ķ à¦¦à¦¾à¦°
Ġà¦«à¦¿à¦² à§įà¦®
Ġà¦®à¦°à§įà¦¯ à¦¾à¦¦à¦¾
Ġà¦ľà¦¨ à¦¸à¦Ĥà¦ĸ
Ġà¦¸à¦Ĥà¦¬à¦¾à¦¦ à¦¦à¦¾à¦¤à¦¾
Ġà¦¸à¦¾à¦® à¦¯à¦¼à¦¿à¦ķ
Ġà¦Ĩà¦¯à¦¼ à¦¾à¦¤
Ġà¦ľà¦¯à¦¼ à§Ģ
Ġà¦Ĩà¦ľ à¦ķà§ĩ
Ġà¦Ĺà¦ł à¦¨à§ĩà¦°
Ġà¦Ńà¦¬à¦¿à¦·à§įà¦¯ à¦¤à§ĩ
Ġà¦¨ à¦¾à¦ķ
Ġà¦¬à§įà¦¯à¦ķà§įà¦¤ à¦¿à¦¦à§ĩà¦°
en s
Ġà¦ª à¦¾à¦Ľ
Ġà¦ľ à¦¬à§įà¦¦
Ġà¦ķ à¦¾à¦ķ
Ġà¦ªà¦¾à¦°à§įà¦¥ à¦ķà§įà¦¯
à§ĭà¦ķ à
à§ĭà¦ķà ¦
à§ĭà¦ķà¦ ¾
Ġà¦ªà§įà¦°à¦ķà¦¾à¦¶ à§įà¦¯à§ĩ
Ġà¦ĩ à¦°à¦¾à¦¨
Ġà¦¬à¦ķà§įà¦¤ à§ĥà¦¤
ol d
à¦ªà¦° à§ĩà¦°
à¦¾à¦¤à§įà¦° à
à¦¾à¦¤à§įà¦°à ¦
à¦¾à¦¤à§įà¦°à¦ ¾
Ġà¦¸à¦®à§įà¦ª à¦¾à¦¦
Ġà¦¦à§ĥ à¦¢à¦¼
Ġà¦ª à§ĩà¦¨
Ġà¦ªà§ģà¦¨ à¦°à§įà¦¬
à¦¾à¦§ à
à§ĭà¦ª à
à§ĩà¦®à§įà¦¬ à¦°à§ĩ
à§Ĥà¦² à¦ķ
Ġà¦®à¦¿à¦² à¦¨à¦¾à¦¯à¦¼
Ġà¦ķà¦¾à¦² à¦¾à¦®
à¦¦ à¦¿à¦ķ
à¦¸à¦¦ à¦¸à§įà¦¯
à¦®à¦¾à¦° à§įà¦ļ
à§ĭà¦ªà ¦
à§ĭà¦ªà¦ ¾
à¦¾à¦§à ¦
ul y
à¦¾à¦§à¦ ¾
Ġà¦ıà¦ķ à§ĩà¦°
à§įà¦Ł à§ģ
Ġà¦ªà§ĥà¦¥à¦¿à¦¬ à§Ģà¦¤à§ĩ
oo d
Ġà¦ªà¦¾à¦ģà¦ļ à¦Łà¦¿
ou nt
Ġà¦ĩà¦¤ à¦¿à¦¹à¦¾à¦¸à§ĩà¦°
à¦¾à¦« à
à¦¾à¦«à ¦
à¦¾à¦«à¦ ¾
à¦² à¦ķà§įà¦·
Ġà¦ķà¦°à§įà¦® à¦¸à¦Ĥ
Ġà¦®à¦¾à¦¦ à¦°à¦¾à¦¸
) :
Ġà¦§ à¦¾à¦¨à§ĩà¦°
Ġà¦®à§ĩà¦¹ à§ĩà¦¦
Ġà¦ħà¦¸à§įà¦¤ à¦¿à¦¤à§įà¦¬
Ġà¦ķ à¦ķà§įà¦·à§ĩ
Ġà¦ĸ à¦¤
Ġà¦¬ à§ĭà¦°
Ġà¦® à¦ĵ
Ġà¦ªà§įà¦°à¦¤à¦¿à¦·à§įà¦ł à¦¾à¦¤à¦¾
in t
Ġà¦Ńà¦¾à¦ĩà¦° à¦¾à¦²
à§ĩà¦° à¦ĵ
Ġà¦¡à§ģ à¦¬à§ĩ
Ġà¦¸à¦®à§įà¦ªà§įà¦° à¦¦à¦¾à¦¯à¦¼à§ĩà¦°
âĢ ¡
Ġà¦¨à¦¾à¦¸ à¦¿à¦°
à¦ĵ à¦¸à¦¿
Ġà¦®à¦¸à¦ľ à¦¿à¦¦à§ĩà¦°
Ġà¦¯à§ģà¦¬ à¦ķà§ĩà¦°
Ġà¦¨à§ĭà¦Ł à¦¿à¦¶
Ġà¦Ń à§ĩà¦¸à§ĩ
Ġm ore
à¦°à§įà¦¤ à¦¨
Ġà¦¸ à¦¿à¦Ń
à¦° à¦¾à¦°
Ġà¦ħ à¦Ļà§įà¦ķ
à§ĩà¦ı à¦®
à¦¤ à§ģà¦®à¦¿
Ġà¦¬à¦¾à¦ ī
à§Ģ à¦¨à§ĩà¦°
Ġà¦®à¦¿à¦·à§įà¦Ł à¦¿
Ġà¦ªà¦ŀà§įà¦ļ à¦®
à§ģ à¦¨à§įà¦¨
Ġà¦ĸà§ĩà¦¯à¦¼ à¦¾à¦²
Ġà¦ħ à§įà¦¯à¦¾à¦¨à§įà¦Ł
Ġà¦¹à¦ĩ à¦¤à§ĩ
Ġà¦ħà¦¨à§ģ à¦Ńà¦¬
Ġà¦²à§ĭà¦ķ à§ĩà¦°
Ġa d
Ġà¦ªà¦°à¦¿à¦¸ à¦Ĥà¦ĸ
Ġà¦ĩà¦ī à¦Ł
Ġà¦ľà¦¾à¦« à¦°
à¦° à§ĭà¦¹à¦¿à¦Ļà§įà¦Ĺ
à§įà¦¶ à§įà¦¬
Ġà¦«à¦¾à¦ĩà¦¨ à¦¾à¦²
3 6
à¦ķ à¦¾à¦ľ
à¦¾à¦ª à¦¨à§ĩà¦°
ĠØ§ÙĦ ÙĦ
à§ĩà¦« à¦¾à¦ľ
Ġ Z
Ġà¦¹ à¦¾à¦ķ
à¦ķ à¦¥
or m
Ġà¦¹ à§ĩ
Ġà¦¦à§ĭà¦ķ à¦¾à¦¨à§ĩ
s c
à¦¸à¦®à§įà¦ª à¦¾à¦¦à¦¨à¦¾
Ġà¦® à§Ģà¦°
Ġà¦īà¦ł à¦Ľà§ĩ
Ġà¦¨à¦¿à¦² à§ĩà¦¨
Ġà¦¬à¦¿à¦ķà§įà¦° à¦¿à¦°
? âĢĻ
à§Ĥ à¦²à§ĩ
Ġà¦¸à§įà¦¬ à¦¾à¦¸à§įà¦¥
Ġà¦ªà§įà¦°à¦¤à§įà¦¯ à¦ķà§įà¦·
Ġà¦ľà¦¾à¦¤à¦¿à¦¸à¦Ĥà¦ĺ à§ĩà¦°
ÙİÙ Ĭ
Ġà¦®à¦¾à¦¶à¦°à¦¾à¦« à¦¿
Ġà¦ľà¦° à§ģà¦°à§Ģ
à¦« à¦¤à¦°
Ġà¦ĩ à¦¬à¦¨
Ġ[ âĢ¦]
Ñ Ģ
Ġà¦ıà¦ķ à¦Ł
Ġà¦ªà§Ĥ à¦ľà¦¾
Ġà§« à§¦à§¦
Ġà¦ķ à¦ªà¦¿
Ġà¦Ń à¦¾à¦¤
Ġà¦ķ à¦ĩ
Ġà¦ªà¦¤à§įà¦° à¦¿à¦ķà¦¾à¦°
Ġà¦¨ à¦ĩ
Ġà¦« à¦ľà¦²
à§Ģ à§°
Ġà¦ķ à§ĭà¦²
Ġà¦Ĺà¦¿à¦¯à¦¼ à§ĩà¦Ľà¦¿à¦²à§ĩà¦¨
Ġà¦¸ à¦¾à¦Ī
Ġà¦ª à¦¾à¦ĩà¦²
Ġà¦ªà¦°à¦¿à¦¸à¦Ĥà¦ĸ à§įà¦¯à¦¾à¦¨
Ġà¦ª à§ĭà¦²
Ġà¦Ĺà§įà¦°à¦¾à¦¹ à¦ķ
Ġà¦® à¦¾à¦Łà¦¿à¦°
à¦¦ à§Į
Ġà§§à§ª à§¨à§«
x x
Ġà¦Ńà¦¾à¦Ĺ à§įà¦¯
' à¦°
à¦² à¦¿à¦¶
ĠU pd
Ġà¦¬à¦¿à¦ªà§įà¦² à¦¬
Ġà¦īà¦ł à¦²
Ġà¦Ĩà¦¸ à¦¨à§įà¦¨
Ġà¦ļà¦¾à¦ķ à¦°à¦¿à¦°
Ġà¦Ĺà§ĩà¦² à¦¾à¦®
à¦¿à¦ľ à§Ģà¦¬
Ġà¦ħà¦ªà§ĩà¦ķà§įà¦· à¦¾à¦¯à¦¼
à¦¾à¦Ļà§įà¦Ĺ à¦¿à¦¨à§Ģ
Ġà¦¯à¦¾à¦ļ à§įà¦Ľà¦¿
Ġà¦Ń à§įà¦°à¦¾à¦®
Ġà¦Ł à§ĩà¦ķà§įà¦¸
Ġà¦Ń à§ģà¦Ĺ
Ġà¦°à§ģà¦¹ à§ģà¦²
à¦¿ à¦°à§įà¦¦
Ġà¦ķà§ģà¦° à¦Ĩà¦¨
Ġà¦ª à§ģà¦¡à¦¼
Ġà¦¸à¦¾à¦¹ à¦¸
à¦¨à§įà¦§ à§ĩ
à¦¬à¦¾à¦¸ à§Ģà¦°
Ġà¦¦ à¦°à§įà¦¶à¦¨
Ġà¦īà¦ªà¦¨à§įà¦¯ à¦¾à¦¸
Ġà¦°à§ĭà¦Ĺ à§ĩà¦°
à¦¾à¦¸ à§įà¦Łà§įà¦°
Ġà¦ķà¦® à¦²
Ġà¦®à¦ľ à¦¾à¦°
Ġà¦Ĺà¦¾à¦ľà§Ģ à¦ªà§ģà¦°
Ġà¦ªà§įà¦°à¦¤à§įà¦¯ à¦¾à¦¶à¦¾
Ġà¦¯à§ģà¦¬ à¦²à§Ģà¦Ĺ
Ġà¦¦à§ĩà¦ĸ à¦²à¦¾à¦®
Ġà¦¦à¦ķà§įà¦· à¦¤à¦¾
Ġà¦ħà¦Ĥà¦¶ à§ĩ
Ġà¦¸à¦®à§įà¦Ńà¦¬ à¦¤
Ġà¦ķ à¦¬à§ĩ
à¦¿à¦° à§ĭ
Ġà¦Ĩà¦¹ à¦¬à¦¾à¦¨
Ġà¦¤ à¦«
Ġà¦¸à¦Ĥ à¦¸à¦¾à¦°
Ġà¦Ĺ à¦²à¦¾
à¦¿à¦² à§ĩà¦¨
Ġà¦² à¦ŀà§įà¦ļ
Ġà¦° à¦¿à¦²
Ġà¦¨à¦¿à¦¹à¦¤ à§ĩà¦°
Ġà¦Łà§ĩà¦¸à§įà¦Ł à§ĩ
-à¦Ł à§ĭà¦¯à¦¼à§ĩà¦¨à§įà¦Ł
à¦¾à¦¦ à¦¿à¦°
Ġà¦¸à¦®à§įà¦ªà¦°à§įà¦ķ à§ĩà¦°
) {
Ġà¦ªà§ģà¦°à§ģà¦· à§ĩà¦°
Ġs e
à¦ª à¦¾à¦¤à§įà¦°
Ġà¦ķà¦® à¦¿à¦¯à¦¼à§ĩ
Ġà¦¦ à§ģà¦²
Ġà¦¸à¦¾à¦ĩ à¦«à§ģà¦²
à§įà¦Ł à¦¿à¦«
à¦¬ à¦¸à§įà¦¤
Ġà¦Ĩà¦¹à§įà¦¬ à¦¾à¦¯à¦¼à¦ķ
4 4
Ġà¦ķà§ĭ à¦·
Ġà¦¬ à¦ŀà§įà¦ļà¦¿à¦¤
Ġà¦¸à¦¾à¦° à§įà¦¬
u e
Ġà¦ķà¦°à§įà¦® à§Ģà¦°à¦¾
Ġà¦Ĩà¦¨ à¦¿à¦¸
Ġà¦ķà¦®à¦¿à¦īà¦¨ à¦¿à¦Łà¦¿
Ġà¦ªà¦¦ à¦¾à¦°à§įà¦¥
Ġà¦¬à¦¿à¦Ĺ à¦¤
Ġà¦ªà§įà¦°à¦ķ à§Įà¦¶à¦²
Ġà¦¡ à§ĩà¦Ļà§įà¦Ĺ
Ġà¦®à§ĭà¦Łà¦°à¦¸ à¦¾à¦ĩà¦ķà§ĩà¦²
- à¦¸à¦Ńà¦¾à¦ªà¦¤à¦¿
Ġà¦¬à¦² à¦²à§ĩ
Ġà¦¸à¦¿à¦¨à§ĩà¦® à¦¾à¦°
Ġà¦ıà¦¸ à¦Ĩà¦ĩ
Ġà¦¤à¦¬à§ģ à¦ĵ
Ġà¦ľà¦¨à¦Ĺ à§ĭà¦·à§įà¦ł
Ġà¦ħà¦Ńà¦¿à¦¯à§ĭà¦Ĺ à§ĩà¦°
Ġà¦® à¦¯à¦¼à¦¨
Ġ Ð
Ġà¦Ĩà¦² à§ĭà¦°
Ġà¦Ńà¦¿à¦Ł à¦¾à¦®à¦¿à¦¨
Ġà¦¯ à¦¾à¦¬à¦¾à¦°
Ġà¦ļ à¦¿à§İ
Ġà¦ªà§įà¦° à¦¾à¦ĩà¦Ńà§ĩà¦Ł
Ġw as
Ġà¦¦à§ĩà¦¶ à¦ķà§ĩ
Ġà¦Ĩà¦¬à¦¾à¦° à§ĭ
Ġà¦¦à§ģà¦°à§įà¦¨ à§Ģà¦¤à¦¿à¦°
à¦ĺà¦¾à¦¤ à§Ģ
Ġà¦ªà§įà¦°à¦¾à¦°à§įà¦¥ à§Ģà¦°
à§ģà¦¨ à§ĩà¦°
Ġà¦¬à¦¿à¦¬ à¦°à¦£
Ġà¦¸à§ĩà¦Ł à¦¾à¦ĩ
ĠM ay
Ġà¦Ĩà¦® à¦¿à¦ĵ
Ġà¦² à¦¿à¦Ĥà¦ķ
à¦¾à¦¨à§įà¦¡ à§ĩà¦°
Ġà¦¹à¦² à§ĩà¦ĩ
Ġà¦Ĩ à¦¡à¦¼à¦¾à¦ĩ
Ġà¦ªà§įà¦°à¦¦ à¦¾à¦¨à§ĩà¦°
Ġà¦ķà¦°à§ĭà¦¨ à¦¾à¦¯à¦¼
à¦¿à¦ª à§Ĥ
Ġà¦ıà¦ķ à¦¦à¦®
Ġà¦ĩ à¦Ļà§įà¦Ĺ
à¦¤à¦¾à¦° à¦ªà¦°
Ġà¦ľà¦° à¦¿à¦ª
à¦° à¦¾à¦¤à§ĩ
Ġà¦ĩ à¦¸à§įà¦Ł
Ġà¦īà¦¨à§įà¦® à§ģà¦ķà§įà¦¤
Ġà¦¸à¦Ĥà¦¶ à§ĭà¦§à¦¨
ĠÙ Ĭ
Ġà¦¸ à¦¿à¦Ł
Ġà¦ªà§ĩà¦¯à¦¼ à§ĩà¦Ľà¦¿
Ġà¦®à¦¾à¦¦à§įà¦° à¦¾à¦¸à¦¾
Ġà¦² à¦¿à¦Ļà§įà¦ķ
Ġà¦ħà¦¬ à¦¸à¦°
Ġà¦¸à§ģ à¦¬
Ġà¦¹ à¦Ł
âĢĿ à¥¤
Ġà¦¬à¦¾à¦¡à¦¼ à¦¾à¦¨à§ĭà¦°
Ġà¦¯ à¦¾à¦ķà§ĩ
Ġà¦¨ à¦¿à¦¤
à¦¶ à¦¾à¦²
Ġà¦ľà¦¾à¦ķ à¦¿à¦°
Ġà¦¬à¦¿à¦¬ à§ĥà¦¤à¦¿à¦¤à§ĩ
Ġà¦ļ à§ģà¦ª
Ġà¦¨ à§Ģà¦°
Ġà¦®à¦¨à§ĭà¦¨à¦¯à¦¼à¦¨ à¦ªà¦¤à§įà¦°
Ġà¦«à§ĩà¦² à¦¤à§ĩ
à¦ªà¦° à§įà¦¯
à¦¾à¦¯à¦¼ à¦¿à¦¤
Ġà¦ı à¦¡à¦¼
Ġà¦¸à¦Ĥà¦² à¦Ĺà§įà¦¨
Ġà¦« à¦°à§įà¦®
ur l
Ġà¦¨à¦¿à¦¶à§įà¦ļà¦¯à¦¼ à¦ĩ
Ġà§© à§ª
Ġà¦ħ à¦¹
Ġà¦¬à¦ĩ à¦¯à¦¼à§ĩà¦°
Ġà¦¬ à¦ķ
Ġà¦īà§İà¦¸ à¦¾à¦¹
o x
Ġà¦¡ à§ĩà¦®
Ġà¦ĵà¦¯à¦¼à¦¾à¦°à§įà¦¡ à§ĩà¦°
à¦¶ à§ģà¦°
à¦¾à¦® à¦¨à§įà¦¤à§įà¦°à§Ģ
à¦° à§ĭà¦Ĺ
Ġà¦²à¦¿à¦®à¦¿à¦Łà§ĩà¦¡ à§ĩà¦°
Ġà¦®à§ģà¦¸à¦²à¦®à¦¾à¦¨ à¦¦à§ĩà¦°
Ġà¦¡à§ĩà¦Ń à§ĩà¦²
Ġà¦¸à¦°à¦ŀà§įà¦ľ à¦¾à¦®
à¦¾à¦¨à§įà¦¡ à
à¦¾à¦¨à§įà¦¡à ¦
à¦¾à¦¨à§įà¦¡à¦ ¾
Ġà¦ªà§įà¦°à¦¤à¦¿à¦·à§įà¦ł à¦¾à¦¨à§ĩ
Ġà¦¤ à¦¹à¦¬
Ġà¦ķà§ĥà¦¤ à¦ľà§įà¦ŀ
Ġà¦ĸà¦¾à¦¬ à¦¾à¦°à§ĩà¦°
Ġà¦° à¦¾à¦īà¦¨à§įà¦¡
ap er
Ġà¦² à¦¿à¦Łà¦¨
à¦ķà¦² à¦ķ
Ġà¦Ĺà§ĥà¦¹ à¦¬à¦§
ik e
à¦° à¦¹
Ġà¦ķ à¦¾à¦¹à¦¿à¦¨à§Ģ
ĠO ct
Ġà¦ªà§įà¦°à¦¾à¦¯à¦¼ à¦ĩ
à¦ķ à¦°à§įà¦¤
Ġà¦Ĩà¦¨à§įà¦¤ à¦°à¦¿à¦ķ
Ġà¦¹ à§ĩà¦°à§ĩ
Ġà¦ĸ à¦¾à¦ĩ
Ġà¦¬à§ĩà¦ Ĩà¦ĩ
Ġà¦¨à¦® à§ģà¦¨à¦¾
Ġà¦ªà¦¾à¦° à¦Ľà¦¿
Ġà¦®à§Į à¦²à¦¿à¦ķ
Ġà¦¸à§Į à¦°
à§ĩà¦ķ à¦¶à¦¨
p ort
Ġà¦¯ à¦®
Ġà¦ıà¦ķà§įà¦¸ à¦ļà§ĩà¦ŀà§įà¦ľ
Ġà¦¦ à¦«à¦¾à¦¯à¦¼
f t
Ġà¦®à¦¿à¦¡ à¦¿à¦¯à¦¼à¦¾à¦¯à¦¼
à¦ıà¦ķ à¦ĩ
Ġà¦°à¦¾à¦·à§įà¦Łà§įà¦° à§ĩà¦°
à¦Ĺ à¦°à§ĩ
à¦ķà§ģà¦® à¦¾à¦°
Ġà¦¸ à¦Ļà§įà¦ķ
Ġà¦Ĺ à§ģà¦¦
Ġà¦¬à¦¾à¦¸ à§ĩà¦°
à¦¨à¦¿à¦°à§įà¦¬à¦¾à¦ļ à¦¨
Ġà¦ħà¦¸à§įà¦Łà§įà¦°à§ĩà¦² à¦¿à¦¯à¦¼à¦¾à¦°
Ġà¦ªà¦¡à¦¼ à¦²
ĠA M
Ġà¦īà¦ªà¦¸à§įà¦¥à¦¿à¦¤ à¦¿
Ġà¦¬à¦¾à¦¦ à§Ģ
Ġà¦Ĩà¦ĩà¦¨à¦¶ à§ĥà¦Ļà§įà¦ĸà¦²à¦¾
Ġà¦¸à¦¬ à¦ĩ
Ġà¦° à§Ģà¦¤
Ġà¦ª à§ģà¦²
Ġà¦¬à§įà¦¯à¦ķà§įà¦¤ à¦¿à¦ķà§ĩ
Ġà¦Ĺ à¦°à§įà¦¬
Ġà¦¯ à¦¾à¦ĵà¦¯à¦¼à¦¾à¦¯à¦¼
P osted
à§ģà¦ĸ à§ĩ
Ġ us
Ġà¦¦à§Ĥ à¦¤à¦¾à¦¬
Ġà¦īà¦² à§įà¦²à¦¾à¦¹
Ġ2 3
Ġà¦¬à¦¿à¦ķ à§įà¦°à¦¯à¦¼
Ġà¦Ĩà¦® à¦¾à¦¨
à¦¸à¦¾à¦®à§įà¦ª à§įà¦°à¦¤à¦¿à¦ķ
ub e
à¦¤à¦¾à¦ģ à¦°
Ġà¦¸à¦Ĥà¦ĸ à§įà¦¯à¦ķ
Ġà¦®à§Įà¦¸à§ģà¦® à§ĩ
à¦¾à¦¤ à§ĭ
à¦ħ à¦ķ
Ġà¦¤à§ĭ à¦²à§ĩ
à¦® à§ĩà¦Ł
Ġà¦¨à¦¾à¦° à§įà¦¸
Ġà¦® à§ĥ
Ġà¦¡ à§ĭà¦¨à¦¾à¦²à§įà¦¡
à¦¬à¦¾à¦°à§įà¦·à¦¿à¦ķ à§Ģ
Ġà¦ķ à§Ĥà¦Ł
Ġà¦¦à§Ĥ à¦·
Ġà¦ķà¦°à§įà¦¤ à¦¬à§įà¦¯
Ġà¦ļà¦Łà§įà¦Łà¦Ĺà§įà¦°à¦¾à¦® à§ĩ
Ġà¦ħà¦¨à§ģ à¦¶à§Ģà¦²
Ġà¦Ľà¦¿à¦¨ à¦¤à¦¾à¦ĩ
Ġà¦ªà§ģà¦¨ à¦°
Ġà¦ħà¦¤ à§Ģà¦¤
Ġà¦¬à¦¿à¦ķ à¦¾à¦²à§ĩ
Ġà§ª à§®
à§Ī à¦°
Ġà¦¤ à§ĩà¦ľ
Ġà¦ª à¦¿à¦ķ
à¦Ń à§ĭà¦Ł
Ġà¦¬à¦¾à¦¡à¦¼ à¦¤à§ĩ
à¦Ĩà¦² à§įà¦²à¦¾à¦¹
Ġà¦° à¦¿à¦¯à¦¼à¦¾à¦²
Ġà¦ľ à§ģà¦®
Ġà¦¤à§İ à¦ķà¦¾à¦²à§Ģà¦¨
Ġà¦¹ à§ĩà¦ģ
Ġà¦Ĩà¦¸ à§ģà¦¨
Ġà¦¬à§ĥà¦·à§įà¦Ł à¦¿à¦°
Ġà¦¬à¦¾à¦¡à¦¼ à¦¬à§ĩ
Ġà¦¸à¦Ĥà¦¬ à¦°à§įà¦§
à¦¨à§įà¦¨ à¦¾à¦¥
à§įà¦¬ à¦¿à¦°
Ġà¦¶à§ģà¦Ł à¦¿à¦Ĥ
Ġà¦¦à§ĩà¦ĸ à¦²à§ĩ
T ag
à¦¿à¦Ŀ à¦¡à¦¼
Ġà¦¸ à¦¿à¦ĩ
Ġà¦¸à§Ģà¦®à¦¾à¦¨à§įà¦¤ à§ĩ
Ġà¦ª à¦¾à¦¯à¦¼à§ĩà¦°
à¦°à¦¸ à¦¿à¦Ĥ
Ġà¦¬à¦² à¦²à§ĭ
à¦¦à§įà¦¬ à¦¿à¦¤à§Ģà¦¯à¦¼
à§ĭà¦¹ à¦¿à¦¤
ĠâĢ Ļ
Ġà¦¹à§ĭà¦Ł à§ĩà¦²à§ĩ
Ġà¦ķà§įà¦°à¦¿à¦ķà§ĩà¦Ł à§ĩ
ul t
Ġà¦Ńà¦¾à¦° à§Ģ
à§įà¦¯à¦¾à¦¯à¦¼ à¦¨
Ġà¦®à§įà¦¯à¦¾à¦ľà¦¿à¦¸à§įà¦Łà§įà¦° à§ĩà¦Ł
Ġà¦¨à§ĩà¦¤ à§įà¦°à§Ģ
Ġà¦Ńà¦¬ à¦¨à§ĩ
à¦® à¦¨à§ĩ
à§ĥ à¦ķà§įà¦¤
Ġà¦Ł à¦ª
Ġà¦ķ à¦ķà§įà¦·
Ġà¦¸à¦®à¦¾à¦¬à§ĩà¦¶ à§ĩ
à¦¬à¦¿à¦ıà¦¨ à¦ªà¦¿à¦°
Ġà¦¶ à§ĩà¦°
Ġà¦Ĺà§įà¦° à¦¹
Ġà¦ķà§ĭ à¦Łà¦¾
Ġà¦¬à¦¾à¦Ĺ à¦¾à¦¨
Ġà¦¤à¦¤à§įà¦¤à§įà¦¬ à¦¾à¦¬
Ġà¦ª à¦¾à¦¤à§įà¦°
Ġà¦« à§įà¦¯
Ġà¦ľ à§ģ
Ġà¦¶ à¦°à§įà¦®
Ġà¦ļ à§ģà¦®
Ġà¦¶ à§ĩ
Ġà¦ªà¦¡à¦¼ à¦²à§ĩ
Ġà¦¸à§ģà¦° à¦ķà§įà¦·à¦¾
Ġà¦¬à¦¿à¦¨à¦¿à¦® à¦¯à¦¼à§ĩ
Ġà¦¸ à¦¿à¦ıà¦¨
à§įà¦Ł à§ĩà¦°
Ġà¦Ĩà¦¦ à¦¿à¦¬
à¦ķà§įà¦· à¦¿à¦ªà§įà¦¤
Ġà¦¹ à§įà¦¯à¦¾à¦¨à§įà¦¡
iv es
Ġà¦¶à¦¿à¦¶à§ģ à¦ķà§ĩ
Ġà¦¸à¦Ĥ à¦ķà§įà¦°à¦®à¦£
Ġà¦Ĩà¦® à¦²
. à§«
Ġà¦¸ à§ĥ
à¦£à§įà¦¡ à¦²
à¦ľ à§ģà¦²à¦¾à¦ĩ
Ġà¦Ńà¦¾à¦¬ à¦¤à§ĩ
Ù Ĥ
- à¦ī
à¦¦ à¦¾à¦²
Ġà¦®à§įà¦¯ à¦¾à¦Ĺ
à¦¦ à§ģà¦¦
à¦¾à¦Ĺ à§ģà¦²
Ġà¦ľ à§įà¦ŀ
Ġà¦Ĩà¦® à¦²à§ĩ
à§Ń à§¦
à§įà¦°à¦® à§ĩ
Ġà¦¸à¦¨ à¦¦
à¦¾à¦ª à¦¾à¦¡à¦¼à¦¾
Ġà¦Ĩà¦ĩ à¦¡
Ġà¦Ĩà¦ĩ à¦¨à¦¿
Ġà¦¸à¦¤à§įà¦¯ à¦¤à¦¾
im es
Ġà¦īà¦ª à¦¸
Ġà¦ħà¦ķ à§įà¦¸
Ġà¦ķà§įà¦·à¦® à¦¤à¦¾à¦°
Ġà¦ª à¦¿
à§© à§©
à¦° à¦¾à¦¶
Ġà¦ªà¦¯à¦¼ à¦¸à¦¾
Ġ âĨĴ
Ġà¦¶à¦¾à¦¹ à¦¾à¦¦
à¦¸à¦Ĥ à¦ķà§įà¦°à¦¾à¦¨à§įà¦¤
à¦¾à¦® à¦¾à¦Łà¦¿
Ġà¦Ł à§ĩà¦®
- à§¬
Ġà¦īà¦ªà¦² à¦¬à§įà¦§
Ġà¦® à¦¿à¦īà¦ľ
Ġà¦¨à¦¿à¦° à¦ªà§ĩà¦ķà§įà¦·
à¦¾à¦¡à¦¼ à§Ģ
Ġà¦ī à¦²à§įà¦²
Ġà¦®à¦ľà§ģà¦® à¦¦à¦¾à¦°
Ġà¦¦à¦¿à¦¨ à¦¾à¦ľà¦ªà§ģà¦°
à¦Ń à
à¦Ńà ¦
Ġà¦® à¦¨à§įà¦¡
Ġà¦ª à§ģà¦¤
Ġà¦ķà§° à
Ġà¦ķà§°à ¦
Ġà¦ķà§°à¦ ¾
à¦Ńà¦ ¾
Ġà¦ªà¦¾à¦° à§įà¦¶à§įà¦¬
Ġà¦° à¦¾à¦Ļ
à§ĩà¦ª à¦¾à¦°
Ġà¦Ł à¦¿à¦Ń
Ġà¦¤ à§ģà¦ĩ
Ġà¦®à¦¹à¦¿à¦² à¦¾à¦¦à§ĩà¦°
à§ĩà¦¨à§įà¦¸ à¦¿
Ġà¦Ńà¦¾à¦¬ à¦¨à¦¾
Ġà¦ĩà¦¤ à¦¿à¦¬à¦¾à¦ļà¦ķ
Ġà¦Ĩ à¦Ļ
Ġà¦ªà¦¾à¦ł à¦¿à¦¯à¦¼à§ĩ
Ġà¦ªà§įà¦°à¦¾à¦°à§įà¦¥ à§Ģà¦¦à§ĩà¦°
Ġà¦¨à¦¾à¦ľ à¦®à§ģà¦²
h at
Ġà¦¬à§ĩà¦ ŀà§įà¦ļ
Ġà¦°à¦¾à¦¹ à§ģà¦²
Ġà¦¬à§įà¦¯à¦ķà§įà¦¤ à¦¿à¦¤à§įà¦¬
Ġà¦° à¦¿à¦Ł
Ġà¦¸ à¦¶
Ġ ÙĦ
Ġà¦Ń à§įà¦¯à¦¾à¦¨
Ġà¦¬à§įà¦¯à¦¾à¦Ł à¦¿à¦Ĥ
t ar
Ġà¦¸à¦® à¦Ŀ
Ġà¦Ł à¦¿à¦īà¦¬
Ġà¦ħà¦ľà§įà¦ŀ à¦¾à¦¤
Ġà¦ªà§įà¦°à¦¤à¦¿à¦¯à§ĭà¦Ĺ à¦¿à¦¤à¦¾à¦¯à¦¼
Ġà¦°à¦¾à¦ĸ à¦¬à§ĩà¦¨
Ġà¦Ńà¦¿à¦¤à§įà¦¤ à¦¿à¦ķ
Ġà¦¡ à¦¿à¦ıà¦¸à¦ĩ
à¦² à¦¨
Ġà¦Ń à¦Łà§įà¦Ł
Ġà¦ħà¦¬à¦² à¦®à§įà¦¬
ir st
, ,
Ġà¦¸à§ĩ à¦¬à¦¾à¦°
Ġà¦Ń à§Ģà¦·
Ġà¦ħà¦¨ à¦¿à¦¯à¦¼à¦®
à¦¬ à§ģà¦²
Ġà¦ľ à§ĩà¦°à§ĩ
Ġà¦ªà§įà¦°à¦¾à¦°à§įà¦¥ à¦¨à¦¾
Ġà¦¦à§ģà¦°à§įà¦¦ à¦¾à¦¨à§įà¦¤
à§įà¦¯à¦¾à¦Ł à§ĩà¦²
à§ĭà¦Ĺ à§įà¦°
à¦Ńà¦¾à¦°à¦¤ à§Ģà¦¯à¦¼
Ġà¦ħà§įà¦¯à¦¾à¦¸ à§ĭà¦¸à¦¿à¦¯à¦¼
Ġà¦¶ à¦¾à¦ķà¦¿à¦¬
Ġà¦ªà¦°à§įà¦¯à¦¬à§ĩ à¦ķà§įà¦·à¦£
Ġà¦ľ à¦¿à¦ª
à¦¾à¦£à§įà¦¡ à§ĩ
Ġà¦ħà¦² à¦¿à¦®à§įà¦ª
Ġà¦ľà¦¾à¦ª à¦¾à¦¨
Ġ un
Ġà¦ªà§įà¦°à¦¬ à¦£
Ġà¦ķà¦° à¦¤à§ĭ
à¦ªà¦¾à¦¶ à§ĩà¦°
à¦ķ à¦Ł
Ġà¦« à§įà¦¯à¦¾à¦ķà§įà¦¸
à¦® à§ĩà¦¨
à¦ķà§įà¦·à¦£ à¦¿à¦ķ
2 1
à¦¾à¦ļ à§įà¦Ľà¦¿à¦²
Ġà¦¨à¦¾à¦Ł à§įà¦¯
Ġà¦® à¦¾à¦ĩà¦²
own load
ĠâĢ ¢
Ġà§© à§®
Ġy our
ĠM ore
à¦· à¦§
à¦¿à¦² à¦¿
Ġà¦® à¦Ļà§įà¦Ĺà¦²
Ġà¦ļà¦ķà§įà¦° à¦¬à¦°à§įà¦¤à§Ģ
Ġà¦¸à§įà¦¬à¦°à¦¾à¦·à§įà¦Łà§įà¦° à¦®à¦¨à§įà¦¤à§įà¦°à§Ģ
Ġà¦īà¦¦à§įà¦¬ à§ĭà¦§à¦¨à§Ģ
Ġà¦¹à¦¸à§įà¦¤ à¦¾à¦¨à§įà¦¤à¦°
à¦¦ à¦¾à¦¨à§ĩà¦°
Ġà¦¸à¦¾à¦° à§įà¦Łà¦¿à¦«
Ġà¦ªà¦°à§įà¦¯ à¦¾à¦¯à¦¼
Ġà¦¬à¦¾à¦¨ à¦¿à¦¯à¦¼à§ĩ
Ġà¦°à§Ĥà¦ª à¦¾à¦¨à§įà¦¤à¦°
à§ĩà¦Ł à¦¿à¦Ń
Ġà¦¬à¦¾à¦¡à¦¼ à¦¾à¦¨à§ĭ
Ġà¦ĵ à¦®à¦°
Ġà¦¸à¦¦ à§įà¦¯
à¦ķ à§ĩà¦¨
Ġà¦®à¦ľ à
Ġà¦Ĩà¦ľ à¦ĵ
Ġà¦®à¦§ à§ģ
Ġà¦®à¦ľà ¦
Ġà¦®à¦ľà¦ ¾
à§ĩà¦ı à¦¸
Ġa b
Ġp r
à§ģà¦¬ à§įà¦§
à¦¡à¦¼ à¦¾à¦¯à¦¼
Ġà¦¸à¦¾à¦² à§įà¦²à¦¾à¦®
Ġm y
Ġà¦¸à¦ŀà§įà¦ļ à¦¾à¦²
Ġà¦¤à§įà¦¬ à¦ķà§ĩà¦°
Ġà¦Ł à¦¾à¦ķ
Ġà¦¸à§įà¦¬ à¦¾à¦¦
à¦®à§įà¦¬ à§ĩ
Ġà¦¨à§ĩà¦¬ à§ĩà¦¨
5 0
Ġà¦¸ à§ĭà¦¸
Ġà¦ķà¦°à§įà¦®à¦¸à§Ĥà¦ļ à¦¿à¦°
Ġà¦ıà¦ķ à§ģà¦¶
à¦«à¦¤ à¦°à§ĩà¦°
Ġà¦Ĺà¦¾à¦¡à¦¼ à¦¿à¦¤à§ĩ
Ġà¦ķà¦¾à¦Ł à¦¿à¦¯à¦¼à§ĩ
Ġà¦¹à¦¾à¦° à§ģà¦¨
Ġà¦ĵà¦ł à
Ġà¦ĵà¦łà ¦
Ġà¦ĵà¦łà¦ ¾
à¦¬ à¦¾à¦ľ
Ġà¦°à¦¾à¦·à§įà¦Łà§įà¦° à¦¦à§Ĥà¦¤
Ġà¦¬ à§ģà¦¡à¦¼
Ġà¦¶à§įà¦°à§ĩà¦£ à§Ģà¦°
Ø Ń
Ø Į
Ġà¦¬à¦¾à¦¨ à§įà¦§
à¦° à¦«
à¦ľ à§ģà¦°
Ġà¦°à¦¾à¦ľà¦¨à§Ģà¦¤ à¦¿à¦¤à§ĩ
Ġà¦®à§ĭ à¦ľ
Ġà¦¶à§Ģà¦°à§įà¦· à§ĩ
Ġà¦ªà¦° à§ĩà¦ĵ
Ġà¦Ĩà¦Ĺà¦¾à¦®à§Ģ à¦ķà¦¾à¦²
Ġà¦ªà¦°à§įà¦¯ à¦¾à¦ªà§įà¦¤
Â ©
à¦¸ à§įà¦°
Ġà¦ªà¦°à§įà¦¬ à§ĩ
Ġà¦¸à¦® à¦Ĺà§įà¦°
Ġà¦¬à¦¿à¦ľ à¦¿à¦¬à¦¿
à§ĩà¦Ł à¦¾à¦°
à¦¨à¦¿à¦® à§įà¦¨
à¦¿à¦Ľ à§ĩ
Ġà¦®à¦¿à¦¨à¦¿à¦Ł à§ĩà¦°
as e
Ġà¦¹à¦² à§ģà¦¦
it t
Ġà¦ĵà¦¯à¦¼à¦¾à¦¸ à¦¾à¦²
Ġà¦ķà¦°à§įà¦® à¦ļà¦¾à¦°à§Ģ
Ġà¦Ĺ à¦¾à¦°
Ġà¦¸à§ģà¦²à¦¤ à¦¾à¦¨
Ġà¦¨ à¦ķà¦²
Ġà¦ķà§įà¦·à¦®à¦¤ à¦¾à¦¸à§Ģà¦¨
à§Ĥ à¦®
Ġà¦ľ à§ģà¦Łà¦¿
Ġà¦ªà¦¾à¦ł à¦¾à¦¨à§ĭà¦°
à§įà¦¤ à¦¾à¦°à§ĩà¦°
Ġà¦Ł à§ĩà¦¨
Ġà¦ļ à¦¾à¦ĵà¦¯à¦¼à¦¾
at est
Ġà¦° à§ĭà¦®
à¦¸ à§ĩà¦¬à¦¾
Ġà¦²à¦¾à¦Ĺ à¦Ľà§ĩ
Ġà¦ªà§ģà¦²à¦¿à¦¶ à¦ķà§ĩ
Ġà¦ī à¦®à§įà¦®
Ġà¦ħ à¦¦à§įà¦Ńà§ģà¦¤
i re
Ġà¦²à¦¾à¦Ĺ à¦²
Ġà¦¬ à¦¨à§įà¦¯à¦¾
Ġà¦Ĩ à¦¯
Ġà¦ķà¦Ĥà¦Ĺà§įà¦°à§ĩà¦¸ à§ĩà¦°
à¦Ń à¦¾à¦²à§ĭ
à¦¾à¦ķ à¦¾à¦²à§ĩ
à¦¶ à§įà¦¬
Ġà¦°à§ĩà¦¡ à¦¿à¦ĵ
à¦¸ à¦ĩ
à¦¡à¦¼ à¦¿à¦¤à§ĩ
âĢĻ âĢĻ
Ġà¦¹à§ĭà¦¸ à¦¾à¦ĩà¦¨
Ġà¦® à¦¿à¦¤à§įà¦°
Ġà¦ĸà§ĩà¦² à¦¾à¦¯à¦¼
Ġà¦¨ à¦¾à¦¯à¦¼à¦ķ
à¦¾à¦¶ à§ĩ
Ġà¦ĩà¦Ļà§įà¦Ĺ à¦¿à¦¤
à§ĭà¦° à¦¿à¦¯à¦¼à¦¾à¦²
Ġà¦®à¦¿à¦²à¦¨à¦¾à¦¯à¦¼ à¦¤à¦¨à§ĩ
Ġà¦Ĩà¦® à¦¨à§įà¦¤à§įà¦°à¦£
à§ģà¦² à§įà¦ķ
à¦ªà§įà¦° à¦ļà§įà¦Ľà¦¦
Ġà¦ħà¦¡ à¦¿à¦ĵ
Ġà¦ķà¦®à¦¾à¦¨ à§įà¦¡à¦¾à¦°
Ġà¦ħà¦« à¦¾à¦°
Ġà¦¬à§ĩà¦Ĩà¦ĩ à¦¨à¦¿
Ġà¦¯à¦¾à¦¨à¦¬à¦¾à¦¹ à¦¨
à¦¾à¦ī à¦¦à§įà¦¦à¦¿à¦¨
Ġà¦¸à§Ĥà¦ļ à¦ķ
Ġà¦° à§ĩà¦«
3 3
à§ģà¦¬à¦¿à¦§ à
à§ģà¦¬à¦¿à¦§à ¦
à§ģà¦¬à¦¿à¦§à¦ ¾
à§Ģ à¦£
Ġà¦¨à¦¾à¦°à§Ģ à¦ķà§ĩ
c c
à§įà¦¸ à¦¨
Ġà§¨à§¦à§¦ à§¯
r am
Ġà¦ĩà¦īà¦¨à¦¿à¦¯à¦¼ à¦¨à§ĩ
Ġà¦¹ à§ĩà¦°
Ġà¦¸à¦Ń à§įà¦¯
- à¦«
Ġà¦ĺà¦£ à§įà¦Łà¦¾à¦¯à¦¼
Ġà¦¬à¦¿à¦¦à§ĩà¦¶ à§Ģ
p m
à¦¾à¦ľà¦¨ à¦ķ
ÙİØ §ÙĦ
à¦Ńà¦¾à¦· à
à¦Ńà¦¾à¦·à ¦
à¦Ńà¦¾à¦·à¦ ¾
Ġà¦Ĭ à¦°à§įà¦§à§įà¦¬
Ġà¦ªà¦°à§įà¦¯à¦¾à¦² à§ĭà¦ļà¦¨à¦¾
Ġà¦ªà§ģà¦ģà¦ľ à¦¿à¦¬à¦¾à¦ľà¦¾à¦°
. à§¦
Ġà¦¯à¦¾à¦¨ à¦ľ
Ġà¦ħà¦Ńà¦¿à¦¨ à¦¨à§įà¦¦à¦¨
à§ĭà¦ļ à¦¨
à§ĩà¦ ĥ
l l
à¦®à¦¾à¦¨ à¦¬
Ġà¦¯à§ģà¦ķà§įà¦¤ à¦¿
.... ....
à¦¿à¦ķ à§ĭ
. org
Ġà¦ľà¦¿à¦® à§įà¦¬
à¦¿à¦ı à¦ĩà¦ļ
à¦Ĩ à¦¹
Ġà¦Ĩà¦¶ à§įà¦¬à¦¾à¦¸
à¦Ĺà§ģà¦² à¦¿à¦¤à§ĩ
à§® à§®
Ġà¦¸à§įà¦¬ à¦ļà§įà¦Ľ
ÙĴ ÙĨ
Ġà¦¦à¦¾à¦¯à¦¼à¦¿à¦¤à§įà¦¬ à§ĩ
Ġà¦ªà§įà¦°à¦¤à¦¿à¦¶à§įà¦° à§ģà¦¤à¦¿
à§ĩà¦¨à§įà¦Ł à§ĩ
Ġà¦²à¦ķà§įà¦· à§įà¦®à§Ģ
Ġà¦«à¦¾à¦īà¦¨à§įà¦¡ à§ĩà¦¶à¦¨
à¦Ł à§ĩà¦¨
Ġà¦®à¦¾à¦¨à§ģà¦· à¦¦à§ĩà¦°
Ġà¦¯à§ģà¦Ĺ à§ĩ
Ġà¦ªà§° à
Ġà¦ªà§°à ¦
Ġà¦ªà§°à¦ ¾
' ).
Ġà¦ı à¦ª
Ġà¦ķà§ĩà¦¨ à¦¾à¦°
Ġà¦²à¦ķ à¦¡
le ct
à¦ħà¦¨à§įà¦¯ à¦¦à¦¿à¦ķà§ĩ
Ġà¦ľà¦¾à¦¨ à§įà¦¨
Ġà¦ªà¦¾à¦ĸ à¦¿
Ġà¦«à§ģà¦Łà¦¬ à¦²à¦¾à¦°
Ġà¦®à§Į à¦²à¦Ńà§Ģà¦¬à¦¾à¦ľà¦¾à¦°
Ġà¦ħà¦¨à§įà¦¯ à¦¾à¦¯à¦¼
Ġà¦ķ à¦¡à¦¼à¦¾
à¦® à¦¿à¦²
m an
Ġà¦¬à§Ī à¦·
Ġà¦¬à§įà¦¯à¦¾à¦° à¦¿à¦¸à§įà¦Łà¦¾à¦°
Ġà¦¦à§ĩà¦ĸ à¦¬à§ĩà¦¨
Ġà¦Ĩà¦° à§ĭà¦ª
Ġà¦ĩ à¦ŀà§įà¦ļ
Ġà¦¬à¦¿à¦¡ à¦¿
à¦ķà¦¾à¦° à¦£
Ġà¦¸à§įà¦¬à¦¾à¦°à§įà¦¥ à§ĩ
Ġ or
ĠO ff
Ġà¦¸ à§ĩà¦Ń
à¦® à§Ī
Ġ2 6
Ġà¦Ń à§ĩà¦ľ
Ġà¦ªà§ĩà¦° à¦¿à¦¯à¦¼à§ĩ
Ġà¦ĸ à¦²
à¦²à¦¾à¦ĩ à¦«
il d
Ġà¦ķà¦° à§įà¦¨
à¦¡ à¦¾à¦ķ
Ġà¦ħà¦¨à§ģà¦¸à¦¨à§įà¦§ à¦¾à¦¨
Ġà¦¸à§ĩà¦ľ à¦¨à§įà¦¯
Ġ2 00
Ġà¦°à¦¾à¦ľ à§įà¦ľ
Ġà¦Ĩà¦¬à§ĩà¦¦ à¦¨à§ĩà¦°
Ġà¦ķà§ĭ à¦¹
à¦¾à¦¬ à§ĩà¦Ł
Ù ģ
à¦¬ à¦¿à¦ª
Ġà¦« à¦¿à¦Ł
à¦¾à¦¤ à§ģà¦²
Ġà¦®à¦¹à¦¾à¦ªà¦° à¦¿à¦ļà¦¾à¦²à¦ķ
à¦« à¦Ł
Ġà¦¬à¦¾à¦¸ à¦¿à¦¨à§įà¦¦
à¦¸à¦Ĥ à¦¯à§ĭà¦Ĺ
ĠNov ember
Ġà¦¶à¦¿à¦°à§ĭà¦¨ à¦¾à¦®
Ġà¦ķà§ģà¦ª à¦¿à¦¯à¦¼à§ĩ
à¦Ń à¦¾à¦²
Ġà¦«à¦¿à¦² à¦¿à¦¸à§įà¦¤
Ġà¦Ĺ à¦¾à¦²
Ġà¦Łà¦¾à¦ĩ à¦®
Ġà¦¸à§ĥà¦·à§įà¦Ł à¦¿à¦°
à¦¾à¦Ń à¦¾à¦¬à§ĩ
Ġà¦ħà¦ªà¦¾à¦° à§ĩà¦¶à¦¨
à¦¾à¦¬ à¦¾à¦¦à§ĩà¦°
Ġà¦ħà¦Ń à§įà¦¯à¦¾à¦¸
Ġà¦¸à¦®à§įà¦ª à§ĥà¦ķà§įà¦¤
Ġà¦Ĩà¦¬ à¦¿à¦·à§įà¦ķà¦¾à¦°
à¦ļ à¦¿à¦ķ
Ġà¦° à§ģà¦¶
Ġà¦ªà§įà¦°à¦¤à§įà¦¯ à¦¾à¦¬
à¦¾à¦Ĺ à¦°à§ĩ
à§įà¦¬ à§ĩà¦·
Ġà¦®à§ĩà¦¸ à¦¿
Ġà¦ªà¦°à¦¿à¦ļ à¦¿à¦¤à¦¿
Ġà¦¬à¦¿à¦ļ à¦¾à¦°à§ĩà¦°
à¦¿à¦¤ à§ĩà¦ĵ
Ġà¦ªà§įà¦°à¦®à¦¾à¦£ à¦¿à¦¤
Ġà¦¦à§ģà¦°à§įà¦¬ à§ĥà¦¤à§įà¦¤
Ġà¦Ńà¦¬à¦¿à¦·à§įà¦¯ à§İ
Ġà¦¸à§įà¦Ł à§ĭà¦°
à¦¾à¦¯à¦¼ à§ĩà¦²
Ġà¦ķà¦²à¦ķ à¦¾à¦¤à¦¾à¦¯à¦¼
à¦Ĺ à¦¾à¦ľà§Ģ
à¦¾à¦Ń à¦¾à¦°
Ġà¦ı à¦¡à¦¼à¦¿à¦¯à¦¼à§ĩ
à¦¨ à¦¾à¦ķà§ĩ
Ġ X
Ġà¦¬à¦² à¦¬
Ġà¦®à¦¨à§ĭà¦¨ à§Ģà¦¤
à¦ª à¦¿à¦Ĥ
Ġà¦ľ à§ĩà¦²à§ĩ
Ġà¦Ŀ à¦¾à¦®
Ġà¦¦ à¦¾à¦¶
à¦¯ à§ģà¦Ĺ
Ġà¦¶ à¦¿à¦²
à¦¾à¦¶ à¦¿à¦Ĥ
Ġà¦¬à¦Ĺà§ģà¦¡à¦¼ à
Ġà¦¬à¦Ĺà§ģà¦¡à¦¼à ¦
Ġà¦¬à¦Ĺà§ģà¦¡à¦¼à¦ ¾
Ġà¦¦à¦¿à¦¬ à§ĩ
Ġà¦¯à§ĭà¦Ĺà§įà¦¯ à¦¤à¦¾
Ġà¦¯à§ĭà¦Ĺ à¦¦à¦¾à¦¨
Ġà¦Ĺ à¦Ļà§įà¦Ĺ
à¦® à¦¤à§ĭ
Ġà¦ħà¦¨ à§ģà¦·
Ġà¦¨ à¦¿à¦¤à§įà¦¯
Ġà¦¨à¦®à§įà¦¬ à¦°à§ĩ
à¦¨à¦¾à¦° à¦¿
à¦£ à§įà¦¯
Ġà¦¬à¦¿à¦· à¦¯à¦¼à§ĩà¦°
Ġà¦ī à¦¨à¦¾à¦°
o le
à¦ķ à§ĩà¦Ł
Ġà¦ļà¦¾à¦² à¦¾à¦¨à§ĭà¦°
Ġà¦¹à¦¬ à¦¿à¦Ĺà¦ŀà§įà¦ľ
Ġà¦¸à§įà¦¬ à¦¾à¦Ĺ
ĠÂ ©
Ġà¦ĵà¦¯à¦¼ à¦¾à¦ľ
ep t
Ġà¦Ń à¦¿à¦¸à¦¾
à§ĩà¦¶ à
à§ĩà¦¶à ¦
à§ĩà¦¶à¦ ¾
à¦¨ à¦ķ
Ġà¦¬à¦¿à¦®à¦¾à¦¨ à¦¬à¦¨à§įà¦¦à¦°
Ġà¦¬ à¦¾à¦ª
Ġà¦ªà§ĩà¦Ł à§įà¦°
Ġà¦Ĩà¦¬à§įà¦¦à§ģà¦² à§įà¦²à¦¾à¦¹
Ġà¦¨ à¦¥
Ġà¦ªà¦¾à¦ķà¦¿à¦¸à§įà¦¤ à¦¾à¦¨à¦¿
à¦¯ à¦¦à¦¿à¦ĵ
Ġà¦®à¦ŀà§įà¦ľ à§ģà¦°
Ġà¦¸à¦Ń à¦¾à¦°
Ġà¦Ĩ à¦Ļà§įà¦Ĺ
Ġà¦®à¦¾à¦° à¦§à¦°
Ġà¦ħà¦¬à¦¸à§įà¦¥ à¦¾à¦¨à§ĩ
Ġà¦¡ à§ĩà¦²
à¦ªà§įà¦° à¦¾à¦¯à¦¼
Ġà¦ħ à¦ļ
à¦¸à§įà¦¤ à¦¿
Ġà¦° à¦¬à¦¿
ÙİÙ ħ
Ġà¦ªà¦°à¦¾à¦ľ à¦¿à¦¤
ĠA pr
-à§¨à§¦à§§à§ ®
Ġà¦ĺà¦¨ à¦¿à¦·à§įà¦ł
à¦¬à§įà¦² à¦¿à¦ī
Ġà¦Ĩà¦«à§įà¦° à¦¿à¦ķà¦¾
Ġà¦¹ à
à§ĭà¦¬ à§ĩà¦²
Ġà¦¹à ¦
or k
Ġà¦ªà¦°à¦¿à¦®à¦¾à¦£ à§ĩ
Ġà¦¹à¦ ¾
à¦¦ à¦¿à¦°
à¦® à¦§à§įà¦¯
Ġà¦ķà¦¿à¦Ľà§ģ à¦ķà§įà¦·à¦£
Ġà¦® à¦¾à¦ķà§ĩ
Ġà¦ıà¦®à¦¨ à¦ĩ
Ġà¦ª à¦¿à¦°
Ġà¦ªà§įà¦°à¦¦à¦°à§įà¦¶ à¦¨à§Ģ
Ġà¦īà¦ģà¦ļ à§ģ
à¦¹à¦¤à§įà¦¯ à¦¾à¦°
à¦Ľ à¦¡à¦¼à¦¿
Ġà¦ħà¦Ńà¦¿à¦· à§ĩà¦ķ
Ġà¦¤à¦¾à¦¹ à¦¾à¦°
h an
Ġà¦ĩ à¦¬à§įà¦°
Ġà¦ķà¦¯à¦¼à§ĩà¦ķ à¦¦à¦¿à¦¨
201 8
à¦¸ à¦¨à§ĩà¦°
Ġà¦ľ à§ģà¦²
Ġà¦¹ à§ĩà¦«à¦¾à¦ľ
Ġà¦®à§ĩà¦ľ à¦°
Ġ2 1
Ġà¦¸à¦¾à¦° à§įà¦ļ
Ġà¦® à¦²
Ġà¦ªà¦°à¦°à¦¾à¦·à§įà¦Łà§įà¦° à¦®à¦¨à§įà¦¤à§įà¦°à§Ģ
Ġà¦ķà¦¨ à¦Ł
Ġà¦®à¦¾à¦¹ à¦«à¦¿à¦²
Ġà¦ªà§įà¦°à§ĩà¦® à¦¿à¦ķ
Ġà¦®à¦¿à¦¶ à¦¿à¦¯à¦¼à§ĩ
à¦¾à¦ĩ à¦«
à§Ģà¦ķ à¦°à¦£
Ġà¦ª à§ĩà¦¤
Ġà¦¸à§ĩà¦ĸà¦¾à¦¨ à§ĩà¦ĩ
à¦¤ à¦¾à¦®à§Ĥà¦²à¦ķ
Ġà¦¤à¦¾à¦²à¦¿à¦ķ à¦¾à¦Ńà§ģà¦ķà§įà¦¤
Ġà¦¸à¦¾à¦¹à¦¾à¦¯ à§įà¦¯à§ĩ
Ġà¦ķà§įà¦¯à¦¾à¦¨à§įà¦¸ à¦¾à¦°
Ġà¦¦à§ĩà¦ĸ à¦¾à¦¤à§ĩ
Ġà¦Ĺà§ģà¦² à¦¿à¦¤à§ĩ
Ġà¦ªà¦Ľà¦¨à§įà¦¦ à§ĩà¦°
Ġà¦ıà¦ķ à¦¥à¦¾
Ġ$ (
Ġà¦¬ à§ĭà¦²à¦¾à¦°
Ġà¦ħà¦§à§įà¦¯ à¦¾à¦¯à¦¼
Ġà¦°à¦® à¦ľà¦¾à¦¨
Ġà¦ĩà¦īà¦°à§ĭà¦ª à§Ģà¦¯à¦¼
Ġà¦ħà¦¸à¦® à§įà¦Ńà¦¬
à¦¬ à§ĩà¦ĩ
Ġà¦«à§įà¦² à§įà¦¯à¦¾à¦Ł
à¦¾à¦¤ à¦¾à¦¡à¦¼à¦¿
Ġà¦ªà¦°à§įà¦¯ à¦Ł
à¦¬à¦¾à¦¬ à§ģ
Ġà¦¤à¦¦à¦¨à§įà¦¤ à§ĩà¦°
ide o
Ġà¦¬à¦¨à§įà¦§à§ģ à¦¦à§ĩà¦°
Ġà¦¸à¦¿à¦Ń à¦¿à¦²
Ġà¦ľ à¦¯à¦¼à¦¨
Ġ ex
Ġs ex
Ġà¦® à§ĩà¦²à¦¾à¦¯à¦¼
Ġà¦¯à§ĩà¦ķ à§ĭà¦¨
Ġà¦¸ à§İ
Ġà¦Ĩà¦ĵà¦¯à¦¼à¦¾à¦®à§Ģ à¦²à§Ģà¦Ĺ
Ġà¦¸à§ģ à¦¨à§įà¦¨
Ġà¦ķ à¦Ł
Ġ3 0
Ġà¦¬à¦¿à¦¦ à§įà¦¯à¦®à¦¾à¦¨
ĠD aily
Ġà¦ĵà¦ª à§ĩà¦¨
Ġà¦ıà¦ķà§ĩà¦¬à¦¾à¦° à§ĩà¦ĩ
Ġh ave
p l
Ġà¦®à§ĥà¦¤à§įà¦¯à§ģà¦¦ à¦£à§įà¦¡
Ġà¦ĩà¦¨ à¦ļà¦¾à¦°à§įà¦ľ
ĠD ec
à¦¾à¦ª à¦¿à¦¤
Ġà¦®à§įà¦¯ à¦¾à¦ķ
à¦¯à¦¼ à§Ģ
à§įà¦¡ à¦¿à¦Ĥ
Ġà¦ķà¦® à¦¾à¦¤à§ĩ
Ġà¦ıà¦ķ à¦¦à¦²
Ġà¦¬ à¦°à§įà¦Ĺ
à§ĭ à¦¨à§įà¦¨
Ġà¦¬à¦¾à¦ĩ à¦°à§ĩà¦°
Ġà¦ªà¦°à¦¿à¦ļà¦¾à¦² à¦¨à¦¾à¦¯à¦¼
Ġà¦¬à§įà¦¯à¦¬à¦¸à¦¾à¦¯à¦¼ à§Ģà¦°à¦¾
Ġà¦§à¦¾à¦° à¦¾à¦¯à¦¼
à¦¾à¦Ĺ à§ģà¦²à¦¿
à¦¸à¦Ļà§įà¦Ĺ à¦¤
à¦Ĥ à¦ķà¦°
Ġà¦°à¦¾à¦ľ à¦¶à¦¾à¦¹
Ġà¦ķà§ĭà¦° à¦¿à¦¯à¦¼à¦¾à¦°
an ce
Ġà¦®à¦¾à¦¥ à¦¾à¦°
Ġà¦¶à¦¿à¦ķà§įà¦·à¦¾à¦°à§įà¦¥ à§Ģà¦°
à¦¨ à¦¿à¦¬
ĠVi ews
à¦¿à¦° à¦¹à¦¾à¦Ł
Ġà¦Ńà¦¿à¦¤ à¦°
Ġà¦ķà§° à¦¿
à¦¾à¦ķ à§Ģ
a f
Ġà¦®à§ģà¦ĸ à¦ªà¦¾à¦¤à§įà¦°
Ġà¦¶à¦¾à¦¸ à¦ķ
Ġà¦ļ à§ĩà¦ªà§ĩ
Ġà¦ľà¦¿à¦ľà§įà¦ŀà¦¾à¦¸ à¦¾à¦¬à¦¾à¦¦
Ġà¦ħà§įà¦¯à¦¾à¦ª à§įà¦²
à§įà¦¯à¦¾à¦ª à¦Łà¦ª
Ġà¦¹à§įà¦° à¦¾à¦¸
Ġà¦ľ à¦¿à¦¹
ab le
à¦¥ à§ģà¦¨
Ġà¦ħà¦Ń à¦¾à¦¬à§ĩ
Ġà¦ĵà¦ł à¦¾à¦°
Ġà¦ħà¦¨ à¦¨à§įà¦¯
Ġà¦ķà¦ĸà¦¨à§ĭ à¦ĩ
Ġà¦ķ à§ģà¦·à§įà¦Ł
à§ĩà¦®à§įà¦¬ à¦°à§ĩà¦°
à¦Ł à¦¾à¦ĵ
Ġà¦®à¦¾à¦¨ à§įà¦¨à¦¾à¦¨
ĠA n
Ġà¦¤à¦¾à¦° à¦ĩ
Ġà¦ľà¦¨ à¦¤à¦¾
Ġà¦°à¦¾à¦¶ à§ĩà¦¦
Ġà¦ķà¦° à¦Ľà¦¿à¦²à§ĩà¦¨
à¦¸ à¦¾à¦¯à¦¼
Ġà¦Ĺà§ĭà¦² à§įà¦¡
Ġà¦ħà¦ªà¦¹ à¦°à¦£
à¦¿à¦ľ à¦®
à¦¦ à¦¿à¦¬
Ġà¦¬à¦¨à§įà¦§ à§ĩà¦°
Ġà¦¨ à§Ĥ
Ġà¦¸à¦¿à¦°à¦¿à¦ľ à§ĩ
4 5
à¦¨à¦¾à¦° à¦¾à¦¯à¦¼à¦£
Ġà¦¹à¦¸à§įà¦¤ à¦ķà§įà¦·à§ĩà¦ª
à¦¤ à¦ĸà¦¨
à¦¾à¦® à¦¾à¦¯à¦¼
Ġà¦¶à¦¤ à¦¾à¦¬à§įà¦¦
Ġà¦¬à¦¿à¦ ¡à¦¼
à§ĩà¦ĸ à
à§ĩà¦ĸà ¦
à§ĩà¦ĸà¦ ¾
Ġà¦ħà¦Ńà§įà¦¯à¦¨à§įà¦¤ à¦°à§Ģà¦£
Ġà¦ĩà¦īà¦¨à¦¿à¦Ńà¦¾à¦°à§įà¦¸ à¦¿à¦Łà¦¿
à¦Ļà§įà¦Ĺ à¦¿
à¦ķà¦° à§ĭà¦¨à¦¾
à¦¿à¦¬ à¦¾à¦¦
Ġà¦¸à§įà¦ª à¦°à§įà¦¶
à¦¬à¦¿à¦¶à§įà¦¬ à¦ķà¦¾à¦ª
à§§à§ §à§
Ġà¦¡ à¦¿à¦«
Ġà¦¶à¦¿à¦ķà§įà¦· à¦ķà§ĩà¦°
Ġà¦Ī à¦¦à§ģà¦²
Ġà¦§à¦° à§ĩà¦¨
Ġà¦ªà¦¾à¦² à§įà¦Łà¦¾
Ġà¦ªà§įà¦°à§ĩà¦¸à¦ķà§įà¦² à¦¾à¦¬à§ĩà¦°
Ġà¦ĸà¦¬ à¦°à§ĩ
Ġà¦°à§ģà¦¬ à§ĩà¦²
Ġà¦ªà¦¦ à¦ķ
ï º
Ġà¦ª à§įà¦¯à¦¾à¦¨à§ĩà¦²
à¦¿à¦« à
à¦¿à¦«à ¦
Ġà¦Ń à§įà¦°
à¦¿à¦«à¦ ¾
à§ģ à¦¸à¦°
Ġ2 2
Ġà¦¸à¦Ĥ à¦ķà§įà¦·à¦¿à¦ªà§įà¦¤
Ġà¦ķà¦° à¦²à§ĩà¦ĩ
Ġà¦¸à¦¾à¦¹ à
Ġà¦¸à¦¾à¦¹à ¦
Ġà¦¸à¦¾à¦¹à¦ ¾
à¦¾à¦ķà¦¾à¦² à§Ģà¦¨
Ġà¦¯ à¦¾à¦¤à¦¾à¦¯à¦¼
9 9
Ġà¦ľ à¦Ĺà¦¤
à¦¸ à¦Ńà¦¾à¦°
Ġà¦Ĩà¦ªà¦¾à¦¤ à¦¤
Ġà¦« à¦¾à¦¤
Ġà¦ħ à¦¤à¦¿à¦ķà§įà¦°à¦®
Ġà¦ħà¦¨à§įà¦§ à¦ķà¦¾à¦°
à¦¿à¦ī à¦¶à¦¨
Ġà¦ķà¦°à§ĩà¦Ľà¦¿à¦² à¦¾à¦®
à¦¤à¦ĥ à¦ªà¦°
Ġà¦®à¦¨à§įà¦¤à§įà¦° à¦¿à¦¸
Ġà¦Ĩà¦¸ à¦°
Ġà¦¦ à§ĩà¦°
Ġà¦¬à§ĩà¦ķ à¦¾à¦°
à¦¾à¦Ł à¦¾à¦ĩ
Ġà¦ªà§įà¦°à¦¤à¦¿à¦°à§ĭà¦§ à§ĩ
à¦ªà¦ķà§įà¦· à§ĩà¦°
Ġà¦¥ à§ĩà¦®à§ĩ
à¦ľ à¦¿à§İ
Ġà¦Ľà¦¾à¦¡à¦¼ à¦¿à¦¯à¦¼à§ĩ
\ u
ob er
Ġà¦ªà§įà¦°à¦¿à¦® à¦¿à¦¯à¦¼à¦¾à¦°
Ġà¦¬à¦¾à¦° à§įà¦¤
Ġà¦Ĳà¦ķà§įà¦¯ à¦¬à¦¦à§įà¦§
Ġà¦¦à¦ªà§įà¦¤ à¦°
Ġà¦ıà¦ķà§įà¦¸ à¦ªà§įà¦°à§ĩà¦¸
Ġà¦ķà¦°à¦ªà§ĭà¦° à§ĩà¦¶à¦¨
à¦¾à¦¶ à¦ķ
ar k
Ġà¦®à§ĭ à¦Łà¦¾
Ġà¦ıà¦ĸà¦¨ à¦ĩ
Ġà¦² à¦¡à¦¼
Ġà¦ªà¦¶ à§ģ
Ġà¦Ń à§ĩà¦¬
Ġà¦Ĩ à¦ķà¦¾à¦°à§ĩ
Ġà§ª à§ª
Ġà¦¨ à¦¿à¦¨à§įà¦¦à¦¾
Ġà¦¸ à¦ĩ
Ġà¦®à§ĭ à¦¤à¦¾à¦¯à¦¼
Ġ Q
Ġà¦ļ à¦¾à¦ļ
à¦¬à§įà¦¯ à§ģà¦¨
Ġà¦² à§ĭà¦Ń
à¦ĺ à¦°à§ĩ
Ġà¦¨à§Ģà¦¤à¦¿à¦® à¦¾à¦²à¦¾
ÙĲ ÙĨ
Ġà¦®à§ģ à¦ł
Ġà¦Ĩ à¦ķà§įà¦°à¦®
à¦¾à§° à§ĩ
Ġà¦ļ à¦²à¦¾
à¦¬à¦¿à¦¨ à§ĭà¦¦à¦¨
Ġà¦¸à§įà¦¤à§įà¦°à§Ģ à¦ķà§ĩ
à µ
Ġà¦Ĺ à¦¨à§įà¦§
Ġà¦¸à¦¬ à¦ľà¦¿
à§ĩ à¦¬à¦¾à¦°
à¦¿à¦°à§įà¦¦ à¦¿à¦·à§įà¦Ł
Ġà¦Ĩ à¦¸à§įà¦¥à¦¾
Ġà¦ķà§ĭà¦°à§įà¦Ł à§ĩà¦°
Ġà¦Ńà§Ĥà¦®à¦¿à¦ķ à¦®à§įà¦ª
Ġà¦¬à¦¿à¦° à¦¤
Ġà¦ªà§įà¦°à¦¾à¦£ à§Ģ
ir l
Ġà¦Ĩà¦¬à¦¦à§ģà¦² à§įà¦²à¦¾à¦¹
Ġà¦¸ à
à¦¿à¦¹ à¦¿à¦¤
Ġà¦Ĺà§ģà¦² à¦¿à¦¬
Ġà¦¡ à§ģà¦¬
Ġc omment
Ġà¦ªà§įà¦°à¦¶à¦¾à¦¸ à¦¨à¦¿à¦ķ
Ġà¦¬à§įà¦° à¦¾à¦¹à§įà¦®à¦£à¦¬à¦¾à¦¡à¦¼
Ġà¦ªà§įà¦°à¦ľà¦¨à§įà¦® à§ĩà¦°
Ġà¦°à¦¾à¦ĸ à¦¬à§ĩ
Ġà¦¹à¦¾à¦¦à§Ģ à¦¸
Ġà¦ĸà§įà¦° à¦¿à¦·à§įà¦Ł
Ġà¦¸à¦Ĥà¦¬à¦¿à¦§ à¦¾à¦¨
hri Time
Ġà¦ħà¦¨à§įà¦¯ à§ĩà¦°
Ġà¦ªà§ģà¦° à¦¾à¦¤à¦¨
Ġà¦¬ à¦¯à¦¼à§ĩ
Ġà¦ª à¦°à§įà¦¨
Ġà¦ªà§įà¦² à¦¾à¦¸à§įà¦Ł
à¦ľ à¦¨à§įà¦®
Ġà¦® à§ģà¦²
Ġà¦ħà¦¨ à§ģà¦ķ
Ġà¦¬à¦¿à¦®à¦¾à¦¨à¦¬à¦¨à§įà¦¦ à¦°à§ĩ
Ġà¦¸à ¦
Ġà¦¶ à§ģà¦²à§įà¦ķ
4 8
Ġà¦¸à¦ ¾
Ġà¦¹ à§ģ
Ġà¦ħà¦Ĺà§įà¦¨ à¦¿à¦ķ
Ġà¦ļà¦¾à¦² à¦¾à¦¤à§ĩ
Ġà¦ĸ à¦¾à¦Ĺà¦¡à¦¼à¦¾à¦Ľ
Ġà¦Ń à¦°à§ĩ
Ġà¦¤à§Ī à¦°
à§ĭà¦¦ à¦¿à¦¤
à¦°à¦¾à¦ľ à§įà¦¯à§ĩà¦°
Ġà¦Ĺà§ģ à¦ªà§įà¦¤
Ġà¦¬à§įà¦¯ à¦¾à¦¨
Ġà¦ıà¦¸ à§ĩà¦Ľà¦¿
Ġà¦°à§ĭà¦Ĺ à§Ģà¦¦à§ĩà¦°
Ġà¦ªà¦¦ à§įà¦®à¦¾
à¦Ń à¦¬à¦¨à§ĩ
à¦Ł à¦¿à¦ĩ
à¦¸ à§ĩà¦°à¦¾
Ġà¦ĸ à§ģà¦ģ
Ġà¦¬à¦¾à¦ļà§įà¦ļ à
Ġà¦¬à¦¾à¦ļà§įà¦ļà ¦
Ġà¦¬à¦¾à¦ļà§įà¦ļà¦ ¾
Ġà¦¦à¦² à¦Łà¦¿à¦°
3 5
Ġà¦¸ à§ĭà¦®
u y
à¦ıà¦ķ à¦Łà¦¾
Ġà¦² à¦Ļà§įà¦ĺ
Ġà¦¬à¦² à§ĩà¦Ľà¦¿
à¦ķ à¦²à§ĩ
à¦¾à¦¹ à¦¿à¦®
Ġà¦¹ à§ĩà¦¨
à§ģà¦ķ à§ĩà¦°
à¦¿à¦ľ à§ĩà¦¨
- à§§à§¦
Ġà¦ħà¦¬ à¦¸
Ġà§© à§¯
Ġà¦¡à¦¿à¦Ń à¦¾à¦ĩà¦¸
Ġà¦² à¦¬à¦£
Ġà¦ħà¦¨ à§ģà¦¦
Ġà¦¦à§ĩà¦¶ à§Ģà¦¯à¦¼
à¦ķà§ģà¦® à¦¿à¦²à§įà¦²
à¦¬ à¦¿à¦ľà§įà¦ŀ
Ġà¦®à§ģ à¦Ľà§ĩ
Ġà¦ªà¦°à¦¿à¦¬à¦¾à¦° à¦ķà§ĩ
Ġà¦ĸà¦¾à¦¨ à¦¿à¦ķ
Ġà¦Ĩà¦«à§įà¦° à¦¿à¦ķà¦¾à¦°
Ġà¦¨à§ĩà¦¤à¦¾à¦ķà¦°à§įà¦® à§Ģà¦°à¦¾
à¦¡à¦¿à¦¸ à§ĩà¦®à§įà¦¬à¦°
à¦Ĩà¦° à§ĭ
Ġà¦¸à¦Ĥ à¦¯
à§ĭà¦ľ à¦¿à¦¤
Ġà¦¸à¦¾à¦°à¦¾à¦¦à§ĩà¦¶ à§ĩ
à¦¤à§įà¦¤ à
à¦¤à§įà¦¤à ¦
à¦¤à§įà¦¤à¦ ¾
@ g
/ w
Ġà¦Ńà§Ģà¦· à¦£
Ġà¦ªà¦¾à¦° à¦«à¦°à¦®
Ġà¦Ńà§ĭà¦Ł à§ĩ
Ġà¦®à§ĥà¦¤à§įà¦¯à§ģ à¦¤à§ĩ
Ġà¦¸à¦¾à¦¹ à¦¿à¦¤
à¦² à¦¸
à¦¹ à¦¾à¦®
Ġà¦ķà¦¥ à¦¾à¦ĵ
ÙİØ ¨
Ġà¦¨ à¦¿à¦¯à§ģà¦ķà§įà¦¤
à¦¬ à¦¾à¦²
Ġà¦ķ à¦¿à¦¡
Ġà¦¤ à¦²à§įà¦²
Ġà¦ıà¦ķ à¦¾à¦¨à§įà¦¤
Ġà¦ħà¦¨à§ĩà¦ķ à¦Łà¦¾à¦ĩ
Ġà¦§à¦° à¦¾à¦°
Ġà§« à§«
Ġà¦ıà¦¸ à§ĩà¦Ľà¦¿à¦²
Ġà¦¨à¦¿à¦ī à¦ĩà¦¯à¦¼à¦°à§įà¦ķ
à¦ª à¦¿à¦ĵ
à§ĩà¦ĩ à¦¸à¦¬
à¦ıà¦¨ à¦ĵ
Ġà¦ªà§įà¦°à¦¬ à§ĥà¦¦à§įà¦§
à¦ļ à¦¾à¦ģà¦¦
à§ĩà¦¨à§įà¦¸ à§ĩà¦°
ĠÙ Ĥ
Ġà¦¦ à¦¿à¦¯à¦¼à¦¾
Ġà¦¬à¦¸à§ģ à¦¨à§įà¦§
Ġà¦¨à¦¿à¦² à§ĩ
à¦Ń à§Ģà¦°
à¦¨à¦¾à¦° à§Ģ
Ġà¦Ł à¦¾à¦ĵà¦¯à¦¼à¦¾à¦°
Ġà¦® à§ĩà¦ķ
à¦ı à¦ªà§įà¦°à¦¿à¦²
Ġà¦¤à¦¾à¦°à¦ªà¦° à¦ĵ
Ð ¾
Ù ī
à¦¿à¦¶ à¦¨à§ĩà¦°
à§įà¦¯ à§ģà¦°
th er
Ġà¦¶à§įà¦° à¦¦à§įà¦§
Ġà¦ĸ à§ĭà¦²
Ġà¦ªà§įà¦°à¦¤à¦¿à¦·à§įà¦ł à¦¾à¦°
ĠB D
g e
à¦Ł à¦¿à¦ĵ
à¦¸à§ģ à¦«
Ġà¦ķà¦¥ à¦¾à¦ĩ
Ġà¦ª à¦¾à¦¡à¦¼à¦¾
à¦¹ à¦¾à¦¦
Ġà¦¸à§ĩà¦ķà§įà¦¸ à¦¿
Ġà¦¬à¦¿à¦² à¦¿à¦¯à¦¼à¦¨
Ġà¦§ à¦¾à¦ª
Ġà¦²à§ĩà¦Ĺ à§ĩà¦Ľà§ĩ
Ġà¦ıà¦ķ à¦¤à§įà¦°
Ġà¦¬à¦¿à¦¬à§ĩà¦ļ à¦¨à¦¾à¦¯à¦¼
à¦¿à¦¸ à§ĩ
Ġà¦ķà¦° à§ĭà¦¨à¦¾à¦°
à¦ľ à§ģà¦¨
Ġà¦¬à§ĩà¦ Ļà§įà¦Ĺ
Ġà¦ķà§įà¦¯ à¦¾à¦¡
Ġà¦ħà¦ª à§ĩà¦¶à¦¾à¦¦à¦¾à¦°
Ġà¦¸ à¦¿à¦¡
Ġà¦ĵà¦¯à¦¼à¦¾à¦¸à¦¾à¦² à§įà¦²à¦¾à¦®
Ġ à¦¯à¦¼
Ġà¦¬à§įà¦¯ à¦¾à¦Ļà§įà¦ķ
Ġà¦¸à¦®à¦¯à¦¼ à¦ĩ
u k
à¦ªà§įà¦° à¦¤à¦¿
ĠU n
Ġà¦¬à¦¯à¦¼ à¦¸à§ĩà¦°
A N
Ġà¦ľ à¦ľ
Ġà¦Ń à§ģà¦Ł
à§ĭà¦¨à¦¾à¦² à¦¦
u ary
@g mail
Ġà¦°à§ĩà¦ľ à
Ġà¦°à§ĩà¦ľà ¦
Ġà¦°à§ĩà¦ľà¦ ¾
Ġà¦ľà¦¾à¦¨ à¦¾à¦ĩ
Ġà¦ĩà¦¨à§įà¦¡ à¦¾à¦¸à§įà¦Łà§įà¦°
Ġà¦¶à¦° à¦¿à¦«
à¦¾à¦ĩ à¦°
Ġà¦īà§İà¦¸à¦¬ à§ĩà¦°
al er
Ġà¦ľà¦® à§ĩ
Ġà¦¤à§ĥà¦£à¦®à§Ĥà¦² à§ĩà¦°
Ġà¦Ĩà¦ª à¦¤à§įà¦¤à¦¿
à¦« à§ĩà¦¬à§įà¦°
à¦¤ à¦¿à¦·à§įà¦ł
Ġà¦¯à§ģà¦ķà§įà¦¤à¦°à¦¾à¦·à§įà¦Łà§įà¦° à§ĩ
Ġà¦ķà¦¾à¦ľ à¦Łà¦¿
Ġà¦¸à¦¨à§įà¦¤ à§ģà¦·à§įà¦Ł
à¦¿à¦Ĺ à¦Ĺà¦¿à¦°
Ã ł
I n
Ġà¦ªà§įà¦° à§ĭà¦Ł
Ġà¦Ĺà§įà¦° à¦¹à¦¨
Ġà¦¨ à§ĥ
B y
ĠAr ch
Ġà¦Ĩà¦¬ à¦¦à§ģà¦°
à¦¬à¦¾à¦¯à¦¼ à§ģ
e ct
in ut
à¦¸à¦² à¦¿à¦®
à¦ĸ à¦¾à¦¸à§įà¦¤
Ġà¦¨ à¦¨à§įà¦¦
Ġà¦ĩà¦¨à¦¿à¦Ĥ à¦¸à§ĩ
Ġà¦® à¦£
à¦ª à¦¤
Ġà¦ļ à¦ķ
Ġà¦ļà¦¾à¦² à¦¾à¦¨
à¦¾à¦ªà¦° à¦¾à¦§
à¦Ľ à§ĭà¦Ł
Ġà¦¸à¦¹ à¦¾à¦¯à¦¼à¦ķ
à¦²à§ĩ à¦®
à¦ªà§įà¦° à¦¾à¦£
à¦ķà¦° à§ĭà¦¨
Ġà¦¦à¦¿à¦¬ à¦¸à§ĩ
Ġà¦Ĩà¦ķà¦°à§įà¦·à¦£ à§Ģà¦¯à¦¼
Ġà¦ĩà¦Ĥà¦²à§įà¦¯à¦¾à¦¨à§įà¦¡ à§ĩà¦°
à¦ª à
à¦¾à¦¸ à¦¿à¦¨
Ġà¦¦à¦¾à¦° à¦¿à¦¦à§įà¦°
Ġà¦¸à¦®à¦¸à§įà¦¯ à¦¾à¦¯à¦¼
Ġd o
à¦ı à¦ĸà¦¾à¦¨à§ĩ
Ġà¦Ĺà¦¬à§ĩà¦· à¦£à¦¾à¦¯à¦¼
Ġà¦īà¦¤à§įà¦¤ à§ĭà¦²à¦¨
Ġà¦¸à§ĩà¦ŀà§įà¦ļ à§ģà¦°à¦¿
à¦¶ à¦¹
à¦¾à¦¡à¦¼ à¦¾à¦¯à¦¼
à¦¥ à¦¾à¦¯à¦¼
à¦ªà ¦
à¦ªà¦ ¾
!! !!
Ġà¦ĩà¦īà¦¨à¦¿à¦Ł à§ĩà¦°
à¦¾à¦ĩà¦Ł à§ĩà¦¡
à§ĭà¦² à¦ľà¦¿
ĠâĢ Ŀ
Ġà¦ıà¦¸ à¦ıà¦¸à¦¸à¦¿
à¦Łà§įà¦° à¦Ĺà§įà¦°à¦¾à¦®
à¦ľ à¦¾à¦²
à¦² à§ģ
Ġà¦¬à¦¨à§įà¦§ à§ģà¦¤à§įà¦¬
Ġà¦¸à¦¿à¦ķ à¦¿à¦īà¦°
à§įà¦¯à¦¾à¦² à¦ĺ
âĢ İ
Ġà¦¹à¦¯à¦¼ à§ĩà¦Ľà¦¿
Ġà¦ķ à¦¾à¦«
Ġà¦¬à§įà¦¯à¦¾à¦Ĥà¦ķ à¦¿à¦Ĥ
Ġà¦ĩà¦¨à§įà¦¸ à¦Ł
Ġà¦ľà§įà¦¬à¦¾à¦² à¦¾à¦¨à¦¿
Ġp orn
it le
p er
à§įà¦° à¦¤
Ġc an
Ġà¦¦à¦¿à¦²à§įà¦² à¦¿
à¦® à¦§à§įà¦¯à§ĩ
ept ember
Ġà¦Ĩà¦²à¦¹à¦¾à¦ľ à§įà¦¬
à§įà¦¯ à¦ķà¦°
e ch
Ġà¦¸ à§įà¦¯à¦¾à¦Łà§ĩà¦²
à¦¸ à¦¿à¦®
Ġà¦Ĩà¦°à¦¬ à§ĩà¦°
Ġà¦ķ à¦ªà¦¿à¦°à¦¾à¦ĩà¦Ł
Ġà¦Łà§įà¦°à¦¾à¦ĩ à¦¬à§įà¦¯à§ģà¦¨
Ġà¦ħà¦ªà¦°à¦¾à¦§ à§ĩ
à¦¬ à§ĩà¦²
Ġà¦ª à§ģà¦¡à¦¼à§ĩ
Ġ 01
Ġà¦Ĺ à¦¾à¦§à¦¾
Ġà¦ļ à§ĩà¦¨
Ġà¦¬à§ĩà¦ ¹
à¦®à§ĭ à¦ĥ
à¥¤ "
Ġà¦ļà§Ģ à¦¨à¦¾
Ġà¦¦à§ĥà¦·à§įà¦Ł à¦¾à¦¨à§įà¦¤
Ġà¦ļà¦¾à¦® à¦¡à¦¼à¦¾
à¦²à§ĩà¦ĸ à¦ķ
Ġà¦ªà¦°à¦¿à¦¬ à§ĩà¦¶à¦¨
Ġà¦ªà¦¡à¦¼à¦¾à¦¶ à§ĭà¦¨à¦¾
Ġà¦ĵà¦¯à¦¼à§ĩà¦¬à¦¸à¦¾à¦ĩà¦Ł à§ĩà¦°
âĢĮ à§įà¦¯à¦¾à¦²
Ġà¦° à§ĩ
Ġà¦¦à¦² à¦Łà¦¿
à¦¸à§įà¦¥ à¦¾à¦¯à¦¼
à¦ļ à
Ġà¦īà¦ªà¦ķ à§Ĥà¦²
à¦®à§Ī à¦¥à§ģà¦¨
à¦ļà ¦
à¦ļà¦ ¾
Ġà¦¨à¦¾à¦¯à¦¼ à¦¿à¦ķà¦¾
Ġà¦ªà§įà¦° à¦¾à¦Ļà§įà¦Ĺ
Ġà¦¤à§įà¦¬ à¦ķ
Ġà¦ĵà¦¯à¦¼à§ĩà¦¬à¦¸à¦¾à¦ĩà¦Ł à§ĩ
la y
Ġà¦īà¦¤à§įà¦¤ à¦°à§ĩ
à¦ıà¦ķ à¦ľà¦¨
à¦¾à¦Ń à¦¾à¦¸
Ġà¦ļà¦¾à¦ĩ à¦¤à§ĩ
Ġà¦¨à§ĩà¦¤ à§įà¦°
à§ª à§©
Ġà¦ª à§įà¦¯
Ġà¦¸à§Ĥ à¦°à¦¾
Ġà¦ħà¦ª à¦¸à¦¾à¦°à¦£
à¦¾à¦¹ à§Ģà¦¨
à¦¿à¦² à¦®à§įà¦¬à§ĩ
Ġà¦ķà¦¾à¦® à¦°à§ģà¦²
Ġà¦Ĩà¦Ĺ à¦·à§įà¦Ł
à¦¬ à§ĩà¦²à¦¾
Ġà¦ıà¦¶ à¦¿à¦¯à¦¼à¦¾à¦°
Ġà¦Ľ à§ĭà¦ģ
Ġà¦¬à¦² à§ģà¦¨
Ġà¦¸à§įà¦¯à¦¾à¦Łà§ĩà¦² à¦¾à¦ĩà¦Ł
Ġà¦¨à¦¿à¦°à§įà¦® à¦¾à¦¤à¦¾
Ġà¦®à¦¾à¦¸ à¦¿à¦ķ
ic al
à¦¸à§įà¦ķ à§įà¦°
Ġà¦ī à¦¡à¦¼à¦¿à¦¯à¦¼à§ĩ
Ġà¦¨à¦¾à¦Ĺ à¦¾à¦¦
à¥¤ '
à¦¦à¦¿à¦¨ à§ĩ
Ġà¦¸à¦¾à¦°à§įà¦Łà¦¿à¦« à¦¿à¦ķà§ĩà¦Ł
Ġà¦Ńà§ĭà¦° à§ĩ
à¦¨ à¦ķà§ĩ
à¦Ĥ à¦ķà¦¾à¦°
a ct
Ġà¦ķà§° à¦¿à¦¬
à¦¦à§Ģ à¦°à§įà¦ĺ
Ġà§§à§¯ à§¬
à¦ķ à¦¥à¦¾
à¦ª à¦¾à¦Ł
Ġà¦¨à¦¿à¦°à§įà¦¦à§ĩà¦¶ à§ĩ
Ġà¦¶à¦¤à§įà¦° à§ģ
Ġà¦ļ à¦¿à¦¨à¦¿
Ġà¦¸à¦®à§įà¦ªà§įà¦° à¦¸à¦¾à¦°à¦£
Ġà¦ľà¦¹ à¦¿à¦°
à¦« à¦²à§ĩ
ig n
Ġà¦¬à¦¾à¦¸à§įà¦¤à¦¬à¦¾à¦¯à¦¼ à¦¨à§ĩà¦°
Ġà¦¯à¦¾à¦ģ à¦°à¦¾
ĠR ep
à¦¸ à§ĩà¦ªà§įà¦Łà§ĩà¦®à§įà¦¬à¦°
à¦¾à¦¸ à¦¨à§ĩà¦°
Ġà¦Ķ à¦·à¦§
Ġà¦¸à¦¾à¦ľ à
Ġà¦¸à¦¾à¦ľà ¦
Ġà¦¸à¦¾à¦ľà¦ ¾
Ġà¦¬à¦¿à¦¬ à¦¿à¦¸à¦¿
à¦ħà¦ķ à§įà¦Łà§ĭà¦¬à¦°
à¦¾à¦® à¦¨à¦¿
Ġà¦ķà§įà¦¯à¦¾à¦° à¦¿à¦¯à¦¼à¦¾à¦°
Ġà¦ļà¦¾à¦ķ à¦®à¦¾
ĠF eb
à§ģà¦¨ à¦¾à¦°
Ġà¦ķà§įà¦°à¦¿à¦ķà§ĩà¦Ł à§ĩà¦°
Ġà¦² à¦¿à¦ĵ
à§ģà¦ļ à¦¿
Ġà¦¬à¦¾à¦¸ à§ĩ
à¦ª à¦°à§įà¦¬
Ġà¦¶à¦¿à¦° à§ĭà¦ªà¦¾
à¦ľ à¦¾à¦°à§įà¦®
Ġà¦ľ à§įà¦¯à¦¾à¦ķ
Ġà¦¸à¦® à§įà¦°
Ġà¦¸à¦®à§įà¦ª à¦¤à§įà¦¤à¦¿
Ġà¦ħ à¦ªà§įà¦°
à¦¬ à¦ĩ
Ġà¦¨à§ĩà¦¤à§ĥà¦¤à§įà¦¬ à¦¾à¦§à§Ģà¦¨
à ¸
à¦ľ à¦¿à¦¤
Ġà¦¬à§įà¦¯à¦¬à¦¸à§įà¦¥ à¦¾à¦°
Ġà¦¬à¦¾à¦ģà¦ļ à¦¾à¦¤à§ĩ
à¦ħà¦¨à§ģà¦·à§įà¦ł à¦¾à¦¨à§ĩ
à¦¶à§įà¦¯à¦¾à¦® à¦¾à¦Ļà§įà¦Ĺà¦¿à¦¨à§Ģ
Ġà¦ļà¦¾à¦ģà¦¦ à¦ªà§ģà¦°
à§ģà¦® à¦¨à§įà¦¤à§įà¦°à§Ģ
Ġà¦¸à¦°à§įà¦¬ à¦¸à§įà¦¬à¦¤à§įà¦¬
Ġà¦°à§ĭà¦Ĺ à§ĩ
h ak
à¦¨ à¦¨à§įà¦¦
à¦®à§ģà¦ĸ à§Ģ
Ġà¦¤ à§ĩà¦ĵ
Ġà¦¬à¦¾à¦ģà¦§ à
Ġà¦¬à¦¾à¦ģà¦§à ¦
Ġà¦¬à¦¾à¦ģà¦§à¦ ¾
Ġà¦¸ à§įà¦¯à¦¾à¦®
Ġà¦ªà¦²à§įà¦² à§Ģ
à§Ń à§§
Ġà¦¬à§ĭà¦² à¦¿à¦Ĥ
3 8
Ġà¦ķà¦¾à¦ľ à§ĩà¦ĩ
à¦¶ à¦¾à¦²à¦¾
à¦¿à¦Ĺà§įà¦° à¦¾à¦®
Ġà¦¬à¦¿à¦° à¦ķà§įà¦¤
Ġà¦ħà¦ľ à¦¾à¦¨à¦¾
Ġà¦ª à¦¿à¦¤
à¦¨à¦Ń à§ĩà¦®à§įà¦¬à¦°
3 7
Ġà¦ħà¦Ĺà§įà¦° à¦Ĺà¦¤à¦¿
à§« à§«
Ġà¦¨à¦¾à¦® à§įà¦¬à¦¾à¦°
à¦īà¦² à§įà¦²à¦¾à¦¹
Ġà¦¨à¦¿à¦ļ à§įà¦Ľà§ĩà¦¨
à¦¬ à§ĭà¦°à§įà¦¡
Ġà¦ļà§ĩà¦¯à¦¼ à§ĩà¦ĵ
Ġà¦¸à¦¾à¦ª à§ĭà¦°à§įà¦Ł
à¦ıà¦¬ à¦Ĥ
à¦ªà§įà¦² à§ĩà¦Ł
Ġà¦Ĩà¦¹à¦® à§įà¦®
Ġà¦¸à¦¾à¦ĩà¦Ł à§ĩ
à¦Ĺ à¦¾à¦®à§Ģ
à¦ĩà¦¸à¦² à¦¾à¦®
à¦ªà¦¤à§įà¦° à§ĩà¦°
Ġà¦īà¦ĩà¦ķ à¦¿à¦ª
- à¦¸à¦¹
à¦ĸ à§ĩà¦²
Ġà¦°à§ĭ à¦®à¦¾à¦¨
Ġà¦ķ à§ĩà¦²
Ġà¦¸à¦®à§įà¦ª à¦¾à¦¦à¦¨à¦¾
à¦¾à¦ĩ à¦¨à§ĩà¦°
Ġà¦¨à¦¾à¦® à¦¿à¦¯à¦¼à§ĩ
Ġà¦ľ à¦°à§įà¦ľ
Ġà¦īà¦¦à§įà¦¦ à§Ģà¦¨
à¦ªà§įà¦°à¦¤ à¦¿à¦¨à¦¿à¦§
ĠP ost
à¦ı à¦¸à¦®à¦¯à¦¼
Ġà¦Łà¦¾à¦° à§įà¦Ĺ
Ġà¦®à¦ŀà§įà¦ļ à§ĩ
Ġà¦®à¦¾à¦¨ à¦¨à§Ģà¦¯à¦¼
Ġà¦ªà§įà¦°à¦¿à¦¨ à§įà¦¸
b e
Ġà¦¸ à§įà¦¯
Ġ201 4
Ġà¦ªà¦¦ à§įà¦®
Ġà¦Ĩà¦Ĺà§ģà¦¨ à§ĩ
Ġà¦°à¦¿à¦ľ à¦Ńà§Ģ
Ġà¦®à¦¹ à¦¾à¦°
Ġà¦®à¦¸à§įà¦¤ à¦¿à¦·à§įà¦ķ
à¦ª à¦®à§ĩà¦¨à§įà¦Ł
Ġà¦¸à¦Ĥà¦¬à¦°à§įà¦§ à¦¨à¦¾
à§ģà¦° à§įà¦¤
Ġà¦¸à¦Ļà§įà¦Ĺ à§Ģ
Ġà¦¹à¦¾à¦ĩà¦ķà§ĭà¦°à§įà¦Ł à§ĩà¦°
Ġà¦ıà¦ķ à¦¾à¦īà¦¨à§įà¦Ł
Ġà¦īà¦ª à¦ķà¦°à¦£
Ġà¦¡à§įà¦° à¦¾à¦ĩà¦Ń
Ġb d
Ġà¦² à§įà¦¯à¦¾à¦ªà¦Łà¦ª
à¦¦à§įà¦¬ à§Ģà¦ª
Ġà¦® à¦¯à¦¼à¦¦
Ġà¦¤à¦¾à¦° à¦¾à¦ĩ
Ġà¦°à¦¿à¦Ń à¦¿à¦ī
Ġà¦² à¦¿à¦¡
Ġà¦° à¦«à¦¤
b ook
à¦§ à¦¨
ĠA ug
à¦¾à¦ī à¦¥
ĠR e
Ġà¦¬à¦¾à¦¬ à§ģà¦²
Ġ up
Ġà¦ħà¦¨à§įà¦¤ à¦°
Ġà¦² à§įà¦¯
Ġà¦¬à¦¾à¦°à§įà¦¸ à§ĩà¦²
a w
Ġà¦¸ à¦¾à¦ĩà¦ķà§ĩà¦²
Ġà¦ľ à§ĭà¦¡à¦¼à¦¾
à§ģ à§±
Ġà¦Ĩà¦ķ à¦¬à¦°
Ġà¦ªà§Ĥà¦°à§įà¦£ à¦¾à¦Ļà§įà¦Ĺ
à¦ľ à¦¾à¦ª
Ġà¦¨ à§Īà¦¤à¦¿à¦ķ
anth o
Ġà¦¦à¦¿à¦² à§ĭ
Ġà¦¸à¦ļà§ĩà¦¤à¦¨ à¦¤à¦¾
Ġà¦¸à¦¾à¦ķà§įà¦·à¦¾à§İ à¦ķà¦¾à¦°
ĠD ate
à¦¿à¦¯à¦¼ à§ĩà¦Ľà¦¿
à¦Ľà¦¿à¦² à¦¾à¦®
à§ĭ à¦¤à§įà¦¤
Ġà¦Ł à¦¿à¦īà¦Ł
Ġà¦ªà§įà¦°à¦¤à¦¿à¦¬à¦¨à§įà¦§ à§Ģ
m s
Ġà¦¯à¦¾à¦¤à§įà¦° à§Ģà¦¦à§ĩà¦°
Ġà¦Łà§įà¦° à¦¾à¦«à¦¿à¦ķ
Ġà¦¬à¦² à¦¬à§ĩ
Ġà¦¹à¦ĩ à¦¯à¦¼à¦¾
Ġà¦¡à¦² à¦¾à¦°à§ĩà¦°
Ġà¦¬à§įà¦¯ à¦¤à¦¿à¦ķà§įà¦°à¦®
Ġà¦¶à¦ķà§įà¦¤ à¦¿à¦°
Ġà¦ļà¦² à¦¾à¦°
à¦¿à¦® à¦¤
à§ĩà¦· à§įà¦Łà¦¾à¦°
à¦ı à¦Łà¦¿
à¦ªà§įà¦° à¦¸à¦Ļà§įà¦Ĺà¦¤
Ġà¦®à§ĩà¦¯à¦¼ à§ĩà¦Ł
Ġà¦ªà¦°à¦¿à¦¬à§ĩà¦¶ à§ĩ
ak e
Ġà¦ĺ à§ĭà¦°
Ġà¦ªà¦¾à¦ł à¦¾à¦¨
Ġà¦īà¦ł à¦¬à§ĩ
Ġà¦Ĩà¦®à¦¾à¦¦à§ĩà¦° à¦ķà§ĩ
Ġà¦ªà§įà¦°à¦ļ à¦£à§įà¦¡
Ġà¦°à¦ķà§įà¦· à¦¾à¦¯à¦¼
Ġà¦¨ à¦¾à¦ĵ
à§© à§§
à§ĭà¦¦ à
à§ĭà¦¦à ¦
à§ĭà¦¦à¦ ¾
Ġà¦¬à¦¿à¦ľà§įà¦ŀà¦ªà§įà¦¤ à¦¿à¦¤à§ĩ
Ġà¦ļ à§ģà¦²à§ĩà¦°
ĠA m
Ġà¦Ń à¦¾à¦Ļà§įà¦Ĺ
Ġà¦¬à§įà¦° à§ĩà¦ķ
Ġà¦Łà¦¾à¦Ļà§įà¦Ĺ à¦¾à¦ĩà¦²
Ġà¦¬ à§Ģ
Ġà¦¸à§ĩà¦ķ à§įà¦°à§ĩà¦Ł
à¦¾à¦ŀà§įà¦ļ à¦²à§ĩà¦°
à§ģà¦¯à¦¼ à§ĩà¦¨à§įà¦Ł
à§įà¦¯à¦¾à¦ķ à§įà¦Ł
à¦ıà¦¸ à¦Ĩà¦ĩ
à§© à§¯
Ġà¦¸à¦¾à¦¤à¦ķà§įà¦· à§Ģà¦°à¦¾
Ġà¦¬à§įà¦¯à¦¬à¦¸à§įà¦¥ à¦¾à¦ª
à§ĩà¦ĩ à¦ľ
Ġà¦īà¦ĩ à¦²
à¦¾à¦¸ à§Ģà¦°
à§ĩà¦¨à§įà¦Ł à¦¸
Ġà¦¬ à§ĩà¦¤
à¦® à§Į
Ġà¦Ĺà§įà¦°à¦¾à¦¹ à¦ķà¦¦à§ĩà¦°
Ġà¦ħ à¦·à§įà¦Ł
Ġà§Ń à§«
Ġà¦ıà¦ķ à¦°
Ġà¦ªà¦¾à¦° à¦¿à¦¨à¦¿
Ġs o
4 0
Ġà¦¬à¦¾à¦£ à§Ģ
Ġà¦®à¦¿à¦° à¦ªà§ģà¦°
y l
Ġà¦¬ à¦Ł
Ġà¦ļà¦¿à§İ à¦ķà¦¾à¦°
à¦¤ à§ģà¦°
Ġà¦ıà¦ķ à¦ľà¦¨à§ĩà¦°
à¦ķà§įà¦°à¦® à§ĩ
Ġà¦®à§ģ à¦Ĺà§įà¦§
à¦¤à§įà¦¤ à§ĩà¦«
Ġà¦¨ à¦¾à¦ĩà¦Ł
Ġà¦īà¦ª à¦¾à¦°à§įà¦ľ
Ġà¦¦à¦¿à¦¨ à¦¬à§įà¦¯à¦¾à¦ªà§Ģ
Ġà¦ķà§įà¦° à¦¿à¦¸
Ġà¦¯à¦¾à¦¬à¦¤ à§Ģà¦¯à¦¼
Ġà¦° à¦ķà§įà¦·à¦£
Ġà¦®à§ĭà¦²à§įà¦² à
Ġà¦®à§ĭà¦²à§įà¦²à ¦
Ġà¦®à§ĭà¦²à§įà¦²à¦ ¾
? âĢĿ
Ġà¦¬à¦¿à¦° à¦¾à¦ľ
Ġà¦²à§ģà¦ķ à¦¿à¦¯à¦¼à§ĩ
à¦¾à¦° à§įà¦Ń
ÙİØ ±
à¦ķà§įà¦¤ à¦¿à¦ķ
3 9
Ġà¦® à¦¿à¦ł
à¦¤à¦¿à¦ķ à¦°
Ġà¦¸à§įà¦¬à¦ªà§įà¦¨ à§ĩà¦°
Ġà¦²à¦¾à¦Ĺ à¦²à§ĭ
Ġà¦« à¦¾à¦²
Ġà¦ķà¦°à§įà¦ªà§ĭà¦° à§ĩà¦¶à¦¨
à¦¸à§ģ à¦¨à§įà¦¦à¦°
Ġà¦ĵà¦¯à¦¼à¦¾à¦° à§įà¦ķ
Ġà¦ķà¦¾à¦ģà¦ļ à
Ġà¦ķà¦¾à¦ģà¦ļà ¦
Ġà¦ķà¦¾à¦ģà¦ļà¦ ¾
à§© à§Ń
Ġà¦² à§ĩà¦Ń
à¦¿à¦¨ à¦¿à¦¯à¦¼à¦¤
Ġà¦ļ à¦°à§įà¦ļà¦¾
à¦¾à¦ª à§ĭà¦²
à§© à§®
Ġf uck
ĠA d
Ġà¦Ĺà§įà¦°à¦¹à¦£ à¦¯à§ĭà¦Ĺà§įà¦¯
Ġà¦¨ à¦¿à¦¦
Ġà¦® à¦¾à¦§
Ġà¦¸à§ģ à¦¶
Ġà¦¨ à§ĭà¦¬à§ĩà¦²
à§¨à§¦à§§à§ ®
Ġà§© à§¦à§¦
-à¦® à§ĩà¦ĩà¦²
ic s
Ġà¦ľà¦¾à¦¹ à¦¿à¦¦
Ġà¦®à§ĭ à¦¦à¦¿
Ġà¦Ĺ à§ĩà¦Ł
Ġà¦«à¦¿à¦° à¦¤à§ĩ
Ġ <
à¦¯ à¦¾à¦¨
Ġà¦Ń à§ģà¦¯à¦¼à¦¾
Ġà¦°à¦¾à¦ľà§įà¦ľ à¦¾à¦ķ
Ġà¦®à§ĭà¦Ł à¦°
Ġà¦°à§ĩà¦ľ à¦¾à¦īà¦²
à¦² à¦¾à¦Ń
Ġà¦¹à¦¾à¦ķ à¦¿à¦®
Ġà¦ĩà¦ī à¦ıà¦¸
Ġà¦Ĩ à¦¡à§įà¦¡
à§ª à§Ń
à§ĩà¦¡ à¦¿
Ø ©
Ġà¦¸à¦¹à¦¾à¦¯à¦¼ à¦¤à¦¾à¦¯à¦¼
à¦Ĩ à¦¤
Ġà¦ļ à¦¡à¦¼
Ġà¦¤à§ģà¦² à¦¨à¦¾
Ġà¦®à¦¨à§ĭ à¦¯à§ĭà¦Ĺ
er y
Ġà¦ķà§ĩà¦¨ à
Ġà¦ķà§ĩà¦¨à ¦
Ġà¦ķà§ĩà¦¨à¦ ¾
en ce
Ã ĳ
Ġà¦ªà¦¾à¦² à¦¨à§ĩà¦°
Ġà¦° à§ĩà¦¹
Ġà¦¸à¦ķà¦² à¦ķà§ĩ
à¦Ĺ à
Ġà¦Ńà¦° à¦¸à¦¾
Ġà¦Ĩà¦² à¦¿
Ġà¦ľà¦¾à¦®à¦¾à¦¯à¦¼ à¦¾à¦¤à§ĩà¦°
Ġà¦ªà¦¾à¦° à§įà¦²à¦¾à¦®
Ġà¦§ à¦¾à¦ªà§ĩ
Ġà¦¸à§įà¦¬ à¦¤à¦¨à§įà¦¤à§įà¦°
- à¦ĵ
à¦¾à¦¬ à§įà¦¯
à¦Ĺà ¦
à¦Ĺà¦ ¾
5 5
Ġà¦¨à§Ģ à¦ļà§ĩ
Ġà¦¦à¦¾à¦ģà¦¡à¦¼ à¦¾à¦¯à¦¼
Ġà¦®à§ģ à¦ķ
à¦° à¦¾à¦ĥ
à¦®à¦¾à¦°à§įà¦ķ à¦¿à¦¨
Ġà¦¹à¦¾à¦® à¦²
Ġà¦ķà¦¨ à¦«à¦¾à¦°
à¦ª à¦¿à¦Ł
à¦¿à¦ķ à§ĩà¦²
à¦¿à¦¤ à¦¿à¦¶à§Ģà¦²
à§ĩà¦ ¥
Ġà¦®à§ģà¦¦à§įà¦° à¦¿à¦¤
Ġà¦¹ à§ģà¦¸
à¦¹à¦¾à¦° à§įà¦¡
à§ ³
Ġà¦¹ à§įà¦¯à¦¾à¦ķ
Ġà¦¶ à§ģà¦¯à¦¼à§ĩ
Ġà¦¸à¦¹à¦¯à§ĭà¦Ĺ à¦¿à¦¤à¦¾à¦¯à¦¼
à§© à§¨
Ġà¦¸à§ģà¦²à¦¤ à¦¾à¦¨à¦¾
Ġà¦¸à¦¹ à§įà¦¯
Ġà¦¦à§ĩ à¦¬à¦¾à¦°
Ġà¦Ĩ à¦ĺ
Ġà¦ķà¦¨ à§įà¦Łà§įà¦°
Ġà¦¡à¦¾à¦¯à¦¼ à¦¾à¦¬à§ĩà¦Ł
Ġà¦ķà§įà¦· à¦¯à¦¼
Ġà¦¸à¦®à§įà¦® à¦¿à¦²
à¦¹ à§įà¦¯
Ġà¦ļà¦® à¦ķ
Ġà¦ĩà¦¹ à§ģà¦¦
à¦ľ à¦¿à¦ĵ
Ġà¦ĩà¦¨à§įà¦¡ à¦¿à¦¯à¦¼à¦¾
Ġà¦ķ à§ĩà¦®
Ġà¦Ĺà¦Ń à¦°à§įà¦¨
Ġà¦ıà¦ķ à¦¸à¦®à¦¯à¦¼
Ġà¦¹ à¦°à¦¤
. bd
Ġà¦®à§ĭ à¦¹à¦¨
Ġà¦® à¦¾à¦ĸ
inut es
ind ow
Ġà¦Ĩà¦®à§ĩà¦° à¦¿à¦ķà¦¾à¦¨
- à¦¸à¦®
à¦¬à¦°à§įà¦¤à¦®à¦¾à¦¨ à§ĩ
Ġ0 5
à§© à§¬
Ġà¦īà¦ªà¦² à¦ķà§įà¦·
Ġà§§à§¦ à¦Łà¦¿
Ġà¦¡ à§ĩà¦ª
Ġà¦¦ à§ĩà¦°à¦¿
b angla
à¦¾à§ ±
Ġà§ª à§¨
à¦¶ à¦ķà§įà¦¤à¦¿
Ġà¦¤ à§Į
Ġà¦¨ à¦¾à¦Ľ
Ġà¦¶ à¦¿à¦®
Ġà¦«à§ĩà¦² à§ĩà¦Ľà§ĩ
à¦ķ à§Ģà¦¯à¦¼
Ġà¦Ń à¦¿à¦ķ
h ar
Ġà¦°à¦ªà§įà¦¤ à¦¾à¦¨à¦¿
Ġà¦¦ à¦¿
à¦ķà§įà¦· à§ĩà¦¤à§įà¦°à§ĩ
à¦¿à¦¦ à
à¦¿à¦¦à ¦
à¦¿à¦¦à¦ ¾
un ction
à§¯ à§¦
Ġà¦ĩà¦ŀà§įà¦ļ à¦¿
à¦¾à¦¸ à§Ģà¦¦à§ĩà¦°
à¦¿à¦® à§Ĥà¦²à¦ķ
Ġà¦ªà§Įà¦° à¦¸à¦Ńà¦¾
Ġà¦¸à¦¿à¦¦à§įà¦¦à¦¿à¦ķ à§Ģ
Ġà¦¸à¦¶ à¦¸à§įà¦¤à§įà¦°
à§įà¦¡ à§ĩà¦°
Ġà¦¶à§ģà¦°à§ģ à¦¤à§ĩà¦ĩ
à¦°à§įà¦ľ à¦¨
Ġà¦ķà¦®à§įà¦ª à¦¿à¦īà¦Ł
à¦¿à¦¯à¦¼ à¦¾à¦ľ
Ġà¦ªà¦°à¦¿à¦¦ à¦°à§įà¦¶à¦ķ
Ġà¦ĩ à¦Ľà¦²
Ġà¦ª à¦ľ
Ġà¦®à¦¿à¦¶ à¦¨
à¦Ľ à¦¬à¦¿
à¦®à§ģà¦ķà§įà¦¤ à¦¿à¦¯
Ġà¦ľ à¦¾à¦¦à§ģ
Ġà¦¸à¦¿à¦² à§ĩà¦Łà§ĩ
Ġà¦ľà¦¿à¦¯à¦¼ à¦¾à¦īà¦°
à¦¬à¦¾à¦° à§įà¦Ĺ
Ġà¦¬à§ĭ à¦¤à¦²
à¦¸ à¦¿à¦¸à¦¿
' ,
à§ĭà§± à
à§ĭà§±à ¦
à§ĭà§±à¦ ¾
Ùı Ùħ
Ġà¦¬à§įà¦¯ à§ģà¦°
Ġà¦¡ à§ĩ
Ġà¦Ĩ à¦°à§įà¦ķ
Ġà¦ıà¦ķ à¦¸à¦¾à¦¥à§ĩ
ou ld
à¦« à¦¾à¦¨
Ġà¦¤ à¦¾à¦¸
Ġà¦¹ à¦¤à§ĩà¦ĩ
4 7
Ġà¦¯ à§ĩà¦Ĺ
Ġà¦ķà§Į à¦¤
à¦¤à§įà¦¬ à§ĩà¦°
Ġà¦ħ à¦®à¦¾à¦¨
Ġà¦¸à¦Ĥà¦ĸ à§įà¦¯à¦¾à¦²à¦ĺ
Ġà¦¨ à¦Ĺà§įà¦¨
à¦²à§įà¦¯à¦¾à¦¨à§įà¦¡ à§ĩà¦°
à¦¤ à¦¾à¦¬à¦¾à¦¦à§Ģ
Ġà¦¦ à§ĩà¦ĩ
à¦ª à§ĭà¦¸à§įà¦Ł
à§ª à§®
à¦° à¦¿à¦¨
Ġà¦ª à¦¾à¦ŀà§įà¦ľ
Ġà¦¦ à¦¾à¦«
à¦® à§Ĥ
Ġà¦ķà§įà¦· à¦¤à¦¿à¦ķà¦°
Ġà¦¨à¦¾à¦¨ à¦¾à¦¨
à§įà¦¸ à§ĩà¦°
Ġà¦°à¦ķà¦® à§ĩà¦°
Ġà¦¬à¦¸à§ģà¦¨à§įà¦§ à¦°à¦¾
à¦¸à§įà¦¥ à¦¾à¦¨à§ĩ
Ġà¦¸à¦® à¦ķà¦¾à¦®à§Ģ
h er
.C om
Ġà¦ľ à§ģà¦Ł
Ġà¦«à¦¾à¦īà¦¨à§įà¦¡ à§ĩà¦¶à¦¨à§ĩà¦°
Ġà¦ľà¦¨à§įà¦¯ à¦ĵ
à§ģ à§°
à§įà¦° à¦¾à¦ľ
Ġà¦¶ à¦¿à¦Ĺà¦Ĺà¦¿à¦°
à¦ļ à¦¿
Ġà¦¬à¦¾à¦£ à¦¿à¦ľ
Ġà¦¸à§ĩà¦¤ à§ģà¦®à¦¨à§įà¦¤à§įà¦°à§Ģ
à¦¬à¦¯à¦¼ à¦¸à§įà¦ķ
Ġà¦¦ à¦¾à¦¡à¦¼
Ġà¦ıà¦ķ à¦®à¦¤
à¦¬à¦¾à¦ľà¦¾à¦° à§ĩ
Ġà¦²à§ĩà¦ĸ à¦¾à¦ª
Ġà¦¬à§įà¦° à¦¿à¦ľ
Ġà¦¦ à§ĩà¦²
Ġà¦ªà¦¯à¦¼à§ĩà¦¨à§įà¦Ł à§ĩ
Ġà¦¤à¦¦à¦¨à§įà¦¤ à§ĩ
Ġà¦īà¦ª à§ĩà¦ķà§įà¦·
à¦¦à§ĩà¦¶ à¦¿à¦ķ
4 6
Ġà¦¶à¦¿à¦¬ à¦¿à¦°
à¦ķ à¦²à§įà¦ª
Ġà§¨à§¦à§¦ à§®
Ġà¦Ń à¦¦à§įà¦°
Ġà¦ķà§įà¦° à§ĩà¦¤
c l
à¦ĸ à§įà¦¯à¦¾à¦¤
à¦² à¦¤
à¦¦ à¦¾à¦°à¦¿
Ġà¦ĩà¦¸à§įà¦¯ à§ģà¦¤à§ĩ
à§Ģà¦¯à¦¼ à¦¤
Ġà¦¸ à§ĩà¦ªà§įà¦Ł
Ġà¦ļà§ĩà¦¹ à¦¾à¦°à¦¾
Ġà¦Ńà¦°à§įà¦¤ à¦¿à¦°
Ġà¦® à§ĩà¦²à¦¾à¦°
Ġà¦¸ à¦¿à¦ľ
Ġà¦¸à§Ĥ à¦ļà¦¨à¦¾
à§įà¦¬ à§ģà¦²
Ġà¦ħà¦°à§įà¦§ à§ĩà¦ķ
Ġà¦ħà¦ªà¦¾à¦° à§ĩà¦Łà¦°
Ġ2 8
Ġà¦ªà¦¾à¦¯à¦¼ à¦¨à¦¿
Ġà¦ĩà¦¯à¦¼ à¦¾à¦¬
Ġà¦¸à§Ī à¦¨à§įà¦¯
à¦°à¦¾à¦ľà¦§à¦¾à¦¨ à§Ģà¦°
à¦¿à¦¯à¦¼ à¦¾à¦¤à§ĩ
Ġà¦¹à¦¾à¦° à¦¾à¦®
Ġà¦¸à§ģà¦¨à§įà¦¦à¦° à§Ģ
Ġà¦®à§ĭà¦¶à¦¾à¦° à¦°à¦«
Ġà¦¬à§ģà¦ķ à§ĩà¦°
Ġà¦Ĺà¦° à§ģà¦°
Ġà§¬ à§«
Ġà¦ªà§įà¦² à§įà¦¯à¦¾à¦Ł
Ġà¦¬à¦¿à¦ªà¦° à§Ģà¦¤
Ġà¦® à§ĩà¦²à§ĩ
Ġà¦ļ à§įà¦¯à¦¾à¦¨
Ġà¦ľ à§Ī
Ġà¦ķà§ĩà¦ ģ
Ġà¦¶à¦¿à¦²à§įà¦ª à§ĩà¦°
Ġà¦¨à¦¾à¦® à¦¾à¦¯
Ġà¦¬à¦¿à¦§ à§įà¦¬à¦¸à§įà¦¤
à¦¬ à¦¿à¦ı
Ġà¦ªà§įà¦°à¦¤ à¦¿à¦¨à¦¿à¦¯à¦¼à¦¤
Ġà¦ħà¦¬ à¦ķà¦¾à¦ł
Ġw ill
Ġà¦¦à§ĩà¦ĸ à¦¾à¦¯à¦¼
Ġs ays
à¦¨ à§ĩà¦ĩ
à¦¿à¦¯à¦¼ à¦¾à¦®à§ĩà¦°
- à§®
à§įà¦ ¹
Ġà¦ķ à§Įà¦¶
Ġà¦ı à¦ģ
à¦¤ à¦¾à¦¨
Ġà¦¬à§įà¦¯à¦¬ à¦¸à¦¾à¦°
à¦¾à¦ķ à§ĩà¦ĩ
Ġà¦¬à§įà¦° à¦¾à¦ī
Ġà¦Ĩà¦¸à¦¾à¦¦ à§ģà¦ľà§įà¦ľà¦¾à¦®à¦¾à¦¨
Ġà¦¡ à¦¾à¦ĥ
à¦¦à§Ģ à¦ª
à¦¿à¦ĩ à¦ī
-à¦Łà§ĭà¦¯à¦¼à§ĩà¦¨à§įà¦Ł à¦¿
à¦¬ à¦¾à¦®
Ġà¦ĸà§ģà¦¨ à§ĩà¦°
th is
à¦ĩ à¦°
à¦£ à§Ģ
Ġà¦¨à¦¾à¦° à§Ģà¦°à¦¾
Ġà¦²à¦¾à¦Ń à§ĩà¦°
à§įà¦¯à¦¬ à¦¾à¦¹à§Ģ
ate g
Ġà¦ķà§ĭ à¦²à§ĩ
Ġà¦²à¦¿à¦Ļà§įà¦Ĺ à§ĩà¦°
Ġà¦ķà§ĭà¦° à¦Ĩà¦¨
à¦¯à¦¼ à¦¨à§ĩà¦°
Ġà¦¸ à¦ŀà§įà¦ľ
Ġà¦ħà¦¬ à¦¨
Ġà¦¬à§ĩà¦ ļ
Ġà¦²à¦¾à¦Ĺ à¦¾à¦¨à§ĭ
Ġà¦¨ à¦¾à¦¸à§įà¦¤
Ġà¦ĩà¦ī à¦¸à§ģà¦«
Ġà¦Łà§įà¦¯ à¦¾à¦¬à¦²
ĠInd ia
Ġà¦ķà¦° à¦¾à¦ĩ
Ġà¦¨à¦ľ à¦°à§ĩ
Ġ2 7
Ġà¦ĩà¦¸à§įà¦¯ à§ģ
Ġà¦¨à¦¾à¦Ĺà¦°à¦¿à¦ķ à¦¦à§ĩà¦°
Ġà¦¶à§ĩà¦· à§ĩà¦°
Ġà¦Ń à¦¾à¦¤à¦¾
Ġà¦¬à§įà¦¯à¦¾à¦Ĥ à¦ķà§ĩ
à¦¾à¦ª à§ģà¦°à§ĩ
à§ĭ à¦²à§ĩ
Ġà¦łà¦¿à¦ķ à¦ĩ
Ġà¦¤à§ĩà¦ĵ à¦ģ
Ġà¦¦à¦¿à¦¬ à¦¸à§ĩà¦°
Ġà¦¬à¦¨à§įà¦§ à§ģà¦°
à§įà¦° à¦¿à¦®
Ġà¦ª à¦¾à¦ĵ
ru ary
Ġà¦ķà¦¬ à¦¿à¦¤à¦¾à¦°
à¦Ńà§Ĥ à¦¤
Ġà¦ĩ à¦¸à¦¿
Ġà¦¤à¦°à§ģà¦£ à§Ģ
Ġà¦¨à¦¿à¦¯à¦¼à§ĭà¦Ĺ à§ĩà¦°
Ġà¦¦à§Į à¦¡à¦¼
à¦¸ à¦¡à¦¼
Ġà¦ķà¦¾à¦°à§įà¦¯à¦ķà¦° à§Ģ
à¦¾à¦¦ à§ģà¦°
Ġà¦®à§ĥà¦¤ à¦¦à§ĩà¦¹
à¦ħà¦¨ à§įà¦¯à¦¾à¦¨à§įà¦¯
Â ¦
Ġà¦¸à§įà¦¥à¦¾à¦¨à§Ģà¦¯à¦¼ à¦°à¦¾
f er
à¦¾à¦· à§įà¦Ł
à¦¨ à¦¿à¦¹à¦¤
Ġà¦ªà§ģà¦¨ à¦ĥ
Ġà¦ĩà¦Ĥ à¦²à¦¿à¦¶
Ġà¦¸à¦®à§įà¦®à§ĩà¦² à¦¨à§ĩà¦°
à§ĩà¦·à§įà¦Ł à¦¾à¦¯à¦¼
à§ģà¦¯à¦¼ à§ĩà¦Ł
Ġà¦¬à¦¯à¦¼ à¦¸à§įà¦ķ
à¦¨à§įà¦¨ à
à¦¨à§įà¦¨à ¦
à¦¨à§įà¦¨à¦ ¾
Ġà¦¬à§įà¦¯ à¦¾à¦²
à§Ģà¦° à§įà¦¤
à¦ª à¦¾à¦¸
Ġ all
n et
Ġà¦ķà¦° à¦¾à¦¨à§ĭ
à¦¾à¦¬ à¦¾à¦ľà¦¾à¦°
Ġà¦Ŀ à¦¿à¦¨à¦¾à¦ĩà¦¦à¦¹
Ġ @
oo gle
Ġà¦¸à¦°à§įà¦¬ à¦¾à¦§à¦¿à¦ķ
à¦° à¦¬à¦¾à¦¨
Ġà¦ļà¦² à§ĩà¦Ľà§ĩà¦¨
Ġà¦¤ à§ģà¦®
Ġà¦ħ à¦°à§įà¦¡à¦¾à¦°
Ġb o
Ġà¦ªà§įà¦°à¦Ńà¦¾à¦¬ à¦¶à¦¾à¦²à§Ģ
à¦ĵà¦¯à¦¼ à§ĩà¦¬
Ġà¦ħà¦Ł à§ĭà¦°
Ġà¦¸à¦ķà¦² à§ĩà¦ĩ
à¦¤à§ĭà¦® à¦¾à¦°
Ġà¦¶ à¦«
à§ĭ à¦Łà¦¾
à¦¿à¦¤ à¦¾à¦¬
Ġà¦ª à¦¿à¦¤à¦¾à¦°
à¦° à§ĭà¦ª
Ġà¦ĩà¦¤à¦¿à¦® à¦§à§įà¦¯à§ĩà¦ĩ
Ġà¦«à§ĭà¦¨ à§ĩà¦°
Ġà¦¬à§įà¦² à¦Ĺà¦¾à¦°
Ġà¦¬à¦¿à¦ıà¦¨ à¦ª
Ġà¦¹ à¦¿à¦²
à¦¾à¦ĩ à¦¯à¦¼
Ġà¦¬à¦ķà§įà¦¤à¦¬à§įà¦¯ à§ĩà¦°
à¦« à§ģà¦Ł
à¦Ń à§įà¦¯
à¦¾à¦ª à¦¨à§Ģ
Ġà¦Ł à§įà¦¯à¦¾à¦ķà§įà¦¸
Ġà¦Ł à¦¿à¦ķà§ĩ
ÙİØ ¯
à¦ķà§įà¦· à¦£à§ĩà¦°
à¦¾à¦ļ à§ĩà¦°
Ġà¦ı à¦Ńà¦¾à¦¬à§ĩà¦ĩ
Ġà¦Ĩà¦¶à¦°à¦¾à¦« à§ģà¦²
à¦ļà§įà¦Ľ à
à¦ļà§įà¦Ľà ¦
à¦ļà§įà¦Ľà¦ ¾
Ġà¦¦à§ĩà¦¯à¦¼ à¦¨à¦¿
à§ĭà¦Ĺà§įà¦° à¦¾à¦«
Ġà¦®à¦¹ à¦¾à¦¬
Ġà¦ķà¦°à¦ªà§ĭà¦° à§ĩà¦¶à¦¨à§ĩà¦°
Ġà¦Ĺà¦²à§įà¦ª à§ĩà¦°
Ġà¦² à
à¦¬à¦¿à¦¶ à§įà¦¬à¦¾à¦¸
Ġà¦¬à¦¿à¦¤à¦°à§įà¦ķ à¦¿à¦¤
' );
Ġà¦¸à¦¨à§įà¦¤à¦¾à¦¨ à¦¦à§ĩà¦°
E W
Ġà¦ıà¦ĩ à¦¸à¦¬
Ġà¦Ł à¦¿à¦ī
Ġà¦ħà¦Ńà¦¿à¦Ńà¦¾à¦¬ à¦ķ
à¦¾à¦² à¦¯à¦¼à§ĩ
Ġà¦²à ¦
Ġà¦²à¦ ¾
à¦¸à§įà¦¥ à¦²
Ġà¦®à¦¾à¦¸ à§įà¦ķ
Ġà¦¸à¦®à§įà¦®à¦¾à¦¨ à¦¨à¦¾
à¦ĸ à¦¿à¦ķ
is s
Ġà¦ļà¦¾à¦ª à§ĩ
Ġà¦°à§ģà¦® à§ĩ
Ġà¦¬à§įà¦¯à¦¾à¦ªà¦¾à¦° à¦Łà¦¾
à¦°à§įà¦Ĺ à§ĩ
à¦° à§ĭà¦¬à¦¬à¦¾à¦°
Ġà¦¢ à¦¾à¦²
à¦ª à¦¿à¦ıà¦¸
Ù į
à¦¬à¦¾à¦¯à¦¼ à¦ķ
Ġà§ª à§Ń
à¦¿à¦¶ à§įà¦¬
Ġà¦ķ à§ģà¦ķà§ģà¦°
à¦¶ à¦¿à¦°
à§įà¦Łà§įà¦° à¦¿
à§ĭà¦¡ à¦¾à¦ķ
Ġà¦īà¦ª à¦¾à¦¯à¦¼à§ĩ
à¦¹ à¦¾à¦¤
Ġà¦¬à¦² à¦¬à§ĩà¦¨
à¦ĩà¦¨ à§įà¦Łà¦¾à¦°
à¦Ł à¦¿à¦ķ
Ġà¦ħà¦¸à§įà¦¥ à¦¿à¦°
à¦¯à§Į à¦¨
à§ĩà¦¶ à¦¾à¦²
à¦· à§įà¦ķ
Ġà¦Łà§įà¦° à§ĩà¦¨à§ĩà¦°
Ġà¦¹ à¦ķà§ĩà¦°
à¤ ¿
Ġà¦¸à¦¾à¦ĩà¦Ł à§ĩà¦°
Ġà¦ĺà¦Łà¦¨à¦¾à¦¸à§įà¦¥ à¦²
à¦¾à¦Ļà§įà¦ķ à§įà¦·
Ġà¦¬à¦¾à¦¸à§įà¦¤à¦¬à¦¾à¦¯à¦¼ à¦¨à§ĩ
Ġà¦īà¦¦à§įà¦§ à§ĥà¦¤à¦¿
Ġà¦¤à¦¾à¦¡à¦¼ à¦¾à¦¤à¦¾à¦¡à¦¼à¦¿
Ġà¦Ľà¦¾à¦¤à§įà¦° à¦¦à¦²à§ĩà¦°
Ġà¦¬à§įà¦¯ à¦¤
Ġà¦ĸ à§ĭà¦ģ
B D
Ġà¦Ńà¦Łà§įà¦Ł à¦¾à¦ļà¦¾à¦°à§įà¦¯
Ġà¦ª à¦¾à¦ķà¦¾
Ġà¦ª à§įà¦¯à¦¾à¦¨
à¦¾à¦ķ à¦¾à¦Łà¦¾
u al
Ġà¦®à¦¾à¦ł à§ĩà¦°
à¦ħ à§įà¦¯à¦¾à¦ª
à¦¸à¦° à¦ķà¦¾à¦°
à¦ħ à¦¤
an n
à¦¬à¦¾à¦° à¦ķ
Ġà¦¶à¦¾à¦¹à¦° à§ģà¦ĸ
à¦¯à¦¼à¦ Ļà§įà¦ķ
à¦ľ à¦®
Ð µ
Ġà¦¸à§ĩà¦¤ à§ģà¦°
A R
Ġà¦®à§Ĥà¦² à§įà¦¯à¦¾à¦¯à¦¼à¦¨
Ġin f
Ġà¦ħà¦ªà¦°à¦¾à¦§ à§ĩà¦°
Ġà¦Ĺà§ģà¦ľ à¦¬
Ġà¦Ĩà¦ķà¦¾à¦¶ à§ĩ
am p
- à§Ń
Ġà¦®à§ĩà¦¹à§ĩà¦¦ à§Ģ
Ġà¦ķà¦° à¦¿à¦¤à§ĩ
à¦Ĺ à¦²à§įà¦ª
Ġà¦ķà¦°à¦£ à§Ģà¦¯à¦¼
âĢĻ à¦ľà¦¨
à¦¾à¦ªà§įà¦° à¦¤à¦¿à¦·à§įà¦ł
Ġà¦ªà¦¾à¦¹à¦¾à¦¡à¦¼ à§ĩà¦°
Ġà¦¯ à¦¾à¦ĵ
à¦¿à¦« à¦¾à¦ĩà¦¨
à¦ĵà¦¯à¦¼ à¦¾à¦²
Ġà¦ªà¦² à¦¾à¦¤à¦ķ
à¦¬à¦¿à¦¶à§įà¦¬ à§ĩà¦°
Ġà¦¡ à¦¿à¦°
ĠâĢ º
Ġà¦¬ à§ĭà¦®
Ġà¦¸à§įà¦Ł à§įà¦¯à¦¾à¦Ł
Ġà¦īà¦² à§įà¦Łà§ĭ
Ġà¦ħà¦°à§įà¦ľ à¦¨à§ĩà¦°
d u
Ġà¦¸ à§ĭà¦¨à¦¾
Ġà¦¹à¦¸à§įà¦¤ à¦®à§Īà¦¥à§ģà¦¨
Ġà¦¨ à¦°à¦®
à¦¾à¦¹ à
à¦¾à¦£ à¦¿à¦ľà§įà¦¯
à¦¾à¦¹à ¦
à¦¾à¦¹à¦ ¾
. w
à¦¾à¦¨ à¦¨à§įà¦¦
ro w
Ġà§« à¦Łà¦¿
Ġà¦ªà¦°à¦¿à¦¬ à¦¾à¦°à§ĩ
à¦¨à¦¿à¦ľ à§ĩà¦°
Ġà¦«à§ĭà¦° à¦¾à¦®
Ġà¦®à¦¹à¦¾à¦¸à¦¡à¦¼ à¦ķà§ĩà¦°
Ġà¦° à§ĭà¦ķ
Ġà¦ľà¦Ĺ à¦¨à§įà¦¨à¦¾à¦¥
à¦¿à¦¨ à¦¾à¦ķà§ĩ
Ġà¦ļà§ģà¦ķà§įà¦¤ à¦¿à¦°
Ġà¦¸à¦¾à¦Ī à¦¦
à¦¾à¦¨ à¦¿à¦¤à§ĩ
Â «
à§Ī à¦¤
Ġà¦¬à§įà¦¯ à¦¾à¦ķà§įà¦¤
à§įà¦¬ à¦¨
Ġà¦¦à§ģ à¦ľà¦¨à§ĩà¦°
à¦¸ à¦¨à§įà¦¤
Ġà¦ıà¦²à¦¾à¦ķà¦¾à¦¬ à¦¾à¦¸à§Ģ
à§ĩà¦¦ à¦¿à¦¨
Ġà¦Ī à¦®à¦¾à¦¨
Ġà¦² à¦¾à¦ĩà¦Ł
Ġà¦¦à§ģà¦ĩ à¦Łà¦¿
Ġà¦ĸ à¦¾à¦Ł
à¦· à§ĩ
Ġà¦¦à¦¶ à¦®
Ġà¦Łà§ģà¦ķ à¦°à§ĭ
Ġà¦¬à¦¾à¦ Ļà§įà¦Ĺ
ot i
Ġà¦ķà¦°à§įà¦®à¦¸à¦Ĥ à¦¸à§įà¦¥à¦¾à¦¨
Ġà¦²à¦¨à§įà¦¡ à¦¨
Ġà¦Ĩà¦¦ à¦¾à¦¯à¦¼à§ĩà¦°
à§ĭà¦¨ à§ĩà¦¶
Ġà¦ĺà§Ĥà¦°à§įà¦£ à¦¿à¦Ŀà¦¡à¦¼
à¦¿à¦¯à¦¼ à¦¾à¦°à§ĩà¦°
à¦¶ à§ĭ
Ġ201 3
à¦¶ à¦¨à§ĩ
Ġà¦Ĺà¦¬à§ĩà¦· à¦ķ
à§įà¦Ľ à¦¨à§įà¦¨
Ġà¦« à¦¿à¦¨
à¦¹ à§ĭà¦®
Ġà¦¹ à¦¾à¦ĵà¦¯à¦¼à¦¾
Ġà¦¸à¦®à§įà¦¬ à¦¨à§įà¦§à§ĩ
Ġà¦ıà¦¸ à§ĩà¦Ľà¦¿à¦²à§ĩà¦¨
as s
Ġà¦ķà¦¥ à¦¾à¦°
in a
lis h
à¦ıà¦¸ à¦¬
Ġà¦ĸ à¦¾à¦®
à¦®à¦¾à¦£ à§ģ
à§Ģ à¦¶
à¦¾à¦¬ à¦¿à¦°
à¦¿à¦ľ à¦¿
Ġà¦ªà§įà¦°à¦ļ à¦¾à¦°à¦£à¦¾
Ġà¦°à¦¾à¦¸à§Ĥà¦² à§ģà¦²à§įà¦²à¦¾à¦¹
à¦¸à§įà¦¥ à¦¾à¦°
Ġà¦ªà§įà¦°à¦¤à§įà¦¯ à¦¾à¦ĸ
[ à¦¸à¦®à§įà¦ªà¦¾à¦¦à¦¨à¦¾
Ġà¦¶à¦¬à§įà¦¦ à§ĩà¦°
Ġà¦®à¦¾à¦ĩà¦ķà§įà¦° à§ĭ
à¦¹à¦¾à¦®à§įà¦® à¦¾à¦¦
Ġà¦Ĩà¦¬à§įà¦¦ à§ģà¦¸
à¦¾à¦ķ à§įà¦°à¦®à§ĩ
Ġà¦¤à¦« à¦¸à¦¿à¦²
Ġà¦¬à¦¿à¦Ńà¦¾à¦Ĺ à¦°à¦¾à¦ľà¦¶à¦¾à¦¹à§Ģ
Ġà¦¬à¦¿à¦Ńà¦¾à¦Ĺ à¦¢à¦¾à¦ķà¦¾
Ġà¦¬à¦¿à¦Ńà¦¾à¦Ĺ à¦°à¦Ĥà¦ªà§ģà¦°
Ġà¦¬à¦¿à¦Ńà¦¾à¦Ĺ à¦®à¦¯à¦¼à¦®à¦¨à¦¸à¦¿à¦Ĥà¦¹
à¦Ĺà§įà¦° à¦¨à§įà¦¥
Ġà¦ħ à¦¤à¦ĥà¦ªà¦°
Ġà¦¬ à¦Łà§ĩ
Ø §ÙĦ
Ð ¸
Ġà¦ħà¦¬ à¦¾à¦§
Ġà¦ªà§įà¦°à¦ķà§ĥà¦¤ à¦¿à¦°
Ġà¦ķà§ĭà¦° à¦¿à¦¯à¦¼à¦¾
Ġà¦Ĺ à¦¾à¦¯à¦¼
à¦¤à§įà¦¤à§ĩà¦« à¦¾à¦ķ
Ġà¦łà§ĩà¦ķ à¦¾à¦¤à§ĩ
---- ----
Ġ ðŁ
Ġà¦¹ à§ĭà¦²
Ġà¦ħà¦ªà¦° à¦¾à¦ľ
Ġà¦°à¦ķà§įà¦· à¦¾à¦°
Ġà¦° à¦¾à¦Ļà§įà¦Ĺ
à¦¤ à¦¾à¦°à§ĩà¦°
Ġà¦°à§ĭà¦ľ à
Ġà¦°à§ĭà¦ľà ¦
Ġà¦°à§ĭà¦ľà¦ ¾
8 7
Ġà¦«à§ģà¦² à§ĩà¦°
Ġà¦ªà§įà¦°à¦¶à§įà¦¨ à§ĩ
Ġà¦¸à§įà¦¨ à¦¾à¦¤à¦ķ
à¦¿à¦¸à§įà¦¤ à¦¾à¦¨à§ĩ
à¦¾à¦ĩ à¦¨à§ĩ
Ġà¦¶à¦¾à¦¨à§įà¦¤ à¦¿à¦ªà§Ĥà¦°à§įà¦£
o ck
Ġà¦Ĩà¦ĸ à¦¤à¦¾à¦°
Ġà¦¸à§įà¦Ł à§įà¦¯à¦¾à¦¨à§įà¦¡
Ġà¦¸à§Ģà¦® à¦¾à¦¬à¦¦à§įà¦§
à¦¸à¦¾à¦Ĥ à¦¬à¦¾à¦¦à¦¿à¦ķ
Ġà¦ªà§įà¦°à¦¬à¦£ à¦¤à¦¾
Ġà¦ķ à¦¾à¦¸
à¦¾à¦² à¦¾à¦®
Ġà¦ļà¦¾à¦ª à
Ġà¦ļà¦¾à¦ªà ¦
Ġà¦ļà¦¾à¦ªà¦ ¾
Ġà¦ĺà§ĭà¦· à¦¿à¦¤
Ġà¦ĸ à¦¿à¦²
Ġà¦° à§ĭà¦¨à¦¾à¦²à¦¦
à§ĭà¦¬ à¦¾à¦²
Ġà¦¸à§ĭà¦¹ à¦°
Ġà¦¸à¦Ĥ à¦ķà§įà¦°à¦®
ĠOn line
Ġà¦ħà¦¸à§įà¦¥ à¦¾à¦¯à¦¼à§Ģ
à¦¦ à¦¾à¦¦
Ġà¦¦à§ģà¦°à§įà¦ĺà¦Ł à¦¨à¦¾à¦°
ont ent
4 9
Ġà¦ªà§įà¦² à¦Ł
à¦¸à§įà¦¬ à¦¾à¦§à§Ģà¦¨
à¦¾à¦¢ à¦¼
Ġà¦° à¦ĩà¦²
Ġà¦®à§ĭà¦¤à¦¾à¦¯à¦¼ à§ĩà¦¨
ÙİØ ©
Ġà¦Ńà¦¾à¦ĩà¦° à¦¾à¦¸à§ĩà¦°
Ġà¦¬à¦¾à¦ľ à§ĩ
à§įà¦¯ à¦¾à¦¯à¦¼à§ĩà¦°
Ġà¦ļ à§ĭà¦Ł
Ġà¦¸à¦¾à¦®à§įà¦ª à§įà¦°à¦¦à¦¾à¦¯à¦¼à¦¿à¦ķ
Ġà¦¨à¦¿à¦¯à¦¼ à§ĭà¦ľà¦¿à¦¤
Ġà¦²à¦¡à¦¼à¦¾à¦ĩ à¦¯à¦¼à§ĩ
à§Ģà¦¨ à¦Ĺà¦°
à¦¯à¦¾à¦¤à§įà¦° à
à¦¯à¦¾à¦¤à§įà¦°à ¦
à¦¯à¦¾à¦¤à§įà¦°à¦ ¾
Ġà¦®à§įà¦¯à¦¾à¦¨à§ĩà¦ľ à¦®à§ĩà¦¨à§įà¦Ł
Ġà¦ĩà¦īà¦¨ à¦¾à¦ĩà¦Łà§ĩà¦¡
Ġà¦ªà§įà¦°à¦ļ à§ĩà¦·à§įà¦Łà¦¾
Ġà¦² à¦¾à¦«
Ġà¦¸à¦¾à¦ľ à¦¾à¦¨à§ĭ
Ġà¦ħà¦¨à§ģà¦ª à¦¸à§įà¦¥
à§ĥ à¦¶à§įà¦¯
Ġà¦¦à¦¿à¦¨ à¦Łà¦¿
Ġà¦¨à¦ĵ à¦Ĺà¦¾à¦ģ
Ġà¦Łà§ĩà¦² à¦¿à¦«
Ġà¦ªà¦° à¦¿à¦ªà§įà¦°
Ġà¦ªà§ĥà¦·à§įà¦ł à
Ġà¦ªà§ĥà¦·à§įà¦łà ¦
Ġà¦ªà§ĥà¦·à§įà¦łà¦ ¾
Ġà¦¬ à§ĩà¦²à¦¾à¦¯à¦¼
Ġà¦° à
à¦¬à¦¹ à§ģà¦²
Ġd is
Ġà¦§ à§ģà¦¯à¦¼à§ĩ
à¦ı à¦¤
à¦ķà¦² à§įà¦¯à¦¾à¦£
Ġà¦¬à¦¾à¦¨ à¦¾à¦¨à§ĭ
Ġà¦¬à¦¿à¦Ńà¦¾à¦Ĺ à¦ĸà§ģà¦²à¦¨à¦¾
Ġà¦ªà§įà¦°à¦¤à¦¿à¦¬ à§ĩà¦¶à§Ģ
Ġà¦ĸ à¦¨
Ġà¦°à ¦
Ġà¦ĵà¦¯à¦¼à¦¾à¦°à§įà¦¡ à§ĩ
Ġà¦°à¦ ¾
Ġà¦¶à¦¿à¦ķà§įà¦· à¦¿à¦¤
Ġà¦¬à§įà¦¯à¦¬à¦¹à¦¾à¦° à¦ķà¦¾à¦°à§Ģ
Ġà¦¬à¦ľ à§įà¦°
Ġà¦ł à¦¾à¦¨à§įà¦¡à¦¾
à§įà¦Ł à¦¿à¦®
Ġà¦ªà¦° à¦¸à§įà¦ª
à§įà¦¬ à
à§įà¦¬à ¦
à§įà¦¬à¦ ¾
Ġà¦Ĺà§ĭ à¦¸à¦²
Ġà¦ª à¦¿à¦ıà¦¸
it ion
Ġà¦ªà§įà¦° à¦ľà§įà¦ŀ
Ġà¦Ĩà¦¶ à§įà¦ļ
Ġw ww
à¦¸ à§ĩà¦¨
à¦¦ à¦¾à¦°à§ĩà¦°
Ġà¦ªà§įà¦°à¦ķ à§ĥà¦¤à¦¿
à¦ļ à¦¾à¦²
à¦¶ à§įà¦¬à¦¾à¦¸
Ġà§§à§¯à§Ń à§§
Ġà¦ķà¦¾à¦¶à§įà¦® à§Ģà¦°
Ġà¦¸à¦Ĥà¦ķ à§ĩà¦¤
Ġà¦¬à¦¿à¦ ĺ
à¦ı à¦¶
à§įà¦¯à¦® à¦¾à¦£
à¦¬à¦¿à¦Ń à¦¾à¦Ĺ
Ġà¦ıà¦ľ à§ĩà¦¨à§įà¦Ł
T he
Ġà¦®à§ģà¦ĸ à§įà¦¯
Ġà¦ªà§ģà¦°à§ģà¦· à¦¦à§ĩà¦°
à¦°à§įà¦¨ à¦¿
Ġà¦ª à¦¾à¦¡à¦¼à¦¿
Ġà¦Ĩà¦²à§įà¦²à¦¾à¦¹ à§į
Ġà¦ªà§ĩà¦¶ à
Ġà¦ªà§ĩà¦¶à ¦
Ġà¦ªà§ĩà¦¶à¦ ¾
à¦¾à¦¯à¦¼ à¦¨à¦¿à¦ķ
Ġà¦¬à§Ī à¦¦à§ĩà¦¶à¦¿à¦ķ
b n
à¦¸à¦®à§įà¦® à¦¤
Ġà¦¨ à§ĥà¦¤
!! !
Ġà¦ªà§įà¦²à§įà¦¯à¦¾à¦Ł à¦«à¦°à§įà¦®
Ġà¦¬à§įà¦¯ à¦¾à¦¨à§įà¦¡
Ġà¦ĺà¦¾à¦Ł à¦¤à¦¿
Ġà¦īà¦¤ à§įà¦ª
Ġà¦ĺà¦° à§ĭà¦¯à¦¼à¦¾
Ġb ut
Ġà¦¦ à¦¾à¦²à¦¾à¦²
Ġà¦ªà¦°à¦¿à¦ªà§įà¦° à§ĩà¦ķà§įà¦·
Ġà¦ĺ à§ģà¦·
à§ĩà¦¸ à§įà¦Łà¦¾à¦°
à¦¿à¦ī à¦¦à§įà¦¦à¦¿à¦¨
Ġà¦® à§ĩà¦¦
Ġà¦®à¦¨ à§ĭà¦Ń
s er
à¦« à¦¿à¦°
Ġà¦Ńà¦¾à¦²à§ĭà¦¬à¦¾à¦¸ à¦¾à¦°
Ġà¦Ń à§įà¦¯à¦¾à¦Ł
Ġà¦¸à§įà¦Ł à¦¾à¦«
Ġà¦¦à§ĩà¦ĸ à§ĩà¦Ľà§ĩà¦¨
Ġà¦Ĩ à¦ĵà¦¯à¦¼à¦¾à¦ľ
Ġà¦ªà¦¤à§įà¦° à¦¿à¦ķà¦¾à¦¯à¦¼
ĠJ uly
Ġà¦ļà¦² à§ģà¦¨
à¦¬à§įà¦¯ à¦¾à¦Ĥà¦ķ
à¦¿à¦ķ à¦¦à§ĩà¦°
à§ģ à¦¦à§įà¦¦à¦¿à¦¨
à§ĩà¦· à§ĩ
Ġà¦Ĩ à¦°à§įà¦®
à¦¶ à¦¨à§ĩà¦°
ĠArch ives
Ġà¦Ĩà¦ª à¦²à§ĭà¦¡
Ġà¦ĸà§ĭà¦ķ à¦¨
à¦¾à¦ļ à¦¾à¦°à§ĩà¦°
Ġà¦¤à¦° à¦«à§ĩ
Ġà¦ªà§įà¦°à¦¬ à¦¾à¦¹
Ġà¦¬ à¦¾à¦¬à§ĩ
Ġà¦Ńà¦¾à¦· à¦£
Ġà¦¨ à¦¯à¦¼à¦¾
à¦ī à¦Ł
Ġà¦ħà¦§à¦¿à¦ķ à¦¾à¦°à§Ģ
Ġà¦« à§ĩà¦²à¦¾à¦°
à¦¾à¦ĩà¦² à§įà¦¯à¦¾à¦¨à§įà¦¡
Ġà¦¬à§ģà¦Ŀ à¦¿
Ġà¦ħà¦°à§įà¦¥à¦¬à¦Ľ à¦°à§ĩà¦°
Ġà¦ļ à§ģà¦¦
ob s
à¦¾à¦ģ à¦ķ
Ġà¦ªà§įà¦°à¦¤à¦¿à¦¯à§ĭà¦Ĺ à¦¿à¦¤à¦¾à¦°
Ġà¦¯à§ģà¦¦à§įà¦§ à¦¾à¦ªà¦°à¦¾à¦§
à¦¡ à§ĩà¦¨
ic h
à¦¬à¦Ļà§įà¦Ĺà¦¬à¦¨à§įà¦§ à§ģ
Ġà¦¬à¦¾à¦¡à¦¼ à§Ģ
à§ĩà¦ķà§įà¦· à§ĩà¦¤à§įà¦°à§ĩ
Ġà§ª à§¬
à¦¨ à¦ĵ
Ġà¦² à¦¤
Ġà¦¶à¦¾à¦¨à§įà¦¤ à¦¿à¦°
Ġà¦² à§įà¦¯à¦¾à¦¬
à¦ªà§įà¦°à¦¾à¦ļ à§įà¦¯
à¦¬ à¦¦à¦¨à§įà¦¤
Ġà¦®à§ĭà¦° à¦Ĺ
Ġà¦«à§ĩà¦° à¦¦à§Į
Ġà¦°à¦ķà§įà¦¤ à§ĩà¦°
à¦¨à§įà¦¦ à¦¿
Ġà¦Łà§ĩà¦ķà§įà¦¸ à¦Ł
Ġà¦¬à§įà¦¯ à¦¾à¦¯à¦¼
à¦ħ à¦¸
Ġà¦ĩ à¦Ľ
à¦· à§įà¦£
Ġà¦ħà¦§ à§Ģà¦¨
Ġà¦ħà¦¨à§ģà¦Ńà§Ĥ à¦¤à¦¿
à¦¾à¦¬ à§ĭ
Ġà¦¦à§įà¦¬ à¦¾à¦°
à¦¾à¦ī à¦¦
ĠM on
à¦¾à¦ĵà¦¯à¦¼à¦¾à¦° à§įà¦¡
à¦°à¦ ĥ
à§įà¦¯ à¦¾à¦¶
Ġà¦ĭ à¦£à§ĩà¦°
à¦¿à¦¯à¦¼ à¦¾à¦Ľ
Ġà¦īà§İà¦¸ à¦¬à§ĩ
Ġà¦ĵà¦¯à¦¼ à§ĩà¦²
à¦ĺ à¦¨
Ġà¦¸à§įà¦Ł à§ĩà¦Ł
Ġà¦Ľà§ģà¦Ł à¦¿à¦°
Ġà¦¸ à§ĭà¦ľà¦¾
Ġà¦°à¦¾à¦ľ à§Ģà¦¬
Ġà¦ªà¦¿à¦Ł à¦¿à¦¯à¦¼à§ĩ
Ġà¦®à§ģ à¦«
- à¦ĸ
Ġà¦®à§ģà¦¦à§įà¦° à
Ġà¦®à§ģà¦¦à§įà¦°à ¦
Ġà¦®à§ģà¦¦à§įà¦°à¦ ¾
ĠL atest
à¦¬à¦¿à¦Ń à¦¿à¦¨à§įà¦¨
à¦¨à§Ģ à¦²
Ġà¦¸à§ĥ à¦ľà¦¨
Ġà¦ķ à¦¿à¦ī
Ġ à¦ĥ
à¦¾à¦ī à¦¡
à¦ħà¦ªà¦° à¦¾à¦¹à§įà¦¨
Ġà¦ª à§ĩà¦ľ
Ġà¦ªà§įà¦°à¦¶ à¦Ĥà¦¸
à§ĭà¦ªà¦¾à¦§ à§įà¦¯à¦¾à¦¯à¦¼à§ĩà¦°
Ġà¦Ł à¦¾à¦°à§įà¦®
à¦¯ à¦¶à§ĭà¦°
Ġà¦¬à¦¿à¦¸à§įà¦® à¦¯à¦¼
Ġà¦Ĩà¦¹ à¦¬à¦¾à¦¯à¦¼à¦ķ
à¦¸à§įà¦¤ à
à¦¸à§įà¦¤à ¦
à¦¸à§įà¦¤à¦ ¾
Ġà¦īà¦ª à¦°à§ĩà¦°
Ġà§ª à§©
Ġà¦¹ à¦¾à¦¡à¦¼
Ġp ost
à§Ī à¦¤à§įà¦°
Ġà¦¸à¦Ĥà¦¸à¦¦ à§Ģà¦¯à¦¼
Ġà¦Ĩà¦° à§ĭà¦¹
Ġà¦¸à§įà¦² à§ĭà¦Ĺà¦¾à¦¨
Ġà¦ª à§ģà¦ķà§ģà¦°
Ġà¦ĵà¦¯à¦¼ à¦¾à¦¶à¦¿à¦Ĥ
U R
Ġà¦ľ à§ĩà¦Ĺà§ĩ
Ġà¦Ĩà¦¹à¦® à§ĩà¦¦à§ĩà¦°
Ġà¦ķà¦° à§ģà¦£
à¦¾à¦° à§įà¦§
à¦¨ à§ĩà¦Ł
à¦ķ à¦¿à¦¨
à§įà¦ ¯à¦¼
Ġà¦° à¦¾à¦¤à§įà¦°
Ġà¦¦à§ĩà¦¬ à§Ģ
N ews
Ġà¦Ľà§ĩà¦² à§ĩà¦ķà§ĩ
à¦ľ à¦¾à¦¯à¦¼
Ġà¦ĩ à¦¸
Ġà¦Ī à¦¦à§ĩ
Ġà¦° à¦«à¦¿à¦ķ
Ġà¦Ĩà¦¨à§ģà¦·à§įà¦łà¦¾à¦¨à¦¿à¦ķ à¦Ńà¦¾à¦¬à§ĩ
Ġà¦ķà§ĩà¦ī à¦ĩ
Ġà¦ĩà¦¯à¦¼à¦¾à¦¬ à¦¾à¦¸à¦¹
à¦¯à¦¼à¦Ļà§įà¦ķ à¦°
Ġà¦¯ à¦¾à¦¦
e ave
Ġà¦¬à§ĥà¦¹ à¦¤à§įà¦¤à¦®
ĠØ§ÙĦ Ø
à¦¯à¦¼ à§ģà¦¬
Ġà¦¬à¦¡à¦¼ à§ĭ
à¦¨ à¦¾à¦«
à§ª à§§
Ġà¦ĩ à¦¬à¦¾à¦¦
Ġà¦ķà§ĥà¦· à¦ķà¦¦à§ĩà¦°
Ġà¦®à¦¹ à¦²
Ġà¦ªà§ģà¦¡à¦¼ à¦¿à¦¯à¦¼à§ĩ
à¦¾à¦¤ à¦¦à¦¨à§įà¦¤
Ġà¦ħà¦¬ à¦¿à¦²à¦®à§įà¦¬à§ĩ
Ġà¦¶à¦¿à¦¶ à§įà¦¨
Ġà¦¦à§ģà¦°à§įà¦Ń à§ĭà¦Ĺ
Ġà¦¶à¦¾à¦¹à¦ľ à¦¾à¦²à¦¾à¦²
à¦¯ à¦¾à¦°à¦¾
Ġà¦¸à¦Ļà§įà¦Ĺ à§ĩà¦ĩ
à¦¬ à¦¿à¦¡à¦¿
Ġà¦« à¦¾à¦¨à§įà¦¡
Ñ ģ
Ġà¦ķ à§Ī
Ġà§¨ à¦¯à¦¼
Ġà¦ķ à¦¿à¦°
Ġà¦¨ à¦¾à¦¡à¦¼
Ġà¦ªà§įà¦°à§ĩà¦ķà§įà¦· à¦¿à¦¤à§ĩ
Ġà¦ħà¦¬à¦¹ à¦¿à¦¤
Ġà¦ĸà§ĩà¦²à¦¾à¦§ à§ģà¦²à¦¾
à¦¬ à¦¾à¦ķ
à¦¾à¦° à¦¿à¦°
Ġà¦Ĩà¦¸ à§ĩà¦¨à¦¿
Ġà¦ªà§ĩà¦² à¦¾à¦®
Ġà¦Ĩà¦¸ à¦¿
à¦²à¦ ĥ
Ġà¦ª à¦¦à§ĩà¦°
Ġà¦ļà¦²à¦ļà§įà¦ļà¦¿à¦¤à§įà¦° à§ĩà¦°
Ġà¦Łà¦¿à¦īà¦Ł à§ĭà¦°à¦¿à¦¯à¦¼à¦¾à¦²
ï¿½ï¿½ ï¿½ï¿½
Ġà¦ıà¦¨ à¦¾à¦®à§ģà¦²
à§ĭà¦° à§ĩà¦°
Ġà¦®à¦¾à¦¨ à§ĩà¦ĩ
à¦¾à¦°à§įà¦¥ à§ĩ
le ment
Ġà¦¬ à§ĥà¦¤à§įà¦¤
Ġà¦¬à§įà¦² à§įà¦¯à¦¾à¦ķ
Ġà¦¹ à¦¾à¦«à¦¿à¦ľ
Ġà¦¬à¦¿à¦® à¦¾à¦¨à§ĩà¦°
e y
Ġà¦¸à¦°à§įà¦¬ à¦¨à¦¿à¦®à§įà¦¨
Ġà¦ªà¦°à¦¿à¦ļà¦¾à¦² à¦¨à¦¾à¦°
Ġs p
Ġà¦ħà§įà¦¯à¦¾à¦ªà§įà¦² à¦¿à¦ķà§ĩà¦¶à¦¨
à¦¿à¦¨ à¦¾à¦²
Ġà¦ľà§ĭà¦° à§ĩ
à¦¿à¦Łà¦¾à¦° à§įà¦¨
à¦° à§įà¦¯à§ĩà¦°
Ġà¦ªà¦°à¦¿à¦¬ à¦¹
Ġà¦Ĩà¦ľ à¦®
Ġà¦ħà¦Ń à¦¿à¦ľ
à¦® à¦¾à¦¹
à¦¬ à¦¤à§Ģ
Ġà¦¦ à¦¾à¦®à§ĩ
Ġà¦ħà¦°à§įà¦¥à¦¨à§Ģà¦¤ à¦¿à¦°
Ġà¦° à¦¾à¦ľà¦¾à¦°
Ġà¦¬à¦¾à¦ĩ à¦¨à¦¾à¦°à¦¿
à¦ĸ à§ģà¦¬
Ġà¦īà¦¦ à§įà¦¯à¦¾à¦¨
Ġà¦° à¦¿à¦«
Ġà¦° à§ĩà¦¸à§įà¦Ł
ation al
Ġà¦¸à§įà¦¥à¦¾à¦¨ à¦¾à¦¨à§įà¦¤à¦°
à¦ķ à§ĩà¦¶à§Ģ
à¦Ĩ à¦¶
Ġà¦¨ à¦°à¦¸à¦¿à¦Ĥ
Ġà¦Ĩà¦° à¦¾à¦®
Ġà¦° à¦ĩ
Ġà¦¤à¦¿à¦¨ à¦¿à¦ĩ
Ġà¦®à¦¾à¦¦à§įà¦°à¦¾à¦¸ à¦¾à¦°
à¦¾à¦ķ à§ĩà¦ĵ
Ġà¦ªà¦² à¦¾à¦¶
Ġà¦¡à§ĩà¦ª à§ģà¦Łà¦¿
à¦¿à¦¶ à
or ld
à¦¯à§ĭà¦Ĺ à§ĩ
ÙİØ ¹
Ġà¦¬à¦¿à¦Ńà¦¾à¦Ĺ à¦¬à¦°à¦¿à¦¶à¦¾à¦²
Ġà¦¦à§įà¦¬ à¦¨à§įà¦¦à§įà¦¬
5 6
Ġà¦¶à§įà¦°à§ĩà¦£ à¦¿
à¦¿à¦¶à ¦
à¦¿à¦¶à¦ ¾
Ġà¦ıà¦¬à¦¾à¦° à¦ĵ
Ġà¦¸à§ĩà¦¨à§įà¦Ł à¦¾à¦°à§ĩ
à¦ıà¦Ľ à¦¾à¦¡à¦¼à¦¾à¦ĵ
Ġà¦¦à¦°à§įà¦¶ à¦ķà¦¦à§ĩà¦°
Ġà¦Łà¦¾à¦°à§įà¦Ĺ à§ĩà¦Ł
à¦¿à¦ķ à¦¸
Ġà¦¹à§ĭà¦¯à¦¼ à¦¾à¦ĩà¦Ł
Ġà¦¦à§ĩà¦ĸ à¦Ľà¦¿
he t
Ġà¦²à¦ķà§įà¦· à§įà¦¯à¦®
Ġà¦® à¦¾à¦ĵ
à¦®à¦¨ à¦¿à¦°à¦¹à¦¾à¦Ł
Ġà¦¶à¦¹ à¦¿à¦¦à§ģà¦²
Ġà¦Ĺà§ģà¦²à¦¿à¦¬ à¦¿à¦¦à§įà¦§
à§įà¦ķ à
à§įà¦ķà ¦
à§įà¦ķà¦ ¾
Ġà¦ľà¦¾à¦® à¦¾à¦¨
Ġà¦¦ à¦¯à¦¼à¦¾
à§ĩà¦® à
à§ĩà¦®à ¦
à§ĩà¦®à¦ ¾
Ġà¦ķà¦¾à¦Ľ à§ĩà¦ĩ
r ess
Ġà¦¬à¦¨ à¦¾à¦®
Ġà¦ħà¦°à§įà¦¥ à§ĩà¦°
à¦¸à¦®à§įà¦ª à¦°à§įà¦ķ
Ġà¦Ĩà¦¨ à¦¸à¦¾à¦°
Ġà¦Ĩ à¦ļà¦¾à¦°
à¦¯à¦¼ à§ĩà¦²
à¦°à§įà¦¬ à¦°
Ġà¦īà¦ª à¦¯à§ĭà¦Ĺà§Ģ
à¦¿à¦® à¦¾à¦°
Ġà¦ļ à¦¤à§įà¦¬
à¦¾à¦ľ à§įà¦ľ
à¦° à¦¿à¦¤
Ġà¦ªà¦ŀà§įà¦ļ à¦¾à¦¯à¦¼à§ĩà¦¤
à¦¹ à§įà¦®
Ġà¦Ł à§ģà¦¯à¦¼à§ĩà¦¨à§įà¦Ł
à¦¿à¦ķ à¦¾à¦²
Ġà¦ĺà¦Ł à¦Ľà§ĩ
à¦¥ à§ĩ
o h
Ġà¦ĸ à¦£à§įà¦¡
à¦¿à¦Ĺ à§ģà¦£
à¦¿à¦ª à¦°
Ġt r
Ġà¦Ĩà¦¤à§įà¦® à¦ĺà¦¾à¦¤à§Ģ
Ġà¦¹à¦¾à¦¯à¦¼ à¦¦à¦¾à¦°
à¦¿à¦Ľ à¦¿à¦²
Ġà¦ªà¦¾à¦° à¦¬à§ĭ
" ).
Ġà¦¦à¦¿à¦² à§ĩà¦ĵ
Ġà¦« à¦¿à¦¤
Ġà¦ķà§įà¦¯à¦¾à¦®à§įà¦ª à¦¾à¦¸
% B
Ġà¦ľà¦¾à¦¨ à§ģà¦¯à¦¼à¦¾à¦°
à¦ľà§įà¦ŀà¦¾à¦¨ à¦¿à¦ķ
o ol
à¦¿à¦¬ à¦¦à§įà¦§
à§Ģ à¦¦à§ģà¦²
Ġà¦¬ à¦¿à¦¯à¦¼
Ġà¦īà¦ĩà¦¨à§įà¦¡ à§ĭà¦ľ
à¦ªà¦° à§įà¦¯à¦¾à¦¯à¦¼
à¦¾à¦Ĺ à¦°à§ĩà¦°
Ġà¦ª à§ģà¦·
Ġà¦¨à¦¾à¦Ĺà¦°à¦¿à¦ķ à¦¤à§įà¦¬
Ġà¦īà¦ļà§įà¦ļ à¦¾à¦°à¦£
à¦« à§įà¦²
Ġà¦¹à¦¾à¦¨ à¦¿à¦«
Ġà¦¡à§ĩà¦Ļà§įà¦Ĺ à§ģ
Ġà¦¸à¦¿à¦¦à§įà¦§à¦¾à¦¨à§įà¦¤ à§ĩà¦°
Ġà¦ĸ à§ĩà¦¤
ÙĴ Ùħ
en c
Ġ im
Ġà¦Ĳà¦ķà§įà¦¯à¦«à§įà¦°à¦¨à§įà¦Ł à§ĩà¦°
Ġà¦¦à§ĩà¦ĸ à¦Ľà§ĩà¦¨
à¦¾à¦°à§įà¦Ł à¦®à§ĩà¦¨à§įà¦Ł
Ġà¦¦à¦¶ à¦ķ
Ġà¦¸à¦Ĥà¦¬ à¦¾à¦¦à§ĩà¦°
Ġà¦°à§ĩà¦² à¦ĵà¦¯à¦¼à§ĩ
Ġà¦¸à§ĩà¦® à¦¿à¦«à¦¾à¦ĩà¦¨
Ġà¦¹à¦² à§ĩà¦°
à¦ªà¦¨à§įà¦¥ à§Ģ
Ġà¦¬à¦¿à¦¶à§įà¦¬ à¦¬à§įà¦¯à¦¾à¦ªà§Ģ
Ġà¦²à§ĭà¦ķ à¦¸à¦Ńà¦¾
" +
à¦¾à¦¨à§įà¦¦ à¦¿
Ġà¦ļà¦¾à¦ĩ à¦Ľà§ĩ
Ġà¦° à¦¾à¦«
v al
à¦¿à¦¨à§įà¦¤ à
à¦¿à¦¨à§įà¦¤à ¦
à¦¿à¦¨à§įà¦¤à¦ ¾
Ġà¦ķà¦° à¦¾à¦¤à§ĩ
Ġà¦Ń à§ĩà¦¨
à§ģà¦¨ à§ĩ
Ġà¦īà¦²à§įà¦²à§ĩà¦ĸ à§įà¦¯
Ġà¦¤ à¦¿à¦°
Ġà¦ªà¦¾à¦¨ à¦¨à¦¿
ĠC om
Ġà¦¬à¦¿à¦·à¦¯à¦¼ à¦Ĺà§ģà¦²à§ĭ
S D
E R
s o
Ġà§¨ à¦Łà¦¿
Ġà¦¹à§ģà¦®à¦¾à¦¯à¦¼ à§ģà¦¨
Ġà¦® à§ĭà¦¨
Ġà¦§à¦¾à¦ķà§įà¦ķ à¦¾à¦¯à¦¼
à¦Ĥ à¦Ĺ
Ġà¦ªà¦° à¦¿à¦¤à§įà¦¯
Ġ2 9
à§ģà¦¯à¦¼ à¦¾à¦¡
Ġà¦Ĩà¦¸ à¦°à§ĩ
EW S
Ġà¦ªà§įà¦°à¦¤à¦¿à¦° à¦ķà§įà¦·à¦¾
à¦¾à¦Ĺ à§Ģ
à¦¸à§įà¦¥ à¦¾à¦¨à§ĩà¦°
à§ģà¦² à¦¿à¦¯à¦¼à¦¾
Ġà¦¸à§Ģà¦® à¦¿à¦¤
Ġà¦ı à¦Ń
Ġà¦¯à§ĭà¦Ĺà¦¾à¦¯à§ĭà¦Ĺ à§ĩà¦°
m in
Ġà¦¯ à§ĩà¦ĩ
Ġà¦Ĩà¦² à§ģ
Ġà¦ªà¦¾à¦ĩà¦² à¦Ł
Ġà¦¶à¦¾à¦¹à¦ľ à¦¾à¦¹à¦¾à¦¨
à¦¬à¦¿à¦§ à¦¿
à¦¸ à§ģà¦¨
" :
Ġà¦¶ à¦¾à¦¯à¦¼
à¦¬ à¦¿à¦²
Ġà¦ķà¦¨ à§įà¦Ł
Ġà¦ªà¦¾à¦¸ à¦ĵà¦¯à¦¼à¦¾à¦°à§įà¦¡
Ġà¦ªà§įà¦°à¦Ń à§ĥà¦¤à¦¿
à¦¤à§įà¦¤ à¦¿à¦°
à¦¿à¦§ à¦¾à¦¨
Ġà¦¸à¦® à¦¾à¦ªà¦¨à§Ģ
Ġà¦Ł à¦¿à¦īà¦¨
à¦¦à§įà¦° à¦¬à§įà¦¯
à¦¾à¦ĩ à¦Ńà¦¾à¦°
Ġà¦ħà§įà¦¯à¦¾à¦¨à§įà¦¡ à§įà¦°à¦¯à¦¼à§ĩà¦¡
Ġà¦¹à§ĩà¦ģ à¦Łà§ĩ
à¦¬ à¦¿à¦¤à§įà¦¤
Ġà¦Ľà¦¾à¦¤à§įà¦° à¦¦à§ĩà¦°
Ġà¦ª à¦°à§įà¦·
Ġà¦ķ à¦¨à§įà¦¯
Ġà¦ľà¦¨à¦ªà§įà¦°à¦¿à¦¯à¦¼ à¦¤à¦¾
Ġà¦ĸ à¦¾à¦®à¦¾à¦°
5 7
Ġà¦ªà§įà¦°à§ĩà¦ķà§įà¦· à¦¾à¦ª
Ġà¦ªà§įà¦°à¦ľà¦¾à¦¤ à¦¿à¦°
Ġà¦¸à¦¾à¦¬ à¦§à¦¾à¦¨
Ġà¦« à¦Łà§ĭ
à¦¿à¦· à¦¦
Ġ201 2
Ġà¦¥ à§įà¦°
à¦¸à§įà¦ª à§ĭà¦°à§įà¦Łà¦¸
à¦Ĩ à¦¨à§ĩà¦°
Ġà¦ħà¦¸à§įà¦¬ à¦¾à¦Ńà¦¾à¦¬à¦¿à¦ķ
à¦¾à¦°à§įà¦ľ à¦¿
à¦¾à¦¦ à¦¿à¦¨
Ġà¦ªà§įà¦°à¦¯à§ĭà¦ľ à§įà¦¯
k antho
Ġ 00
Ġà¦¬à¦° à¦ĸà¦¾à¦¸à§įà¦¤
Ġà¦¸à§įà¦ª à§įà¦¯à¦¾à¦¨
ŀ à§įà¦Ľ
Ġà¦® à§ĩà¦ĩà¦²
Ġà¦¦à¦¿à¦ļ à§įà¦Ľà¦¿
Ġà¦ª à¦¾à¦Ĺà¦²
à¦ªà¦° à¦¿à¦ļ
à¦¾à¦ģ à¦§
Ġà¦¨ à¦¿à¦ķà§įà¦·
Ġà¦ľà¦¾à¦² à¦¾à¦²
à¦¿à¦¬ à§ĩ
Ġà¦°à¦ĵ à¦¨à¦¾
Ġà¦¸à§ĩà¦ĸà¦¾à¦¨ à¦ķà¦¾à¦°
âĨ Ĳ
Ġà¦² à¦¿à¦ª
Ġà¦¨à¦¿à¦¯à¦¼ à§ĩà¦Ľà¦¿à¦²à§ĩà¦¨
à¦¦à§Ī à¦¨à¦¿à¦ķ
Ġà¦Ĩà¦²à§ĭà¦ķ à¦ļà¦¿à¦¤à§įà¦°
Ġà¦¨ à§ģà¦¸à¦°
Ġà¦ĸà§ĭà¦ķ à¦¾à¦®à¦¨à¦¿
Ġà¦ªà§įà¦°à¦ļà¦¾à¦° à¦¿à¦¤
Ġà¦¦à¦¶ à¦ķà§ĩà¦°
Ġà¦¬ à§°
Ġà¦¸ à¦¿à¦ģ
Ġà¦¬à¦¹ à¦¾à¦²
Ġà¦¤à§įà¦° à¦¿à¦ª
Ġà¦ª à¦¾à¦¤à¦¾à¦¯à¦¼
- à§§à§§
Ġà§« à§Ń
Ġà¦ľà¦Ĺ à¦¤à§ĩ
Ġà¦® à§ĩà¦®
Ġà¦Łà§įà¦¯à¦¾à¦¬à¦² à§ĩà¦Ł
Ġà¦ªà§ĩà¦¸ à¦¾à¦°
Ġà¦®à§įà¦¯à¦¾à¦Ĺ à¦¾à¦ľ
Ġà¦®à¦§à§įà¦¯ à§ĩà¦ĵ
Ġà¦®à§ĩà¦§ à¦¾à¦¬à§Ģ
Ġà¦¬ à¦¾à¦ĩà¦ķ
Ġà¦¸à¦¾à¦ķà§įà¦· à§Ģ
Ġà¦¸à§įà¦ª à¦¿à¦ķà¦¾à¦°
Ġà¦ł à§ĭà¦ģ
à¦ļà¦² à¦¤à¦¿
Ġà¦¦à§ģà¦¦ à¦ķ
à¦¾à¦¨ à§įà¦§
d er
Ġà¦¦à¦¶ à¦ķà§ĩ
Ġà¦¸à§įà¦Ł à§ģà¦¡
Ġà¦ª à¦°à§įà¦£
ace book
Ġà§§ à¦®
Ġà¦ĩà¦²à§ĩà¦ķà¦Łà§įà¦° à¦¨à¦¿à¦ķ
3 1
Ġà¦¬ à§ĩà¦ª
Ġà¦® à¦Ĺ
w it
à¦ľ à¦¾à¦Ĺ
Ġà¦ľà¦¾à¦® à¦¾à¦¤
Ġà¦ĸ à§ĭà¦¦
Ġà¦ļà¦Łà§įà¦Ł à§ĭà¦ªà¦¾à¦§à§įà¦¯à¦¾à¦¯à¦¼
à¦¸à¦°à§įà¦¬ à¦¾à¦§à¦¿à¦ķ
Ġà¦ķà§ĭà¦¹ à¦²à¦¿
à§ĭ à¦¤à§įà¦¤à¦°
à¦ļ à¦Łà§įà¦°à¦Ĺà§įà¦°à¦¾à¦®
à¦ª à¦¨
Ġà§ª à§§
Ġà¦Ĳà¦¤à¦¿à¦¹ à§įà¦¯à¦¬à¦¾à¦¹à§Ģ
Ġà§ª à§¯
Ġà¦¸à¦¾à¦«à¦² à§įà¦¯à§ĩà¦°
Ġà¦¸à¦Ĥà¦¶ à§ĭà¦§
à¦§ à¦¿
Ġà¦«à¦°à¦¿à¦¦ à¦ªà§ģà¦°
à¦¦ à§įà¦¯à§ģà¦¤
Ġà¦¤à¦¥à§įà¦¯ à§ĩà¦°
Ġà¦¯à§ģà¦ķà§įà¦¤ à¦°à¦¾à¦ľà§įà¦¯
Ġà¦ĩ à¦¸à¦®
Ġà¦¶ à¦Ł
à¦¤ à¦²à§Ģ
à¦ĸ à¦®
à§įà¦° à§ĩ
Ġà¦² à¦¾à¦ĩà¦ķ
:à§© à§¦
à¦¨ à¦¾à¦²
à¦¿à¦Ł à§ĩà¦°
Ġà¦Ń à¦¿à¦ķà§įà¦·
ĠØ ¥
Ġà¦īà¦ļ à¦¿à§İ
e en
âĢĮà§įà¦¯ à¦¾à¦¬à§ĩà¦°
Ġà¦¨à§ĩà¦¤ à¦¿à¦¬à¦¾à¦ļà¦ķ
à¦¸à§Į à¦¦à¦¿
Ġà¦¤à¦¹à¦¬ à¦¿à¦²
à¦¿à¦¦ à¦°à§įà¦¶à¦ķ
Ġà¦¸à§įà¦ª à§ĩà¦¶à¦¾à¦²
er n
Ġà¦¬à¦¾à¦¤ à¦¿à¦²à§ĩà¦°
5 8
Ġà¦ħà¦ª à§ģ
Ġà¦ĩà¦ŀà§įà¦ľà¦¿à¦¨à¦¿à¦¯à¦¼à¦¾à¦° à¦¿à¦Ĥ
à¦¬ à¦Ĺà§ģà¦¡à¦¼
Ġà¦Ĩà¦§ à
Ġà¦Ĩà¦§à ¦
Ġà¦Ĩà¦§à¦ ¾
à§¨à§¦à§§à§ Ń
Ġà¦¦ à¦«à¦¤à¦°
Ġà¦ªà¦° à¦¦à¦¿à¦¨
Ġà¦¸à¦¾à¦°à§įà¦Ń à¦¿à¦¸à§ĩà¦°
Ġà¦¹à¦¾à¦ī à¦ľ
Ġà¦ĸ à¦¸
à¦¾à¦ŀà§įà¦ļ à¦²à§ĩ
à¦¸à§Ģ à¦®à¦¾
à¥ ĩ
Ġà¦¬à¦¸ à¦¨à§įà¦¤
à§ĩà¦¸ à¦¿
Ġà¦¬à¦¾à¦ķ à§įà¦¸
Ġà¦ļà¦¾à¦° à¦ľà¦¨
Ġà¦¸à§įà¦¬à¦¾à¦ķà§įà¦·à¦° à¦¿à¦¤
Ġà¦¦ à¦¿à¦Ĺ
Ġà¦ķ à¦¿à¦Ľà§ģà¦°
à¦° à¦¾à¦¸à§ĩà¦°
Ġà¦Ľ à¦¾à¦¯à¦¼à¦¾
Ġà¦¶à¦¾à¦¸à§įà¦¤ à¦¿à¦°
Ġà¦°à¦¬ à¦¿à¦īà¦²
Ġà¦ľà¦² à¦¬à¦¾à¦¯à¦¼à§ģ
Ġà¦ľ à¦²à§ĩ
à¦ªà¦¾à¦¤ à
à¦ªà¦¾à¦¤à ¦
à¦ªà¦¾à¦¤à¦ ¾
Ġà¦²à¦¿à¦Ĺ à§ĩà¦°
Ġà¦°à¦¹à¦®à¦¾à¦¨ à¦ķà§ĩ
Ġà¦ıà¦¸ à§ĭà¦¸à¦¿à¦¯à¦¼
Ġà¦¬à¦² à§ĩà¦Ľà¦¿à¦²
Ġà¦Ĺà§ĭà¦·à§įà¦ł à§Ģ
Ġà¦¸à¦¾à¦ķà§įà¦· à§įà¦¯
Ġà¦¦à¦¿à¦¬ à§ĩà¦¨
à¦² à§įà¦Ł
Ġà¦®à¦¯à¦¼à¦¨ à¦¾à¦¤à¦¦à¦¨à§įà¦¤
Ġà¦Ń à§ĭà¦²
Ġà¦ķà¦¾à¦® à¦°
à¦£ à¦¿
à¦¿ à¦°à§įà¦Ń
Ġà¦¸à§įà¦¥ à¦¿à¦°
à¦°à§Ĥà¦ª à§ĩ
Ġà¦ķà¦®à¦ªà§įà¦²à§ĩà¦ķà§įà¦¸ à§ĩ
Ġà¦²à§ĭà¦ķ à¦¦à§ĩà¦°
à¦ī à¦ļà§įà¦ļ
Ġà¦Ł à§ĭà¦¯à¦¼à§ĩà¦¨à§įà¦Ł
Ġà¦¸à§įà¦¬ à¦Ńà¦¾à¦¬
Ġà¦ħà¦¨ à¦¿à¦¶à§įà¦ļ
Ġà¦ªà¦°à¦¿à¦· à§ĩà¦¬à¦¾
Ġà¦Łà§ĩà¦® à¦ªà§įà¦²à§ĩà¦Ł
à¦® à§ĩà¦¹
Ġà¦ªà§įà¦° à§ĭà¦¡à¦¾à¦ķ
à¦¾à¦¬ à¦¿à¦¤
Ġà¦ķà§įà¦·à¦¤ à¦¿à¦ªà§Ĥ
à¦¯à¦¼ à§ĩà¦¡
à§ĭà¦ª à¦²
à¦® à§Ģ
Ġà¦° à¦¿à¦Łà¦¾à¦°à§įà¦¨
Ġà¦¤à¦¾à§İ à¦ķà§įà¦·à¦£à¦¿à¦ķ
Ġà¦ĸà¦¤ à¦¿à¦¯à¦¼à§ĩ
Ġà¦¬à¦¾à¦°à§įà¦·à¦¿à¦ķ à§Ģ
Ġà¦¹à§ĭà¦¸ à§įà¦Ł
5 9
Ġà¦¶à¦¿à¦ķà§įà¦· à¦¾à¦®à¦¨à§įà¦¤à§įà¦°à§Ģ
Ġà¦°à§ĭà¦¡ à§ĩà¦°
à¦ľ à¦¬
Ġà¦« à¦ķà¦¿à¦°
t ion
à¦¿à¦¸ à¦®à§įà¦ª
Ġà¦ħà¦°à§įà¦¥ à§ĩ
Ġà¦¬à¦¾à¦Ĺ à§ĩà¦°à¦¹à¦¾à¦Ł
Ġà¦¬à¦¾à¦Ļ à¦¾à¦²à¦¿à¦°
à¦¾à¦ĺ à¦¾à¦Ł
Ġà¦¸à§įà¦¥ à¦²
Ġà¦Ĺà§ĥà¦¹ à§Ģà¦¤
Ġà¦¦à§ģà¦°à§įà¦¨ à§Ģà¦¤
Ġà¦ªà¦¾à¦Ľ à
Ġà¦ªà¦¾à¦Ľà ¦
Ġà¦ªà¦¾à¦Ľà¦ ¾
Ġà¦ī à¦¨
Ġà¦ķ à¦¿à¦®
ri pt
Ġà¦· à¦·à§įà¦ł
Ġà¦¸à¦®à§įà¦ª à¦¦à§ĩà¦°
Ġà¦¹ à§ģà¦ģ
Ġà¦¨à§Ģà¦° à¦¬
à§ĭà¦¯à¦¼ à¦¾à¦²
à¦¸ à§ĩà¦ĸà¦¾à¦¨à§ĩ
à¦Ĺ à¦°à§ĩà¦°
à¦¸ à¦Ĥà¦¶
Ġon line
à¦¯ à§ģà¦¬
à¦¸ à¦¾à¦¦
Ġà¦ħà¦¬à¦²à¦®à§įà¦¬ à¦¨
Ġà¦¦ à¦¾à¦ª
Ġà¦®à¦¾à¦¹à¦« à§ģà¦ľ
Ġà¦Ĺ à¦¨
ÙİÙ ĩ
à¦ľ à¦¨à§ĩ
Ġà¦Ĩà¦ĩ à¦¡à¦¿
Ġà¦ħà¦ª à¦¶à¦¨
Ġà¦¦à§ĩà¦¶ à¦¿
à§° à¦¿
Ġà¦¦à§ģà¦ĩ à¦ľà¦¨
Ġà¦ľà¦¨à§įà¦® à¦Ĺà§įà¦°à¦¹à¦£
à§ģà¦¡à¦¼ à
à§ģà¦¡à¦¼à ¦
à§ģà¦¡à¦¼à¦ ¾
Ġà¦Ń à¦°à¦¾
Ġà¦ķà¦¿à¦Ĥ à¦¬à¦¦à¦¨à§įà¦¤
Ġà¦« à§įà¦¯à¦¾à¦¨
à¦¶ à§ĩà¦°
Ġà¦¸ à¦¾à¦ĩà¦ķ
à¦²à§ĩ à¦¸
Ġà§Ń à§§
Ġà¦ª à¦¾à¦¤à¦¾à¦°
Ġà¦ķà¦¾à¦°à¦¿à¦Ĺ à¦°à¦¿
Ġà¦ªà¦° à¦®à¦¾à¦£à§ģ
Ġà¦ķà§įà¦¯à¦¾à¦®à§įà¦ª à§ĩ
à¦§ à¦¾à¦°à§Ģ
Ġà¦¹ à¦¾à¦ľà§Ģ
ĠJ une
t itle
Ġà¦¦à§ĩà¦¶ à¦Ĺà§ģà¦²à§ĭà¦°
Ġà¦¬à¦° à¦¾à¦¤
i o
Ġà¦¸à¦®à§įà¦®à¦¿à¦² à¦¿à¦¤
Ġà¦¬à¦¾à¦¡à¦¼ à§ĩ
- b
Ġà¦Ĩà¦Ĺ à¦¾à¦®
Ġà¦¸à¦¾à¦® à§įà¦°à¦¾à¦ľ
Ġà§§à§¯ à§«
Ġà§© à¦Łà¦¿
Ġà¦Ĩà¦« à§įà¦°à¦¿à¦ķ
à¦¬à§įà¦¯à¦¬ à¦¹à¦¾à¦°
Ġà¦¬à¦¸à§įà¦¤ à§ģ
Ġà¦°à¦¾à¦¸ à¦¾à¦¯à¦¼à¦¨à¦¿à¦ķ
Ġà¦Ĩà¦¶ à¦¾à¦¯à¦¼
Ġà¦ħà¦Ĥà¦¶ à§ĩà¦°
Ġà¦Ńà§įà¦°à¦¾à¦® à§įà¦¯à¦®à¦¾à¦£
Ġà¦Łà¦¾à¦ĩ à¦ª
à§ĥà¦¹ à§Ģà¦¤
Ġà¦¬à¦¿à¦Ń à¦ķà§įà¦¤
Ġà¦¤à§ģà¦² à§ĩà¦Ľà§ĩà¦¨
Ġà¦ľ à¦²à§ĩà¦°
à¦ķ à¦ªà¦¿à¦°à¦¾à¦ĩà¦Ł
Ġà¦ħà¦°à§įà¦¥à¦¬à¦Ľ à¦°à§ĩ
Ġà¦¬à§ĥà¦¹ à¦¤à§įà¦¤à¦°
Ġà¦¨à¦¿à¦ª à§Ģà¦¡à¦¼
Ġà¦Ĩ à¦¤à¦¿à¦ķ
à¦¬à¦¾à¦° à§ĩ
à¦ĸ à¦£à§įà¦¡
à¦°à§įà¦ļ à¦¾à¦°
Ġà¦Ĩà¦¦à¦¿à¦¬ à¦¾à¦¸à§Ģ
Ġà¦ħà¦Ńà¦¿à¦¯ à¦¾à¦¨à§ĩà¦°
Ġà¦ªà§įà¦¯à¦¾à¦° à¦¾à¦®
Ġà¦ĩà¦¨à§įà¦¡ à¦¿à¦ľ
à¦ª à§ĥà¦¥
Ġà¦¶à¦¿à¦ķà§įà¦·à¦¾à¦¬ à¦°à§įà¦·
Ġà¦¦à¦ĸ à¦²à§ĩ
Ġà¦° à§ĭà¦¬
à¦« à¦¾à¦®à¦¾à¦°à§Ģ
Ġà¦¶ à¦¾à¦²
n o
Ġà¦ªà§įà¦°à¦¦à§ĩà¦¶ à§ĩà¦°
Ġà¦Ĩà¦ķà§įà¦°à¦¾à¦¨à§įà¦¤ à§ĩà¦°
à¦¥ à¦¿à¦¤
à§ĩà¦ Ĥ
Ġà¦¬à§Īà¦ł à¦ķà§ĩà¦°
à¦¯ à¦ĸà¦¨
Ġà¦ªà§įà¦°à¦¤à¦¿à¦¬ à¦Ľà¦°
Ġà¦«à¦¿à¦² à¦¿à¦ª
Ġà¦¬à¦¿à¦¸à§įà¦«à§ĭà¦° à¦£
à¦Ń à¦¿à¦¡
à¦¸à¦¾à¦® à¦¾à¦ľà¦¿à¦ķ
Ġà¦² à¦¿
Ġà¦¡à§ĩà¦Ńà§ĩà¦² à¦ªà¦®à§ĩà¦¨à§įà¦Ł
- à¦ķà¦®
Ġà¦¬ à¦¾à¦°à§ĩà¦°
Ġà¦¸à¦®à¦¯à¦¼ à¦¸à§Ĥà¦ļ
ph p
à¦ħ à¦§
Ġà¦¬à¦¿à¦¦à§įà¦¯à§ģà¦¤ à§ĩà¦°
ĠJan uary
Ġà¦ħà¦¨à§ģà¦ªà§įà¦° à¦¬à§ĩà¦¶
à¦¾à¦°à¦£ à¦¾à¦°
à¦Ĩ à¦«
Ġà¦ħà¦¨à§ģà¦¶à§Ģà¦² à¦¨
Ġà¦® à¦¾à¦ķ
à¦¯ à¦¾à¦°
a id
Ġà¦ļà¦¾à¦² à¦¾à¦ļà§įà¦Ľà§ĩ
Ġà¦ķà§įà¦·à§ĩà¦¤à§įà¦° à§ĩà¦ĩ
à¦¿à¦¬ à¦°
Ġà¦ªà¦¾à¦ł à¦¾à¦¤à§ĩ
Ġà¦¬à¦¿à¦§ à¦¿
à§¬ à§«
ĠI s
à¦Ĺ à§ģà¦ªà§įà¦¤
Ġà¦ľà§ĭà¦° à¦¦à¦¾à¦°
Ġà¦¨à¦¾à¦¸ à¦¿à¦®
à§įà¦¡ à
à§įà¦¡à ¦
à§įà¦¡à¦ ¾
à§įà¦² à¦¾à¦°
Ġà¦ļà¦² à¦Ľà¦¿à¦²
à¦ħà¦Ń à¦¿à¦¯à§ĭà¦Ĺ
Ġà¦ķà§įà¦· à§ĩà¦ª
Ġà¦¸à§įà¦¬à§ĩà¦ļà§įà¦Ľà¦¾à¦¸à§ĩà¦¬ à¦ķ
à¦¨à¦¾à¦® à
à¦¨à¦¾à¦®à ¦
à¦¨à¦¾à¦®à¦ ¾
Ġà¦ªà¦°à¦¿à¦ªà§įà¦°à§ĩà¦ķà§įà¦· à¦¿à¦¤à§ĩ
Ġà¦¤ à¦¾à¦Ĺ
Ġà¦ļ à¦¾à¦ģ
Ġà¦ªà¦° à¦®
3 4
Ġà¦¤à¦¾à¦° à¦¾à¦ĵ
à¦¾à¦¯ à§įà¦¯
Ġà¦ľ à§ģà¦¯à¦¼à§ĩà¦²
Ġà¦ķà¦¾à¦ª à§ģà¦°
Ġà¦¸à¦®à§įà¦ªà§įà¦° à¦¦à¦¾à¦¯à¦¼
Ġà¦¬à¦¾à¦ķ à§įà¦¯
Ġà¦ķà§ĭà¦° à¦¬à¦¾à¦¨
Ġà¦¨ à¦¾à¦¹
Ġà¦ķà§° à§ĩ
Ġà¦¸ à§ĩà¦ķà§įà¦·à§ĩà¦¤à§įà¦°à§ĩ
Ġà¦¸à¦ŀà§įà¦ļ à¦¯à¦¼
Ġà¦¦à§ĩà¦¶ à¦Łà¦¿à¦¤à§ĩ
ĠØ ±
à¦ĩ à¦®
Ġà¦¬ à¦¸à¦²
Ġà¦¶à¦¾à¦¹ à§Ģà¦¨
Ġà¦¬à¦¹ à¦¿à¦·à§įà¦ķà¦¾à¦°
Ġà¦ķ à§ģà¦ĩ
Ġà¦ķà¦°à§įà¦®à¦¸à§Ĥà¦ļ à§Ģ
à§Ģà¦Ĺà¦ŀà§įà¦ľ à§ĩ
à¦¶ à§ĩà¦¦
à¦ª à¦Ł
Ġà¦¨à¦ķ à¦¶à¦¾
Ġà¦ķà¦² à¦¾à¦®
à¦¬à¦¸à§įà¦¤ à§ģ
Ġà¦ľ à§įà¦¬à¦°
à¦¥ à§ĩà¦°
à¦°à§įà¦ĺ à§įà¦¯
à¦ªà§įà¦° à¦¬à¦¾à¦¸
Ġà¦¬à§įà¦¯à¦¬à¦¹ à¦¾à¦°à§ĩ
Ġà¦¶à¦¿à¦ķà§įà¦· à¦¾à¦ªà§įà¦°à¦¤à¦¿à¦·à§įà¦ł
Ġà¦ıà¦ķà§ĩ à¦ķ
Ġà¦¸à§įà¦¬à¦¾à¦Ĺ à¦¤à¦¿à¦ķ
Ġà¦® à¦«
Ġà¦®à§įà¦¯ à¦¾à¦¸
à¦¾à¦®à§įà¦® à¦¦
à¦Ł à¦¿à¦Ń
Ġà¦ıà¦®à¦¨ à¦Łà¦¾
à§ĭà¦¸ à§įà¦Łà¦¾à¦°
Ġà¦¶ à§ĥà¦Ļà§įà¦ĸà¦²à¦¾
Ġà¦¸ à¦¿à¦Ĩà¦ĩ
Ġà¦ıà¦ķ à¦¦à¦¿à¦ķà§ĩ
à¦ª à§ĭà¦·
Ġà¦¸à¦« à¦°à§ĩà¦°
Ġà¦ľ à§ĭà¦Ĺ
à¦Ńà¦¾à¦° à¦¤à§ĩ
à¦°à§ĭà¦¹à¦¿à¦Ļà§įà¦Ĺ à
à¦°à§ĭà¦¹à¦¿à¦Ļà§įà¦Ĺà ¦
à¦°à§ĭà¦¹à¦¿à¦Ļà§įà¦Ĺà¦ ¾
Ġ à¦·à§įà¦Ł
Ġà¦¬à¦°à§įà¦· à§ĩà¦°
Ġà¦Ľà§ĩà¦² à§ĩà¦®
à¦ªà§įà¦°à¦¤ à¦¿à¦·à§įà¦ł
R ead
Ġà¦ªà§įà¦°à¦ľ à§ĩà¦ķà§įà¦Ł
Ġà¦Ĩà¦¸ à¦¿à¦«
Ġà¦¬à§ģà¦¦à§įà¦§ à¦¿à¦ľà§Ģà¦¬
Ġà¦ª à§ģà¦ķ
Ġà¦Ń à¦¯à¦¼à¦Ļà§įà¦ķà¦°
ĠâĢĺ âĢĮ
à¦¬ à¦¿à¦ļà¦¾à¦°
Ġà¦¸à¦Ĥà¦ĸ à§įà¦¯
à¦¾à¦ķ à§ĥà¦¤
Ġà¦īà¦ªà§ĩà¦ķà§įà¦· à
Ġà¦īà¦ªà§ĩà¦ķà§įà¦·à ¦
Ġà¦īà¦ªà§ĩà¦ķà§įà¦·à¦ ¾
Ġà¦¬à¦¾à¦¸ à¦¾à¦°
Ġà¦¹ à¦¿à¦Ł
Ġà¦² à§ĩà¦ķ
Ġà¦Ńà¦¾à¦²à§ĭ à¦Ńà¦¾à¦¬à§ĩ
à¦¸à§įà¦¤ à§įà¦°à§Ģ
Ġà¦¸à¦®à¦°à§įà¦¥ à¦ķ
Ġà¦¦à¦¿à¦²à§įà¦² à¦¿à¦°
à¦¿à¦¦ à¦¿à¦¨
ĠMar ch
à¦¾à¦¨à§įà¦¡ à¦¾à¦°
à¦ª à§įà¦¨
à¦¨ à§ĩà¦¤à¦¾
à¦ļà¦¿à¦ķ à¦¿à§İ
à¦¸ à¦¤à§įà¦¯
Ġà¦ħà¦¨à§ģ à¦®à¦¾à¦¨
Ġà¦² à§ĭ
Ġà¦¶ à¦¯à¦¼
Ġà¦¶à§ģà¦¨ à§ĩà¦Ľà¦¿
à¦ªà§įà¦°à¦¶ à¦¾à¦¸à¦¨
à¦¤à¦° à§ģà¦£
Ġà¦«à§ĩà¦² à§ģà¦¨
. php
3 00
Ġà¦¨à¦¿à¦ľ à§ĩà¦ĵ
Ġà¦¬à§ĭà¦¨ à§ĩà¦°
Ġà¦ĩà¦¯à¦¼ à¦°à§įà¦ķ
Ġà¦ĺ à¦¾à¦ģ
Ġà¦Ĺ à¦¾à¦ĩà¦¡
Ġà¦¹ à§ģà¦ĩ
à¦¾à¦Ĺ à§ģà¦²à§ĭà¦°
em ail
Ġà¦ķà¦¾à¦° à§įà¦¤
Ġà¦ķà¦¾à¦Ĺà¦ľ à¦ªà¦¤à§įà¦°
Ġà¦¡ à§ĭà¦®
Ġà¦ķà¦®à¦¾à¦¨ à§ĭà¦°
à¦¿à¦ı à¦²à§ĩà¦°
à¦¿à¦¯à¦¼ à¦¾à¦¤
Ġà¦Ĺà§ģà¦² à¦¶à¦¾à¦¨
Ġà¦ªà¦°à¦¾à¦ľ à¦¯à¦¼
Ġà¦īà¦¦ à¦¯
Ġà¦ªà¦¾à¦ķà¦¿à¦¸à§įà¦¤ à¦¾à¦¨à§ĩ
Ġà¦īà¦ªà¦²à¦ķà§įà¦· à§įà¦¯à§ĩ
Å ĵ
ĠApr il
- à¦²
Ġà¦®à¦° à¦¿à¦ļ
Ġà¦¯à¦¾à¦¨à¦ľ à¦Ł
Ġà¦¸à¦¾à¦¬ à§įà¦¬à¦¿à¦°
à¦®à¦¾à¦¨à§ģà¦· à§ĩà¦°
Ġà¦¨ à¦¾à¦¬
Ġà¦Ĩà¦¤à§įà¦® à¦¸à¦®
à¦¯à§ĭà¦Ĺ à¦¾à¦¯à§ĭà¦Ĺ
Ġà¦¬à§ĥ à¦ķà§įà¦·
Ġà¦ªà§įà¦°à¦£ à¦¯à¦¼à¦¨
- à¦¤
p ro
à§° à¦¤
Ġà¦ĩà¦¬à¦¨ à§ģ
Ġà¦®à§ģà¦¹ à¦®à§įà¦®à¦¦
Ġà¦®à¦¹à¦¾à¦¸à¦¡à¦¼ à¦ķà§ĩ
Ġà¦ıà¦ķà¦¾à¦¡à§ĩà¦® à¦¿
Ġà¦ıà¦ĸà¦¾à¦¨ à¦ķà¦¾à¦°
Ġà¦¨à§ĩà¦¤à¦¾à¦ķà¦°à§įà¦® à§Ģ
Ġà¦²à¦¾à¦ĩ à¦¬à§įà¦°
Ġà¦¸à§įà¦¤ à¦°
Ġà¦Ńà§Ĥ à¦ģ
Ġà¦ľà¦¾à¦° à§įà¦¨
Ġà¦¹ à§ĩà¦¸à§ĩ
Ġà¦¹à¦¾à¦¬à¦¿à¦¬ à§ģà¦°
à§§à§¯ à§¯
Ġà¦¸à¦®à¦Ŀ à§ĭà¦¤à¦¾
Ġà¦ķà¦¾à¦¬ à§įà¦¯
Ġà¦¤à¦¾à¦² à
Ġà¦° à¦¾à¦ĩà¦Ł
Ġà¦¤à¦¾à¦²à ¦
Ġà¦¤à¦¾à¦²à¦ ¾
Ġà¦«à§ĩà¦¨ à§Ģ
Ġà¦ª à¦¾à¦ĵà¦¯à¦¼à¦¾à¦¯à¦¼
Ġà¦ľà¦¨à¦Ĺà¦£ à¦ķà§ĩ
à¦¿à¦² à¦¾à¦¯à¦¼
Ġà¦ıà¦² à§ĩà¦¨
Ġà¦ħà¦¨à§ģà¦¦ à¦¾à¦¨
à§ĥà¦·à§įà¦Ł à¦¿
Ġà¦Ĩà¦®à¦¿à¦¨ à§ģà¦²
à¦¸ à¦¨à§įà¦¦
ĠS eptember
Ġà¦Ĺà¦¾à¦ĩ à¦¬à¦¾à¦¨à§įà¦§
Ġà¦Ĺà¦£à¦¤à¦¨à§įà¦¤à§įà¦° à§ĩà¦°
Ġà¦ªà§įà¦°à¦¯à¦¼ à¦¾à¦¤
à¦¾à¦ĩ à¦¯à¦¼à§ĩ
à¦Ĩà¦® à§ĩà¦°
- à¦¸à¦Ĥ
Ġà¦¥ à¦¿à¦¯à¦¼à§ĩà¦Ł
Ġà¦ıà¦ĸà¦¾à¦¨ à§ĩà¦ĩ
Ġà¦Ńà¦¾à¦¬ à§ĩà¦ĩ
Ġà¦ª à¦¿à¦¨
Ġà¦¸à¦®à§įà¦° à¦¾à¦Ł
m l
à¦¿à¦ľ à
à¦¿à¦¶ à¦¨à¦¾à¦°
à¦¿à¦¶ à§įà¦¬à¦¾à¦¸
à¦¿à¦ľà ¦
à¦¿à¦ľà¦ ¾
à¦ķà§įà¦ķ à
à¦ķà§įà¦ķà ¦
à¦ķà§įà¦ķà¦ ¾
Ġà¦ļà¦¿à¦ķà¦¿à§İà¦¸ à¦ķà§ĩà¦°
Ġr es
ĠØ Ń
Ġà¦° à§ĭà¦²
Ġà¦¸à¦¾à¦ĩ à¦¬à¦¾à¦°
à¦ĩà¦Ĥ à¦°
Ġà¦¬à¦¿à¦¨ à§įà¦¦
Ġà¦ķà§įà¦¯à¦¾à¦®à§įà¦ª à¦¾à¦¸à§ĩ
Ġà¦² à¦¿à¦Ńà¦¾à¦°
à¦¿à¦ª à¦¤à§įà¦¯
Ġà¦¶ à¦ªà¦¿à¦Ĥ
Ġà¦Ĺà¦¾à¦¨à§įà¦§ à§Ģ
à¦¿à¦¦ à¦¿
à¦¶ à¦¾à¦¯à¦¼
Ġà¦Ĩà¦ĩà¦¨ à¦Ĺà¦¤
Ġà¦ķà§įà¦° à¦¾à¦ĩà¦®
Ġà¦ıà¦ķà¦ľà¦¨ à¦ķà§ĩ
Ġà¦ľ à¦¾à¦°à§įà¦¸
à¦ħ à¦¥
à¦¾à¦¦ à§įà¦¯
Ġà¦¦à¦¾à¦« à¦¨
Ġà¦® à¦²à§įà¦²
à¦¾à¦° à§įà¦ķ
Ġà¦¶à§įà¦°à§Ģà¦²à¦Ļà§įà¦ķ à
Ġà¦¶à§įà¦°à§Ģà¦²à¦Ļà§įà¦ķà ¦
Ġà¦¶à§įà¦°à§Ģà¦²à¦Ļà§įà¦ķà¦ ¾
à¦¾à¦¥ à
à¦¾à¦² à§ĩà¦ĸ
à¦Ĩà¦Ĺ à¦¸à§įà¦Ł
Ġà¦ªà§įà¦°à¦¿à¦¯à¦¼ à¦¾à¦Ļà§įà¦ķ
Ġà¦Ĺà¦¡à¦¼ à¦¾à¦°
Ġà¦®à§Ĥà¦² à§įà¦¯à§ĩ
Ġà¦¸à¦° à¦²
à¦¾à¦¥à ¦
à¦¾à¦¥à¦ ¾
Ġà¦¸à¦Ĥà¦² à¦¾à¦ª
Ġà¦īà¦ĩà¦ķà¦¿à¦ª à¦¿à¦¡à¦¿à¦¯à¦¼à¦¾
Ġà¦Ń à§Į
Ġà¦¨à§Į à¦ķà¦¾à¦°
Ġà¦ħ à¦¯
Ġà¦¸à§įà¦ķ à§ĭà¦°
Ġà¦¬à¦¾à¦¤ à¦¾à¦¸
à¦¬ à¦¿à¦¡
id in
Ġà¦ķ à¦¨à§įà¦ł
Ġà¦®à§Ĥà¦² à§įà¦¯à§ĩà¦°
Ġà¦¸à¦Ĥà¦ĺ à¦Ł
Ġà¦®à¦¿à¦īà¦ľ à¦¿à¦ķ
Ġà¦¶à§ĭà¦Ń à¦¾à¦¯
Ġà¦®à§ĭà¦Ł à¦¾à¦®
Ġà¦ª à§Ģà¦°
Ġà¦¯à§ģà¦¬à¦ķ à¦ķà§ĩ
Ġà¦ıà¦¡à¦¼ à¦¾à¦¤à§ĩ
à§ĭ à¦¤à¦¾à¦°
à¦¾à¦ªà§įà¦¤ à¦¾à¦¹à¦¿à¦ķ
à¦¬ à¦°à§įà¦§
âĢĻ âĢĮ
B angla
à§įà¦Ł à§ĩà¦¨
Ġà¦ķà§įà¦° à¦¸
ĠØ §
à§ĭ à¦°à¦¾
Ġà¦Ĩà¦¬ à§įà¦¬à¦¾à¦¸
Ġà¦¦à§įà¦° à¦¬à§įà¦¯
Ġà¦¨à§ĭà¦¯à¦¼ à¦¾à¦ĸà¦¾à¦²à§Ģ
à¦Ĺ à¦°à¦®
Ġà¦¬à¦ķà§įà¦¤ à¦¾à¦°à¦¾
à¦ķ à¦²à¦¾
Ġà¦²à¦¿à¦ĸ à§ģà¦¨
à¦¡à¦¼ à§ĩà¦°
ÙĲ Ùĳ
Ġà¦Ĺà§Į à¦°à¦¬
Ġà¦¦à§ĩà¦ĸ à¦Ľà§ĩ
Ġà¦Ĺ à
Ġà¦ĵà¦ª à§ĩà¦¨à¦¾à¦°
à¦Ĩà¦Ĺ à§ĩà¦°
Ġà¦°à§ĭà¦§ à§ĩ
Ġà¦¶ à¦«à¦¿à¦ķà§ģà¦²
Ġà¦¯à§ģà¦Ĺ à§ĩà¦°
Ġà¦¬à¦¿à¦¸à§įà¦¤ à§ĥà¦¤
Ġà¦ªà§įà¦¯à¦¾à¦ķ à§ĩà¦ľ
à§Ń à§«
Ġà¦ªà§įà¦² à§įà¦¯à¦¾à¦¨
Ġà¦Ĩà¦¨à¦¨à§įà¦¦ à§ĩà¦°
u ment
à§ĩà¦¨ à¦¨à¦¿
ÙĴØ ±
** **
Ġà¦Ĺ à¦¾à¦°à§įà¦®
à¦¾à¦ĩ à¦¬à¦¾à¦°
Ġà¦¶à§Ģà¦¤ à§ĩà¦°
Ġà¦¸à§įà¦ª à§ĩà¦¸
Ġà¦Ĺà ¦
à¦¾à¦ģà¦ªà¦¾à¦ĩà¦¨à¦¬à¦¾à¦¬ à¦Ĺà¦ŀà§įà¦ľ
Ġà¦Ĺà¦ ¾
à¦ªà¦°à§įà¦¯à¦¾à¦¯à¦¼ à§ĩ
Ġà¦¸à¦®à¦¨à§įà¦¬ à¦¯à¦¼à§ĩ
à¦¾à¦Ĺ à¦¨
Ġà¦¸à¦® à¦¬à¦¾à¦¯à¦¼
Ġà¦īà¦¦à§įà¦¯à§ĭà¦ķà§įà¦¤ à
Ġà¦īà¦¦à§įà¦¯à§ĭà¦ķà§įà¦¤à ¦
Ġà¦īà¦¦à§įà¦¯à§ĭà¦ķà§įà¦¤à¦ ¾
Ĩ à¦°
at ing
à§ģ à¦¸à¦Ĥà¦ķà§įà¦°à¦¾à¦¨à§įà¦¤
à¦² à¦¬
Ġà¦¬à¦¿à¦ľà§įà¦ŀà¦¾à¦¨ à§Ģ
Ġà¦ľ à§ĩà¦®
Ġà¦¸à¦¾à¦® à¦²
Ġà¦¬à¦¾à¦¸à§įà¦¤à¦¬ à¦¤à¦¾
Ġà¦§ à§ĭà¦ģ
Ġà¦¸à¦łà¦¿à¦ķ à¦Ńà¦¾à¦¬à§ĩ
Ġà¦ļà¦¿à¦ķ à¦¿à¦¤
à§© à§ª
Ġà¦¸à¦¾à¦ķà§įà¦· à¦¾à¦¤
Ġà¦ķà¦°à§įà¦ªà§ĭà¦° à§ĩà¦¶à¦¨à§ĩà¦°
Ġà¦¤ à§ĩà¦°
Ġà¦ľà§įà¦¬ à¦²
u th
à§ĭà¦°à§įà¦ ¨
Ġà¦¬à§įà¦¯à¦¤ à§Ģà¦¤
Ġà¦¬à¦¿à¦°à§ĭà¦§ à¦¿à¦¤à¦¾
à§ĩà¦ľ à¦®à¦¿à¦¨
Ġà¦ł à¦¾à¦£à§įà¦¡
Ġà¦®à§Į à¦ĸà¦¿à¦ķ
Ġà¦¬ à¦°à¦£
Ġà¦®à¦¾à¦²à¦¯à¦¼à§ĩà¦¶ à¦¿à¦¯à¦¼à¦¾
Ġà¦ª à§ĩà¦Łà§ĩ
Ġà¦Ľà¦¾à¦¤à§įà¦° à§Ģà¦°
à¦¨ à¦¾à¦¸
à¦¦ à§Ĥà¦°
Ġà¦¸à¦®à¦¾à¦§ à¦¾à¦¨à§ĩà¦°
Ġà¦ķà¦¾à¦°à¦ĸà¦¾à¦¨ à¦¾à¦°
Ġà¦¬à¦¸ à¦¤
Ġà¦²à¦ķà¦¡ à¦¾à¦īà¦¨
à¦¸à¦¾à¦¤ à¦ķà§įà¦·
Ġà¦¶à¦¹ à§Ģà¦¦à§ģà¦²
à¦¸ à§įà¦Łà§įà¦°
Ġà¦ıà¦¨ à¦ľà¦¿à¦ĵ
à ¯
à§ĩà¦¨ à§ĩà¦¡
à¦®à¦¹ à¦¾à¦¨
âĢĻ à¦²
à¦¿à¦¯à¦¼à¦¾à¦° à¦¿
Ġà¦¸ à¦¾à¦īà¦¥
- à§§à§®
ĠOct ober
Ġà¦¤ à¦²à¦¾à¦¯à¦¼
Ġà¦¨ à¦¿à¦·à§įà¦ł
Ġà¦¦à¦¿à¦¬ à¦¾à¦Ĺà¦¤
à¦¿à¦¯à¦¼ à§ĩà¦ĩ
Ġà¦ķà§įà¦· à¦¤à¦¿à¦°
Â °
à¦¢ à¦¾à¦ķà¦¾à¦°
Ġà¦ªà§įà¦° à¦¾à¦¸
Ġà¦ķ à¦¾à¦¹
Ġà¦ıà¦¤ à¦¦à¦¿à¦¨
ĠE x
à¦¾à¦® à¦ªà§ģà¦°
à¦ªà§įà¦°à¦§à¦¾à¦¨ à¦®à¦¨à§įà¦¤à§įà¦°à§Ģà¦°
Ġà¦¹ à¦¾à¦ĵà¦²
Ġà¦²à¦¿à¦Ĺ à§ĩ
Ġà¦®à¦¾à¦°à§įà¦ķ à§ĩà¦Łà¦¿à¦Ĥ
Ġà¦ıà¦ķà§ģà¦¶ à§ĩ
it ed
Ġà¦¹à¦¯à¦¼à§ĩà¦Ľà¦¿à¦² à§ĭ
à¦¿à¦ıà¦® à¦ªà¦¿
Ġà¦¦ à¦¾à¦¦à¦¾
à¦ħ à¦«
Ġà¦«à§įà¦¯ à¦¾à¦¶à¦¨
at tr
à¦¿à¦ľ à§ĩ
Ġà¦¬à§įà¦¯à§ģà¦° à§ĭ
Ġà¦ħà¦¨ à§Ĥ
Ġà¦ķà¦°à§įà¦®à¦ķ à¦¾à¦£à§įà¦¡
Ġà¦ķà¦¿à¦Ľà§ģ à¦¤à§ĩà¦ĩ
Ġà¦Ĩà¦¶ à¦ªà¦¾à¦¶à§ĩà¦°
Ġà¦® à§ĩà¦®à§įà¦¬à¦¾à¦°
Ġà¦¨à§ĩà¦ĩ à¦®à¦¾à¦°
Ġà¦¹à¦¤à§įà¦¯à¦¾à¦ķ à¦¾à¦£à§įà¦¡à§ĩà¦°
Ġà¦ľà¦¨à¦ķ à¦¨à§įà¦ł
- à¦¤à§ĩ
Ġà¦¬à¦¹ à¦¿à¦°
à¦¹ à§ģ
Ġà¦ķ à§ģà¦¤
Ġà¦ªà§įà¦°à¦ķà¦²à§įà¦ª à§ĩ
Ġà¦¨à¦¿à¦°à§įà¦® à¦®
Ġhttp s
az ar
Ġà¦®à§ĥà¦¤ à§ĩà¦°
Ġà¦ĩà¦¨à§įà¦¡ à¦¿à¦¯à¦¼à¦¾à¦¨
ng lish
à¦® à¦¾à¦¦
à¦¨ à¦¿à¦ī
Ġà¦Ĩà¦ĩ à¦«à§ĭà¦¨
à¦¸ à§į
Ġà¦¸à¦¿à¦°à¦¾à¦ľ à§ģà¦²
Ġà§ª à¦Łà¦¿
h i
Ġà¦ªà¦¾à¦¨ à§Ģà¦¯à¦¼
Ġà¦« à¦¾à¦Ł
à¦¶à§įà¦° à§ĩà¦£
A T
Ġà¦¤à§ģà¦°à¦¸à§įà¦ķ à§ĩà¦°
à¦Ľà¦¾à¦¤à§įà¦° à§Ģ
Ġà¦¶à¦¤ à¦Ńà¦¾à¦Ĺ
Ġà¦Ł à¦ķ
Ġà¦¸ à¦¿à¦Ĺà¦¾à¦°
Ġà¦Ĩà¦²à¦® à§ĩà¦°
Ġà¦ªà¦¾à¦°à¦«à¦°à¦® à§įà¦¯à¦¾à¦¨à§įà¦¸
Ġà¦Ĺ à¦¿à¦¯à¦¼à§ĩà¦Ľà§ĩà¦¨
Ġà¦¸à¦¦ à¦°à§ĩà¦°
Ġà§« à§¨
Ġà¦ļà¦¤à§įà¦¬ à¦°à§ĩ
Ġà¦ĸà¦¾à¦² à§ĩà¦¦
à§ĭà¦¨ à§ĩà¦°
à¦Ĥ à¦ķà¦¾
à¦¿à¦¶ à¦¨à§ĩ
Ġà¦Ľ à¦¨à§įà¦¦
Ġà¦¸à¦®à¦°à§įà¦¥ à¦ķà¦¦à§ĩà¦°
à¦¾à¦Ĺ à¦ŀà§įà¦ľ
Ġà¦ħà¦Ļà§įà¦Ĺ à§Ģà¦ķà¦¾à¦°
Ġà¦¬à§ĩà¦¡à¦¼ à¦¾à¦¤à§ĩ
Ġà¦¶à¦¿à¦Ĺà¦Ĺà¦¿à¦° à¦ĩ
Ġà¦ªà¦¶à§įà¦ļà¦¿à¦®à¦¬à¦Ļà§įà¦Ĺ à§ĩà¦°
Ġà¦Ĩà¦¯à¦¼à§ĭà¦ľ à¦¨à§ĩà¦°
Ġà¦¨ à¦¾à§·
Ġà¦ļà¦ķà§įà¦° à§ĩà¦°
Ġà¦²à¦¾à¦ĩ à¦¨à§ĩ
Ġà¦¶à¦°à§įà¦® à
Ġà¦¶à¦°à§įà¦®à ¦
Ġà¦¶à¦°à§įà¦®à¦ ¾
Ġà¦¸à§įà¦® à¦¾à¦°à¦ķ
Ġà¦ĩà¦īà¦°à§ĭà¦ª à§ĩà¦°
y le
Ġà¦Ĩà¦¶à§įà¦ļ à¦°à§įà¦¯
Ġà¦¦à¦°à§įà¦¶ à¦ķà¦°à¦¾
à¦¦ à¦¾à¦¸
Ġà¦ıà¦ķ à¦¾à¦Ĥà¦¶
Ġà§¬ à§ª
Ġà¦ªà§ģà¦° à¦¸à§įà¦ķ
Ġà¦Ĩà¦ĩ à¦¯à¦¼à§ģà¦¬
p o
à¦Ĺ à¦¿
Ġà¦Ľà§ĩà¦² à§ĩà¦¦à§ĩà¦°
Ġà¦¦à¦®à§įà¦ª à¦¤à¦¿
Ġà¦ªà¦°à¦ªà¦° à¦ĩ
à§ĭà¦¬ à¦¿à¦¨à§įà¦¦
à¦ļ à§Ģà¦¨
Ġà¦ļà§ĩà¦¯à¦¼ à§ĩà¦Ľà§ĩà¦¨
Ġà¦¶à§įà¦¬ à¦¶à§ģà¦°
Ġà¦ĩà¦¨ à¦ľ
Ġà¦°à¦¾à¦¨ à§įà¦¨
Ġà¦Ĺà§ĭà¦² à¦¾à¦ª
Ġà¦§à¦¾à¦° à§įà¦¯
Ġà¦¸à§Įà¦° à¦Ń
ol k
= "
Ġà¦®à§ĭà¦¬ à¦¾à¦ĩà¦²à§ĩ
à¦¨à§įà¦¡ à¦¾à¦°
Ġà¦Ĺà¦¬à§ĩà¦· à¦£à¦¾à¦°
Ġà¦Ľà¦¾à¦¤à§įà¦° à§Ģà¦ķà§ĩ
A d
aler kantho
à¦¾à¦¬à¦² à¦®à§įà¦¬
Ġà¦¸à¦°à§įà¦¬ à¦¤à§įà¦°
à§Ī à¦°à§įà¦¯
Ġà¦ĸà¦¾à¦Ĺà¦¡à¦¼à¦¾à¦Ľ à¦¡à¦¼à¦¿
Ġà¦®à§ģ à¦®à¦¿à¦¨
Ġà¦¦à¦² à¦¿à¦²
à¦ªà§įà¦° à¦ļà¦¾à¦°
Ġà¦ħà¦ķ à§įà¦Ł
à¦ī à¦¨à§įà¦¨
Ġà§§à§« à§¦
à¦°à§įà¦Ĺ à¦¤
Ġà¦¬à§Ī à¦¦à§įà¦¯à§ģà¦¤
à¦Ł à§ĩà¦²
Ġà¦ķà¦¥ à¦¿à¦¤
Ġà¦¸à§ģà¦¨à¦¾à¦® à¦Ĺà¦ŀà§įà¦ľ
Ġà¦Ńà¦¾à¦° à¦¸à¦¾à¦®
à¦¦ à¦¿à¦¯à¦¼à¦¾
à¦ķà¦°à§įà¦® à§Ģà¦¦à§ĩà¦°
Ġà¦ªà¦¾à¦¹ à¦¾à¦¡à¦¼à¦¿
Ġà¦ķà¦°à§įà¦¨ à§ĩà¦²
Ġà¦ľà§įà¦¯ à§ĩà¦·à§įà¦ł
à¦¹à¦¾à¦°à§įà¦¡ à¦ķà§ĭà¦°
à¦¬ à¦¿à¦¹à§Ģà¦¨
Ġà¦ªà§ģà¦° à§ĭà¦¨à§ĭ
Ġ- -
Ġà¦¬à¦ķà§įà¦¤à§ĥà¦¤ à
Ġà¦¬à¦ķà§įà¦¤à§ĥà¦¤à ¦
Ġà¦¬à¦ķà§įà¦¤à§ĥà¦¤à¦ ¾
Ġà¦¸à§įà¦¥à¦¾à¦ª à¦¨à§ĩà¦°
Ġà¦¨à¦¿à¦¯à¦¼ à§ĩà¦Ľà¦¿
Ġà¦ªà§įà¦°à¦Ńà¦¾à¦¬ à¦¿à¦¤
' '
Ġà¦¹à§ĩà¦² à¦¾à¦²
Ġà¦«à§įà¦°à¦¾à¦¨à§įà¦¸ à§ĩà¦°
Ġà¦¹à¦¾à¦° à§įà¦Ł
Ġà¦°à§ģ à¦ªà¦¿
Ġà¦ªà§įà¦°à¦¤à¦¿à¦¬ à§ĩà¦¶
Ġà¦ħà¦¤ à¦ıà¦¬
Ġà¦ķà¦¾à¦°à§įà¦¯à¦ķà§įà¦°à¦® à§ĩà¦°
Ġà¦ķà¦¿à¦¶à§ĭà¦° à¦Ĺà¦ŀà§įà¦ľ
ĠÂ ·
Ġà¦ĩà¦īà¦Ł à¦¿à¦īà¦¬
Ġà¦¬à¦¿à¦² à§ģà¦ªà§įà¦¤
Ġà¦ķ à§ĩà¦ķ
Ġà¦®à§ģ à¦ķà§ģà¦²
Ġà¦¬à¦¾à¦Ļ à¦¾à¦²
Ġà¦¬à¦¿à¦Ńà¦¾à¦Ĺ à¦ļà¦Łà§įà¦°à¦Ĺà§įà¦°à¦¾à¦®
:à§¦ à§§
Ġà¦Ĺà¦£à¦®à¦¾à¦§à§įà¦¯à¦® à§ĩ
Ġà¦ıà¦ķ à¦¾à¦¤à§įà¦¤
Ġà¦ľ à¦ĸà¦®
Ġà¦Ńà§Ĥà¦®à¦¿à¦ķ à¦¾à¦¯à¦¼
Ġà¦ī à¦¡à¦¼à§ĩ
Ġà¦¸ à¦ķà¦²à§ĩ
Ġà¦ļà¦¾à¦² à¦¿à¦¯à¦¼à§ĩà¦Ľà§ĩ
Ġà¦ķà¦¥ à¦¾à¦Łà¦¾
à§ĩà¦¹ à§ĩ
à¦¯à¦¼à§ĭà¦ľà¦¨ à§Ģà¦¯à¦¼
Ġ ????
Ġà¦ķà¦¾à¦Ł à¦¾à¦°
à¦ªà§ģ à¦¤à§įà¦°
Ġà¦¬à§ĥà¦¹ à§İ
Ġà¦¬à¦ĩ à¦Łà¦¿
Ġà¦¸à§įà¦¬à¦°à§įà¦£ à¦ķà§ĩà¦¶à§Ģ
Ġà¦¬à¦¸ à¦¿à¦¯à¦¼à§ĩ
Ġà¦Ĩà¦¬ à¦¦
Ġà¦°à¦¿à¦ľ à¦¾à¦°à§įà¦Ń
Ġà¦®à¦¨à§įà¦¡ à¦²
Ġà¦ļ à§ģà¦°à¦¿à¦°
Ġà¦ªà¦¡à¦¼ à§ĩà¦Ľà¦¿à¦²
Ġà¦§ à¦¨à§Ģ
Ġà¦¹à¦¾à¦ī à¦¸
ĠDec ember
Ġà¦ªà§įà¦°à¦¦ à¦¤à§įà¦¤
à¦Ń à¦¾à¦¸
Ġà¦ªà§Į à¦¨à§ĩ
Ġà¦ĸà§ĩà¦² à¦¨à¦¾
à¦¾à¦ĸ à¦¾à¦²à§Ģà¦°
Ġà¦ªà§įà¦°à¦ķà¦¾à¦¶ à¦¨à¦¾
Ġà¦ªà§įà¦² à¦¾à¦Ł
Ġà¦¸à¦¾à¦ķà§įà¦·à¦¾à§İ à¦ķà¦¾à¦°à§ĩ
à¦Ł à§ĩà¦®
Ġà¦¸à¦® à¦¬
Ġà¦«à¦¾à¦ģ à¦ķà¦¾
Ġk alerkantho
Ġà¦¸à¦®à§įà¦®à§ģà¦ĸ à§Ģà¦¨
Ġà¦¬à¦¿à¦¶à§ĩà¦·à¦ľà§įà¦ŀ à¦°à¦¾
Ġà¦īà¦ļà§įà¦Ľ à§ĩà¦¦
ĠA nd
Ġà¦¹à¦ĩ à¦¬à§ĩ
Ġà¦Ľà¦¯à¦¼ à¦Łà¦¿
Ġà¦¬à¦° à¦¿à¦¶
Ġà¦²à¦Ļà§įà¦ĺ à¦¨
à¦¨ à¦¾à¦ĩ
Ġà¦¬à¦²à¦¿à¦īà¦¡ à§ĩà¦°
Ġà¦° à§ĭà¦¦
Ġà¦Ĩ à¦¨à§ĩ
à¦¸à§Ĥ à¦°à¦¾
Ġà¦ķà§ĩà¦ ¡à¦¼à§ĩ
Ġà¦Ĺà¦¤ à¦¿à¦¤à§ĩ
Ġà¦ª à¦¿à¦ļ
Ġà¦¦à¦¾à¦ģ à¦¤
Ġà¦ķà¦¬ à§Ģà¦°
à¦¨à¦¨à§įà¦¦ à¦¿à¦¨
: à§§à§¦
Ġà¦ħà¦ª à¦®à¦¾à¦¨
à¦¸à§įà¦Ł à¦¾à¦ĩà¦²
O N
Ġà¦ķà§ĥà¦¤ à§įà¦°à¦¿à¦®
Ġà¦¨à¦¬ à¦®
I N
Ġà¦ªà§ĩà¦¶ à¦¾à¦¦à¦¾à¦°
Ġà¦« à§ģà¦¡
Ġà¦¸à¦¤à¦°à§įà¦ķ à¦¤à¦¾
Ġà¦« à¦¾à¦ģà¦¦
Ġà¦Ŀà§ģà¦ģà¦ķ à¦¿à¦ªà§Ĥà¦°à§įà¦£
Ġà¦°à¦¶ à§Ģà¦¦
Ġà¦¸à¦Ĥà¦¬à¦¾à¦¦ à¦Łà¦¿
à¦¿à¦¸ à¦¿à¦Ĩà¦ĩ
Ġà¦®à¦¾à¦®à¦² à¦¾à¦Łà¦¿
Ġà¦¶à§įà¦°à§ĩà¦£ à§Ģ
e op
Ġà¦ªà§įà¦° à¦¸à¦¾à¦°
Ġà¦¯à¦¨à§įà¦¤à§įà¦° à¦ªà¦¾à¦¤
à¦²à¦¿à¦ĸ à§ĩà¦Ľà§ĩà¦¨
Ġà¦¸à§ģà¦¨ à¦¿à¦°à§įà¦¦à¦¿à¦·à§įà¦Ł
Ġà¦ĵ à¦ĸà¦¾à¦¨à§ĩ
à¦Ĩ à¦¦à¦¾à¦²
ĠFeb ruary
à¦ªà§ģà¦° à¦¹à¦¾à¦Ł
Ġà¦¸à¦¿à¦¨ à§įà¦¡
à¦¨ à¦¾à¦®à§Ĥà¦²à¦ķ
à¦ķ à§ĭà¦¨à§ĭ
Ġà¦ħà¦¤à§įà¦¯ à¦¾à¦ļà¦¾à¦°
Ġà¦ªà§įà¦°à¦¬à§ĥà¦¦à§įà¦§ à¦¿
à¦¾à¦®à§įà¦® à§ĩà¦²
Ġà¦¨à¦ľ à¦¿à¦°
à¦¿à¦Ł à¦¿à¦Ń
à¦¾à¦¸à¦® à§Ĥà¦¹
à§ĩà¦¸ à§ĩà¦°
Ġà¦²à§ĭà¦ķ à§ĩà¦°à¦¾
Ġà¦°à¦¾à¦¤ à§ĩà¦ĩ
Ġà¦īà¦¤à§įà¦¤ à§Ģà¦°à§įà¦£
à¦¾à¦¡à¦¼ à¦¾à¦°
Ġà¦Łà§ģà¦¯à¦¼à§ĩà¦¨à§įà¦Ł à¦¿à¦«à§ĭà¦°
Ġà¦¯à¦¾à¦¤à¦¾à¦¯à¦¼ à¦¾à¦¤
à¦ª à¦ŀà§įà¦ļ
Ġà¦ªà§įà¦°à¦¤à¦¿à¦·à§įà¦łà¦¾à¦¨ à¦Łà¦¿
Ġà¦¨ à§ĩà¦¹
âĢį à§įà¦¯
Ġà¦²à§ĩà¦ĸ à¦ķà§ĩà¦°
Ġà¦ªà¦°à§įà¦¦ à¦¾à¦¯à¦¼
Ġà§« à§¬
Ġà¦ķà¦° à¦¤à¦¾à¦®
Ġà¦¬à¦¿à¦ľ à¦¨à§ĩà¦¸
à¦¾à¦ĩ à¦¤à§ĩ
Ġà¦¯à¦® à§ģà¦¨à¦¾
Ġà¦¦à¦¾à¦ģà¦¡à¦¼ à¦¾à¦¤à§ĩ
3 2
à¦¶à§įà¦¯ à¦ķ
oc ument
Ġà¦¬à¦¿à¦° à¦²
à¦ķà§įà¦¤ à¦¿à¦°
Ġà¦ªà¦°à¦¿à¦ļ à§įà¦Ľà¦¨à§įà¦¨
Ġà¦¨à§Ģ à¦ļ
Ġà¦®à¦¨à§ĭà¦Ń à¦¾à¦¬
Ġà¦®à§ĩà¦¯à¦¼ à§ĩà¦Łà¦¿
Ġà¦ĩà¦ľ à¦¤à§ĩ
Ġà¦ıà¦®à¦¨ à¦Łà¦¾à¦ĩ
Ġà¦ķ à§ģà¦¶
Ġà¦ªà§Ĥà¦°à§įà¦¬ à¦¾à¦Ńà¦¾à¦¸
à§ĩà¦ľ à¦¾à¦°
à¦¾à¦¢ à§įà¦¯
Ġà¦¹à§ģà¦ģ à¦¶
Ġà¦Ń à¦¾à¦Ĥ
à¦ĺ à§įà¦°
à§Ģ à¦¦à¦¾à¦°
à¦ľà§įà¦ľ à§Ģà¦¬à¦¨
Ġà¦¸à¦¿à¦¨à§ĩà¦® à¦¾à¦¯à¦¼
in n
Ġà¦ļà¦²à¦ļà§įà¦ļà¦¿à¦¤à§įà¦° à§ĩ
Ġà¦¬à§ĭà¦¨ à¦¾à¦¸
à¦¾à¦¨ à¦¿à¦īà¦ľ
Ġà§§ à¦Łà¦¿
- à¦ķà§ĩ
à¦® à¦¾à¦°à§ĩ
Ġà¦¸à¦¨à§įà¦¤à¦¾à¦¨ à¦ķà§ĩ
Ġà¦¸à¦®à§įà¦ª à¦¾à¦¦à¦¨
à¦¸à§įà¦ķ à§ģà¦²
Ġà¦¸à§įà¦¥ à¦¾à¦ªà¦¨à¦¾
Ġà¦¹ à§ĩà¦®
Ġab out
à¦¹ à§ĩà¦²
Ġà¦ľà¦¾à¦°à§įà¦® à¦¾à¦¨à¦¿
Ġà¦°à§ĩà¦¸à§įà¦Ł à§ģà¦°
à¦°à§ģà¦® à§ĩ
Ġà¦¶à§įà¦°à§Ģà¦²à¦Ļà§įà¦ķ à¦¾à¦°
Ġà¦īà¦ł à§ĩà¦Ľà¦¿à¦²
Ġ qu
p aper
à¦ļ à¦¾à¦ķ
Ġà¦¡ à¦¾à¦ķà¦¾
Ġà¦ķà§įà¦· à§ģà¦§
Ġà¦ħ à¦Ĥ
Ġà¦¦à§ĥà¦·à§įà¦Ł à¦¿à¦¤à§ĩ
à¦¾à¦¨ à¦ķà§ĩ
à¦ħ à¦ª
Ġà¦¸à§ĥà¦ľà¦¨ à¦¶à§Ģà¦²
Ġg et
Ġà¦¬à¦¿à¦Ń à§įà¦°à¦¾à¦¨à§įà¦¤
à¦¾à¦® à¦°à¦¿à¦ķ
à¦¶ à§ģà¦Ń
Ġà¦Ńà¦¾à¦²à¦¬à¦¾à¦¸ à
Ġà¦Ńà¦¾à¦²à¦¬à¦¾à¦¸à ¦
Ġà¦Ńà¦¾à¦²à¦¬à¦¾à¦¸à¦ ¾
E D
Ġà¦¯à¦¾à¦¤à§įà¦° à§Ģà¦¬
Ġà¦ľ à§ĩ
Ġa pp
Ġà¦ķà¦¤ à¦Łà§ģà¦ķà§ģ
Ġà¦¸ à§ĩà¦¨à§įà¦¸
Ġà¦¬à§ģà¦Ŀ à¦¿à¦¯à¦¼à§ĩ
Ġà¦¬à¦¾à¦ģ à¦¡à¦¼à¦¾à¦°
à¦¾à¦¨ à¦¦à§ĩà¦°
Ġà¦Ł à¦¿à¦¨
201 7
Ġà¦¸à¦Ĥà¦¸à§įà¦ķ à§ĥà¦¤à¦¿à¦°
Ġà¦ħà§įà¦¯ à¦¾à¦ĵà¦¯à¦¼à¦¾à¦°à§įà¦¡
Ġà¦ļà¦¾à¦ģà¦¦ à¦¾à¦¬
Ġà¦®à§ĭà¦Łà¦¾à¦® à§ģà¦Łà¦¿
à¦ķ à§ĩà¦ī
Ġà¦¸à¦°à§įà¦¬ à§ĭ
Ġà¦Ĩà¦® à¦¾à¦¯à¦¼
Ġà¦«à¦¿à¦° à§ĭà¦ľ
h ot
Ġh as
Ġw e
à¦¿à¦² à§įà¦¯à¦¾à¦¨à§įà¦¸
à§Ģà¦· à§įà¦®
Ġà¦°à¦¾à¦ľà¦§à¦¾à¦¨ à§Ģà¦¤à§ĩ
Ġà¦Ŀà¦¾à¦® à§ĩà¦²à¦¾
Ġà¦°à¦¾à¦¸ à§ģà¦²
à§įà¦® à§ģ
Ġà¦ľ à¦¬à¦¾à¦¨
p s
Ġà¦ķà§ĥà¦· à¦ķà§ĩà¦°
Ġà¦Ľ à¦¾à¦²
Ġà¦ķà¦°à§ĩà¦¨ à
Ġà¦ķà¦°à§ĩà¦¨à ¦
Ġà¦ķà¦°à§ĩà¦¨à¦ ¾
à¦¿à¦® à¦¤à§ĭ
à¦ĩà¦ī à¦¨
à¦§ à¦¾à¦¯à¦¼à¦ķ
Ġà¦§à¦¾à¦¨ à¦®à¦¨à§įà¦¡
Ġà¦ªà¦°à§įà¦¬ à§ĩà¦°
à¦¿à¦ĵ à¦¯à¦¼
à¦ª à¦¶à§įà¦ļà¦¿à¦®
à¦¨à¦¿à¦°à§įà¦¬à¦¾à¦ļ à¦¨à§ĩ
Ġà¦¸à§ģ à¦ľà¦¨
à¦¬à¦¨à§įà¦¦ à¦¿
Ġà¦° à¦¾à¦ĩà¦¡
à§ĩà¦² à§ĭ
Ġà¦§ à§Ĥà¦®
à¦¬à§įà¦° à¦¤
à§ĭ à¦¤à¦¿
Ġà¦¨à§ĩà¦ª à¦¾à¦²
' ;
Ġà¦®à§ģ à¦Ńà¦¿
Ġà¦¦à§ģ à¦¶à§įà¦ļ
Ġà¦° à¦¾à¦ī
à§ĭà¦ª à¦¸
Ġà¦ªà¦¾à¦¬ à¦¨à¦¾
Ġà¦ķ à¦¾à¦¨à§ĩ
Ġà¦¸à¦«à¦² à¦¤à¦¾
i x
Ġà¦¹ à§ģà¦¦à¦¾
Ġà¦¸à¦Ĥà¦ĺà¦Ł à¦¿à¦¤
Ġà¦¸à¦Ńà¦¾à¦ª à¦¤à¦¿à¦°
à¦¤ à§įà¦¨
Ġ0 6
à¦Ĩà¦ĩ à¦¸
Ġà¦°à¦¾à¦¬ à§įà¦¬
Ġà¦°à¦¾à¦ľà¦¨à§Ģà¦¤ à¦¿à¦¬à¦¿à¦¦
ĠAug ust
à¦¤ à¦¾à¦ĵ
Ġà¦¬à§Ī à¦ľà§įà¦ŀà¦¾à¦¨à¦¿à¦ķ
Ġà¦¹à¦¯à¦¼à¦° à¦¾à¦¨à¦¿
à¦ķ à§ĩà¦²
- à¦Ľ
y a
Ġà¦ľà¦¨à¦¸à¦Ĥà¦ĸ à§įà¦¯à¦¾
Ġà¦° à§ĩà¦¶
à¦ī à¦¤à§įà¦¤
Ġà¦ļ à§ģà¦·
à¦¨à¦¿à¦° à¦¾à¦ª
à¦ª à¦¾à¦¤à§ĩ
Ġà¦Ĩà¦¸ à¦²à§ĩà¦ĩ
Ġà¦Ĺ à¦°à§įà¦¤
à§ª à§¬
Ġà¦¬à¦¾à¦° à§įà¦¨
Ġà¦« à¦¾à¦°à§įà¦¸
à¦¶à§įà¦¬ à¦°à§ĩà¦°
Ġà¦² à§ĭà¦¹
Ġà¦¸à¦¾à¦® à¦°à§įà¦¥
à¦¸ à§ĩà¦Ł
Ġà¦Ĺà¦£ à¦§
Ġà¦Ĺ à¦¾à¦ľ
Ġà¦¤ à¦¾à¦¯à¦¼
Ġà¦²à¦¾à¦Ĺ à¦¾à¦¤à§ĩ
à¦¡ à¦¿à¦°
à¦¹ à¦¾à¦²
Ġà¦ħà¦¬à§Īà¦§ à¦Ńà¦¾à¦¬à§ĩ
à§ĭà¦¦ à¦¨à§ĩà¦°
Ġà¦¸à§Ģ à¦®à¦¾
Ġà¦¤à¦²à§įà¦² à¦¾à¦¶à¦¿
Ġà¦¬à¦¸ à¦¤à§ĩ
à¦¾à¦° à§įà¦¨
à¦¾à¦ķà¦¾à¦° à§Ģà¦¦à§ĩà¦°
à¦¸ à§ĩà¦¬
à¦¦ à¦¶
à§ĭà¦Ł à¦¾à¦ĩ
à¦¨ à¦ľ
Ġà¦Ł à§įà¦¯à¦¾à¦Ĺ
à¦¶à§Ģ à¦°à§įà¦·
Ġà¦² à§ĭà¦¡
:à§¦ à§«
Ġà¦¥à¦¾à¦ķ à¦¤
P ublished
- à§§à§«
à§ģà¦£ à§įà¦¡
Ġà¦ªà§įà¦°à¦¾à¦°à§įà¦¥ à§Ģà¦°à¦¾
Ġà¦Ńà¦¾à¦Ļ à¦ļà§ģà¦°
Ġà¦ħà¦ªà¦°à¦¾à¦ľ à¦¿à¦¤
Ġà¦«à§ĩà¦¸à¦¬à§ģà¦ķ à§ĩà¦°
:à§« à§¦
Ġà¦ĩà¦ī à¦ıà¦¨à¦ĵ
Ġà¦ļà¦® à¦ķà§ĩ
à¦¾à¦¸ à¦¿à¦¤
Ġà¦®à§ģà¦ł à§ĭ
A A
e v
Ġà¦ªà¦° à¦¿à¦ªà§Ĥà¦°à§įà¦£
Ġà¦®à¦¾à¦¦ à¦¾à¦°à§Ģ
Ġà¦¦à§ĩà¦¹ à§ĩà¦°
Ġà¦īà¦ªà¦¾à¦°à§įà¦ľ à¦¨
Ġà¦®à§Ĥà¦²à§įà¦¯ à¦¬à¦¾à¦¨
à¦ķà¦²à¦ķ à¦¾à¦¤à¦¾
ĠØ§ÙĦÙĦ Ùĩ
Ġà¦¶à§ģà¦ķ à§įà¦°
E lement
: à§§à§¨
à¦¾à¦ª à¦¨à§ĩ
Ġà¦¶à¦°à¦£ à¦¾à¦°à§įà¦¥à§Ģ
:à§¦ à§¨
à§ģà¦² à§ĩà¦¶à¦¨
à¦¿à¦ª à¦¿à¦°
Ġà¦Łà§ĩà¦¸à§įà¦Ł à§ĩà¦°
Ġà¦¬à¦¦ à¦°
Ġà¦¯à¦¤ à¦Łà¦¾
T M
: à§§à§«
Ġà¦¬à¦¾à¦ ¥
S t
à¦ªà§ĥà¦¥ à¦¿à¦¬
Ġà¦īà¦ªà¦¸ à¦°à§įà¦Ĺ
Ġà¦®à§ĭà¦¸à§įà¦¤ à¦¾à¦«à¦¿à¦ľà§ģà¦°
ĠĠĠĠĠĠĠĠ ĠĠĠĠĠĠĠĠ
Ġà¦¸à§įà¦Ł à§ĩà¦¶à¦¨à§ĩ
Ġà¦ªà§įà¦° à§ĭà¦«
à§¨à§¦à§§à§ ¬
à¦¨à§įà¦¤ à§Ģ
Ġà¦¶ à¦¾à¦¡à¦¼à¦¿
Ġà¦¸ à§ĭà¦²
à¦® à¦¿à¦¯à¦¼à¦¾à¦¨
Ġà¦ªà¦¶ à§ģà¦°
à¦¿à¦ĵ à¦°
Ġà¦ľà§Ģà¦¬ à¦¿à¦¤
Ġà¦ªà§įà¦°à¦¤ à¦¿à¦®à¦¾
Ġà¦®à¦¹ à¦¿à¦īà¦¦à§įà¦¦à¦¿à¦¨
Ġà¦¬à§įà¦¯à¦¾à¦¬ à¦¹à¦¾à¦°
âĢ ı
Ġà¦Ĺà§įà¦² à§ĭà¦¬à¦¾à¦²
Ġà¦ħà¦¸ à§ģà¦¬à¦¿à¦§à¦¾
Ġà¦¯à¦¥ à¦¾à¦ķà§įà¦°à¦®à§ĩ
Ġà¦Ĺà§ĭà¦² à§ĩà¦°
Ġà¦²à¦¤ à¦¿à¦«
Ġà¦¶à§įà¦°à¦®à¦¿à¦ķ à§ĩà¦°
Ġà¦ķà¦° à¦¿à¦¨à¦¿
Ġm an
Ġà¦ħà¦Łà§ĭà¦° à¦¿à¦ķ
Ġà¦¡à¦¿à¦Ĺ à§įà¦°à§Ģ
Ġà¦®à¦¨ à¦¿à¦Łà¦°
à¦ķà¦¯à¦¼ à§ĩà¦ķ
Ġà¦¨à¦¬ à¦¬à¦°à§įà¦·
Ġà¦ľà¦¾à¦ª à¦¾à¦¨à¦¿
Ġà¦°à¦¾à¦ľ à§ģ
à¦® à§ĩà¦²à¦¾
la ss
à¦¨à¦ ĥ
:à§¦ à§©
:à§¨ à§«
Ġà§§à§§ à¦Łà¦¾à¦¯à¦¼
Ġà¦Łà§ģà¦ĩ à¦Łà¦¾à¦°
Ġà¦ªà§įà¦°à¦¤à§įà¦¯à¦¾à¦ĸ à§įà¦¯à¦¾à¦¨
Ġà¦Ĺ à¦¨à§įà¦¤à¦¬à§įà¦¯
Ġà¦ľà¦¾à¦ª à¦¾à¦¨à§ĩà¦°
: à§¨à§¦
à¦¨ à¦¯à¦¼
Ġà¦¨à¦¿à¦² à¦¾à¦®
à¦¿à¦ķ à¦ª
à¦¿à¦ľ à¦¨
Ġà¦Ńà¦¾à¦¸ à§įà¦ķ
Ġà¦ĩà¦īà¦° à§ĭ
Ġà¦ªà§įà¦° à¦¾à¦¤
Ġà¦¸à¦®à§įà¦®à¦¾à¦¨ à¦¿à¦¤
Ġà¦Ń à§įà¦¯à¦¾à¦²
à¦¿à¦¨ à¦¿à¦īà¦ľ
Ġà¦ļà¦¾à¦° à§įà¦ļ
Ġà¦ļà§ĩà¦¯à¦¼ à§ĩà¦Ľà¦¿à¦²à§ĩà¦¨
Ġà¦ªà§ģà¦ľ à§ĭ
Ġà¦ķ à¦²à¦¾
Ġà¦¸à¦®à§įà¦ªà§įà¦° à¦ļà¦¾à¦°
Ġà¦ª à§ĭà¦¡à¦¼
Ġà¦ªà¦¾à¦° à¦¤
Ġà¦Ĩà¦° à¦¾à¦«
Ġà¦ĸà¦¾à¦¨à¦¿à¦ķ à¦Łà¦¾
( )
à¦¸à¦® à¦¾à¦ľ
Ġà¦° à¦ķ
Ġà¦ķà§įà¦· à§ģà¦¬à§įà¦§
à¦ķ à¦¿à¦¶à§ĭà¦°
Ġà§« à§®
Ġà¦¶à§įà¦°à¦®à¦¿à¦ķ à¦°à¦¾
Ġà¦¤ à§Ģà¦°
à¦¾à¦¹ à¦¾à¦°à§ĩà¦°
Ġà¦ķà¦¨à§įà¦Łà§įà¦° à§ĭà¦²
à¦¦à¦°à§įà¦¶ à§Ģ
à¦¨ à¦¾à¦ĵ
Ġm in
ee k
Ġà¦ķà¦¨à¦Ł à§ĩà¦¨à§įà¦Ł
Ġà¦ķà¦¾à¦°à¦ĸà¦¾à¦¨ à¦¾à¦¯à¦¼
Ġà¦¸à¦¾à¦¥ à§ĩà¦ĩ
à¦Ń à¦°
à¦¾à¦® à¦¯à¦¼
à¦¬à¦¨à§įà¦¦ à§ģà¦ķ
à¦¤à¦¾à¦¹ à¦²à§ĩ
Ġà¦¨à¦¿à¦ķà§įà¦· à§ĩà¦ª
Ġà¦®à§ĭà¦ķà¦¾à¦¬ à§ĩà¦²à¦¾à¦¯à¦¼
à¦ªà§ģà¦²à¦¿à¦¶ à§ĩà¦°
à¦¬ à¦¿à¦®à¦¾à¦¨
Ġà¦ħà¦² à¦°
Ġà¦ıà¦ķ à¦Łà¦¾à¦ĩ
Ġà¦ªà§įà¦°à¦ķà§įà¦° à¦¿à¦¯à¦¼à¦¾à¦¯à¦¼
Ġà¦¹à¦¾à¦ľà¦¾à¦° à§ĩà¦°
Ġb log
à¦ª à¦¾à¦ĩ
à¦¿à¦ ħ
Ġà¦¨à¦¬ à¦¾à¦¬
Ġà¦Ĺà¦£ à¦¿à¦¤
Ġà¦ļ à¦¾à¦ŀà§įà¦ļà¦²
ÙĴØ ª
l ang
à¦« à§ĭà¦°
Ġà¦ªà§įà¦¯à¦¾à¦°à¦¾à¦® à¦¿à¦Łà¦¾à¦°
Ġà¦¨à¦¿ à¦°à§įà¦£
Ġà¦Ĺà¦° à¦¿à¦¬
Ġw eb
à§¨à§¦à§§à§ ¨
Ġà¦ļà§ĩà¦¯à¦¼à¦¾à¦°à¦®à§įà¦¯à¦¾à¦¨ à§ĩà¦°
à¦¸à§įà¦¬à¦° à§Ĥà¦ª
: -
Ġà¦¬à¦¨à§įà¦¯ à¦¾à¦°
à¦¾à¦ī à¦¡à¦¼à¦¾
:à§ª à§«
Ġà¦®à¦¾à¦² à§ĩà¦ķ
Ġà¦Ĩà¦§ à¦¿à¦ªà¦¤à§įà¦¯
à¦¾à¦ĵà¦¯à¦¼à¦¾à¦° à§įà¦¦
: à§§à§§
Ġà¦¤à§ģà¦² à§ĩà¦Ľà§ĩ
à¦¬ à¦¤
Ġà¦Ĺ à¦¾à¦¨à§ĩ
à¦¿à¦¸ à¦¾à¦°
Ġà¦¯à¦¾à¦¬ à¦ľà§įà¦ľà§Ģà¦¬à¦¨
à¦¾à¦² à§įà¦Ł
Ġà¦ķà¦ķà§įà¦¸à¦¬à¦¾à¦ľà¦¾à¦° à§ĩà¦°
Ġà¦ľà¦¾à¦¨ à¦¿à¦¯à¦¼à§ĩà¦Ľà¦¿à¦²à§ĩà¦¨
Ġà¦¨à¦¿à¦°à§įà¦¬à¦¾à¦ļà¦¨ à¦ķà§ĩ
à¦® à¦¨à§įà¦¤à¦¬à§įà¦¯
à§ĭà¦¹ à¦°
ĠØ ª
Ġà¦ªà§ĭà¦°à§įà¦Ł à¦¾à¦²
Ġà¦¦à§ĩà¦¯à¦¼ à¦¾à¦²
Ġà¦ķà¦¨à¦«à¦¾à¦° à§ĩà¦¨à§įà¦¸
. g
Ġà¦ĩ à¦¯à¦¼à¦¾à¦°
Ġà¦¨à§ĩà¦¤ à¦¾à¦ķà§ĩ
Ġà¦ªà¦¾à¦ĩ à¦ª
Ġà¦®à¦¾à¦Ŀ à¦¾à¦°à¦¿
ĠN o
Ġà¦¬à¦¾à¦¨à§įà¦¦ à¦°à¦¬à¦¾à¦¨
Ġb ig
Ġà¦Ĺ à§Ģà¦¤
Ġà¦° à¦¯à¦¼à§ĩ
Ġà¦Ĺà§įà¦° à§ĩà¦¨à§ĩà¦¡
Ġà¦¸à§įà¦¬à¦¤à§įà¦¬ à¦¾à¦§à¦¿à¦ķà¦¾à¦°
Ġà¦¸à§įà¦¬à§Ģà¦ķ à§ĥà¦¤
Ġà¦¨ à¦¾à¦¹à¦¿à¦¦
Ġà¦Ĺà§įà¦² à¦¾à¦¸
à¦¹à§įà¦¯ à¦¾à¦ģ
Ġà¦ħà¦ªà¦¾à¦° à§ĩà¦Łà¦¿à¦Ĥ
Ġà§« à§ª
à§įà¦¬ à¦¿à¦¤
Ġà¦Ĩà¦° à¦¬à§ĩ
Ġà¦ī à¦Ń
Ġà¦¤à§įà¦° à§ģà¦Łà¦¿
à¦£ à¦¾à¦¸à§įà¦¤à§įà¦°
Ġà¦ªà¦¤ à¦¨
Ġà§Ń à§¨
Ġà¦¤à§ĭà¦² à§ĩà¦¨
ĠD hak
à¦ķà§įà¦·à¦® à¦¤à¦¾
Ġà¦¶ à¦¾à¦ĵ
Ġà¦¸à§įà¦¬à¦¯à¦¼à¦Ĥ à¦ķà§įà¦°à¦¿à¦¯à¦¼
Ġà¦¹ à§ģà¦ķ
à§ĥ à¦ªà§įà¦¤
Ġà¦ľà¦¾à¦¨à¦¾à¦¨ à§ĭà¦°
Ġà¦Ĩà¦¸ à¦¬à§ĩà¦¨
Ġà¦¸ à§ĩà¦°à§ĩ
:à§ª à§¦
Ġà¦Ĩà¦¯à¦¼ à¦ķà¦°
Ġà¦īà¦¦à§įà¦¦ à¦¿à¦¨à§ĩà¦°
, à§«
Ġ ar
Ġà¦ķà§įà¦² à¦¾à¦¨à§įà¦¤
Ñ Ĥ
Ġon e
Ġà¦ªà§įà¦°à¦¬à§ĩà¦¶ à§ĩà¦°
Ġà¦Ń à¦¾à¦ģ
Ġà¦Ŀ à¦¾à¦¡à¦¼
Ġà¦Ĩà¦¸ à¦Ľà¦¿à¦²
m e
er v
à¦¬ à¦¨à§ĩà¦°
Ġà¦¹à§Ī à¦Ľà§ĩ
Ġà¦²à¦¾à¦² à¦¨
Ġà¦¸à§įà¦¬à¦ª à¦¨
:à§¦ à§ª
Ġà¦® à¦°à§įà¦Ĺà§ĩ
Ġà¦ªà¦° à
Ġà¦ªà¦°à ¦
Ġà¦ªà¦°à¦ ¾
Ġà¦¸à¦Ĥà¦¸à§įà¦ķ à§ĥà¦¤
à§¨à§¦à§§à§ ¯
Ġà§® à§®
Ġà¦ļà¦¿à¦¨à§įà¦¤ à¦¾à¦°
à¦Ĺ à¦¡à¦¼à¦¾
t s
Ġà¦ª à§ĭà¦¸à§įà¦Łà¦¾à¦°
Ġà¦¬à¦¿à¦¸ à¦¿à¦ıà¦¸
Ġà¦²à¦¨à§įà¦¡ à¦¨à§ĩ
Ġà¦ª à¦¾à¦ļà§įà¦Ľà¦¿
à¦¨à¦¿ à¦°à§įà¦¦
Ġà¦¶ à§ĩà¦¯à¦¼
à¦ħà¦Ń à¦¿à¦¨
à¦Ī à¦¨
Ġà¦®à§ĭ à¦¡à¦¼à§ĩ
Ġà¦Ĺà¦¾à¦¨ à¦Łà¦¿
Ġà¦ķ à¦¾à§°
Ġà¦Ĺ à§ģà¦®
- à§¯
Ġà¦Łà§įà¦° à§ĩà¦¨à§ĩ
Ġà¦ħà¦¬à¦¨ à¦¤à¦¿
Ġà¦¹à¦¾à¦° à¦¿à¦¯à¦¼à§ĩà¦Ľà§ĩ
Ġà¦ħà¦¬ à¦¿à¦¶à§įà¦¬à¦¾à¦¸
Ġà¦¸à¦Ĥà¦ĺà¦°à§įà¦· à§ĩà¦°
à¦¨à¦¿ à¦°à§įà¦®
Ġà¦ªà¦¾à¦°à¦Ń à§ĩà¦ľ
âĢĻ s
à¦ħà¦¬ à¦¶à§ĩà¦·à§ĩ
Ġà¦¸à§ģ à¦¨à§įà¦¦
Ġà¦¦à§ĭà¦ķ à¦¾à¦¨à§ĩà¦°
Ġà¦Ĺà§ĭà¦ª à¦¨à§Ģà¦¯à¦¼
Ġà¦ħà¦·à§įà¦Ł à¦®
Ġà¦¶à¦¾à¦® à¦¸à§ģà¦²
à¦¿à¦¨ à§įà¦Ł
Ġà¦¸à§ĭà¦¹ à¦¾à¦Ĺ
Ġà¦® à¦£à§įà¦¡à¦²
Ġà¦Ĩà¦¦ à¦®
n e
Ġà¦ķà¦¬ à¦¿à¦¤
à¦ļ à§ĩà¦¤à¦¨
Ġà¦§à¦¾à¦°à¦¾à¦¬à¦¾à¦¹à¦¿à¦ķ à¦¤à¦¾à¦¯à¦¼
à¦¥ à§ĩà¦ķà§ĩ
à§ĩà¦ĩà¦¸à¦¬ à§ģà¦ķ
Ġà¦ķà§įà¦°à¦® à¦¶
ĠN ew
â ĸ
Ġà¦¹ à¦¿à¦ī
Ġà¦¶ à¦«à¦¿à¦ķ
Ġà¦Ľ à¦¾à¦¦
: à§§à§ª
:à§« à§¯
Ġà¦®à¦¿à¦¡ à¦¿à¦¯à¦¼à¦¾à¦°
à¦ªà§įà¦° à¦¾à¦¥à¦®à¦¿à¦ķ
Ġh er
Ġà¦¹à¦¯à¦¼ à§ĩà¦ĩ
7 8
à¦Łà§ĩà¦ķ à¦¨à¦¾à¦«
à¦¿à¦¨à§įà¦¦ à§ģ
Ġà¦ªà§įà¦°à¦¤ à¦¿à¦«
à§ĭà¦ªà¦² à¦¿à¦Łà¦¨
Ġà¦ªà¦°à¦¿à¦¦ à¦°à§įà¦¶
Ġà¦ķ à§ĩà¦ľ
Ġà¦¤à§ĩà¦®à¦¨ à¦ĩ
Ġà¦ªà§įà¦°à¦¾à¦¨à§įà¦¤ à§ĩ
Ġà¦ħà¦ªà¦° à§ĩà¦°
à§ĩà¦¡ à¦¿à¦Ł
à¦¬ à¦°à§įà¦£
à¦ĵ à¦°
à§Ģ à¦°à§įà¦¥
à¦Ń à§ĩà¦¨
: à§§à§Ń
Ġà¦ªà¦¾à¦° à¦²à¦¾à¦®
Ġà¦ķà¦²à§įà¦ª à¦¨à¦¾
Ġà¦®à¦¯à¦¼à¦¦ à¦¾à¦¨à§ĩ
à¦¿à¦ľ à§įà¦ŀà¦¾à¦¨
Ġà¦°à§ĩà¦¸ à¦¿à¦ªà¦¿
Ġà¦¨à¦¿à¦· à§įà¦ķ
Ġà¦Ńà¦¾à¦°à¦¸à¦¾à¦® à§įà¦¯
Ġà¦ªà¦°à§Ģà¦ķà§įà¦· à¦¾à¦°à§įà¦¥à§Ģ
Ġà¦¹à¦¯à¦¼ à§·
à¦¸à§įà¦¬ à¦ªà§įà¦¨
Ġà¦¬à¦¿à¦·à¦¯à¦¼ à¦Łà¦¾
Ġà¦¬à¦¾à¦ ¶
à¦¹ à¦¤
Ġà¦ĩ à¦¨à§įà¦¤
à¦¿à¦¦ à§ĩ
à¦Ľà¦¾à¦¤à§įà¦° à§Ģà¦¦à§ĩà¦°
Ġà¦¡à§ĩà¦¸à§įà¦ķ à¦ĥ
Ġà¦īà¦¨à§įà¦® à§ĭà¦ļà¦¨
à¦ķ à¦ķà§ĩ
Ġà¦¸ à¦¿à¦¸
Ġà¦² à¦¿à¦«
Ġà¦¨à¦¾à¦Ł à¦ķà§ĩà¦°
ind ia
Ġà¦¶à¦° à§Ģà¦¯à¦¼à¦¤
Ġà¦Ĩà¦¨à§įà¦¤ à¦ĥ
Ġà¦ªà§ģà¦²à¦¿à¦¶ à§ĩ
à¦ľ à¦¾à¦¨à§ĩà¦°
Ġà¦°à¦¾à¦ĸ à¦¿
:à§¦ à§¬
Ġà¦ĺà§ģà¦° à¦¤à§ĩ
Ġà¦Ĺà§įà¦°à§ĩà¦« à¦¤à¦¾à¦°à§ĩà¦°
: à§§à§©
Ġà¦ĩà¦¸à¦° à¦¾à¦ĩà¦²
Ġà¦ĵ à¦¬
à¦® à¦¨à§ĩà¦°
Ġà¦¡ à¦¿à¦¬à¦¿
Ġà¦¯à¦¾à¦¬ à§ĭ
: à§§à§¯
Ġà¦Ĳ à¦ķ
à¦¾à¦®à¦¾à¦¨ à§įà¦¯
Ġà¦ªà§įà¦° à¦¹
Ġà¦¥ à¦¾à¦ĩà¦²à§įà¦¯à¦¾à¦¨à§įà¦¡
Ġà¦®à¦¿à¦¨ à¦¾à¦°
Ġà¦²à§ĩà¦ĸ à§ĩà¦¨
à¦¾à¦£ à§ģ
Ø «
Ġà¦Ľ à§ģà¦°
o vi
ul l
Ġà§« à§§
Ġà¦¶à§įà¦° à¦¾à¦¬
à¦ĵà¦¯à¦¼ à§ĩà¦²
: à§§à§®
à¦¸ à§ĩà¦²
à¦¾à¦ľ à¦¿à¦°
à§° à¦£
Ġà¦¤ à§ĩà¦²à§ĩà¦°
Ġà¦¶ à§ĭà¦·
Ġà¦¬à¦¾à¦¬ à¦¾à¦ķà§ĩ
Ġà¦² à¦¿à¦ªà§įà¦¤
la h
Ð ½
:à§© à§«
à¦Ŀ à¦¿à¦¨à¦¾à¦ĩà¦¦à¦¹
à¦¾à¦Ł à§ĭ
à§įà¦° à¦¿à¦¯à¦¼
Ġà¦¡à¦¿à¦° à§ĩà¦ķà§įà¦Łà¦°
Ġà¦Ł à¦¾à¦ĩà¦Ł
Ġà¦¦à§ĩà¦¨ à¦¨à¦¿
Ġà¦¸ à¦¾à¦¨à¦¿
Ġà¦Ŀ à¦¾à¦ģà¦ª
à¦¿à¦Ĺ à§ģà¦²à§ĭà¦°
Ġà¦ªà§įà¦° à¦Ńà¦¾à¦¬à§ĩ
or s
Ġà¦¸à§Ĥà¦¤à§įà¦° à§ĩà¦°
Ġà¦ĩà¦¨ à¦«
Ġà¦® à¦¨à§įà¦¤à§įà¦°à§Ģà¦°
Ġà¦¯à¦¤ à¦ĩ
à¦Ļà§įà¦Ĺ à¦¿à¦ķ
: à§§à§¬
Ġà¦ªà¦°à¦¿à¦¬à¦¹ à¦¨à§ĩà¦°
:à§« à§«
Ġà¦®à¦¨à§įà¦¤à¦¬à§įà¦¯ à§ĩà¦°
Ġà¦Ŀ à¦°
Ġà¦¸à¦Ĥà¦Ĺ à§ĥà¦¹à§Ģà¦¤
Ġà¦ªà¦Ł à§ģà¦¯à¦¼
Ġà¦®à§ģà¦ĸ à§ĭà¦ªà¦¾à¦§à§įà¦¯à¦¾à¦¯à¦¼
Ġà¦ªà¦° à§ĭà¦¯à¦¼
Ġà¦¸à§įà¦¤ à¦°à§ĩà¦°
à§ĩà¦¦ à§ĩ
à¦² à¦®
à¦ļ à§ĭà¦ĸ
:à§¦ à§Ń
ur r
:à§© à§Ń
à¤¿ à¤
Ġà¦Ĩà¦¶ à§ĩà¦ª
ap p
à¦¯à§ģà¦ķà§įà¦¤à¦°à¦¾à¦·à§įà¦Łà§įà¦° à§ĩà¦°
à¦® à§įà¦¬à¦°
Ġà¦ļ à¦Łà¦¿
Ġà¦¬à¦¾à¦¸à§įà¦¤ à¦¬à§ĩ
à¦¸à§įà¦¥ à¦¾à¦¯à¦¼à§Ģ
Ġà¦®à¦¹ à§ĩà¦¶
:à§¨ à§ª
Ġà¦ķà§ģà¦·à§įà¦Ł à¦¿à¦¯à¦¼à¦¾
ik ip
:à§ª à§®
Ġà¦Ĩà¦°à§įà¦ľà§ĩà¦¨à§įà¦Ł à¦¿à¦¨à¦¾
Ġà¦Ń à§ģà¦ķà§įà¦¤
. d
Ġà¦¸à¦®à¦¨à§įà¦¬ à¦¿à¦¤
à¦Ĩ à¦īà¦Ł
à§įà¦¯à¦® à¦¨à§įà¦¤à§įà¦°à§Ģà¦°
Ġà¦®à¦° à¦¹à§ģà¦®
Ġà¦ĩà¦¨à§įà¦¦ à§ĭà¦¨à§ĩà¦¶
Ġà¦¦à¦¿à¦² à§Ģà¦ª
Ġà¦¨à¦¿à¦¯à¦¼ à§ĩà¦Ľà¦¿à¦²
Ġà¦Ľà¦¾à¦¡à¦¼ à¦¤à§ĩ
Ġà¦¡à§ĩà¦® à§ĭà¦ķ
/ à¦ı
à¦°à§įà¦ ²
à¦¾à¦ļ à§įà¦Ľ
à¦¦ à§Ĥ
Ġà¦Ĺà§įà¦° à§ĩà¦¡
Ġà¦ľà§ģà¦¨ à¦¿à¦¯à¦¼à¦°
à§įà¦°à¦¯à¦¼ à§Ģ
Ġà¦°à§ĩà¦ĸ à§ĩà¦ĩ
Ġà¦ķà¦® à§ĩà¦¨à§įà¦Ł
Ġà¦ħà¦¨ à¦¿à¦¯à¦¼
Ġà¦ļà¦¿à¦ķà¦¿à¦¤ à§įà¦¸
Ġà¦Ĺà§įà¦¯ à¦¾à¦¸à§ĩà¦°
Ġà¦®à§ĩà¦§ à
Ġ1 00
Ġà¦¸à¦¾à¦¯à¦¼ à§ĩà¦¨à§įà¦¸
à¦ķà¦¾à¦¶ à§įà¦®
Ġà¦¸à¦¾à¦¤ à¦Łà¦¿
Ġà¦ľà¦¾à¦¨ à¦¾à¦ļà§įà¦Ľà¦¿
us s
à¦¿à¦ķ à¦¾à¦ķà§ĩ
Ġà¦«à¦ľà¦² à§ģà¦²
:à§¨ à§§
Ġà¦¹à¦¾à¦¸ à¦¿à¦¨à¦¾à¦ķà§ĩ
à¥ Ģ
Ġà¦¬à¦¾à¦ľ à§ĩà¦Łà§ĩ
Ġà¦ħà¦® à¦°
:à§¨ à§¨
Ġà¦«à§ĩà¦°à¦¦à§Į à¦¸
Ġà¦¬ à¦ĸ
:à§¦ à§¯
Ġà¦¬à¦¿à¦¸ à¦¿à¦¬à¦¿
Ġà¦®à§ĩà¦§à ¦
Ġà¦®à§ĩà¦§à¦ ¾
Ġà¦īà¦ªà¦²à¦¬à§įà¦§ à¦¿
l ic
:à§¦ à§®
Ġà¦ļ à¦ķà¦°
a ir
Ġà¦¶à¦¿à¦¶ à§ģà¦°à¦¾
à§ª à§¯
Ġà¦ªà¦°à¦¿à¦ķà¦²à§įà¦ª à¦¿à¦¤
n ow
à¦Ĺà¦¤ à¦¿à¦°
Ġà¦¤à¦¾à¦¹ à§ĩà¦°
à§Ģ à¦¤à¦¾
Ġà¦ķà¦®à¦¾à¦¨ à§įà¦¡
Ġà¦°à¦£ à¦¬à§Ģà¦°
Ġà¦¬à¦¾à¦ļà§įà¦ļ à¦¾à¦¦à§ĩà¦°
a x
à¦ķà§įà¦· à§ĩà¦¤à§įà¦°
Ġà¦ķà§įà¦·à§ĩà¦ª à¦£à¦¾à¦¸à§įà¦¤à§įà¦°
Ġà¦®à¦¨à§įà¦¦ à¦¿à¦°à§ĩ
à§ĩà¦ ¯
à¦¸ à¦¨à§įà¦§
à¦¾à¦¨à§įà¦¤ à¦¿à¦ķ
- à¦¬à¦¿à¦¦à§ĩà¦¶
:à§¨ à§®
:à§« à§®
Ġà¦ªà§įà¦°à¦¬ à§Ģà¦£
Ġà¦ĸ à§įà¦°à§Ģ
Ġà¦ª à¦¾à¦Ĺ
Ġà¦¬à§įà¦°à¦¾à¦¹à§įà¦®à¦£à¦¬à¦¾à¦¡à¦¼ à¦¿à¦¯à¦¼à¦¾
Ġà¦ªà§įà¦² à¦¾à¦¸
Ġâ Ĺ
à¦¯à¦¼ à¦¾à¦ľà§ĩà¦°
Ġà¦ªà§įà¦°à¦¾à¦¥à¦®à¦¿à¦ķ à¦Ńà¦¾à¦¬à§ĩ
:à§© à§©
if e
à¦¾à¦ĩ à¦¬
Ġà¦ķà§įà¦·à§ĩà¦¤à§įà¦° à§ĩà¦ĵ
Ġà¦ľà¦¨ à¦ªà§įà¦°à¦¤à¦¿à¦¨à¦¿à¦§
Ġà¦ªà§įà¦°à¦¥à¦® à¦¬à¦¾à¦°
à¦ļà¦Łà§įà¦Łà¦Ĺà§įà¦°à¦¾à¦® à§ĩ
Ġà¦¦à§Į à¦¡à¦¼à§ĩ
Ġà¦°à§Ģà¦¤ à¦¿à¦®à¦¤à§ĭ
:à§« à§ª
:à§© à§ª
:à§¨ à§©
:à§ª à§©
:à§¨ à§¬
à¦ª à§ģà¦²
:à§ª à§¬
Ġà¦¹à¦°à¦¤ à¦¾à¦²
Ġà¦Ńà¦¾à¦°à¦¤ à¦ķà§ĩ
Ġà¦¬à¦¿à¦ª à¦¾à¦ķà§ĩ
:à§« à§¬
:à§« à§©
Ġà¦Ĩà¦¹à¦¤ à¦¦à§ĩà¦°
à¦¿à¦ı à¦²à§ĩ
Ġà¦¬à¦¾à¦§à§įà¦¯ à¦¤à¦¾à¦®à§Ĥà¦²à¦ķ
à¦¬ à§įà¦¬
Ġà¦¬à¦¹ à§ģà¦²
Ġà¦¸à¦®à§įà¦® à¦¤
:à§¨ à§¯
Ġà¦ªà§įà¦°à§ĩà¦® à§ĩ
ikip edia
à¦§ à¦¾à¦°à¦¾
Ġà¦ķà¦¾à¦¶ à§ĩà¦®
ak ing
:à§¨ à§Ń
Ġà¦®à¦°à§įà¦¯ à¦¾à¦¦
à¦¸ à§Ī
Ġà¦¦à§ģà¦¦ à¦ķà§ĩà¦°
Ġà¦īà¦¨à§įà¦¨ à§Ģà¦¤
eop le
à§įà¦¤ à§ģà¦Ĺ
Ġà¦Ĩà¦ªà¦¨ à¦¿à¦ĵ
Ġà¦ĺà§ģà¦® à¦¿à¦¯à¦¼à§ĩ
p ur
Ġà¦¬à¦¾à¦¨ à¦¿à¦ľà§įà¦¯
h s
à§įà¦£ à§ģ
Ġà¦®à§ĭ à¦¸
Ġà¦² à¦¿à¦Ł
Ġà¦¸à§Ī à¦¨à¦¿à¦ķ
Ġà¦Ń à¦¾à¦Ł
Ġà¦ķà¦¾à¦ł à¦¾à¦®à§ĭ
:à§« à§§
Ġà¦°à¦¾à¦·à§įà¦Łà§įà¦° à¦ªà¦¤à¦¿à¦°
ĠH e
Ġà¦Ĩà¦§ à¦¿à¦ķà¦¾à¦°
:à§© à§¨
Ġà¦ļ à¦¿à¦Ĥ
Ġà¦Ĺà§ĥà¦¹à¦¬à¦§ à§Ĥ
Ġà¦° à§ĩà¦Łà¦¿à¦Ĥ
à¦¾à¦° à¦¦à§ĩà¦°
Ġà¦Ĺà¦¡à¦¼ à¦¤à§ĩ
ing s
ĠUpd ated
:à§« à§Ń
Ġà¦¤à¦¾à¦° à¦ķ
à¦¾à¦® à¦¾à¦°à¦¿
à¦®à¦¾à¦£ à¦¬à¦¿à¦ķ
à¦ľà¦¨ à¦¿à¦¤
Ġà¦ī à¦Ĺà§įà¦°
:à§« à§¨
Ġà¦°à¦ļ à¦¿à¦¤
:à§© à§§
Ġà¦ľ à§ĭà¦¯à¦¼à¦¾à¦°
Ġà¦«à§ģà¦Ł à§ĩ
Ġà¦ľà¦¾à¦¤à§Ģà¦¯à¦¼ à¦¤à¦¾à¦¬à¦¾à¦¦à§Ģ
Ġà¦Ł à¦¿à¦ķà§ĩà¦Ł
Ġà¦ªà§ĩà¦¶ à¦¾à¦¯à¦¼
Âł Âł
:à§ª à§ª
Ġà¦²à¦ľà§įà¦ľ à
Ġà¦²à¦ľà§įà¦ľà ¦
Ġà¦²à¦ľà§įà¦ľà¦ ¾
:à§ª à§¨
Ġà¦¦à§ĥà¦¶à§įà¦¯ à¦®à¦¾à¦¨
:à§ª à§¯
Ġà¦ļ à§ĩà¦®à§įà¦¬à¦¾à¦°
Ġà¦łà¦¾à¦ķà§ģà¦° à¦Ĺà¦¾à¦ģà¦ĵ
Ġà¦¬à¦° à¦Ĺ
:à§ª à§Ń
Ġà¦ķà¦¿à¦¶à§ĭà¦° à§Ģ
:à§© à§®
Ġc on
Ġà¦¸à¦¾à¦°à§įà¦ľ à¦¨
Ġà¦Ń à§ĭà¦ķà§įà¦¤
à¦ĺ à¦Łà¦¨
Ġ out
Ġà¦¨ à§ĩà¦Ń
Ġà¦¸à§ĩà¦Ł à¦¾à¦ĵ
b le
:à§© à§¬
Ġà¦Ĩ à¦²à§ĩà¦®
Ġà¦¬à¦¸ à¦¾à¦¨à§ĭ
Ġà¦¬à¦¾à¦ļà§įà¦ļ à§ģ
à¦¸à§įà¦¥ à¦²à§ĩ
Ġà¦¸à§ĩà¦ķà§įà¦°à§ĩà¦Ł à¦¾à¦°à¦¿
à¦¡ à§ĩà¦ĩà¦²à¦¿
Ġà¦ħà¦¬à¦ķà¦¾à¦ł à¦¾à¦®à§ĭ
Ġà¦ĺà¦Ł à¦¤à§ĩ
Ġ Ã
Ġà¦¯à§ĩà¦Ĺ à§ģà¦²à§ĭ
à¦¯ à§ĩà¦®à¦¨
Ġà¦¬à¦¿à¦¨à¦¿à¦¯à¦¼à§ĭà¦Ĺ à¦ķà¦¾à¦°à§Ģà¦¦à§ĩà¦°
Ġà¦ħà¦¬ à¦¸à¦¾à¦¨
Ġà¦¶à¦¹ à¦¿à¦¦
à§ĩà¦ķà§įà¦· à§ĩ
Ġà¦¸ à§ĭà¦¯à¦¼à¦¾
Ġà¦ĩà¦Ľà¦² à¦¾à¦®à§Ģ
Ġà¦® à¦¾à¦ĩà¦¨
en er
:à§ª à§§
Ġà¦¹à¦¤à§įà¦¯à¦¾à¦ķ à¦¾à¦£à§įà¦¡
à¦ľ à¦¾à¦¦
Ġà¦Ľà¦¾à¦¯à¦¼ à¦¾à¦Ľ
Ġà¦²à¦ķà§įà¦·à§įà¦¯à¦® à¦¾à¦¤à§įà¦°à¦¾
Ġà¦ľà¦¾à¦¤ à§ĩà¦°
Ġà¦ļ à¦¿à¦²
Ġà¦®à¦¹ à¦¾à¦ľ
Ġà¦¶ à¦¯
Ġà¦Ĩà¦«à¦Ĺà¦¾à¦¨ à¦¿à¦¸à§įà¦¤à¦¾à¦¨
Ġà¦ħà¦¬ à¦¶
al e
ip s
Ġà¦¸à§įà¦¥ à¦¿à¦¤à¦¿à¦¶à§Ģà¦²
6 5
Ġà¦ı à¦ıà¦«
Ġà¦§ à§Īà¦°à§įà¦¯
Ġà¦¶à¦¬à§įà¦¦ à¦Łà¦¿
:à§© à§¯
__ __
Ġà¦Łà§įà¦°à§ĩà¦¨ à¦¿à¦Ĥ
Ġà¦¬à¦¾à¦ģà¦ļ à¦¤à§ĩ
Ġà¦¸à¦¾à¦² à¦¾à¦¹
à§Į à¦®
à¦ķà§ĥà¦· à§įà¦£
b y
ind ex
Ġà¦ķà¦°à§įà¦® à¦¶à¦¾à¦²à¦¾
à¦ĸ à¦¾à¦¨à¦¿
-à§¨à§¦à§§à§ Ń
Ġà¦Łà§ĩà¦²à¦¿à¦« à§ĭà¦¨
Ġ_ _
b ad
Ġà¦ħà¦Ĥà¦¶ à§Ģà¦¦à¦¾à¦°
Ġà¦¦à§ĩà¦ĵà¦¯à¦¼ à¦¾à¦¯à¦¼
Ġà¦Ĩà¦Ĺ à¦®à¦¨
Ġà¦«à§ĩà¦² à§ĩà¦¨
Ġà¦ķà¦°à§įà¦®à¦ķ à¦¾à¦¨à§įà¦¡
Ġà¦¸à¦Ĥà¦¬à¦¾à¦¦ à¦ªà¦¤à§įà¦°
Ġà¦ī à¦ĸ
Ġà¦¬à¦¨à§įà¦§ à§ĩ
Ġà¦ªà¦° à§įà¦¤à§ģà¦Ĺ
Ġà¦¡à¦¾à¦ķ à§įà¦¤à¦¾à¦°à§ĩà¦°
olk ata
à¦¾à¦¦à§ĩà¦¶ à§ĩà¦°
Ġà¦°à¦¾à¦¯à¦¼ à¦¹à¦¾à¦¨
Ġà¦ªà§įà¦° à¦¾à¦§
ob ile
à¦¨ à§ĩà¦¤à§įà¦°à§Ģ
à¦ķ à§ģ
Ġà¦Ĩà¦°à§įà¦ķ à¦¾à¦ĩà¦Ń
Ġà¦īà¦ªà¦¸à§įà¦¥à¦¿à¦¤ à¦¿à¦¤à§ĩ
Ġà¦īà¦ª à¦ķà¦¾à¦°à§Ģ
Ġs c
Ġà¦¹à¦² à¦¾à¦®
à¦¾à¦ģà¦ļ à
à¦¾à¦ģà¦ļà ¦
à¦¾à¦ģà¦ļà¦ ¾
Ġà¦¸à§įà¦®à¦°à¦£ à§ĩ
à¦ļ à¦°à§įà¦ļà¦¾
Ġà¦¡ à§ĩà¦¨
à¦¤ à¦¦à¦¨à§įà¦¤
Ġà¦ĩà¦¬à§įà¦° à¦¾à¦¹à¦¿à¦®
à¦¾à¦Ĥà¦² à
à¦¾à¦Ĥà¦²à ¦
à¦¾à¦Ĥà¦²à¦ ¾
Ġà¦¬à¦°à§įà¦ľ à§įà¦¯
Ġà§§à§¦ à¦Łà¦¾à¦¯à¦¼
Ġà¦Ń à¦¿à¦¯à¦¼
Ġà¦¤à¦¥à§įà¦¯ à¦ªà§įà¦°à¦¯à§ģà¦ķà§įà¦¤à¦¿
Ġà¦°à¦¹ à¦®à¦¤
Ġà¦®à§ģà¦¸à¦²à¦¿à¦® à¦¦à§ĩà¦°
Ġà¦¸à¦°à¦¬à¦°à¦¾à¦¹ à¦ķà¦¾à¦°à§Ģ
Ġà¦ľà¦¿à¦®à§įà¦¬ à¦¾à¦¬
Ġà¦¶à§Ģ à¦·
Ġà¦ķà§įà¦² à¦¾à¦¬à§ĩ
à§İ à¦¸à¦¬
Ġà¦®à¦¾à¦°à§įà¦ķ à§ĩà¦Łà§ĩ
ou nd
à¦¾à¦¨ à§Ģà¦°
Ġà¦° à¦¾à¦ķ
Ġà¦®à¦¹à¦¾à¦¸à¦¡à¦¼ à¦ķ
Ġà¦Ĺ à§ĩà¦ĩ
Ġà¦®à§ģà¦¨ à¦¾à¦«à¦¾
Ġà¦¬à§įà¦¯à¦¾à¦Ł à¦¾à¦°à¦¿
Ġà¦¬à§Ī à¦ļà¦¿à¦¤à§įà¦°
à¦¾à¦§ à§ģà¦¨à¦¿à¦ķ
Ð º
Ġà¦ıà¦Ł à¦¾à¦ķà§ĩ
à¦¾à¦² à§ĩà¦ĵ
Ġà¦ĵ à¦ģ
id th
Ġà¦ķ à§ĩà¦¬
r it
Ġà¦¸à§ģ à¦«
à§¬ à§¬
Ġà¦ķà¦² à¦®
Ġà¦¨à¦¾à¦® à¦¤à§ĩ
Ġà¦¬à¦¿à¦¦à§įà¦°à§ĭà¦¹ à§Ģ
Ġà¦¸à¦®à¦¾à¦²à§ĭà¦ļ à¦¨à¦¾à¦°
à¦ĵà¦¯à¦¼ à§ĩà¦¸à§įà¦Ł
Ġà¦¬à§įà¦¯à¦¾à¦¯à¦¼ à¦¾à¦®
T h
Ġà¦ı à§įà¦¯à¦¾à¦¡
Ġà¦ķà¦¾à¦Ł à¦¾à¦¤à§ĩ
Ġà¦Ľà¦¾à¦¡à¦¼ à¦¾à¦°
à¦¿à¦¨ à¦¿à¦ī
Ġà¦¸à¦Ĥà¦¸à§įà¦ķ à¦¾à¦°à§ĩà¦°
Ġà¦®à§ģà¦ķà§įà¦¤à¦¿à¦¯à§ĭà¦¦à§įà¦§ à¦¾à¦¦à§ĩà¦°
à¦ª à¦¾à¦ģà¦ļ
Ġà§¬ à¦Łà¦¿
Ġà¦ĸà¦¬ à¦°à§ĩà¦°
Ġà¦ķà¦¥ à¦¾à¦¬à¦¾à¦°
Ġà¦¤à§İà¦ªà¦° à¦¤à¦¾
Ġà¦¬à§Īà¦¦à§įà¦¯à§ģà¦¤ à¦¿à¦ķ
Ġà¦¬à¦¨à§įà¦§ à§ģà¦°à¦¾
Ġà¦¡ à¦¾à¦¬à¦²
Ġà¦ļ à¦¾à¦²à§ĩà¦°
Ġà¦«à¦° à¦¾à¦¸à¦¿
Ġà¦¡ à¦¾à¦ķà§ĩ
ÙİØ ³
Ġà¦ĸ à¦¾à¦¸
Ġà¦¸ à¦¾à¦ĩà¦¨
Ġà¦² à¦¿à¦¨
à¦¾à¦Ł à¦¸
Ġ0 7
à¦° à§ĭà¦ľ
à¦ĵ à¦ķà¦¤
Ġà¦°à¦¾à¦ľà¦¶à¦¾à¦¹ à§Ģà¦°
at ch
Ġà¦«à§įà¦° à¦¨à§įà¦Ł
Ġà¦¸à¦¾à¦¹à§ĩà¦¬ à§ĩà¦°
à§Ĥà¦¨ à¦¤à¦®
Ġà¦§à¦¾à¦° à¦¾à¦°
à¦ı à¦¦à¦¿à¦¨
à¦¤à¦¾à¦¬ à¦¿à¦°
Ġà¦ĸà§ĩà¦²à§ĭà¦¯à¦¼à¦¾à¦¡à¦¼ à¦¦à§ĩà¦°
Ġà¦ľ à§ĭ
Ġà¦ļà¦¿à¦ķà¦¿à§İà¦¸ à¦ķà¦°à¦¾
Ġà¦ļà§ĩà¦¤ à¦¨à¦¾
Ġà¦Ĩà¦¤à§įà¦® à¦¸
Ġà¦ªà§ĩà¦¯à¦¼ à§ĩà¦Ľà¦¿à¦²à§ĩà¦¨
Ġà¦¸ à¦¾à¦ªà§įà¦¤à¦¾à¦¹à¦¿à¦ķ
Ġà¦ī à¦°
Ġà¦ķà§ĭà¦ļ à¦¿à¦Ĥ
à¦ħà¦¬ à¦¶à§įà¦¯
Ġà¦®à§ģ à¦Ń
à¦¾à¦¨ à§ģ
Ġà¦ļà¦¾à¦ĩ à¦Ľà§ĩà¦¨
Ġh is
à¦« à§ĭà¦°à§įà¦¡
Ġà¦ľà¦¾à¦® à§ĩ
Ġà¦¨à§ĥà¦¤ à§įà¦¯
à§ĩà¦¸ à§įà¦¤
Ġà¦¬à¦¨à§įà¦¦ à¦¿
Ġà¦¶ à§ģà¦¦à§įà¦§
Ġà¦¢ à§ĩà¦²à§ĩ
lo ck
Ġà¦ľà¦Ĺà¦¤ à§ĩà¦°
Ġà¦ķà¦¾à¦īà¦¨à§įà¦¸ à¦¿à¦²à§ĩà¦°
Ġà¦Ĭà¦°à§įà¦§à§įà¦¬ à¦¤à¦¨
Ġà¦Ł à¦¯à¦¼
Ġà¦¬à¦¿à¦§ à¦¾à¦¯à¦¼à¦ķ
à¦°à¦£ à§ĩ
Ġà¦łà¦¾à¦£à§įà¦¡ à
Ġà¦łà¦¾à¦£à§įà¦¡à ¦
Ġà¦łà¦¾à¦£à§įà¦¡à¦ ¾
à¦¡à¦¿à¦ľ à¦¿à¦Łà¦¾à¦²
Ġà¦¸à¦¹à¦¿à¦Ĥà¦¸ à¦¤à¦¾
à¦§à¦° à¦¨à§ĩà¦°
Ġà¦¸à¦¾à¦° à¦¾à¦¦à¦¿à¦¨
à¦¨à¦¿à¦°à§įà¦¬ à¦¾à¦¹à§Ģ
Ġà¦®à¦¹à¦¾à¦ķ à¦¾à¦¶
Ġà¦ıà¦Ł à¦¾à¦ĵ
Ġà¦¦à¦¿à¦Ĺ à¦¨à§įà¦¤
t o
ĠB d
Ġà¦Ĩà¦ĩà¦¸ à¦¿à¦Łà¦¿
Ġà¦¡à§įà¦° à¦¾à¦ĩà¦Ńà¦¾à¦°
Ġà¦¸à¦¿à¦¨à§įà¦¡ à¦¿à¦ķà§ĩà¦Ł
à¦¸à¦®à§Ĥà¦¹ à§ĩà¦°
Ġà¦ªà¦°à§įà¦¦ à
Ġà¦ªà¦°à§įà¦¦à ¦
Ġà¦ªà¦°à§įà¦¦à¦ ¾
Ġà¦ĺ à§ĭà¦¡à¦¼
Ġà¦ķ à§Ģà¦°à§įà¦¤
Ġà¦ĵ à¦¡à¦¼
Ġà¦¤ à¦¾à¦¬
à¦¾à¦ĺ à¦¾à¦¤
Ġà¦®à¦¨à§įà¦¤à§įà¦°à¦£à¦¾à¦² à¦¯à¦¼à§ĩ
Ġà¦¸ à¦¨à§įà¦¨
Ġà¦Ĺà¦¬à§ĩà¦· à¦£
Ġà¦ķà§įà¦°à¦® à¦¾à¦Ĺà¦¤
Ġà¦¬à¦¿à¦¨à¦¿à¦¯à¦¼à§ĭà¦Ĺ à§ĩà¦°
Ġà¦ļà¦¿à¦ķà¦¿à§İà¦¸ à¦¾à¦¯à¦¼
à¦° à¦¾à¦¸à§įà¦¤
Ġà¦Ĩà¦¹à¦®à§įà¦® à§ĩà¦¦
à¦¯à¦¼à¦¾à¦ľ à§įà¦ľ
Ġà¦ľà¦¿à¦ª à¦¿à¦ı
à¦Ĺ à§ģà¦£
Ġà¦¸à¦ªà§įà¦¤ à¦®
à¦Ĺà§ĭà¦ª à¦¾à¦²
c o
Ġà¦¤ à¦¿à¦²
Ġà¦¡ à¦¾à¦Łà¦¾
Ġà¦¸à¦¬ à¦Ĺà§ģà¦²à§ĭ
Ġà¦¬ à¦£
à¦¾à¦¡à¦¼ à¦¿à¦°
à¦¾à¦¤à§įà¦¤ à§įà¦¬à¦¿à¦ķ
à§įà¦Ł à§ĭà¦°
à§įà¦® à¦¿
Ġà¦¡à¦¾à¦¯à¦¼à¦¾à¦¬à§ĩà¦Ł à¦¿à¦¸
Ġà¦¬à¦¿à¦ľà§įà¦ŀà¦¾à¦¨ à§Ģà¦°à¦¾
Ġà¦Ĺ à§ģà¦¹
à¦Ĺ à§ĭ
Ġà¦¸à§ĭà¦¨ à¦¾à¦²à§Ģ
à§įà¦° à¦¾à¦²
à¦¸ à¦ķà¦¾à¦²
Ġà¦«à§ĭà¦° à¦¾à¦®à§ĩà¦°
à¦¿à¦Ł à§ĩ
Ġà¦¹à§ģà¦®à¦¾à¦¯à¦¼ à§Ĥà¦¨
Ġà¦¦ à¦¿à¦ĩ
à¦® à¦¨à§įà¦¤à§įà¦°
Ġà¦¬à§įà¦²à¦Ĺ à§ĩ
Ġà¥¤ à¥¤
Ġà¦¶à¦¿à¦°à§ĭà¦¨ à¦¾à¦®à§ĩ
Ġà¦§ à§Ģà¦°
Ġà¦ĩà¦¸à¦²à¦¾à¦® à¦ķà§ĩ
Ġvi ews
Ġà¦Ĩà¦¡à§įà¦¡ à
Ġà¦Ĩà¦¡à§įà¦¡à ¦
Ġà¦Ĩà¦¡à§įà¦¡à¦ ¾
Ġà¦ªà§įà¦²à¦¾à¦¸à§įà¦Ł à¦¿à¦ķ
r ic
I ST
Ġà¦¯à§ģà¦¬ à¦°à¦¾à¦ľ
à¦¿à¦ª à¦¤à§įà¦°
à¦¾à¦¨à§įà¦¤ à§ĩ
Ġà¦Ĩà¦¨à¦¨à§įà¦¦ à§ĩ
Ġà¦¦ à
Ġà¦¹à§ĩà¦² à¦¿à¦ķà¦ª
Ġà¦¦ à¦¾à¦īà¦¦
Ġà¦¸à§Į à¦®à§įà¦¯
Ġà¦Ń à¦¿à¦¨
Ġà¦ªà§įà¦° à¦¾à¦ĩà¦®
Ġà¦¨ à¦¾à¦Ī
à§ĭ à¦¦à§įà¦§à¦¾
Ġà¦ªà§įà¦°à¦¤ à¦¾à¦°à¦£à¦¾
Ġà¦¤à¦¿à¦¨ à¦¿à¦ĵ
Ġà¦®à§ĩà¦¹ à§ĩà¦°
Ġà¦¸à¦Ĥà¦ĸ à§įà¦¯à¦¾à¦Ĺ
à¦¬à¦¿à¦¶à§įà¦¬ à¦¬à¦¿à¦¦à§įà¦¯à¦¾à¦²
ag ra
à¦®à§ĭà¦¹ à¦¨
Ġà¦ħà¦Ĺ à¦¾à¦¸à§įà¦Ł
Ġà¦® à¦¾à¦ĩà¦ķ
à¦¸à§įà¦ª à¦·à§įà¦Ł
Ġl ike
Ġp ar
Ġà¦ī à¦·à§įà¦£
Ġà¦Łà§ĩà¦ķ à¦¸à¦ĩ
à¦¬à¦¾à¦¬ à
à¦¬à¦¾à¦¬à ¦
à¦¬à¦¾à¦¬à¦ ¾
ĠRep ly
Ġà¦ıà¦¯à¦¼à¦¾à¦° à¦²à¦¾à¦ĩ
à§ĭà¦Ł à§ĩà¦°
Ġà¦¤à¦ĸà¦¨ à¦ĵ
-à§¨à§¦à§§à§ ¯
à¦¥ à¦¾à¦°
Ġà¦®à§Ĥ à¦°à§įà¦¤à¦¿
à¦¿à¦²à§įà¦² à¦¿
Ġà¦®à¦¿à¦² à¦¬à§ĩ
à¦¸ à§ģà¦¦
à¦¾à¦ ŀà§įà¦Ľ
Ġà¦¶à¦¾à¦¹à¦° à¦¿à¦¯à¦¼à¦¾à¦°
à¦¿à¦ª à¦¾à¦°
ÙİÙ Ĥ
Ġà¦¨à¦¿ à¦°à§įà¦Ń
Ġà¦¦à ¦
Ġà¦¦à¦ ¾
Ġà¦ħà¦¨à§ĩà¦ķ à¦Ĺà§ģà¦²à§ĭ
à¦¿à¦¸ à§įà¦ķ
Ġà¦Ĩà¦® à¦¦à¦¾à¦¨
Ġà¦¸à¦¹à¦¯à§ĭà¦Ĺ à¦¿à¦¤à¦¾à¦°
Ġà¦¨à¦¾à¦ľ à¦¿à¦®
Ġà¦ľà¦¾à¦°à§įà¦® à¦¾à¦¨à¦¿à¦°
Ġà¦¸à§įà¦ķà§įà¦° à¦¿à¦¨
Ġà¦ķà¦°à§įà¦®à¦ļà¦¾à¦° à§Ģà¦¦à§ĩà¦°
Ġà¦¡ à¦¿à¦²
Ġà¦¸ à¦¿à¦Ĺ
à¦¬ à¦¾à¦¹à§Ģ
Ġà¦¬à¦¿à¦¶à§įà¦¬ à¦¾à¦¸à§ĩà¦°
Ġà¦¦à§ģ à¦¬à¦¾à¦ĩ
Ġà¦īà§İà¦¸ à¦¾à¦¹à¦¿à¦¤
Ġà¦®à§ĩà¦Łà§įà¦° à§ĭà¦ªà¦²à¦¿à¦Łà¦¨
ul ar
Ġà¦¨à¦¾à¦® à¦¾à¦ľà§ĩà¦°
Ġà¦ķà¦° à§ģà¦ķ
Ġà¦¦à§įà¦¬ à¦¿à¦Ĺà§ģà¦£
Ġà§¨à§¦à§¦ à§Ń
Ġà¦¬à¦¿à¦¬ à§ĩà¦ķ
Ġà¦ª à§ĩà¦ªà¦¾à¦°
Ġà¦¶à¦¿à¦ĸ à¦¤à§ĩ
Ġà¦¢à§ģà¦ķ à¦¤à§ĩ
Ġà¦ľà¦¨ à¦¤à¦¾à¦°
Ġà¦¬ à¦¸à§įà¦¤à§įà¦°
Ġà¦ĵà¦ł à§ĩà¦¨
Ġà¦°à¦¾à¦¨ à§Ģ
Ġà¦Ĺ à§ģà¦Ł
Ġà¦ªà¦¾à¦ĸ à¦¿à¦°
Ġà¦¹ à§ĩà¦ķà§įà¦Łà¦°
à¦¾à¦¹ à¦¾à¦ľ
à§įà¦Ł à¦¿à¦¨
à¦ķà¦® à§įà¦ª
Ġà¦ª à§ĩà¦®
à¦Ĺ à¦¾à¦¹
Ġà¦ĩà¦¤ à¦¾à¦²
Ġà¦°à¦¾à¦ľ à¦¾à¦ķà¦¾à¦°
Ġà¦ĩà¦¯à¦¼ à¦¾à¦¸
Tag s
Ġà¦¨à¦¬ à§Ģà¦¨
Ġà¦¹à§ģà¦® à¦ķà¦¿à¦°
Ġà¦ľ à¦¸à¦¿à¦®
à¦¿à¦¬ à§ģà¦°
Ġà¦¯à¦¾à¦¤à§įà¦°à§Ģà¦¬ à¦¾à¦¹à§Ģ
à¦ł à¦¾à¦ķà§ģà¦°
Ġà¦ĵ à¦²
Ġà¦¤à¦°à§ģà¦£ à¦¦à§ĩà¦°
ro y
ide os
à¦° à§ĩà¦¡
à¦¾à¦¹ à¦¿à¦¤à§įà¦¯
Ġà¦¡ à§ĩà¦ĩà¦²à¦¿
à¦¾à¦¬ à¦¿à¦¦
Ġà¦¦à§ĥà¦·à§įà¦Ł à¦¿à¦Ń
an ews
Ġà¦¸à¦¾à¦¹à¦¿à¦¤ à§įà¦¯à§ĩà¦°
Ġà¦ľ à¦¾à¦¦
Ġà¦°à¦«à¦¤ à¦¾à¦¨à¦¿
Ġà¦¯à§Į à¦ķà§įà¦¤à¦¿à¦ķ
Ġà¦®à¦¾à¦² à¦¾à¦®à¦¾à¦²
Ġà¦ķà¦¥ à¦¾à¦Ĺà§ģà¦²à§ĭ
Ġà¦²à¦¿à¦ĵ à¦¨
Ġà¦Ĺ à§ĩà¦Ľà¦¿
Ġà¦¶à¦¤ à¦ķà¦°à¦¾
Ġà¦Ĩà¦ĺ à¦¾à¦¤à§ĩ
Ġà¦®à§ģà¦¸à¦² à§įà¦²
Ġà¦¬à¦¿à¦ªà¦°à§įà¦¯ à¦¯à¦¼
à¦¾à¦® à¦¤à§ĩà¦°
à¦¶ à¦Ĥà¦¸
Ġ0 8
(' .
Ġà¦ª à¦¨à§įà¦¥
ĠĠĠĠ ĠĠ
à¦¿à¦² à§įà¦²à¦¾à¦¹
à¦ªà§įà¦°à¦ķà¦¾à¦¶ à¦ķ
Ġà¦¹à¦¾à¦° à¦¾à¦¨à§ĭ
Ġ201 1
à¦«à§ĩà¦¸à¦¬ à§ģà¦ķà§ĩ
Ġà¦ªà§įà¦°à¦¶à¦¾à¦¸ à¦ķà§ĩà¦°
Ġà¦Łà§ģà¦°à§įà¦¨à¦¾à¦®à§ĩà¦¨à§įà¦Ł à§ĩà¦°
Ġà¦¥à¦¾à¦ķ à§ģà¦ķ
Ġà¦® à¦Īà¦¨
Ġà¦ľà¦¿à¦¤ à¦¤à§ĩ
à¦¿à¦¶ à§ĭà¦§
à¦ĩ à¦¸à¦¿
à¦¿à¦¯à§ĭà¦Ĺ à¦¾à¦¯à§ĭà¦Ĺ
à¦¾à¦£ à¦¿à¦¤
O M
à§ģà¦® à§įà¦¬
à¦¾à¦¯à¦¼ à¦¨à§ĩ
Ġà¦ļà¦² à¦¾à¦ķà¦¾à¦²à§Ģà¦¨
à¦¨à¦¾à¦¯à¦¼ à¦ķ
Ġà¦®à§ĭà¦ķà¦¾à¦¬ à§ĩà¦²à¦¾
- c
Ù ĭ
Ġà§§à§§ à¦Łà¦¾à¦°
à¦® à¦¾à¦¯à¦¼
Ġà¦° à§ĩà¦®
Ġà¦ķ à¦¤à§ĭ
à¦°à§įà¦· à¦£à§ĩà¦°
Ġà¦¤ à§ģà¦·
à¦ķà§įà¦° à¦¿à¦ķà§ĩà¦Ł
Ġà¦¨ à¦²
à¦¦ à¦¾à¦¤
Ġà¦¦à¦¿à¦¨ à¦¾à¦ľ
Ġà¦ľ à¦¯à¦¼à§ĩ
Ġà¦ħà¦¨ à¦¾à¦°à§įà¦¸
Ġà¦¬à¦¡à¦¼ à§ģà¦¯à¦¼à¦¾
Ġà¦ħà¦¨ à¦¨à§įà¦¤
e ed
Ġà¦ķà§įà¦·à¦¤à¦¿à¦ªà§Ĥ à¦°à¦£
à¦® à¦¿à¦¤
Ġà¦Ĩà¦¡à¦¼ à¦¾à¦²à§ĩ
Ġà¦ħà¦ķà§įà¦Ł à§ĭà¦¬
Ġà¦Ĺà§įà¦° à¦¿à¦¨
Ġà¦®à¦¾à¦ĩà¦ķà§įà¦° à§ĭà¦¸
à¦¡à¦¼ à§ĭ
à¦¶ à¦¿à¦¬
Ġà¦«à¦² à¦¾à¦«
Ġà¦²à§ĩà¦ĸà¦¾à¦ª à¦¡à¦¼à¦¾
Ġà¦ķà¦¾à¦°à¦¾à¦Ĺ à¦¾à¦°
à§ĭà¦ļ à¦¿à¦¤
à¦ªà§Ĥà¦°à§įà¦¬ à¦ķ
Ġà¦¦à§Ī à¦¨à¦¨à§įà¦¦à¦¿à¦¨
Ġà¦ħà§įà¦¯à¦¾à¦¸à§ĭà¦¸à¦¿à¦¯à¦¼ à§ĩà¦¶à¦¨
Ġà¦Ĩà¦¨ à§Ģà¦¤
Ġà¦¸à¦®à¦¾à¦§ à¦¾à¦¨à§ĩ
à¦¯à§ģà¦¦à§įà¦§ à§ĩà¦°
ct ed
à¦¸à¦¿à¦° à¦¾à¦ľ
Ġà¦¦à§ģà¦°à§įà¦¬à§ĥà¦¤à§įà¦¤ à¦°à¦¾
Ġà¦®à§ĥà¦¤à§įà¦¯ à§ģà¦¬
Ġà¦¬ à§ģà¦ĸ
à§° à§°
Ġà¦¤à¦° à¦«
Ġà¦ľ à¦¿à¦²
Ġà¦¬ à§ģà¦²à¦¿
Ġà¦¸à§ĩà¦® à¦¿à¦¨à¦¾à¦°
Ġà¦ķà¦¾à¦ģ à¦ª
à¦¿à¦Ĺ à§įà¦¨
Ġà¦ķà¦¾à¦° à§įà¦Ł
à¦¬à¦¾à¦° à§įà¦Ł
à¦¨ à§Ģà¦°
à¦¬à§įà¦° à§ĩà¦ķ
Ġà¦¸ à¦¾à¦¨à§įà¦¤
Ġà¦°à§ĩà¦¸ à§įà¦¤
Ġà¦ª à¦¿à¦Ľà§ģ
Ġà¦¸à¦¦à¦¸à§įà¦¯ à¦ķà§ĩ
Ġà¦ĩà¦¨à¦¸à§įà¦Ł à¦²
Ġà¦ķà§ģà¦®à¦¿à¦²à§įà¦² à¦¾à¦°
à§Ń à§Ń
à§ĩà¦ Ļà§įà¦ķ
Ġà¦¶ à¦°à§įà¦Ł
Ġà¦ªà¦¾à¦² à§įà¦Łà§ĩ
Ġà¦Ĩà¦® à§Ģà¦°
à§ģà¦®à¦¾à¦¨ à¦¿à¦ķ
Ġà¦ł à§ĩà¦²à§ĩ
à¦¸à¦®à§įà¦ªà¦¾à¦¦à¦ķ à§Ģà¦¯à¦¼
Ġà¦¸à§Ī à¦ķà¦¤
Ġà¦ĺà§ģà¦® à§ĩà¦°
à§ĩà¦Ł à§ĩà¦¡
Ġà¦°à¦¿à¦®à¦¾à¦¨à§įà¦¡ à§ĩ
Ġà¦¨ à§ģà¦°à§ģ
Ġà¦ª à§įà¦¯à¦¾à¦Ł
| |
Ġà¦ĺà§ĭà¦· à¦¨à¦¾
uth or
Ġà¦¬à§įà¦¯à¦¬ à¦§à¦¾à¦¨
Ġ0 2
à¦¾à¦¨à§įà¦¤ à¦°à§ĩà¦°
Ġà¦¦à§ģà¦¨ à¦¿à¦¯à¦¼à¦¾
à§ģà¦Ł à§ĩ
à¦¸ à¦¿à¦¡
à¦Ńà¦¾à¦Ĺ à§įà¦¯
Ġà¦¬à¦°à§įà¦ľ à¦¨
Ġà¦ħà¦§à¦¿à¦¬ à§ĩà¦¶à¦¨à§ĩ
ĠT r
Ġà¦¡à§ĩà¦Ń à¦¿à¦¡
à¦¾à¦¬à¦¾à¦° à§įà¦·à¦¿à¦ķ
Ġà¦ªà§įà¦°à¦¦ à§Ģà¦ª
Ġà¦²à§ĭà¦ķ à¦ľà¦¨à§ĩà¦°
Ġà¦ħà¦²à¦° à¦¾à¦īà¦¨à§įà¦¡
à§ĩà¦ ĺ
m ain
Ġà§« à§¯
Ġà¦¶à§įà¦° à§Ģà¦²
Ġà¦Ī à¦¶à§įà¦¬à¦°à§ĩà¦°
Ġà¦ªà¦°à¦¿à¦ķà¦²à§įà¦ª à¦¨à¦¾à¦°
an i
O R
Ġà¦° à§ĭà¦ª
Ġà¦ľ à¦¿à¦¬à¦¿
Ġà§¬ à§®
à¦¤à¦¾à¦¬ à§ĩà¦ķ
Ġà¦« à¦¾à¦¹
Ġà¦¤à§ģ à¦°à§įà¦ķ
Ġà¦Ĩà¦°à¦¿à¦« à§ģà¦²
Ġà¦¦à§įà¦¬ à¦¿à¦§
Ġà¦¬à¦¿à¦¸à§įà¦«à§ĭà¦° à¦ķ
Ġà¦ķà¦® à¦¿à¦Łà¦¿à¦¤à§ĩ
Ġà¦ªà¦¾à¦¹ à¦¾à¦¡à¦¼à§ĩ
à¦¾à¦¶ à§Ģà¦²
Ġà¦®à§ĭà¦ķà¦¾à¦¬ à¦¿à¦²à¦¾à¦¯à¦¼
Ġà¦ĩà¦Ń à¦¿à¦ıà¦®
ad e
Ġà¦¶ à§įà¦²
201 9
à¦«à¦¾à¦¯à¦¼ à§ĩà¦²
Ġà¦¸à¦¿à¦¦à§įà¦§à¦¾à¦¨à§įà¦¤ à§ĩ
à¦¾à¦² à¦¨
Ġà¦²à§ģ à§İ
Ġà¦ľ à§ĩà¦¸
Ġà¦« à¦²à§ĩà¦°
à§¦ à§«
Ġà¦ľà¦¨ à¦¸à¦¾à¦§à¦¾à¦°à¦£
Ġà¦ªà§įà¦°à¦¾à¦£ à§ĩà¦°
Ġà¦¬à¦¦ à¦²à¦¿
Ġà¦Ĩà¦ķà¦¾à¦¶ à§ĩà¦°
Ġà¦®à¦¾à¦¨ à¦¤à§ĩ
Ġà¦ķ à¦«à¦¿
Ġà¦ªà§ģà¦ģà¦ľà¦¿à¦¬à¦¾à¦ľà¦¾à¦° à§ĩ
Ġà¦¸ à§ĩà¦ķà§įà¦Ł
Ġà¦®à¦¿à¦² à¦¿à¦¤
Ġà¦ľ à§ĩà¦ıà¦¸
à¦Ĺ à¦°à§įà¦Ń
Ġà¦ħà¦Ńà¦¿à¦¬ à¦¾à¦¸à¦¨
Ġà¦ªà§įà¦°à¦¾à¦§ à¦¾à¦¨à§įà¦¯
Ġp re
Ġà¦ıà¦¸à¦ıà¦® à¦ıà¦¸
Ġà¦ķà§ĥà¦¤à¦ľà§įà¦ŀ à¦¤à¦¾
Ġà¦¬à¦² à¦Ľà¦¿à¦²à§ĩà¦¨
k h
Ġà§¯ à§«
Ġà¦®à§ĩà¦¹ à§ĩà¦°à¦ªà§ģà¦°
Ġà¦¬à§Īà¦· à¦®à§įà¦¯
Ġà¦¬à§ĩà¦¸ à¦¾à¦®à¦°à¦¿à¦ķ
Ġà¦°à§ģà¦Ł à§ĩ
Ġà¦®à§ģà¦®à§įà¦¬ à¦ĩ
à¦¤à¦¥à§įà¦¯ à¦ªà§įà¦°à¦¯à§ģà¦ķà§įà¦¤à¦¿
an c
Ġà¦ķà§įà¦°à¦¿à¦ķà§ĩà¦Łà¦¾à¦° à¦¦à§ĩà¦°
âĢ¦ .
à¦Ń à¦¿à¦ī
à¦²à§įà¦ª à¦¨à¦¾
Ġs he
à¦¬à§įà¦° à¦¿à¦Ł
à¦Ĥ à¦°à¦¾
Ġan y
à¦¸à¦Ĥ à¦Ĺà¦ł
Ġà¦¨ à¦¿à§°
Ġà¦Ĩà¦ĩà¦¸ à¦¿à¦¸à¦¿
Ġà¦¹à§ĩà¦«à¦¾à¦ľ à¦¤à§ĩ
à§ĭ à¦¦à§įà¦§
Ġà¦° à§ģà¦²
Ġà¦¬à¦¿à¦·à¦¯à¦¼ à¦¬à¦¸à§įà¦¤à§ģ
Ġà¦ıà¦¨ à§įà¦Łà¦¾à¦°
Ġà¦ķà§įà¦· à§ĩà¦¤
Ġà¦ĺà¦¨ à§įà¦Łà¦¾à¦°
Ġà¦¸à§įà¦¤ à¦¨
à¦¸ à¦ķà§ĩ
Ġà¦¤à¦¾à¦° à¦ķà¦¾à¦°
Ġà¦¬à§įà¦¯à¦¬à¦¹à¦¾à¦° à¦ķà¦¾à¦°à§Ģà¦¦à§ĩà¦°
Ġà¦ķà§ĭ à¦¹à¦²
Ġà¦ķ à¦¾à¦²à§ĩ
Ġà¦¸à§ĭà¦¹à¦° à¦¾à¦ĵà¦¯à¦¼à¦¾à¦°à§įà¦¦
Ġà¦¸à§įà¦¬à¦¾à¦¸à§įà¦¥ à§įà¦¯à§ĩà¦°
Ġà¦¨ à¦¿à¦§
Ġà¦¸à§ģ à¦Ĺ
Ġà¦¬à¦¿à¦ıà¦¸ à¦ıà¦«
5 4
Ġà¦¸à¦Ĥà¦ĸà§įà¦¯à¦¾à¦²à¦ĺ à§ģ
à¦¬à¦¿à¦ľ à§ĩà¦ª
Ġà¦¶à§ģà¦§ à§ģà¦ĩ
Ġà¦® à¦¾à¦¯à¦¼à¦¾
Ġà¦¦à¦¿à¦¨ à¦ĩ
Ġà¦¸à¦®à¦°à§įà¦¥ à¦¿à¦¤
Ġà¦ķà¦²à§įà¦¯à¦¾à¦£ à§ĩ
Ġà¦īà¦¤à§įà¦¤ à¦°à¦¾
Ġà¦®à§ĭà¦ľ à¦¾à¦®à§įà¦®à§ĩà¦²
Ġà¦ķà§ĭà¦°à§įà¦Ł à§ĩ
Ġà¦ķà¦¾à¦ľ à¦²
à§įà¦¬ à¦¿à¦¨
Ġà¦°à§ĩà¦ľà¦¿à¦¸à§įà¦Łà§įà¦° à§ĩà¦¶à¦¨
Ġà¦¸à§ĩà¦² à¦¸
à¦¤ à¦¤à§įà¦¤à§įà¦¬
Ġà¦® à§ĩà¦ķà§įà¦¸
Ġà¦«à§ģà¦Łà¦¬ à¦²à§ĩà¦°
Ġà¦ªà¦¾à¦ł à§įà¦¯
Ġà¦¦à§ĩà¦ĵà¦¯à¦¼ à¦¾à¦¨
Ġà¦¬à§ģà¦² à¦¬à§ģà¦²
Ġà¦īà¦ĩà¦² à¦¿à¦¯à¦¼à¦¾à¦®
Ġà¦ł à¦¾à¦ķ
Ġà¦ĩà¦® à§ĩà¦ľ
Ġà¦¨à§Ģà¦¤ à¦¿à¦°
Ġà¦¶à¦¾à¦¹ à¦¬à¦¾à¦Ĺ
à¦ªà§įà¦°à¦ķà¦¾à¦¶ à§ĩà¦°
Ġà¦«à¦¾à¦ģ à¦¸à¦¿
Ġà¦¸ à¦°à§įà¦¦
Ġà¦¸à§ģà¦° à¦ķà§įà¦·
Ġà¦¬à¦¿à¦¬ à§ĥà¦¤à¦¿
à¦¿à¦ľ à¦¾à¦°
Ġà¦ĩà¦¨ à¦Ń
ÙĲ ÙĦ
Ġà¦¬à§įà¦°à¦¾à¦ľ à¦¿à¦²à§ĩà¦°
le t
Ġà¦¬à¦¾à¦² à§ģ
Ġà¦®à§ģà¦¹ à¦¿à¦¤
à¦Ĺ à§ģà¦°à§ģ
à¦¬ à¦¿à¦¤à§ĩ
Ġà§® à§«
Ġà¦¬à§ĥà¦·à§įà¦Ł à¦¿à¦ª
Ġà¦¸à¦¨ à¦¾à¦ķà§įà¦¤
à¦Ł à¦°
à¦°à¦¾à¦ľ à¦¨à§Īà¦¤à¦¿à¦ķ
Ġà¦® à¦®à¦¤
à§ĭà¦¨ à¦¿
à¦ħà¦¸ à§įà¦Łà§įà¦°à§ĩà¦²
] [
Ġà¦Ĩà¦Ļ à§ģà¦²
Ġà¦® à¦¿à¦®à¦¿
8 0
Ġà¦² à§ĭà¦®
S h
Ġà¦¨à¦¿à¦¬ à§ĩà¦¦à¦¨
Ġà¦Ńà¦¿à¦¡à¦¿à¦ĵ à¦¤à§ĩ
Ġ0 9
Ġà¦¬à¦¿à¦¶à§ĩà¦· à¦Ńà¦¾à¦¬à§ĩ
Ġà¦ıà¦¡ à¦Ńà§ĭà¦ķà§ĩà¦Ł
à¦ľà§Ģà¦¬ à§Ģ
à§ĩà¦¶ à§ĩà¦°
à¦Ĺ à¦¨
Ġà¦ķ à§ĩà¦¯à¦¼à¦¾à¦°
Ġà¦¨ à¦¾à¦¥
à¦¾à¦° à§įà¦ļ
Ġà¦¬à§Īà¦¶ à§įà¦¬à¦¿à¦ķ
Ġà¦¨à§įà¦¯ à§Ĥà¦¨à¦¤à¦®
art a
Ġà¦¸à¦¨à§įà¦¦à§ĩà¦¹ à§ĩ
Ġà¦ĸà§ĩà¦² à¦¬à§ĩ
Ġà¦¹à¦¿à¦¸à§ĩà¦¬ à§ĩà¦ĩ
Ġà¦¢ à§ĩà¦ķà§ĩ
Ġà¦¬à¦¿à¦¸à§įà¦«à§ĭà¦° à¦£à§ĩ
.... ..
à¦¿à¦ķ à¦¾à¦°à§ĩà¦°
à¦¸ à¦¾à¦²à§ĩà¦°
à§Ń à§®
à¦® à¦¾à¦ĩ
- à§§à§Ń
Ġà¦¸à¦Ĥ à¦ľà§įà¦ŀ
Ġà¦īà¦ļà§įà¦ļ à¦¤à¦¾
à¦ªà¦° à¦¿à¦ķà¦²à§įà¦ª
à¦¸ à§įà¦¨
Ġà¦ĩ à¦¸à§įà¦¤
Ġà¦¸à¦¿à¦ıà¦¨ à¦ľà¦¿
Ġà¦¦à¦¿à¦¤ à§ĩà¦¨
Ġà¦¸à¦¾à¦¹ à¦¸à§Ģ
à¦ĸ à¦²
à¦¹ à¦ľ
Ġà¦ªà§įà¦°à¦¸à§įà¦¤à¦¾à¦¬ à¦¿à¦¤
à¦¶ à¦¾à¦¦à§ĩà¦°
Ġà¦ªà¦¥ à§ĩà¦°
à¦ĩà¦Ĥà¦° à§ĩà¦ľà¦¿
à§Ģà¦² à§ĭà¦ķ
Ġà¦ķà§ĭ à¦Ńà¦¿à¦¡
à§ª à§¨
Ġà¦ı à¦¦à§ĩà¦¶à§ĩà¦°
Ġà¦ķà§įà¦° à§ĩà¦¤à¦¾
Ġà¦ķà¦¾à¦¨ à§įà¦¨à¦¾
à¦ķ à¦¾à¦²à§ĭ
Ġà¦ªà§ĩà¦° à§ĩà¦Ľà¦¿
à¦² à¦¿à¦°
-à§¦ à§¨
Ġà¦Ĩà¦° à
Ġà¦Ĩà¦°à ¦
Ġà¦Ĩà¦°à¦ ¾
Ġà¦¨à¦¿à¦¹à¦¤ à¦¦à§ĩà¦°
à¦° à§ģà¦¦à§įà¦§
Ġà¦§à¦¾à¦° à¦¨à¦¾
Ġà¦Ĺà¦£ à¦¹à¦¤à§įà¦¯à¦¾
ĠOn e
Ġà¦ĩà¦² à¦¿à¦¯à¦¼à¦¾à¦¸
Ġà¦° à§ĭà¦¹à¦¿à¦¤
à§ĭà¦¯à¦¼ à§ĩà¦¶
Ġà¦¸à¦° à¦¦à¦¾à¦°
Ġà¦ħà¦¨à§ģà¦® à§ĭà¦¦à¦¿à¦¤
Ġà¦° à¦¿à¦ļà¦¾à¦°
Ġà§¨à§¦ à§¦à§¦
Ġà¦ħà¦ª à¦ļ
Ġà¦ľà¦Łà¦¿à¦² à¦¤à¦¾
Ġà¦ªà¦¾à¦¯à¦¼ à§ģà¦¸à¦Ĥà¦ķà§įà¦°à¦¾à¦¨à§įà¦¤
ar i
Ġà¦ħ à¦Łà§ĭ
Ġà¦¬à¦¿à¦¶ à§ģà¦¦à§įà¦§
Ġà¦ĩà¦Ľ à¦²à¦¾à¦®
Ġà¦ħà¦¨à§Ĥ à¦°à§įà¦§à§įà¦¬
Ġà¦¸à§įà¦ª à§ĩà¦¨
à¦Ľ à
Ġà¦Ł à§ģà¦²
Ġà¦Ńà¦ķà§įà¦¤ à¦¦à§ĩà¦°
Ġà¦¦ à¦«à¦¤à¦°à§ĩà¦°
Ġà¦ĩà¦¸à¦²à¦¾à¦® à¦¿
Ġà¦ªà§įà¦°à¦¤à¦¿à¦ªà¦ķà§įà¦· à§ĩà¦°
l ink
Ġà¦Ĺà§įà¦° à§Ģà¦·à§įà¦®
à¦¶à§įà¦° à§ĩà¦·à§įà¦ł
- à¦®à¦¾
Ġà§ª à§¦à§¦
Ġà¦ªà§ĩà¦Łà§įà¦° à§ĭà¦²
ĠT imes
à¦¨à¦¾à¦° à§įà¦¥
Ġà¦Ľà§ģà¦° à¦¿à¦ķ
Ġà¦ķà¦¾à¦ľ à¦Łà¦¾
Ġà¦ª à¦¾à¦īà¦¨à§įà¦¡
Ġà¦¸à§ģà¦° à¦®à¦¾
à¦ª à¦²
Ġà¦®à§ĩà¦¸ à§ĩà¦ľ
Ġà¦ķà§įà¦¯à¦¾à¦®à§įà¦ª à§ĩà¦°
y st
à¦Ľà ¦
à¦Ľà¦ ¾
Ġà¦° à¦¾à¦¯à¦¼à§ĩ
Ġà¦¦à§ģà¦¨ à¦¿à¦¯à¦¼à¦¾à¦°
à§ģà¦· à§įà¦ķ
à¦¬ à¦ªà§ģà¦°
Ġà¦ķà¦¾à¦ł à§ĩà¦°
Ġà¦¬à¦¿à¦Ľ à¦¾à¦¨à¦¾à¦¯à¦¼
Ġà¦¬à§įà¦° à¦¹à§įà¦®
Ġà¦ķà§ĭà¦¯à¦¼à¦¾à¦° à§ĩà¦¨à§įà¦Ł
Ġà¦ªà¦¾à¦° à¦®à¦¾à¦£à¦¬à¦¿à¦ķ
Ġà¦¨ à§ĩà¦ķ
à¦Ńà§Ĥ à¦®
Ġà¦¸à§įà¦® à¦¿à¦¥
Ġà¦Ĩà¦Ĺ à¦¤
Ġbo obs
Ġf irst
à¦ķ à¦¾à§°
Ġà¦«à¦¿à¦° à§ĩà¦Ľà§ĩà¦¨
Ġà¦®à¦¾à¦°à§įà¦ļ à§ĩà¦°
Ġà¦¸ à§įà¦¯à¦¾à¦¨
if tar
Ġà¦Ĩà¦ľ à¦ķà¦¾à¦²
Ġà¦®à¦ľ à§ģà¦¦
Ġà¦īà¦¤à§įà¦ª à¦¾à¦¦à¦¨
Ġà¦īà§İà¦ªà¦¾à¦¦ à¦¨à§ĩà¦°
an a
i er
Ø ¬
Ġà¦° à¦¨à¦¿
Ġà¦¸à§įà¦Łà§ĩà¦¡ à¦¿à¦¯à¦¼à¦¾à¦®
Ġà¦ªà§ĭà¦¸à§įà¦Ł à§ĩ
Ġà¦® à¦¨à¦¿
Ġà¦Ĺà¦£ à§įà¦¯
Ġà¦®à§ĭ à¦¤à¦¾à¦¬à§ĩà¦ķ
Ġà¦¦à¦¾à¦¬ à§Ģà¦¤à§ĩ
Ġà¦ħà¦§à¦¿à¦¬ à§ĩà¦¶à¦¨
à¦® à¦ķà§ĩ
âĢĻ à¦¬
Ġà¦§ à¦¾à¦®
à¦ªà§Ĥà¦°à§įà¦¬ à¦¾à¦¹à§įà¦¨
Ġà¦ľ à¦¾à¦ķà¦¾à¦°
- %
Ġà¦¤ à¦¿à¦¤
à¦ľà¦¾à¦¨ à§ģà¦¯à¦¼à¦¾à¦°à¦¿
Ġn o
Ġà¦²à§ĩà¦¨à¦¦ à§ĩà¦¨à§ĩà¦°
Ġà¦Ĩà¦ģ à¦ļ
p x
Ġà¦®à§įà¦¯à¦¾à¦ļ à¦Łà¦¿
Ġà¦Ĺ à¦ľ
Ġà¦ıà¦® à¦ªà¦¿à¦ĵ
ar s
Ġà¦ªà¦¾à¦ł à¦ķà§ĩà¦°
Ġà¦¸à¦¹ à¦¸à¦Ńà¦¾à¦ªà¦¤à¦¿
Ġà¦Ńà¦¾à¦²à§ĭ à¦ĩ
Ġà¦¸à¦¾à¦² à§ĩà¦¹
Ġà¦« à§ĭà¦°à§įà¦¸
Ġà¦®à¦¾à¦¦à¦°à¦¾à¦¸ à
Ġà¦®à¦¾à¦¦à¦°à¦¾à¦¸à ¦
Ġà¦®à¦¾à¦¦à¦°à¦¾à¦¸à¦ ¾
Ġà¦¸à§Ģà¦®à¦¾à¦¨ à
Ġà¦¸à§Ģà¦®à¦¾à¦¨à ¦
Ġà¦¸à§Ģà¦®à¦¾à¦¨à¦ ¾
Ġà¦ħà¦¨à§įà¦¤ à¦°à§įà¦¬
ÙİÙ ī
Ġà¦¸à¦Ĥà¦¬à¦¿à¦§ à¦¾à¦¨à§ĩà¦°
Ġà¦ĩ à¦¨à§įà¦¦à§įà¦°
à¦¿à¦® à¦¨à§įà¦¤à§įà¦°à§Ģ
Ġà¦ľà¦¨à§įà¦® à§ĩà¦°
Ġà¦²à¦ķà§įà¦·à§įà¦®à§Ģ à¦ªà§ģà¦°
Ġà¦® à¦°à§ĩ
à§ģà¦ķ à
à§ģà¦ķà ¦
à§ģà¦ķà¦ ¾
Ġà¦¦à§Ĥà¦· à¦£
Ġà¦¹à¦¯à¦¼à¦° à¦¾à¦¨à¦¿à¦°
Ġà¦¨à§ĩà¦® à§ĩà¦Ľà§ĩ
Ġà¦Łà§ĩà¦² à¦¿à¦¯à§ĭà¦Ĺà¦¾à¦¯à§ĭà¦Ĺ
Ġà¦®à¦¾à¦Ŀ à¦ĸà¦¾à¦¨à§ĩ
à¦¦à¦² à§Ģà¦¯à¦¼
Ġà¦¬à¦¾à¦° à¦¾à¦¨à§įà¦¦
Ġà¦īà§İ à¦ķ
à§¨à§¦à§§à§ «
. à§§
wit ter
Ġà¦ħà¦¨ à§ģà¦¬
Ġà¦¬à¦¨à§įà¦¦ à¦°à§ĩ
Ġà¦¸à§įà¦¬à§Ģà¦ķà¦¾à¦° à§ĭà¦ķà§įà¦¤
Ġà¦°à§ĩà¦« à¦¾à¦°
à¦ª à¦¾à¦¬
ÙİÙ Ī
Ġà¦Ń à¦²
Ġà¦¬à¦°à§įà¦§ à¦¿à¦¤
at ur
à¦¸à¦¬ à¦¾à¦ĩ
Ġà¦¬à¦¨à§įà¦¦à§ģà¦ķ à¦¯à§ģà¦¦à§įà¦§à§ĩ
9 7
Ġà¦°à¦¾à¦ľ à¦¬à¦¾à¦¡à¦¼à§Ģ
Ġà¦¬à§ĭà¦§ à¦¹à¦¯à¦¼
Ø °
Ġà¦¹à¦¾à¦ĩà¦ķà§ĭà¦°à§įà¦Ł à§ĩ
à¦Ń à¦¬à¦¨
Ġà¦ķà¦¯à¦¼à§ĩà¦ķ à¦Łà¦¾
Ġà¦¥à¦¾à¦ķ à¦¤à§ĩà¦¨
al ly
à¦Ļà§įà¦Ĺ à§Ģ
Ġà¦¡ à§ĩà¦ķ
Ġà¦°à¦¿à¦¯à¦¼ à§ĩà¦²
Ġà¦¹à§ĥà¦¦ à¦°à§ĭà¦Ĺ
Ġà¦Ĺà§įà¦°à§ģà¦ª à§ĩ
à¦Ł à¦¨à§ĩà¦°
Ġà¦¨à§ĥ à¦¶à¦Ĥà¦¸
/ index
Ġà¦Ńà§ĭà¦Ł à¦Ĺà§įà¦°à¦¹à¦£
m ed
à °
à¦¾à¦ľ à¦¾à¦¤
Ġà¦ıà¦ķà¦ĩ à¦Ńà¦¾à¦¬à§ĩ
à§ª à§ª
Ġà¦ľà¦¨à¦Ĺà§ĭà¦·à§įà¦ł à§Ģà¦°
à¦¸ à¦¾à¦ĩ
à¦ľ à§ģà¦²
Ġà¦ħà¦¸à§įà¦¤à§įà¦° à§ĭà¦ª
ÙİØ ª
à¦Ľ à¦¾à¦°
Ġà¦¸à¦¹ à§Ģà¦¹
Ġà¦¸à§įà¦¤à§įà¦° à§Ģà¦²à§ĭà¦ķ
Ġà¦¸à¦ķà§įà¦·à¦® à¦¤à¦¾
-à¦¬ à¦¾à¦£à¦¿à¦ľà§įà¦¯
in s
à¦¡ à¦¬à§įà¦²à¦¿à¦ī
Ġà¦®à¦¾à¦§à§įà¦¯à¦® à§ĩà¦ĩ
Ġà¦ķà¦¯à¦¼ à¦²à¦¾
Ġà¦ķà¦¯à¦¼à§ĩà¦ķ à¦¬à¦¾à¦°
TM L
Ġà¦¹ à¦¾à¦°à§ĩà¦°
Ġà¦®à¦¤ à¦ĩ
Ġà¦°à¦ķà§įà¦¤ à§ĩ
Ġà¦¹à¦¾à¦ĵà¦² à¦¾à¦¦à¦¾à¦°
Ġà¦Ĩà¦¨à¦¿à¦¸ à§ģà¦²
Ġà¦¦à¦¾à¦¯à¦¼à¦¿à¦¤à§įà¦¬ à¦¶à§Ģà¦²
Ġà¦Łà§ĩà¦ķà¦¨ à§ĭà¦²à¦ľà¦¿
à¦¾à¦ª à¦¾à¦°
à¦¦à§ģ à¦°à§įà¦¨
Ġà¦ķ à¦¾à¦£à§įà¦¡
Ġà¦§ à¦¾à¦ĵà¦¯à¦¼à¦¾
re at
", "
Ġà¦¸à§įà¦ª à¦¿à¦¨à¦¾à¦°
Ġà¦ķà¦°à§ĭà¦¨à¦¾à¦Ńà¦¾à¦ĩ à¦°à¦¾à¦¸à§ĩà¦°
Ġà¦®à§įà¦¯à¦¾à¦Ĺà¦¾à¦ľ à¦¿à¦¨
Ġà¦¦à§Ĥ à¦°à§ĩà¦°
Ġà¦§à¦°à§įà¦® à¦ĺà¦Ł
Ġà¦ķà§įà¦¯à¦¾à¦ª à§įà¦Łà§ĩà¦¨
Ġà¦īà¦ª à¦®à¦¹
Ġà§§à§¦ à¦Łà¦¾
Ġà¦¬à§ĩà¦Ļà§įà¦Ĺ à¦²
Ġà¦¸à§įà¦¤ à¦°à§ĩ
Ġà¦¦à§ĩà¦ĸ à§ĩà¦ĩ
à§ĭà¦¯à¦¼ à¦¾à¦¨
Ġà¦¨à§Ĥ à¦°à§ģà¦²
Ġà¦ķà¦£à§įà¦ł à§ĩ
Ġà¦¸à¦Ĥà¦¶ à§ĭà¦§à¦¨à§Ģ
Ġà¦¬à¦¾à¦¡à¦¼ à¦¾à¦°
g h
Ġà¦ı à¦¹
Ġà¦«à§ĩà¦¬à§įà¦° à§ģà¦¯à¦¼à¦¾à¦°
Ġà¦° à§ĩà¦ŀà§įà¦ľ
Ġà¦ľ à¦¾à¦¸
Ġà¦¸à¦Ĥà¦ķ à¦Łà§ĩà¦°
Ġà¦ļ à¦¾à¦°à¦¾
à§ĭà¦¤à§įà¦¤ à§ĩà¦ľ
à§° à
à§°à ¦
à§°à¦ ¾
ĠI t
à¦¨à¦¿à¦°à§įà¦¬à¦¾à¦ļ à¦¿à¦¤
Ġà¦ĸà§ģà¦ģà¦ľ à¦¤à§ĩ
. à¦ıà¦®
à¦°à¦¾à¦ľ à§įà¦¯à§ĩ
Ġà¦Ĺà¦° à§Ģà¦¬
âĢĺ à¦Ĩ
Ġà¦ļà¦² à¦¾à¦ķà¦¾à¦²à§ĩ
Ġà¦Ĩà¦¦ à¦¿
Ġà¦¢ à§ĩà¦ī
Ġà¦ľà¦Ļà§įà¦Ĺ à¦¿à¦¬à¦¾à¦¦
Ġà¦¶à¦¿à¦ķà§įà¦·à¦¾à¦°à§įà¦¥à§Ģ à¦ķà§ĩ
ĠÙ ĥ
Ġà¦Ĩà¦ľ à¦¹à¦¾à¦°
Ġà¦ķà§ĩà¦¨ à§ĭ
Ġà§¨à§« à§¦
Ġà¦ķà¦°à§įà¦¤à¦¬à§įà¦¯ à¦°à¦¤
Ġà¦Ńà§ĭà¦Łà¦¾à¦° à¦¦à§ĩà¦°
Ġ0 3
Ġà¦¦à§ĩà¦¯à¦¼ à¦¾à¦¯à¦¼
Ġà¦¨à¦¿à¦¦ à¦°à§įà¦¶à¦¨
Ġà¦ħà¦¨à§įà¦¯ à¦°à¦ķà¦®
ĠD e
Ġà¦ĸ à§ĭà¦°
ÑĢ Ð
Ġà¦°à¦¿à¦¯à¦¼ à¦¾à¦ľ
Ġà¦ķà¦¾à¦¸à§įà¦Ł à¦®
à¦¬à§įà¦° à¦¾à¦¹à§įà¦®à¦£à¦¬à¦¾à¦¡à¦¼
w e
Ġà¦«à¦° à¦¹à¦¾à¦¦
Ġà¦Ĩà¦¸ à¦¬à¦¾à¦¬
Ġà¦®à¦¾à¦¦ à¦ķà§ĩà¦°
Ġà¦¯à¦¨à§įà¦¤à§įà¦°à¦ªà¦¾à¦¤ à¦¿
Ġà¦ªà¦¾à¦¡à¦¼ à¦¾à¦°
ĠB engal
à¦¨à§įà¦¤ à§ģ
Ġà¦¨à§ĩà¦¤à§ĥà¦¤à§įà¦¬ à§ĩà¦°
i i
à¦ĩà¦¤ à¦¿à¦¹à¦¾à¦¸
Ġà¦ĸ à§ĩà¦ľ
Ġà¦¤à¦¤à§įà¦¤à§įà¦¬à¦¾à¦¬ à¦§à¦¾à¦¯à¦¼à¦ķ
Ġà¦¬à§įà¦¯à¦¬à¦¸à¦¾à¦¯à¦¼ à¦¿à¦ķ
Ġà¦ªà§įà¦°à¦¥à¦® à§ĩà¦ĩ
Ġà¦ıà¦ĩà¦ļ à¦ıà¦¸à¦¸à¦¿
à¥įà¤ °
Ġà¦ıà¦¯à¦¼à¦¾à¦°à¦²à¦¾à¦ĩ à¦¨à§įà¦¸
os s
Ġà¦®à¦¹ à
âĢĻ à¦ķà§ĩ
Ġà¦®à¦¹à ¦
Ġà¦®à¦¹à¦ ¾
Ġà¦¤à¦¥ à§įà¦¯à¦®à¦¨à§įà¦¤à§įà¦°à§Ģ
Ġà¦ĵ à¦¹
à¦ĺà§įà¦° à¦ĩ
Ġà¦¨ à¦¾à¦¦
à§ģà¦® à¦¿à¦¨
àµ į
à¦ª à¦¡à¦¼
-à§¦ à§Ń
4 2
Ġà¦ıà¦¨ à§ĩà¦Ľà§ĩ
ĠâĢ Į
Ġà¦ªà¦°à¦¿à¦¬à§ĩà¦¶ à§ĩà¦°
Ġà¦ķà¦¾à¦® à§ĭà¦¤à§įà¦¤à§ĩà¦ľ
à¦ķà¦¤ à¦¤à§įà¦¤à§įà¦¬
à¦¬ à§ĥà¦¦à§įà¦§
Ġà¦ªà¦¦à§įà¦§ à¦¤à¦¿à¦°
Ġà¦Ĺ à§ĩà¦°
Ġà¦²à§ĩà¦Ń à§ĩà¦²
Ġà¦§ à¦¾à¦°à§ĩ
Ġà¦® à¦¾à¦ľà¦¾à¦°
at ure
à¦Ł à¦¾à¦Ļà§įà¦Ĺ
Ġà¦ıà¦Ł à¦¿à¦ķà§ĩ
Ġà¦¸à§įà¦¬ à¦¦à§ĩà¦¶
Ġà¦¬à¦¾à¦¯à¦¼ à§ģ
6 0
Ġà¦ķà§įà¦·à¦¯à¦¼ à¦ķà§įà¦·
à¦¬à¦¾à¦Ĥà¦² à¦¾à¦°
Ġà¦¤à§Īà¦° à¦¿à¦¤à§ĩ
Ġà¦°à¦¿à¦¸ à¦¾à¦°à§įà¦ļ
à¦¾à§° à¦¤
Ġà¦®à¦§ à§ģà¦°
yl het
Ġà¦ħà¦¨à§ģà¦ªà§įà¦° à§ĩà¦°
Ġà¦ªà§ĩà¦² à§ĩà¦ĵ
Ġà¦ªà§ĩà¦¯à¦¼ à§ĩà¦Ľà¦¿à¦²
Ġà¦¨à¦¾à¦® à¦¾à¦°
Ġà¦Ĺà§ĭà¦ªà¦¾à¦² à¦Ĺà¦ŀà§įà¦ľ
Ġà¦Ĺà¦Ńà¦°à§įà¦¨ à¦°
Ġà¦«à¦¾à¦°à§įà¦¸ à§įà¦Ł
Ġà¦®à¦¾à¦¤à§ĥ à¦Ńà¦¾à¦·à¦¾
Ġà¦¸à§įà¦Łà§įà¦¯à¦¾à¦Ł à¦¾à¦¸
ĠT ech
Ġà¦¬à¦² à¦¬à§ĭ
à¦¬ à¦¾à¦¹à¦¿à¦¨à§Ģà¦°
Ġà¦Ńà¦¾à¦° à§įà¦¸à¦¨
Ġà¦ªà§ģà¦· à§įà¦ª
Ġà¦ļà¦¾à¦ģà¦¦ à
Ġà¦ļà¦¾à¦ģà¦¦à ¦
Ġà¦ļà¦¾à¦ģà¦¦à¦ ¾
[...]
