<pad>	0
<unk>	0
<s>	0
</s>	0
য়	-0
ার	-1
▁ক	-2
▁স	-3
▁ব	-4
ের	-5
▁প	-6
্র	-7
্য	-8
ান	-9
▁আ	-10
▁ম	-11
▁এ	-12
▁ন	-13
▁হ	-14
▁দ	-15
▁ত	-16
্ত	-17
য়ে	-18
▁কর	-19
েন	-20
▁অ	-21
▁জ	-22
কে	-23
াল	-24
িন	-25
ায়	-26
তে	-27
▁র	-28
▁প্র	-29
ছে	-30
াম	-31
▁শ	-32
ির	-33
িক	-34
▁য	-35
▁গ	-36
ড়	-37
্ব	-38
লে	-39
▁চ	-40
লা	-41
বে	-42
্ট	-43
▁বি	-44
িয়ে	-45
▁ও	-46
▁ভ	-47
▁উ	-48
ুর	-49
টি	-50
▁বা	-51
াক	-52
িত	-53
িল	-54
্ষ	-55
াদ	-56
াস	-57
াত	-58
▁পর	-59
▁এক	-60
▁থ	-61
▁করে	-62
ুল	-63
াজ	-64
াই	-65
র্	-66
ন্	-67
তি	-68
▁দে	-69
▁সম	-70
িয়	-71
▁ফ	-72
▁খ	-73
াব	-74
▁ই	-75
্যা	-76
নে	-77
▁ছ	-78
ঙ্	-79
্থ	-80
▁না	-81
▁আম	-82
্প	-83
▁সে	-84
ন্ত	-85
েশ	-86
▁হয়ে	-87
বার	-88
রা	-89
দের	-90
▁তা	-91
ওয়	-92
ঙ্গ	-93
ছেন	-94
িস	-95
েকে	-96
ক্ষ	-97
টা	-98
েল	-99
▁ল	-100
্ম	-101
▁থেকে	-102
কার	-103
াপ	-104
▁ট	-105
ন্য	-106
▁এই	-107
▁কো	-108
িশ	-109
▁ঘ	-110
না	-111
▁তার	-112
▁১	-113
দ্	-114
োগ	-115
▁২	-116
াহ	-117
ীর	-118
▁বল	-119
চ্	-120
▁হয়	-121
নের	-122
▁জান	-123
ক্ত	-124
▁আর	-125
▁ধ	-126
িনি	-127
▁ড	-128
▁নি	-129
ধ্য	-130
াদের	-131
▁সং	-132
বি	-133
রে	-134
▁নে	-135
ুন	-136
▁পার	-137
▁যে	-138
ীয়	-139
▁পা	-140
ষ্ট	-141
নি	-142
▁করা	-143
দ্ধ	-144
▁উপ	-145
াবে	-146
োর	-147
্দ	-148
▁এব	-149
ছিল	-150
তা	-151
▁মু	-152
▁এবং	-153
▁নির	-154
াড়	-155
ানে	-156
স্থ	-157
▁‘	-158
িতে	-159
▁ব্য	-160
▁নিয়ে	-161
▁মা	-162
▁কি	-163
্ড	-164
▁পরি	-165
▁(	-166
খন	-167
ন্দ	-168
▁তিনি	-169
▁দেখ	-170
্ন	-171
ুষ	-172
▁হয়েছে	-173
্রে	-174
▁কা	-175
▁অন	-176
▁দু	-177
▁জন্য	-178
্রী	-179
▁আস	-180
▁কার	-181
▁বলে	-182
▁হবে	-183
▁সর	-184
দেশ	-185
▁সা	-186
মান	-187
ঞ্	-188
থা	-189
্ক	-190
স্ত	-191
জন	-192
▁আগ	-193
▁অভ	-194
▁প্রতি	-195
▁দিয়ে	-196
▁বিশ	-197
▁রা	-198
▁মো	-199
িয়া	-200
..	-201
▁কোন	-202
জে	-203
াকা	-204
ওয়া	-205
িকে	-206
য়ার	-207
মে	-208
ঙ্গে	-209
ালে	-210
▁স্ব	-211
▁অব	-212
▁সু	-213
ৃত	-214
্স	-215
টে	-216
র্ত	-217
কা	-218
▁যা	-219
ড়ে	-220
যোগ	-221
▁করতে	-222
▁মে	-223
▁২০	-224
▁এর	-225
▁মান	-226
িম	-227
েষ	-228
্ঠ	-229
▁ছিল	-230
▁তাঁ	-231
্ল	-232
িব	-233
▁আল	-234
▁রাজ	-235
াগ	-236
চ্ছে	-237
▁বাং	-238
েম	-239
▁একটি	-240
ুম	-241
িন্ত	-242
ধান	-243
▁আপ	-244
▁মধ্য	-245
▁সঙ্গে	-246
▁বলেন	-247
▁লা	-248
্যান	-249
সে	-250
▁সব	-251
পর	-252
▁বাংলা	-253
▁করেন	-254
পুর	-255
▁সম্প	-256
য়া	-257
▁দেশ	-258
▁থাক	-259
ত্ত	-260
দিন	-261
নার	-262
▁সি	-263
▁বে	-264
ান্ত	-265
রের	-266
ুক	-267
িন্তু	-268
লের	-269
ুরু	-270
▁কিন্তু	-271
িজ	-272
▁মধ্যে	-273
▁কম	-274
পি	-275
িক্ষ	-276
▁সময়	-277
ারা	-278
মন	-279
ছু	-280
াঁ	-281
▁নাম	-282
প্র	-283
▁কথা	-284
▁যায়	-285
ারে	-286
মা	-287
▁কাজ	-288
ওয়ার	-289
ন্ধ	-290
▁ব্যব	-291
▁বাংলাদেশ	-292
াচ	-293
▁তো	-294
▁গ্র	-295
াত্র	-296
▁চে	-297
▁কে	-298
▁দিন	-299
োক	-300
য়ের	-301
▁জন	-302
্যাল	-303
েস	-304
ুব	-305
তো	-306
্লা	-307
▁সেই	-308
▁পুল	-309
▁অভি	-310
▁কিছু	-311
▁২০১	-312
াকে	-313
▁ব্যা	-314
▁সরকার	-315
গুল	-316
▁বছ	-317
▁বিশ্ব	-318
রি	-319
োট	-320
▁মহ	-321
িট	-322
াতে	-323
ামী	-324
▁তাদের	-325
▁ঘট	-326
▁বাড়	-327
▁অনে	-328
ভাবে	-329
▁পুলিশ	-330
কের	-331
▁ভার	-332
▁পে	-333
ছি	-334
▁বেশ	-335
▁ক্ষ	-336
▁বিভ	-337
▁আমি	-338
োল	-339
ুক্ত	-340
ন্ত্র	-341
চার	-342
▁কর্ম	-343
▁বিষ	-344
ুদ্ধ	-345
গ্র	-346
ীব	-347
ানের	-348
েই	-349
▁৩	-350
ীন	-351
▁বির	-352
বাদ	-353
▁মানুষ	-354
বা	-355
সল	-356
▁কেন	-357
ত্য	-358
▁সহ	-359
োধ	-360
খে	-361
▁এখন	-362
▁নির্ব	-363
িং	-364
র্থ	-365
▁সাম	-366
▁আজ	-367
▁আমার	-368
োন	-369
▁তবে	-370
দি	-371
▁গে	-372
▁আই	-373
ন্ত্রী	-374
▁রয়ে	-375
▁হল	-376
▁হাস	-377
ানা	-378
ারের	-379
▁শেষ	-380
▁অন্য	-381
্বর	-382
ংশ	-383
▁ঢ	-384
▁শিক্ষ	-385
▁গত	-386
ত্র	-387
খানে	-388
▁শুরু	-389
ঞ্জ	-390
ূল	-391
স্ট	-392
্ঞ	-393
তার	-394
▁প্রধান	-395
▁স্থ	-396
চে	-397
রণ	-398
াড়া	-399
▁আব	-400
ছিলেন	-401
▁পড়	-402
▁ওই	-403
▁সভ	-404
▁করার	-405
স্য	-406
▁তাঁর	-407
▁গিয়ে	-408
কাল	-409
থম	-410
▁রাখ	-411
▁প্রশ	-412
বেন	-413
▁হচ্ছে	-414
থে	-415
ক্র	-416
ধার	-417
▁রে	-418
্চ	-419
াজার	-420
▁নয়	-421
▁জানান	-422
্ভ	-423
▁শু	-424
▁কারণ	-425
▁অনেক	-426
িন্ন	-427
ীদের	-428
▁সদ	-429
▁তারা	-430
েলা	-431
▁আমাদের	-432
▁আহ	-433
েন্ট	-434
▁হিস	-435
িপ	-436
▁ভারত	-437
▁নির্বাচ	-438
▁নিজ	-439
▁ভাল	-440
িদ	-441
হার	-442
▁রয়েছে	-443
ঞ্চ	-444
▁ইউ	-445
ল্প	-446
▁করেছে	-447
...	-448
র্ণ	-449
ার্থ	-450
িড	-451
ষ্ঠ	-452
▁এমন	-453
▁টাকা	-454
▁আমরা	-455
▁আছে	-456
বর	-457
▁আগে	-458
▁চল	-459
োপ	-460
▁মার	-461
কাশ	-462
▁পারে	-463
▁বু	-464
▁নেই	-465
▁জাত	-466
▁কাছে	-467
সা	-468
▁হলে	-469
ব্য	-470
▁চাল	-471
▁এলা	-472
েত	-473
ুষ্ঠ	-474
প্ত	-475
মন্ত্রী	-476
▁পুর	-477
▁অধ	-478
িয়ার	-479
ন্ন	-480
র্ম	-481
▁পর্য	-482
▁৫	-483
▁করেছেন	-484
িকা	-485
ীগ	-486
লেন	-487
▁দুই	-488
▁কোনো	-489
ানি	-490
▁একটা	-491
▁সো	-492
▁ঠ	-493
ড়া	-494
ক্তি	-495
▁অভিযোগ	-496
▁আদ	-497
সব	-498
▁মনে	-499
▁বৃ	-500
ুলে	-501
▁৪	-502
▁উঠ	-503
▁দল	-504
ানো	-505
েবে	-506
▁:	-507
ূর	-508
াট	-509
ন্ট	-510
▁বছর	-511
▁বড়	-512
সি	-513
্দ্র	-514
্জ	-515
▁প্রথম	-516
তিক	-517
▁জানিয়ে	-518
▁আশ	-519
ক্ষে	-520
▁ছে	-521
গুলো	-522
▁.	-523
ন্ড	-524
▁হতে	-525
লার	-526
েক	-527
▁বিভিন্ন	-528
সম	-529
▁দেখা	-530
েলার	-531
▁ইসল	-532
▁স্ট	-533
▁হো	-534
োষ	-535
▁এসে	-536
িকার	-537
ালের	-538
▁যদি	-539
▁বার	-540
▁পড়ে	-541
▁মুখ	-542
▁লে	-543
▁তাই	-544
নায়	-545
াশ	-546
ামের	-547
▁ধর	-548
▁অনু	-549
▁অনুষ্ঠ	-550
স্থা	-551
ণ্ড	-552
য়ো	-553
তুন	-554
টার	-555
▁ক্র	-556
এন	-557
নী	-558
▁রহ	-559
▁ট্র	-560
ুদ্ধে	-561
▁উদ	-562
▁অপ	-563
▁নতুন	-564
▁তিন	-565
ণা	-566
তির	-567
▁ঝ	-568
▁পরিচ	-569
▁উত্ত	-570
র্শ	-571
▁হাজার	-572
▁গো	-573
লাই	-574
▁দাব	-575
▁মাম	-576
▁শে	-577
গর	-578
▁মাস	-579
▁পরে	-580
▁হিসেবে	-581
ঁচ	-582
ধারণ	-583
টির	-584
দে	-585
▁দুর	-586
▁রো	-587
সহ	-588
▁দেওয়া	-589
▁মতো	-590
▁সক	-591
▁দিকে	-592
এস	-593
▁বিষয়	-594
িউ	-595
▁১০	-596
▁কী	-597
ীরা	-598
▁বেশি	-599
▁প্রকাশ	-600
কি	-601
▁আরও	-602
াদক	-603
ষ্ট্র	-604
▁তৈ	-605
সেন	-606
▁পাশ	-607
▁ছিলেন	-608
জি	-609
ুত	-610
▁দ্ব	-611
▁বন্ধ	-612
▁আন	-613
োচ	-614
▁পর্যন্ত	-615
য়েক	-616
▁ছবি	-617
▁নিয়	-618
ুদ	-619
জ্ঞ	-620
▁বিরুদ্ধে	-621
▁দেশের	-622
▁ধরে	-623
পাত	-624
▁লি	-625
ণের	-626
▁মৃত	-627
▁নেত	-628
ায়ের	-629
চ্চ	-630
▁কোনও	-631
▁মন	-632
▁সভাপ	-633
▁দিতে	-634
▁তখন	-635
েম্বর	-636
▁লোক	-637
দ্যাল	-638
▁টি	-639
াধ	-640
▁জীব	-641
▁গেছে	-642
▁সংস	-643
▁সদস্য	-644
▁বর	-645
▁ইসলাম	-646
▁৬	-647
▁কল	-648
▁পাল	-649
▁মাধ্য	-650
▁নার	-651
▁থাকে	-652
▁ম্যা	-653
ুট	-654
িস্ত	-655
▁সাথে	-656
▁তাকে	-657
মার	-658
্লাহ	-659
াস্ত	-660
্যে	-661
▁জেলা	-662
▁কয়েক	-663
▁প্রায়	-664
▁শহ	-665
▁লাগ	-666
েট	-667
▁বো	-668
▁অর্থ	-669
ুজ	-670
▁জাতীয়	-671
ুঁ	-672
▁সার	-673
বেদ	-674
▁জানা	-675
▁হার	-676
▁যোগ	-677
ড়িয়ে	-678
্বে	-679
▁চলে	-680
▁বাস	-681
্লে	-682
্যান্ড	-683
▁খুব	-684
▁চার	-685
পার	-686
▁দিল	-687
ূর্ণ	-688
্যের	-689
চ্ছ	-690
▁পেয়ে	-691
▁বৈ	-692
বর্ত	-693
▁রহমান	-694
▁১৯	-695
▁|	-696
▁ব্র	-697
▁বিশেষ	-698
ায়ী	-699
▁স্ক	-700
▁সাং	-701
▁আপনার	-702
িত্র	-703
িটি	-704
▁ভালো	-705
াণ	-706
দী	-707
ত্যা	-708
▁স্থান	-709
▁সাহ	-710
▁৭	-711
দা	-712
ধু	-713
▁লক্ষ	-714
িৎ	-715
▁আবার	-716
বেশ	-717
▁অবস্থ	-718
ুণ	-719
▁উদ্	-720
০০	-721
▁কেন্দ্র	-722
িও	-723
▁অফ	-724
ীক্ষ	-725
▁ভা	-726
▁সাধারণ	-727
▁পারেন	-728
ীত	-729
্যু	-730
▁এবার	-731
▁ফির	-732
▁জু	-733
োর্ট	-734
্যাপ	-735
▁যাবে	-736
ত্ব	-737
কম	-738
▁গেল	-739
▁চাই	-740
▁নিজের	-741
্যাম	-742
▁ঘোষ	-743
▁ফে	-744
▁হাত	-745
ভাব	-746
ভার	-747
▁অংশ	-748
▁উল	-749
কর	-750
▁আট	-751
▁দি	-752
িন্দ	-753
আই	-754
▁মি	-755
▁সূ	-756
স্ব	-757
টের	-758
▁তথ	-759
▁কেউ	-760
▁তৈরি	-761
▁দাবি	-762
▁পাঠ	-763
▁হোসেন	-764
ক্স	-765
▁আওয়	-766
্রম	-767
▁ছাত্র	-768
▁দলের	-769
▁।	-770
িতা	-771
▁পৌ	-772
সের	-773
▁এম	-774
াকার	-775
▁ঘটনা	-776
▁সম্পাদক	-777
▁৮	-778
▁সর্ব	-779
এম	-780
▁মূল	-781
▁সেখানে	-782
▁বিক	-783
▁ঠিক	-784
▁উন্ন	-785
ুয়ার	-786
▁করছে	-787
লেও	-788
▁মাধ্যমে	-789
িনা	-790
▁সালে	-791
▁হাসপাত	-792
▁দেন	-793
ৃষ্ট	-794
য়ন	-795
বাস	-796
শন	-797
▁সভাপতি	-798
▁সম্পর্	-799
▁বিএন	-800
▁উপজ	-801
াতা	-802
মি	-803
াইল	-804
▁পাক	-805
ুগ	-806
র্জ	-807
▁শিশ	-808
▁প্রতিষ্ঠ	-809
▁একজন	-810
▁মাল	-811
ষ্টা	-812
ুখ	-813
▁খবর	-814
দিকে	-815
▁স্প	-816
▁“	-817
▁তাহ	-818
কর্ত	-819
▁তুলে	-820
দার	-821
▁দেখে	-822
▁দেয়	-823
▁চিক	-824
▁গণ	-825
▁ঢাকা	-826
▁ছেলে	-827
য়োজন	-828
▁আওয়ামী	-829
্কার	-830
▁পদ	-831
হত	-832
যুক্ত	-833
লায়	-834
▁উৎ	-835
▁বহ	-836
কায়	-837
▁মানুষের	-838
▁পরিবার	-839
▁বলা	-840
▁প্রক	-841
বল	-842
জেলা	-843
▁সম্ভ	-844
▁শেখ	-845
▁পি	-846
তেই	-847
▁সম্ম	-848
▁তথ্য	-849
▁৯	-850
েত্রে	-851
▁আইন	-852
জার	-853
াফ	-854
▁লীগ	-855
ামে	-856
▁বিজে	-857
▁ব্যবহার	-858
▁ছাড়া	-859
▁পরিচাল	-860
▁উপস্থ	-861
▁দাঁ	-862
▁বিপ	-863
▁আত	-864
▁ভোট	-865
▁কাল	-866
▁আদাল	-867
র্ড	-868
▁উপজেলা	-869
ভা	-870
থায়	-871
বিদ্যাল	-872
তম	-873
▁কারণে	-874
শ্য	-875
▁হাম	-876
▁শুধু	-877
িত্ব	-878
এর	-879
▁নিশ	-880
ূপ	-881
▁থান	-882
ন্ম	-883
কারী	-884
স্প	-885
াস্থ	-886
ানোর	-887
▁মত	-888
▁স্ত	-889
▁কর্মকর্ত	-890
▁বক্ত	-891
▁নির্দ	-892
▁গ্রে	-893
▁হাতে	-894
▁পাওয়া	-895
▁চেয়ার	-896
ীল	-897
হণ	-898
▁এটা	-899
▁বিষয়ে	-900
▁পো	-901
্ৰ	-902
বন্ধ	-903
▁সামনে	-904
▁ডি	-905
ৃতি	-906
▁ভাই	-907
▁ধার	-908
▁ইউন	-909
ম্যান	-910
▁ফের	-911
▁চিকিৎ	-912
▁পরীক্ষ	-913
ঙ্গল	-914
▁প্রধানমন্ত্রী	-915
▁বিশ্ববিদ্যাল	-916
ধা	-917
▁একই	-918
▁ভূ	-919
▁অফিস	-920
▁আপনি	-921
▁লেখ	-922
▁যখন	-923
▁খে	-924
িষ্ট	-925
▁অভিন	-926
▁মিল	-927
▁হয়েছিল	-928
▁উঠে	-929
ৈতিক	-930
ড়ি	-931
▁উদ্ধ	-932
▁বের	-933
পির	-934
▁বাংলাদেশের	-935
ট্ট	-936
েনে	-937
▁চো	-938
▁স্থানীয়	-939
▁শাহ	-940
▁প্রত	-941
▁ফলে	-942
▁যেন	-943
▁কলে	-944
▁সংবাদ	-945
াউ	-946
িস্ট	-947
▁...	-948
▁০	-949
▁বিভাগ	-950
▁দী	-951
▁নিজে	-952
▁কু	-953
াড়ি	-954
সার	-955
লো	-956
ম্ব	-957
▁ওপর	-958
▁দায়	-959
ডি	-960
ীতে	-961
▁গুরু	-962
▁যুক্ত	-963
▁মাঝ	-964
▁বছরের	-965
ৃষ	-966
মাণ	-967
টাই	-968
গত	-969
▁হওয়ার	-970
গঞ্জ	-971
বির	-972
▁আলোচ	-973
▁বিদ	-974
▁শর	-975
▁উত্তর	-976
▁ভাব	-977
্রি	-978
▁নির্বাচন	-979
▁ঐ	-980
▁কোটি	-981
▁বলেছেন	-982
▁১২	-983
ন্ত্রণ	-984
▁২০১৯	-985
▁খান	-986
▁উপজেলার	-987
▁রেখে	-988
▁যান	-989
▁পরিষ	-990
টু	-991
▁মেয়ে	-992
▁এলাকায়	-993
ায়ক	-994
▁আরো	-995
▁ছোট	-996
সর	-997
▁তাল	-998
দান	-999
সু	-1000
▁যাচ্ছে	-1001
েরে	-1002
▁নামে	-1003
▁উপস্থিত	-1004
ম্প	-1005
নৈতিক	-1006
▁জাম	-1007
্যার	-1008
▁চৌ	-1009
দন্ত	-1010
গঠ	-1011
ার্থী	-1012
▁ইন	-1013
▁চেষ্টা	-1014
্ধ	-1015
▁নিশ্চ	-1016
▁করবে	-1017
▁তর	-1018
▁বাই	-1019
▁চা	-1020
▁সরকারের	-1021
▁বুঝ	-1022
▁আগামী	-1023
লি	-1024
▁কর্ত	-1025
▁চেয়ে	-1026
চ্ছেন	-1027
▁সিদ্ধ	-1028
▁পান	-1029
িল্প	-1030
▁নেতা	-1031
▁হলো	-1032
ুপ	-1033
▁দক্ষ	-1034
▁জায়	-1035
▁ব্যাপ	-1036
িলা	-1037
▁প্রস্ত	-1038
▁জানিয়েছেন	-1039
▁লাখ	-1040
▁হই	-1041
▁দর	-1042
▁বৃহ	-1043
ুয়ারি	-1044
জা	-1045
বী	-1046
▁সিন	-1047
▁'	-1048
▁গা	-1049
▁অর্	-1050
িয়ান	-1051
▁কাম	-1052
ঠে	-1053
▁যুব	-1054
▁সেন	-1055
াত্রী	-1056
াইন	-1057
ঙ্ক	-1058
▁যেতে	-1059
▁সাল	-1060
▁১১	-1061
▁বয়	-1062
▁ইতি	-1063
ক্ট	-1064
বেদন	-1065
▁বর্ত	-1066
সং	-1067
▁ইউনিয়	-1068
ধুর	-1069
▁বিচার	-1070
▁শুক	-1071
ফল	-1072
▁পাকিস্ত	-1073
▁দেশে	-1074
গে	-1075
▁উপর	-1076
▁থেকেই	-1077
ন্দর	-1078
েশন	-1079
োঁ	-1080
▁এস	-1081
াপ্ত	-1082
বাব	-1083
▁-	-1084
▁জায়গ	-1085
▁করছেন	-1086
▁ক্ষেত্রে	-1087
▁শিশু	-1088
▁কার্য	-1089
▁খেল	-1090
▁সালের	-1091
▁ব্যবস্থা	-1092
▁প্রশ্ন	-1093
▁১৫	-1094
▁ক্রিকে	-1095
▁এত	-1096
তায়	-1097
in	-1098
াক্ষ	-1099
▁ওয়	-1100
ধি	-1101
▁এসব	-1102
ালি	-1103
▁নির্ম	-1104
▁কলেজ	-1105
▁এটি	-1106
▁বিন	-1107
▁মুক্তি	-1108
াক্ত	-1109
▁ব্যাং	-1110
▁রাত	-1111
▁সির	-1112
ডেট	-1113
লাম	-1114
▁শতা	-1115
▁ঘটে	-1116
▁ভারতের	-1117
▁পাঁচ	-1118
▁ম্যাচ	-1119
লেই	-1120
▁বক্তব্য	-1121
▁কৃষ	-1122
বাহ	-1123
ব্র	-1124
▁এতে	-1125
▁বাহ	-1126
▁হয়নি	-1127
্যাক	-1128
িফ	-1129
ীতি	-1130
▁করি	-1131
াও	-1132
▁মাহ	-1133
▁আপডেট	-1134
খ্য	-1135
▁আত্ম	-1136
রম	-1137
▁সিদ্ধান্ত	-1138
▁ধরনের	-1139
কদের	-1140
▁রাষ্ট্র	-1141
▁উদ্ধার	-1142
▁নিতে	-1143
▁এগ	-1144
▁সোম	-1145
্যাস	-1146
▁বাড়ি	-1147
কেই	-1148
্মদ	-1149
ৃণ	-1150
▁নিহত	-1151
▁রান	-1152
নিক	-1153
োভ	-1154
▁প্রেস	-1155
▁কখন	-1156
▁নিরাপ	-1157
▁গুল	-1158
▁‘‘	-1159
▁হন	-1160
▁স্ম	-1161
তন	-1162
▁মাত্র	-1163
ূর্ব	-1164
▁গতকাল	-1165
▁ভে	-1166
▁এখানে	-1167
▁কলক	-1168
ংগ	-1169
▁উই	-1170
▁দিয়েছে	-1171
▁চেয়ারম্যান	-1172
▁তুল	-1173
▁দিয়েছেন	-1174
▁থাকা	-1175
▁সেটা	-1176
▁সত্য	-1177
▁নির্দেশ	-1178
▁সৌ	-1179
িণ	-1180
▁প্রশাস	-1181
ুই	-1182
▁ভাবে	-1183
▁ঘোষণা	-1184
ক্ষণ	-1185
তের	-1186
ালী	-1187
▁মামলা	-1188
▁রাস্ত	-1189
▁তাঁদের	-1190
স্ক	-1191
▁কমিশ	-1192
ছাড়া	-1193
an	-1194
পুরে	-1195
▁সরকারি	-1196
খ্যা	-1197
▁সুযোগ	-1198
▁জয়	-1199
▁ডিস	-1200
▁মঙ্গল	-1201
িত্ত	-1202
▁উল্লে	-1203
হাম	-1204
▁অতি	-1205
েস্ক	-1206
িতীয়	-1207
েরা	-1208
ান্য	-1209
▁আন্ত	-1210
▁দেখতে	-1211
▁অনুষ্ঠিত	-1212
মতা	-1213
র্ঘ	-1214
রাষ্ট্র	-1215
▁অন্ত	-1216
▁পরিস	-1217
▁চৌধুর	-1218
হি	-1219
▁পুলিশের	-1220
োম	-1221
কেট	-1222
পক্ষ	-1223
াবার	-1224
▁ধর্ম	-1225
আর	-1226
▁দ্বিতীয়	-1227
▁আন্দ	-1228
লীগ	-1229
▁তাহলে	-1230
▁শিল্প	-1231
োজ	-1232
মূল	-1233
▁গ্রামের	-1234
স্পতি	-1235
খান	-1236
▁সাই	-1237
াশি	-1238
▁দশ	-1239
েক্ষ	-1240
বাদিক	-1241
▁সময়ে	-1242
ন্দ্র	-1243
▁গোল	-1244
▁’	-1245
ধবার	-1246
ীকে	-1247
▁গিয়েছে	-1248
▁ঈ	-1249
২০	-1250
▁প্রয়োজন	-1251
▁সকাল	-1252
ধ্যায়	-1253
▁জীবন	-1254
▁ফুট	-1255
দুল	-1256
্ণ	-1257
▁তদন্ত	-1258
নিবার	-1259
▁সম্প্র	-1260
▁বসে	-1261
▁ব্যক্তি	-1262
▁চট্ট	-1263
▁স্কুল	-1264
▁হাসপাতালে	-1265
াখ	-1266
▁সোমবার	-1267
▁শতাংশ	-1268
▁রায়	-1269
বান	-1270
▁তৃণ	-1271
।’	-1272
▁সাংবাদিক	-1273
বু	-1274
▁অবশ্য	-1275
স্পতিবার	-1276
▁পাশাপ	-1277
টো	-1278
▁দেয়া	-1279
▁উদ্য	-1280
▁কত	-1281
▁পাশাপাশি	-1282
ন্তব্য	-1283
▁জল	-1284
▁সবাই	-1285
▁রিপ	-1286
▁নানা	-1287
▁নিউ	-1288
▁বিজ্ঞ	-1289
▁গান	-1290
▁অথ	-1291
ন্স	-1292
▁বিষয়টি	-1293
▁রাতে	-1294
▁বুধবার	-1295
▁পৃ	-1296
ারি	-1297
▁ভারতীয়	-1298
▁তাঁকে	-1299
স্যা	-1300
▁সন্ত	-1301
▁বস	-1302
▁বৈঠ	-1303
মের	-1304
▁আমাকে	-1305
েস্ট	-1306
▁একটু	-1307
▁লাই	-1308
▁ভাষ	-1309
গ্রাম	-1310
▁বৃহস্পতিবার	-1311
▁শুক্র	-1312
▁করবেন	-1313
▁বাঁ	-1314
হাস	-1315
▁সম্ভব	-1316
▁কুম	-1317
▁মঙ্গলবার	-1318
er	-1319
▁একে	-1320
▁এরপর	-1321
োপা	-1322
▁বাজ	-1323
▁কোর	-1324
সূ	-1325
টিতে	-1326
র্ক	-1327
▁রোগ	-1328
▁সমাজ	-1329
াতিক	-1330
▁কর্মকর্তা	-1331
▁থাকবে	-1332
▁শনিবার	-1333
দর্শ	-1334
▁বন্দ	-1335
▁পৌঁ	-1336
▁কাউ	-1337
ুরি	-1338
িটির	-1339
▁বলতে	-1340
▁সড়	-1341
▁আন্দোল	-1342
▁মোট	-1343
▁বিজেপি	-1344
হের	-1345
▁ওয়ে	-1346
▁গুরুত্ব	-1347
▁চি	-1348
ায়ে	-1349
▁হে	-1350
ৃষ্টি	-1351
্যাম্প	-1352
▁বললেন	-1353
▁বান	-1354
েমন	-1355
▁দুর্	-1356
▁বই	-1357
শ্চ	-1358
চিব	-1359
▁শুক্রবার	-1360
▁দেওয়ার	-1361
▁১৪	-1362
তেন	-1363
▁কংগ	-1364
▁মৃত্যু	-1365
িজ্ঞ	-1366
▁সকালে	-1367
▁ঘটনায়	-1368
ুমি	-1369
▁প্রা	-1370
াবেক	-1371
▁সংগঠ	-1372
ংস	-1373
▁মন্তব্য	-1374
জর	-1375
▁৷	-1376
র্তি	-1377
▁আসে	-1378
▁দীর্ঘ	-1379
িনী	-1380
▁প্রতিনি	-1381
▁বিরোধ	-1382
▁জন্ম	-1383
▁অভিয	-1384
▁শিক্ষা	-1385
াহী	-1386
▁যারা	-1387
▁সমস্যা	-1388
▁ফিরে	-1389
াড়ে	-1390
াধীন	-1391
▁বদ	-1392
▁শুন	-1393
▁দায়িত্ব	-1394
▁এলাকার	-1395
▁,	-1396
োদ	-1397
▁বাড়িতে	-1398
▁রাজনৈতিক	-1399
বের	-1400
াপন	-1401
▁আটক	-1402
▁মিনি	-1403
▁রাজ্য	-1404
▁হয়েছেন	-1405
্বাস	-1406
▁যার	-1407
াৎ	-1408
▁হওয়া	-1409
▁দক্ষিণ	-1410
▁সকল	-1411
▁নিশ্চিত	-1412
▁যেমন	-1413
▁কংগ্রে	-1414
▁আহত	-1415
হাম্মদ	-1416
▁যাওয়ার	-1417
)।	-1418
▁পু	-1419
▁২০১৮	-1420
▁বিমান	-1421
োয়	-1422
ত্রে	-1423
বায়	-1424
▁সী	-1425
চিত	-1426
▁জে	-1427
▁পথ	-1428
▁আব্দ	-1429
▁নেওয়া	-1430
▁কেন্দ্রীয়	-1431
▁চলছে	-1432
▁ইং	-1433
▁–	-1434
▁লীগের	-1435
▁মুসল	-1436
▁নম	-1437
▁হলেও	-1438
▁নাই	-1439
ওয়ায়	-1440
ড়াই	-1441
▁বঙ্গ	-1442
▁নেতৃত	-1443
▁এন	-1444
▁দ্র	-1445
▁১৮	-1446
ক্রম	-1447
▁উচ্চ	-1448
▁আলম	-1449
ভি	-1450
▁ক্লা	-1451
▁নভ	-1452
▁মর	-1453
▁শিক্ষক	-1454
তর	-1455
র্জাতিক	-1456
▁তারপর	-1457
▁ডেস্ক	-1458
▁এগিয়ে	-1459
ক্রান্ত	-1460
▁করলে	-1461
▁দিব	-1462
▁তাঁরা	-1463
▁হাই	-1464
▁সংশ	-1465
হা	-1466
▁নারী	-1467
▁ব্যবস	-1468
),	-1469
▁সাবেক	-1470
▁বাবা	-1471
▁থানার	-1472
▁রবি	-1473
াস্থ্য	-1474
ালা	-1475
চেয়ে	-1476
or	-1477
পূর্ণ	-1478
প্ট	-1479
দ্র	-1480
মিক	-1481
▁শেষে	-1482
▁ছাড়	-1483
▁বৃদ্ধ	-1484
▁প্রস	-1485
▁হক	-1486
▁বিশ্বাস	-1487
▁সম্পর্কে	-1488
ট্র	-1489
াবেন	-1490
▁প্রত্য	-1491
▁আন্তর্জাতিক	-1492
▁যৌ	-1493
▁যত	-1494
▁শো	-1495
িটার	-1496
▁মুখ্য	-1497
জনের	-1498
on	-1499
▁চাপ	-1500
▁ভয়	-1501
▁৩০	-1502
পে	-1503
▁সুর	-1504
্থিত	-1505
▁দূ	-1506
▁গ্রহণ	-1507
▁পক্ষ	-1508
▁চৌধুরী	-1509
▁ফেলে	-1510
▁কন	-1511
ীক	-1512
▁অনুষ্ঠানে	-1513
▁নিরাপত্ত	-1514
▁রাখা	-1515
▁সবচেয়ে	-1516
েলায়	-1517
ায	-1518
▁মার্ক	-1519
▁রিপোর্ট	-1520
নীতি	-1521
▁স্ত্রী	-1522
ভূ	-1523
▁১৩	-1524
▁মহিলা	-1525
িরা	-1526
▁ওয়ার	-1527
▁ভাগ	-1528
▁রু	-1529
▁আলোচনা	-1530
▁এছাড়া	-1531
▁অ্যা	-1532
িখ	-1533
েন্দ্র	-1534
▁১৬	-1535
পুরের	-1536
▁আল্লাহ	-1537
▁মাঝে	-1538
▁শরীর	-1539
▁শ্রম	-1540
িয়ায়	-1541
▁কর্তৃ	-1542
পত্র	-1543
শে	-1544
▁বিএনপি	-1545
▁আয়	-1546
▁আলী	-1547
গু	-1548
▁সাত	-1549
▁দাম	-1550
▁এখনও	-1551
▁ব্যাপারে	-1552
▁পরিবর্ত	-1553
▁পরিস্থিত	-1554
▁পৃথ	-1555
▁প্রকল্প	-1556
▁করুন	-1557
ব্দ	-1558
টায়	-1559
▁ফেল	-1560
▁পূর্ব	-1561
▁কিং	-1562
▁পরিবারের	-1563
▁কোম্প	-1564
যায়ী	-1565
▁নির্বাচনে	-1566
▁যুগ	-1567
▁দিনের	-1568
▁জম	-1569
স্ত্র	-1570
▁কাছ	-1571
▁যাওয়া	-1572
▁চোখ	-1573
ফতার	-1574
▁ভিড	-1575
▁রাজধান	-1576
িসি	-1577
▁উদ্যোগ	-1578
▁চাক	-1579
নাথ	-1580
হে	-1581
▁বাস্ত	-1582
▁ডে	-1583
রত	-1584
▁তুমি	-1585
রাধ	-1586
▁মুখে	-1587
▁তাতে	-1588
মাত্র	-1589
▁বিত	-1590
মিত	-1591
▁ঘটনার	-1592
ছিলাম	-1593
বো	-1594
াতের	-1595
▁গু	-1596
শি	-1597
▁জঙ্গ	-1598
▁থাকতে	-1599
বর্তী	-1600
▁দুটি	-1601
শা	-1602
▁বাইরে	-1603
▁জাহ	-1604
ুকে	-1605
ক্টো	-1606
▁বিএনপির	-1607
▁খেলা	-1608
▁নাক	-1609
ar	-1610
কর্ম	-1611
▁বেড়ে	-1612
▁স্বাস্থ্য	-1613
হন	-1614
▁বিল	-1615
বন	-1616
ঘট	-1617
▁২০০	-1618
লেট	-1619
▁জানুয়ারি	-1620
▁সম্মেল	-1621
▁সমর্থ	-1622
▁অপর	-1623
িকের	-1624
থি	-1625
েন্স	-1626
▁সদর	-1627
▁ফাঁ	-1628
▁অক্টো	-1629
▁সংখ্যা	-1630
▁জানতে	-1631
▁ডিসেম্বর	-1632
▁উল্লেখ	-1633
য়েন্ট	-1634
মানে	-1635
▁পরিবেশ	-1636
▁ডাক	-1637
▁২৫	-1638
▁নভেম্বর	-1639
▁অনুযায়ী	-1640
▁শ্রে	-1641
▁প্রতিনিধি	-1642
▁আফ	-1643
▁পায়	-1644
▁শ্রী	-1645
েজ	-1646
▁উন্নয়ন	-1647
▁অবস্থায়	-1648
▁শান্ত	-1649
▁মেয়	-1650
টিং	-1651
▁দফ	-1652
াযোগ	-1653
▁হাজ	-1654
▁মৌ	-1655
es	-1656
▁সপ্ত	-1657
▁সংসদ	-1658
েব	-1659
▁স্বাধীন	-1660
▁রাখতে	-1661
▁সফ	-1662
▁প্রাণ	-1663
▁খু	-1664
াবাদ	-1665
▁লাল	-1666
করা	-1667
▁জুলাই	-1668
পতি	-1669
▁আহমে	-1670
কেল	-1671
▁উদ্দিন	-1672
▁ব্যক্ত	-1673
▁চান	-1674
▁গেলে	-1675
▁কাজে	-1676
▁বিদেশ	-1677
▁ওর	-1678
▁নিজেদের	-1679
মধ্য	-1680
▁কমিটির	-1681
▁অন্যান্য	-1682
জ্জ	-1683
বিষ	-1684
▁তোমার	-1685
ন্টার	-1686
ণ্ট	-1687
▁১৭	-1688
▁প্রার্থী	-1689
িকল্প	-1690
জীব	-1691
▁বলল	-1692
▁গঠ	-1693
▁ব্যাংক	-1694
▁আধ	-1695
▁সাজ	-1696
▁সেপ্ট	-1697
▁করলেন	-1698
▁উদ্দেশ	-1699
চি	-1700
কাপ	-1701
▁মাদ	-1702
en	-1703
▁ছেড়ে	-1704
▁করেছিলেন	-1705
▁প্রচ	-1706
▁সুপার	-1707
গম	-1708
বেষ	-1709
▁চর	-1710
▁ভিডিও	-1711
▁সূত্র	-1712
▁জুন	-1713
▁কাপ	-1714
▁কৰ	-1715
▁জো	-1716
য়োজ	-1717
▁এসেছে	-1718
▁গ্রেফতার	-1719
ান্ড	-1720
াস্ট	-1721
▁নম্বর	-1722
সী	-1723
▁মহান	-1724
▁প্রেসিড	-1725
▁জনগ	-1726
▁নিষ	-1727
▁আবেদন	-1728
▁পার্ট	-1729
▁২৪	-1730
▁আগেই	-1731
▁খা	-1732
▁মুহ	-1733
’।	-1734
্যাব	-1735
▁শেয়ার	-1736
▁খালে	-1737
ন্ত্রীর	-1738
▁উদ্ব	-1739
▁গবেষ	-1740
সময়	-1741
▁পালন	-1742
▁পূ	-1743
ীকার	-1744
ানির	-1745
▁আলা	-1746
▁পুরো	-1747
▁নাগর	-1748
গুলোর	-1749
▁বন	-1750
▁জেলার	-1751
▁দাঁড়িয়ে	-1752
▁বিজ	-1753
▁বহু	-1754
▁চিকিৎস	-1755
াদা	-1756
শ্চিম	-1757
▁স্বপ	-1758
িরে	-1759
▁ঘুর	-1760
▁পরীক্ষা	-1761
মর	-1762
▁ঋ	-1763
▁২০১৭	-1764
▁মিড	-1765
▁পাশে	-1766
▁মোহাম্মদ	-1767
ীর্ষ	-1768
▁ভুল	-1769
▁জানিয়েছে	-1770
▁মানব	-1771
ণে	-1772
্বল	-1773
▁বিদ্যাল	-1774
থমিক	-1775
▁ঘরে	-1776
▁দ্রুত	-1777
▁হত্যা	-1778
▁পারি	-1779
▁অক্টোবর	-1780
ঙ্গা	-1781
িক্ত	-1782
▁মুক্তিয	-1783
▁শীর্ষ	-1784
িগ	-1785
▁এল	-1786
ফে	-1787
▁মেড	-1788
গুলি	-1789
▁মন্ত্রী	-1790
▁শিব	-1791
সাই	-1792
▁পুরস	-1793
রাজ	-1794
▁সম্পর্ক	-1795
ড়ার	-1796
▁রক্ত	-1797
▁সিং	-1798
▁ফার	-1799
▁বিস্ত	-1800
▁নেমে	-1801
▁ফোন	-1802
িনার	-1803
িভ	-1804
▁মার্চ	-1805
▁যোগাযোগ	-1806
▁প্রতিষ্ঠান	-1807
র্ষ	-1808
▁সাড়ে	-1809
্যাত	-1810
▁শুভ	-1811
াসের	-1812
▁বিয়ে	-1813
▁টাকার	-1814
▁গ্রাম	-1815
▁দেব	-1816
▁পথে	-1817
▁ভর্তি	-1818
মত	-1819
▁সূত্রে	-1820
▁খুঁ	-1821
▁গল্প	-1822
▁সাহায	-1823
▁প্রাথমিক	-1824
▁ফল	-1825
▁বঙ্গবন্ধ	-1826
র্ধ	-1827
▁কব	-1828
▁বাদ	-1829
াধিক	-1830
▁আহমেদ	-1831
at	-1832
▁চলা	-1833
▁রক্ষ	-1834
▁পরিকল্প	-1835
▁যদিও	-1836
▁রেল	-1837
▁নজর	-1838
লী	-1839
al	-1840
ূর্ত	-1841
▁গড়ে	-1842
▁মিশ	-1843
▁চিন্ত	-1844
ুতি	-1845
ডে	-1846
▁বিভাগের	-1847
▁লাভ	-1848
▁মার্কিন	-1849
োয়া	-1850
▁প্রচার	-1851
▁নব	-1852
▁ছু	-1853
▁ম্যাচে	-1854
▁আদালত	-1855
▁লক্ষ্য	-1856
▁সেপ্টেম্বর	-1857
▁রূপ	-1858
▁উপল	-1859
▁সৃষ্টি	-1860
▁২১	-1861
েনি	-1862
▁বিশ্বকাপ	-1863
▁বোঝ	-1864
▁গাড়ি	-1865
▁ব্ল	-1866
▁হাসান	-1867
▁বিস	-1868
▁চালিয়ে	-1869
▁সন্	-1870
▁পানি	-1871
্যাট	-1872
শীল	-1873
▁পরিচালক	-1874
om	-1875
▁এদিকে	-1876
▁দার	-1877
▁রবিবার	-1878
▁রাম	-1879
ন্দে	-1880
▁বাত	-1881
▁ইউনিয়নের	-1882
▁তৃণমূল	-1883
▁সুন্দর	-1884
▁কর্তৃপক্ষ	-1885
▁গর	-1886
▁পক্ষে	-1887
▁প্রেসিডেন্ট	-1888
▁ইয়	-1889
ুলের	-1890
▁পঞ্চ	-1891
াম্প	-1892
মুখ	-1893
▁কিংবা	-1894
▁ইন্ড	-1895
িত্য	-1896
বাজার	-1897
িয়ন	-1898
▁হামলা	-1899
▁ক্রিকেট	-1900
▁সহযোগ	-1901
▁জনপ্র	-1902
িনে	-1903
▁ভিত্ত	-1904
ক্য	-1905
▁শিক্ষার্থ	-1906
▁গোপ	-1907
▁টেস্ট	-1908
▁রকম	-1909
▁মাঠে	-1910
▁মালিক	-1911
▁লিখ	-1912
োপাধ্যায়	-1913
▁সপ্তাহ	-1914
রণের	-1915
▁বাল	-1916
▁নাগরিক	-1917
াতার	-1918
▁পশ্চিম	-1919
ারিত	-1920
▁বর্তমান	-1921
াজিক	-1922
▁কঠ	-1923
▁জানায়	-1924
▁সাক্ষ	-1925
▁মোব	-1926
ঞ্চল	-1927
▁থাকার	-1928
▁প্রেম	-1929
▁সম্প্রতি	-1930
িনের	-1931
▁অনুম	-1932
▁অনলাই	-1933
▁অভিযান	-1934
▁যেখানে	-1935
▁ইতিহাস	-1936
▁শহরের	-1937
জিব	-1938
▁শত	-1939
▁আব্দুল	-1940
ক্ষেপ	-1941
▁যাতে	-1942
ভাগ	-1943
▁ক্ষতি	-1944
▁হারিয়ে	-1945
েন্ড	-1946
▁শ্রমিক	-1947
▁কাঁ	-1948
▁সৈ	-1949
▁চায়	-1950
▁দাঁড়	-1951
▁দোক	-1952
▁অবস্থান	-1953
▁এদিন	-1954
▁লেখা	-1955
▁আশা	-1956
াভাব	-1957
▁শ্র	-1958
প্রাপ্ত	-1959
▁বোর্ড	-1960
োলা	-1961
নির	-1962
▁পারবেন	-1963
▁সারা	-1964
▁২০১৬	-1965
ৃহ	-1966
▁২২	-1967
িনীর	-1968
▁এপ্র	-1969
মন্ত্রীর	-1970
ধে	-1971
ন্ত্রণাল	-1972
▁মূল্য	-1973
▁সুবি	-1974
▁কর্মসূ	-1975
দ্ব	-1976
▁সাব	-1977
লীগের	-1978
▁সংঘ	-1979
▁তোম	-1980
কারি	-1981
▁নাট	-1982
▁ডিজ	-1983
▁পিছ	-1984
▁জানানো	-1985
▁মৃত্য	-1986
াদি	-1987
এফ	-1988
▁হত্য	-1989
▁কাট	-1990
▁ফেস	-1991
▁ফ্র	-1992
▁অত	-1993
ঙে	-1994
ডের	-1995
▁যুদ্ধ	-1996
▁ঘণ্ট	-1997
▁সভায়	-1998
▁আহম	-1999
▁কমিটি	-2000
ীপ	-2001
▁উচিত	-2002
▁দিল্ল	-2003
▁সড়ক	-2004
▁মুক্ত	-2005
▁t	-2006
▁শব্দ	-2007
▁দুর্ঘট	-2008
▁দিনে	-2009
হীন	-2010
▁নাকি	-2011
▁বৃষ্ট	-2012
▁মারা	-2013
▁বর্তমানে	-2014
▁প্রতিবাদ	-2015
▁ঘর	-2016
▁অপরাধ	-2017
▁পুরুষ	-2018
▁সংস্থ	-2019
▁বাংলাদেশে	-2020
▁একা	-2021
▁দূর	-2022
▁নিউজ	-2023
▁পৃথিব	-2024
▁শক্ত	-2025
▁অশ	-2026
াবাহ	-2027
ুয়া	-2028
▁মন্ত্রণাল	-2029
▁বাড়ির	-2030
ামা	-2031
▁গুরুত্বপূর্ণ	-2032
▁তরুণ	-2033
▁আসা	-2034
▁ম্য	-2035
▁থানায়	-2036
▁চাঁ	-2037
▁পোস্ট	-2038
▁নির্	-2039
▁সংগ্র	-2040
ঙ্কা	-2041
▁মহাস	-2042
▁ফেব্র	-2043
িশোর	-2044
▁আছেন	-2045
▁টা	-2046
▁প্ৰ	-2047
▁জি	-2048
ৌশ	-2049
▁দর্শ	-2050
▁S	-2051
▁থাকেন	-2052
▁হিন্দ	-2053
▁B	-2054
▁কোচ	-2055
িলের	-2056
▁নৌ	-2057
রিক	-2058
▁গাড়	-2059
▁এলাকা	-2060
▁হোক	-2061
াৰ	-2062
▁অন্যতম	-2063
▁জড়	-2064
মূ	-2065
▁পুন	-2066
▁চিকিৎসা	-2067
▁সংস্ক	-2068
দ্দ	-2069
ল্যান্ড	-2070
ীরে	-2071
▁গ্রেপ্ত	-2072
ুস	-2073
▁অগ	-2074
▁কংগ্রেস	-2075
▁অধিকার	-2076
াকায়	-2077
▁আরেক	-2078
তিরিক্ত	-2079
থমে	-2080
▁সত	-2081
▁ধরা	-2082
▁আগের	-2083
োয়ার	-2084
▁প্রদান	-2085
▁২৩	-2086
▁ক্ল	-2087
▁হয়তো	-2088
▁রাস	-2089
সভ	-2090
মাধ্য	-2091
▁হঠ	-2092
সিক	-2093
িষ	-2094
▁সংস্থা	-2095
▁পরিমাণ	-2096
▁পেশ	-2097
টিকে	-2098
্না	-2099
▁পাহ	-2100
▁সিনেম	-2101
িয়াল	-2102
▁এক্স	-2103
▁গভ	-2104
▁বিক্ষ	-2105
িকায়	-2106
য়াল	-2107
ফিক	-2108
▁মাসে	-2109
▁শ্রেণ	-2110
▁অতিরিক্ত	-2111
▁ভেত	-2112
▁খার	-2113
ঠি	-2114
দ্দিন	-2115
▁সচিব	-2116
ামান	-2117
▁নর	-2118
▁বাগ	-2119
▁বাসিন্দ	-2120
▁জায়গায়	-2121
▁সন্ত্র	-2122
▁বাজার	-2123
▁পৌর	-2124
▁ঘুম	-2125
▁সেল	-2126
▁লিখে	-2127
েনের	-2128
▁মুখ্যমন্ত্রী	-2129
▁ময়	-2130
▁ইন্টার	-2131
সভা	-2132
▁সন্তান	-2133
▁করল	-2134
▁বিক্রি	-2135
েনার	-2136
াসী	-2137
▁পাকিস্তান	-2138
নাকে	-2139
▁চট্টগ্রাম	-2140
শেষ	-2141
▁পাই	-2142
▁ওয়েব	-2143
▁দিলেন	-2144
▁প্রভাব	-2145
▁বিধ	-2146
▁আন্দোলন	-2147
▁আয়োজ	-2148
াভাবিক	-2149
▁সম্ভাব	-2150
▁খর	-2151
▁বেগম	-2152
▁আয়োজন	-2153
কো	-2154
▁যাত্রী	-2155
তাম	-2156
▁আদালতে	-2157
্নে	-2158
▁ভাঙ	-2159
▁বছরে	-2160
▁শুনে	-2161
▁স্বামী	-2162
▁বর্ণ	-2163
▁রোহি	-2164
▁বিশ্ববিদ্যালয়	-2165
▁আসছে	-2166
▁টেক	-2167
গা	-2168
কল	-2169
▁জিয়া	-2170
▁খাবার	-2171
▁এপ্রিল	-2172
্ফ	-2173
দীর	-2174
▁জোর	-2175
▁নেয়	-2176
▁কলকাতা	-2177
▁অফিসার	-2178
ীদ	-2179
▁নামের	-2180
▁অবস্থা	-2181
▁হাঁ	-2182
েলের	-2183
োধন	-2184
হর	-2185
▁খালেদা	-2186
▁খুল	-2187
▁নিরাপত্তা	-2188
▁ধর্ষ	-2189
▁নিয়ন্ত্রণ	-2190
▁রয়েছেন	-2191
▁যুক্তরাষ্ট্র	-2192
▁গাছ	-2193
চ্ছা	-2194
▁মামলার	-2195
▁প্রস্তাব	-2196
▁জার	-2197
▁থাকলে	-2198
▁আক	-2199
▁হলেন	-2200
▁অস্ত্র	-2201
▁আগস্ট	-2202
▁মাদক	-2203
▁সমস্ত	-2204
▁হুম	-2205
▁সবার	-2206
▁কুমার	-2207
▁প্রথমে	-2208
▁কথ	-2209
▁পড়েছে	-2210
▁বিশ্বের	-2211
▁প্রমাণ	-2212
▁টাই	-2213
▁C	-2214
▁হিসাবে	-2215
▁শাস	-2216
▁জিজ্ঞ	-2217
▁নেন	-2218
▁জিন	-2219
▁ভি	-2220
▁একবার	-2221
▁ব্যাট	-2222
▁উৎপ	-2223
▁করেছি	-2224
▁লড়াই	-2225
▁ড্র	-2226
▁প্রযুক্ত	-2227
▁b	-2228
▁দুপুরে	-2229
▁একাধিক	-2230
▁আমের	-2231
▁অধ্যাপ	-2232
▁বলছেন	-2233
দ্ধা	-2234
▁মাথায়	-2235
▁কাশ	-2236
▁পেতে	-2237
▁হাল	-2238
্নের	-2239
▁মাছ	-2240
▁মুসলিম	-2241
▁টেল	-2242
it	-2243
াঙ্গ	-2244
িয়াম	-2245
▁৫০	-2246
▁জায়গা	-2247
▁2	-2248
▁ভূম	-2249
াসে	-2250
▁বাজারে	-2251
মান্ত	-2252
▁বিব	-2253
▁মির	-2254
ৃতীয়	-2255
▁সামাজিক	-2256
▁ব্যবস্থ	-2257
▁মনোন	-2258
▁হঠাৎ	-2259
▁মামলায়	-2260
▁করছি	-2261
▁মস	-2262
▁জনপ্রিয়	-2263
▁গ্রামে	-2264
▁কিশোর	-2265
▁দরকার	-2266
▁শার	-2267
াতি	-2268
▁রাজনীতি	-2269
ণ্য	-2270
স্ট্র	-2271
▁মাথা	-2272
▁ঘটন	-2273
▁দিক	-2274
▁ভেঙে	-2275
বাড়	-2276
▁ভো	-2277
▁কমে	-2278
▁মাই	-2279
এই	-2280
▁মমতা	-2281
▁পরিস্থিতি	-2282
▁কার্যাল	-2283
▁করেছিল	-2284
▁আবদুল	-2285
▁কয়েকটি	-2286
্লিষ্ট	-2287
▁সিটি	-2288
▁জমা	-2289
▁আসলে	-2290
▁মোবাইল	-2291
▁প্রত্যা	-2292
গ্রহণ	-2293
▁অনেকেই	-2294
▁করিয়া	-2295
▁নিয়োগ	-2296
▁অপেক্ষ	-2297
থাৎ	-2298
ফা	-2299
▁কাজের	-2300
াতায়	-2301
▁তেমন	-2302
▁নো	-2303
▁ছবির	-2304
▁খাদ	-2305
▁সংগঠন	-2306
ুদ্র	-2307
▁আহ্ব	-2308
▁বেঁ	-2309
ালেন	-2310
্তা	-2311
▁বাঙ	-2312
▁সাহায্য	-2313
▁নির্বাচনের	-2314
▁গ্রুপ	-2315
▁বন্ধু	-2316
িদের	-2317
▁কান	-2318
▁পর্যা	-2319
ৃত্ত	-2320
▁চুক্ত	-2321
িত্বে	-2322
▁বাকি	-2323
▁ফর	-2324
ানী	-2325
▁নির্বাহী	-2326
▁অস	-2327
ুজ্জ	-2328
▁হাসিনা	-2329
োঁজ	-2330
িতার	-2331
▁মজ	-2332
উট	-2333
▁গ্রেপ্তার	-2334
▁এনে	-2335
▁যাব	-2336
▁নিজস্ব	-2337
▁মোঃ	-2338
▁মিয়া	-2339
চ্ছি	-2340
▁তাক	-2341
▁পরিবর্তন	-2342
▁নেতৃত্ব	-2343
▁ছয়	-2344
▁নদী	-2345
▁অথবা	-2346
ান্স	-2347
▁তৃতীয়	-2348
▁আসতে	-2349
▁ডা	-2350
বাজ	-2351
▁সঙ্গ	-2352
▁গুলি	-2353
ad	-2354
▁বিক্ষোভ	-2355
▁মানে	-2356
▁রাজ্যের	-2357
▁এজ	-2358
ময়	-2359
▁অসু	-2360
▁সভা	-2361
▁নিক	-2362
শিয়া	-2363
▁ইর	-2364
▁মন্দ	-2365
▁ওঠে	-2366
▁অধ্যাপক	-2367
দিনের	-2368
▁অল	-2369
▁ব্যাপার	-2370
▁বাণ	-2371
▁লাশ	-2372
গার	-2373
▁সেন্ট	-2374
▁সর্বো	-2375
▁দৃ	-2376
▁তে	-2377
▁উঠেছে	-2378
াগত	-2379
▁ইউনিয়ন	-2380
▁উৎস	-2381
যোগ্য	-2382
▁ওঠ	-2383
▁পৌঁছ	-2384
▁পাওয়ার	-2385
▁ত্র	-2386
▁অতিথি	-2387
সিং	-2388
▁অর্থাৎ	-2389
▁বুঝতে	-2390
▁শাখ	-2391
▁ফিল	-2392
োস	-2393
▁পারবে	-2394
▁সংশ্লিষ্ট	-2395
পু	-2396
ঘাত	-2397
েশনের	-2398
▁ছড়িয়ে	-2399
▁নির্মাণ	-2400
▁দায়ের	-2401
গাঁ	-2402
▁কক্স	-2403
▁ইউনি	-2404
▁[	-2405
▁চালু	-2406
▁রাহ	-2407
▁পরিকল্পনা	-2408
মেন্ট	-2409
▁আসাম	-2410
দেশের	-2411
চল	-2412
▁তৈর	-2413
▁আবু	-2414
▁অ্যান্ড	-2415
িয়র	-2416
গের	-2417
ডার	-2418
▁নগর	-2419
▁মেয়র	-2420
▁রাখেন	-2421
▁স্থানে	-2422
▁নিজেকে	-2423
▁হত	-2424
▁ফেব্রুয়ারি	-2425
ৃতিক	-2426
▁পত্র	-2427
▁"	-2428
িক্যাল	-2429
▁কখনও	-2430
▁শিকার	-2431
▁আর্থ	-2432
▁কখনো	-2433
▁ওপ	-2434
▁ওয়া	-2435
▁অনুষ্ঠান	-2436
চ্ছিল	-2437
▁মাসের	-2438
▁নিয়েছে	-2439
্যুৎ	-2440
▁ক্যাম্প	-2441
▁সময়ের	-2442
শার	-2443
বছ	-2444
▁রাজধানীর	-2445
▁প্রবেশ	-2446
▁বেরিয়ে	-2447
ওয়ে	-2448
▁উপলক্ষে	-2449
▁হা	-2450
▁পছ	-2451
▁পৌঁছে	-2452
াদার	-2453
▁মধ্যেই	-2454
▁পরিষদের	-2455
▁দুর্ন	-2456
▁অভিনয়	-2457
▁প্রার্থ	-2458
াসা	-2459
▁ষ	-2460
▁পরিচয়	-2461
▁আনন্দ	-2462
▁ট্রাম্প	-2463
▁দেবে	-2464
ুরের	-2465
ঙ্খ	-2466
▁মুহূর্ত	-2467
▁যৌন	-2468
▁একেবার	-2469
▁রং	-2470
পা	-2471
▁অনলাইন	-2472
দল	-2473
▁হওয়ায়	-2474
তী	-2475
▁থানা	-2476
▁খারাপ	-2477
▁সেরা	-2478
নো	-2479
▁বঙ্গবন্ধু	-2480
হিত	-2481
▁খুবই	-2482
ল্ল	-2483
▁1	-2484
▁২৬	-2485
্কা	-2486
১৯	-2487
▁পাঠানো	-2488
▁নির্যাত	-2489
▁কোথায়	-2490
মিন	-2491
▁প্রতিটি	-2492
▁মাহম	-2493
শিয়ার	-2494
▁গৃহ	-2495
▁বিরোধী	-2496
▁চলেছে	-2497
▁প্রতিবেদ	-2498
▁এখনো	-2499
ড়ায়	-2500
▁বর্ষ	-2501
তুর	-2502
▁ওয়ার্ড	-2503
▁পাকিস্তানের	-2504
সন	-2505
পাশ	-2506
▁অথচ	-2507
▁দখ	-2508
▁বিধান	-2509
▁স্বাভাবিক	-2510
▁আকাশ	-2511
▁২৮	-2512
▁জর	-2513
▁খরচ	-2514
▁রাস্তা	-2515
▁অস্ব	-2516
▁আলো	-2517
▁রোব	-2518
▁আগুন	-2519
▁সভাপত	-2520
▁জীবনের	-2521
প্রে	-2522
▁বাঁচ	-2523
▁ধারণা	-2524
াত্ম	-2525
▁নিল	-2526
▁ঘটনাস্থ	-2527
▁পুরস্কার	-2528
▁বাজে	-2529
▁কোথা	-2530
▁দলীয়	-2531
▁সুন	-2532
ৃদ	-2533
▁আসার	-2534
▁আপন	-2535
▁P	-2536
▁চোখে	-2537
জাত	-2538
▁উইকেট	-2539
▁A	-2540
ফি	-2541
▁নেওয়ার	-2542
▁অনুর	-2543
▁প্রতিযোগ	-2544
কু	-2545
▁বৈঠক	-2546
কৃত	-2547
▁শহর	-2548
ইউ	-2549
▁ফুল	-2550
▁যাই	-2551
▁সফল	-2552
তন্ত্র	-2553
▁শাস্ত	-2554
▁প্রক্র	-2555
▁গোটা	-2556
▁অনুস	-2557
▁আগ্র	-2558
▁কম্প	-2559
▁সমিত	-2560
▁অন্যদিকে	-2561
▁কিছুই	-2562
▁আলাদা	-2563
▁অধিন	-2564
াবল	-2565
he	-2566
▁পরিচিত	-2567
▁ক্ষমতা	-2568
▁পদে	-2569
▁বিজয়	-2570
তু	-2571
▁২০১৫	-2572
’-	-2573
ঠিক	-2574
ত্তি	-2575
▁প্রতিবেদন	-2576
▁জ্ব	-2577
বুক	-2578
▁কথায়	-2579
▁অন্তত	-2580
▁লো	-2581
▁কাউন্স	-2582
জের	-2583
▁বিজেপির	-2584
▁মাহমুদ	-2585
▁সীমান্ত	-2586
পাল	-2587
▁সিরিজ	-2588
▁২৭	-2589
টন	-2590
▁ক্ষম	-2591
চনা	-2592
▁জনের	-2593
ুজ্জামান	-2594
হাট	-2595
্যাশন	-2596
▁খুন	-2597
▁অভিযুক্ত	-2598
িটে	-2599
▁বিদ্যুৎ	-2600
বনে	-2601
st	-2602
এল	-2603
বাং	-2604
▁সত্যি	-2605
াচার	-2606
▁দুঃ	-2607
কুম	-2608
্রয়	-2609
▁ব্যবসায়	-2610
▁p	-2611
▁সহজ	-2612
▁জন্যে	-2613
▁বাব	-2614
কালীন	-2615
াসহ	-2616
▁দলে	-2617
▁সর্বোচ্চ	-2618
কারে	-2619
মধ্যে	-2620
▁রাখার	-2621
▁বৈঠকে	-2622
▁স্বপ্ন	-2623
ইন	-2624
▁যায়নি	-2625
কালে	-2626
্যান্ট	-2627
▁পেরে	-2628
▁দৈ	-2629
▁কোর্ট	-2630
▁সহায়	-2631
▁মেনে	-2632
▁কেবল	-2633
▁ঢাকার	-2634
▁বোল	-2635
▁অস্ট্র	-2636
▁অর	-2637
▁মতে	-2638
▁বয়স	-2639
▁চাষ	-2640
ফুল	-2641
▁চিত্র	-2642
▁অ্যাপ	-2643
▁কমিশন	-2644
চাল	-2645
▁অত্য	-2646
▁মোদী	-2647
▁বন্দ্য	-2648
ভাবেই	-2649
▁ভূমিকা	-2650
▁তালিকা	-2651
▁ইত্য	-2652
্কে	-2653
▁বাস্তবায়	-2654
▁উৎপাদ	-2655
▁চলতি	-2656
▁নিন	-2657
▁প্রকাশিত	-2658
▁মড	-2659
▁ব্যবহ	-2660
▁প্রতির	-2661
▁জোট	-2662
▁আহমদ	-2663
▁অসম	-2664
▁আপনাকে	-2665
▁M	-2666
ন্থ	-2667
▁পেল	-2668
▁ক্যা	-2669
পথ	-2670
▁বৃদ্ধি	-2671
উল	-2672
▁আসেন	-2673
▁উৎসব	-2674
▁কেটে	-2675
▁গভীর	-2676
▁সিলেট	-2677
▁প্রশিক্ষ	-2678
▁পয়েন্ট	-2679
▁ফো	-2680
▁বিপক্ষে	-2681
▁কেমন	-2682
▁ইংরে	-2683
ালোচ	-2684
খা	-2685
▁পোশ	-2686
ামর্শ	-2687
▁সন্দে	-2688
াক্তন	-2689
▁উন্নয়	-2690
আম	-2691
▁পেছ	-2692
▁পড়ুন	-2693
▁ব্যাপক	-2694
১৮	-2695
দর্শন	-2696
▁মৃত্যুর	-2697
ান্তর	-2698
▁বাধ্য	-2699
▁আক্রম	-2700
▁পরিব	-2701
▁বিস্তারিত	-2702
▁কিছুটা	-2703
বিষ্য	-2704
▁রস	-2705
▁ভিত	-2706
এক	-2707
▁আনা	-2708
▁T	-2709
ার্ট	-2710
ষণ	-2711
বন্দ	-2712
ণ্ঠ	-2713
াকিব	-2714
▁ঘুরে	-2715
ভুক্ত	-2716
▁বিজ্ঞান	-2717
▁’’	-2718
▁তিনটি	-2719
মু	-2720
কর্ড	-2721
▁মিথ	-2722
▁পুজ	-2723
সরকারি	-2724
িয়োগ	-2725
▁পরামর্শ	-2726
▁জানি	-2727
▁ব্যবসায়ী	-2728
▁জ্ঞ	-2729
বৃ	-2730
▁পরিচালনা	-2731
▁পেয়েছে	-2732
▁সহকারী	-2733
ic	-2734
াকর্ম	-2735
▁৪০	-2736
▁খেলে	-2737
▁অনেকে	-2738
▁বলেই	-2739
▁বরং	-2740
▁অস্ট্রেল	-2741
চা	-2742
▁ঐতি	-2743
▁প্রশাসন	-2744
▁ঘটেছে	-2745
হল	-2746
▁মিনিট	-2747
▁আর্থিক	-2748
▁মুর	-2749
▁শির	-2750
▁থাকায়	-2751
▁ভবিষ্য	-2752
▁আইনজীব	-2753
▁সমস্য	-2754
▁পাস	-2755
▁c	-2756
কোন	-2757
সঙ্গে	-2758
▁সন্ধ	-2759
▁ইম	-2760
▁সঠিক	-2761
▁স্বীকার	-2762
▁অধিনায়ক	-2763
▁পড়তে	-2764
▁কিনা	-2765
কেলে	-2766
▁সম্মান	-2767
▁টুই	-2768
▁গঠন	-2769
▁কঠিন	-2770
▁করব	-2771
▁অভিযোগে	-2772
▁জড়িত	-2773
▁ডাক্ত	-2774
▁বলেও	-2775
▁তারিখ	-2776
▁মাঠ	-2777
▁অগ্র	-2778
▁বিয়ের	-2779
▁পদক্ষেপ	-2780
▁ৰ	-2781
▁নেতৃত্বে	-2782
▁বিবে	-2783
▁কিল	-2784
▁দিবস	-2785
▁সেখান	-2786
▁এমনকি	-2787
▁পরিণ	-2788
্টার	-2789
▁পূর্ণ	-2790
▁ইনি	-2791
▁আক্রান্ত	-2792
▁চলচ্চ	-2793
ুকু	-2794
▁কর্মী	-2795
▁হামলার	-2796
▁পর্যায়ে	-2797
▁রেজ	-2798
▁লাগে	-2799
▁খুলে	-2800
▁হেল	-2801
চেতন	-2802
▁প্রাক্তন	-2803
▁চক্র	-2804
কোর্ট	-2805
ত্ত্ব	-2806
▁নেয়া	-2807
....	-2808
▁যুবক	-2809
▁থাকলেও	-2810
▁সুবিধা	-2811
▁মন্ত্র	-2812
হী	-2813
ানার	-2814
▁সুপ্র	-2815
গ্ন	-2816
রুল	-2817
বিশ	-2818
▁সেবা	-2819
▁প্রতিদিন	-2820
▁মেয়ের	-2821
▁কোথাও	-2822
▁করেই	-2823
▁সরব	-2824
িজ্য	-2825
▁রেকর্ড	-2826
▁সমালোচ	-2827
▁রাস্তায়	-2828
▁সম্মেলনে	-2829
▁মহানগর	-2830
▁আচ	-2831
▁পদ্ধ	-2832
▁রোববার	-2833
▁গাজ	-2834
▁খেয়ে	-2835
▁সার্ভ	-2836
▁প্রিয়	-2837
▁ফেসবুক	-2838
▁আবুল	-2839
▁বলছে	-2840
▁২৯	-2841
▁জেনার	-2842
▁হিন্দু	-2843
জনকে	-2844
জু	-2845
ানিক	-2846
▁কমিশনার	-2847
▁অত্যন্ত	-2848
েম্ব	-2849
ান্দ	-2850
▁মনোনয়ন	-2851
▁নিয়মিত	-2852
▁ইউর	-2853
▁উপরে	-2854
▁প্রধানমন্ত্রীর	-2855
▁বেলা	-2856
বিদ	-2857
▁বিপর	-2858
▁শহরে	-2859
▁স্পষ্ট	-2860
বাগ	-2861
্নি	-2862
িয়েছে	-2863
▁আসবে	-2864
▁ক্য	-2865
▁বিনিয়োগ	-2866
োদন	-2867
▁গড়	-2868
▁ফুটবল	-2869
▁ঐক্য	-2870
▁ফাইন	-2871
▁অবশ্যই	-2872
▁শক্তি	-2873
▁পরিষদ	-2874
্রাম	-2875
▁তথা	-2876
▁ছবিতে	-2877
▁R	-2878
জনক	-2879
▁জিনিস	-2880
শের	-2881
্লাম	-2882
▁অম	-2883
▁সংস্থার	-2884
▁নিম	-2885
পের	-2886
▁জীবনে	-2887
উজ	-2888
▁জমি	-2889
▁বিশাল	-2890
▁গতি	-2891
▁ছাড়াও	-2892
েদ	-2893
▁ট্রেন	-2894
▁দিচ্ছে	-2895
কেও	-2896
▁কষ্ট	-2897
▁সেটি	-2898
কারীদের	-2899
▁যাত্র	-2900
▁চাহ	-2901
▁N	-2902
ণার	-2903
▁প্রয়	-2904
ভো	-2905
সির	-2906
ঘাট	-2907
▁তত	-2908
▁হইয়া	-2909
▁চন্দ্র	-2910
▁অভিজ্ঞ	-2911
▁মুক্তিযো	-2912
▁কলেজের	-2913
্রিক	-2914
ুরা	-2915
▁প্রমুখ	-2916
ed	-2917
▁হাসপাতাল	-2918
▁ঘরের	-2919
▁খুঁজে	-2920
চের	-2921
▁সমাবে	-2922
▁নির্বাচিত	-2923
▁চিন্তা	-2924
▁পাবেন	-2925
▁বিরাট	-2926
▁দিলে	-2927
ায়ণ	-2928
▁সম্পূর্ণ	-2929
▁ভেবে	-2930
ফার	-2931
নীয়	-2932
▁একমাত্র	-2933
োনাল	-2934
গঞ্জের	-2935
▁প্রযুক্তি	-2936
্যায়	-2937
▁কৃষি	-2938
▁মায়ের	-2939
ঞ্জে	-2940
▁শিক্ষার্থী	-2941
▁৩১	-2942
িকেল	-2943
▁s	-2944
▁ব্যাংকের	-2945
্গ	-2946
▁দেয়ার	-2947
▁জব	-2948
▁বোধ	-2949
▁অঞ্চ	-2950
▁কোম্পানি	-2951
▁এদের	-2952
াসরি	-2953
কাব	-2954
▁জগ	-2955
▁অন্ধ	-2956
ৈধ	-2957
৩০	-2958
▁বায়	-2959
▁মানুষকে	-2960
▁দূরে	-2961
ৃঙ্খ	-2962
▁তৎ	-2963
▁তবু	-2964
ীপুর	-2965
ধর	-2966
গান	-2967
▁উদ্বোধন	-2968
▁ভিত্তিতে	-2969
বঙ্গ	-2970
▁গৌ	-2971
▁কাঠ	-2972
▁শীত	-2973
ুনিক	-2974
▁মুজিব	-2975
বারের	-2976
▁প্রস্তুতি	-2977
▁নাজ	-2978
▁সাংবাদিকদের	-2979
্যালে	-2980
▁সতর্ক	-2981
আমি	-2982
▁কাশ্ম	-2983
▁নেতাকর্ম	-2984
▁তৃণমূ	-2985
দায়	-2986
গুলোতে	-2987
▁নাগ	-2988
▁দ্বারা	-2989
▁সৌদি	-2990
▁রি	-2991
▁ভারতে	-2992
পরি	-2993
্দ্রে	-2994
▁কার্যক্রম	-2995
▁সরাসরি	-2996
্ষিক	-2997
জিদ	-2998
সদ	-2999
▁জাল	-3000
▁শহীদ	-3001
▁চম	-3002
হ্ন	-3003
▁পোশাক	-3004
শ্বর	-3005
▁ইত্যাদি	-3006
▁পণ্য	-3007
বাসী	-3008
▁মানসিক	-3009
▁গিয়েছিল	-3010
▁m	-3011
ুকুর	-3012
▁সংঘর্ষ	-3013
▁সম্ভাবনা	-3014
বাংলা	-3015
্ভর	-3016
▁নীতি	-3017
▁সংগ্রহ	-3018
▁নী	-3019
▁কাউন্সিল	-3020
▁কালো	-3021
▁বেসরকারি	-3022
01	-3023
▁জিতে	-3024
▁দাস	-3025
নগর	-3026
▁বদলে	-3027
▁বীর	-3028
▁ঘণ্টা	-3029
▁কার্ড	-3030
▁পত	-3031
▁মাত	-3032
ড়ের	-3033
▁ব্যবসা	-3034
▁অবৈধ	-3035
▁চাম	-3036
▁প্লা	-3037
েড	-3038
▁ঠাক	-3039
▁গার	-3040
মানের	-3041
▁কামাল	-3042
▁অঙ্গ	-3043
▁বলিউ	-3044
▁ভর	-3045
োনা	-3046
▁ধ্ব	-3047
ew	-3048
▁রাজশ	-3049
▁নিয়ম	-3050
▁যাঁ	-3051
ূলক	-3052
▁শিক্ষার্থীদের	-3053
▁কবি	-3054
▁আও	-3055
▁জেনারেল	-3056
াবি	-3057
িশন	-3058
▁চাইলে	-3059
▁ভালোবাস	-3060
▁হাইকোর্ট	-3061
▁সৈয়	-3062
▁প্ল	-3063
প্লে	-3064
▁একদিন	-3065
▁পছন্দ	-3066
্যান্স	-3067
▁মনো	-3068
▁নুর	-3069
▁আহ্বান	-3070
▁কবির	-3071
▁চ্যাম্প	-3072
▁মিলে	-3073
ালো	-3074
▁পাবে	-3075
▁প্রয়োজনীয়	-3076
▁তাম	-3077
▁প্রশ্নের	-3078
উন্ড	-3079
▁দোকান	-3080
িরের	-3081
▁জেনে	-3082
▁লিম	-3083
ুল্লাহ	-3084
▁খাদ্য	-3085
্যাগ	-3086
▁সভাপতিত্বে	-3087
▁অ্যাড	-3088
▁বাধা	-3089
▁প্রসঙ্গে	-3090
৫০	-3091
▁সন্ত্রাস	-3092
ou	-3093
ঢ়	-3094
▁বাহিনী	-3095
াপুর	-3096
দুর	-3097
স্থান	-3098
▁নরেন্দ্র	-3099
্রো	-3100
▁মাও	-3101
▁আঁ	-3102
▁বাচ্চ	-3103
▁কক্সবাজার	-3104
১৭	-3105
িসের	-3106
সান	-3107
▁তীব	-3108
▁পারেনি	-3109
▁কাদের	-3110
ুধ	-3111
▁বিকেলে	-3112
িক্স	-3113
▁নিয়েছেন	-3114
ধীন	-3115
▁হতো	-3116
▁পুনর	-3117
▁মডেল	-3118
সাম	-3119
▁মিয়ান	-3120
▁রঙ	-3121
▁পৰ	-3122
▁টু	-3123
le	-3124
মান্ড	-3125
েধ	-3126
▁ছাত্রী	-3127
▁জবাব	-3128
▁বাসিন্দা	-3129
▁টিক	-3130
াদেশ	-3131
▁লোকজন	-3132
▁তল	-3133
▁জঙ্গি	-3134
▁দৌ	-3135
▁উদ্যোগে	-3136
▁কাগ	-3137
বাবু	-3138
▁রক্ষা	-3139
▁সংক্রান্ত	-3140
▁ঝুঁ	-3141
কী	-3142
▁হৃদ	-3143
▁হাজির	-3144
▁পদ্ধতি	-3145
▁বেল	-3146
’,	-3147
▁মিনিটে	-3148
▁বাণিজ্য	-3149
▁প্রতিক	-3150
▁বিচারপতি	-3151
▁নন	-3152
বীর	-3153
▁তাপ	-3154
▁আসন	-3155
্টর	-3156
▁চূ	-3157
▁সিনিয়র	-3158
বাল	-3159
▁বুদ্ধ	-3160
▁চলচ্চিত্র	-3161
▁ঘিরে	-3162
▁ব্যক্তিগত	-3163
▁পাহাড়	-3164
▁আদালতের	-3165
ুতে	-3166
▁বস্ত	-3167
▁কয়েকজন	-3168
▁বাহিনীর	-3169
র্গ	-3170
▁গরম	-3171
ফের	-3172
▁সমা	-3173
▁তেল	-3174
▁পেয়েছেন	-3175
▁সোশ	-3176
মাকে	-3177
খানা	-3178
ুয়ে	-3179
▁সংর	-3180
▁অসুস্থ	-3181
▁দেখার	-3182
▁মুম্ব	-3183
▁পরবর্তী	-3184
is	-3185
▁দাবিতে	-3186
▁দেখিয়ে	-3187
▁দুপুর	-3188
্শ	-3189
▁ভিন্ন	-3190
িসং	-3191
▁ওয়ান	-3192
▁খেতে	-3193
▁ব্যর্থ	-3194
▁লেন	-3195
▁বাংলার	-3196
▁করতেন	-3197
য়াজ	-3198
▁ব্যস্ত	-3199
ায়ার	-3200
▁সংগঠনের	-3201
▁অধ্য	-3202
▁ওরা	-3203
▁ধীরে	-3204
▁সমাধান	-3205
▁দিয়েছিলেন	-3206
▁সন্দেহ	-3207
▁ঢুকে	-3208
আপ	-3209
▁তীব্র	-3210
জির	-3211
▁তোলা	-3212
▁বিষয়ক	-3213
্টা	-3214
▁১৯৯	-3215
▁উল্লেখ্য	-3216
▁অভিনেত	-3217
১০	-3218
▁যুগ্ম	-3219
▁ব্যবস্থাপ	-3220
িতায়	-3221
▁স্বাধীনতা	-3222
▁চাকরি	-3223
▁ম্যাচের	-3224
▁গ্রাহ	-3225
▁খেলার	-3226
▁হস্ত	-3227
▁কার্যকর	-3228
ভাষ	-3229
▁প্রসঙ্গ	-3230
্প্র	-3231
▁মিছিল	-3232
▁এড	-3233
ড়ান্ত	-3234
▁ইংল্যান্ড	-3235
▁সোহ	-3236
▁ঋণ	-3237
▁জারি	-3238
▁ইঞ্জ	-3239
▁কের	-3240
ুলি	-3241
▁দুর্নীতি	-3242
▁কুর	-3243
ing	-3244
াসন	-3245
▁সৈয়দ	-3246
▁স্মৃতি	-3247
re	-3248
াদে	-3249
▁লেগে	-3250
▁গোয়ে	-3251
াদ্দ	-3252
▁সমর্থন	-3253
▁মদ	-3254
্যাশনাল	-3255
▁জাতির	-3256
িমা	-3257
▁সিবি	-3258
▁ডিজিট	-3259
▁১০০	-3260
্যাণ	-3261
▁চী	-3262
মো	-3263
▁সাফল	-3264
▁নিকট	-3265
▁জরুরি	-3266
▁বুক	-3267
▁চিঠি	-3268
▁নাস	-3269
▁শাম	-3270
রাহ	-3271
▁রাজ্যে	-3272
ম্ভ	-3273
▁জিয়ার	-3274
▁দেবেন	-3275
▁করায়	-3276
▁ধাক	-3277
▁এমপি	-3278
▁গেছেন	-3279
▁হাসপাতালের	-3280
▁সুখ	-3281
ion	-3282
▁f	-3283
ang	-3284
তাব	-3285
▁ম্যানে	-3286
▁জানেন	-3287
▁কীভাবে	-3288
জায়	-3289
▁সচেতন	-3290
▁অজ	-3291
▁ফু	-3292
▁কর্মসূচি	-3293
▁প্রকৃত	-3294
▁রিপোর্টার	-3295
▁রাই	-3296
▁বাতিল	-3297
▁ভারপ্রাপ্ত	-3298
▁জরি	-3299
▁নীল	-3300
▁মেডিকেল	-3301
▁অর্জন	-3302
▁ঢাকায়	-3303
▁গেলেন	-3304
▁বিস্ফ	-3305
la	-3306
▁সুপ্রিম	-3307
▁বিশেষজ্ঞ	-3308
▁তৃণমূলের	-3309
▁অ্য	-3310
দেশে	-3311
▁খেলতে	-3312
▁আপনাদের	-3313
▁নদীর	-3314
ন্দের	-3315
▁১৯৭	-3316
▁বেশির	-3317
াল্লাহ	-3318
▁ফ্ল	-3319
▁অভিনে	-3320
▁রম	-3321
▁ক্যামের	-3322
▁সংক	-3323
▁একেবারে	-3324
▁ডলার	-3325
▁গুণ	-3326
▁যুক্তরাষ্ট্রের	-3327
▁কণ্ঠ	-3328
▁পালিয়ে	-3329
▁স্কুলের	-3330
▁মূলত	-3331
▁ভাষা	-3332
টুকু	-3333
▁লক্ষ্যে	-3334
াবা	-3335
▁ওদের	-3336
পাড়া	-3337
করণ	-3338
▁কাউকে	-3339
▁হত্যার	-3340
▁অপেক্ষা	-3341
িল্ল	-3342
ণ্ডের	-3343
▁ধান	-3344
▁পরিশ	-3345
▁বিতর্ক	-3346
▁আইনের	-3347
▁বন্দ্যোপাধ্যায়	-3348
▁দখল	-3349
▁মসজিদ	-3350
াদী	-3351
▁পুত্র	-3352
ামত	-3353
▁জাপ	-3354
▁শোনা	-3355
▁হাব	-3356
▁সেনা	-3357
▁আয়োজিত	-3358
▁বাম	-3359
খ্যাত	-3360
▁পরের	-3361
▁পরেই	-3362
▁এসময়	-3363
চিত্র	-3364
ায়ন	-3365
▁দেখি	-3366
▁কিন	-3367
▁বেড়েছে	-3368
▁হাও	-3369
▁অব্যা	-3370
শী	-3371
▁বিতরণ	-3372
▁আটকে	-3373
▁মাদ্র	-3374
হান	-3375
▁মৌল	-3376
▁চিকিৎসক	-3377
▁সোন	-3378
lo	-3379
ন্ব	-3380
▁সাপ	-3381
▁এয়ার	-3382
▁জনগণের	-3383
▁রহমানের	-3384
ইল	-3385
▁২০১৪	-3386
দেহ	-3387
টাকে	-3388
▁উভ	-3389
▁চুক্তি	-3390
▁অ্যাস	-3391
▁ক্ষমতায়	-3392
▁অভিনেত্রী	-3393
▁গোয়েন্দ	-3394
গুলির	-3395
▁তালিকায়	-3396
▁প্রত্যেক	-3397
▁আল্লাহর	-3398
শু	-3399
েনা	-3400
▁কাটা	-3401
▁দেহ	-3402
▁সোশ্যাল	-3403
▁লিমিটে	-3404
▁কিলোম	-3405
ন্দ্ব	-3406
▁বার্তা	-3407
▁মের	-3408
▁বাবার	-3409
▁আকর	-3410
▁প্রণ	-3411
কিছু	-3412
▁ডাক্তার	-3413
▁বিস্ফোর	-3414
▁নিখ	-3415
▁চূড়ান্ত	-3416
ফ্র	-3417
▁ক্রিকেটার	-3418
▁”	-3419
াইভ	-3420
্যাপী	-3421
▁কলকাতার	-3422
▁মোটর	-3423
▁মূ	-3424
▁সহজে	-3425
▁পড়া	-3426
িদা	-3427
শিক্ষ	-3428
▁চাঁদ	-3429
ক্ষম	-3430
রো	-3431
▁সম্পন্ন	-3432
▁পের	-3433
▁অনুরোধ	-3434
▁কৃত	-3435
▁টার	-3436
▁পৃথিবীর	-3437
▁রোহিঙ্গা	-3438
▁স্থায়ী	-3439
▁মোস্ত	-3440
▁সেক	-3441
▁পর্ব	-3442
▁সেনাবাহ	-3443
▁ভাড়া	-3444
▁কৌশ	-3445
▁নষ্ট	-3446
▁সদস্যরা	-3447
▁যন্ত্র	-3448
▁বলেছিলেন	-3449
▁ওষ	-3450
▁কারাগ	-3451
▁জুড়ে	-3452
ষ্টি	-3453
▁নিচে	-3454
▁চির	-3455
▁প্রশাসনের	-3456
▁পারেননি	-3457
ওয়ান	-3458
▁পার্টির	-3459
থর	-3460
নীতির	-3461
▁অধিক	-3462
▁অংশগ্রহণ	-3463
▁অল্প	-3464
▁সূর	-3465
▁খুশি	-3466
▁খাত	-3467
▁পরীক্ষার	-3468
▁গ্যাস	-3469
▁আৰ	-3470
ংক	-3471
▁তারকা	-3472
রী	-3473
▁তোমাদের	-3474
।”	-3475
লাইহি	-3476
▁জন্যই	-3477
▁চরিত্র	-3478
▁এফ	-3479
▁আসনে	-3480
শ্র	-3481
বিত্র	-3482
াচার্য	-3483
▁চুল	-3484
▁বিদ্যালয়	-3485
▁সম্মেলন	-3486
১৫	-3487
ফত	-3488
ঙ্কার	-3489
মাধ্যম	-3490
▁ইসলামের	-3491
▁ইঞ্জিন	-3492
▁স্টাফ	-3493
▁জনকে	-3494
▁শিখ	-3495
▁ফুটব	-3496
▁চিহ্ন	-3497
্বিক	-3498
▁সন্ধ্যায়	-3499
থার	-3500
▁দৃশ্য	-3501
▁অনুমতি	-3502
▁পরিষ্কার	-3503
সভার	-3504
▁মিলিয়ে	-3505
▁খোঁজ	-3506
▁নিষেধ	-3507
▁নেতারা	-3508
▁পড়েন	-3509
▁প্রকল্পের	-3510
▁ঢুক	-3511
▁চলবে	-3512
▁হুমকি	-3513
▁প্রচুর	-3514
দীপ	-3515
▁জানে	-3516
▁সমন্ব	-3517
▁নিশ্চয়	-3518
ভাই	-3519
বীন্দ্র	-3520
ৃঙ্খলা	-3521
▁রানে	-3522
▁আক্রমণ	-3523
▁প্রান্ত	-3524
▁শোক	-3525
ড়ির	-3526
ড়াতে	-3527
▁কেন্দ্রে	-3528
াজন	-3529
▁চতুর	-3530
▁উদ্দেশ্য	-3531
▁প্রক্রিয়া	-3532
োধী	-3533
▁মিস	-3534
২৪	-3535
▁ভোটের	-3536
▁সাংসদ	-3537
▁কংগ্রেসের	-3538
নাম	-3539
▁স্বার্থ	-3540
বণ	-3541
ান্তি	-3542
▁দোষ	-3543
▁ইনস্ট	-3544
▁দুঃখ	-3545
▁ফিরিয়ে	-3546
▁পরিণত	-3547
▁রাহুল	-3548
ভোগ	-3549
▁প্রশিক্ষণ	-3550
▁D	-3551
ডেম	-3552
▁যাদের	-3553
বিধান	-3554
▁নিয়েই	-3555
▁বৈশ	-3556
▁গোপন	-3557
▁মুহূর্তে	-3558
▁ওষুধ	-3559
▁কর্মসূচ	-3560
▁আইনজীবী	-3561
▁যথে	-3562
▁জিত	-3563
▁হ্যা	-3564
▁উপায়	-3565
▁গায়ে	-3566
▁হইতে	-3567
▁জড়িয়ে	-3568
ুখি	-3569
▁এভাবে	-3570
▁সাক্ষাৎ	-3571
▁কেন্দ্রের	-3572
াপ্র	-3573
▁নির্দিষ্ট	-3574
াপতি	-3575
▁আদায়	-3576
▁বৃষ্টি	-3577
▁ট্রাক	-3578
▁গবেষণা	-3579
▁নিঃ	-3580
▁অধিদ	-3581
00	-3582
▁ওসি	-3583
▁ভাস	-3584
▁স্কুলে	-3585
জন্য	-3586
▁তরফে	-3587
যাত্র	-3588
▁ভেতরে	-3589
▁বিদ্যালয়ের	-3590
▁মেঘ	-3591
▁স্ট্র	-3592
▁আধুনিক	-3593
▁খোলা	-3594
িলে	-3595
সাল	-3596
▁মুসলমান	-3597
▁দীপ	-3598
▁দেশটির	-3599
▁যাচ্ছেন	-3600
১২	-3601
ক্তার	-3602
ুটি	-3603
▁মন্ত্রণালয়ের	-3604
ান্ত্রিক	-3605
িলার	-3606
▁করিতে	-3607
গো	-3608
ews	-3609
ত্তর	-3610
▁উন্নত	-3611
▁উৎপাদন	-3612
▁d	-3613
খালী	-3614
▁মুখোম	-3615
▁দুটো	-3616
াফিজ	-3617
▁প্যা	-3618
▁সন	-3619
▁ছাত্রলীগের	-3620
▁পুরনো	-3621
ক্ষা	-3622
▁সান	-3623
▁রবীন্দ্র	-3624
▁ইউরোপ	-3625
▁প্রভ	-3626
▁সিনেমা	-3627
▁অভ্য	-3628
মতো	-3629
▁এছাড়াও	-3630
▁অর্থনৈতিক	-3631
▁ব্যক্তির	-3632
▁টানা	-3633
▁এইচ	-3634
▁হাউ	-3635
াল্লাহু	-3636
▁ওভ	-3637
▁করলেও	-3638
▁তাহার	-3639
ূন্য	-3640
▁কিভাবে	-3641
তেও	-3642
▁সমিতির	-3643
▁হবেন	-3644
১৬	-3645
মধ্যেই	-3646
▁প্রজ	-3647
▁তুলনায়	-3648
▁সাম্প্র	-3649
▁জেলায়	-3650
▁কিলোমিটার	-3651
ুলত	-3652
▁মহাসচিব	-3653
▁ভক্ত	-3654
ধিক	-3655
▁নিজেই	-3656
▁নির্বাচনী	-3657
জল	-3658
ামার	-3659
ধানে	-3660
▁বাঙালি	-3661
▁চ্যাম্পিয়ন	-3662
▁অর্জ	-3663
▁হোট	-3664
ড়ো	-3665
▁যথেষ্ট	-3666
বনের	-3667
২৫	-3668
▁কারও	-3669
▁নির্ভর	-3670
গণ	-3671
▁শান্তি	-3672
▁ইন্টারনে	-3673
▁মুখোমুখি	-3674
▁সিপি	-3675
▁বলার	-3676
▁ক্রে	-3677
▁আমির	-3678
▁পেছনে	-3679
▁উপজেলায়	-3680
▁পঞ্চায়ে	-3681
▁ছেলের	-3682
▁বলি	-3683
ফো	-3684
▁সিরাজ	-3685
িমের	-3686
▁ইল	-3687
ায়া	-3688
▁কাহ	-3689
সাধারণ	-3690
▁সহায়তা	-3691
▁রানের	-3692
▁চরম	-3693
▁পবিত্র	-3694
▁খাওয়া	-3695
▁আনতে	-3696
▁সিলে	-3697
▁দুর্ঘটনা	-3698
▁পাখ	-3699
▁ইমর	-3700
▁জ্বাল	-3701
উন্ট	-3702
▁প্রস্তুত	-3703
▁সরে	-3704
▁কারণেই	-3705
▁ভাইর	-3706
▁প্রতিরোধ	-3707
▁চট্টগ্র	-3708
▁দীর্ঘদিন	-3709
▁আঘাত	-3710
কুল	-3711
▁টিম	-3712
▁হু	-3713
টর	-3714
▁ফলা	-3715
▁হায়	-3716
র্ন	-3717
▁এরই	-3718
▁কারো	-3719
ৰে	-3720
▁ক্লাব	-3721
রূপ	-3722
▁্যাব	-3723
ন্দন	-3724
▁সাহিত্য	-3725
ড্ড	-3726
▁দ্য	-3727
▁শ্রীল	-3728
▁আমিন	-3729
জান	-3730
ুমাত্র	-3731
োয়াড়	-3732
▁হাসিনার	-3733
▁যোগ্য	-3734
▁চ্যালে	-3735
▁কাশ্মীর	-3736
িলেন	-3737
▁একাদ	-3738
ুরুর	-3739
▁যাবেন	-3740
▁ভবন	-3741
▁w	-3742
▁চলাচল	-3743
▁ভোগ	-3744
▁এটাই	-3745
▁উত	-3746
▁আশঙ্কা	-3747
মানা	-3748
▁খাল	-3749
▁ইসলামী	-3750
▁বিপুল	-3751
▁পড়ার	-3752
▁লুক	-3753
গঠনিক	-3754
▁জার্ম	-3755
▁সংস্কার	-3756
▁স্ন	-3757
▁ধারা	-3758
▁মুক্তিযুদ্ধ	-3759
▁সকলের	-3760
▁নাটক	-3761
▁দপ্ত	-3762
▁প্রদ	-3763
▁দারুণ	-3764
▁শারীর	-3765
ডা	-3766
▁কমিশনের	-3767
▁নান	-3768
▁স্মার্ট	-3769
▁বাসায়	-3770
▁ইউপি	-3771
▁টান	-3772
▁পরই	-3773
▁আখ	-3774
▁মিডিয়া	-3775
▁জ্ঞান	-3776
লাপ	-3777
▁রশ	-3778
▁ঈদ	-3779
▁আন্দোলনের	-3780
▁লিখেছেন	-3781
▁অব্যাহত	-3782
▁লেনদ	-3783
▁ফি	-3784
▁চোখের	-3785
▁নেতাদের	-3786
▁দৃষ্ট	-3787
হারা	-3788
দাতা	-3789
টিভ	-3790
▁বিজ্ঞপ্ত	-3791
িলি	-3792
১১	-3793
▁আশ্রয়	-3794
িসংঘ	-3795
ঞ্জন	-3796
্মা	-3797
হেত	-3798
▁ডেকে	-3799
▁মন্ত্রণালয়	-3800
▁যিনি	-3801
▁বাড়িয়ে	-3802
▁তু	-3803
▁H	-3804
শেষে	-3805
োতে	-3806
িশালী	-3807
▁চ্যালেঞ্জ	-3808
▁সরিয়ে	-3809
▁তাকিয়ে	-3810
il	-3811
▁রাখে	-3812
▁সিক	-3813
োরে	-3814
▁সুস্থ	-3815
িটিশ	-3816
▁বাড়ছে	-3817
▁পুঁ	-3818
▁বোঝা	-3819
▁চিন	-3820
▁জেল	-3821
▁রাজধানী	-3822
ব্যাপী	-3823
▁গলায়	-3824
▁বিকেল	-3825
াগুল	-3826
▁চালক	-3827
উর	-3828
বেল	-3829
▁খেলোয়াড়	-3830
▁সত্ত	-3831
চু	-3832
▁কম্পিউ	-3833
▁সামান্য	-3834
ূত	-3835
▁ভাষায়	-3836
▁তাদেরকে	-3837
উদ্দিন	-3838
▁গুরুতর	-3839
▁জাতিসংঘ	-3840
▁কোম্পানির	-3841
▁সাদা	-3842
সম্যান	-3843
বদ্ধ	-3844
▁আলি	-3845
▁প্রাপ্ত	-3846
▁বারবার	-3847
▁মনের	-3848
▁সুই	-3849
▁পয়	-3850
▁শারীরিক	-3851
▁মেডিক্যাল	-3852
ওয়াল	-3853
▁ডায়	-3854
▁গাই	-3855
▁সমাজের	-3856
▁কার্যালয়ে	-3857
▁রিজ	-3858
সভায়	-3859
▁স্বরাষ্ট্র	-3860
বন্ধন	-3861
ফোন	-3862
▁ইক	-3863
▁ছিলো	-3864
▁প্রতিষ্ঠানের	-3865
এসসি	-3866
▁তুলতে	-3867
াতেই	-3868
▁ক্রী	-3869
▁দান	-3870
▁নগ	-3871
▁গাঁ	-3872
▁তৈরির	-3873
▁ব্যয়	-3874
▁সবুজ	-3875
ঙ্কর	-3876
▁সফর	-3877
▁a	-3878
এসই	-3879
▁দেড়	-3880
▁শক্তিশালী	-3881
▁বসব	-3882
▁o	-3883
্লাল্লাহু	-3884
বাদী	-3885
▁আওতায়	-3886
▁প্রাক	-3887
▁জয়ের	-3888
▁হর	-3889
▁রাষ্ট্রপতি	-3890
▁সূত্রের	-3891
▁ধারাবাহ	-3892
লানা	-3893
▁বিনি	-3894
▁স্থাপ	-3895
▁ঘটনাটি	-3896
▁সবাইকে	-3897
▁আকর্ষ	-3898
▁রোহিঙ্গ	-3899
াইয়া	-3900
▁থাকবেন	-3901
▁মুক্তিযোদ্ধা	-3902
▁নারীর	-3903
▁দুধ	-3904
▁ছাপ	-3905
াজের	-3906
▁আক্তার	-3907
▁স্ল	-3908
▁পার্টি	-3909
▁অ্যাকা	-3910
▁মুম্বই	-3911
▁ভোটার	-3912
▁মিথ্যা	-3913
▁শ্যাম	-3914
ঘা	-3915
▁যেকোন	-3916
▁সহযোগিতা	-3917
▁যেসব	-3918
▁জেরে	-3919
▁নোট	-3920
▁লন্ড	-3921
▁I	-3922
▁আস্ত	-3923
শনের	-3924
▁•	-3925
মস	-3926
র্স	-3927
▁গুজ	-3928
▁বোন	-3929
▁অ্যাল	-3930
▁ঘাট	-3931
ধারিত	-3932
র্য	-3933
▁উন্নয়নের	-3934
▁আদেশ	-3935
▁জ্য	-3936
▁বিশিষ্ট	-3937
▁পল	-3938
▁মেরে	-3939
পণ	-3940
▁অধিকা	-3941
▁তোমরা	-3942
▁টুইট	-3943
▁তুর	-3944
▁যাক	-3945
টিল	-3946
▁হৈ	-3947
▁দিয়েছিল	-3948
▁জাগ	-3949
▁কল্যাণ	-3950
▁বরিশ	-3951
স্কৃতিক	-3952
▁গান্ধ	-3953
▁৬০	-3954
েও	-3955
৪০	-3956
▁সম্পদ	-3957
▁উঠতে	-3958
দম	-3959
▁বিদ্য	-3960
▁সমস্যার	-3961
▁নির্ধারণ	-3962
▁কিছুদিন	-3963
সম্প	-3964
▁সৃষ্ট	-3965
▁কবিতা	-3966
▁চালানো	-3967
ছা	-3968
▁সোনার	-3969
▁জের	-3970
▁লাইন	-3971
▁ইংরেজি	-3972
▁জবাবে	-3973
▁ওয়েবসাই	-3974
▁জনগণ	-3975
▁বী	-3976
াত্মক	-3977
▁ঠাকুর	-3978
▁২০২০	-3979
▁সাংগঠনিক	-3980
▁প্রকাশের	-3981
▁সামরিক	-3982
▁অধিকাংশ	-3983
▁স্টেড	-3984
▁মেশ	-3985
▁পরিবহন	-3986
ঞ্চে	-3987
▁বাঁধ	-3988
▁পরীক্ষায়	-3989
▁পাঠিয়ে	-3990
▁আদর্শ	-3991
কারীরা	-3992
▁এবারের	-3993
্লাই	-3994
ফর	-3995
▁এরা	-3996
▁বিবাহ	-3997
▁মণ্ড	-3998
▁রাজশাহী	-3999
য়েল	-4000
২১	-4001
দু	-4002
▁ধন্য	-4003
িপ্ত	-4004
▁সাধ	-4005
▁পার্থ	-4006
▁উঠল	-4007
▁৩৫	-4008
নিউজ	-4009
▁নূর	-4010
▁সেদিন	-4011
▁এরকম	-4012
▁আজকাল	-4013
গ্রস্ত	-4014
▁মেট্র	-4015
▁প্রয	-4016
মহ	-4017
▁শিশুদের	-4018
▁নিরাপদ	-4019
কেটে	-4020
▁ডিজিটাল	-4021
্রেট	-4022
ালির	-4023
ীগঞ্জ	-4024
▁কলকাতায়	-4025
েমে	-4026
▁উল্ট	-4027
▁করিয়ে	-4028
▁সিংহ	-4029
▁অভিনেতা	-4030
▁ত্ব	-4031
▁গণতন্ত্র	-4032
পরে	-4033
▁আজকের	-4034
▁শুধ	-4035
কির	-4036
▁মির্জ	-4037
▁শরীরের	-4038
▁ক্যার	-4039
দলের	-4040
িয়াস	-4041
▁দের	-4042
▁আরব	-4043
▁স্মরণ	-4044
▁ফরি	-4045
▁ব্রিটিশ	-4046
াউন্ড	-4047
▁জামায়	-4048
াজ্ঞ	-4049
▁অনুষ্ঠানের	-4050
িত্রে	-4051
▁নারায়ণ	-4052
▁তেম	-4053
▁বেঁচে	-4054
▁সাহেব	-4055
▁সেতু	-4056
▁লু	-4057
▁অনেকের	-4058
▁উন্ম	-4059
▁শি	-4060
জনে	-4061
▁করেনি	-4062
▁ইস্য	-4063
▁আবহা	-4064
▁লেখক	-4065
ছাত্রী	-4066
▁উদ্দেশ্যে	-4067
▁নং	-4068
▁—	-4069
▁||	-4070
▁স্থাপন	-4071
▁নজরুল	-4072
▁অস্থ	-4073
▁খব	-4074
ণ্ডে	-4075
▁চালায়	-4076
র্ভ	-4077
▁দৃষ্টি	-4078
▁পেঁ	-4079
▁ভেতর	-4080
▁রাজি	-4081
▁দফত	-4082
▁কর্মীদের	-4083
২২	-4084
ক্ষিত	-4085
▁আফ্র	-4086
▁কেজি	-4087
িংয়ের	-4088
▁আউট	-4089
▁অভাব	-4090
▁টুর	-4091
হুল	-4092
▁দম	-4093
▁বেতন	-4094
্যানেল	-4095
▁ভূমিক	-4096
সভাপতি	-4097
▁প্রাচ	-4098
পোর্ট	-4099
▁দশমিক	-4100
▁সাদ	-4101
রকম	-4102
am	-4103
হেতু	-4104
ণী	-4105
াভ	-4106
ামীর	-4107
▁দৈনিক	-4108
ামেন্ট	-4109
মনসিং	-4110
▁সাংস্কৃতিক	-4111
দর	-4112
▁শরীরে	-4113
▁রোজ	-4114
েলে	-4115
্বেও	-4116
▁রাস্তার	-4117
▁সদস্যদের	-4118
▁দিল্লি	-4119
▁ক্রম	-4120
▁বাস্তব	-4121
▁সংস্করণ	-4122
▁যৌথ	-4123
▁আসামি	-4124
▁করিম	-4125
ইয়া	-4126
োক্ত	-4127
▁ধ্বংস	-4128
)-	-4129
▁সরবরাহ	-4130
▁তেমনি	-4131
ভোকেট	-4132
▁ভোর	-4133
▁শিশুর	-4134
▁ঘটনাস্থলে	-4135
মূলক	-4136
▁একসঙ্গে	-4137
▁সন্ধ্যা	-4138
▁মিন	-4139
▁ব্যাটসম্যান	-4140
যন্ত্র	-4141
▁প্যার	-4142
থির	-4143
▁কৰি	-4144
▁বিবৃতি	-4145
▁যশ	-4146
▁চেয়ারপার	-4147
▁/	-4148
▁ধর্মীয়	-4149
শক	-4150
▁পার্ক	-4151
চর	-4152
▁কাউন্সিলর	-4153
বছর	-4154
▁দরজা	-4155
▁আনোয়ার	-4156
হণের	-4157
▁কন্যা	-4158
িংস	-4159
▁আসনের	-4160
▁জানালেন	-4161
▁আপাত	-4162
▁পাত	-4163
লোক	-4164
▁ডিগ্র	-4165
▁অফিসে	-4166
▁ডট	-4167
▁ইচ্ছে	-4168
▁আপনারা	-4169
▁মেয়েদের	-4170
▁সার্ভিস	-4171
▁সমুদ্র	-4172
▁বেঁধে	-4173
ডিও	-4174
গতি	-4175
▁L	-4176
▁করেননি	-4177
শিল্প	-4178
▁কৃষক	-4179
▁পিতা	-4180
▁বিধায়ক	-4181
▁০০	-4182
▁কাজী	-4183
▁অনুমোদন	-4184
তীয়	-4185
▁বোর্ডের	-4186
রাফ	-4187
ঘর	-4188
▁আধিকার	-4189
▁প্রকৌশ	-4190
▁ইতিমধ্যেই	-4191
▁সল	-4192
▁এসেছেন	-4193
▁কিনে	-4194
১৪	-4195
▁কঠোর	-4196
গীর	-4197
▁অন্তর্	-4198
মুক্ত	-4199
াউন	-4200
ro	-4201
চালক	-4202
াবহ	-4203
ুনি	-4204
প্রতি	-4205
পূর্ব	-4206
▁পূরণ	-4207
তাই	-4208
▁ঘন	-4209
▁সঞ্চ	-4210
▁ধরেই	-4211
▁ধর্ষণ	-4212
▁চতুর্থ	-4213
▁লোকসভা	-4214
দ্য	-4215
▁নির্যাতন	-4216
▁উজ্জ	-4217
কুমার	-4218
মাত্রা	-4219
▁অধিদপ্ত	-4220
and	-4221
োধনী	-4222
বুব	-4223
রোধ	-4224
▁তাও	-4225
োনি	-4226
▁ফ্রান্স	-4227
▁অভিজ্ঞতা	-4228
▁পাশের	-4229
িদ্ধ	-4230
▁হিসাব	-4231
সংখ্য	-4232
▁অর্ধ	-4233
▁গোলাম	-4234
আন	-4235
াবু	-4236
▁রীতি	-4237
▁গাড়ির	-4238
▁আইপি	-4239
▁শাস্তি	-4240
▁আচরণ	-4241
▁মাধ্যমিক	-4242
▁সক্ষম	-4243
েচ্ছ	-4244
▁মাওলানা	-4245
▁হিম	-4246
▁স্বীক	-4247
▁পিছনে	-4248
▁ইচ্ছা	-4249
চাপ	-4250
▁তোমাকে	-4251
▁লিখিত	-4252
▁বিকল্প	-4253
▁অবাক	-4254
ent	-4255
পোর	-4256
হত্যা	-4257
▁ধারাবাহিক	-4258
▁পাব	-4259
▁গোয়েন্দা	-4260
▁মহাসড়	-4261
ধিকার	-4262
▁ভালবাস	-4263
▁সাকিব	-4264
িস্টার	-4265
▁ভুলে	-4266
▁প্লে	-4267
্বাচ	-4268
ক্রিয়	-4269
▁স্বাক্ষ	-4270
▁মেল	-4271
▁বগু	-4272
▁সপ্তাহে	-4273
▁উত্তেজ	-4274
▁সংগ	-4275
▁যাদ	-4276
▁দত্ত	-4277
▁প্রো	-4278
্যাক্স	-4279
▁হতা	-4280
▁বুঝে	-4281
▁মর্	-4282
▁ইলে	-4283
▁যথা	-4284
▁উভয়	-4285
▁কাগজ	-4286
▁০১	-4287
▁প্রশাসক	-4288
▁সমান	-4289
▁কয়	-4290
বাচ	-4291
ভূত	-4292
▁কপ	-4293
▁দো	-4294
হাজ	-4295
▁মেলা	-4296
▁গলা	-4297
▁সুলত	-4298
৩৫	-4299
▁মিজ	-4300
▁গিয়েছিলেন	-4301
নিষ্ঠ	-4302
▁ফেরত	-4303
▁বিকা	-4304
বিস্ত	-4305
▁মাটি	-4306
▁শিল্পী	-4307
▁রাজা	-4308
▁বিদেশি	-4309
▁থাম	-4310
▁অনেকটা	-4311
▁ফারুক	-4312
ho	-4313
▁অমিত	-4314
▁যেভাবে	-4315
▁কোহ	-4316
▁থেকেও	-4317
সুম	-4318
▁নির্ধারিত	-4319
▁বসবাস	-4320
▁একাডেম	-4321
▁পররাষ্ট্র	-4322
▁তখনই	-4323
▁শাহজ	-4324
ফিকুল	-4325
▁ভী	-4326
▁সমালোচনা	-4327
▁নিষিদ্ধ	-4328
টেই	-4329
▁অধি	-4330
গুলোকে	-4331
▁বিপ্ল	-4332
▁আবারও	-4333
ুষ্ঠানিক	-4334
▁শ্রেণির	-4335
▁ইমাম	-4336
▁আবেদ	-4337
পাড়	-4338
com	-4339
▁কতটা	-4340
াব্য	-4341
▁অর্থনীতি	-4342
▁সুত	-4343
▁পরও	-4344
গাঁও	-4345
▁ক্ষোভ	-4346
▁কমিউ	-4347
▁বয়সে	-4348
▁ব্রাজ	-4349
গ্ধ	-4350
et	-4351
▁প্রতিবাদে	-4352
▁বাংলাদেশি	-4353
▁?	-4354
▁ধন্যবাদ	-4355
টাও	-4356
মারের	-4357
▁ভিড়	-4358
▁ঐতিহ	-4359
▁নিম্ন	-4360
োনাল্ড	-4361
তান্ত্রিক	-4362
▁দিচ্ছেন	-4363
▁ধন	-4364
▁O	-4365
▁গোলে	-4366
▁হাতের	-4367
বর্ষ	-4368
▁মিডিয়ায়	-4369
ার্স	-4370
▁উনি	-4371
▁ক্ষে	-4372
▁খো	-4373
▁in	-4374
▁অবস্থিত	-4375
▁বয়সী	-4376
▁প্রতিবেদক	-4377
▁পড়ল	-4378
▁শুধুমাত্র	-4379
ম্বা	-4380
▁পিছিয়ে	-4381
আমার	-4382
▁কর্প	-4383
▁প্রেক্ষ	-4384
▁আর্	-4385
▁জানাতে	-4386
আমরা	-4387
ুষ্ক	-4388
▁খানের	-4389
▁টাকায়	-4390
▁আড়	-4391
▁রহস্য	-4392
▁কাক	-4393
▁শাহর	-4394
বাদের	-4395
▁ব্যাটিং	-4396
▁জামাল	-4397
র্ধ্ব	-4398
বাহী	-4399
▁বেন	-4400
▁পড়াশ	-4401
▁ধাক্কা	-4402
▁গোষ্ঠ	-4403
্নামেন্ট	-4404
▁বিশ্ববিদ্যালয়ে	-4405
▁শ্রদ্ধা	-4406
▁এমনই	-4407
▁দুজন	-4408
▁জিম	-4409
▁যথ	-4410
▁দলকে	-4411
চক	-4412
▁ঘো	-4413
াহ্ম	-4414
▁কাঁচ	-4415
▁ফোর	-4416
▁নুরুল	-4417
বিক	-4418
কত	-4419
▁উপদে	-4420
▁বাস্তবায়ন	-4421
▁খুলনা	-4422
▁টুর্নামেন্ট	-4423
▁চীন	-4424
▁জটিল	-4425
▁জামিন	-4426
▁পেলে	-4427
▁সূর্য	-4428
▁মাটিতে	-4429
▁লাগিয়ে	-4430
▁201	-4431
▁৭০	-4432
▁শাখার	-4433
▁রণ	-4434
▁ওঁ	-4435
▁টিকিট	-4436
বিন্দ	-4437
▁ধারণ	-4438
▁মিউ	-4439
▁রায়ের	-4440
াইজ	-4441
▁অ্যাকাউন্ট	-4442
▁নিষেধাজ্ঞ	-4443
▁দিয়া	-4444
▁ছুটে	-4445
▁কারাগারে	-4446
১৩	-4447
▁ময়মনসিং	-4448
▁সংস্কৃতি	-4449
িদুল	-4450
▁ঝাঁ	-4451
▁গেম	-4452
পো	-4453
▁নবী	-4454
▁ফেরার	-4455
▁পড়ছে	-4456
▁করত	-4457
▁একাদশ	-4458
▁অট	-4459
দ্বন্দ্ব	-4460
▁আফগান	-4461
▁দুন	-4462
ংসা	-4463
▁টেনে	-4464
▁কর্মচার	-4465
▁ভাইস	-4466
▁আকর্ষণ	-4467
ৃতির	-4468
▁হয়েছিলেন	-4469
▁চাকর	-4470
ধ্যায়ের	-4471
▁টিভি	-4472
▁অধ্যক্ষ	-4473
পক্ষে	-4474
▁অসহ	-4475
▁ওকে	-4476
▁দেখুন	-4477
▁সিল	-4478
▁বক্তব্যে	-4479
রাং	-4480
েক্টর	-4481
ূহ	-4482
▁বলেছে	-4483
▁ডেভ	-4484
▁পেঁয়াজ	-4485
▁টেলিভ	-4486
▁এলে	-4487
▁প্রতিবেশ	-4488
▁কলেজে	-4489
কারের	-4490
▁চারটি	-4491
▁শী	-4492
িজের	-4493
শুর	-4494
▁দুর্গ	-4495
েশনে	-4496
▁স্বর্ণ	-4497
▁নাগাদ	-4498
▁হাসি	-4499
▁ডিগ্রি	-4500
োসিয়ে	-4501
▁প্রের	-4502
▁আনুষ্ঠানিক	-4503
াত্ত	-4504
▁আত্মীয়	-4505
▁প্রয়োগ	-4506
▁চলতে	-4507
▁অবশেষে	-4508
▁লক্ষ্ম	-4509
▁নক	-4510
▁শিক্ষার্থীরা	-4511
দ্দিক	-4512
▁বললাম	-4513
িসহ	-4514
শো	-4515
▁মেহের	-4516
▁হজ	-4517
▁ছবিটি	-4518
▁জিজ্ঞাস	-4519
▁নেট	-4520
▁অত্যা	-4521
▁চাহিদা	-4522
▁পরবর্ত	-4523
াজিত	-4524
▁সাধারণত	-4525
▁সাফল্য	-4526
▁প্রসঙ্গত	-4527
▁আধিকারিক	-4528
▁শুরুর	-4529
▁ত্রি	-4530
▁পাতা	-4531
োপাধ্যায়ের	-4532
▁পাচার	-4533
▁১৯৮	-4534
িত্তিক	-4535
ৃদ্ধ	-4536
গির	-4537
বাই	-4538
▁আছি	-4539
▁অক্ষ	-4540
▁বর্ধ	-4541
▁করলাম	-4542
ণায়	-4543
▁রাসূল	-4544
▁নিখোঁজ	-4545
▁পড়বে	-4546
▁লাগবে	-4547
ia	-4548
▁ভ্রম	-4549
▁সিম	-4550
▁হয	-4551
ডেস্ক	-4552
পদ	-4553
▁সর্বশেষ	-4554
▁হোটেল	-4555
▁০২	-4556
▁নায়	-4557
▁স্বেচ্ছ	-4558
▁ভয়াবহ	-4559
▁মর্য	-4560
িয়ামে	-4561
▁of	-4562
বোধ	-4563
▁শুনতে	-4564
বিস্তারিত	-4565
▁করপোর	-4566
▁মতোই	-4567
বুকে	-4568
▁আনার	-4569
গঞ্জে	-4570
▁প্রযোজ	-4571
▁নিয়েও	-4572
▁শর্ত	-4573
▁সিপিএম	-4574
▁হামলায়	-4575
▁সেক্স	-4576
▁তোলার	-4577
োগান	-4578
▁পর্যট	-4579
ামো	-4580
পুরি	-4581
▁আপাতত	-4582
▁উৎসাহ	-4583
▁কৃষ্ণ	-4584
ফ্রন্ট	-4585
▁প্রিন	-4586
▁অস্বীকার	-4587
▁শাসক	-4588
ঙ্কের	-4589
▁দুর্বল	-4590
▁জাহাঙ্গ	-4591
▁বোমা	-4592
▁মাহবুব	-4593
▁লিমিটেড	-4594
ুনের	-4595
▁প্রবল	-4596
▁নম্ব	-4597
▁ফাইনালে	-4598
াবর	-4599
▁যেহেতু	-4600
▁প্রতিবেদনে	-4601
▁হান	-4602
▁গানের	-4603
▁!	-4604
কান	-4605
লগ্ন	-4606
▁ব্যবস্থাপনা	-4607
িদার	-4608
ম্মদ	-4609
▁প্রতিক্র	-4610
ফেস	-4611
▁যাঁরা	-4612
▁মুহাম্মদ	-4613
▁তত্ত্ব	-4614
▁দেখেন	-4615
ালার	-4616
▁হোসেনের	-4617
ঙ্ঘ	-4618
সঙ্গ	-4619
▁F	-4620
as	-4621
▁রাতের	-4622
শত	-4623
▁উপহার	-4624
▁থাকছে	-4625
টস	-4626
▁২০১৩	-4627
ol	-4628
▁ব্যার	-4629
▁পারলে	-4630
▁চিকিৎসার	-4631
▁পায়ে	-4632
▁ঈদের	-4633
▁কড়া	-4634
▁আগ্রহ	-4635
▁পশ্চিমবঙ্গ	-4636
▁ওয়েস্ট	-4637
▁নৌকা	-4638
▁ভয়ে	-4639
▁খাব	-4640
▁সৌর	-4641
▁ইতিমধ্যে	-4642
▁অভিভাব	-4643
রাই	-4644
▁০৩	-4645
▁নিরাপত্তার	-4646
▁প্রজন্ম	-4647
াজা	-4648
▁ন্যায়	-4649
▁Re	-4650
▁মঞ্জ	-4651
▁অজ্ঞ	-4652
ভার্স	-4653
▁সফরে	-4654
পাশে	-4655
িজে	-4656
▁উক্ত	-4657
▁পরিচালিত	-4658
▁বর্ণনা	-4659
মল	-4660
▁সড়কের	-4661
▁বিশ্বকাপের	-4662
০০০	-4663
▁কারা	-4664
▁ভিতরে	-4665
▁ইস	-4666
▁বিভাগে	-4667
েচ্ছা	-4668
▁কর্তৃপক্ষের	-4669
▁শূন্য	-4670
▁কুল	-4671
▁সেখানেই	-4672
জাম	-4673
▁ফরিদ	-4674
▁প্রকাশ্যে	-4675
তিক্রম	-4676
চ্চার	-4677
▁সরকারকে	-4678
▁এগুলো	-4679
▁নিয়ন্ত্র	-4680
▁রোড	-4681
▁ঝুল	-4682
াজে	-4683
▁ষড়	-4684
যাপন	-4685
▁অভিষ	-4686
▁তাড়	-4687
▁বিদায়	-4688
▁কর্মকর্তারা	-4689
বাড়ি	-4690
▁বেছে	-4691
▁ধর্ষণের	-4692
▁হেরে	-4693
▁ছুটি	-4694
▁সত্ত্বেও	-4695
▁ঊ	-4696
▁মোড়	-4697
▁ভোটে	-4698
চুর	-4699
▁ইঞ্জিনিয়ার	-4700
▁চুরি	-4701
ক্ষেত্রে	-4702
বিরোধী	-4703
▁৩২	-4704
হাসিক	-4705
এইচ	-4706
▁শাখা	-4707
▁ফলাফল	-4708
চন্দ্র	-4709
▁ইমরান	-4710
▁এখান	-4711
▁ছুঁ	-4712
▁ডান	-4713
▁সাঁ	-4714
▁উড়	-4715
▁যাত্রা	-4716
▁বাছ	-4717
▁আবে	-4718
▁ছিন	-4719
▁সঞ্জ	-4720
স্ম	-4721
▁আগেও	-4722
▁রান্না	-4723
▁পাট	-4724
▁মন্দির	-4725
▁পলা	-4726
হারের	-4727
▁রুম	-4728
▁গেলেও	-4729
▁টেব	-4730
▁এন্ড	-4731
▁বেশী	-4732
▁জাতি	-4733
হু	-4734
তলা	-4735
▁ব্রাহ্ম	-4736
▁উপদেষ্টা	-4737
▁জাহাঙ্গীর	-4738
বাচক	-4739
▁৮০	-4740
ore	-4741
▁খাতে	-4742
--	-4743
টিস	-4744
▁বললে	-4745
▁দিনাজ	-4746
▁স্বাক্ষর	-4747
্রীর	-4748
▁পর্দ	-4749
আল	-4750
▁সন্তানের	-4751
▁কমান্ড	-4752
▁ট্রে	-4753
ূর্বে	-4754
▁বার্ষিক	-4755
▁ইন্টারনেট	-4756
▁বন্য	-4757
▁আসল	-4758
▁যেত	-4759
▁দিয়েই	-4760
য়ী	-4761
▁শত্র	-4762
▁ধরতে	-4763
▁বিখ্যাত	-4764
▁সুতরাং	-4765
▁বৌ	-4766
▁মনির	-4767
ল্পনা	-4768
ীনে	-4769
▁একের	-4770
▁পুজো	-4771
▁বসু	-4772
ur	-4773
▁ধরণের	-4774
▁বরাদ্দ	-4775
ক্লা	-4776
▁মুখের	-4777
▁টুক	-4778
্যান্ডের	-4779
▁ইস্ট	-4780
বৃন্দ	-4781
▁সিস্ট	-4782
▁হ্যাঁ	-4783
▁প্রতিশ্র	-4784
▁বক্স	-4785
▁সংবাদদাতা	-4786
▁হচ্ছিল	-4787
▁থাকি	-4788
২৮	-4789
▁লেনদেন	-4790
▁h	-4791
ফিল	-4792
▁পাপ	-4793
▁ত্যাগ	-4794
াদু	-4795
▁ডু	-4796
মাস	-4797
▁ছাত্রলীগ	-4798
রাতে	-4799
▁কর্মীরা	-4800
▁এজন্য	-4801
▁নেতৃ	-4802
▁নামক	-4803
▁হচ্ছেন	-4804
▁অপহ	-4805
দিক	-4806
▁ম্যান	-4807
▁চিহ্নিত	-4808
▁ডিম	-4809
▁ক্যাপ	-4810
চ্ছিন্ন	-4811
▁নিয়ন্ত্রণে	-4812
▁হযরত	-4813
▁নেয়ার	-4814
গ্রী	-4815
নং	-4816
▁৩৭	-4817
াকের	-4818
▁খাঁ	-4819
▁লম্বা	-4820
▁সিদ্দিক	-4821
▁শুভেচ্ছা	-4822
প্লেক্স	-4823
▁সংযোগ	-4824
▁ক্ষতিগ্রস্ত	-4825
কর্মী	-4826
্বার	-4827
id	-4828
▁স্টেশন	-4829
▁অনুপ	-4830
▁আইনে	-4831
▁কম্পিউটার	-4832
▁ফখ	-4833
▁জেলে	-4834
পূ	-4835
াব্দ	-4836
▁ফাঁস	-4837
৪৫	-4838
▁ইনিং	-4839
দেব	-4840
ত্রী	-4841
▁নেবে	-4842
▁জিজ্ঞেস	-4843
▁মঞ্চ	-4844
জুড়ে	-4845
▁পাচ্ছে	-4846
▁মুজিবুর	-4847
▁উদ্দেশে	-4848
▁প্রতিমন্ত্রী	-4849
▁দেখানো	-4850
▁সংবিধান	-4851
াবলিক	-4852
চাই	-4853
▁সের	-4854
▁গোপাল	-4855
▁পৃথক	-4856
▁দা	-4857
▁কর্ণ	-4858
▁৪৫	-4859
াবী	-4860
▁প্রত্যক্ষ	-4861
ফাজ	-4862
▁রেখেছে	-4863
▁পাথর	-4864
▁প্রতিপক্ষ	-4865
▁আজিজ	-4866
▁পুরোপুরি	-4867
গিত	-4868
▁ওভারে	-4869
▁হবার	-4870
▁দাখ	-4871
▁ব্যাখ্যা	-4872
▁বিস্ম	-4873
▁নারীদের	-4874
▁ইতো	-4875
াদান	-4876
▁সদস্যের	-4877
▁লিগ	-4878
▁কারাদ	-4879
▁ঐতিহাসিক	-4880
লোড	-4881
▁রিয়	-4882
্সের	-4883
শির	-4884
▁সম্ব	-4885
▁ধাপ	-4886
▁হাবিব	-4887
য়েন	-4888
▁ওবায়	-4889
▁সমাবেশ	-4890
্ডার	-4891
▁খোঁ	-4892
▁ঐতিহ্য	-4893
▁পাল্টা	-4894
য়ং	-4895
▁অ্যাক	-4896
▁গরু	-4897
কেরা	-4898
▁স্বামীর	-4899
▁আরেকটি	-4900
▁আলোচনায়	-4901
ব্রত	-4902
োরের	-4903
িটন	-4904
ঘু	-4905
▁সেগুলো	-4906
▁সত্যিই	-4907
গামী	-4908
▁পর্যবে	-4909
পিয়ে	-4910
▁সুষ্ঠ	-4911
ac	-4912
▁আলমগীর	-4913
▁ক্লাবের	-4914
▁ঝড়	-4915
▁গাছের	-4916
▁ক্রীড়া	-4917
▁পঞ্চায়েত	-4918
▁অঞ্চল	-4919
োলার	-4920
▁বাজেট	-4921
▁দুর্ঘটনায়	-4922
গুলিতে	-4923
▁দিত	-4924
পথে	-4925
▁মির্জা	-4926
জুর	-4927
▁হাট	-4928
▁আর্জ	-4929
▁বিচ	-4930
▁ব্যাঙ্ক	-4931
▁মাস্টার	-4932
▁দিল্লির	-4933
▁ফেসবুকে	-4934
▁আইস	-4935
▁ভূমি	-4936
২৩	-4937
▁সেটাই	-4938
▁স্থগিত	-4939
জিৎ	-4940
্নার	-4941
▁বেশিরভাগ	-4942
▁ইকবাল	-4943
▁ঘন্ট	-4944
▁বাঘ	-4945
▁অঞ্চলে	-4946
▁প্রতিষ্ঠা	-4947
▁ভিত্তি	-4948
▁হাঁট	-4949
▁অতিথির	-4950
▁বিশ্বকাপে	-4951
▁পরিষে	-4952
▁অবরোধ	-4953
▁সুনাম	-4954
▁আইএস	-4955
▁গ্রুপের	-4956
ককে	-4957
▁এলাকাব	-4958
el	-4959
▁কর্তৃক	-4960
▁কারখান	-4961
▁অধীনে	-4962
▁চিৎ	-4963
▁অঞ্চলের	-4964
▁মশ	-4965
▁সেলিম	-4966
▁মুক্তির	-4967
ানুর	-4968
▁ওস	-4969
▁মাধ্যম	-4970
▁আরিফ	-4971
▁প্রতার	-4972
▁প্রতীক	-4973
▁গঙ্গ	-4974
▁শুনানি	-4975
টাতে	-4976
▁দফতর	-4977
▁সংখ্য	-4978
▁সিবিআই	-4979
▁পানির	-4980
▁মাসুদ	-4981
▁শ্ব	-4982
বারিক	-4983
▁সাম্প্রতিক	-4984
▁অভিযানে	-4985
▁সবকিছু	-4986
▁এক্ষ	-4987
▁রানা	-4988
▁গুঁ	-4989
চ্ছিলেন	-4990
ভব	-4991
জিং	-4992
▁অনুপ্র	-4993
▁লজ্জ	-4994
▁জরিমানা	-4995
শাস	-4996
ৃত্তি	-4997
▁রোহিঙ্গাদের	-4998
▁নগরীর	-4999
শৃঙ্খলা	-5000
▁চার্জ	-5001
▁পরিদর্শন	-5002
▁রাজনীতির	-5003
▁এমনি	-5004
রব	-5005
▁সাড়া	-5006
▁চীনের	-5007
▁মাশ	-5008
▁কৌ	-5009
▁সদ্য	-5010
▁সিরিজের	-5011
▁অপার	-5012
▁একাংশ	-5013
▁ছিলাম	-5014
▁3	-5015
▁ওজন	-5016
▁ভগ	-5017
▁খানিক	-5018
য়ক	-5019
▁বিমানবন্দ	-5020
▁মানবা	-5021
ঁটে	-5022
ওয়ার্ড	-5023
▁গুগ	-5024
ীতির	-5025
▁কমপ্লেক্স	-5026
▁চুপ	-5027
ুত্ব	-5028
▁বুকে	-5029
াইট	-5030
▁আলীর	-5031
▁আৰু	-5032
▁ব্যাক	-5033
▁বিছ	-5034
্জি	-5035
ঞ্চিত	-5036
▁প্রশংসা	-5037
▁সোনা	-5038
▁রিস	-5039
▁টের	-5040
▁সাফ	-5041
▁প্রতিনিধ	-5042
▁শের	-5043
বধ	-5044
ত্যাগ	-5045
▁শিক্ষার	-5046
▁কাটিয়ে	-5047
▁প্রাকৃতিক	-5048
▁বুল	-5049
▁নেতার	-5050
▁বাক	-5051
▁আসন্ন	-5052
ৱা	-5053
▁ফোনে	-5054
▁G	-5055
▁তোর	-5056
ছড়ি	-5057
▁বিক্র	-5058
▁অগ্ন	-5059
ানায়	-5060
বর্ধ	-5061
▁ছোট্ট	-5062
▁চালা	-5063
▁সক্রিয়	-5064
▁সবসময়	-5065
▁অসংখ্য	-5066
▁ওবায়দুল	-5067
াবাদী	-5068
ধারন	-5069
▁ইনস্টিটি	-5070
দানি	-5071
▁ফেলা	-5072
▁বাবু	-5073
▁তাছাড়া	-5074
▁কলা	-5075
▁করতেই	-5076
▁অভিযোগের	-5077
▁পারিবারিক	-5078
▁এশিয়া	-5079
▁আমেরিকার	-5080
▁ফুটবলার	-5081
▁বঙ্গবন্ধুর	-5082
▁সংরক্ষণ	-5083
▁শাসন	-5084
▁n	-5085
্যাটে	-5086
▁চেক	-5087
িপূর্ণ	-5088
▁অন্তর	-5089
▁আঙ	-5090
▁বরিশাল	-5091
ওনা	-5092
গরে	-5093
াহান	-5094
▁তল্লা	-5095
▁ওয়াস	-5096
▁ক্ষমা	-5097
▁স্ত্রীর	-5098
াজি	-5099
হির	-5100
▁বিশ্লে	-5101
▁মাংস	-5102
▁the	-5103
ালাল	-5104
শান	-5105
২৬	-5106
▁পরেও	-5107
▁বাড়তি	-5108
▁মোর	-5109
▁ব্যবহারের	-5110
▁অফিসের	-5111
▁দুর্দ	-5112
ক্ক	-5113
▁শৈ	-5114
ছুর	-5115
ীয়া	-5116
সুর	-5117
▁পারছেন	-5118
▁মানিক	-5119
▁ওয়েবডেস্ক	-5120
▁চেন	-5121
▁আবাস	-5122
▁বিচারক	-5123
চার্জ	-5124
▁মস্ত	-5125
▁ওয়ানডে	-5126
▁ক্যান	-5127
▁৩৬	-5128
▁প্রদর্শ	-5129
▁ডাকাত	-5130
লিত	-5131
▁নও	-5132
▁ইনিংস	-5133
▁প্রবাসী	-5134
▁ব্যবহৃত	-5135
শাদ	-5136
▁দায়ী	-5137
▁ম্যাজ	-5138
▁ইউনিভার্স	-5139
পেক্ষ	-5140
ীৰ	-5141
▁জন্মদিন	-5142
▁মালয়ে	-5143
্মু	-5144
▁ঝুঁকি	-5145
▁নাগরিকত্ব	-5146
▁মামুন	-5147
▁আড়াই	-5148
▁)	-5149
▁উন্নতি	-5150
▁সংসদের	-5151
ণি	-5152
ৎস	-5153
▁গিয়েছেন	-5154
▁বদল	-5155
ব্ধ	-5156
▁পার্ব	-5157
র্মা	-5158
▁চামচ	-5159
তনে	-5160
▁E	-5161
ম্য	-5162
শিপ	-5163
▁চট্টগ্রামের	-5164
▁হত্যাকা	-5165
▁ষড়যন্ত্র	-5166
▁বজায়	-5167
▁প্রতিদ্বন্দ্ব	-5168
▁করেও	-5169
বন্দর	-5170
▁উঠছে	-5171
▁স্পোর্ট	-5172
▁সুষ্ঠু	-5173
তারা	-5174
▁যেকোনো	-5175
▁চরিত্রে	-5176
বেলা	-5177
ভিত্তিক	-5178
▁রিক	-5179
▁সুদ	-5180
ব্যব	-5181
▁শপথ	-5182
▁নিষেধাজ্ঞা	-5183
▁পতাকা	-5184
▁পড়েছেন	-5185
▁কেননা	-5186
▁হবি	-5187
কাঠ	-5188
▁ক্ষমত	-5189
▁স্বীকৃতি	-5190
হাই	-5191
▁ক্যাল	-5192
াতন	-5193
▁দফতরের	-5194
▁সংকট	-5195
▁পানিতে	-5196
▁সরকারী	-5197
▁ফাউন্ড	-5198
▁জাক	-5199
▁রব	-5200
▁নির্দেশনা	-5201
▁কৌশল	-5202
▁টে	-5203
▁লাগল	-5204
▁দুর্ভ	-5205
▁খালি	-5206
াস্ত্র	-5207
▁অস্ত	-5208
▁পরিদর্শ	-5209
▁ইন্দ	-5210
িংয়ে	-5211
▁সিঙ্গ	-5212
ীর্ণ	-5213
▁শরী	-5214
▁ফুটে	-5215
টিক	-5216
▁পুলিশকে	-5217
ান্ট	-5218
▁মারধর	-5219
▁৯০	-5220
▁প্রেসক্লা	-5221
▁রবীন্দ্রনাথ	-5222
▁সৌন্দর	-5223
▁আয়োজনে	-5224
▁মুদ্র	-5225
ন্যাস	-5226
▁মোটরসাই	-5227
▁আসছেন	-5228
▁সেঞ্চ	-5229
▁সামনের	-5230
▁রংপুর	-5231
ঞ্চলিক	-5232
আরসি	-5233
▁চক্রবর্তী	-5234
▁করো	-5235
▁খত	-5236
▁আসাদ	-5237
▁সংসদে	-5238
▁ইয়াবা	-5239
কালের	-5240
▁বাংলায়	-5241
▁কর্পোর	-5242
▁সংখ	-5243
▁চিঠ	-5244
▁খাওয়ার	-5245
▁আব্দুর	-5246
▁মোহন	-5247
▁মিত্র	-5248
▁গঠিত	-5249
টারি	-5250
্রমে	-5251
▁জাফ	-5252
িটিয়ে	-5253
▁গাড়িতে	-5254
▁ভট্ট	-5255
▁কিছুক্ষণ	-5256
তুল	-5257
▁প্রতিবন্ধ	-5258
্দের	-5259
গরের	-5260
▁স্বাধীনতার	-5261
ঙ্গি	-5262
▁গর্ভ	-5263
▁Bang	-5264
▁ফ্লাই	-5265
▁দোকানে	-5266
▁ইঙ্গ	-5267
▁উপক	-5268
▁প্রতিশ্রুতি	-5269
▁খুঁজ	-5270
িল্লা	-5271
▁পাগ	-5272
▁শুরুতে	-5273
ীম	-5274
পন্থ	-5275
িশ্চ	-5276
▁ওরফে	-5277
পাশের	-5278
▁নিশ্চয়ই	-5279
শনে	-5280
তল	-5281
▁উইকেটে	-5282
▁News	-5283
▁অর্থমন্ত্রী	-5284
খাল	-5285
▁সিস্টেম	-5286
▁মুন	-5287
▁মানবাধিকার	-5288
যে	-5289
▁সমৃদ্ধ	-5290
শ্রী	-5291
▁আজাদ	-5292
▁তারই	-5293
খ্যান	-5294
▁৫০০	-5295
িডি	-5296
▁শতাধিক	-5297
▁কালের	-5298
▁ভেসে	-5299
দ্ভ	-5300
াবাদের	-5301
▁প্রাচীন	-5302
▁অ্যাম	-5303
▁বেগ	-5304
▁সড়কে	-5305
▁তৎপর	-5306
াইলের	-5307
িকর	-5308
▁দমন	-5309
ৎস্য	-5310
যথ	-5311
▁মাইক্র	-5312
▁পল্ল	-5313
ন্যাশনাল	-5314
▁ইট	-5315
▁০৪	-5316
ir	-5317
▁ভিস	-5318
▁বার্স	-5319
হাদ	-5320
▁দোয়া	-5321
▁বৃষ্টির	-5322
▁ইজ	-5323
্যাং	-5324
▁আবহাওয়া	-5325
▁পয়সা	-5326
াণের	-5327
▁গাজী	-5328
▁উজ্জ্বল	-5329
▁নীর	-5330
▁স্যার	-5331
▁করছিল	-5332
▁কাপড়	-5333
২৭	-5334
টেড	-5335
▁লোকে	-5336
▁যুক্তি	-5337
নেস	-5338
▁জমির	-5339
▁আশ্বাস	-5340
▁কর্তব্য	-5341
াতক	-5342
র্চা	-5343
▁বিপদ	-5344
▁আঞ্চলিক	-5345
ারী	-5346
▁আলাইহি	-5347
তাকে	-5348
াসীন	-5349
▁রশিদ	-5350
▁দাও	-5351
▁ফরম	-5352
▁ফখরুল	-5353
▁কামনা	-5354
▁পারব	-5355
▁সঙ্গীত	-5356
▁নিন্দ	-5357
ুরী	-5358
▁ভবনের	-5359
▁ওপরে	-5360
▁শুটিং	-5361
▁জনসং	-5362
▁লোকের	-5363
▁প্রফেস	-5364
▁বংশ	-5365
▁ব্রে	-5366
▁মিশ্র	-5367
▁মিয়ার	-5368
▁ক্ষুদ্র	-5369
▁নিত	-5370
▁আজও	-5371
▁অর্থবছ	-5372
▁উঁচ	-5373
▁দুর্ব	-5374
▁গার্ড	-5375
▁অস্ট্রেলিয়া	-5376
▁সহজেই	-5377
▁রাশিয়া	-5378
▁বিভাগীয়	-5379
▁সন্ত্রাসী	-5380
▁বানিয়ে	-5381
▁বৃদ্ধির	-5382
▁কয়েকদিন	-5383
▁ক্যামেরা	-5384
▁সবই	-5385
▁ইত	-5386
▁উন্নয়নে	-5387
▁আতঙ্ক	-5388
▁ফায়ার	-5389
▁রঙের	-5390
▁নৈ	-5391
▁অস্ট্রেলিয়ার	-5392
জিবি	-5393
▁তাৎ	-5394
ন্না	-5395
▁স্বাগত	-5396
▁পেন	-5397
▁৩৩	-5398
▁মার্	-5399
▁পৌরসভার	-5400
ামি	-5401
▁ন্যাশনাল	-5402
▁সন্ধান	-5403
▁ব্রাহ্মণ	-5404
▁তান	-5405
▁বয়ে	-5406
সেন্স	-5407
িবির	-5408
রিদ্র	-5409
▁সহযোগী	-5410
য়োজনে	-5411
রু	-5412
▁অনিয়	-5413
চ্ছেদ	-5414
▁চলেছেন	-5415
্নান	-5416
▁সাল্লাম	-5417
▁আলোচনার	-5418
▁পরিস্থিতিতে	-5419
▁কাত	-5420
▁অভিব	-5421
▁বন্দুক	-5422
▁দেখেছি	-5423
▁অ্যাডভোকেট	-5424
▁প্রতিষ্ঠিত	-5425
ঙ্কে	-5426
▁গন্ধ	-5427
াইয়ের	-5428
▁রাখুন	-5429
টোয়েন্ট	-5430
▁সংগীত	-5431
▁তদন্তে	-5432
▁পৃষ্ঠ	-5433
▁সিগ	-5434
▁ভাইরাল	-5435
বাবুর	-5436
▁ঘনিষ্ঠ	-5437
▁শামী	-5438
▁মুকুল	-5439
▁অনেকটাই	-5440
▁যথাযথ	-5441
ওসি	-5442
▁মরদেহ	-5443
az	-5444
▁হালকা	-5445
▁কানা	-5446
▁খায়	-5447
▁শরণ	-5448
▁আলাপ	-5449
▁প্রতিক্রিয়া	-5450
▁নই	-5451
▁আর্জেন্ট	-5452
▁সকলেই	-5453
▁ট্রাম্পের	-5454
▁যাদব	-5455
বিল	-5456
▁খুনের	-5457
▁মাত্রা	-5458
্লো	-5459
▁ঘোষণার	-5460
ভিল	-5461
প্রধান	-5462
ag	-5463
▁ঈশ্বর	-5464
বৃদ্ধ	-5465
▁মঞ্চে	-5466
▁তাজ	-5467
▁মেয়েকে	-5468
est	-5469
▁কমিউনি	-5470
▁নিচ্ছে	-5471
▁এঁ	-5472
বাজারের	-5473
▁গুলো	-5474
মাল	-5475
▁বিনা	-5476
▁স্থানীয়রা	-5477
হয়	-5478
▁সেন্টার	-5479
িম্প	-5480
▁বাজারের	-5481
▁ক্লাস	-5482
▁প্রিয়া	-5483
▁মোদীর	-5484
▁মেজ	-5485
▁অবদান	-5486
▁বিদেশে	-5487
▁কাছাকা	-5488
ীক্ষা	-5489
▁পেরিয়ে	-5490
▁জ্যো	-5491
▁জমিতে	-5492
পুল	-5493
▁মৎস্য	-5494
▁বিপর্য	-5495
▁ডাল	-5496
▁মোদি	-5497
▁খতিয়ে	-5498
ুয়	-5499
▁পরপর	-5500
▁চলমান	-5501
▁মহিলাদের	-5502
▁দাগ	-5503
▁খ্র	-5504
▁W	-5505
▁করবো	-5506
▁চট্টোপাধ্যায়	-5507
▁মতামত	-5508
ষে	-5509
▁ম্যানেজার	-5510
▁রপ্ত	-5511
▁কাছাকাছি	-5512
▁ইচ্ছ	-5513
ay	-5514
▁দিলীপ	-5515
▁ব্যথা	-5516
াদিল্ল	-5517
যাত্রা	-5518
▁হেড	-5519
▁ভরা	-5520
িখে	-5521
▁আমদানি	-5522
▁বিবৃতিতে	-5523
ময়ে	-5524
▁ওয়ার্ডের	-5525
▁ভারী	-5526
▁হার্ড	-5527
▁ইংরেজ	-5528
▁ফেডার	-5529
▁প্রফেসর	-5530
বিজ্ঞ	-5531
▁যানবাহ	-5532
প্রেস	-5533
স্তি	-5534
▁মহাপ	-5535
▁৩৪	-5536
▁অবসর	-5537
▁তদন্তের	-5538
▁সই	-5539
▁হাক	-5540
▁ধর্মের	-5541
দানের	-5542
▁অধিবেশ	-5543
▁কোম্পান	-5544
াবের	-5545
▁ইন্ডিয়া	-5546
▁ছাড়াই	-5547
মী	-5548
▁আমেরিকা	-5549
▁পণ	-5550
▁ইঙ্গিত	-5551
▁ফিল্ম	-5552
মুল	-5553
▁দিয়েছি	-5554
▁কথাও	-5555
▁একক	-5556
্রান্ত	-5557
▁দফায়	-5558
▁বরাবর	-5559
ষ্টার	-5560
▁জলের	-5561
ামিন	-5562
▁ঘণ্টার	-5563
ob	-5564
▁অভিষেক	-5565
▁উদ্বে	-5566
▁হরি	-5567
াসি	-5568
▁নন্দ	-5569
▁করছিলেন	-5570
ুব্ধ	-5571
▁বিএস	-5572
▁প্রয়োজনে	-5573
▁পক্ষের	-5574
▁বান্দ	-5575
▁পেট্র	-5576
▁বউ	-5577
টেলে	-5578
টেক	-5579
▁পারছে	-5580
য়িক	-5581
▁অদ	-5582
▁রচনা	-5583
ুনে	-5584
▁আলোক	-5585
▁নিহতের	-5586
▁বাসা	-5587
পাত্র	-5588
▁ভাবনা	-5589
▁এসেছিল	-5590
▁সংঘর্ষে	-5591
▁সুপারিশ	-5592
▁তালুক	-5593
▁স্টেডিয়ামে	-5594
▁পায়ের	-5595
যা	-5596
▁কবে	-5597
▁মাথার	-5598
▁মধু	-5599
রাও	-5600
▁বিকাশ	-5601
▁মতি	-5602
▁বন্দর	-5603
▁এলো	-5604
▁তাপমাত্রা	-5605
▁বিধানসভা	-5606
ভে	-5607
im	-5608
▁সঙ্গেই	-5609
র্ডার	-5610
▁ওয়াল	-5611
াইলে	-5612
র্জন	-5613
▁মুক্তিযুদ্ধের	-5614
ুরির	-5615
তিনি	-5616
▁মাটির	-5617
▁কট	-5618
িকেট	-5619
ধন	-5620
ig	-5621
যোগী	-5622
থের	-5623
▁৪৮	-5624
▁উপাদান	-5625
▁মেন	-5626
▁আফগানিস্ত	-5627
কেন্দ্র	-5628
▁কোহলি	-5629
পতির	-5630
▁শিক	-5631
▁যাওয়ায়	-5632
▁মিয়ানমারের	-5633
▁সম্ভবত	-5634
▁শোন	-5635
▁কানে	-5636
▁অনলাইনে	-5637
▁এক্ষেত্রে	-5638
▁সংলগ্ন	-5639
▁হাদী	-5640
▁সংসার	-5641
▁বৈধ	-5642
বাসীর	-5643
েম্বরে	-5644
▁দাখিল	-5645
▁কন্ট	-5646
▁কূ	-5647
▁বিচ্ছিন্ন	-5648
▁সালাম	-5649
▁হারে	-5650
▁উদাহ	-5651
▁ডাউন	-5652
▁শ্রেষ্ঠ	-5653
▁মার্কে	-5654
উন	-5655
৩২	-5656
un	-5657
▁সার্বিক	-5658
▁পুকুর	-5659
কৃষ	-5660
▁আছ	-5661
▁গোলা	-5662
▁ভদ্র	-5663
▁পুলিস	-5664
পাক	-5665
▁চেপে	-5666
▁ক্রিকেটে	-5667
▁প্রোগ	-5668
▁মোল	-5669
সুল	-5670
▁বহন	-5671
্বি	-5672
▁বলছি	-5673
▁পেস	-5674
▁তুই	-5675
▁আন্দোলনে	-5676
▁চাইছে	-5677
▁প্রতিযোগিতা	-5678
▁তারেক	-5679
ড়িতে	-5680
▁দুষ্ক	-5681
তাদের	-5682
স্টার	-5683
হাত	-5684
▁আর্ট	-5685
▁প্রেমের	-5686
শাল	-5687
▁ওভার	-5688
▁ডটকম	-5689
ারক	-5690
▁পরবর্তীতে	-5691
জিত	-5692
দ্ভুত	-5693
▁বিগত	-5694
ফর্ম	-5695
▁রাজীব	-5696
▁সাগর	-5697
▁অনুব	-5698
▁সম্পর্কের	-5699
▁বাড়াতে	-5700
▁রাউন্ড	-5701
▁সপ্তাহের	-5702
▁মিটার	-5703
▁চৌধুরীর	-5704
▁একেবারেই	-5705
৫৫	-5706
▁হেন	-5707
▁পাচ্ছেন	-5708
▁ইলেক	-5709
▁দর্শক	-5710
▁জলে	-5711
▁গ্রামী	-5712
োরা	-5713
▁টেস্টে	-5714
▁ট্রাস্ট	-5715
▁রাগ	-5716
▁সৌরভ	-5717
▁বলব	-5718
▁যাচ্ছিল	-5719
▁শিরোন	-5720
▁মেয়াদ	-5721
▁তফ	-5722
▁দাবী	-5723
্যাড	-5724
াহা	-5725
ন্দকার	-5726
▁আস্তে	-5727
▁বিদ্রো	-5728
দায়ের	-5729
▁কোর্টের	-5730
▁ভাবতে	-5731
াসার	-5732
▁পরিষেবা	-5733
▁পেলেন	-5734
▁নেত্রী	-5735
▁দাঁড়িয়েছে	-5736
▁পদ্ম	-5737
▁ক্যান্স	-5738
ভী	-5739
▁জোটের	-5740
▁হৃদয়	-5741
▁সম্পাদ	-5742
▁২০১২	-5743
▁স্বয়ং	-5744
▁নদীতে	-5745
▁ইতিহাসে	-5746
ষ্ট্রে	-5747
▁শ্রমিকদের	-5748
▁পূর্বে	-5749
▁বিজ্ঞপ্তি	-5750
ভূতি	-5751
▁ডোনাল্ড	-5752
▁সিরিজে	-5753
▁১৯৬	-5754
▁পর্যটন	-5755
▁লুট	-5756
▁যেটা	-5757
▁আত্মহত্যা	-5758
াফিক	-5759
▁জমে	-5760
▁এতো	-5761
▁উম	-5762
...]	-5763
▁হলেই	-5764
পিং	-5765
▁চ্যানেল	-5766
োষ্ঠ	-5767
▁পুঁজিব	-5768
ভূমি	-5769
▁খ্যাত	-5770
▁উত্তরপ্র	-5771
▁ঝাড়	-5772
::	-5773
ম্বে	-5774
▁নিউজিল	-5775
▁জয়ী	-5776
▁মনি	-5777
▁g	-5778
ৎকার	-5779
▁হয়র	-5780
জো	-5781
▁উত্তেজনা	-5782
▁হাফ	-5783
▁ব্যবধানে	-5784
ওয়ার্ক	-5785
লাল	-5786
▁বিবেচনা	-5787
▁হোটেলে	-5788
▁খোক	-5789
গোল	-5790
▁অভ্যন্ত	-5791
▁সিনেমার	-5792
▁রাষ্ট্রীয়	-5793
ch	-5794
দির	-5795
প্রকাশ	-5796
্টি	-5797
▁কর্মকর্তাদের	-5798
▁পঞ্চম	-5799
▁সাধারন	-5800
▁সমাবেশে	-5801
▁পিস	-5802
ঙ্গের	-5803
াগর	-5804
▁উপাচার্য	-5805
▁টেকনা	-5806
▁রেখেছেন	-5807
▁মোক	-5808
▁তিনজন	-5809
র্মে	-5810
▁নির্মিত	-5811
▁বলিউড	-5812
▁আপত্তি	-5813
বারে	-5814
▁মিষ্টি	-5815
▁খাতের	-5816
▁মিয়ানমার	-5817
▁ফেলতে	-5818
▁জুটি	-5819
lin	-5820
ুদের	-5821
▁প্রকার	-5822
▁হতাশ	-5823
াহার	-5824
▁যাচাই	-5825
চারের	-5826
দহ	-5827
ct	-5828
▁দ্বীপ	-5829
হাল	-5830
▁গ্রহণের	-5831
শেদ	-5832
▁বিশ্বে	-5833
▁কর্মকা	-5834
▁and	-5835
▁অসাধারণ	-5836
▁অবস্থার	-5837
▁সমিতি	-5838
শালী	-5839
▁হয়ত	-5840
▁ভুগ	-5841
২৯	-5842
▁জিজ্ঞাসা	-5843
্টে	-5844
▁নু	-5845
▁হাদ	-5846
▁যুবকের	-5847
▁দুল	-5848
▁নয়াদিল্ল	-5849
▁মহিলার	-5850
▁উপভোগ	-5851
▁বেড়	-5852
ৰি	-5853
▁বিনোদন	-5854
▁অসুবি	-5855
▁বোলার	-5856
ব্ল	-5857
▁ঘন্টা	-5858
▁দফা	-5859
মাধ্যমে	-5860
▁স্ক্র	-5861
▁বিকালে	-5862
াগুলো	-5863
▁অনুসারে	-5864
েন্দ	-5865
▁একথা	-5866
রাত	-5867
▁ফেন	-5868
▁চিৎকার	-5869
▁এসেছিলেন	-5870
চ্ছন্ন	-5871
▁এতদিন	-5872
▁কিনতে	-5873
সুমে	-5874
▁॥	-5875
▁কুমিল্লা	-5876
▁নিলেন	-5877
▁কথাই	-5878
▁এশ	-5879
রক্ষ	-5880
▁ইরানের	-5881
▁অপারে	-5882
িউল	-5883
▁পূজা	-5884
▁ভবিষ্যতে	-5885
োনে	-5886
▁নম্বরে	-5887
৪৭	-5888
▁যাবার	-5889
ul	-5890
▁মায়	-5891
▁সিলেটের	-5892
▁দায়িত্বে	-5893
▁Read	-5894
▁রেজিস্ট	-5895
▁মণ্ডল	-5896
▁মেশিন	-5897
▁আবিষ	-5898
▁কর্মরত	-5899
▁বিকাল	-5900
▁ব্যক্তিকে	-5901
▁কাঁদ	-5902
▁রোগী	-5903
্যানে	-5904
▁তৈরী	-5905
▁আওয়ামীলীগের	-5906
▁মাগ	-5907
▁প্রচে	-5908
▁গণমাধ্যম	-5909
ধর্ম	-5910
▁ফ্রি	-5911
▁সাহস	-5912
▁নাচ	-5913
▁সারাদেশ	-5914
▁বিপরীতে	-5915
▁মানববন্ধন	-5916
▁বাড়বে	-5917
▁পাসপোর্ট	-5918
▁গান্ধী	-5919
▁ওঠা	-5920
▁হেসে	-5921
▁সেনাবাহিনীর	-5922
ঘরে	-5923
▁ইলিশ	-5924
পিএস	-5925
যো	-5926
▁ভাইয়ের	-5927
▁দেশকে	-5928
কোর	-5929
▁সুমন	-5930
▁নেবেন	-5931
▁সম্প্রদায়ের	-5932
▁শিক্ষকদের	-5933
.)	-5934
ওয়্যার	-5935
লাইন	-5936
াতাড়ি	-5937
োঁয়া	-5938
▁ভাগ্য	-5939
▁যাকে	-5940
▁প্রদর্শন	-5941
▁যুক্তরাজ	-5942
▁গণতান্ত্রিক	-5943
▁চেত	-5944
▁বিজেপ	-5945
▁অন্যদের	-5946
▁পর্যায়ের	-5947
▁তুরস্ক	-5948
্ভব	-5949
▁তাহা	-5950
▁পোষ	-5951
▁মাজ	-5952
▁ওঠার	-5953
ভেন	-5954
▁ইনিংসে	-5955
▁অদ্ভুত	-5956
▁চালানোর	-5957
ূন	-5958
ve	-5959
▁বাড়তে	-5960
▁ইন্টারন্যাশনাল	-5961
▁সমাজে	-5962
▁ব্লক	-5963
▁পরিশোধ	-5964
মকে	-5965
▁চিকিৎসাধীন	-5966
▁গল	-5967
ঙ্গাল	-5968
▁পরিস্থিতির	-5969
▁ব্যাগ	-5970
▁রাজনীতিতে	-5971
▁মারাত্মক	-5972
▁২০১১	-5973
্বস্ত	-5974
▁উল্লেখযোগ্য	-5975
▁এসআই	-5976
▁দাশ	-5977
▁দুদ	-5978
▁শুয়ে	-5979
▁আপিল	-5980
▁টন	-5981
▁অনি	-5982
▁চেয়ারপারসন	-5983
জিদের	-5984
▁ভিতর	-5985
▁আলহাজ	-5986
▁ডিপ	-5987
▁জনতা	-5988
▁টাঙ্গ	-5989
▁পুজোর	-5990
▁যো	-5991
▁খাই	-5992
▁যাতায়	-5993
▁বাসের	-5994
▁জানুয়ার	-5995
▁পৃথিবী	-5996
▁ভবনে	-5997
▁ধৃত	-5998
▁জিজ্ঞাসাবাদ	-5999
▁অন্ধকার	-6000
▁দেখাতে	-6001
▁আমিও	-6002
▁অনুসরণ	-6003
▁চাওয়া	-6004
দারি	-6005
ডাক	-6006
▁জাহান	-6007
▁মজুম	-6008
ীবন	-6009
ap	-6010
▁বাদী	-6011
▁সেমি	-6012
▁অ্যাসোসিয়ে	-6013
▁পাঁচটি	-6014
▁কমেছে	-6015
▁চু	-6016
▁রেখ	-6017
):	-6018
এব	-6019
▁ম্যাজিস্ট	-6020
▁ময়ন	-6021
▁খাতুন	-6022
্লীল	-6023
▁চেহারা	-6024
▁স্বজন	-6025
াকারী	-6026
পিএ	-6027
ুদা	-6028
▁কারখানা	-6029
সম্ম	-6030
▁দেখলাম	-6031
▁চক	-6032
▁কার্যালয়	-6033
▁বিদ্যুত	-6034
▁হুমায়	-6035
কাতে	-6036
▁স্পর্শ	-6037
▁ঔ	-6038
▁ভাত	-6039
▁মেলে	-6040
ক্রমে	-6041
▁প্রকৌশলী	-6042
▁৩৮	-6043
▁মধ্যপ্র	-6044
৩৮	-6045
▁ইউনিট	-6046
▁চোর	-6047
▁কাজেই	-6048
পিট	-6049
ুমান	-6050
▁সফট	-6051
▁ছি	-6052
পুরুষ	-6053
▁উড়িয়ে	-6054
▁হতেই	-6055
▁আহ্বায়ক	-6056
▁ব্রাজিল	-6057
পাট	-6058
্জন	-6059
▁পালিত	-6060
▁নেতৃবৃন্দ	-6061
▁নামিয়ে	-6062
▁লাগছে	-6063
▁পুনরায়	-6064
▁স্পোর্টস	-6065
▁থেমে	-6066
▁ভরে	-6067
▁জাহাজ	-6068
▁কূট	-6069
য়েড	-6070
▁পারছি	-6071
▁একদল	-6072
▁নীচে	-6073
▁কমল	-6074
▁লাইসেন্স	-6075
▁মুখপাত্র	-6076
▁আগামীকাল	-6077
ড্র	-6078
▁স্বল্প	-6079
হ্ম	-6080
ফট	-6081
▁তেমনই	-6082
▁*	-6083
ষা	-6084
ুনা	-6085
▁জানার	-6086
▁বেদ	-6087
▁মম	-6088
াগ্র	-6089
▁ঐক্যফ্রন্ট	-6090
▁উত্থ	-6091
▁হিজ	-6092
▁উদাহরণ	-6093
িদ্র	-6094
▁মিলিয়ন	-6095
▁অন্তর্ভুক্ত	-6096
▁[...]	-6097
▁বগুড়া	-6098
▁ভীষণ	-6099
▁হয়৷	-6100
▁ট্রাই	-6101
▁ভাবেই	-6102
আমাদের	-6103
▁হোম	-6104
▁পড়লে	-6105
▁পৃথিবীতে	-6106
লৈ	-6107
▁বাগান	-6108
▁রোগীর	-6109
▁দেরি	-6110
▁যাত্রীদের	-6111
▁নির্যাতনের	-6112
অন	-6113
▁নিত্য	-6114
৪৮	-6115
▁ঢাক	-6116
▁হাওয়া	-6117
▁ভোরে	-6118
▁না৷	-6119
ইয়	-6120
▁সাইট	-6121
▁সোহেল	-6122
▁আলে	-6123
▁দেখলে	-6124
▁চালাতে	-6125
▁ইংল্যান্ডের	-6126
▁দেবী	-6127
▁ডল	-6128
▁দুর্নীতির	-6129
▁ভর্ত	-6130
নকে	-6131
▁পরিবর্তে	-6132
▁অনুশীল	-6133
▁চোট	-6134
▁শাহরুখ	-6135
▁রফিকুল	-6136
▁পেয়েছি	-6137
্ৰী	-6138
▁দম্প	-6139
ম্	-6140
▁মুশ	-6141
▁আমন্ত্রণ	-6142
▁নায়ক	-6143
▁ছো	-6144
▁শিবির	-6145
ot	-6146
▁নির্মাণের	-6147
▁মিলনায়	-6148
▁উপযুক্ত	-6149
ায়িত	-6150
▁ব্যাপারটা	-6151
▁খেয়াল	-6152
টিউ	-6153
us	-6154
▁মৃতদেহ	-6155
▁স্বচ্ছ	-6156
▁কার্যত	-6157
▁ইতোমধ্যে	-6158
▁অনুভব	-6159
ীড়	-6160
▁নগদ	-6161
▁মোস্তফা	-6162
▁বটে	-6163
▁প্রিম	-6164
▁এমনটাই	-6165
▁হেফাজ	-6166
▁সঙ্গী	-6167
▁তৎকালীন	-6168
▁সাল্লাল্লাহু	-6169
▁হামিদ	-6170
▁সমস্যায়	-6171
খম	-6172
দায়িক	-6173
▁ডিভ	-6174
▁নেতাকর্মীদের	-6175
▁অচ	-6176
ফু	-6177
▁বিসি	-6178
▁এমনকী	-6179
▁অসহায়	-6180
ামন্ত্রী	-6181
▁বলিয়া	-6182
ান্ডা	-6183
▁নামাজ	-6184
▁ঝাম	-6185
ওয়াত	-6186
▁গ্রামীণ	-6187
▁সংযুক্ত	-6188
িসির	-6189
▁সাইফুল	-6190
শাসন	-6191
▁লগ	-6192
▁গুপ্ত	-6193
াউল	-6194
▁আমলে	-6195
বিশ্বাস	-6196
▁প্রায়ই	-6197
▁পদত্যাগ	-6198
▁খাবারের	-6199
▁আইনি	-6200
ামূল	-6201
্টের	-6202
দারের	-6203
▁কমিয়ে	-6204
▁বললো	-6205
▁ধোনি	-6206
িসে	-6207
▁প্রশাসনিক	-6208
▁সন্তু	-6209
▁পত্রিকা	-6210
ut	-6211
িনাই	-6212
▁মেসি	-6213
▁টেন	-6214
▁রাসেল	-6215
েন্ডার	-6216
▁ময়মনসিংহ	-6217
সাহ	-6218
▁চাপা	-6219
েন্টের	-6220
▁যুদ্ধে	-6221
▁বাড়ানো	-6222
ৰত	-6223
জরে	-6224
▁ঘটনাস্থল	-6225
NE	-6226
পাই	-6227
ওয়াই	-6228
▁রাব	-6229
টিশ	-6230
▁নয়া	-6231
▁বিজয়ী	-6232
বাজারে	-6233
পর্য	-6234
▁রাশিয়ার	-6235
▁কায়	-6236
▁উল্টো	-6237
▁লুকিয়ে	-6238
▁লেখার	-6239
▁মোশার	-6240
▁তল্লাশি	-6241
”।	-6242
▁ইলেকট্র	-6243
যুদ্ধ	-6244
▁বলেছি	-6245
শিল্পী	-6246
▁কৰা	-6247
▁কালে	-6248
সিল	-6249
▁কাস্ট	-6250
▁উদ্বোধনী	-6251
▁যুদ্ধের	-6252
বুল	-6253
▁দিল্লিতে	-6254
টপ	-6255
▁অতীত	-6256
▁তবুও	-6257
াটির	-6258
▁তিনিই	-6259
৩৭	-6260
▁ওসমান	-6261
▁মাদর	-6262
▁বিতর্	-6263
েননি	-6264
▁বলিল	-6265
▁যাচ্ছি	-6266
▁খন্দকার	-6267
ফাইন	-6268
▁পাইল	-6269
দূত	-6270
▁মুখ্যমন্ত্রীর	-6271
▁জব্দ	-6272
▁কক্ষে	-6273
▁আস্থা	-6274
কর্মীদের	-6275
▁ভালোবাসা	-6276
▁গঠনের	-6277
৩৬	-6278
▁জম্মু	-6279
▁উদ্যোক্ত	-6280
্যব	-6281
▁বাংলাদেশকে	-6282
▁প্রত্যাহার	-6283
▁সেসব	-6284
▁অন্যায়	-6285
স্টিক	-6286
▁দুর্ঘটনার	-6287
▁ফসল	-6288
নির্বাচ	-6289
▁পাকিস্তানি	-6290
▁টাইমস	-6291
▁স্টক	-6292
▁জানিয়েছিলেন	-6293
▁কির	-6294
▁সত্যতা	-6295
গুড়ি	-6296
▁বাছাই	-6297
▁মীর	-6298
▁অসম্ভব	-6299
▁কমান	-6300
▁ডির	-6301
▁শ্বাস	-6302
▁শাক	-6303
▁করলো	-6304
▁চুম	-6305
্যোগ	-6306
▁দায়ে	-6307
শক্তি	-6308
ড়িয়া	-6309
কাম	-6310
▁অংশে	-6311
মেয়ে	-6312
▁যানজ	-6313
▁ওয়েবসাইট	-6314
কন	-6315
▁সময়ই	-6316
▁সশ	-6317
▁বিপ্লব	-6318
▁উৎসবের	-6319
▁নার্স	-6320
▁তালুকদার	-6321
▁দপ্তর	-6322
▁মেহেরপুর	-6323
▁ডুবে	-6324
▁পাবলিক	-6325
▁অগস্ট	-6326
▁ইভ	-6327
▁এসেছি	-6328
ox	-6329
য়ান	-6330
▁নাসির	-6331
▁রইল	-6332
▁জার্মান	-6333
▁বাইরের	-6334
▁বড়ো	-6335
সাং	-6336
▁অ্যান্ট	-6337
▁মিউজ	-6338
জম	-6339
▁ইসর	-6340
▁বিমানবন্দরে	-6341
▁মিশিয়ে	-6342
ওয়ের	-6343
▁রাজস্ব	-6344
▁শামীম	-6345
▁পেট	-6346
▁রোহিত	-6347
▁অপ্র	-6348
ation	-6349
▁দুষ্কৃত	-6350
াজ্য	-6351
ত্রের	-6352
▁ইতিহাসের	-6353
ers	-6354
▁ইন্স	-6355
▁দ্বার	-6356
▁উপস্থাপন	-6357
পন	-6358
▁ব্রিট	-6359
▁খবরে	-6360
▁সঞ্চাল	-6361
হত্য	-6362
▁মক	-6363
▁৩৯	-6364
▁দৃঢ়	-6365
▁গর্ব	-6366
▁শোভা	-6367
▁রহিম	-6368
▁মিজানুর	-6369
ক্ষণের	-6370
াফিজুর	-6371
▁অধিদপ্তরের	-6372
▁টেবিল	-6373
ex	-6374
▁সিঁ	-6375
গ্রহ	-6376
ওঁ	-6377
▁দাপ	-6378
▁উঁচু	-6379
▁ভিজ	-6380
▁স্টেশনে	-6381
▁বাবুল	-6382
ামুল	-6383
▁উত্তোল	-6384
eng	-6385
▁বেঞ্চ	-6386
▁কোটা	-6387
ৃতা	-6388
▁পুরসভার	-6389
তক	-6390
▁বহির	-6391
▁ক্রয়	-6392
▁সীম	-6393
▁নেশ	-6394
▁সমাপ্ত	-6395
▁মিলন	-6396
▁রুপ	-6397
▁সার্ক	-6398
▁হ্যার	-6399
▁সমাধ	-6400
▁উদযাপন	-6401
▁মেয়েরা	-6402
▁জাতিসংঘের	-6403
▁রুট	-6404
▁এড়িয়ে	-6405
▁বাচ্চা	-6406
▁সৌন্দর্য	-6407
▁পুরুষের	-6408
▁পির	-6409
▁বুঝি	-6410
▁ধারায়	-6411
▁এখনই	-6412
ণ্ডা	-6413
▁কর্মসং	-6414
পান	-6415
াতো	-6416
াকী	-6417
▁কারনে	-6418
▁সাজা	-6419
০১	-6420
৩৩	-6421
▁ভিট	-6422
▁সেনাবাহিনী	-6423
▁সম্বন্ধ	-6424
▁ছিট	-6425
▁তোলে	-6426
ডিট	-6427
▁গ্যাল	-6428
▁দিলাম	-6429
▁জখম	-6430
▁আহসান	-6431
▁স্টার	-6432
▁পরিচালনায়	-6433
▁পৰা	-6434
মন্ড	-6435
োনার	-6436
াতদন্ত	-6437
▁অবস	-6438
▁আইসি	-6439
▁গ্রন্থ	-6440
▁উত্তরে	-6441
▁ইন্ডাস্ট	-6442
টিয়া	-6443
▁হইবে	-6444
▁তেজ	-6445
▁পার্বত্য	-6446
▁বিনিময়ে	-6447
▁ইবনে	-6448
▁সম্পত্তি	-6449
▁অস্তিত্ব	-6450
▁ফাইনাল	-6451
▁হেঁটে	-6452
▁ক্রিকেটের	-6453
▁ভঙ্গ	-6454
▁সেজন্য	-6455
▁করেছিলাম	-6456
▁মেহে	-6457
জেক্ট	-6458
্লাস	-6459
▁ডেঙ্গ	-6460
িকো	-6461
সাল্লাল্লাহু	-6462
▁পরিশ্রম	-6463
▁নিঃশ	-6464
▁মাঠের	-6465
গাছ	-6466
▁ম্যানেজ	-6467
▁আগ্রহী	-6468
▁চমৎকার	-6469
▁প্রার্থীর	-6470
▁পর্বে	-6471
▁প্রথমবারের	-6472
টিও	-6473
ঝো	-6474
▁তাড়াতাড়ি	-6475
টেল	-6476
▁রুহুল	-6477
াংশ	-6478
খার	-6479
কারীর	-6480
▁মর্যাদা	-6481
▁কার্যালয়ের	-6482
▁সংবাদমাধ্যম	-6483
▁অ্যাট	-6484
▁ভট্টাচার্য	-6485
▁মোকাব	-6486
▁চত্ব	-6487
▁ব্যানার	-6488
▁দরিদ্র	-6489
▁২০১০	-6490
▁ময়নাতদন্ত	-6491
িয়ত	-6492
▁বঞ্চিত	-6493
▁সঙ্ক	-6494
▁মোহ	-6495
ইং	-6496
▁ক্লিক	-6497
▁চিনি	-6498
▁মন্ত্রিস	-6499
▁সকলে	-6500
▁কালাম	-6501
▁শুল	-6502
▁অভাবে	-6503
▁গাজীপুর	-6504
▁চলছিল	-6505
ভীব	-6506
▁ফিট	-6507
বাড়ী	-6508
▁উপস্থিতি	-6509
▁ওখানে	-6510
▁সমন্বয়	-6511
▁পাখি	-6512
▁উত্তম	-6513
▁শর্মা	-6514
▁প্রজাত	-6515
ওয়াজ	-6516
▁অনুষ	-6517
আলাইহি	-6518
▁কথাটা	-6519
▁সভার	-6520
▁মিনিটের	-6521
▁প্রত্যাশা	-6522
টোয়েন্টি	-6523
▁আলোর	-6524
▁সংগ্রাম	-6525
▁কবর	-6526
▁আশ্চ	-6527
ব্যা	-6528
▁খেলায়	-6529
▁জাকির	-6530
▁বীজ	-6531
▁মোটরসাইকেল	-6532
▁আবিষ্কার	-6533
▁স্মার্টফোন	-6534
▁ঠিকই	-6535
▁বাড়ানোর	-6536
▁অপেক্ষায়	-6537
▁প্রবাহ	-6538
▁৩০০	-6539
▁শীর্ষক	-6540
▁প্রাইভ	-6541
▁চাপে	-6542
▁এসএম	-6543
ন্ধান	-6544
▁কমান্ডার	-6545
▁ক্ষমতাসীন	-6546
▁নিরপেক্ষ	-6547
▁বলিউডের	-6548
▁মহল	-6549
▁কৈ	-6550
▁মিলনায়তনে	-6551
▁আলোচিত	-6552
▁ভবিষ্যৎ	-6553
াজনক	-6554
▁পার্শ	-6555
▁রয়	-6556
▁সোজা	-6557
▁মেদিন	-6558
▁মানবিক	-6559
▁মৌসুম	-6560
▁সালমান	-6561
▁বলবে	-6562
▁নির্দেশে	-6563
▁মহাকা	-6564
▁বিজ্ঞাপন	-6565
বিনি	-6566
▁লাগানো	-6567
▁অবল	-6568
▁মল	-6569
▁কেনার	-6570
▁কুকুর	-6571
▁উঠবে	-6572
▁মুক্তিযোদ্ধ	-6573
িয়েছেন	-6574
গড়	-6575
▁জাফর	-6576
▁হইল	-6577
▁অ্যান	-6578
▁ছিনতাই	-6579
▁কর্মসূচির	-6580
▁মেলায়	-6581
হাতে	-6582
▁এলেন	-6583
▁প্রচলিত	-6584
▁একর	-6585
▁বজ	-6586
▁দূতাব	-6587
▁স্বাদ	-6588
▁খাট	-6589
▁গুগল	-6590
▁নেটওয়ার্ক	-6591
▁টাইগার	-6592
▁যাবতীয়	-6593
▁আজকে	-6594
▁মহাপরি	-6595
▁আসামী	-6596
▁বৈশিষ্ট	-6597
ালয়	-6598
▁বোর	-6599
ভবনে	-6600
▁চাইছেন	-6601
লক	-6602
▁ফজল	-6603
িকভাবে	-6604
▁পরিবর্তনের	-6605
▁রোধ	-6606
▁সংখ্যক	-6607
▁নাব	-6608
দ্দীন	-6609
▁প্রতিযোগিতায়	-6610
▁পাঠানোর	-6611
▁কহ	-6612
৪২	-6613
াদির	-6614
▁সেকেন্ড	-6615
োচনা	-6616
▁হি	-6617
▁হ্র	-6618
▁ইয়া	-6619
▁ম্যাজিস্ট্রেট	-6620
৩১	-6621
াইম	-6622
তিকর	-6623
▁গেলাম	-6624
▁অলিম্প	-6625
কেশ	-6626
▁মেধ	-6627
▁মাছের	-6628
▁v	-6629
▁তির	-6630
▁রিভ	-6631
▁মহম্মদ	-6632
▁হোস	-6633
বাক	-6634
▁হলুদ	-6635
বর্ণ	-6636
▁ব্যবসায়ীদের	-6637
▁রণবীর	-6638
▁জোড়া	-6639
▁পুত	-6640
▁নিয়েছিলেন	-6641
▁মহারা	-6642
▁প্রতিষ্ঠাতা	-6643
▁বিজিবি	-6644
▁সহিংস	-6645
▁প্রচণ্ড	-6646
▁নেতাকর্মীরা	-6647
▁সাহা	-6648
▁প্রেরণ	-6649
▁কারাদণ্ড	-6650
▁৪২	-6651
▁বর্ণিত	-6652
▁ঘূর্ণ	-6653
▁নৃ	-6654
▁কাছেই	-6655
▁জনাব	-6656
▁ডিএসই	-6657
▁টেলিভিশন	-6658
তিন	-6659
হারে	-6660
▁ভরসা	-6661
বয়	-6662
▁মানের	-6663
▁মাকে	-6664
▁ত্রিপুর	-6665
▁বিরক্ত	-6666
esh	-6667
▁বিনামূল	-6668
▁ধোন	-6669
▁কমপক্ষে	-6670
▁রীতিমতো	-6671
▁সিবিএন	-6672
াপনের	-6673
▁বৈষ	-6674
▁তারপরে	-6675
▁ক্ষমতার	-6676
▁সঞ্জয়	-6677
▁তহ	-6678
▁নাট্য	-6679
▁সৃ	-6680
▁মোল্লা	-6681
▁স্টেট	-6682
পক্ষের	-6683
্ল্ড	-6684
▁হাইকোর্টের	-6685
▁প্ৰতি	-6686
WS	-6687
মানুষ	-6688
▁সিএন	-6689
ab	-6690
সারণ	-6691
বার্ষিক	-6692
▁একসময়	-6693
▁ট্রেনের	-6694
▁দাঁড়ায়	-6695
▁মোটা	-6696
▁বাসে	-6697
▁মুস্ত	-6698
ুরে	-6699
▁স্থির	-6700
▁উদ্বেগ	-6701
▁ইবন	-6702
▁৭৫	-6703
ভূম	-6704
▁আনিস	-6705
▁সংখ্যাল	-6706
পন্থী	-6707
উপ	-6708
▁সেরে	-6709
▁ভ্রাম	-6710
▁শরি	-6711
▁রাশ	-6712
ড়ানো	-6713
জয়	-6714
জাল	-6715
▁পাঞ্জ	-6716
কতা	-6717
িয়াক	-6718
Com	-6719
▁পুড়ে	-6720
▁সায়ে	-6721
িকান	-6722
▁লক্ষণ	-6723
▁মূর্তি	-6724
▁ন্য	-6725
▁রেস	-6726
▁অভ্যাস	-6727
▁রেড	-6728
ুলিয়া	-6729
▁পিক	-6730
▁বিদ্যালয়ে	-6731
▁ফেলেছে	-6732
▁কুড়ি	-6733
ত্তম	-6734
▁মাইল	-6735
▁অষ্ট	-6736
▁কই	-6737
▁ভ্রমণ	-6738
▁আবেগ	-6739
রার	-6740
▁ধারে	-6741
▁ভাষার	-6742
ww	-6743
▁সীমান্তে	-6744
▁অনুমান	-6745
ক্টর	-6746
▁নিযুক্ত	-6747
▁মজুমদার	-6748
▁রওনা	-6749
বিদ্ধ	-6750
বস্ত	-6751
▁করলেই	-6752
ফির	-6753
▁দুজনের	-6754
▁বন্ধুদের	-6755
▁বিক্রির	-6756
ৃত্য	-6757
▁জলা	-6758
▁দেখবেন	-6759
▁লড়	-6760
▁বিমানবন্দর	-6761
▁হেম	-6762
৪১	-6763
▁আইনশৃঙ্খলা	-6764
▁উল্লাহ	-6765
▁কেড়ে	-6766
▁শিক্ষাব	-6767
▁পছন্দের	-6768
▁পণ্যের	-6769
▁পশু	-6770
▁ত্রাণ	-6771
▁মৌলভীব	-6772
▁ব্যবসায়ীরা	-6773
▁দণ্ড	-6774
▁মন্ড	-6775
ভির	-6776
লস	-6777
যান	-6778
▁এখানেই	-6779
▁টেম	-6780
▁to	-6781
▁বৈঠকের	-6782
▁বৈশাখ	-6783
▁মোতা	-6784
▁নদ	-6785
্ধব	-6786
▁৫৫	-6787
▁টপ	-6788
▁ইনচার্জ	-6789
▁আদিব	-6790
▁ওয়াশ	-6791
azar	-6792
▁র‍	-6793
▁রিয়াল	-6794
▁মানুষদের	-6795
▁সাময়িক	-6796
▁মেজর	-6797
▁সেখানকার	-6798
NEWS	-6799
প্ল	-6800
▁ছেলেকে	-6801
েম্বরের	-6802
▁শরীফ	-6803
▁ডাউনলোড	-6804
▁সুলতান	-6805
▁ভ্রাম্য	-6806
▁বোলিং	-6807
রিটি	-6808
েন্টে	-6809
sb	-6810
▁রাষ্ট্রের	-6811
ুশ	-6812
▁অভিনন্দন	-6813
▁তুলেছেন	-6814
▁পদ্ধতিতে	-6815
▁যুবলীগের	-6816
▁ধরার	-6817
▁স্বার্থে	-6818
▁সাহায্যে	-6819
▁আয়ের	-6820
▁দ্বি	-6821
▁বাপ	-6822
▁এলাকাবাসী	-6823
▁লিটন	-6824
▁জয়ন	-6825
্য়	-6826
িয়াছে	-6827
▁আফ্রিকার	-6828
▁মুখোপাধ্যায়	-6829
▁ইন্দ্র	-6830
▁স্বভাব	-6831
েপ	-6832
বিধ	-6833
▁বিতর্কিত	-6834
▁বন্যা	-6835
▁কোলে	-6836
▁বেড়া	-6837
▁রেজিস্ট্র	-6838
▁ওয়াসাল	-6839
৩৪	-6840
▁২০০৯	-6841
▁একদম	-6842
▁আল্লাহ্	-6843
▁ফিরতে	-6844
▁রাসূলুল্লাহ	-6845
কাৰ	-6846
▁ঝিনাই	-6847
▁দুর্দান্ত	-6848
গুলিকে	-6849
নিম	-6850
গাজ	-6851
▁কিছুতেই	-6852
▁তত্ত্বাব	-6853
টিই	-6854
▁কুক	-6855
▁রোগের	-6856
▁ইশ	-6857
▁::	-6858
ক্ল	-6859
▁এরশাদ	-6860
ck	-6861
▁মাতৃ	-6862
▁ফাই	-6863
▁0	-6864
▁হুঁ	-6865
এসআই	-6866
▁প্রাইভেট	-6867
দানে	-6868
▁লড়াইয়ে	-6869
▁কৰে	-6870
▁এক্সপ্রেস	-6871
▁প্রবণ	-6872
্রাট	-6873
▁প্রার্থীদের	-6874
▁ফান্ড	-6875
▁পারভ	-6876
▁ক্লিন	-6877
▁পাহাড়ের	-6878
▁মৃত্যুদ	-6879
▁করানো	-6880
▁হির	-6881
▁উঠেছিল	-6882
▁তারিখে	-6883
▁ছায়া	-6884
▁শুল্ক	-6885
▁০৯	-6886
▁সেমিফাইন	-6887
▁মঞ্জুর	-6888
▁কোরিয়ার	-6889
▁নেপ	-6890
াদুর	-6891
▁মল্ল	-6892
▁ট্রান্স	-6893
▁সম্মুখ	-6894
▁সিআই	-6895
▁সাউ	-6896
oo	-6897
ীরের	-6898
লাতে	-6899
▁পদার্থ	-6900
স্তা	-6901
▁পরিসং	-6902
▁প্রতিবেশী	-6903
▁খানিকটা	-6904
▁জোরে	-6905
▁লঞ্চ	-6906
▁ফার্ম	-6907
▁ধরেন	-6908
ঙা	-6909
সনের	-6910
▁পড়াশোনা	-6911
▁পাননি	-6912
োনো	-6913
বিনিময়	-6914
মালা	-6915
বাড়িয়া	-6916
▁ঘা	-6917
চনায়	-6918
শাহ	-6919
▁ছাত্রছাত্রী	-6920
▁ভ্যান	-6921
▁ইরান	-6922
▁পারিনি	-6923
▁সেঞ্চুরি	-6924
▁শত্রু	-6925
▁বইয়ের	-6926
▁তলায়	-6927
▁শুরুতেই	-6928
বিন	-6929
▁ইন্ডিয়ান	-6930
▁সমঝো	-6931
প্রযুক্ত	-6932
▁ক্রমশ	-6933
▁গেলো	-6934
▁আকাশে	-6935
▁ট্যাক্স	-6936
▁নিৰ	-6937
▁ইসলামিক	-6938
▁অনির	-6939
▁আবেদনের	-6940
▁পাকা	-6941
▁পরদিন	-6942
▁টেক্স	-6943
▁নেতৃত্বাধীন	-6944
▁ভূমিকম্প	-6945
▁তোলেন	-6946
um	-6947
▁দেয়নি	-6948
ভর	-6949
▁বিরোধিতা	-6950
em	-6951
▁আমান	-6952
▁তামিম	-6953
▁বলুন	-6954
▁বাঁধা	-6955
▁ছাড়িয়ে	-6956
▁জন্	-6957
▁জগত	-6958
চারী	-6959
▁নিন্দা	-6960
▁যোগ্যতা	-6961
▁ধা	-6962
▁পর্যাপ্ত	-6963
▁বাঁচাতে	-6964
▁4	-6965
▁আকার	-6966
৪৯	-6967
▁নাহ	-6968
▁যশোর	-6969
▁আড্ড	-6970
৩৯	-6971
▁জেন	-6972
০৫	-6973
▁কথার	-6974
▁লঙ্ঘ	-6975
▁পরাজিত	-6976
▁দাদা	-6977
িষ্ক	-6978
▁তালিকাভুক্ত	-6979
▁খোল	-6980
▁সেট	-6981
▁ইউনিয়নে	-6982
▁নড়	-6983
সমূহ	-6984
▁প্রকৃতি	-6985
▁ঠিকানা	-6986
।[	-6987
▁পায়নি	-6988
▁অপহরণ	-6989
▁পড়েছিল	-6990
▁ফয়	-6991
▁নয়াদিল্লি	-6992
▁বুঝিয়ে	-6993
▁দুর্বৃত্ত	-6994
▁ইতিবাচক	-6995
▁কক্ষ	-6996
▁সম্ভাব্য	-6997
▁প্রমাণিত	-6998
েশ্বর	-6999
▁ইয়ে	-7000
▁কেউই	-7001
▁প্রেমিক	-7002
রাঃ	-7003
৫২	-7004
য়েত	-7005
▁মসজিদের	-7006
ার্ভ	-7007
▁অভিজ	-7008
▁ট্রাফিক	-7009
nd	-7010
▁ঝাল	-7011
▁গৃহবধ	-7012
▁মুল	-7013
▁সভ্য	-7014
▁হাকিম	-7015
▁পর্যাল	-7016
▁শীর্ষে	-7017
াজারে	-7018
৪৬	-7019
যোগে	-7020
▁ঢো	-7021
▁হারুন	-7022
▁পিত	-7023
▁৪৭	-7024
▁কুষ্ট	-7025
▁পাত্র	-7026
▁আবাসিক	-7027
▁মুসলমানদের	-7028
▁নাজমুল	-7029
হো	-7030
▁উত্তরা	-7031
▁সহ্য	-7032
▁ব্যারিস্টার	-7033
েষ্ঠ	-7034
▁জোগ	-7035
অব	-7036
▁আন্তরিক	-7037
▁উইল	-7038
▁এক্সচে	-7039
▁ধূ	-7040
▁সংগ্রহের	-7041
▁গোষ্ঠী	-7042
ফারেন্স	-7043
▁স্পেশ	-7044
sbazar	-7045
oxsbazar	-7046
▁প্রবাস	-7047
▁ভূমিকায়	-7048
▁জ্বল	-7049
▁চাঞ্চল	-7050
▁ইব্র	-7051
িতেই	-7052
্সি	-7053
▁রাখবেন	-7054
▁কক্সবাজারনিউজ	-7055
oxsbazarNEWS	-7056
ারেট	-7057
াগড়া	-7058
▁সার্ব	-7059
খানি	-7060
▁অবলম্ব	-7061
▁একদিকে	-7062
▁বাঙালির	-7063
▁বার্ত	-7064
▁মসজিদে	-7065
▁বাইক	-7066
▁ডেম	-7067
▁অন্যের	-7068
▁নোয়া	-7069
স্থানে	-7070
মাধ্যমের	-7071
▁প্রোগ্রাম	-7072
▁কেঁ	-7073
engal	-7074
মুখী	-7075
িজি	-7076
▁তম	-7077
▁সাতক্ষ	-7078
’’	-7079
ীর্ত	-7080
▁বিনামূল্যে	-7081
▁স্লোগান	-7082
▁স্ত্রীকে	-7083
▁গ্রী	-7084
পুটি	-7085
▁অজ্ঞাত	-7086
▁লিগের	-7087
▁ডিভাই	-7088
▁সম্পর্কিত	-7089
▁blo	-7090
িচ	-7091
্টু	-7092
▁প্রার্থনা	-7093
▁ডুব	-7094
▁হয়েছে৷	-7095
▁সাহিত	-7096
▁উচ্চার	-7097
▁তারাই	-7098
স্থিত	-7099
▁খ্রিস্ট	-7100
▁ভুট	-7101
▁পাকিস্তানে	-7102
▁ধানের	-7103
বাংলাদেশ	-7104
▁সায়	-7105
▁চত্বরে	-7106
ভারত	-7107
▁গবেষণায়	-7108
▁অঙ্ক	-7109
▁এইসব	-7110
▁কিউ	-7111
▁জিয়াকে	-7112
▁তাঁহার	-7113
▁পদক	-7114
▁শ্বশুর	-7115
▁যানবাহন	-7116
▁মুগ্ধ	-7117
▁ভ্র	-7118
▁রকমের	-7119
▁চমক	-7120
▁নিলে	-7121
▁জামায়াত	-7122
▁আসুন	-7123
েকের	-7124
নীতিক	-7125
শ্ব	-7126
▁দুর্যোগ	-7127
▁ফাইল	-7128
▁সাঈ	-7129
▁বাধ	-7130
▁ওপেন	-7131
▁প্রতিষ্ঠানে	-7132
ীহ	-7133
▁ইউনিভার্সিটি	-7134
০৮	-7135
▁রাষ্ট্রদূত	-7136
▁২০০৮	-7137
▁লোভ	-7138
▁প্রযুক্তির	-7139
▁মতবিনিময়	-7140
লাইট	-7141
▁লেগেছে	-7142
▁যুগে	-7143
▁বন্ধুর	-7144
ow	-7145
দো	-7146
্টিফ	-7147
নাট	-7148
▁পর্ষ	-7149
▁বিক্রে	-7150
লাস	-7151
াবাড়	-7152
▁দলটি	-7153
ামূলক	-7154
▁বলবেন	-7155
▁লিখতে	-7156
িয়ামের	-7157
ক্ষণে	-7158
▁সংবর্ধ	-7159
াঞ্চ	-7160
▁ভাঙচুর	-7161
!!	-7162
▁অনুভূতি	-7163
▁শোভ	-7164
রন	-7165
▁নিষ্প	-7166
▁বিচারের	-7167
▁ভিটামিন	-7168
▁উড়ে	-7169
▁ভিক	-7170
▁মহা	-7171
▁পোর্ট	-7172
▁ডেপুটি	-7173
▁মাদ্রাসা	-7174
▁চালান	-7175
▁বুকের	-7176
▁নিচ্ছেন	-7177
▁বাসিন্দারা	-7178
▁ডাকা	-7179
মেই	-7180
▁দিনাজপুর	-7181
▁বসিয়ে	-7182
▁ঠা	-7183
ালাম	-7184
▁যাও	-7185
্টেন	-7186
▁নজরে	-7187
াবর্ত	-7188
▁মৌসুমে	-7189
ুখী	-7190
▁জেগে	-7191
▁বসল	-7192
▁দলটির	-7193
গুপ্ত	-7194
িংক	-7195
▁উচ্ছ	-7196
ুড়ি	-7197
▁প্রাঙ্গ	-7198
▁অমর	-7199
▁বারের	-7200
ানু	-7201
▁শন	-7202
▁করণ	-7203
▁নেত্র	-7204
▁ওয়ার্ডে	-7205
▁এভাবেই	-7206
▁মও	-7207
▁সকলকে	-7208
▁ভেঙ্গে	-7209
াধিকার	-7210
▁হস্তান্তর	-7211
▁বায়ু	-7212
▁চেয়েও	-7213
▁৪৯	-7214
রীণ	-7215
োন্ন	-7216
▁নাও	-7217
কেন	-7218
▁সভাপতিত্ব	-7219
▁ওয়ার্ল্ড	-7220
আজ	-7221
ুমের	-7222
২০১৮	-7223
০৬	-7224
▁পশ্চিমবঙ্গের	-7225
▁চাকরির	-7226
▁আসর	-7227
▁প্রচারে	-7228
▁নিপ	-7229
▁ব্যাল	-7230
24	-7231
ha	-7232
▁টিউ	-7233
▁প্রাণী	-7234
কৃষ্ণ	-7235
▁বৌদ্ধ	-7236
▁মনোনীত	-7237
▁বুদ্ধি	-7238
▁বিনিময়	-7239
ার্ধ	-7240
▁সন্দ	-7241
ব্ব	-7242
▁৪৬	-7243
▁জনগোষ্ঠ	-7244
▁থাকত	-7245
▁ইস্যুতে	-7246
▁রিমান্ড	-7247
▁ওয়াসাল্লাম	-7248
বীণ	-7249
▁বেকার	-7250
গুন	-7251
▁আসেনি	-7252
হাজার	-7253
▁শতাব্দ	-7254
র্দ	-7255
▁সংখ্যালঘু	-7256
▁হয়েছি	-7257
▁মাধ	-7258
ভাস	-7259
▁ব্যক্তিত্ব	-7260
▁মাপ	-7261
▁বিড়	-7262
▁রোডের	-7263
▁আউ	-7264
▁দক্ষতা	-7265
৫৭	-7266
▁পরিবারকে	-7267
▁মেসে	-7268
▁১০টি	-7269
▁ইস্যু	-7270
▁কিড	-7271
▁উদ্দ	-7272
▁নিবন্ধ	-7273
▁জন্যও	-7274
▁ব্যক্তিদের	-7275
ৈর	-7276
হত্যার	-7277
▁পাড়া	-7278
০২	-7279
▁সাইকেল	-7280
শিক্ষা	-7281
▁সন্ধ্য	-7282
▁তাস	-7283
▁ঝুঁক	-7284
▁করাই	-7285
ডির	-7286
▁একান্ত	-7287
ওর	-7288
াসেব	-7289
▁দশম	-7290
▁তুলনা	-7291
▁অনুসন্ধান	-7292
▁সার্জ	-7293
▁কর্মকর্তার	-7294
▁উপন্যাস	-7295
▁কাপুর	-7296
▁সৃষ্টির	-7297
লিশ	-7298
মেন	-7299
০৯	-7300
▁অবি	-7301
কর্মীরা	-7302
▁নারায়ণগঞ্জ	-7303
েন্সি	-7304
▁এরপরই	-7305
৫৮	-7306
▁লিগে	-7307
▁অবিল	-7308
▁বন্ধুত্ব	-7309
িশনের	-7310
▁সেবার	-7311
▁পরিমাণে	-7312
৫৬	-7313
▁ঠান্ডা	-7314
োগ্র	-7315
হাম্ম	-7316
▁প্রিন্স	-7317
▁মান্নান	-7318
▁অক্স	-7319
ইসি	-7320
টিত	-7321
িশীল	-7322
সিন	-7323
▁গৌতম	-7324
স্থানের	-7325
▁ব্রিজ	-7326
▁শীতের	-7327
স্থার	-7328
▁বয়সের	-7329
▁পরিবেশন	-7330
্যায়ে	-7331
কলা	-7332
ীশ	-7333
▁ফট	-7334
▁বার্সেল	-7335
▁পিঠ	-7336
▁লাইফ	-7337
▁হবিগঞ্জ	-7338
▁এখানকার	-7339
▁চলার	-7340
▁অবহ	-7341
▁বাণিজ্যিক	-7342
▁হারা	-7343
▁সাজানো	-7344
▁শিশুকে	-7345
লীর	-7346
▁আঘ	-7347
▁ছুট	-7348
ন্নাথ	-7349
▁সৎ	-7350
▁দেখছি	-7351
▁অয	-7352
▁আসি	-7353
বড়	-7354
▁নিচের	-7355
▁গির	-7356
▁ফেলার	-7357
৪৪	-7358
সো	-7359
▁হ্যান্ড	-7360
বিহীন	-7361
মেট	-7362
▁করাতে	-7363
▁চাঞ্চল্য	-7364
▁রাখবে	-7365
য়োজনের	-7366
lad	-7367
্ণু	-7368
▁জজ	-7369
▁মজা	-7370
▁টুকরো	-7371
▁মাইক্রো	-7372
▁জিম্ব	-7373
▁রাজার	-7374
▁চাচ	-7375
▁গুলিতে	-7376
▁পরস্প	-7377
▁সেতুর	-7378
▁১৯৭১	-7379
▁বাবে	-7380
▁on	-7381
▁চমকে	-7382
▁নায়িকা	-7383
▁সংরক্ষিত	-7384
▁অবিলম্বে	-7385
ংকর	-7386
▁ফর্ম	-7387
▁দেশীয়	-7388
▁প্রয়াত	-7389
▁মোত	-7390
০৩	-7391
ঘ্র	-7392
▁সেক্রে	-7393
▁সার্টিফ	-7394
বঙ্গে	-7395
▁ধাক্ক	-7396
'।	-7397
০৭	-7398
ৃক্ত	-7399
িয়েল	-7400
▁রাজশাহ	-7401
▁কাণ্ড	-7402
▁আশ্চর্য	-7403
▁টেলিফ	-7404
▁লিও	-7405
▁রাতেই	-7406
▁দর্শকদের	-7407
▁আঁচ	-7408
▁একজনের	-7409
▁যুবলীগ	-7410
▁করপোরেশন	-7411
০৪	-7412
▁আরোপ	-7413
▁মানেই	-7414
্দিষ্ট	-7415
▁৪৩	-7416
▁চট্টগ্রামে	-7417
▁তখনও	-7418
িজীব	-7419
▁শিগ	-7420
দৌ	-7421
▁ফোনের	-7422
সই	-7423
ীর্থ	-7424
▁খোদ	-7425
▁নজির	-7426
ক্ষী	-7427
||	-7428
স্বর	-7429
▁দিনই	-7430
▁্যাল	-7431
▁নথি	-7432
▁বলেছিল	-7433
রফ	-7434
▁উপকার	-7435
▁মধ্যেও	-7436
▁শক্তির	-7437
▁ফিলিস্ত	-7438
▁ডিফ	-7439
▁পাঠান	-7440
▁সংশোধন	-7441
▁রিট	-7442
ুখে	-7443
▁মজার	-7444
▁দারিদ্র	-7445
▁শাকিব	-7446
▁বেড়াতে	-7447
▁দৃষ্টান্ত	-7448
▁মার্কেট	-7449
▁জনক	-7450
দাস	-7451
▁মৌলিক	-7452
▁ইঞ্চ	-7453
▁l	-7454
▁নবীন	-7455
▁আমায়	-7456
্বির	-7457
▁বিজ্ঞপ্তিতে	-7458
▁পরম	-7459
▁মহাসড়কের	-7460
▁অরুণ	-7461
▁চেন্ন	-7462
▁যোগদান	-7463
ৈত	-7464
▁জুল	-7465
▁পেসার	-7466
▁সাক্ষী	-7467
ার্থীদের	-7468
▁স্মারক	-7469
▁বোধহয়	-7470
▁কামর	-7471
ষ্টায়	-7472
▁আসরে	-7473
▁কাশ্মীরের	-7474
▁অপারেশন	-7475
▁প্রবীণ	-7476
▁হাড়	-7477
▁প্রথমবার	-7478
▁নীরব	-7479
বোর্ড	-7480
▁শুনেছি	-7481
▁কপি	-7482
▁দেখেছেন	-7483
▁দিলেও	-7484
▁চাইতে	-7485
▁ওয়াশিং	-7486
৪৩	-7487
▁সিদ্ধান্তের	-7488
▁টেলি	-7489
ub	-7490
▁কারন	-7491
▁অগ্নি	-7492
▁পার্থক্য	-7493
▁মেয়েটি	-7494
▁কেনা	-7495
▁পার্শ্ব	-7496
▁5	-7497
িশা	-7498
▁আবদুল্লাহ	-7499
▁ইস্টবে	-7500
তামূলক	-7501
▁বিরাজ	-7502
▁অতিক্রম	-7503
▁সমর্থকদের	-7504
▁লেখেন	-7505
▁তুম	-7506
▁ইউটিউ	-7507
▁অত্যাচার	-7508
▁০৫	-7509
▁গের	-7510
▁তেওঁ	-7511
▁সাথ	-7512
ডিং	-7513
▁আরবের	-7514
কেয়া	-7515
▁কোর্টে	-7516
▁মিঠ	-7517
▁প্রজন্মের	-7518
ক্ষমতা	-7519
▁কাব	-7520
▁ইস্ত	-7521
▁ওমর	-7522
▁কমাতে	-7523
▁তরফ	-7524
লাব	-7525
▁অবন	-7526
▁অটো	-7527
▁শব	-7528
▁যুবককে	-7529
▁প্রত্যক্ষদর্শ	-7530
▁বিগ	-7531
▁পারফর	-7532
▁সামগ্রী	-7533
▁ক্ষুব্ধ	-7534
লির	-7535
▁কাঁচা	-7536
হনের	-7537
ri	-7538
▁থাকুন	-7539
▁দুজনে	-7540
▁গুন	-7541
▁জগন্নাথ	-7542
▁২টি	-7543
চন	-7544
▁ন্যা	-7545
▁গেই	-7546
ছিলে	-7547
▁পদ্মা	-7548
▁অবিশ	-7549
▁ম্যাক	-7550
▁বোতল	-7551
দ্ৰ	-7552
▁খাম	-7553
▁শাল	-7554
▁হোয়	-7555
▁নওগাঁ	-7556
▁আবারো	-7557
▁এবারও	-7558
▁টেকন	-7559
▁ব্যাব	-7560
▁মুক	-7561
▁সমগ্র	-7562
্টন	-7563
▁এমনটা	-7564
▁আনসার	-7565
▁আহবান	-7566
▁ব্যান্ড	-7567
ৱাৰ	-7568
্রেস	-7569
▁স্যাম	-7570
▁৫৭	-7571
▁প্রদানের	-7572
▁কোহল	-7573
▁ডিরেক্টর	-7574
▁এজেন্ট	-7575
▁উস	-7576
ladesh	-7577
▁আচার	-7578
▁মোকাবে	-7579
▁কামরুল	-7580
▁অহ	-7581
▁নানান	-7582
ায়েল	-7583
▁Bangla	-7584
▁আলহাজ্ব	-7585
▁ছক	-7586
ঞ্জের	-7587
▁শাড়ি	-7588
▁ইউসু	-7589
▁শিরোপা	-7590
্যুত	-7591
▁গ্রাহকদের	-7592
▁আহতদের	-7593
▁প্রশ্নে	-7594
▁ঊর্ধ্ব	-7595
▁দেখছে	-7596
▁প্রদর্শনী	-7597
মনির	-7598
▁্যা	-7599
োয়ে	-7600
লাভ	-7601
▁মুছে	-7602
▁ফাট	-7603
▁অনুক	-7604
▁মেলার	-7605
▁মোতায়েন	-7606
▁কেম	-7607
বন্দি	-7608
▁ভিসা	-7609
ঠাক	-7610
▁অস্থায়ী	-7611
▁নোবেল	-7612
▁উৎসবে	-7613
ত্তির	-7614
▁আরাম	-7615
▁ঘাটতি	-7616
▁পত্রিকার	-7617
▁অটোর	-7618
চয়	-7619
▁ষষ্ঠ	-7620
▁রেজাউল	-7621
▁সম্বন্ধে	-7622
বদন্ত	-7623
▁লবণ	-7624
▁পাড়	-7625
রহ	-7626
লোয়ার	-7627
▁ব্লা	-7628
▁আগাম	-7629
▁দেখছেন	-7630
▁রোগে	-7631
াপি	-7632
ছার	-7633
▁সাফল্যের	-7634
▁শিগগির	-7635
সিম	-7636
৫৯	-7637
▁পলাতক	-7638
▁সাক্ষাৎকারে	-7639
▁ঐক্যবদ্ধ	-7640
▁পরিসংখ্যান	-7641
▁সারাদ	-7642
▁পরিপ্রে	-7643
ধারী	-7644
▁বাঁশ	-7645
▁তাড়া	-7646
▁সংবাদের	-7647
▁সুম	-7648
▁আবদুর	-7649
▁সিএ	-7650
▁বৈশিষ্ট্য	-7651
▁বৰ	-7652
▁রক্ষণ	-7653
▁ইনস্টিটিউট	-7654
▁সৌজন্য	-7655
▁পাঁ	-7656
▁লিমিটেডের	-7657
▁রক	-7658
▁সূচনা	-7659
▁প্রেক্ষিতে	-7660
▁জাপান	-7661
▁চড়	-7662
ভায়	-7663
িকেশন	-7664
▁অর্ধেক	-7665
▁পাড়ি	-7666
▁টুইটারে	-7667
▁কমিউনিটি	-7668
▁ট্যাব	-7669
▁চালাচ্ছে	-7670
▁ব্লগ	-7671
বিষয়ক	-7672
▁পুষ	-7673
▁মুশফিক	-7674
▁আয়াত	-7675
▁ইন্ডাস্ট্র	-7676
▁ডাই	-7677
▁বিস্ফোরণ	-7678
▁শট	-7679
▁হাদীস	-7680
▁অপরদিকে	-7681
ুরো	-7682
▁টায়	-7683
▁সম্মেলনের	-7684
▁ইভি	-7685
▁স্বপ্নের	-7686
রোগ	-7687
ালেও	-7688
▁ঠোঁ	-7689
▁আত্মবিশ্বাস	-7690
▁ভাট	-7691
▁পারফরম্যান	-7692
েবের	-7693
▁ভয়ঙ্কর	-7694
▁অক	-7695
▁অগ্রগতি	-7696
াবদ্ধ	-7697
▁ঘুষ	-7698
▁জ্বালানি	-7699
▁সম্পৃক্ত	-7700
▁ওপেনার	-7701
্লার	-7702
সাথে	-7703
▁আঙুল	-7704
▁বাসিন্দাদের	-7705
▁কিংবদন্ত	-7706
▁পরিদর্শক	-7707
▁বক্তৃতা	-7708
▁আব্দুল্লাহ	-7709
ঝে	-7710
▁উপেক্ষ	-7711
সাদ	-7712
▁মহার	-7713
▁জানাই	-7714
▁লাফ	-7715
▁গ্রাহক	-7716
▁মহাপরিচালক	-7717
▁তরুণী	-7718
▁সাম্প্রদায়িক	-7719
▁শ্রেণীর	-7720
▁প্রকৃতির	-7721
▁ব্যবস্থার	-7722
গি	-7723
▁ত্বকের	-7724
▁বক্তারা	-7725
গরি	-7726
▁আগুনে	-7727
▁আলু	-7728
▁অশ্ব	-7729
ঃপর	-7730
▁বজ্র	-7731
্বা	-7732
েরহাট	-7733
▁অশ্লীল	-7734
▁উপলক্ষ	-7735
▁ফাঁকা	-7736
▁দেননি	-7737
▁ব্রহ্ম	-7738
▁জৈ	-7739
▁কটাক্ষ	-7740
রাফি	-7741
▁লেখাপ	-7742
▁প্রদেশের	-7743
▁হাদিস	-7744
▁বলছিলেন	-7745
▁সর্বত্র	-7746
▁রিজার্ভ	-7747
৫৪	-7748
▁প্রেসক্লাবের	-7749
▁চেয়েছিলেন	-7750
▁সংশোধ	-7751
▁অবস্থানে	-7752
▁রেস্ত	-7753
▁ঘাঁ	-7754
▁উপকরণ	-7755
িয়ারের	-7756
▁সফটওয়্যার	-7757
▁মোড়ে	-7758
িটিং	-7759
▁উদ্ধৃতি	-7760
▁হস্তক্ষেপ	-7761
▁শিক্ষকের	-7762
▁অভিযানের	-7763
▁শাহাদ	-7764
▁মহেশ	-7765
▁সবজি	-7766
▁নাগরিকদের	-7767
▁ডেল	-7768
হতি	-7769
▁তিনিও	-7770
▁পিছু	-7771
রাম	-7772
▁যাতায়াত	-7773
▁হিসেব	-7774
বিআই	-7775
▁প্রভৃতি	-7776
্ডিং	-7777
▁আনে	-7778
▁মুনা	-7779
▁Bengal	-7780
▁চিকিৎসকরা	-7781
▁৪১	-7782
▁ক্ষয়	-7783
▁কৃষকদের	-7784
▁বাতিলের	-7785
তাল	-7786
▁বিবরণ	-7787
▁৫৬	-7788
▁যতই	-7789
▁খাওয়	-7790
▁তামিল	-7791
▁চামড়া	-7792
▁এশিয়ার	-7793
▁অস্বাভাবিক	-7794
▁নিজেও	-7795
▁সেক্ষেত্রে	-7796
▁বাড়ে	-7797
▁রাজ্জ	-7798
▁ফেব্রুয়ার	-7799
▁১১টায়	-7800
াতির	-7801
▁আওয়াজ	-7802
▁হোসাইন	-7803
রিচ	-7804
▁গোলের	-7805
▁পল্লী	-7806
▁চর্চা	-7807
▁ভাষণ	-7808
▁ইউনাই	-7809
▁লাঠি	-7810
▁নামতে	-7811
▁লন্ডন	-7812
স্	-7813
▁গেট	-7814
▁ট্রেনে	-7815
▁দেবার	-7816
▁ঘটছে	-7817
▁লাইনে	-7818
▁মুন্স	-7819
▁প্রতিরক্ষা	-7820
▁অবাধ	-7821
▁পরমাণ	-7822
োজিত	-7823
▁অস্থির	-7824
▁তি	-7825
▁পোল	-7826
its	-7827
▁শান্তিপূর্ণ	-7828
▁more	-7829
উল্লাহ	-7830
▁টিকে	-7831
▁পট	-7832
▁অপরাধের	-7833
▁অধিকারী	-7834
ালয়ে	-7835
াকু	-7836
সীম	-7837
▁ক্ষেত্রেই	-7838
▁ব্যতিক্রম	-7839
িতাভ	-7840
▁ভারতকে	-7841
▁৬৫	-7842
▁চেম্ব	-7843
▁বিশেষজ্ঞরা	-7844
▁সহযোগিতায়	-7845
সচিব	-7846
▁তালা	-7847
জাহ	-7848
▁প্রিমিয়ার	-7849
ংকার	-7850
▁জহির	-7851
our	-7852
▁রুবেল	-7853
▁কৃতজ্ঞ	-7854
▁কোয়ার	-7855
র্পণ	-7856
▁আধা	-7857
িয়ো	-7858
▁করতো	-7859
▁শিম	-7860
▁কুমিল্ল	-7861
▁শিল্পের	-7862
▁কোড	-7863
নেতা	-7864
▁অফার	-7865
াতেও	-7866
▁ছাত্রদের	-7867
চাঁ	-7868
▁পারত	-7869
ঙ্গার	-7870
▁নিউইয়	-7871
▁শ্রীলঙ্কা	-7872
▁মৃ	-7873
▁রেলের	-7874
▁প্রতিষ্ঠার	-7875
▁ফুলের	-7876
▁মনোনয়নপত্র	-7877
ছো	-7878
▁ভাঙা	-7879
গ্রামের	-7880
▁প্রবণতা	-7881
▁ঝামেলা	-7882
▁পরিপ্রেক্ষ	-7883
্বুল	-7884
াক্রমে	-7885
▁কাহিনী	-7886
▁টেকনাফ	-7887
▁ঘোষিত	-7888
▁স্বেচ্ছাসেব	-7889
▁রই	-7890
▁বিষয়ের	-7891
গড়া	-7892
▁টিপ	-7893
▁আশপাশের	-7894
▁ইহ	-7895
▁তারপরও	-7896
াহিম	-7897
ত্বের	-7898
▁পাথ	-7899
▁শিলি	-7900
▁প্রবন্ধ	-7901
োদিত	-7902
▁খস	-7903
▁পার্লাম	-7904
▁ডাঃ	-7905
▁রোনাল	-7906
ানিতে	-7907
▁বিহার	-7908
▁অধিদপ্তর	-7909
▁আব্দুস	-7910
▁রেলওয়ে	-7911
▁তালে	-7912
▁হানি	-7913
এসএস	-7914
নেত্রী	-7915
▁কর্মচারী	-7916
▁সুনীল	-7917
▁কাজটি	-7918
▁কার্ত	-7919
▁মমতার	-7920
▁হাফিজ	-7921
▁অভ্যন্তরীণ	-7922
নিং	-7923
▁রাঙ	-7924
▁বিমানের	-7925
▁মাহফ	-7926
র্চার	-7927
▁বসতে	-7928
▁ডেভেল	-7929
▁করিল	-7930
▁পয়েন্টে	-7931
▁৪৪	-7932
▁আওয়ামীলীগ	-7933
▁ঢাল	-7934
▁দোকানের	-7935
▁পরিবেশে	-7936
▁বানানো	-7937
▁শ্রীলঙ্কার	-7938
▁সংশোধনী	-7939
▁ডো	-7940
▁গরিব	-7941
সিসি	-7942
াহীন	-7943
ঢাকা	-7944
োচন	-7945
▁ব্যবসার	-7946
▁গাল	-7947
দ্বীপ	-7948
▁সশস্ত্র	-7949
িঝ	-7950
▁সিকিউ	-7951
▁প্রদেশ	-7952
যাত্রী	-7953
যুদ্ধে	-7954
▁মন্দিরে	-7955
বিলে	-7956
▁দৌড়ে	-7957
টেও	-7958
বৈ	-7959
কাজ	-7960
▁কক্সবাজারের	-7961
▁দেখায়	-7962
▁কথাবার	-7963
ব্যুন	-7964
▁স্ট্রাই	-7965
▁১১টার	-7966
▁সংসদীয়	-7967
▁উত্তোলন	-7968
▁পাড়ার	-7969
▁প্রকল্পে	-7970
▁নরম	-7971
▁পরিবারে	-7972
▁লইয়া	-7973
▁হাজারের	-7974
্বের	-7975
ঘাতী	-7976
▁পরগ	-7977
▁মাশরাফি	-7978
▁হায়দর	-7979
▁ঢুকতে	-7980
▁বক	-7981
▁বিদ্যমান	-7982
▁নির্মাতা	-7983
িয়াকে	-7984
▁সুরমা	-7985
ামাল	-7986
▁স্বাগ	-7987
▁কমপ্লেক্সে	-7988
▁প্রভাবশালী	-7989
▁আহব	-7990
▁মনোভাব	-7991
▁ধর্	-7992
নু	-7993
▁ক্যান্সার	-7994
▁সনদ	-7995
▁একইসঙ্গে	-7996
▁সফরের	-7997
▁নিবন্ধন	-7998
▁নিঃস	-7999
▁এনআরসি	-8000
▁নাইট	-8001
▁জল্পনা	-8002
সীমা	-8003
▁স্য	-8004
শায়	-8005
▁সেম	-8006
বিত	-8007
▁গড়ার	-8008
বাগান	-8009
স্র	-8010
▁বারান্দ	-8011
িনাকে	-8012
▁আসাদুজ্জামান	-8013
▁মেট্রো	-8014
▁শেষের	-8015
▁সাইফ	-8016
রাষ্ট্রে	-8017
▁সিভিল	-8018
▁স্তরে	-8019
▁জলপাই	-8020
▁বসানো	-8021
▁নাড়	-8022
▁শিক্ষামন্ত্রী	-8023
▁অতএব	-8024
▁ধুয়ে	-8025
মণ্ড	-8026
কলে	-8027
▁অতঃপর	-8028
▁উপলব্ধ	-8029
▁দিই	-8030
ছাত্র	-8031
▁মিট	-8032
কান্ত	-8033
▁for	-8034
▁হোল	-8035
▁রমজান	-8036
▁উম্ম	-8037
ংসের	-8038
▁সমর্থক	-8039
▁স্পিকার	-8040
▁ট্রাইব্যুন	-8041
▁কল্পনা	-8042
হুর	-8043
৫৩	-8044
▁কুপিয়ে	-8045
▁অনন্য	-8046
▁নারীকে	-8047
েঁ	-8048
▁জঙ্গিব	-8049
▁জাহিদ	-8050
▁দশক	-8051
▁জওয়ান	-8052
্গেট	-8053
▁আচম	-8054
▁চলাকালীন	-8055
▁অভিম	-8056
▁ব্রি	-8057
ment	-8058
▁শনাক্ত	-8059
▁ইউসুফ	-8060
এসপি	-8061
▁মোশাররফ	-8062
খাস্ত	-8063
ra	-8064
▁আকারে	-8065
▁বেঙ্গাল	-8066
▁সুরক্ষা	-8067
▁সর্	-8068
▁হিং	-8069
▁মেহ	-8070
▁একজনকে	-8071
▁লোকেরা	-8072
ালীন	-8073
▁ওঁর	-8074
▁দর্শন	-8075
▁ট্যা	-8076
▁বিদ্যুতের	-8077
▁স্বপন	-8078
▁আমদান	-8079
▁খোকন	-8080
৫১	-8081
ভেল	-8082
▁০৮	-8083
▁বাবাকে	-8084
▁মুঠ	-8085
▁অর্জুন	-8086
জ্ঞা	-8087
▁উন্মুক্ত	-8088
▁মধ	-8089
▁দখলে	-8090
▁ক্ষতিপূ	-8091
▁জিয়াউর	-8092
▁বয়স্ক	-8093
▁গল্পের	-8094
▁ওড়	-8095
▁রক্তের	-8096
▁জিও	-8097
▁স্থিত	-8098
▁সচেতনতা	-8099
বুর	-8100
▁পালনের	-8101
▁গোলাপ	-8102
▁হয়েই	-8103
▁জগতে	-8104
▁তুলেছে	-8105
▁কৰিব	-8106
▁জনপ্রিয়তা	-8107
নাল	-8108
বক	-8109
▁ইসরা	-8110
▁মেট	-8111
ডাঙ্গা	-8112
▁বিস্তার	-8113
▁এশিয়ান	-8114
▁সন্তানদের	-8115
▁ওঠেন	-8116
▁ব্র্যান্ড	-8117
ডেন	-8118
▁পোস্টার	-8119
▁ফ্রে	-8120
▁বর্জ	-8121
েরও	-8122
▁মর্গে	-8123
▁স্যাটে	-8124
▁সঙ্গেও	-8125
ওয়ালা	-8126
▁ধাক্কায়	-8127
িনির	-8128
▁দৌড়	-8129
মোহন	-8130
▁অপমান	-8131
এমপি	-8132
▁আখতার	-8133
▁দেওয়ায়	-8134
▁কয়লা	-8135
দিব	-8136
ম্বার	-8137
▁আসবেন	-8138
বান্	-8139
▁শেয়ারবাজার	-8140
ess	-8141
▁আকবর	-8142
▁প্রতিন	-8143
▁জানাচ্ছেন	-8144
ব্লিউ	-8145
▁কল্প	-8146
▁ঋণের	-8147
▁পেশায়	-8148
▁শাস্তির	-8149
▁উর	-8150
▁হাওড়া	-8151
▁উদ্ভাব	-8152
দিয়া	-8153
পাঠ	-8154
▁দিবসের	-8155
▁লক্ষ্মী	-8156
▁হুঁশিয়ার	-8157
▁বাস্তবায়নের	-8158
▁কখনোই	-8159
▁প্রদীপ	-8160
▁সংক্ষ	-8161
▁চুলের	-8162
ist	-8163
খবর	-8164
▁সময়েই	-8165
▁করপোরেশনের	-8166
▁প্রান্তে	-8167
▁টো	-8168
▁ম্যানেজমেন্ট	-8169
শিত	-8170
▁উন	-8171
▁৩টি	-8172
▁স্পেশাল	-8173
▁দেশি	-8174
▁কিছুর	-8175
▁একটাই	-8176
link	-8177
▁ছাত্রদলের	-8178
▁গরুর	-8179
▁অংশের	-8180
▁চারজন	-8181
▁পর্যায়	-8182
▁অমিতাভ	-8183
▁ইয়াস	-8184
ুড়	-8185
▁ব্লকের	-8186
পত্রের	-8187
▁স্বতন্ত্র	-8188
▁সহায়ক	-8189
▁টাইম	-8190
ূলে	-8191
▁বিন্দ	-8192
▁হোয়া	-8193
▁সেটাও	-8194
বিহার	-8195
▁বাঁকু	-8196
▁জাদু	-8197
▁সম্রাট	-8198
▁দিনব্যাপী	-8199
▁ফাউন্ডেশন	-8200
▁চুক্তির	-8201
▁গণতন্ত্রের	-8202
▁খড়	-8203
▁কেশ	-8204
▁অজানা	-8205
▁জ্যোতি	-8206
▁সিস	-8207
▁সম্মিল	-8208
▁জুনিয়র	-8209
ভারতীয়	-8210
▁মৃত্যুতে	-8211
▁চিকিৎসকের	-8212
▁ওয়াই	-8213
▁সুন্দরী	-8214
▁কর্নে	-8215
রিত	-8216
স্টে	-8217
▁দেখেই	-8218
বৃদ্ধি	-8219
▁টার্গেট	-8220
▁পরিপ্রেক্ষিতে	-8221
▁রেখেই	-8222
স্থায়	-8223
▁যুক্তরাষ্ট্রে	-8224
▁ভূত	-8225
▁দাঁত	-8226
▁বিধি	-8227
▁পরমাণু	-8228
খি	-8229
▁গোল্ড	-8230
▁নিয়োগের	-8231
▁সুবিধ	-8232
▁ফিন	-8233
▁রোগীদের	-8234
▁চেয়েছেন	-8235
▁রত	-8236
▁৫২	-8237
ind	-8238
▁গবেষক	-8239
▁ডিজাইন	-8240
▁প্রিয়াঙ্কা	-8241
▁The	-8242
▁গ্রহণযোগ্য	-8243
▁দিবে	-8244
▁ফজ	-8245
▁শিক্ষিত	-8246
▁ডার	-8247
▁নোটিশ	-8248
▁ফেলেন	-8249
▁দ্রব্য	-8250
বিজ্ঞান	-8251
▁বিশ্লেষ	-8252
নিম্ন	-8253
▁ওটা	-8254
▁অর্থনীতির	-8255
মেয়	-8256
▁ল্যাপ	-8257
▁কাস	-8258
▁চলাচ	-8259
▁বিশ্লেষণ	-8260
েরি	-8261
▁ফিচার	-8262
▁মাদার	-8263
▁১০টায়	-8264
মনে	-8265
▁ড্রাইভ	-8266
▁ঢেলে	-8267
▁অভিভাবক	-8268
▁রাখি	-8269
▁দাউ	-8270
▁এবি	-8271
মতে	-8272
▁বিবেচনায়	-8273
▁খবরের	-8274
▁খেত	-8275
▁রক্ষার	-8276
▁অসুবিধা	-8277
▁আকর্ষণীয়	-8278
ৰৰ	-8279
▁আসছিল	-8280
▁হিল	-8281
তাবাদী	-8282
▁ইউনিটের	-8283
▁গ্ল	-8284
▁দিনটি	-8285
▁দিচ্ছি	-8286
▁উদ্দীন	-8287
▁সেন্টারে	-8288
▁থিয়ে	-8289
▁ডলারের	-8290
▁আফ্রিকা	-8291
▁ক্ষু	-8292
▁ভদ্রলোক	-8293
▁মহকুম	-8294
৬০	-8295
▁তৌ	-8296
▁শহিদ	-8297
▁পানীয়	-8298
▁নিয়েছিল	-8299
▁ফ্রান্সের	-8300
টুয়া	-8301
▁নৈতিক	-8302
▁হকের	-8303
▁মাননীয়	-8304
▁ঘুমিয়ে	-8305
▁পাঠক	-8306
▁দশকের	-8307
//	-8308
াড়ায়	-8309
▁কয়েকটা	-8310
▁লাভের	-8311
▁উল্টে	-8312
▁জেট	-8313
▁পঞ্জ	-8314
▁মাক	-8315
▁মহারাষ্ট্র	-8316
বিত্ত	-8317
▁ক্যাপ্টেন	-8318
▁সংবর্ধনা	-8319
▁গ্রন্	-8320
▁সভাপতির	-8321
▁অন্ধকারে	-8322
ন্তু	-8323
িশের	-8324
tt	-8325
▁অপু	-8326
▁কর্পোরেশন	-8327
▁আসিয়া	-8328
▁বন্দি	-8329
▁ঘোর	-8330
▁কারখানার	-8331
▁কবিতার	-8332
▁মানতে	-8333
প্রাণ	-8334
▁গুদ	-8335
িমার	-8336
▁ঠে	-8337
▁৭১	-8338
▁প্রতিনিয়ত	-8339
▁পাইলট	-8340
▁ইমে	-8341
ডিস	-8342
ক্ষিণ	-8343
▁যতটা	-8344
▁বিরোধীদের	-8345
▁প্রতিবন্ধী	-8346
▁খারিজ	-8347
▁রুমে	-8348
▁বর্ধমান	-8349
▁ক্রিস	-8350
দিনে	-8351
▁রাজু	-8352
▁পরাজ	-8353
ম্বর	-8354
▁ইনফ	-8355
▁আশরাফ	-8356
▁খাগড়া	-8357
▁শাহজাহান	-8358
▁মরে	-8359
▁খল	-8360
েক্স	-8361
eb	-8362
তুম	-8363
▁রেশ	-8364
▁রোমান	-8365
▁অবধি	-8366
প্লেট	-8367
▁মিলবে	-8368
▁বাক্স	-8369
▁জেম	-8370
▁ভিক্ষ	-8371
▁তফসিল	-8372
▁ওয়েবসাইটে	-8373
▁ডায়াবে	-8374
▁নামার	-8375
▁চিঠিতে	-8376
▁সার্চ	-8377
▁আহবায়ক	-8378
ৰণ	-8379
▁জর্জ	-8380
▁আঙ্গ	-8381
▁অনুপস্থিত	-8382
▁জঙ্গিদের	-8383
ঝি	-8384
তঃ	-8385
▁১৫০	-8386
য়েন্টিফ	-8387
▁রেডিও	-8388
্সন	-8389
কেলের	-8390
▁অনুপ্রবেশ	-8391
▁পর্যবেক্ষণ	-8392
▁যু	-8393
▁ক্ষেত্রেও	-8394
▁ছুটির	-8395
্কেল	-8396
▁খনি	-8397
▁অশোক	-8398
▁ইংলিশ	-8399
▁বক্তব্যের	-8400
▁পুড়িয়ে	-8401
▁দুর্ভোগ	-8402
▁ডাকে	-8403
াপ্রতি	-8404
▁রপ্তানি	-8405
ডু	-8406
▁ওয়াজ	-8407
▁নবম	-8408
▁হৈছে	-8409
▁ইউরোপীয়	-8410
▁অমান	-8411
▁কৌত	-8412
▁বিপরীত	-8413
▁অপরি	-8414
▁প্যারাম	-8415
▁নাশক	-8416
ীতা	-8417
্রিম	-8418
▁সারাদেশে	-8419
▁হোয়াইট	-8420
▁বাতাস	-8421
▁নেতৃত্বের	-8422
▁সোসাই	-8423
▁জুম	-8424
▁ঘুরতে	-8425
▁ছিটকে	-8426
িনীকে	-8427
ৃশ্য	-8428
▁ঠেক	-8429
▁১০টা	-8430
▁আনন্দের	-8431
সেনা	-8432
▁পর্দায়	-8433
▁গতিতে	-8434
▁ইফ	-8435
▁যত্ন	-8436
▁পেলাম	-8437
▁বিস্ময়	-8438
▁ব্যাঙ্কের	-8439
▁তারাও	-8440
▁হাওলা	-8441
পর্যায়ে	-8442
থিত	-8443
্শিদ	-8444
▁পরা	-8445
▁দাঁড়াতে	-8446
ার্ড	-8447
▁আশায়	-8448
ংকা	-8449
▁দুবাই	-8450
▁মিম	-8451
খালীর	-8452
▁ছেলেদের	-8453
▁ধাপে	-8454
▁ময়দানে	-8455
▁বিদেশী	-8456
▁ব্যাংকিং	-8457
▁তুরস্কের	-8458
▁আনুষ্ঠানিকভাবে	-8459
▁আব্বাস	-8460
▁মিরপুর	-8461
▁বারে	-8462
াকি	-8463
▁গুজব	-8464
▁ময়নাতদন্তের	-8465
কীয়	-8466
▁যানজট	-8467
ুকের	-8468
▁এহ	-8469
ন্তী	-8470
▁যেই	-8471
▁পিতার	-8472
▁পাহাড়ে	-8473
দুদ	-8474
▁আশে	-8475
▁অবিশ্বাস	-8476
▁পেয়েছিলেন	-8477
্কি	-8478
▁দপ্তরের	-8479
"।	-8480
সায়	-8481
bd	-8482
▁বেআই	-8483
ter	-8484
▁কর্নেল	-8485
▁সুভাষ	-8486
াহত	-8487
ভারে	-8488
▁পিটিয়ে	-8489
▁জালাল	-8490
▁জিততে	-8491
োগ্রাফ	-8492
▁বিলিয়ন	-8493
বিএন	-8494
▁এএম	-8495
▁পিএম	-8496
▁উইন্ড	-8497
ীকরণ	-8498
▁বিক্রয়	-8499
▁দামে	-8500
▁কনফারেন্স	-8501
▁মুফ	-8502
▁টেস্টের	-8503
▁শৌ	-8504
▁সিকিউরিটি	-8505
যুগ	-8506
▁অপরাজিত	-8507
▁কর্মসংস্থান	-8508
▁সার্ভিসের	-8509
▁কন্ট্র	-8510
▁সাবধান	-8511
▁কার্যকরী	-8512
▁অনন্ত	-8513
▁বসন্ত	-8514
▁মেহেদী	-8515
▁বরাত	-8516
▁মস্তিষ্ক	-8517
▁পৌনে	-8518
▁ছাড়তে	-8519
পাইন	-8520
বাদে	-8521
▁ধার্য	-8522
▁প্রকৌশল	-8523
▁সাক্ষ্য	-8524
▁৭২	-8525
▁দম্পতি	-8526
টেন	-8527
▁৫টি	-8528
▁দক্ষি	-8529
▁ইভিএম	-8530
▁শব্দের	-8531
▁কাটাতে	-8532
▁নূ	-8533
▁থাকতেন	-8534
▁আত্মসম	-8535
▁ইন্ট	-8536
▁সদরের	-8537
সেবা	-8538
াপাড়া	-8539
ড়াও	-8540
▁নারীরা	-8541
▁স্টেশনের	-8542
প্রযুক্তি	-8543
▁স্কোর	-8544
▁উপকূল	-8545
▁অগ্নিকা	-8546
▁কায়ে	-8547
▁সংক্ষিপ্ত	-8548
▁আশরা	-8549
▁ফিফ	-8550
▁৪টি	-8551
▁দূরত্ব	-8552
▁শাহজালাল	-8553
▁আমেরিকান	-8554
▁পেটে	-8555
▁আবির	-8556
▁সচ	-8557
▁শান্তির	-8558
▁ঠাণ্ডা	-8559
▁কর্তব্যরত	-8560
▁শ্রেণি	-8561
▁নিষ্ঠ	-8562
▁হুই	-8563
ce	-8564
ps	-8565
▁প্রতিবছর	-8566
▁ঋষ	-8567
▁ভাতা	-8568
▁রাত্র	-8569
▁সৈন্য	-8570
▁হিট	-8571
ারো	-8572
▁On	-8573
▁গভর্ন	-8574
▁দশকে	-8575
▁প্রজেক্ট	-8576
▁বলিউডে	-8577
▁রফত	-8578
▁অনিয়ম	-8579
▁অপরাধে	-8580
িতের	-8581
েক্ট	-8582
েন্দু	-8583
▁ফ্লাইট	-8584
▁হার্ডকোর	-8585
▁স্মি	-8586
▁আড়ালে	-8587
▁ইব	-8588
াদন	-8589
▁সার্টিফিকেট	-8590
▁অষ্টম	-8591
▁চালিয়েছে	-8592
▁ঈদুল	-8593
▁অর্থবছরের	-8594
▁স্বেচ্ছাসেবক	-8595
▁সর্বনিম্ন	-8596
ান্দি	-8597
▁জানানোর	-8598
▁শীঘ্র	-8599
▁নজরদারি	-8600
▁ইফতার	-8601
▁চুরির	-8602
▁সুব্রত	-8603
▁শিবিরে	-8604
োটের	-8605
▁সংলাপ	-8606
▁এড়াতে	-8607
শ্রে	-8608
▁রাফ	-8609
▁কাই	-8610
▁মালে	-8611
▁অনুশীলন	-8612
ফামার	-8613
▁শিখে	-8614
▁নকল	-8615
▁এরপরে	-8616
▁হবে৷	-8617
▁গুলিবিদ্ধ	-8618
▁জাপানের	-8619
▁ক্ষতিকর	-8620
▁নীত	-8621
কথা	-8622
▁জোরদার	-8623
▁রফিক	-8624
▁জঙ্গল	-8625
▁মামলাটি	-8626
th	-8627
কিং	-8628
িসিআই	-8629
▁প্যানেল	-8630
পমেন্ট	-8631
▁মাঝখানে	-8632
দূর	-8633
▁কুরআন	-8634
▁শফ	-8635
▁সীমা	-8636
▁সহিত	-8637
▁পদের	-8638
▁অর্থের	-8639
▁সাহেবের	-8640
▁করুণ	-8641
▁দেখল	-8642
▁পুলিশে	-8643
▁আদায়ের	-8644
▁দেহের	-8645
্বেষ	-8646
ছর	-8647
▁ভৌ	-8648
▁মন্দিরের	-8649
▁বাংলাদেশী	-8650
প্রেম	-8651
▁হাউস	-8652
▁প্রতিযোগিতার	-8653
▁প্রাথমিকভাবে	-8654
▁অনূ	-8655
▁বালি	-8656
▁লিড	-8657
▁করিনি	-8658
▁সন্তুষ্ট	-8659
উন্ডার	-8660
ভীর	-8661
▁বিবিসি	-8662
বতী	-8663
▁তাৎক্ষণ	-8664
▁গম্ভ	-8665
▁ফেরি	-8666
▁মুর্শিদ	-8667
▁উপস্থাপ	-8668
স্পষ্ট	-8669
▁কর্তা	-8670
▁উপেক্ষা	-8671
▁ক্ষেত্র	-8672
▁রেজা	-8673
▁তুষ	-8674
▁বন্ধের	-8675
▁৫৮	-8676
ুচ	-8677
▁ঢেকে	-8678
▁প্রাস	-8679
▁অর্থে	-8680
▁ভোলা	-8681
িষ্কার	-8682
▁প্রশংস	-8683
▁অলি	-8684
▁বহাল	-8685
▁মহাকাশ	-8686
▁দুইটি	-8687
ষের	-8688
▁পেয়েছিল	-8689
পাইনবাব	-8690
জীবন	-8691
▁রায়ে	-8692
োশ	-8693
▁উষ	-8694
▁পত্রিকায়	-8695
▁হাঁটতে	-8696
▁দিবাগত	-8697
প্রথম	-8698
▁মেতে	-8699
▁লোকদের	-8700
▁প্রিন্ট	-8701
▁চেনা	-8702
▁সাঈদ	-8703
▁রথ	-8704
▁হের	-8705
▁পাওয়ায়	-8706
▁রিটার	-8707
▁প্রথমেই	-8708
▁১০টার	-8709
▁সুলতানা	-8710
ামুটি	-8711
ুয়াদের	-8712
▁রাজ্জাক	-8713
▁ভ্রাম্যমাণ	-8714
▁ফ্যান	-8715
▁হেফাজতে	-8716
ায়নিক	-8717
ধী	-8718
ংয়ের	-8719
▁হারের	-8720
▁বোনের	-8721
▁আর্ম	-8722
কেত	-8723
▁পুরসভা	-8724
▁ক্যাম্পাসে	-8725
▁পিন	-8726
▁অনুবাদ	-8727
াড়ার	-8728
▁আনন্দে	-8729
▁নিয়োজিত	-8730
▁অবহিত	-8731
জিও	-8732
▁কাটার	-8733
▁এতটাই	-8734
▁নিউজিল্যান্ড	-8735
সঙ্গম	-8736
os	-8737
ail	-8738
▁১টি	-8739
▁পূর্ণাঙ্গ	-8740
ফিন	-8741
▁ঠেলে	-8742
▁শিল	-8743
▁মিডিয়ার	-8744
▁আইড	-8745
▁এসি	-8746
▁উনার	-8747
▁আলিপুর	-8748
▁সাউথ	-8749
▁রাজ্যপাল	-8750
▁শিক্ষার্থীর	-8751
▁রিজভী	-8752
▁চৰ	-8753
▁আরা	-8754
▁গানটি	-8755
শালা	-8756
▁ঘরোয়া	-8757
▁টেমপ্লেট	-8758
▁জলবায়	-8759
িদে	-8760
▁ক্লাবে	-8761
▁আদৌ	-8762
▁বাস্তবে	-8763
েটের	-8764
ুলার	-8765
য়ত	-8766
▁কাঁধে	-8767
▁অর্ডার	-8768
▁নুসর	-8769
▁গণ্য	-8770
▁ঘূর্ণিঝ	-8771
▁আজম	-8772
▁ডেস্কঃ	-8773
▁পুঁজিবাজারে	-8774
▁অবকাঠ	-8775
েইন	-8776
প্রিয়	-8777
স্থল	-8778
▁বিধ্বস্ত	-8779
▁স্পিনার	-8780
োলজি	-8781
▁আমল	-8782
িপার	-8783
য়ায়	-8784
খের	-8785
▁সংলা	-8786
দাদ	-8787
▁৫১	-8788
্স্ট	-8789
▁ইঞ্চি	-8790
▁ফটো	-8791
ov	-8792
▁পরিচালনার	-8793
▁কীর্ত	-8794
▁রুশ	-8795
▁বিডি	-8796
িকপ্ট	-8797
বাৰে	-8798
▁রোডে	-8799
▁কাগজপত্র	-8800
িস্তান	-8801
পাস	-8802
ভিন	-8803
▁পাহাড়ি	-8804
▁শৃঙ্খলা	-8805
▁ছাড়ার	-8806
িশনে	-8807
▁ভাস্ক	-8808
▁ফেলেছেন	-8809
ত্তা	-8810
▁সিনেমায়	-8811
▁মন্ত্রীর	-8812
▁ক্যাম্পে	-8813
od	-8814
অ্যাপ	-8815
▁j	-8816
▁প্যারামিটার	-8817
জী	-8818
▁বিরল	-8819
াগল	-8820
▁নিয়েছি	-8821
▁মোটামুটি	-8822
▁দূষণ	-8823
▁চাকমা	-8824
।...	-8825
▁জরুরী	-8826
▁এসএসসি	-8827
▁জ্যাক	-8828
▁ফিরোজ	-8829
▁করুক	-8830
▁জোন	-8831
বাড়ির	-8832
▁নল	-8833
য়েন্টিফোর	-8834
▁রিপোর্টে	-8835
▁সহায়তায়	-8836
উই	-8837
▁অর্থবছরে	-8838
▁আইপিএল	-8839
▁আইপিএ	-8840
িমূলক	-8841
▁2018	-8842
▁লিপ	-8843
▁ফুর	-8844
াপরাধ	-8845
▁৬৪	-8846
▁লোকটা	-8847
▁তাব	-8848
▁হিন্দি	-8849
▁মতন	-8850
▁বস্তু	-8851
▁বেলায়	-8852
▁চেন্নাই	-8853
▁সংঘটিত	-8854
কট	-8855
ডো	-8856
▁সাইবার	-8857
▁কাজটা	-8858
▁প্রেক্ষাপ	-8859
ায়কের	-8860
াবিদ	-8861
▁রিফ	-8862
▁জামায়াতের	-8863
ক্তির	-8864
▁যুবরাজ	-8865
দ্রব্য	-8866
খণ্ড	-8867
▁সপ্তম	-8868
স্কার	-8869
▁হলের	-8870
▁আকাশের	-8871
▁ভুয়া	-8872
▁সূচক	-8873
▁বিরত	-8874
িটের	-8875
▁শিবিরের	-8876
▁হট	-8877
▁ভিত্তিক	-8878
▁আদিবাসী	-8879
▁প্ল্যান	-8880
▁কাশ্মীরে	-8881
▁আধার	-8882
াতুল	-8883
ধারা	-8884
▁একু	-8885
▁আমাদেরকে	-8886
ন্ডার	-8887
▁বেআইনি	-8888
কিন	-8889
মন্ত	-8890
▁ফ্যাশন	-8891
▁মাদ্রাসার	-8892
▁ছাত্রীর	-8893
▁তাতেই	-8894
▁বাদে	-8895
▁রিভিউ	-8896
▁আইডি	-8897
▁প্রচারের	-8898
▁বুলি	-8899
▁গানে	-8900
াকৃত	-8901
▁পাগল	-8902
▁সুজন	-8903
▁পুরাতন	-8904
▁দৌল	-8905
▁ত্রুটি	-8906
কিন্তু	-8907
জেন	-8908
▁রতন	-8909
▁স্রো	-8910
তলী	-8911
▁নরসিং	-8912
▁এতি	-8913
ানন্দ	-8914
ফতারের	-8915
▁নবাব	-8916
▁রাসায়নিক	-8917
বাম	-8918
▁বাক্য	-8919
▁চকর	-8920
▁ইনস্টিটিউ	-8921
তাহ	-8922
▁রেস্ট	-8923
▁মিশে	-8924
তলায়	-8925
▁চায়ের	-8926
▁প্রচেষ্টা	-8927
▁পূর্বাভ	-8928
ধর্ষ	-8929
▁সারাদিন	-8930
ষ্ম	-8931
▁কুত	-8932
▁সংস্কারের	-8933
▁অর্জনের	-8934
▁ল্যাব	-8935
▁শহিদুল	-8936
ইও	-8937
পুত্র	-8938
এটা	-8939
▁শফিকুল	-8940
াসীর	-8941
▁অস্ত্রোপ	-8942
▁ব্রিগে	-8943
▁হেলিকপ্ট	-8944
▁মাথ	-8945
▁সিএনজি	-8946
্যস্ত	-8947
▁মিলেছে	-8948
▁ওয়াহ	-8949
▁উদ্ভ	-8950
▁৫৯	-8951
▁পাল্টে	-8952
▁পাশেই	-8953
বিড়	-8954
▁পর্যালোচনা	-8955
▁উপরের	-8956
জাগ	-8957
িকাকে	-8958
▁রাজধানীতে	-8959
রূপে	-8960
▁উচ	-8961
▁ভারসাম	-8962
▁নেমেছে	-8963
্যাক্ট	-8964
এনএ	-8965
▁টার্ম	-8966
▁পৌরসভা	-8967
▁ছড়া	-8968
থেকে	-8969
▁যৌনসঙ্গম	-8970
▁নিক্ষ	-8971
নাই	-8972
তিবাচক	-8973
ঘাটে	-8974
▁দীপিকা	-8975
▁আয়ে	-8976
▁হ্রাস	-8977
▁জালিয়	-8978
▁আশরাফুল	-8979
▁এটাও	-8980
▁ঐক্যফ্রন্টের	-8981
▁ঝর	-8982
▁লন্ডনে	-8983
▁লঙ্ঘন	-8984
▁বান্ধ	-8985
▁অপারেটর	-8986
▁পারফরম্যান্স	-8987
▁বৃহত্তর	-8988
▁ব্যায়	-8989
▁৬৮	-8990
▁নাদ	-8991
▁কারখানায়	-8992
▁ফস	-8993
▁গ্রহন	-8994
▁ভোল	-8995
ৃপ্ত	-8996
▁কুয়া	-8997
▁কোর্স	-8998
▁আমিনুল	-8999
▁সুরে	-9000
▁আদি	-9001
▁মনোযোগ	-9002
▁ইউনাইটেড	-9003
▁হায়দার	-9004
▁পুরুষদের	-9005
▁সম্প্রদায়	-9006
▁পুলিশি	-9007
সমূ	-9008
▁মেয়েটির	-9009
্রাল	-9010
▁রক্ষায়	-9011
▁রূপান্তর	-9012
▁গর্ত	-9013
▁তাগ	-9014
ট্রিক	-9015
▁স্টু	-9016
▁নেপাল	-9017
▁জগতের	-9018
▁কারবার	-9019
২০০	-9020
াগার	-9021
▁স্নে	-9022
গ্রহণের	-9023
▁৪০০	-9024
▁মায়া	-9025
▁৯৯	-9026
▁সেলস	-9027
ভাল	-9028
▁হাইকোর্টে	-9029
ীরাম	-9030
▁কারিগ	-9031
খানেক	-9032
্যুই	-9033
▁যথাক্রমে	-9034
ণ্ডিত	-9035
▁২০০৭	-9036
▁সিঙ্গাপুর	-9037
▁হোয়াটস	-9038
▁হ্যারি	-9039
▁লিভার	-9040
▁একট	-9041
▁শ্রমিকরা	-9042
আলা	-9043
▁কোরিয়া	-9044
▁মিউজিক	-9045
ষিত	-9046
▁ক্রমাগত	-9047
▁অবলম্বন	-9048
▁k	-9049
ধ্যে	-9050
▁স্প্যান	-9051
▁6	-9052
▁পড়লেন	-9053
কেটের	-9054
▁স্বাক্ষরিত	-9055
▁প্রব	-9056
▁ড্রাই	-9057
▁কপালে	-9058
▁আবদ	-9059
▁গজ	-9060
পরিষ	-9061
▁কোট	-9062
▁ফাঁকে	-9063
▁বসার	-9064
▁চাঁপাইনবাব	-9065
▁শোভন	-9066
▁তিনি৷	-9067
▁পুণ	-9068
▁দ্বন্দ্ব	-9069
▁৬৭	-9070
▁নাল	-9071
▁হাবিবুর	-9072
▁সমঝোতা	-9073
▁কাজল	-9074
▁আইসিসি	-9075
▁নেইমার	-9076
টারে	-9077
েয়	-9078
▁সীমাবদ্ধ	-9079
▁যোগাযোগের	-9080
ক্ষ্ম	-9081
▁মেধাবী	-9082
▁মোবাইলে	-9083
▁লজ্জা	-9084
▁মোটেই	-9085
▁ক্লান্ত	-9086
ন্দি	-9087
▁ঘণ্টায়	-9088
▁বিএসএফ	-9089
▁মেম্বার	-9090
সিস	-9091
▁ঘটনাস্থলেই	-9092
▁উপত্য	-9093
▁অক্টোব	-9094
▁কাব্য	-9095
▁নীলফামার	-9096
িকিউ	-9097
▁চিকিত	-9098
▁অটোরিক	-9099
▁বনাম	-9100
▁সাজিয়ে	-9101
▁পঞ্চাশ	-9102
▁হাসতে	-9103
াপ্রতিষ্ঠ	-9104
কামী	-9105
▁ডেমোক	-9106
▁ছড়	-9107
▁পর্যটকদের	-9108
▁বাণী	-9109
hot	-9110
▁গোবিন্দ	-9111
▁তাহের	-9112
▁কিশোরী	-9113
▁পুনঃ	-9114
▁গবেষণার	-9115
▁পীর	-9116
সন্ত	-9117
▁সিরাজুল	-9118
তীর	-9119
▁শিশুটির	-9120
iz	-9121
▁বিবি	-9122
সংক্রান্ত	-9123
ak	-9124
▁কণ্ঠে	-9125
▁ভ্যাল	-9126
▁ফরাসি	-9127
ate	-9128
বিস	-9129
▁এখ	-9130
▁বিষয়টা	-9131
▁আইয়	-9132
ঘরের	-9133
▁ইউএন	-9134
▁স্বাগতিক	-9135
▁ব্যাক্ত	-9136
▁উদ্দিনের	-9137
▁পাচ্ছি	-9138
▁আত্মঘাতী	-9139
▁ভোটারদের	-9140
▁অতীতে	-9141
▁ভক্তদের	-9142
▁১২টার	-9143
▁লোকজনের	-9144
▁শ্রদ্ধ	-9145
▁সেনার	-9146
▁উপলক্ষ্যে	-9147
▁ধাম	-9148
গুণ	-9149
art	-9150
▁পড়ুয়া	-9151
▁আসিফ	-9152
▁রহমানকে	-9153
▁দুর্গাপ	-9154
ডিসি	-9155
ানকে	-9156
▁সামগ্র	-9157
▁দার্জ	-9158
পোষ	-9159
্ৰে	-9160
▁জ্বর	-9161
▁ক্ষেপণ	-9162
▁অধীন	-9163
▁একেক	-9164
▁পাঠাতে	-9165
▁স্নাতক	-9166
▁খোঁজে	-9167
▁দিবসে	-9168
▁আহমেদের	-9169
▁জ্যেষ্ঠ	-9170
▁প্রথা	-9171
িমে	-9172
্মেদ	-9173
......	-9174
কশন	-9175
ূপে	-9176
▁সামনেই	-9177
েষে	-9178
▁যুদ্ধাপরাধ	-9179
▁প্ল্যাট	-9180
▁্যাবের	-9181
য়নের	-9182
▁আতিক	-9183
▁সিদ্ধান্তে	-9184
▁নেতিবাচক	-9185
▁অবনতি	-9186
▁ফুটবলের	-9187
▁পলাশ	-9188
▁চীনা	-9189
▁শাহীন	-9190
▁অনিশ্চ	-9191
িশে	-9192
ফেল	-9193
▁গেয়ে	-9194
▁করতাম	-9195
▁উদ্ধারের	-9196
▁প্রজাতির	-9197
▁tits	-9198
▁তদন্তকারী	-9199
▁নির্বাচনকে	-9200
▁পড়ুয়াদের	-9201
▁মিশন	-9202
▁re	-9203
বার্ষিকী	-9204
কাশ্ম	-9205
▁নির্ভ	-9206
▁শিরোনামে	-9207
াবলী	-9208
▁ক্রিকেটারদের	-9209
▁নগ্ন	-9210
▁আয়কর	-9211
জনিত	-9212
▁হার্ট	-9213
▁ব্ল্যাক	-9214
▁গ্যাসের	-9215
▁পাখির	-9216
▁নাবাল	-9217
▁ক্যাস	-9218
201	-9219
▁বেঙ্গল	-9220
▁সিপিএমের	-9221
▁বাসার	-9222
▁স্ট্যান্ড	-9223
▁চলুন	-9224
▁ফুলে	-9225
▁মালিকানা	-9226
▁একাধিকবার	-9227
▁নিপীড়	-9228
▁বাজেটে	-9229
▁গৃহবধূ	-9230
▁সেদিকে	-9231
▁রুখ	-9232
▁ভাঁ	-9233
▁বহিষ্কার	-9234
▁স্থল	-9235
ল্যান্ডের	-9236
▁ইয়ার	-9237
▁পেরেছে	-9238
ভাষা	-9239
▁কাৰ	-9240
▁মৃতের	-9241
▁প্রেমে	-9242
ক্তিক	-9243
ুপ্ত	-9244
▁দিতেন	-9245
▁শ্যু	-9246
শ্চিন্ত	-9247
▁বর্ষের	-9248
▁বাগেরহাট	-9249
▁দেই	-9250
▁গোষ্ঠীর	-9251
িকুল	-9252
▁সংবিধানের	-9253
▁তেলের	-9254
▁৫৪	-9255
▁পারল	-9256
্ভূত	-9257
▁পরিচিতি	-9258
▁গ্রহ	-9259
▁হননি	-9260
▁তথ্যের	-9261
▁সংঘর্ষের	-9262
▁লতি	-9263
://	-9264
▁কর্মক	-9265
▁ফিলিপ	-9266
▁কল্যা	-9267
▁সোহাগ	-9268
ডিএ	-9269
▁সাতটি	-9270
পত্রে	-9271
▁সেভাবে	-9272
▁স্থানীয়দের	-9273
▁হানা	-9274
িগুণ	-9275
ঞ্জাম	-9276
▁বাস্তবায়নে	-9277
▁জামা	-9278
▁ইঞ্জিনিয়ারিং	-9279
▁হত্যাকাণ্ডের	-9280
শংস	-9281
▁উচ্চারণ	-9282
▁Bengali	-9283
▁প্রশান্ত	-9284
্মেল	-9285
টক	-9286
▁মণ	-9287
▁কমলা	-9288
▁যাত্রীরা	-9289
▁কোরআন	-9290
▁সন্ধ্যার	-9291
▁হরত	-9292
ort	-9293
িপত্য	-9294
▁বিক্রম	-9295
▁পিস্ত	-9296
▁উপস্থিতিতে	-9297
▁শুধুই	-9298
▁নাস্ত	-9299
▁ঘাম	-9300
▁সরল	-9301
▁th	-9302
▁বৃহৎ	-9303
▁বালিকা	-9304
▁ঘটতে	-9305
▁ভালোবাসার	-9306
সকল	-9307
▁বলো	-9308
ামাটি	-9309
▁ডেভিড	-9310
মন্ত্র	-9311
▁বিজ্ঞানীরা	-9312
▁ফেসবুকের	-9313
▁ভাইরাস	-9314
▁Ch	-9315
▁নাটকের	-9316
▁বিছানায়	-9317
▁ব্যুরো	-9318
▁ব্যবধান	-9319
▁রবিউল	-9320
▁হেলাল	-9321
▁প্রার্থীরা	-9322
েউ	-9323
▁এনামুল	-9324
▁শাশ	-9325
▁ধনী	-9326
▁সংস্কৃতির	-9327
▁লাগাতে	-9328
▁খন	-9329
িজম	-9330
▁ত্বক	-9331
▁সোয়া	-9332
▁৬টি	-9333
▁শিগগিরই	-9334
▁খুঁজতে	-9335
াপোল	-9336
ome	-9337
খর	-9338
▁মাসিক	-9339
্তুগ	-9340
▁মাধব	-9341
▁নেতাকর্মী	-9342
স্বাস্থ্য	-9343
▁সন্তানকে	-9344
▁r	-9345
▁জা	-9346
▁হইয়াছে	-9347
ওয়েল	-9348
▁মহাসড়কে	-9349
▁দাড়	-9350
▁জালে	-9351
ুফ	-9352
▁সিন্ড	-9353
▁চিন্তার	-9354
য্য	-9355
ৰাকী	-9356
▁জেস	-9357
▁আরে	-9358
ৈর্য	-9359
▁আয	-9360
াজির	-9361
▁হুমায়ুন	-9362
▁গৌরব	-9363
▁খাস	-9364
▁ইউএস	-9365
▁জনগণকে	-9366
▁সমালোচনার	-9367
▁বিশ্রাম	-9368
▁মাঝারি	-9369
▁পাতায়	-9370
▁অবৈধভাবে	-9371
মিল	-9372
▁মৃত্যুদণ্ড	-9373
্যাঁ	-9374
▁৬৬	-9375
▁কুশ	-9376
▁নীতিমালা	-9377
গ্রামে	-9378
▁মাহফুজ	-9379
▁প্লাস্টিক	-9380
▁ইসম	-9381
▁বরখাস্ত	-9382
▁কারিগরি	-9383
▁আদিত্য	-9384
▁আলমের	-9385
িনাল	-9386
াইনের	-9387
▁পথের	-9388
▁স্থানান্তর	-9389
ুদ্দিন	-9390
▁মিত	-9391
▁সহসভাপতি	-9392
▁ক্ষেপণাস্ত্র	-9393
▁ডিভাইস	-9394
▁ডেঙ্গু	-9395
পরিচালক	-9396
▁পরিত্য	-9397
▁গৌর	-9398
▁ধরিয়ে	-9399
▁বিস্ফোরক	-9400
▁পিপ	-9401
▁আগুনের	-9402
সম্মত	-9403
।'	-9404
▁ব্যাংকে	-9405
▁অভিনব	-9406
▁ঐতিহ্যবাহী	-9407
▁করবার	-9408
▁মেগা	-9409
▁সান্ত	-9410
▁তলা	-9411
▁অধ্যায়	-9412
▁অনেকদিন	-9413
কাঠি	-9414
▁নিষ্ক	-9415
▁যুগের	-9416
িউদ্দিন	-9417
▁ধোনির	-9418
▁সম্মিলিত	-9419
▁ক্যাট	-9420
▁ছুড়ে	-9421
▁মিনার	-9422
▁মহলে	-9423
▁মেলেনি	-9424
▁অং	-9425
গন	-9426
াত্	-9427
এখন	-9428
▁সমবায়	-9429
▁জান্ন	-9430
▁মেক্স	-9431
ত্রীর	-9432
মনের	-9433
▁স্যাটেলাইট	-9434
▁সানি	-9435
▁গৃহীত	-9436
▁ভর্তির	-9437
▁মাখ	-9438
▁দফতরে	-9439
▁সিগারেট	-9440
▁উত্তরপ্রদেশের	-9441
▁ধোঁয়া	-9442
▁বচ্চ	-9443
▁ফরিদপুর	-9444
iv	-9445
▁প্রজ্ঞ	-9446
▁মল্লিক	-9447
▁প্যান	-9448
ঙ্কায়	-9449
▁পুষ্প	-9450
▁পটুয়া	-9451
▁কফি	-9452
▁পর্তুগ	-9453
▁ভু	-9454
▁bang	-9455
▁সম্মুখীন	-9456
▁রোজা	-9457
▁লী	-9458
চী	-9459
▁দূরের	-9460
▁কুমিল্লার	-9461
▁টুইটার	-9462
▁অ্যান্ড্র	-9463
▁উখ	-9464
▁দয়া	-9465
িজা	-9466
▁হিসেবেই	-9467
▁নেতাকে	-9468
▁চক্রের	-9469
▁একইভাবে	-9470
▁কৃত্রিম	-9471
▁জোয়ার	-9472
ঁড়ে	-9473
▁ব্রাজিলের	-9474
▁তারকার	-9475
▁ভারসাম্য	-9476
ংরা	-9477
▁০৬	-9478
▁ইবনু	-9479
▁ভুক্ত	-9480
▁ফাউন্ডেশনের	-9481
আউট	-9482
▁পেশা	-9483
▁কথিত	-9484
▁তীর	-9485
▁ক্ষত	-9486
▁নির্মম	-9487
▁সম্মাননা	-9488
▁গম্ভীর	-9489
▁লেক	-9490
▁কাঠের	-9491
▁মৃদ	-9492
ঞ্ছ	-9493
ফোনের	-9494
যোগাযোগ	-9495
িকাল	-9496
▁সিদ্দিকী	-9497
▁মধ্যপ্রাচ	-9498
'-	-9499
ার্জ	-9500
▁ছুঁয়ে	-9501
▁সাম্র	-9502
▁বসত	-9503
▁শহী	-9504
ৱে	-9505
▁মরহ	-9506
াচ্ছে	-9507
▁ফেটে	-9508
ল্ড	-9509
▁হাজী	-9510
▁ফ্রন্ট	-9511
িশনার	-9512
▁সুবিধার	-9513
▁হোটেলের	-9514
▁চিনের	-9515
▁লাইব্র	-9516
▁পর্বের	-9517
▁ময়না	-9518
▁হুঁশিয়ারি	-9519
সাগ	-9520
▁জিলা	-9521
▁আচ্ছা	-9522
▁উপযোগী	-9523
▁ট্রেড	-9524
▁রিল	-9525
▁ছোঁ	-9526
বেলায়	-9527
াপ্প	-9528
▁খেলবে	-9529
▁পারতেন	-9530
▁অধিবেশনে	-9531
▁হ্য	-9532
▁জামান	-9533
▁ইউরোপের	-9534
▁মৌলভীবাজার	-9535
▁ইন্দোনে	-9536
▁চক্ষ	-9537
▁স্তরের	-9538
▁২০০০	-9539
োরাঁ	-9540
▁ধীর	-9541
▁নাম্বার	-9542
ৰা	-9543
▁মোদির	-9544
▁পরপরই	-9545
▁বন্ধুরা	-9546
রণে	-9547
নিবেশ	-9548
পশ্চিম	-9549
if	-9550
▁দোষী	-9551
▁দেওয়	-9552
▁ইলেকট্রনিক	-9553
জ্	-9554
▁কাঁপ	-9555
▁ঘুরিয়ে	-9556
▁সম্পদের	-9557
▁দিকেই	-9558
▁ড্রে	-9559
▁বসেন	-9560
▁পলি	-9561
▁চন্দন	-9562
▁পাঠায়	-9563
তিতে	-9564
▁বৃহত্তম	-9565
▁আয়োজনের	-9566
▁ভূঁ	-9567
▁সন্তোষ	-9568
▁ইন্ডিজ	-9569
▁পেশাদার	-9570
▁পেলেও	-9571
স্থলে	-9572
▁গিয়া	-9573
▁বাট	-9574
▁ভালোভাবে	-9575
▁হানিফ	-9576
▁লৈ	-9577
▁গুট	-9578
▁অ্যাসোসিয়েশন	-9579
▁একাত্ত	-9580
▁সবে	-9581
াসীদের	-9582
▁শরীয়	-9583
▁পঞ্চায়েতের	-9584
▁মিটিং	-9585
▁মূর্ত	-9586
▁সংক্রম	-9587
▁মিছিলে	-9588
িদর্শ	-9589
পরিব	-9590
▁দালাল	-9591
▁উগ্র	-9592
▁বিমানে	-9593
▁বৃক্ষ	-9594
িউর	-9595
স্থাপ	-9596
▁সম্মানিত	-9597
ন্সি	-9598
▁যাচ্ছিলেন	-9599
▁জলবায়ু	-9600
▁ব্যবহারে	-9601
▁অভিনীত	-9602
▁তৎপরতা	-9603
▁অসাম	-9604
▁একপর্যায়ে	-9605
ভঙ্গ	-9606
▁মহাজ	-9607
orn	-9608
▁বেলজ	-9609
▁বলিলেন	-9610
সেরা	-9611
▁মেসির	-9612
▁আলোকে	-9613
ধ্যক্ষ	-9614
নাজ	-9615
▁কর্পোরেশনের	-9616
পিকে	-9617
▁সেন্স	-9618
ফান	-9619
▁অপরের	-9620
▁ঘোষের	-9621
▁কথাবার্তা	-9622
▁ওয়ার্ক	-9623
▁মেক	-9624
▁এটিএম	-9625
▁কোহলির	-9626
্যাশ	-9627
▁নৃত্য	-9628
▁আগমন	-9629
▁শরণার্থী	-9630
▁১১টা	-9631
▁টাঙ্গাইল	-9632
▁হারিয়েছে	-9633
▁৫৩	-9634
▁সেমিফাইনালে	-9635
▁মন্তব্যের	-9636
▁সৃজন	-9637
▁পেট্রোল	-9638
▁ফেরদৌ	-9639
▁গড়তে	-9640
▁কয়েকবার	-9641
▁ওব	-9642
▁টহল	-9643
▁কৰিছে	-9644
▁সেক্রেটারি	-9645
▁ক্ষতির	-9646
▁দুনিয়া	-9647
▁দেশগুলোর	-9648
▁পাবনা	-9649
▁ভিন	-9650
▁পুরোনো	-9651
▁বুড়ো	-9652
▁জিবি	-9653
ঈন	-9654
▁এমনিতেই	-9655
োরি	-9656
▁কেক	-9657
▁জীবিত	-9658
▁অঙ্গীকার	-9659
মুসল	-9660
▁ট্রফি	-9661
▁নৃশংস	-9662
▁উত্তীর্ণ	-9663
ঢ্য	-9664
▁উপায়ে	-9665
মার্ক	-9666
টারের	-9667
▁জঙ্গিরা	-9668
ান্ডার	-9669
▁কেলে	-9670
▁বৃত্ত	-9671
▁গন্তব্য	-9672
াবলম্ব	-9673
▁মোস্তাফিজুর	-9674
▁ভল	-9675
▁বিরোধীরা	-9676
▁কবীর	-9677
▁জির	-9678
▁চিকিৎসকদের	-9679
▁বৃষ্টিপ	-9680
▁মফ	-9681
▁দুলাল	-9682
নন্দ	-9683
িবদ্ধ	-9684
▁চড়ে	-9685
োয়ান	-9686
▁বিপর্যয়	-9687
▁নাসিম	-9688
▁ক্যাম্পের	-9689
▁প্রতিমা	-9690
▁সর্বভারতীয়	-9691
▁বিস্তৃত	-9692
▁ট্য	-9693
োপল	-9694
▁ফার্স্ট	-9695
▁শহীদুল	-9696
জ্ঞানিক	-9697
▁সমাধানের	-9698
▁হিউ	-9699
▁কৃতিত্ব	-9700
▁আশঙ্ক	-9701
▁কোরবান	-9702
পরিদর্শ	-9703
▁অনূর্ধ্ব	-9704
▁ঝগড়া	-9705
লেস	-9706
ুকি	-9707
▁পিঠে	-9708
▁বলতেন	-9709
্বিত	-9710
▁আড্ডা	-9711
্রত	-9712
▁বিভ্রান্ত	-9713
▁বিচিত্র	-9714
▁বৈদেশ	-9715
মূল্য	-9716
খাট	-9717
▁অভিনয়ের	-9718
▁থাইল	-9719
▁জড়ো	-9720
▁ট্রেনিং	-9721
ুলো	-9722
▁বৈষম্য	-9723
টরি	-9724
▁ফকির	-9725
▁বসেছে	-9726
▁প্রক্রিয়ায়	-9727
বিধি	-9728
মূর্তি	-9729
▁ক্ষতিপূরণ	-9730
▁বস্ত্র	-9731
▁মারে	-9732
▁এগো	-9733
▁খালেদ	-9734
ৃত্ব	-9735
▁২০০৬	-9736
ধরনের	-9737
▁শয	-9738
এমন	-9739
▁কর্মকান্ড	-9740
▁কিম	-9741
োড়	-9742
▁উত্তরবঙ্গ	-9743
▁সতর্কতা	-9744
▁রক্তাক্ত	-9745
ick	-9746
ভিয়ে	-9747
চির	-9748
▁রাশেদ	-9749
▁২৫০	-9750
▁ডাক্তারের	-9751
এসটি	-9752
▁যন্ত্রণা	-9753
▁কর্তারা	-9754
▁বাড়ী	-9755
▁কমানোর	-9756
▁সুনির	-9757
▁বিটি	-9758
আইপি	-9759
▁নিলাম	-9760
▁অংশী	-9761
াবাদে	-9762
▁অবসান	-9763
▁আধিপত্য	-9764
▁খুলতে	-9765
র্কে	-9766
▁জামাত	-9767
▁মাহফিল	-9768
▁কর্মীর	-9769
মন্দ	-9770
▁গিয়েছিলাম	-9771
▁জনপ্রতিনি	-9772
তুমি	-9773
ont	-9774
▁সিড	-9775
▁সিলেটে	-9776
▁গ্লো	-9777
▁চাঁদপুর	-9778
▁কমিটিতে	-9779
▁জুয়েল	-9780
ান্তে	-9781
▁গ্রামবাস	-9782
▁সমর্থকরা	-9783
▁এনেছে	-9784
▁রোল	-9785
▁ঈদে	-9786
▁দাফ	-9787
▁বৃষ্টিতে	-9788
▁ঘুমের	-9789
▁ভালবাসা	-9790
▁বিতর্কের	-9791
াপনে	-9792
▁দুইজন	-9793
▁জবান	-9794
▁থাকুক	-9795
▁মহলের	-9796
▁ছাত	-9797
▁অনুসার	-9798
▁সাতক্ষীরা	-9799
্রমিক	-9800
▁রেস্তোরাঁ	-9801
▁শীঘ্রই	-9802
ুনার	-9803
▁একাই	-9804
▁কর্মসূচিতে	-9805
্নিং	-9806
পাড়ার	-9807
▁ছেলেমেয়ে	-9808
▁দুশ্চিন্ত	-9809
▁বিশ্বাসের	-9810
▁বিজেপিতে	-9811
▁বৈদেশিক	-9812
▁ঘোড়া	-9813
▁ভুব	-9814
▁পর্ন	-9815
▁ঠেকাতে	-9816
▁শ্যুটিং	-9817
▁গ্রিন	-9818
▁শরিক	-9819
▁পাকিস্তানকে	-9820
ip	-9821
াদর	-9822
▁সমাপ	-9823
▁অনুরাগ	-9824
্বন	-9825
▁বক্তৃত	-9826
▁কোচের	-9827
▁সুষ	-9828
.1	-9829
▁হইলে	-9830
ন্তে	-9831
▁মোকাবিলা	-9832
▁দুর্বৃত্তরা	-9833
▁কোম্পানিটির	-9834
▁টেবিলে	-9835
▁স্থাপনা	-9836
▁সংশয়	-9837
▁কুষ্টিয়া	-9838
▁জন্মের	-9839
▁শাহিন	-9840
▁বছরই	-9841
▁শ্ল	-9842
▁দিতেই	-9843
▁সমন্বয়ে	-9844
▁কোয়ার্টার	-9845
▁ঊর্ধ্বতন	-9846
▁নাথ	-9847
▁কিডনি	-9848
াস্থ্যের	-9849
▁ছিনিয়ে	-9850
কাত	-9851
▁সীমিত	-9852
▁কাকে	-9853
▁বাগানের	-9854
▁চ্যাম্পিয়	-9855
▁যুগান্তর	-9856
পাতে	-9857
▁নেব	-9858
▁ছাত্রীকে	-9859
▁শুনানির	-9860
চো	-9861
▁আশাবাদী	-9862
▁শুকনো	-9863
▁বিজ্ঞানী	-9864
▁ব্যাটারি	-9865
▁সীমান্তের	-9866
▁গাইবান্	-9867
▁শ্রীরাম	-9868
াইড	-9869
▁একদিনের	-9870
▁এন্ট	-9871
?’	-9872
▁কণ্ঠকে	-9873
▁লাইভ	-9874
▁৬৯	-9875
▁গুম	-9876
▁প্রচারণা	-9877
িনো	-9878
▁কৃ	-9879
▁শিক্ষাপ্রতিষ্ঠ	-9880
▁পাইপ	-9881
ছিলো	-9882
▁ছয়টি	-9883
▁কূটনৈতিক	-9884
স্থানীয়	-9885
▁পাঠিয়েছে	-9886
একটি	-9887
▁ভেন	-9888
▁বদলি	-9889
▁সরঞ্জাম	-9890
▁জার্মানির	-9891
▁উত্তপ্ত	-9892
▁আইয়ুব	-9893
▁চিফ	-9894
▁উইলিয়াম	-9895
▁7	-9896
▁y	-9897
নাগ	-9898
ক্রমের	-9899
▁ওয়েল	-9900
▁চলচ্চিত্রের	-9901
▁গণমাধ্যমে	-9902
বিধানিক	-9903
▁শফিক	-9904
▁মোজাম	-9905
▁দেখান	-9906
▁পারলাম	-9907
সড়	-9908
▁লিট	-9909
▁কখনই	-9910
কিশোর	-9911
প্রচার	-9912
▁সেখানেও	-9913
দশ	-9914
চিন্ত	-9915
▁দৃষ্টিতে	-9916
▁ফাল	-9917
▁ইব্রাহিম	-9918
▁বেসাম	-9919
▁কান্না	-9920
পরিদর্শক	-9921
▁অসুখ	-9922
িগ্ন	-9923
▁বারো	-9924
▁কোচিং	-9925
▁তহবিল	-9926
▁ভ্যাট	-9927
▁গোপনে	-9928
্মি	-9929
▁গাছে	-9930
▁প্রস্তাবিত	-9931
কিল	-9932
▁ম্যাগাজ	-9933
▁ঔষ	-9934
▁কেয়ার	-9935
▁মরিয়া	-9936
▁অশান্তি	-9937
▁ক্যাব	-9938
▁টাওয়ার	-9939
▁অনেকেরই	-9940
াবো	-9941
▁আমরাও	-9942
র্সের	-9943
▁সাইটে	-9944
▁প্রতিষ্ঠানটি	-9945
বারক	-9946
ন্ত্রে	-9947
▁উত্তেজিত	-9948
▁জেতার	-9949
▁হুদা	-9950
▁পশ	-9951
▁পরীক্ষার্থী	-9952
▁নিহতদের	-9953
▁হয়রানি	-9954
▁ধূম	-9955
েজন	-9956
▁আইনগত	-9957
▁প্রসার	-9958
হানি	-9959
▁পতন	-9960
▁ক্রোয়ে	-9961
▁পাণ্ড	-9962
▁টক	-9963
▁সেতুম	-9964
াজারের	-9965
▁ওয়াশিংটন	-9966
ীপে	-9967
▁বাউ	-9968
▁প্রণয়ন	-9969
ঘ্ন	-9970
▁দুপুরের	-9971
▁আত্মহত্যার	-9972
▁চালের	-9973
▁হাতির	-9974
েন্টস	-9975
▁কাশেম	-9976
▁যাত্রীবাহী	-9977
▁দলিল	-9978
▁ডিবি	-9979
▁প্রভাবিত	-9980
▁জনতার	-9981
পয়	-9982
▁০৭	-9983
▁রাষ্ট্রপতির	-9984
▁সূর্যের	-9985
▁সংখ্যাগরি	-9986
▁মালয়েশিয়া	-9987
▁অ্যাওয়ার্ড	-9988
▁চরিত্রের	-9989
▁মূল্যায়ন	-9990
▁ঘটনাকে	-9991
সিপি	-9992
▁প্রধানমন্ত্রীকে	-9993
▁জয়পুর	-9994
▁ফ্ল্যাট	-9995
▁এবারে	-9996
্ণা	-9997
▁বাচ্চাদের	-9998
▁বরাবরই	-9999
▁সঞ্চয়	-10000
্লিশ	-10001
▁গয়	-10002
▁স্পেস	-10003
চিক	-10004
লন	-10005
▁তুষার	-10006
▁বট	-10007
▁টুর্নামেন্টের	-10008
▁নামায	-10009
োটাই	-10010
▁লক্ষ্যমাত্রা	-10011
▁বন্যার	-10012
রাউন্ডার	-10013
▁প্রত্যেকে	-10014
▁স্বামীকে	-10015
বাহিনী	-10016
াকাটা	-10017
▁দ্বিপ	-10018
▁লিপ্ত	-10019
▁টাক	-10020
নাথের	-10021
▁সুনামগঞ্জ	-10022
▁যাঁদের	-10023
▁শিশুরা	-10024
▁স্মিথ	-10025
টনের	-10026
িপির	-10027
ন্ঠ	-10028
▁চোপ	-10029
কর্মচার	-10030
▁কন্ট্রোল	-10031
▁আক্রমণের	-10032
▁নেত্রকো	-10033
▁তিত	-10034
▁সংসারে	-10035
▁দিদ	-10036
▁ঈমান	-10037
▁কালি	-10038
াবাড়ি	-10039
▁বিজনেস	-10040
▁একাংশের	-10041
▁কাহিনি	-10042
জ্জনক	-10043
▁ক্যাটা	-10044
▁সমর্থনে	-10045
▁ভিডিওতে	-10046
▁শর্ম	-10047
▁রাজনীতিবিদ	-10048
▁পড়ি	-10049
▁উদ্যোক্তা	-10050
মুনা	-10051
ধুনিক	-10052
▁সাব্বির	-10053
শ্বরের	-10054
▁মাদকের	-10055
▁কিংবদন্তি	-10056
▁নাছ	-10057
▁বালু	-10058
▁ক্রেতা	-10059
ূনতম	-10060
▁মারতে	-10061
▁ডাটা	-10062
▁বগুড়ার	-10063
▁নমুনা	-10064
▁আটককৃত	-10065
▁দিনাজপুরের	-10066
াত্য	-10067
সমর্থ	-10068
িণী	-10069
▁লালন	-10070
▁সুনির্দিষ্ট	-10071
▁কেহ	-10072
▁হব	-10073
্দী	-10074
▁ব্যত	-10075
▁আলোয়	-10076
ধায়ক	-10077
▁মী	-10078
▁গ্লাস	-10079
্জে	-10080
▁হাওলাদার	-10081
▁ধারার	-10082
▁সেতুমন্ত্রী	-10083
▁যুক্তরাজ্য	-10084
gr	-10085
▁বেই	-10086
▁গ্রেনে	-10087
▁মূল্যবান	-10088
▁হয়েও	-10089
▁মেম	-10090
▁বিদ্রোহী	-10091
▁একমত	-10092
▁মিলিত	-10093
▁উষ্ণ	-10094
▁মুহূর্তের	-10095
▁জসিম	-10096
▁সেন্ট্রাল	-10097
ভারের	-10098
▁উদ্বিগ্ন	-10099
রিন	-10100
▁জয়ে	-10101
▁বিদ্রোহ	-10102
▁প্রাণের	-10103
▁ফলের	-10104
▁সেক্ট	-10105
শিশ	-10106
▁প্রাপ	-10107
▁মামা	-10108
▁পরিচ্ছন্ন	-10109
▁বিপদে	-10110
য়ালি	-10111
▁মুহম্মদ	-10112
▁মনোজ	-10113
সেই	-10114
▁গাজীপুরের	-10115
আইসি	-10116
▁উপলব্ধি	-10117
▁সৌম্য	-10118
▁বঙ্গোপ	-10119
▁ডেভেলপমেন্ট	-10120
▁পরিপূর্ণ	-10121
▁২০০১	-10122
ভাগ্য	-10123
▁নিউজিল্যান্ডের	-10124
▁কাঠামো	-10125
▁মধুর	-10126
▁মাদরাসা	-10127
▁মাঝেই	-10128
▁পেছন	-10129
▁সংখ্যাগরিষ্ঠ	-10130
▁মন্ডল	-10131
ছিস	-10132
ফোর্ড	-10133
▁শর্ট	-10134
▁ম্যাচটি	-10135
এক্স	-10136
▁আহম্মেদ	-10137
ন্সের	-10138
▁দুনিয়ার	-10139
▁বনে	-10140
োদনের	-10141
▁ভাবা	-10142
▁৭৮	-10143
্যানেলে	-10144
▁প্রোট	-10145
ly	-10146
▁কাউন্সিলের	-10147
জাতীয়	-10148
▁আকা	-10149
▁বুদ্ধিজীব	-10150
▁মুশক	-10151
ঞ্চার	-10152
▁কথাগুলো	-10153
্তে	-10154
▁বইটি	-10155
▁ল্যাপটপ	-10156
মেয়ের	-10157
▁উচ্ছেদ	-10158
▁জানাচ্ছি	-10159
▁সম্প্রসারণ	-10160
▁নৌকার	-10161
▁স্থাপনের	-10162
▁খণ্ড	-10163
op	-10164
িয়ানা	-10165
▁মুসলিমদের	-10166
▁পালা	-10167
▁শ্রমিকের	-10168
▁ত্রিশ	-10169
▁বিজেপিকে	-10170
▁ড্রাইভার	-10171
▁পরিবহনের	-10172
▁১২টা	-10173
▁ফুড	-10174
▁৯টা	-10175
▁ঘাটে	-10176
▁ঢেউ	-10177
▁দেখবে	-10178
▁সাহিত্যের	-10179
▁টুর্নামেন্টে	-10180
▁রোনাল্ড	-10181
▁রাশি	-10182
▁খেলেছেন	-10183
▁মহেন্দ্র	-10184
▁পেরেছি	-10185
▁জাস	-10186
▁ক্যামেরার	-10187
ক্ষেপে	-10188
ঙ্গলের	-10189
▁বাধ্যতামূলক	-10190
একটা	-10191
▁রেস্টুর	-10192
▁বেঙ্গালুরু	-10193
▁সাপোর্ট	-10194
▁অফিসারের	-10195
▁শ্রো	-10196
▁একসাথে	-10197
▁বরণ	-10198
াতেন	-10199
▁সৈনিক	-10200
▁সদস্যকে	-10201
▁সিরিয়ার	-10202
▁লাগলো	-10203
▁ফোরাম	-10204
▁তারও	-10205
▁ন্যূনতম	-10206
▁সাক্ষাৎকার	-10207
▁সম্প্রচার	-10208
▁তুমুল	-10209
▁ভারতবর্ষ	-10210
▁কলম	-10211
▁নকশা	-10212
▁কর্মকাণ্ড	-10213
▁জাতীয়তাবাদী	-10214
▁ইস্টবেঙ্গল	-10215
▁আমেরিকায়	-10216
সূত্র	-10217
▁শও	-10218
▁চিত্ত	-10219
▁ফজলুল	-10220
▁পারলেন	-10221
▁শয়ত	-10222
তই	-10223
▁পিস্তল	-10224
আল্লাহ	-10225
▁দেবা	-10226
▁জেলাশাস	-10227
▁জগৎ	-10228
▁pr	-10229
▁মৈ	-10230
▁চলাকালে	-10231
▁চিত	-10232
▁বাড়ার	-10233
▁জ্বলে	-10234
াড	-10235
▁আরম্ভ	-10236
▁পিরোজ	-10237
বাবা	-10238
▁উত্তাল	-10239
▁st	-10240
বাণ	-10241
▁মূল্যে	-10242
▁]	-10243
মহল	-10244
▁গেছি	-10245
▁জামাই	-10246
▁বাগানে	-10247
▁দাউদ	-10248
▁সমীক্ষা	-10249
র্নি	-10250
▁পর্যবেক্ষ	-10251
▁সামর্থ	-10252
▁বসুন্ধ	-10253
ff	-10254
বিশ্ব	-10255
াল্টি	-10256
▁এটাকে	-10257
▁মালিকের	-10258
▁২য়	-10259
স্টের	-10260
যোজন	-10261
▁পরোয়	-10262
ভাজন	-10263
▁বাবদ	-10264
▁রূপে	-10265
▁শপিং	-10266
▁বললেই	-10267
মারি	-10268
▁জটিলতা	-10269
▁প্রাধান	-10270
▁জন্মগ্রহণ	-10271
▁পারবো	-10272
▁ঘাড়	-10273
▁অখ	-10274
▁সালাহ	-10275
▁মৃদু	-10276
▁বাচ্চু	-10277
টান	-10278
▁তাহাকে	-10279
আত	-10280
▁রসূল	-10281
াবির	-10282
▁ডিজিটেল	-10283
▁অডিট	-10284
হাম্মাদ	-10285
▁রাজশাহীর	-10286
▁হারানো	-10287
▁প্রভাবে	-10288
▁পারভেজ	-10289
▁পশ্চ	-10290
▁পাতার	-10291
▁দরজার	-10292
▁যেতেই	-10293
▁পাড়ায়	-10294
▁বিশেষত	-10295
গোপ	-10296
▁অ্যাকশন	-10297
▁রক্তে	-10298
▁অবত	-10299
িকাঠ	-10300
▁আগষ্ট	-10301
▁কোষ	-10302
▁গোর	-10303
▁লেখাপড়া	-10304
কণ্ঠ	-10305
▁শীতল	-10306
ৰী	-10307
▁আতা	-10308
▁বাঁচতে	-10309
আরপি	-10310
সিত	-10311
সংযোগ	-10312
▁ব্যান	-10313
▁বর্জ্য	-10314
▁করিলেন	-10315
▁নবান	-10316
▁গুঞ্জন	-10317
াবন	-10318
▁ছাদ	-10319
▁লিটার	-10320
▁বিচারপতির	-10321
▁লিঙ্গ	-10322
▁মাধ্যমেই	-10323
▁প্রতিফল	-10324
▁উচিৎ	-10325
▁ধৈর্য	-10326
▁শোভাযাত্রা	-10327
▁দেখেছে	-10328
▁মহিলাকে	-10329
▁সেলফি	-10330
▁যন্ত্রপাত	-10331
▁উত্তেজন	-10332
বাঁ	-10333
▁একাডেমি	-10334
▁পারা	-10335
▁পরিত্যক্ত	-10336
▁মদন	-10337
▁বর্	-10338
▁দেখানোর	-10339
▁মুশকিল	-10340
▁ম্যাস	-10341
ভবন	-10342
▁মেদিনীপুর	-10343
▁10	-10344
নাড়	-10345
▁পারফ	-10346
▁টুয়েন্টিফোর	-10347
▁এপ	-10348
ঘণ্ট	-10349
িয়াই	-10350
▁সর্বাধিক	-10351
নগরের	-10352
▁স্বস্ত	-10353
শান্ত	-10354
▁চাঁদা	-10355
▁পেটের	-10356
▁ডেন	-10357
কল্যাণ	-10358
▁মেসেজ	-10359
▁প্রবেশের	-10360
▁প্রতিপক্ষের	-10361
▁চেহার	-10362
▁পার্কে	-10363
▁৭৭	-10364
▁স্নান	-10365
▁সুফ	-10366
চট্ট	-10367
ণিক	-10368
▁দ্যা	-10369
্মান	-10370
▁জোরালো	-10371
▁ইসলামকে	-10372
▁তেলে	-10373
তপুর	-10374
▁অধিবেশন	-10375
▁ছবিটা	-10376
▁৮৫	-10377
▁মারার	-10378
▁খামার	-10379
যদি	-10380
▁ক্যারিব	-10381
▁চিকিত্স	-10382
▁সমুদ	-10383
য়েলের	-10384
▁এদেশের	-10385
▁পাইনি	-10386
ধের	-10387
াধা	-10388
রাওয়ার	-10389
▁মূল্যের	-10390
▁অক্ষয়	-10391
াঞ্চল	-10392
▁সমীক্ষ	-10393
▁স্বরূপ	-10394
েন্সের	-10395
ায়নের	-10396
▁হৃদরোগ	-10397
▁গাড়িটি	-10398
▁দিলো	-10399
▁আঁক	-10400
▁In	-10401
ীক্ষিত	-10402
▁ছায়	-10403
▁প্যাকে	-10404
▁লুৎ	-10405
▁মহিউদ্দিন	-10406
▁সেগুলি	-10407
ৰ্	-10408
▁রশীদ	-10409
▁বিশেষজ্ঞদের	-10410
▁পরিবহণ	-10411
▁চেতনা	-10412
▁নিঃশ্বাস	-10413
▁আর্জেন্টিনা	-10414
▁দুদক	-10415
▁বাঙাল	-10416
▁হুগ	-10417
▁ইসি	-10418
▁কাগজে	-10419
▁চাঁদের	-10420
▁জমান	-10421
ুভ	-10422
▁বৈজ্ঞানিক	-10423
▁গার্ম	-10424
▁হাতি	-10425
দন	-10426
▁দিকের	-10427
▁বিপজ্জনক	-10428
▁১২টি	-10429
ik	-10430
▁গার্ল	-10431
▁ধর্মঘট	-10432
▁লন্ডনের	-10433
▁ময়লা	-10434
▁পর্যটক	-10435
▁গ্রেনেড	-10436
▁ঢোকার	-10437
▁বিস্ফোরণের	-10438
ক্যের	-10439
▁দিব্য	-10440
up	-10441
ৎসর	-10442
▁চেয়েছিল	-10443
াদ্য	-10444
▁জার্মানি	-10445
▁প্রত্যেকের	-10446
▁আঘাতে	-10447
▁ভাঙ্গ	-10448
▁স্টেডিয়াম	-10449
▁চ্যাম্পিয়ন্স	-10450
▁মেধা	-10451
▁বসা	-10452
▁ফেললেন	-10453
▁চাট	-10454
▁গ্রেফতারের	-10455
▁ছেলেরা	-10456
পরোয়া	-10457
র্চ	-10458
▁নিস	-10459
াজপুর	-10460
▁হোসেনকে	-10461
▁স্বস্তি	-10462
▁ট্রাকের	-10463
ুমানিক	-10464
▁চালকের	-10465
▁সুবর্ণ	-10466
ায়ত্ত	-10467
▁কাউন্ট	-10468
▁ছাই	-10469
▁জঙ্গলে	-10470
▁প্রতিদ্বন্দ্বী	-10471
▁তীরে	-10472
▁অনেকগুলো	-10473
▁ফেডারেশন	-10474
োড	-10475
▁হুক	-10476
▁দুদকের	-10477
▁মইন	-10478
▁সাধন	-10479
▁পরিকল্পিত	-10480
▁কাটতে	-10481
▁দেও	-10482
▁গুর	-10483
▁১ম	-10484
▁মেগ	-10485
গতির	-10486
▁উঠলেন	-10487
▁ইন্ডিজের	-10488
▁ময়মনসিংহের	-10489
▁ফেলুন	-10490
▁পশ্চিমবঙ্গে	-10491
▁নিবেদন	-10492
▁বিষয়গুলো	-10493
মির	-10494
▁আর্জি	-10495
▁রনি	-10496
▁নারাজ	-10497
সেস	-10498
▁ভারি	-10499
▁আচমকা	-10500
▁দ্বিগুণ	-10501
▁ধারাবাহিকতায়	-10502
▁গড়া	-10503
সৌ	-10504
িছে	-10505
▁বিপাকে	-10506
▁তিস্ত	-10507
▁অনশন	-10508
▁খসড়া	-10509
▁ভাবছেন	-10510
▁সরদার	-10511
ষণের	-10512
▁ছোটো	-10513
▁সকালের	-10514
ত্বর	-10515
▁পশুর	-10516
▁জোগাড়	-10517
▁এটিকে	-10518
▁চুয়া	-10519
▁শামসুল	-10520
লু	-10521
মেল	-10522
▁ঘটিয়ে	-10523
গী	-10524
▁হলিউ	-10525
জিএম	-10526
▁ল্যা	-10527
▁বিলুপ্ত	-10528
পিড	-10529
আপনি	-10530
▁লুই	-10531
▁ডিসেম্বরে	-10532
▁উৎসাহিত	-10533
▁সলমন	-10534
▁কার্যক্রমের	-10535
▁সাব্যস্ত	-10536
লাদ	-10537
▁চিন্তিত	-10538
বাহিনীর	-10539
।’’	-10540
▁নিচু	-10541
▁দেশটিতে	-10542
িটিভি	-10543
▁দুরন্ত	-10544
▁পেঁয়াজের	-10545
▁অনুদান	-10546
▁মহকুমা	-10547
▁চেম্বার	-10548
▁কুই	-10549
▁জানাল	-10550
▁চেষ্টায়	-10551
▁স্ট্যাট	-10552
নাট্য	-10553
▁সঠিকভাবে	-10554
▁কেজ	-10555
▁গণ্ড	-10556
▁বৈচিত্র	-10557
▁নাজিম	-10558
নেক	-10559
▁চারপাশে	-10560
▁প্রত্যাখ্যান	-10561
▁ইবাদ	-10562
▁ঢুকিয়ে	-10563
পূর্বক	-10564
▁থাকল	-10565
বার্ট	-10566
▁শুদ্ধ	-10567
▁বেত	-10568
নার্থ	-10569
▁রুটে	-10570
▁তের	-10571
মারে	-10572
▁হারানোর	-10573
▁উন্নীত	-10574
▁রঞ্জন	-10575
▁পাঁচজন	-10576
িলারা	-10577
▁ক্যাচ	-10578
▁জেরা	-10579
যুদ্ধের	-10580
ht	-10581
▁আইটি	-10582
▁সোহরাওয়ার	-10583
২০১৭	-10584
োরেট	-10585
▁টল	-10586
▁৮টা	-10587
▁টিমের	-10588
▁প্রতিরোধে	-10589
▁মোটেও	-10590
▁আটটি	-10591
▁Sy	-10592
▁বাতাসে	-10593
▁হারায়	-10594
▁বার্ন	-10595
▁গোসল	-10596
ঞ্জি	-10597
▁অধীর	-10598
▁লড়াইয়ের	-10599
▁মুম্বইয়ের	-10600
▁দেওয়ান	-10601
▁প্রাধান্য	-10602
▁রোনালদো	-10603
োটার	-10604
▁একত্র	-10605
▁প্রযোজক	-10606
▁হোয়াটসঅ্যাপ	-10607
▁শতভাগ	-10608
▁মোজাম্মেল	-10609
▁ক্যারিয়ার	-10610
▁স্টিভ	-10611
▁ধাওয়া	-10612
▁দেয়াল	-10613
▁ডাবল	-10614
বাড়িতে	-10615
নিস্ট	-10616
▁চক্রান্ত	-10617
▁শোনার	-10618
▁মালামাল	-10619
▁উপনির্বাচ	-10620
▁আরিফুল	-10621
▁৬২	-10622
মেলা	-10623
▁সোপ	-10624
▁ছুরি	-10625
▁রচিত	-10626
▁শোষ	-10627
৮০	-10628
্ডের	-10629
▁গণধর্ষ	-10630
▁তালাক	-10631
▁ফাঁক	-10632
▁ঝুঁকিপূর্ণ	-10633
▁তাৎপর্য	-10634
▁ঘটল	-10635
।"	-10636
▁কালী	-10637
▁তথ্যপ্রযুক্তি	-10638
নেল	-10639
▁গাফ	-10640
▁নয়ন	-10641
▁অন্যরকম	-10642
▁কাপের	-10643
▁পার্টনার	-10644
▁সাহসী	-10645
▁তিল	-10646
৯৯	-10647
াপে	-10648
ানীর	-10649
▁তবেই	-10650
▁এসোসিয়ে	-10651
▁কৃষকের	-10652
-1	-10653
▁১২০	-10654
ue	-10655
ার্চ	-10656
▁is	-10657
▁ক্ষয়ক্ষ	-10658
▁চাঁদাব	-10659
্টোর	-10660
▁আমীর	-10661
ংলা	-10662
▁বিনিয়োগকারীদের	-10663
জয়ী	-10664
▁সবথেকে	-10665
▁বিশ্বব্যাপী	-10666
▁অজয়	-10667
াহু	-10668
ইয়ে	-10669
ন্দেহে	-10670
▁নির্ণ	-10671
▁মাঝামা	-10672
▁গায়ের	-10673
uck	-10674
নেই	-10675
▁মোস	-10676
িসম্প	-10677
▁মাসেই	-10678
▁প্রীতি	-10679
int	-10680
প্রী	-10681
নায়ক	-10682
▁গুলির	-10683
▁প্রতিপ	-10684
কল্প	-10685
▁এডভোকেট	-10686
▁আনুমানিক	-10687
▁পরিবেশের	-10688
▁পূর্বাভাস	-10689
▁রানী	-10690
▁ডায়ের	-10691
▁সাক্ষাত	-10692
▁একুশে	-10693
▁বাথর	-10694
িকারের	-10695
▁পাথরের	-10696
▁নহে	-10697
▁অ্যাসিড	-10698
▁৭৬	-10699
▁খেলোয়াড়দের	-10700
▁বৈদ	-10701
▁ঘের	-10702
▁ট্যুই	-10703
যাত্রার	-10704
▁পর্দা	-10705
র্কের	-10706
▁চাষের	-10707
▁হাইওয়ে	-10708
নামূলক	-10709
▁গোঁ	-10710
দেবী	-10711
▁মতই	-10712
তদন্ত	-10713
▁বিতর্কে	-10714
▁ঠাকুরের	-10715
▁ফেনী	-10716
৭০	-10717
▁মালেক	-10718
▁দাবির	-10719
▁যোগী	-10720
▁সমুদ্রের	-10721
▁ভালোই	-10722
▁শঙ্কর	-10723
▁বহুল	-10724
▁জাকার	-10725
▁বোঝার	-10726
▁গভর্নর	-10727
▁Bangladesh	-10728
▁নিচ	-10729
▁রেম	-10730
▁জানাচ্ছে	-10731
▁সঞ্চালনায়	-10732
▁লাইনের	-10733
▁বিহারের	-10734
▁ইন্ডিয়ার	-10735
▁জনসাধারণ	-10736
োকে	-10737
▁পার্শ্ববর্তী	-10738
▁প্রবৃদ্ধি	-10739
▁ঐশ্বর	-10740
▁ঘটবে	-10741
▁করানোর	-10742
▁লেগ	-10743
ফলে	-10744
▁মগ	-10745
▁প্রকাশনা	-10746
চারে	-10747
▁সামলে	-10748
▁রিকশা	-10749
▁সমাধানে	-10750
▁দ্বারস্থ	-10751
রক্ষক	-10752
▁সোনালী	-10753
াগন	-10754
▁তপন	-10755
▁বেপরোয়া	-10756
▁তাপস	-10757
▁আফগানিস্তানের	-10758
▁আজহার	-10759
▁দেলোয়ার	-10760
বৃহ	-10761
▁টিন	-10762
▁বিচারে	-10763
▁নিক্ষেপ	-10764
▁বিভক্ত	-10765
▁আশঙ্কাজনক	-10766
▁বাজি	-10767
▁মাঝেম	-10768
▁রুখতে	-10769
▁গবেষকরা	-10770
গুরু	-10771
▁বর্গ	-10772
শালায়	-10773
▁ইঁ	-10774
▁তরুণীর	-10775
▁হাইস্ক	-10776
▁Com	-10777
▁সমাপনী	-10778
▁মেট্রোপল	-10779
▁প্রোডাক	-10780
্বী	-10781
▁মুম্বাই	-10782
বন্ধনে	-10783
▁যাবজ্জ	-10784
▁অ্যাম্বুল	-10785
োত্ত	-10786
▁মাদকদ্রব্য	-10787
▁কমবে	-10788
ৃণা	-10789
▁দিগ	-10790
▁জিতেছে	-10791
▁প্রতারণা	-10792
▁ক্ষণ	-10793
▁কলম্ব	-10794
▁চারদিকে	-10795
▁ভিডিওটি	-10796
▁নোয়াখালী	-10797
▁ঘূর্ণিঝড়	-10798
▁সংযোজন	-10799
ity	-10800
▁বাল্য	-10801
▁ফেলল	-10802
▁৯টার	-10803
▁পেপার	-10804
▁বাবল	-10805
াবর্তন	-10806
▁পরিকাঠ	-10807
ঙ্গিক	-10808
▁শুকিয়ে	-10809
are	-10810
▁ফাঁসির	-10811
▁আফগানিস্তান	-10812
▁রিয়াজ	-10813
ঠা	-10814
▁শিক্ষাবর্ষ	-10815
▁বিশেষভাবে	-10816
স্বামী	-10817
▁বেসামরিক	-10818
▁মুদ্রা	-10819
▁যেদিন	-10820
▁২০০৪	-10821
▁অসীম	-10822
▁e	-10823
ভ্য	-10824
াউন্ট	-10825
▁এও	-10826
▁কহিল	-10827
মুর	-10828
চকে	-10829
▁বকেয়া	-10830
▁বার্তায়	-10831
▁তোল	-10832
▁লিঙ্ক	-10833
▁উজ	-10834
আপনার	-10835
▁শওকত	-10836
।।	-10837
▁হজর	-10838
িল্লাহ	-10839
▁বধ	-10840
▁মনোর	-10841
▁সেজে	-10842
য়েব	-10843
সাগর	-10844
▁পিএস	-10845
▁হাইকম	-10846
▁রক্ষাকারী	-10847
▁অনিল	-10848
▁ভোটগ্রহণ	-10849
▁বিৰ	-10850
▁শ্যামল	-10851
▁পড়ুয়ার	-10852
াময়	-10853
▁বেনাপোল	-10854
▁নেপালের	-10855
▁রাসুল	-10856
▁দেখলেন	-10857
টকে	-10858
▁বাস্তবতা	-10859
▁রাঙ্গ	-10860
▁দুর্ভাগ	-10861
▁হ্যাক	-10862
▁এএফ	-10863
▁আঁকা	-10864
নগরে	-10865
▁পনের	-10866
আরটি	-10867
▁গেলেই	-10868
▁সফলতা	-10869
হাতি	-10870
▁চিং	-10871
▁পাড়ে	-10872
▁ঠিকঠাক	-10873
▁স্তন	-10874
▁নারায়ণগঞ্জের	-10875
▁শ্রেণী	-10876
▁ঝল	-10877
▁বটেই	-10878
ফুর	-10879
▁আসামিদের	-10880
▁ওম	-10881
▁দার্জিল	-10882
▁লাইট	-10883
▁হাফেজ	-10884
▁পড়ায়	-10885
বিভাগ	-10886
▁জনসভায়	-10887
job	-10888
▁হাসিনাকে	-10889
িনিকে	-10890
▁ত্রিপুরা	-10891
যত	-10892
▁সুফল	-10893
▁টেবিলের	-10894
▁শ্রাব	-10895
▁শাহবাগ	-10896
▁মধ্যবিত্ত	-10897
চ্ছেদের	-10898
▁তঁ	-10899
▁ধারালো	-10900
▁দরজায়	-10901
▁চলচ্চিত্রে	-10902
▁হারাম	-10903
▁টেক্সট	-10904
▁মেদিনী	-10905
িপি	-10906
▁বেহ	-10907
শ্বাস	-10908
মঙ্গল	-10909
▁পরিমান	-10910
পুলিশ	-10911
▁শতাংশের	-10912
ভোগী	-10913
▁অবশ	-10914
▁বোঝাই	-10915
ঞ্চলের	-10916
▁সেভ	-10917
▁প্রসাদ	-10918
▁চারা	-10919
বোন	-10920
সুবি	-10921
▁শেরপুর	-10922
▁ধানমন্ড	-10923
▁আন্তঃ	-10924
▁দিবেন	-10925
▁পেরেছেন	-10926
▁দীর্ঘদিনের	-10927
▁ব্রিগেড	-10928
▁অশান্ত	-10929
ড়ন	-10930
▁ক্যান্ট	-10931
▁টয়	-10932
▁blog	-10933
▁ফ্লোর	-10934
▁ডেটা	-10935
▁পকেট	-10936
াঁচ	-10937
▁গুলশান	-10938
▁শিক্ষকরা	-10939
▁বিনিয়োগের	-10940
কার্য	-10941
▁তর্ক	-10942
▁মুফতি	-10943
ost	-10944
▁নোংরা	-10945
ঘাটা	-10946
ায়নে	-10947
সময়ে	-10948
▁অন্যত্র	-10949
ধ্ব	-10950
▁অপূর্ব	-10951
▁শব্দটি	-10952
▁বিলা	-10953
▁ট্যাবলেট	-10954
▁৬৩	-10955
▁ফেডারেশনের	-10956
নাস	-10957
▁কৰাৰ	-10958
▁নববর্ষ	-10959
▁জনসংখ্যা	-10960
▁দাঁড়াল	-10961
▁ডেই	-10962
▁ফরহাদ	-10963
▁জঙ্গিবাদ	-10964
▁ব্রেক	-10965
▁ছুঁড়ে	-10966
▁আশ্র	-10967
চীন	-10968
▁পরোয়ানা	-10969
▁ক্যাম্পাস	-10970
▁বিলে	-10971
গাহ	-10972
ুয়াল	-10973
বন্ধু	-10974
▁অভিজিৎ	-10975
▁অন্তঃ	-10976
্নেয়	-10977
▁পাম্প	-10978
▁পণ্ডিত	-10979
▁শাও	-10980
রায়	-10981
▁অবকাঠামো	-10982
▁রায়হান	-10983
▁খেলেন	-10984
▁দিদি	-10985
▁রাশির	-10986
▁শব্দে	-10987
▁খোলার	-10988
▁মালিকদের	-10989
▁সমন্বিত	-10990
▁গলার	-10991
▁পাও	-10992
▁রিসার্চ	-10993
▁পুষ্টি	-10994
▁দর্শকের	-10995
চক্র	-10996
▁তারক	-10997
▁ওভারের	-10998
▁মাদ্রিদ	-10999
▁লোহার	-11000
▁সামলাতে	-11001
▁ইসমাইল	-11002
▁সাহিত্যিক	-11003
োলো	-11004
আইজি	-11005
িয়ানো	-11006
▁রেখেছিলেন	-11007
▁পৌঁছেছে	-11008
পত	-11009
▁গালি	-11010
▁জায়ে	-11011
▁ব্রিটেনের	-11012
▁হজরত	-11013
▁এদেশে	-11014
▁ইজতে	-11015
▁তাণ্ড	-11016
▁কিন্ত	-11017
▁দেখিয়া	-11018
▁ঝিনাইদহ	-11019
▁কেই	-11020
▁বাসস্ট	-11021
▁বরফ	-11022
স্তরের	-11023
ল্লার	-11024
▁শাখায়	-11025
োনের	-11026
▁নুন	-11027
▁মালয়েশিয়ার	-11028
▁চলাচলের	-11029
▁মুক্তিযোদ্ধাদের	-11030
▁মিথ্যে	-11031
▁অংশীদার	-11032
ুমে	-11033
▁মহিলারা	-11034
▁দৃশ	-11035
▁মুঠো	-11036
▁জাতের	-11037
▁মানা	-11038
▁যতক্ষণ	-11039
▁ফেস্ট	-11040
াইর	-11041
▁আগত	-11042
▁যাবজ্জীবন	-11043
........	-11044
▁গেরুয়া	-11045
▁জমিদার	-11046
▁হয়েছিলো	-11047
▁থাকছেন	-11048
▁বানাতে	-11049
্বাদ	-11050
▁পড়েছিলেন	-11051
▁গুজরা	-11052
▁চিনতে	-11053
▁কুচি	-11054
▁সময়টা	-11055
▁নবীগঞ্জ	-11056
▁জার্সি	-11057
িতি	-11058
▁পড়েনি	-11059
▁মনিরুল	-11060
মাত	-11061
▁রহমত	-11062
▁চাননি	-11063
-0	-11064
▁রোদ	-11065
▁চেষ্টার	-11066
খানায়	-11067
▁আলিয়া	-11068
িয়ারে	-11069
▁হলাম	-11070
▁গন	-11071
ালয়ের	-11072
▁প্রকাশ্য	-11073
াপিত	-11074
▁ব্যতীত	-11075
▁তোফ	-11076
▁শৈশ	-11077
▁বাকী	-11078
▁চ্যাম্পিয়নশিপ	-11079
ুমার	-11080
▁হাতিয়ার	-11081
মায়	-11082
▁কেঁদে	-11083
াপা	-11084
▁আপলোড	-11085
▁খাগড়াছড়ি	-11086
▁সতীর্থ	-11087
▁সেরকম	-11088
▁পরিকল্পনার	-11089
▁পেজ	-11090
▁চাপের	-11091
▁বিদ্যা	-11092
▁প্যান্ট	-11093
▁মদ্য	-11094
▁হতাশা	-11095
▁নন্দী	-11096
▁বিলের	-11097
▁পোস্টে	-11098
▁অজু	-11099
▁বাহার	-11100
▁নিজেরাই	-11101
▁চকরিয়া	-11102
▁হোস্ট	-11103
▁পোশাকে	-11104
বিশেষ	-11105
▁স্থিতিশীল	-11106
▁হেক্টর	-11107
▁আবদুস	-11108
▁দেহে	-11109
▁মজুরি	-11110
**	-11111
▁অগ্রসর	-11112
▁বোঝাতে	-11113
▁আবশ্য	-11114
▁ফিত	-11115
▁ঠিকাদার	-11116
▁বলিতে	-11117
▁মোতাবেক	-11118
▁কমিউনিস্ট	-11119
▁টেলিফোন	-11120
▁ব্যাটাল	-11121
স্বরূপ	-11122
▁কর্তৃপক্ষকে	-11123
▁সিইও	-11124
▁মারধ	-11125
▁বর্ষা	-11126
▁বিস্ফোরণে	-11127
▁গায়	-11128
▁অভিযুক্তদের	-11129
▁ছোঁয়া	-11130
▁পুনর্	-11131
▁সহযোগিতার	-11132
লিপি	-11133
▁শোধ	-11134
াগুলি	-11135
ডিশ	-11136
▁পর্ষদ	-11137
▁শফিউল	-11138
গন্ধ	-11139
▁নেড়ে	-11140
াব্যব	-11141
▁কৃষকরা	-11142
থন	-11143
▁হারাতে	-11144
▁পরাজয়	-11145
▁আগ্নেয়	-11146
▁এঁদের	-11147
▁ঝুলন্ত	-11148
▁ছত্র	-11149
▁বিশ্বনাথ	-11150
▁অভিজ্ঞতার	-11151
▁আয়ার	-11152
বৃত্ত	-11153
▁ষ্ট	-11154
▁জার্ন	-11155
▁মন্ত্রকের	-11156
চনার	-11157
মহাদেশ	-11158
▁জামিনের	-11159
▁চক্রবর্ত	-11160
▁নিই	-11161
▁যখনই	-11162
▁তৈরিতে	-11163
▁চাও	-11164
ডব্লিউ	-11165
্রিয়	-11166
▁মুহুর	-11167
▁স্কোয়া	-11168
▁হুমকির	-11169
ার্থে	-11170
ঁচা	-11171
ার্ধে	-11172
▁গুলশ	-11173
▁গুঁড়ো	-11174
▁প্রতিশ	-11175
▁জয়নাল	-11176
▁হুজ	-11177
বিডি	-11178
▁ছাদে	-11179
▁ব্যায়াম	-11180
▁খ্যাতি	-11181
▁টানে	-11182
াঁই	-11183
ুলা	-11184
▁ইয়াব	-11185
▁খোর	-11186
দ্রো	-11187
▁সন্দেহে	-11188
▁ইদান	-11189
গুনা	-11190
▁নেশা	-11191
▁জামালপুর	-11192
▁মুমিন	-11193
▁বিশ্বাসী	-11194
▁কঙ্গ	-11195
▁চেয়ারম্যানের	-11196
গল	-11197
▁প্রাঙ্গণে	-11198
▁অক্সিজ	-11199
▁বিসিএস	-11200
▁আশার	-11201
▁কার্তিক	-11202
তলার	-11203
▁গান্ধীর	-11204
▁অ্যাসোসিয়েশনের	-11205
হাব	-11206
▁যাপন	-11207
▁অ্যান্টি	-11208
▁সিএএ	-11209
▁কদ	-11210
বাহিত	-11211
েস্টার	-11212
▁অস্বস্ত	-11213
▁পুনর্বাস	-11214
▁সিটির	-11215
▁দূতাবাস	-11216
▁এনজিও	-11217
▁তত্ত্বাবধায়ক	-11218
▁St	-11219
▁সংবাদমাধ্যমের	-11220
িয়নের	-11221
▁লাগিল	-11222
▁দাদ	-11223
▁উদয	-11224
▁ভাঙার	-11225
▁কারি	-11226
▁মমত	-11227
▁পেই	-11228
▁ভূঁইয়া	-11229
াদশ	-11230
▁যাইতে	-11231
▁ফেই	-11232
▁সাভার	-11233
▁সিনহা	-11234
▁করিবার	-11235
▁ইহা	-11236
▁প্রযোজনা	-11237
▁প্রত্যাহারের	-11238
ব্যাক	-11239
▁রঙিন	-11240
▁প্রযোজ্য	-11241
▁ফোঁ	-11242
▁তরুণদের	-11243
াউদ্দিন	-11244
ফাই	-11245
▁ছুর	-11246
ার্ন	-11247
র্ণা	-11248
▁বাটা	-11249
▁দুনিয়ায়	-11250
▁ক্ষেত	-11251
▁মর্মান্ত	-11252
চট্টগ্রাম	-11253
সিদ্ধ	-11254
▁গ্ৰ	-11255
সম্পদ	-11256
▁সৈকত	-11257
▁লাউ	-11258
▁টেলিযোগাযোগ	-11259
▁মৌখ	-11260
▁নূরুল	-11261
▁রিম	-11262
স্ত্রী	-11263
▁ঋত	-11264
গাল	-11265
▁মেঝে	-11266
CoxsbazarNEWS	-11267
▁CoxsbazarNEWS	-11268
ওই	-11269
▁শিশুটিকে	-11270
▁ডিউ	-11271
▁নক্ষ	-11272
▁হালিম	-11273
▁বুম	-11274
তাবির	-11275
▁যমুনা	-11276
▁ভগবান	-11277
▁সেমিন	-11278
▁দাফন	-11279
▁প্রেসিডেন্টের	-11280
▁জরিপ	-11281
▁প্যাকেট	-11282
▁ফোরামের	-11283
পাতের	-11284
ালেই	-11285
াবাবু	-11286
▁উন্মোচন	-11287
বুত	-11288
▁জামে	-11289
াচার্যের	-11290
নির্ভর	-11291
▁সাস	-11292
▁রাহুলের	-11293
',	-11294
▁এমনভাবে	-11295
হাটের	-11296
▁এক্সচেঞ্জ	-11297
▁হিংস	-11298
▁মালা	-11299
স্টেবল	-11300
▁রাজনীতিক	-11301
▁আনি	-11302
▁পরিণতি	-11303
▁বন্ড	-11304
▁এতটা	-11305
▁রাখছে	-11306
▁প্রক্রিয়ার	-11307
▁পুষ্ট	-11308
রকে	-11309
অপ	-11310
কারীকে	-11311
▁অসা	-11312
▁ক্রমে	-11313
▁ইন্	-11314
মানি	-11315
▁বলেছিলাম	-11316
্দ্ৰ	-11317
▁কাঁটা	-11318
▁কান্ন	-11319
▁সমর্থিত	-11320
ডিপি	-11321
▁সীমানা	-11322
▁যম	-11323
জুল	-11324
▁আসান	-11325
▁কন্য	-11326
▁টঙ্গ	-11327
য়াক	-11328
সিড	-11329
রুমে	-11330
র্প	-11331
সকে	-11332
▁ইসরাইল	-11333
▁মণি	-11334
নির্ব	-11335
▁শারমিন	-11336
▁স্থাপিত	-11337
▁শুনি	-11338
▁অনিচ্ছ	-11339
ফোনে	-11340
▁দাসের	-11341
▁গ্লোবাল	-11342
ice	-11343
▁কোমল	-11344
▁ফাঁসি	-11345
▁সেন্টারের	-11346
▁ছাত্রের	-11347
াণু	-11348
ড়িত	-11349
▁আরবে	-11350
িনিউ	-11351
▁ডাকাতি	-11352
▁মুসা	-11353
▁পৌঁছতে	-11354
ঁচিয়ে	-11355
▁থামিয়ে	-11356
শোর	-11357
▁সায়েন্স	-11358
▁ভালই	-11359
▁বুথ	-11360
▁পাউ	-11361
▁হাসানের	-11362
াপ্তাহ	-11363
▁অস্ত্রের	-11364
▁আত্মসমর্পণ	-11365
▁মাঝামাঝি	-11366
▁তোফায়েল	-11367
▁নিঃসন্দেহে	-11368
▁নিজাম	-11369
্যুতিক	-11370
ন্যা	-11371
▁আরাফ	-11372
▁কতটুকু	-11373
▁জানতেন	-11374
লিন	-11375
পরিষদ	-11376
▁৮টার	-11377
পাড়ায়	-11378
▁৮টি	-11379
াল্ট	-11380
▁১১টি	-11381
▁ৰাজ্য	-11382
▁মেটাতে	-11383
▁মেট্রোপলিটন	-11384
জীবী	-11385
ant	-11386
▁ইউটিউব	-11387
সেনার	-11388
▁ডায়াবেটিস	-11389
াড়ির	-11390
▁ইনভ	-11391
▁প্রদেশে	-11392
▁সামিল	-11393
▁টেকসই	-11394
▁যাহ	-11395
▁রানি	-11396
ীনের	-11397
▁ইনকি	-11398
▁আতঙ্কে	-11399
পার্ট	-11400
▁বন্দরে	-11401
▁তামিলনাড়	-11402
শিট	-11403
▁সবগুলো	-11404
▁ওনার	-11405
▁সিসি	-11406
ান্তরের	-11407
▁সূত্রপাত	-11408
▁আনিসুল	-11409
▁গ্রুপে	-11410
▁9	-11411
▁নেয়নি	-11412
▁বর্জন	-11413
▁মধ্যম	-11414
▁দুজনকে	-11415
▁দেশজুড়ে	-11416
▁প্রতিদিনই	-11417
▁৯টি	-11418
▁কল্যাণে	-11419
▁স্বাস্থ্যের	-11420
আস	-11421
▁লিঙ্গের	-11422
▁অঙ্কের	-11423
▁কাছের	-11424
▁বিনয়	-11425
▁দিয়েও	-11426
▁পেলেই	-11427
▁মুহিত	-11428
▁ঃ	-11429
▁ফেলবে	-11430
িরেই	-11431
▁গ্র্যান্ড	-11432
▁আত্মার	-11433
▁শিষ	-11434
▁মানুষই	-11435
▁বিধানসভায়	-11436
নিকে	-11437
▁টেনিস	-11438
▁কুমারের	-11439
▁চাপিয়ে	-11440
▁টস	-11441
ক্ষার	-11442
▁লেনদেনের	-11443
▁তারপরই	-11444
▁হত্যাকাণ্ড	-11445
▁ফজলে	-11446
▁ছিন্ন	-11447
▁ভোটা	-11448
▁ডিভিশন	-11449
▁হয়রানির	-11450
▁গাম	-11451
▁রজন	-11452
▁সাগরে	-11453
▁মর্মান্তিক	-11454
▁পরতে	-11455
োচিত	-11456
করণের	-11457
▁মর্যাদ	-11458
▁থাকব	-11459
জাদ	-11460
▁কাজকর্ম	-11461
ুল্য	-11462
চ্যুত	-11463
▁শরিফ	-11464
প্রায়	-11465
▁অ্যাকাউন্টে	-11466
লীয়	-11467
▁8	-11468
▁বাঁচিয়ে	-11469
বস	-11470
কেন্দ্রে	-11471
▁মূল্যবোধ	-11472
যার	-11473
▁চ্যানেলে	-11474
ুতির	-11475
▁বড়ুয়া	-11476
িভার	-11477
▁দেখিনি	-11478
▁জ্বালিয়ে	-11479
▁৬১	-11480
▁কিশোরগঞ্জ	-11481
▁২০০৫	-11482
▁আদর	-11483
▁ক্লাসে	-11484
▁ট্যুর	-11485
▁কনস্টেবল	-11486
স্যুর	-11487
▁রয়টার	-11488
িব্র	-11489
▁লিংক	-11490
▁সম্মতি	-11491
▁স্প্যানিশ	-11492
য়েট	-11493
▁ব্লগার	-11494
▁সৃজনশীল	-11495
▁খুচ	-11496
শূন্য	-11497
▁গ্রীষ্ম	-11498
ণ্ডার	-11499
বানি	-11500
▁আর্জেন্টিনার	-11501
▁এলাম	-11502
▁দিনেই	-11503
ফিস	-11504
▁অলরাউন্ডার	-11505
দহের	-11506
▁কার্যক	-11507
▁আরেকটা	-11508
▁চিল	-11509
▁প্রণব	-11510
▁মন্ত্রণালয়ে	-11511
▁ততই	-11512
▁থ্র	-11513
▁প্লেয়ার	-11514
ারোপ	-11515
▁তলিয়ে	-11516
▁ঝুলিয়ে	-11517
▁কমন	-11518
▁নওয়াজ	-11519
▁হুমায়ূন	-11520
▁বসুন্ধরা	-11521
▁অতীতের	-11522
▁রফতানি	-11523
▁সচিবালয়ে	-11524
▁বেলাল	-11525
্যারে	-11526
রাতের	-11527
▁লগতে	-11528
▁৮৮	-11529
ld	-11530
দূ	-11531
▁কন্ড	-11532
▁মুনাফা	-11533
বলিত	-11534
▁খানে	-11535
▁নাহিদ	-11536
▁চিকিৎসায়	-11537
▁চাচা	-11538
ছড়া	-11539
▁অভিশ	-11540
▁গায়ক	-11541
▁ভাঙন	-11542
জমিনে	-11543
▁ব্রাহ্মণবাড়	-11544
▁বিস্মিত	-11545
ৎসব	-11546
ুয়েল	-11547
▁দমকল	-11548
কিক	-11549
▁উদার	-11550
▁পকেটে	-11551
▁আসায়	-11552
▁নিদর্শন	-11553
▁বৈদ্যুতিক	-11554
▁একাডেমির	-11555
▁বিসিবি	-11556
▁বারান্দায়	-11557
▁পিটি	-11558
বান্ধব	-11559
হায়	-11560
▁ঘৃণা	-11561
▁যাবো	-11562
াবাড়ী	-11563
▁ডিসেম্বরের	-11564
▁রিপন	-11565
▁মোহনবাগান	-11566
▁জুট	-11567
▁সামাল	-11568
োত্তর	-11569
▁সোহরাওয়ার্দী	-11570
▁রও	-11571
িয়াজ	-11572
▁বেশকিছু	-11573
পুকুর	-11574
▁হেলিকপ্টার	-11575
▁রিয়াদ	-11576
▁মন্ত্রি	-11577
ছবি	-11578
▁ঈশ্বরের	-11579
▁জেমস	-11580
▁পুকুরে	-11581
▁আল্ল	-11582
▁ছাগল	-11583
▁জোড়	-11584
▁কৌশলে	-11585
▁সাহায্যের	-11586
▁মাল্ট	-11587
▁স্বর	-11588
▁রবীন্দ্রনাথের	-11589
▁প্রাই	-11590
▁সক্ষমতা	-11591
▁সুদী	-11592
▁রাজাকার	-11593
▁যুক্তরাজ্যের	-11594
▁রাখলে	-11595
▁৯৫	-11596
াত্ত্বিক	-11597
▁বর্বর	-11598
▁সংকেত	-11599
▁সুখী	-11600
াবান	-11601
▁প্রভু	-11602
▁শ্রেণিতে	-11603
▁ভাইকে	-11604
পাতা	-11605
য়েদ	-11606
▁ছাত্রছাত্রীদের	-11607
▁থাকাক	-11608
▁বর্ণা	-11609
▁মুক্তিযুদ্ধে	-11610
▁পূজার	-11611
▁কও	-11612
▁দিলেই	-11613
▁জিম্বাব	-11614
▁ভিয়ে	-11615
▁প্রশাসকের	-11616
wjob	-11617
▁গড়িয়ে	-11618
all	-11619
▁৮৬	-11620
বার্গ	-11621
▁htt	-11622
াণিত	-11623
▁ছন্দ	-11624
▁কমানো	-11625
▁রজ	-11626
বিএস	-11627
▁পারফর্ম	-11628
▁ফুটেজ	-11629
হানা	-11630
▁রবিন	-11631
ss	-11632
▁নিয়ন্ত্রিত	-11633
▁৬০০	-11634
▁মজিদ	-11635
▁ফিল্ড	-11636
▁মাইন	-11637
▁উদ্যান	-11638
ঘাটের	-11639
নেশ	-11640
▁মার্চের	-11641
▁করণীয়	-11642
ie	-11643
টনা	-11644
▁বিশুদ্ধ	-11645
▁দরে	-11646
▁বাদল	-11647
▁বিকৃত	-11648
▁বুলবুল	-11649
▁তৃপ্ত	-11650
ফাইল	-11651
▁ডিন	-11652
▁জামায়াতে	-11653
▁চট	-11654
▁রাখাইন	-11655
▁নাত	-11656
▁ফিটনেস	-11657
▁কানাডার	-11658
▁আৰক্ষী	-11659
▁চাকরিতে	-11660
▁জিডি	-11661
▁বেগমের	-11662
▁সিঁড়ি	-11663
▁ব্যাহত	-11664
▁অপরাধী	-11665
▁বাতি	-11666
▁কবলে	-11667
▁প্রসব	-11668
▁টেকনিক	-11669
▁মিরাজ	-11670
▁জাপানি	-11671
▁ক্রাইম	-11672
▁প্রতিদিনের	-11673
▁গর্বিত	-11674
▁রেজিস্ট্রেশন	-11675
▁ল্যান্ড	-11676
▁লং	-11677
▁বাঁকুড়া	-11678
▁লাগার	-11679
ংখ	-11680
াকর	-11681
▁রায়কে	-11682
▁ঘটেনি	-11683
▁এসো	-11684
▁প্রহর	-11685
▁দপ্তরে	-11686
ইডি	-11687
▁কৃতজ্ঞতা	-11688
কর্তা	-11689
▁মনসুর	-11690
▁শতকরা	-11691
▁অনা	-11692
▁দেশটি	-11693
▁শাহরিয়ার	-11694
সংগঠ	-11695
াক্স	-11696
ডিবি	-11697
ক্তা	-11698
বনির	-11699
▁স্পেন	-11700
▁ক্যানসার	-11701
িস্থ	-11702
▁চোরা	-11703
▁এবছর	-11704
▁জলপাইগুড়ি	-11705
▁মশা	-11706
্তার	-11707
মায়ের	-11708
▁ইসলামি	-11709
াশা	-11710
উক	-11711
▁খাতা	-11712
▁ভবিষ্যতের	-11713
▁দুজনেই	-11714
▁বিষ্ণু	-11715
▁এয়ারলাই	-11716
াপ্রাপ্ত	-11717
▁ছিঁড়ে	-11718
▁কমতে	-11719
ষ্টিত	-11720
মাণবিক	-11721
▁বর্ডার	-11722
▁নামা	-11723
▁জিপিএ	-11724
▁শিশুটি	-11725
দিনাজপুর	-11726
▁প্রহ	-11727
▁ঝাঁপিয়ে	-11728
▁৬টা	-11729
▁সিআইডি	-11730
▁রোধে	-11731
াপ্তাহিক	-11732
??	-11733
ঙের	-11734
▁অভিভাবকদের	-11735
দুয়ার	-11736
▁One	-11737
▁উৎপাদনের	-11738
▁মেঘনা	-11739
ud	-11740
▁উদ্বোধ	-11741
▁মঈন	-11742
▁ফেরা	-11743
▁ইলিয়াস	-11744
কৌশ	-11745
গণের	-11746
▁খানকে	-11747
▁বাহির	-11748
▁স্টাইল	-11749
ন্ত্রিত	-11750
▁স্তর	-11751
▁মুসল্ল	-11752
কাটা	-11753
▁করতেও	-11754
▁মেজাজ	-11755
▁পাঠ্য	-11756
▁সাজ্জ	-11757
▁অন্যান	-11758
▁কাপে	-11759
▁সহিংসতা	-11760
▁তক	-11761
▁ফাতে	-11762
▁নগরের	-11763
▁কর্মসূচী	-11764
▁আদম	-11765
▁পদোন্ন	-11766
র্ঘ্য	-11767
▁সম্প্রী	-11768
▁বার্সেলোনা	-11769
▁উচ্চতা	-11770
▁হিরো	-11771
▁দেখিতে	-11772
তবে	-11773
বার্তা	-11774
▁দায়রা	-11775
ard	-11776
▁ঘাঁটি	-11777
▁পারস্প	-11778
▁ফোর্স	-11779
▁সংকটের	-11780
▁৭৩	-11781
▁বন্দরের	-11782
▁ভাবি	-11783
্বই	-11784
প্রসাদ	-11785
▁ক্রমেই	-11786
▁কামার	-11787
▁বাদশা	-11788
▁সম্বল	-11789
ভ্র	-11790
▁পিটার	-11791
▁উন্নতির	-11792
▁কক	-11793
▁দেওয়াল	-11794
▁প্রত্যেকটি	-11795
▁নৌকায়	-11796
াজাহান	-11797
▁ব্যবস্থায়	-11798
▁ছাপা	-11799
▁বর্ণাঢ্য	-11800
▁ফেরদৌস	-11801
▁খুলনার	-11802
▁৯৬	-11803
▁সেন্সর	-11804
নামা	-11805
▁ছাপিয়ে	-11806
▁ফিজ	-11807
রাজ্য	-11808
▁গবেষণ	-11809
▁বদর	-11810
বছরের	-11811
ানক	-11812
▁যৌথভাবে	-11813
▁সারি	-11814
▁কাসেম	-11815
▁বাঙ্গ	-11816
▁ব্যক্তিরা	-11817
শর	-11818
▁কিত	-11819
▁ৰাজ	-11820
▁নির্মল	-11821
▁যন্ত্রপাতি	-11822
▁পরো	-11823
▁সাংবিধানিক	-11824
▁নীতির	-11825
▁যাহা	-11826
শিয়ায়	-11827
▁খিল	-11828
ide	-11829
▁মুজাহ	-11830
▁বহুত	-11831
▁হজম	-11832
▁নুরু	-11833
▁বানানোর	-11834
▁করে৷	-11835
▁মতিন	-11836
▁সেটার	-11837
▁কাছেও	-11838
▁রাত্রে	-11839
▁রসুন	-11840
বিদেশ	-11841
▁ফৌ	-11842
▁বিজ্ঞানের	-11843
স্ফ	-11844
টাকা	-11845
উদ্দীন	-11846
▁আসলেই	-11847
▁তদার	-11848
▁গাইড	-11849
▁জানালা	-11850
খ্যার	-11851
▁কর্মচারীদের	-11852
▁More	-11853
▁রেহাই	-11854
▁অগাস্ট	-11855
▁গরীব	-11856
▁বচ্চন	-11857
▁বাজেটের	-11858
িয়ের	-11859
▁হাজারো	-11860
▁অন্যরা	-11861
▁মহাসড়ক	-11862
রবান	-11863
▁পোশাকের	-11864
ৃত্যু	-11865
▁সঙ্কট	-11866
▁মেয়াদে	-11867
মারী	-11868
▁পাল্ট	-11869
▁পারলেও	-11870
▁বৃত্তি	-11871
▁ধরেছে	-11872
▁দারিদ্র্য	-11873
▁দামি	-11874
▁নাটকে	-11875
▁হরম	-11876
▁চেয়েছে	-11877
▁লতিফ	-11878
▁মুরাদ	-11879
▁করিব	-11880
▁যাঁর	-11881
▁কারাব	-11882
▁হাস্য	-11883
▁ভাষণে	-11884
▁ডেলিভার	-11885
মূখ	-11886
▁খলিল	-11887
▁অনুপ্রের	-11888
▁পিচ	-11889
▁স্বদেশ	-11890
▁সুখের	-11891
▁পাওনা	-11892
▁নিয়ন্ত্রক	-11893
▁গোপালগঞ্জ	-11894
▁রন	-11895
ৃহে	-11896
▁ব্যয়ে	-11897
▁কতো	-11898
▁রিয়েল	-11899
▁উপদেশ	-11900
সমূহের	-11901
হাদের	-11902
▁মুশফিকুর	-11903
বানী	-11904
ies	-11905
▁বন্ধন	-11906
▁ইলেক্ট	-11907
▁গোয়াল	-11908
▁সেনগুপ্ত	-11909
▁সন্ত্রাসীদের	-11910
শিব	-11911
▁টেলিভিশনের	-11912
▁শিখতে	-11913
▁সাইন	-11914
▁দুদিন	-11915
▁আইসিটি	-11916
▁জানিয়েছিল	-11917
ন্তর	-11918
▁ব্যবসায়ীকে	-11919
▁নইলে	-11920
▁জেএম	-11921
▁যন্ত্রণ	-11922
oc	-11923
িতেও	-11924
ook	-11925
▁বিদায়ী	-11926
▁ঝরে	-11927
▁পরিত	-11928
ive	-11929
▁শিল্পকলা	-11930
▁টেলিক	-11931
▁ছবিটির	-11932
▁কারাগার	-11933
▁মস্ক	-11934
▁অবিশ্বাস্য	-11935
▁মন্ট	-11936
▁অ্যাপ্ল	-11937
▁সাজে	-11938
▁পারমাণবিক	-11939
▁গণেশ	-11940
▁শিরোনাম	-11941
ড়াইয়া	-11942
▁ঘেঁ	-11943
▁দোল	-11944
▁রাকিব	-11945
▁শিল্পীদের	-11946
ামু	-11947
▁চন্দ	-11948
▁ক্রিস্ট	-11949
িরাম	-11950
▁সভানে	-11951
▁আলাউদ্দিন	-11952
▁সাঁতার	-11953
▁সিরাজগঞ্জ	-11954
▁গিল	-11955
ৰ্ব	-11956
গুড়ির	-11957
▁আমানত	-11958
▁ক্যাশ	-11959
▁ঘটেছিল	-11960
বাসীকে	-11961
াচল	-11962
ৈক	-11963
▁জনগোষ্ঠীর	-11964
▁উঠলো	-11965
াবতী	-11966
▁হাঁটা	-11967
প্রার্থী	-11968
▁অগ্রাধিকার	-11969
▁পান্ড	-11970
তিয়ার	-11971
মাট	-11972
▁স্ক্রিন	-11973
▁জিজ্ঞাসাবাদের	-11974
▁বান্ধবী	-11975
্দেশ	-11976
▁অ্যান্ড্রয়েড	-11977
▁কস	-11978
▁সঙ্ঘ	-11979
ভৌ	-11980
▁আসতেই	-11981
▁হাউজ	-11982
▁বিক্রেতা	-11983
ত্যাগের	-11984
গোষ্ঠ	-11985
▁পেছনের	-11986
▁বাড়ায়	-11987
ান্ডের	-11988
▁গরমে	-11989
টুক	-11990
ভেদ	-11991
▁দিঘ	-11992
▁ইতাল	-11993
▁ভয়ংকর	-11994
▁আজিজুল	-11995
▁তুলনামূলক	-11996
▁সজীব	-11997
▁জুতো	-11998
▁মাফ	-11999
ানুগ	-12000
▁৭টি	-12001
মুসলিম	-12002
▁বিষাক্ত	-12003
▁নাঈ	-12004
▁দায়িত্বশীল	-12005
িরি	-12006
▁বিম	-12007
▁বুড়ি	-12008
▁ফিরেছেন	-12009
▁মার্কেটিং	-12010
▁প্রি	-12011
▁বিবাদ	-12012
▁আবেদীন	-12013
▁তপ	-12014
▁অনুমোদিত	-12015
▁যায়৷	-12016
▁মরিচ	-12017
হাটে	-12018
▁ওইদিন	-12019
▁বাবুর	-12020
▁উপমহাদেশ	-12021
বয়স্ক	-12022
প্রস্ত	-12023
aj	-12024
মিত্র	-12025
▁ধাত	-12026
▁ওষুধের	-12027
▁ঠোঁট	-12028
▁যশোরের	-12029
▁মাত্রায়	-12030
▁পিসি	-12031
▁মোকাবেলা	-12032
বেশি	-12033
▁উদ্বুদ্ধ	-12034
চৌ	-12035
▁চিনে	-12036
পালের	-12037
▁দেশেই	-12038
▁নামাজের	-12039
▁স্বাভাবিকভাবেই	-12040
▁শেরে	-12041
▁স্যামসাং	-12042
▁বিমানবন্দরের	-12043
▁বলের	-12044
▁রক্তচাপ	-12045
▁পরিস্কার	-12046
▁রান্নার	-12047
▁মানসিকতা	-12048
▁ফ্যাক	-12049
িশার	-12050
▁দীপক	-12051
িডেন্ট	-12052
▁ফাস্ট	-12053
▁জিনিসপত্র	-12054
▁পারতাম	-12055
▁অশ্র	-12056
▁আক্ষেপ	-12057
▁৯৮	-12058
▁দলিত	-12059
▁অত্যাধুনিক	-12060
্টিক	-12061
▁মশার	-12062
▁সাপে	-12063
▁লালমনির	-12064
▁গ্রেপ্তারের	-12065
▁সংবাদমাধ্যমে	-12066
▁পাল্লা	-12067
▁পৃষ্ঠা	-12068
▁মাইকেল	-12069
▁আসামির	-12070
▁ইড	-12071
▁রোপ	-12072
▁সিলিন	-12073
▁মন্ত্রিসভার	-12074
নীর	-12075
▁সুস্পষ্ট	-12076
▁উল্ল	-12077
▁বাড়িতেই	-12078
▁বন্যায়	-12079
▁খালিদ	-12080
▁তালিকার	-12081
▁গাঁজা	-12082
▁শিলিগুড়ি	-12083
▁জুব	-12084
▁হ্যায়	-12085
প্প	-12086
▁বুখ	-12087
▁চাঞ্চল্যকর	-12088
েলর	-12089
▁উৎপাদিত	-12090
▁সার্কিট	-12091
▁লাফিয়ে	-12092
▁চিন্তায়	-12093
▁লেখকের	-12094
▁প্রতিষ্ঠানটির	-12095
▁একাউন্ট	-12096
▁ফাহ	-12097
▁মহাশ	-12098
▁সাধ্য	-12099
▁রুদ্র	-12100
▁আবহাওয়ার	-12101
বেদনা	-12102
▁বুন	-12103
▁লুটপাট	-12104
▁নিশ্চিন্ত	-12105
োজন	-12106
িলায়	-12107
▁একশো	-12108
▁লেখায়	-12109
▁নর্থ	-12110
▁এরদ	-12111
▁জেতা	-12112
ান্তরে	-12113
ভিতে	-12114
▁ক্যাটাগর	-12115
▁প্রতিনিধিত্ব	-12116
▁মডেলের	-12117
গুলোয়	-12118
▁অভ্যস্ত	-12119
▁ব্যবসায়িক	-12120
▁আবূ	-12121
▁আবহ	-12122
▁নার্সিং	-12123
▁পিছন	-12124
▁৮৭	-12125
▁জাভ	-12126
▁সর্বদা	-12127
দাল	-12128
▁আলেম	-12129
িমেন্ট	-12130
য়িং	-12131
▁চক্ষু	-12132
▁অভিহিত	-12133
▁চৈ	-12134
▁আবদ্ধ	-12135
িউন	-12136
▁আসরের	-12137
▁সন্ত্রাসবাদ	-12138
্মাণ	-12139
▁নিবেদ	-12140
▁প্রকাশে	-12141
▁স্পেনের	-12142
▁উঠেছেন	-12143
▁উদয়	-12144
▁গাঁধী	-12145
▁দুষ্ট	-12146
▁কাঞ্চ	-12147
▁বহুদিন	-12148
▁ন্যায্য	-12149
সেল	-12150
▁আরএসএস	-12151
▁বেজে	-12152
▁প্রান্তিক	-12153
▁খাচ্ছে	-12154
▁উপকারী	-12155
▁বিরুদ্ধ	-12156
পারের	-12157
▁ক্রীড়	-12158
▁দাঁড়ানোর	-12159
▁আনেন	-12160
▁জনপ্রতিনিধি	-12161
াগে	-12162
্নী	-12163
্যাজ	-12164
▁বাপের	-12165
▁প্রেক্ষাপটে	-12166
▁অরবিন্দ	-12167
তাবিরোধী	-12168
▁প্লাট	-12169
▁৭৪	-12170
▁ম্যাল	-12171
ওড়া	-12172
জ্জিত	-12173
খোলা	-12174
▁যেগুলো	-12175
▁ঘাস	-12176
▁এরূপ	-12177
▁মঠ	-12178
▁প্রাপ্য	-12179
িপাড়া	-12180
▁বললেও	-12181
▁ম্যাচেই	-12182
▁প্রতিশোধ	-12183
ক্ষের	-12184
▁২০টি	-12185
▁হিংসা	-12186
▁আবাসন	-12187
▁সুবাদে	-12188
▁প্রশ্নপত্র	-12189
▁ব্যবসায়ীর	-12190
▁লোককে	-12191
চালিত	-12192
▁সাপ্তাহিক	-12193
▁ব্রাউ	-12194
▁নির্ভরশীল	-12195
▁অস্ত্রোপচার	-12196
▁মানি	-12197
▁সিকদার	-12198
▁জীবনযাপন	-12199
মণ	-12200
▁২০২১	-12201
▁ফেরেন	-12202
▁আইফোন	-12203
▁ভাং	-12204
▁তোপ	-12205
▁ভাগে	-12206
▁চারিদ	-12207
াড়ী	-12208
▁নিরাপদে	-12209
▁Home	-12210
ভাগে	-12211
▁নিরীহ	-12212
▁রমজ	-12213
্টিন	-12214
▁সেচ	-12215
▁কমছে	-12216
▁রিপাবলিক	-12217
▁ঘাতক	-12218
▁মর্ম	-12219
▁অবকাশ	-12220
আরও	-12221
▁ক্যাটর	-12222
▁লিখেছিলেন	-12223
▁৭৯	-12224
ছান	-12225
▁ধসে	-12226
▁অডিও	-12227
▁বিলম্ব	-12228
আব	-12229
▁প্রশিক্ষণের	-12230
▁যেটি	-12231
ভিউ	-12232
যজ্ঞ	-12233
▁দাল	-12234
▁এসবের	-12235
▁দখলের	-12236
▁শিল্পীর	-12237
▁blowjob	-12238
▁প্রস্তাবে	-12239
িনীতে	-12240
het	-12241
▁আয়োজক	-12242
▁দড়ি	-12243
▁ছুটিতে	-12244
▁বসেই	-12245
end	-12246
▁প্রত্যন্ত	-12247
▁হ্যাট	-12248
▁কার্ডের	-12249
▁গণহত্যা	-12250
▁কর্মীকে	-12251
▁হও	-12252
▁ছাত্রদল	-12253
▁কর্তাদের	-12254
▁পার্কের	-12255
▁থিয়েটার	-12256
▁পাঠিয়েছেন	-12257
ফোর	-12258
▁দেখাচ্ছে	-12259
কলক	-12260
▁মিষ্ট	-12261
▁কোল	-12262
▁পুরান	-12263
▁জনসংযোগ	-12264
▁সংঘাত	-12265
▁হরতাল	-12266
▁বালুর	-12267
▁থ্রি	-12268
▁স্তম্ভ	-12269
ুড়ে	-12270
▁নিৰ্বাচ	-12271
▁শেয়ারের	-12272
ec	-12273
▁অন্ন	-12274
দৈ	-12275
সুবিধা	-12276
াপুরের	-12277
▁বেয়ে	-12278
▁দৈনন্দ	-12279
▁তথ্যমন্ত্রী	-12280
িতেছে	-12281
▁মন্ত্রক	-12282
▁হাশ	-12283
নোর	-12284
▁তাতেও	-12285
্তি	-12286
▁পোষণ	-12287
▁নম্বরের	-12288
▁দলগুলোর	-12289
জানা	-12290
▁প্রবাহিত	-12291
▁আকস্ম	-12292
▁শুরুটা	-12293
▁তিনটে	-12294
▁কষ	-12295
▁তোলপাড়	-12296
ঘন	-12297
▁ধরন	-12298
▁বলাই	-12299
স্বজন	-12300
▁টিভির	-12301
▁মেরামত	-12302
▁রেগে	-12303
▁ট্রলার	-12304
পরিচয়	-12305
▁বিয়েতে	-12306
▁জাস্ট	-12307
▁কোনোভাবেই	-12308
ন্থা	-12309
▁ইনকিলাব	-12310
▁মিজান	-12311
▁থিম	-12312
াক্ষিক	-12313
▁শিক্ষার্থীকে	-12314
▁দলই	-12315
▁নয়৷	-12316
বারই	-12317
▁প্রগতি	-12318
▁পাচারের	-12319
▁যথার্থ	-12320
▁নবনির	-12321
▁জিএসটি	-12322
▁অনায়	-12323
▁ক্রিম	-12324
▁লিন	-12325
ত্তে	-12326
েটর	-12327
▁মোদীকে	-12328
▁চাইলেন	-12329
▁নির্মাণে	-12330
ড়ক	-12331
▁বেচ	-12332
▁গাধা	-12333
াদিগ	-12334
▁য়ে	-12335
▁হাতেই	-12336
াইনে	-12337
▁প্রতারণার	-12338
াপত্র	-12339
▁১৯৯৬	-12340
▁অ্যাটর্নি	-12341
ডোর	-12342
▁ঘোষনা	-12343
▁অন্যান্যের	-12344
▁চান্দ	-12345
ডেন্ট	-12346
▁দেখিয়েছেন	-12347
▁টাঙ্গাইলের	-12348
▁হবেই	-12349
হরের	-12350
▁নানার	-12351
▁আসছি	-12352
▁পারায়	-12353
▁বরিশালের	-12354
হিন	-12355
হাকে	-12356
▁কান্তি	-12357
▁ছাঁ	-12358
▁মজিব	-12359
▁পিপি	-12360
▁প্যাট	-12361
▁সার্জন	-12362
▁বন্ধে	-12363
▁মার্কেটে	-12364
▁ব্রিফ	-12365
▁সুন্দরবন	-12366
▁বিরতি	-12367
▁প্রদক্ষিণ	-12368
▁রেখা	-12369
▁আড়াল	-12370
▁মুন্সীগঞ্জ	-12371
▁গুটিয়ে	-12372
কটি	-12373
্যাটের	-12374
▁হৃদয়ে	-12375
▁সন্ত্রাসীরা	-12376
▁অজিত	-12377
▁আশীর	-12378
▁ছড়ায়	-12379
▁বিজয়ের	-12380
জ্ঞান	-12381
▁বিবাহিত	-12382
▁নিষ্ঠুর	-12383
▁অনুরূপ	-12384
▁একযোগে	-12385
▁মিলছে	-12386
▁লোকটি	-12387
▁ফাঁকি	-12388
▁মহাম	-12389
▁লাগোয়া	-12390
বিজে	-12391
আনের	-12392
বিচার	-12393
▁দুর্গা	-12394
▁সাম্রাজ্য	-12395
াসায়	-12396
▁ইউনিভার্সিটির	-12397
▁তলব	-12398
▁দৃশ্যমান	-12399
▁নামবে	-12400
▁মানববন্ধনে	-12401
▁তামাক	-12402
খানার	-12403
▁সংস্থাটি	-12404
▁পদ্ধতির	-12405
▁ইউরো	-12406
াবিশ	-12407
▁অবসরপ্রাপ্ত	-12408
▁ফুস	-12409
▁জন্মদিনে	-12410
▁কাজও	-12411
ফুট	-12412
▁ব্রিজের	-12413
▁দার্জিলিং	-12414
চাঁদ	-12415
▁আম্প	-12416
জনেই	-12417
▁থমকে	-12418
িনিউজ	-12419
▁গণমাধ্যমের	-12420
▁ঝড়ের	-12421
▁কর্মকর্তাকে	-12422
▁খালাস	-12423
▁বৃদ্ধা	-12424
▁চালুর	-12425
ুঁত	-12426
▁প্রদত্ত	-12427
▁সম্পত্তির	-12428
▁দেবীর	-12429
▁উত্থাপন	-12430
▁মিয়ানমারে	-12431
▁য়	-12432
▁করান	-12433
▁ধর্মঘ	-12434
▁৩টায়	-12435
অধ	-12436
বাজি	-12437
▁বকর	-12438
▁বন্দী	-12439
▁দেশব্যাপী	-12440
▁চুক্তিতে	-12441
নিতে	-12442
▁কোলা	-12443
▁শাহাদাত	-12444
▁গ্রাহকের	-12445
াটার	-12446
াসেবী	-12447
াং	-12448
▁কাউন্টার	-12449
▁দই	-12450
▁নাগরিকের	-12451
োরিয়াল	-12452
▁ক্রেতাদের	-12453
▁এমএ	-12454
▁ব্যানার্জি	-12455
▁বোর্ডে	-12456
▁দৈনন্দিন	-12457
india	-12458
▁জেত	-12459
▁জহিরুল	-12460
ুকুরের	-12461
জ্য	-12462
▁বোলারদের	-12463
▁ছাত্রীদের	-12464
▁ধ্র	-12465
কষ্ট	-12466
▁শিক্ষিকা	-12467
ুরিয়া	-12468
▁জানতাম	-12469
▁মাসুম	-12470
স্টিকের	-12471
ামতের	-12472
▁এদিনের	-12473
▁ঠিকমতো	-12474
স্তে	-12475
▁হাতিয়ে	-12476
ভঙ্গি	-12477
▁অবমান	-12478
▁দুর্গাপুর	-12479
▁ভবিষ্যত	-12480
জামায়	-12481
▁খেলনা	-12482
▁ফুটিয়ে	-12483
▁লক্ষ্মীপুর	-12484
▁ফলন	-12485
ুষিত	-12486
▁জীবনকে	-12487
▁পেম	-12488
▁বড়সড়	-12489
▁যৌক্তিক	-12490
▁বহি	-12491
▁শুভ্র	-12492
▁চাকা	-12493
▁দেখলেই	-12494
▁ইনিংসের	-12495
▁কূটনীতিক	-12496
▁প্ল্যাটফর্ম	-12497
▁প্লাস	-12498
▁সীতার	-12499
▁বদ্ধ	-12500
▁ব্রো	-12501
▁কাঁদতে	-12502
ূলের	-12503
গুলোও	-12504
ধারার	-12505
▁গণনা	-12506
▁ওয়ালটন	-12507
ঞ্জিত	-12508
----	-12509
▁মহারাষ্ট্রের	-12510
পিএল	-12511
সংখ্যক	-12512
▁আক্রমণে	-12513
▁জন্মে	-12514
▁পোষ্ট	-12515
▁নামকরণ	-12516
▁ব্যবস্থাপক	-12517
▁ব্যাটিংয়ে	-12518
সংবাদ	-12519
▁পারস্পরিক	-12520
মেশ	-12521
ুকা	-12522
▁কথাটি	-12523
▁মর্মে	-12524
▁আইনজীবীরা	-12525
line	-12526
▁লোহ	-12527
▁উপন্য	-12528
▁টোট	-12529
▁পরস্পরের	-12530
▁তোকে	-12531
▁মৌখিক	-12532
▁ভিডিয়ো	-12533
াবুয়ের	-12534
▁ঘন্টার	-12535
▁প্রচারিত	-12536
▁গী	-12537
্ট্রি	-12538
▁পৃষ্ঠপোষ	-12539
▁নিষ্পত্তি	-12540
▁নান্দ	-12541
ন্যান্স	-12542
াকথিত	-12543
্যাংশ	-12544
▁অর্জিত	-12545
▁৯টায়	-12546
▁আতঙ্কিত	-12547
▁ধরেছেন	-12548
▁শতকের	-12549
▁পেশার	-12550
▁ঘি	-12551
▁দামের	-12552
▁কোনোদিন	-12553
▁জায়গার	-12554
▁সর্দার	-12555
ডিএসই	-12556
▁ধারনা	-12557
▁রাখছেন	-12558
▁নির্যাতিত	-12559
news	-12560
কালো	-12561
▁স্মরণে	-12562
গ্রন্থ	-12563
▁খ্রী	-12564
▁নবজাত	-12565
▁সমুদ্রে	-12566
▁হরিণ	-12567
▁আংশ	-12568
▁মাইক্রোবাস	-12569
▁নিজেরা	-12570
▁ঐক্যের	-12571
▁বাপ্প	-12572
িপাল	-12573
▁কোরবানির	-12574
▁নথ	-12575
▁মতিউর	-12576
▁পর্ষদের	-12577
▁উর্	-12578
ৱৰ	-12579
▁সেও	-12580
▁বসিয়া	-12581
▁চেয়ারে	-12582
▁কোম	-12583
▁রুজ	-12584
▁অপসারণ	-12585
ক্কর	-12586
▁ইয়াবাসহ	-12587
▁পরিবর্তিত	-12588
▁বোকা	-12589
▁নানাভাবে	-12590
্টনে	-12591
▁আল্লামা	-12592
▁হিন্দুদের	-12593
▁সিন্	-12594
▁জার্স	-12595
র্তা	-12596
▁হাজিরা	-12597
নাত	-12598
▁মন্ত	-12599
▁এইভাবে	-12600
▁হার্দ	-12601
তাপ	-12602
▁তিনজনকে	-12603
▁টানতে	-12604
▁ছুরিকা	-12605
▁দাঁড়ানো	-12606
▁ক্রস	-12607
বদল	-12608
▁এসএস	-12609
▁১০০০	-12610
▁ছাড়পত্র	-12611
▁অন্দ	-12612
▁আমলা	-12613
▁বহিরাগত	-12614
▁মুচ	-12615
▁সস্তা	-12616
▁সুশীল	-12617
▁জানুয়ারী	-12618
▁সরস্ব	-12619
জনীন	-12620
বহুল	-12621
▁টাইপ	-12622
▁এসএমএস	-12623
▁অস্বস্তি	-12624
ith	-12625
▁সংশ্লিষ্টরা	-12626
▁শর্তে	-12627
▁বিবেক	-12628
▁রেখেছিল	-12629
▁আদা	-12630
▁19	-12631
স্তক	-12632
▁নিবিড়	-12633
▁জয়া	-12634
▁চিত্রনাট্য	-12635
৭১	-12636
▁জিম্বাবুয়ে	-12637
স্থায়ী	-12638
▁গঙ্গোপাধ্যায়	-12639
▁Oneindia	-12640
থ্য	-12641
▁উত্তরের	-12642
য়ারা	-12643
▁আরোহী	-12644
স্যু	-12645
▁কুলা	-12646
▁জহুর	-12647
▁চত্বর	-12648
▁আসলাম	-12649
▁রক্ষণাবে	-12650
▁আলাই	-12651
▁গঙ্গার	-12652
▁রোবট	-12653
্রেড	-12654
▁উইকেটের	-12655
▁জাদ	-12656
▁জানো	-12657
▁খেজুর	-12658
াত্মা	-12659
▁এখনকার	-12660
▁বান্দরবান	-12661
মুক্তি	-12662
▁যতদিন	-12663
▁লিওনেল	-12664
▁লেভেল	-12665
▁প্রম	-12666
পেশ	-12667
▁মোনাজ	-12668
▁সেমিনার	-12669
▁গতির	-12670
▁ইন্টারনেটে	-12671
▁কপিল	-12672
▁বিল্ডিং	-12673
▁বিএম	-12674
▁গ্রাহকরা	-12675
▁বারাক	-12676
▁৮২	-12677
িওর	-12678
▁সাক	-12679
▁জ্যা	-12680
▁ডিমের	-12681
▁তাকা	-12682
▁মাইক	-12683
▁নজরদার	-12684
▁দম্পতির	-12685
▁মরণ	-12686
▁সাথেই	-12687
▁সনাতন	-12688
▁তাৎক্ষণিক	-12689
ব্যবহার	-12690
▁ওজনের	-12691
▁১২টায়	-12692
▁নিউইয়র্ক	-12693
▁শুষ্ক	-12694
সেইন	-12695
▁সামগ্রিক	-12696
▁ধাঁ	-12697
▁রাত্রি	-12698
▁স্নেহ	-12699
াইতে	-12700
▁দুঃখের	-12701
▁গয়না	-12702
▁(1	-12703
▁কোচবিহার	-12704
ফায়	-12705
▁মিলি	-12706
ার্জন	-12707
▁বর্ধিত	-12708
▁মেয়েটিকে	-12709
se	-12710
ber	-12711
▁নেপথ	-12712
▁মিলল	-12713
পূর্বে	-12714
▁ব্যবহারকারীদের	-12715
▁উইন্ডোজ	-12716
রান	-12717
ঙ্গন	-12718
▁দাড়ি	-12719
▁সংসারের	-12720
▁বাস্তবায়িত	-12721
▁অদৃশ্য	-12722
▁অনিয়মের	-12723
▁তায়	-12724
▁শাস্ত্র	-12725
▁শোর	-12726
▁পুলিসের	-12727
ঘড়ি	-12728
▁অভিবাসন	-12729
▁ক্রেডিট	-12730
িমিটার	-12731
▁ইনভেস্ট	-12732
▁আং	-12733
নতুন	-12734
▁অন্তর্গত	-12735
▁ভের	-12736
হেল	-12737
▁জিম্বাবুয়ের	-12738
▁সেলসিয়াস	-12739
▁স্যাল	-12740
▁লভ	-12741
▁অবহেলা	-12742
ুনির	-12743
সরকারী	-12744
▁লক্ষাধিক	-12745
▁ধ্যান	-12746
▁যাদবপুর	-12747
▁রয়্যাল	-12748
স্কর	-12749
শতা	-12750
য়েজ	-12751
▁কুকুরের	-12752
▁হঠাৎই	-12753
নিজ	-12754
মাম	-12755
▁চশ	-12756
▁মেস	-12757
▁আমিই	-12758
▁মহাক	-12759
▁গর্	-12760
load	-12761
▁চলল	-12762
ছিয়ে	-12763
▁এফআই	-12764
▁যজ্ঞ	-12765
▁গুঁড়া	-12766
▁সম্প্রসার	-12767
▁সরবরা	-12768
▁সুরক্ষিত	-12769
▁তথাকথিত	-12770
▁জড়িতদের	-12771
▁ভিক্টোর	-12772
▁নভেম্বরে	-12773
টল	-12774
▁এইচএসসি	-12775
▁এটিই	-12776
▁ঘাড়ে	-12777
▁আকারের	-12778
▁তিনবার	-12779
▁সোনালি	-12780
▁ব্যর্থতা	-12781
▁৮৯	-12782
বুদ্ধ	-12783
▁২০০৩	-12784
▁লিস্ট	-12785
▁সরেজমিনে	-12786
▁এনআর	-12787
▁বস্তা	-12788
যাত্রায়	-12789
▁সংখ্যায়	-12790
▁ডিগ্রী	-12791
াণী	-12792
▁পিল	-12793
ামনি	-12794
▁১৫টি	-12795
গ্রস্থ	-12796
▁বায়ো	-12797
▁বিদ্বেষ	-12798
▁পার্টিতে	-12799
▁মঞ্চের	-12800
হানির	-12801
▁কুদ্দ	-12802
▁সংবাদপত্র	-12803
▁রুখে	-12804
▁৮৪	-12805
▁মহিষ	-12806
▁আকতার	-12807
▁রৌ	-12808
▁কাদ	-12809
▁হোৱা	-12810
▁কারিগর	-12811
▁বাজেয়	-12812
▁সহকারি	-12813
▁তাহাদের	-12814
▁সাধু	-12815
বিষয়ে	-12816
▁কার্ট	-12817
own	-12818
▁ফুঁ	-12819
▁পাতলা	-12820
▁ডিসপ্লে	-12821
ানদের	-12822
,‘	-12823
▁রেফার	-12824
▁বিপিএ	-12825
থল	-12826
▁বক্তৃতায়	-12827
▁গাড়ী	-12828
▁বিড	-12829
▁তত্ত্বাবধানে	-12830
মক	-12831
▁করিবে	-12832
▁প্রভাষ	-12833
lhet	-12834
াদেব	-12835
শাদের	-12836
▁জনসম	-12837
▁ব্যবহারকারী	-12838
পারে	-12839
▁প্রতিনিধিদের	-12840
গর্ভ	-12841
▁সিংহের	-12842
▁বিসিসিআই	-12843
▁বাজেয়াপ্ত	-12844
বস্তু	-12845
▁সেক্টর	-12846
▁দুর্বলতা	-12847
▁জট	-12848
▁দুধের	-12849
▁কিস	-12850
মাই	-12851
্যস	-12852
▁প্রতিনিধিরা	-12853
▁সুযোগে	-12854
▁ডাকাতির	-12855
▁আভাস	-12856
▁ঠাঁই	-12857
▁লিফ	-12858
▁নড়ে	-12859
▁কাতার	-12860
সামাজিক	-12861
▁by	-12862
▁আখ্যা	-12863
তত্ত্ব	-12864
▁বৈশাখী	-12865
▁মাদরাসার	-12866
▁চাইবে	-12867
▁বইয়ে	-12868
▁এন্টার	-12869
▁খাইয়ে	-12870
্দি	-12871
সূরা	-12872
▁কোস্ট	-12873
▁ম্যাক্স	-12874
▁ফা	-12875
▁এরমধ্যে	-12876
সেট	-12877
▁লেখালে	-12878
ভু	-12879
▁তিনজনের	-12880
▁ডিল	-12881
▁চ্যা	-12882
▁নড়াইল	-12883
▁পরিষদে	-12884
▁লাগানোর	-12885
);	-12886
▁দর্শনার্থ	-12887
▁বলেননি	-12888
দ্ভূত	-12889
▁ড্রোন	-12890
▁রাজস্থান	-12891
▁লর্ড	-12892
▁গণভবনে	-12893
▁মোয়াজ	-12894
সুদ	-12895
▁দূতাবাসের	-12896
কারণ	-12897
▁শিয়াল	-12898
ঘোষ	-12899
▁অপারেটিং	-12900
▁আজকালের	-12901
▁গল্পে	-12902
▁ভেতরের	-12903
▁রড	-12904
▁নাটোর	-12905
24.	-12906
▁সাগরের	-12907
▁মায়ান	-12908
▁বিউ	-12909
▁রেন	-12910
▁অ্যালবাম	-12911
▁লোপ	-12912
৭৫	-12913
▁লোকাল	-12914
▁৫টা	-12915
ধাও	-12916
▁প্রতীকী	-12917
▁হংক	-12918
▁জবাবদি	-12919
▁পাউন্ড	-12920
ৃহীত	-12921
▁অতিথ	-12922
▁শিষ্য	-12923
▁দিনভর	-12924
প্রণ	-12925
▁করাটা	-12926
▁৮১	-12927
▁ষাট	-12928
▁স্বীকৃত	-12929
▁অপশন	-12930
ঞ্জলি	-12931
▁এলাকাবাসীর	-12932
▁এনেছেন	-12933
ফাজ্জ	-12934
▁ভুয়ো	-12935
▁শাজাহান	-12936
▁হায়দরাবাদ	-12937
▁দাম্প	-12938
ভক্ত	-12939
▁অমান্য	-12940
▁উত্প	-12941
▁চার্জশিট	-12942
িলাম	-12943
▁টাউন	-12944
▁ফিস	-12945
▁কৌশিক	-12946
▁বিক্ষোভের	-12947
▁সরিষ	-12948
ন্নে	-12949
▁পঁচ	-12950
▁হুকুম	-12951
▁প্রখ্যাত	-12952
▁৩৭০	-12953
▁খ্রিষ্ট	-12954
সংশ	-12955
▁মাতা	-12956
▁ভারতী	-12957
▁বুথে	-12958
ন্দা	-12959
▁এ্যাড	-12960
▁সুদের	-12961
▁পেনাল্টি	-12962
▁রুল	-12963
ীণ	-12964
▁মওদুদ	-12965
▁আলোকিত	-12966
▁হিসেবেও	-12967
শ্রয়	-12968
রুদ্ধ	-12969
▁ফোক	-12970
▁স্বজনদের	-12971
▁প্রার্থীকে	-12972
▁ঔষধ	-12973
▁করেন৷	-12974
▁ফৌজ	-12975
▁সোসাইটি	-12976
▁শতাব্দীর	-12977
রেখা	-12978
▁সিসিটিভি	-12979
▁অধিব	-12980
▁বিপ্লবী	-12981
▁উপকৃত	-12982
▁জানালে	-12983
▁কোমর	-12984
৬৫	-12985
নির্বাহী	-12986
▁লোকসভায়	-12987
▁Sylhet	-12988
পাঁচ	-12989
▁এঁরা	-12990
▁বিমানটি	-12991
▁ডিক	-12992
▁পাসের	-12993
▁সন্দেহভাজন	-12994
▁প্রতিনিধিদ	-12995
ect	-12996
▁সাংবাদিকরা	-12997
▁শাহের	-12998
▁হদ	-12999
গাছা	-13000
▁অসন্ত	-13001
▁বাঘের	-13002
বহান	-13003
পর্ব	-13004
▁ফরোয়ার	-13005
▁স্বজনরা	-13006
▁নিখুঁত	-13007
▁সরু	-13008
▁দাম্পত্য	-13009
▁সামর্থ্য	-13010
▁সহস্র	-13011
▁বিষয়টিকে	-13012
▁সংগঠিত	-13013
▁হাঁটু	-13014
▁চেয়ারপার্সন	-13015
নাদ	-13016
ভৌম	-13017
▁কারোর	-13018
▁গাফিল	-13019
▁আরবি	-13020
▁অযোগ্য	-13021
ার্জি	-13022
▁কুতুব	-13023
▁খোঁজা	-13024
▁সংলাপে	-13025
▁সিট	-13026
▁ফোট	-13027
▁মাদারীপুর	-13028
▁গঠনে	-13029
▁অ্যার	-13030
▁বৈশ্বিক	-13031
▁স্বরে	-13032
▁তব	-13033
▁রিটার্নিং	-13034
ডিএফ	-13035
▁পার্স	-13036
▁বাসটি	-13037
হাটি	-13038
ভের	-13039
▁৮০০	-13040
▁ডিসি	-13041
▁প্রাণে	-13042
▁যুবদলের	-13043
▁মার্শ	-13044
টিটি	-13045
▁বাশার	-13046
▁হয়না	-13047
▁ব্লু	-13048
াঞ্চলের	-13049
▁প্রবর্ত	-13050
▁প্রাম	-13051
▁তৃণমূলে	-13052
▁কলার	-13053
▁গাঙ্গ	-13054
বত	-13055
▁ততক্ষণে	-13056
▁দূর্	-13057
▁পথেই	-13058
▁ইউএনও	-13059
▁Ind	-13060
▁প্রশাসনকে	-13061
▁সমূহ	-13062
▁কর্ণাট	-13063
▁দুষ্কৃতীরা	-13064
▁নরসিংদী	-13065
▁ব্র্যাক	-13066
কাই	-13067
▁পারাপ	-13068
▁রেজিস্ট্রার	-13069
▁অবগত	-13070
▁জ্যাম	-13071
▁অবশিষ্ট	-13072
▁দীর্ঘমেয়	-13073
▁ঝাঁপ	-13074
▁উড়াল	-13075
▁সভ্যতার	-13076
▁মনিরুজ্জামান	-13077
মেষ	-13078
োত	-13079
▁অন্ধ্র	-13080
ঞ্জার	-13081
মাত্রার	-13082
াট্টা	-13083
াবৃত্তি	-13084
কিয়ে	-13085
▁নিয়ন্ত্রণের	-13086
▁বাড়িটি	-13087
▁সন্ত্রাসের	-13088
অভ	-13089
বদ্ধতা	-13090
one	-13091
উত্তর	-13092
▁পাদ	-13093
▁বিকাশের	-13094
াতাদের	-13095
▁নগরী	-13096
▁বিবেচিত	-13097
▁প্রধানের	-13098
▁de	-13099
▁এদিক	-13100
▁ছড়িয়েছে	-13101
▁রাখলেন	-13102
▁মেয়েটা	-13103
ত্বে	-13104
▁কিসের	-13105
▁বিব্রত	-13106
▁থকা	-13107
▁মুভি	-13108
ন্নত	-13109
▁ওদিকে	-13110
▁বুলেট	-13111
▁দাপট	-13112
▁কেরান	-13113
▁জেলাশাসক	-13114
ষ্প	-13115
োলজ	-13116
▁প্রমূখ	-13117
▁গগ	-13118
▁ভিজে	-13119
▁বাণিজ	-13120
▁অলিম্পিক	-13121
ড়ী	-13122
▁সও	-13123
দিয়ে	-13124
▁অচেনা	-13125
▁মনুষ	-13126
▁আটকা	-13127
▁আকৃষ্ট	-13128
▁পী	-13129
▁গিয়েই	-13130
▁ঈদগাহ	-13131
▁মোম	-13132
▁কোটির	-13133
▁ওয়াক	-13134
▁বার্ষিকী	-13135
▁ইমি	-13136
্ভাব	-13137
▁দগ্ধ	-13138
যুব	-13139
▁ঢোক	-13140
▁কেবলমাত্র	-13141
▁পরিচালকের	-13142
▁লাভবান	-13143
▁এমপিও	-13144
▁কেঁপে	-13145
▁হাসির	-13146
▁উপার্জন	-13147
▁পুতুল	-13148
▁সমাবেশের	-13149
▁আওতা	-13150
▁চালিত	-13151
▁কোতো	-13152
▁ইংরেজিতে	-13153
▁মাইক্রোস	-13154
▁দক্ষিণা	-13155
▁কিমি	-13156
▁খালেক	-13157
▁ব্লাড	-13158
▁কমার্স	-13159
▁সেটাকে	-13160
▁200	-13161
▁যাননি	-13162
▁সেনের	-13163
▁কানাডা	-13164
োজাহ	-13165
ভিনিউ	-13166
▁মোরগ	-13167
age	-13168
▁অসন্তোষ	-13169
▁বেহাল	-13170
▁রাজপথে	-13171
▁সুপারস্টার	-13172
▁মরহুম	-13173
▁প্রথমত	-13174
▁প্রতিনিধিঃ	-13175
▁ব্যবস্থাপনায়	-13176
▁উত্থান	-13177
গ্ৰ	-13178
▁সেমিনারে	-13179
মেন্টের	-13180
কর্মীর	-13181
▁উদ্যোগী	-13182
ফেয়ার	-13183
▁৮টায়	-13184
▁সন্ধানে	-13185
▁রিং	-13186
▁বাহিনীকে	-13187
pp	-13188
ীং	-13189
▁অধিকাংশই	-13190
জ্জামান	-13191
▁সহপাঠ	-13192
▁সাপের	-13193
▁লাগলেন	-13194
▁নিয়মে	-13195
▁চেয়ারপারসনের	-13196
▁গ্যালার	-13197
▁থাকতো	-13198
▁কাঁঠ	-13199
লকে	-13200
▁যেতেন	-13201
দেরকে	-13202
রুম	-13203
▁ফসলের	-13204
▁অবস্থানের	-13205
▁আসবাব	-13206
▁সূরা	-13207
▁আগামীতে	-13208
ৃন্দ	-13209
▁ভয়ানক	-13210
বিরতি	-13211
ওয়ানের	-13212
▁ভাবছে	-13213
▁টেলিকম	-13214
▁ভেজাল	-13215
▁তোমায়	-13216
▁সেইসঙ্গে	-13217
িষ্ণু	-13218
▁উঁ	-13219
▁শোকের	-13220
ain	-13221
▁পাইকারি	-13222
▁রাক	-13223
ill	-13224
▁নত	-13225
মার্স	-13226
▁অর্থনীতিতে	-13227
▁বিএনপিকে	-13228
▁সীত	-13229
পিটাল	-13230
▁বাসস্ট্যান্ড	-13231
▁৯৭	-13232
▁উঠলে	-13233
▁ফুটবলে	-13234
▁শঙ্ক	-13235
▁সিরিয়া	-13236
কিপার	-13237
▁শঙ্কা	-13238
ৰ্ম	-13239
▁সংশোধিত	-13240
▁জ্ঞানের	-13241
▁মাগুরা	-13242
▁ঘটাতে	-13243
▁জানুয়ারির	-13244
▁স্বেচ্ছাসেবী	-13245
দুই	-13246
▁আতাউর	-13247
▁অনেকক্ষণ	-13248
মাসের	-13249
ুণের	-13250
▁স্বপ্নে	-13251
▁আজই	-13252
▁রুটি	-13253
▁তুঙ্গে	-13254
▁টোক	-13255
▁রংপুরের	-13256
?”	-13257
▁মস্তিষ্কের	-13258
বিসি	-13259
▁কানের	-13260
াবার্ষিক	-13261
▁চ্যান	-13262
▁সংরক্ষণের	-13263
▁পালনে	-13264
▁কমেন্ট	-13265
▁পার্লামেন্ট	-13266
আইএ	-13267
▁একশ	-13268
▁কর্মশালা	-13269
র্তিত	-13270
▁মৌসুমী	-13271
▁প্রতাপ	-13272
▁প্লাস্টিকের	-13273
াস্ক	-13274
▁সমর	-13275
▁পুরোটাই	-13276
াগ্রাম	-13277
▁নিতান্ত	-13278
▁কুসুম	-13279
▁৮৩	-13280
▁বালক	-13281
ণীর	-13282
াতিষ্ঠ	-13283
▁পুলওয়	-13284
▁সৌভাগ্য	-13285
ast	-13286
▁গণিত	-13287
▁পিঁ	-13288
▁পারো	-13289
▁বাদশাহ	-13290
শাসনের	-13291
▁আহমদের	-13292
▁কাগজের	-13293
▁এগুলোর	-13294
▁পূর্বের	-13295
প্রবাহ	-13296
▁অৱ	-13297
▁ক্যাম	-13298
▁মারধরের	-13299
out	-13300
▁উত্তরাধ	-13301
▁মজবুত	-13302
▁খনন	-13303
▁মন্ত্রিপরিষদ	-13304
▁বঙ্গোপসাগ	-13305
▁প্রত্যেকেই	-13306
▁মুছ	-13307
▁লোকসান	-13308
াগো	-13309
▁কমার	-13310
▁নাইজের	-13311
মোট	-13312
▁স্বৈ	-13313
▁তিনদিন	-13314
ক্কায়	-13315
মন্ত্ৰী	-13316
▁অক্সিজেন	-13317
▁সবারই	-13318
াপড়	-13319
▁বৎসর	-13320
▁মিটিয়ে	-13321
▁শিক্ষককে	-13322
▁এএসআই	-13323
▁সভানেত্রী	-13324
▁ধরুন	-13325
িফো	-13326
বলে	-13327
▁বহুম	-13328
িশেষে	-13329
▁বেরো	-13330
ঙ্ক্ষিত	-13331
▁চৰকাৰ	-13332
▁গিয়াস	-13333
▁প্যারিস	-13334
▁পরিচয়পত্র	-13335
দেরও	-13336
▁অক্টোবরে	-13337
▁হেলমেট	-13338
ঞ্চলে	-13339
▁তীর্থ	-13340
▁কাৰ্য	-13341
▁নেই৷	-13342
▁ধারাবাহিকতা	-13343
▁জানাজা	-13344
▁ইতালির	-13345
▁ফয়সাল	-13346
▁আঠ	-13347
ুজা	-13348
▁রামপুর	-13349
▁ঘটা	-13350
▁কার্যদিব	-13351
▁খায়রুল	-13352
▁হালদার	-13353
▁মাংসের	-13354
াতারা	-13355
▁বস্তুত	-13356
▁ফ্রেন্ড	-13357
▁চুমু	-13358
▁সংকটে	-13359
▁হাঁস	-13360
▁ভঙ্গিতে	-13361
▁ছেলেটি	-13362
ধুরী	-13363
▁ঘড়ি	-13364
▁শিউ	-13365
▁আন্ডার	-13366
রহঃ	-13367
সাত	-13368
ুৰ	-13369
▁অরণ	-13370
স্বরে	-13371
▁এনার	-13372
▁বিমল	-13373
▁চারে	-13374
▁সাহিত্যে	-13375
▁মেট্রিক	-13376
▁যাত্রীর	-13377
▁লাগাতার	-13378
সারের	-13379
রাকে	-13380
▁জনসভা	-13381
দলীয়	-13382
ong	-13383
▁ভীত	-13384
▁লেবুর	-13385
▁১৯৭৫	-13386
▁অবদানের	-13387
▁কিছুক্ষণের	-13388
▁ম্যানেজিং	-13389
কলের	-13390
▁এমবি	-13391
▁খেলেছে	-13392
▁বিদ্যাস	-13393
াতিষ্ঠানিক	-13394
▁ওবামা	-13395
▁জাঁ	-13396
ীগণ	-13397
৯০	-13398
▁প্যাক	-13399
▁শুনলে	-13400
▁উধাও	-13401
▁শীতে	-13402
▁প্রয়াস	-13403
▁ক্যারিয়ারের	-13404
পৃ	-13405
▁সময়সীমা	-13406
ধারে	-13407
▁ছোটখাট	-13408
▁টেকনোলজি	-13409
দাহ	-13410
▁রোগীকে	-13411
▁সিন্ডিকেট	-13412
ডাঙ্গ	-13413
ফাক	-13414
▁শায়	-13415
▁যৌত	-13416
▁গর্ভবতী	-13417
▁মাহমুদুল	-13418
▁বিশ্বজুড়ে	-13419
োল্ডার	-13420
▁উৎক্ষেপ	-13421
▁নির্দেশিকা	-13422
▁যাবৎ	-13423
▁কর্না	-13424
▁মহারাজ	-13425
▁বিপন্ন	-13426
▁ফাঁদে	-13427
▁রীতিমত	-13428
▁কোণ	-13429
▁২০০২	-13430
▁সারদা	-13431
সমাজ	-13432
▁মার্কেটের	-13433
▁উখিয়া	-13434
ans	-13435
াব্দে	-13436
▁কমিশনে	-13437
▁স্টোর	-13438
▁প্রতিহত	-13439
▁ইহার	-13440
চই	-13441
▁রবার্ট	-13442
▁পাসওয়ার্ড	-13443
▁দায়িত্বপ্রাপ্ত	-13444
▁কবিতায়	-13445
ish	-13446
▁রিচার	-13447
ওয়াট	-13448
▁স্টল	-13449
▁পরগনার	-13450
▁৯২	-13451
▁ব্যর্থতার	-13452
▁কিংস	-13453
▁যথাস	-13454
▁হাটে	-13455
▁কাকাবাবু	-13456
▁আলিম	-13457
ছক	-13458
▁ট্রাইব্যুনাল	-13459
▁ব্যানারে	-13460
তোম	-13461
▁হান্নান	-13462
▁অয়েল	-13463
▁জাজ	-13464
▁ইনস্টাগ্র	-13465
▁প্রত্যাব	-13466
▁শস্য	-13467
াপল	-13468
▁ডায়ে	-13469
▁মৃত্যুব	-13470
▁নামও	-13471
বেত	-13472
▁গম	-13473
স্ক্র	-13474
▁ইন্দিরা	-13475
▁কোম্পানিটি	-13476
▁ডিএম	-13477
▁নাছির	-13478
▁ম্যাগাজিন	-13479
মিনি	-13480
স্বপ	-13481
▁এহেন	-13482
▁বিপ্লবের	-13483
▁ট্যাক্সি	-13484
▁রোহিঙ্গারা	-13485
▁জুতা	-13486
▁চড়া	-13487
▁সাজ্জাদ	-13488
▁কানাড	-13489
▁সালাত	-13490
▁ভক্তরা	-13491
▁রুপি	-13492
▁জয়ন্ত	-13493
▁হত্যাক	-13494
প্ৰ	-13495
পাকিস্তান	-13496
▁সাতক্ষীর	-13497
▁স্নাত	-13498
▁রায়গঞ্জ	-13499
▁আধ্য	-13500
বৃদ্ধির	-13501
▁ওয়াটার	-13502
▁প্রতিভা	-13503
সদের	-13504
▁চেল	-13505
ঘি	-13506
▁শেল	-13507
▁পতিত	-13508
▁পড়েছি	-13509
▁আছিল	-13510
▁সুদীপ	-13511
▁অসমের	-13512
▁সাহাব	-13513
▁পিএইচ	-13514
▁চল্লিশ	-13515
▁আইপিএলে	-13516
▁ভুবনে	-13517
▁বিপর্যস্ত	-13518
▁এরশাদের	-13519
▁গাইবান্ধা	-13520
াবিধ	-13521
▁সমবেদনা	-13522
▁পরিকাঠামো	-13523
▁তরল	-13524
▁বলবো	-13525
▁নামেই	-13526
▁ভাষ্য	-13527
▁নুসরাত	-13528
▁আশ্বস্ত	-13529
▁চাঁপাইনবাবগঞ্জ	-13530
্ণের	-13531
▁আজিম	-13532
▁চলো	-13533
▁ইস্প	-13534
▁ঘটায়	-13535
▁নিশ্চয়তা	-13536
ack	-13537
▁একেএম	-13538
▁মুজ	-13539
সম্পাদক	-13540
▁শান	-13541
▁সৌজন্যে	-13542
নৰ	-13543
▁বিস্তর	-13544
▁বয়ান	-13545
▁ইমিগ্র	-13546
▁খুশ	-13547
▁রঙ্গ	-13548
▁সেবন	-13549
শয়	-13550
অভি	-13551
▁হোন	-13552
▁ইয়াহ	-13553
▁চার্চ	-13554
▁ইমরুল	-13555
সংস্ক	-13556
...।	-13557
সম্পন্ন	-13558
▁আছড়ে	-13559
▁ভোগান্ত	-13560
▁নোটি	-13561
▁সচিন	-13562
▁সর্বস্তরের	-13563
মানার	-13564
▁১৪টি	-13565
▁বুর	-13566
▁উত্তরপ্রদেশ	-13567
খণ্ডের	-13568
▁দুয়েক	-13569
ুলিয়ার	-13570
২০১৬	-13571
্যক্ত	-13572
▁কিশোরীর	-13573
▁কক্সবাজারে	-13574
ুথ	-13575
▁আজীবন	-13576
▁ছক্কা	-13577
▁ভোজ	-13578
▁বাহাদুর	-13579
▁মদিন	-13580
▁পরিদর্শনে	-13581
▁স্ট্রিট	-13582
▁ছড়ানো	-13583
▁সাদেক	-13584
পালা	-13585
▁প্রচন্ড	-13586
▁বিআরটি	-13587
▁স্বর্গ	-13588
▁চম্প	-13589
▁স্পিড	-13590
▁নীলফামারী	-13591
ছাই	-13592
▁নির্জন	-13593
▁শার্ট	-13594
মিট	-13595
চ্যু	-13596
িপ্ট	-13597
▁লাইব্রের	-13598
▁চট্টোপাধ্যায়ের	-13599
িবুল	-13600
▁দাঁড়াবে	-13601
▁রেট	-13602
▁;	-13603
▁দীন	-13604
▁দিয়েছিলাম	-13605
▁দফার	-13606
িসা	-13607
▁৭০০	-13608
▁স্টোরে	-13609
▁অ্যাকাডেম	-13610
▁টম	-13611
▁কনভেন	-13612
▁আটকের	-13613
▁তুচ্ছ	-13614
চাম	-13615
▁জামিনে	-13616
▁বাহিরে	-13617
▁জব্বার	-13618
▁চিঠির	-13619
পরিকল্প	-13620
▁কম্বল	-13621
▁ভাবমূর্তি	-13622
াইনার	-13623
ভূক্ত	-13624
▁আংশিক	-13625
▁কার্যনির্বাহী	-13626
▁জ্যোতির	-13627
▁জানাবেন	-13628
কার্ড	-13629
▁ব্যাবহার	-13630
▁অর্পণ	-13631
▁কাপড়ের	-13632
▁থাকতেই	-13633
▁পশ্চিমা	-13634
▁টিপু	-13635
▁ডিফেন্স	-13636
▁জিতেছেন	-13637
▁প্রকল্পটি	-13638
▁সেপ্টেম্বরে	-13639
▁অনুষদের	-13640
▁রাজকুমার	-13641
ীকালে	-13642
▁রানার	-13643
▁দরবারে	-13644
▁রাইডার	-13645
▁চণ্ড	-13646
▁চীনে	-13647
▁সংস্থাকে	-13648
▁মোয়াজ্জে	-13649
▁বাহুল্য	-13650
▁গিয়েও	-13651
চ্ছিলাম	-13652
কন্যা	-13653
▁ফাঁড়ির	-13654
▁সামাদ	-13655
▁দ্বিতীয়বার	-13656
ধীর	-13657
▁রাউজ	-13658
▁প্রামাণ	-13659
▁অপহরণের	-13660
▁সেগুলোর	-13661
াফা	-13662
মানুষের	-13663
মুখে	-13664
▁আফ্রিক	-13665
▁রাও	-13666
▁বেড়াচ্ছে	-13667
▁খুঁট	-13668
▁তাগিদ	-13669
গড়ের	-13670
▁বাসভবনে	-13671
▁সল্ট	-13672
▁তাকাল	-13673
▁কর্মক্ষেত্রে	-13674
▁টুইটে	-13675
▁প্রেসক্লাব	-13676
▁সুগন্ধ	-13677
▁স্কয়ার	-13678
▁আনন্দিত	-13679
▁মোকাবিলায়	-13680
▁স্মারকলিপি	-13681
োবস্ত	-13682
▁বিঘ্ন	-13683
▁শ্যামাঙ্গ	-13684
মেক	-13685
ক্ষেত্র	-13686
▁জলিল	-13687
▁্যালি	-13688
▁ঘৃণ	-13689
▁বারাস	-13690
▁পড়ছেন	-13691
ায়ু	-13692
▁অনিশ্চয়	-13693
নব	-13694
▁তড়ি	-13695
▁ঠাকুরগাঁও	-13696
▁সময়ও	-13697
▁ওসমানী	-13698
▁অনুপম	-13699
▁মিশ্রণ	-13700
য়েন্স	-13701
▁ফিলিস্তিনি	-13702
▁খেলাধ	-13703
▁নোটিস	-13704
নিয়	-13705
মেটো	-13706
▁অর্প	-13707
▁সমতা	-13708
▁প্রোটিন	-13709
▁অটল	-13710
▁ভ্রমণের	-13711
▁প্রাপ্তি	-13712
▁আপনিও	-13713
ight	-13714
▁উদ্দীপ	-13715
▁খুর	-13716
▁রাধ	-13717
▁উদ্যোগের	-13718
▁মাহবুবুর	-13719
▁ফুটবলারদের	-13720
▁ভিয়েতন	-13721
▁যতটুকু	-13722
ust	-13723
▁প্রসূ	-13724
▁ইউনিটে	-13725
ান্দা	-13726
▁সুইজার	-13727
গড়ে	-13728
▁লাহ	-13729
▁জানাজ	-13730
20	-13731
▁তন্ম	-13732
▁প্রভাষক	-13733
▁গণসংযোগ	-13734
▁রক্তক্ষ	-13735
▁আচার্য	-13736
িপত্র	-13737
▁বিপদের	-13738
াতী	-13739
▁বর্ম	-13740
তোমার	-13741
▁অপসার	-13742
েয়ে	-13743
তোষ	-13744
▁চিনা	-13745
ee	-13746
▁হেলথ	-13747
▁দুর্ভাগ্য	-13748
▁রাষ্ট্রায়ত্ত	-13749
.0	-13750
▁ছোটবেলা	-13751
▁হারিয়েছেন	-13752
▁কোন্	-13753
▁স্পট	-13754
দেবীর	-13755
▁স্ট্যাটাস	-13756
▁স্রে	-13757
▁বর্ষার	-13758
▁মন্ত্রিসভা	-13759
▁সালাউদ্দিন	-13760
▁রদ	-13761
পূর্ত	-13762
চেয়ার	-13763
সনে	-13764
▁তখনো	-13765
▁রাউন্ডে	-13766
▁নির্মূল	-13767
▁ওঁরা	-13768
▁জাতিকে	-13769
▁মতিঝ	-13770
▁মেদিনীপুরের	-13771
▁কংগ্ৰে	-13772
াপ্রধান	-13773
২০১৯	-13774
▁বাহুব	-13775
গ্রহের	-13776
▁আরাফাত	-13777
vi	-13778
ঞ্ছিত	-13779
▁সাপেক্ষে	-13780
▁আর্ত	-13781
▁পহ	-13782
▁সুস্ব	-13783
ভিক	-13784
▁সংখ্যার	-13785
▁কোম্পানী	-13786
▁কোনটা	-13787
▁উত্স	-13788
▁মজুদ	-13789
▁সংগ্রামের	-13790
▁জবানবন্দি	-13791
▁মরা	-13792
▁মিসেস	-13793
▁জনবল	-13794
▁ভব	-13795
ান্ন	-13796
▁ফ্যা	-13797
্লাদ	-13798
▁দুর্গন্ধ	-13799
▁সিদ্ধার্থ	-13800
▁অজ্ঞান	-13801
ূরে	-13802
ফাঁ	-13803
▁চলন্ত	-13804
মৈ	-13805
চ্ছু	-13806
▁খাবে	-13807
র্জনা	-13808
▁উভয়ের	-13809
▁সম্মত	-13810
▁ধুম	-13811
▁দেবতা	-13812
▁চাহিদার	-13813
্যং	-13814
াহিত	-13815
▁আধিকারিকদের	-13816
িকস	-13817
▁তকমা	-13818
▁এনবি	-13819
▁আজি	-13820
▁এয়ারপোর্ট	-13821
▁সৈক	-13822
▁রোমা	-13823
ver	-13824
▁জং	-13825
▁ছাড়ে	-13826
▁তাঁরই	-13827
▁সমকামী	-13828
▁ইমন	-13829
▁আশপাশে	-13830
▁আম্ব	-13831
▁তারকাদের	-13832
▁দেখিয়েছে	-13833
▁দ্বিধা	-13834
থুন	-13835
▁শিশির	-13836
▁স্র	-13837
▁ড্যান	-13838
▁ক্যালিফো	-13839
রাস	-13840
ত্ত্বা	-13841
▁অবা	-13842
▁হাসিম	-13843
গারের	-13844
▁আমলের	-13845
▁সংক্রমণ	-13846
▁বাড়ীতে	-13847
▁শতর	-13848
▁দুঃখজনক	-13849
▁বিক্ষোভে	-13850
▁সচল	-13851
▁বাজপে	-13852
▁ইকোন	-13853
োয়ারা	-13854
▁ইয়র্ক	-13855
▁খেতাব	-13856
▁ভোগান্তি	-13857
▁এলেও	-13858
▁খরচে	-13859
▁রসিক	-13860
▁হারান	-13861
▁বদলা	-13862
িটর	-13863
▁সংস্থাগুল	-13864
▁www	-13865
▁হিউম্যান	-13866
▁আইনমন্ত্রী	-13867
▁রাইফেল	-13868
াজীব	-13869
▁আকস্মিক	-13870
▁পর্যায়ক্রমে	-13871
▁করেছ	-13872
▁জানুয়ারিতে	-13873
দ্বার	-13874
▁বেড়ায়	-13875
▁ম্যাথ	-13876
এটি	-13877
▁ছবিও	-13878
▁অনুষ্ঠানটি	-13879
▁লাঠ	-13880
▁ডিআইজি	-13881
▁মধ্যকার	-13882
দেশীয়	-13883
বেসে	-13884
▁অটোরিকশা	-13885
দেখ	-13886
▁সোচ্চার	-13887
hi	-13888
▁রেমিট	-13889
ata	-13890
▁পৌঁছায়	-13891
▁আবাদ	-13892
▁আয়া	-13893
▁উপকূলীয়	-13894
▁ফরোয়ার্ড	-13895
▁গোয়েন্দারা	-13896
▁পারিশ	-13897
▁অংশগ্রহণের	-13898
▁থাইল্যান্ড	-13899
ীগঞ্জে	-13900
▁দক্ষিণের	-13901
▁হাতছাড়া	-13902
▁অভিনেত্রীর	-13903
▁চিপ	-13904
▁শাকিল	-13905
▁কাঞ্চন	-13906
▁নীচের	-13907
▁জয়লাভ	-13908
য়োজনীয়	-13909
ীভূত	-13910
▁মানিয়ে	-13911
▁ছাত্ররা	-13912
▁ব্যাটসম্যানদের	-13913
ব্যবস্থা	-13914
▁রাঙামাটি	-13915
▁বমি	-13916
মুহ	-13917
▁১৩টি	-13918
▁শৃ	-13919
▁প্যাস	-13920
▁অব্যাহতি	-13921
▁পড়ুয়ারা	-13922
▁৯১	-13923
▁গোপনীয়	-13924
ডিজ	-13925
▁গড	-13926
▁সোপর্দ	-13927
সংলগ্ন	-13928
edia	-13929
▁ফর্মে	-13930
▁কর্পোরেট	-13931
▁পূর্ত	-13932
হার্য	-13933
াগ্রস্ত	-13934
নারায়ণ	-13935
▁আচরণের	-13936
▁উন্মাদ	-13937
ord	-13938
▁হ্যাম	-13939
▁বিছানা	-13940
▁মান্না	-13941
▁বিডিও	-13942
▁লভ্যাংশ	-13943
▁অ্যাপ্লিকেশন	-13944
শ্রেষ্ঠ	-13945
▁ব্যক্তিব	-13946
▁কতি	-13947
▁ষোল	-13948
বিরোধ	-13949
দোর	-13950
োলি	-13951
▁বেঞ্চে	-13952
▁লাশটি	-13953
▁ধোঁ	-13954
ঘণ্টা	-13955
▁সেলাই	-13956
▁গেটের	-13957
▁পর্দার	-13958
▁আশীর্বাদ	-13959
ঞা	-13960
▁বাঁশের	-13961
▁তাহারা	-13962
▁মনোহর	-13963
▁বসুর	-13964
গেট	-13965
নাক	-13966
▁মিমি	-13967
▁কাটে	-13968
▁রামু	-13969
▁চোপড়া	-13970
▁আধ্যাত্ম	-13971
▁মাঝি	-13972
▁শনি	-13973
্য়া	-13974
▁নয়াপল	-13975
▁অবতরণ	-13976
▁বৃষ্টিপাত	-13977
▁ইন্স্যুর	-13978
▁কুড়িগ্রাম	-13979
▁মোকাবেলায়	-13980
▁কোনদিন	-13981
▁প্রাতিষ্ঠানিক	-13982
▁প্রসে	-13983
▁কয়ে	-13984
▁জীবন্ত	-13985
▁প্রকাশক	-13986
▁কার্যক্রমে	-13987
▁স্বয়ংক্রিয়	-13988
শাই	-13989
▁পেশাগত	-13990
▁চৌক	-13991
▁কাঠাম	-13992
জেট	-13993
▁টমেটো	-13994
▁প্রজন	-13995
▁ধূমপান	-13996
▁দিবসটি	-13997
▁উচ্ছ্বাস	-13998
যায়	-13999
▁মোবারক	-14000
▁বিজিবির	-14001
▁বিদেশের	-14002
ওভার	-14003
▁পাঠকের	-14004
▁মুখোশ	-14005
ism	-14006
▁জনসংখ্যার	-14007
▁বন্দোবস্ত	-14008
▁ব্রিটেন	-14009
সংঘ	-14010
▁টেকনিক্যাল	-14011
▁উৎপাদনে	-14012
▁সালমা	-14013
▁ঝুলে	-14014
▁স্রেফ	-14015
▁কষ্টের	-14016
পুত	-14017
ার্থীর	-14018
▁কেজরি	-14019
▁গ্রেফতারকৃত	-14020
▁be	-14021
▁মইনুল	-14022
▁পদোন্নতি	-14023
▁জাতক	-14024
▁নেদার	-14025
▁দেবো	-14026
য়েই	-14027
▁স্ট্রাইকার	-14028
▁হার্দিক	-14029
▁শিলা	-14030
▁Al	-14031
▁নিরব	-14032
▁ক্ষিপ্ত	-14033
▁শ্যামাঙ্গিনী	-14034
তন্ত্রের	-14035
▁ভালবাসার	-14036
▁পেয়েই	-14037
▁মেডিস	-14038
▁রোকেয়া	-14039
কোট	-14040
অন্য	-14041
▁ধর্মাবলম্ব	-14042
▁দারুন	-14043
▁চুপচাপ	-14044
▁আবৃত্তি	-14045
▁ব্যাক্তি	-14046
▁অভিমত	-14047
▁অমৃত	-14048
▁সিরিয়ায়	-14049
▁গোলমাল	-14050
▁বাইরেও	-14051
▁সিংয়ের	-14052
▁অর্ড	-14053
্বসিত	-14054
▁আহমাদ	-14055
▁রোক	-14056
▁মানস	-14057
▁অসুস্থতার	-14058
▁চিংড়ি	-14059
▁মাশরাফ	-14060
▁র‍্যাব	-14061
চ্ছদ	-14062
ংসী	-14063
বাংলার	-14064
▁যাত্রার	-14065
▁আতি	-14066
▁নাশকতার	-14067
▁গহ	-14068
▁কাস্টম	-14069
▁বাউল	-14070
▁গ্যার	-14071
ুজো	-14072
▁ফাইনালের	-14073
ভূষণ	-14074
ার্থীরা	-14075
▁দেয়ায়	-14076
▁আত্মা	-14077
িয়ানের	-14078
▁অভিমান	-14079
▁print	-14080
▁আসামিকে	-14081
▁ক্যালিফোর্ন	-14082
পরিবহন	-14083
িকিউটিভ	-14084
▁আয়েশা	-14085
▁রিমান্ডে	-14086
▁মরু	-14087
▁চাবি	-14088
▁বিধানসভার	-14089
▁উঠিল	-14090
ুনিয়া	-14091
▁আসত	-14092
▁দূত	-14093
▁দক্ষিণে	-14094
▁বান্দরব	-14095
▁তড়িঘড়ি	-14096
▁ক্রিকেটাররা	-14097
▁পূরণের	-14098
▁অপরাধীদের	-14099
▁আর্সেন	-14100
▁চালাচ্ছেন	-14101
▁ষড়যন্ত্রের	-14102
▁ছন্দে	-14103
তাও	-14104
▁আবশ্যক	-14105
নাহ	-14106
▁অনৈতিক	-14107
ানেজ	-14108
▁চুষ	-14109
▁কামরুজ্জামান	-14110
▁কৰিছিল	-14111
▁বসির	-14112
▁মানুষজন	-14113
▁ইছ	-14114
▁শাব	-14115
ৃঙ্খল	-14116
▁তরুণীকে	-14117
গাঁওয়ে	-14118
▁চালকদের	-14119
▁হৃদয়ের	-14120
▁news	-14121
▁থাকাকালীন	-14122
োপের	-14123
▁১৯৯৮	-14124
▁অর্থনীতিবিদ	-14125
▁আধিকারিকরা	-14126
▁পড়ালে	-14127
▁অভ্যন্তরে	-14128
▁রিলিজ	-14129
▁প্রতিষ্ঠানকে	-14130
▁শিশ্ন	-14131
▁Pro	-14132
▁বহুবার	-14133
▁জেলের	-14134
▁ফিফা	-14135
▁প্রজাতন্ত্র	-14136
▁দ্বাদশ	-14137
ভয়	-14138
▁ওয়াজেদ	-14139
ৌকিক	-14140
ৈল	-14141
▁কাস্টমস	-14142
নীল	-14143
▁আশিক	-14144
▁পরবর্তীকালে	-14145
▁পড়াশোনার	-14146
▁রাজনাথ	-14147
তাবাদ	-14148
▁সালেহ	-14149
বক্স	-14150
পেক্টর	-14151
▁আমজাদ	-14152
▁সুনামগঞ্জের	-14153
▁রাতার	-14154
▁নেহর	-14155
▁পাছ	-14156
▁সংস্কৃত	-14157
▁দাশগুপ্ত	-14158
▁অনার্স	-14159
▁কার্প	-14160
্শন	-14161
ঘাতে	-14162
▁পারার	-14163
▁শাসনের	-14164
▁ট্যাগ	-14165
▁রয়টার্স	-14166
▁পুরোহিত	-14167
▁ইতোমধ্যেই	-14168
ড়তে	-14169
িপুর	-14170
ষ্কার	-14171
▁দলগুলো	-14172
▁দেখব	-14173
▁আক্র	-14174
▁সেটে	-14175
▁সন্দীপ	-14176
▁এজেন্সি	-14177
▁নামছে	-14178
▁হুয়া	-14179
▁তারপরেও	-14180
বিবাহ	-14181
▁নিম্নচাপ	-14182
▁বিশ্বজিৎ	-14183
▁তখনকার	-14184
▁ইউজ	-14185
▁পোড়	-14186
▁সত্যিকারের	-14187
েন্ডুল	-14188
▁লক্ষে	-14189
▁ক্যামেরায়	-14190
▁মৃত্যুবরণ	-14191
িমির	-14192
rom	-14193
বিন্দু	-14194
▁ক্যাডার	-14195
সাধ	-14196
▁সেক্টরে	-14197
▁লিব	-14198
▁মফিজ	-14199
▁অ্যাপল	-14200
টিআই	-14201
▁কিস্ত	-14202
▁নামেন	-14203
▁নূতন	-14204
▁গুড়	-14205
াষ্ট	-14206
▁বরাব	-14207
aper	-14208
▁বহরম	-14209
িক্সেল	-14210
▁তিস্তা	-14211
▁প্রবাসীদের	-14212
▁নির্বি	-14213
▁৩টার	-14214
▁উড়োজাহ	-14215
এনএস	-14216
▁কারাগারের	-14217
▁ব্যাপকভাবে	-14218
www	-14219
▁করাও	-14220
▁অর্জনে	-14221
▁উৎসর্গ	-14222
▁এরপরেই	-14223
▁সৈয়দপুর	-14224
▁জন্মদিনের	-14225
রোজ	-14226
▁কেল	-14227
ial	-14228
▁পাঞ্জাব	-14229
▁ফোনটি	-14230
▁মিস্টার	-14231
▁‍	-14232
ব্যাংক	-14233
▁তারিখের	-14234
▁আলতা	-14235
▁বেড়িয়ে	-14236
▁বেস	-14237
▁ইমেজ	-14238
▁মানবতার	-14239
▁এতিম	-14240
▁ইস্তফা	-14241
▁অপরিহার্য	-14242
▁উচ্ছ্বসিত	-14243
৫টি	-14244
োদয়	-14245
▁রোজগার	-14246
▁অনিচ্ছুক	-14247
▁ক্লিনিক	-14248
▁নিলেও	-14249
▁সর্বনা	-14250
▁আগ্নেয়াস্ত্র	-14251
▁হকার	-14252
সুন্দর	-14253
সিলেট	-14254
প্রতিষ্ঠ	-14255
▁টেলিভিশনে	-14256
▁তীক্ষ	-14257
▁চিন্তাভাব	-14258
▁প্রত্যক্ষদর্শী	-14259
াদর্শ	-14260
▁৪টায়	-14261
ুবাদ	-14262
▁চিকেন	-14263
▁শাপ	-14264
ইসল	-14265
▁গাঢ়	-14266
ৰ্থ	-14267
▁কীর্তি	-14268
▁সংশ্লিষ্টদের	-14269
পথের	-14270
▁মাহমুদউল্লাহ	-14271
▁An	-14272
▁শিক্ষায়	-14273
▁এসপি	-14274
▁সারার	-14275
att	-14276
▁টপকে	-14277
xx	-14278
▁কতিপয়	-14279
▁স্থাপত্য	-14280
ine	-14281
▁মারুফ	-14282
▁রয়েছে৷	-14283
বিএনপি	-14284
ভূমিতে	-14285
▁বসলেন	-14286
▁নানাবিধ	-14287
▁মানবতাবিরোধী	-14288
▁খসর	-14289
▁বনের	-14290
▁ইহুদ	-14291
▁মমতাজ	-14292
▁শেখের	-14293
▁১টা	-14294
▁কিশোরের	-14295
▁জার্নাল	-14296
▁ব্র্যান্ডের	-14297
বেই	-14298
▁ছত্ত	-14299
▁ইন্তে	-14300
▁আলিপুরদুয়ার	-14301
▁তেঁ	-14302
▁জিহ	-14303
▁চক্রবর্তীর	-14304
▁লস	-14305
▁বরগুনা	-14306
পর্যন্ত	-14307
▁দ্বিপাক্ষিক	-14308
▁পড়লো	-14309
▁ছেলেটা	-14310
▁পৰি	-14311
ফতরের	-14312
▁ভাবছি	-14313
▁মহড়া	-14314
▁পিট	-14315
▁পদক্ষেপের	-14316
▁ভরাট	-14317
ah	-14318
▁বিরুদ্ধেও	-14319
খুল	-14320
▁কনসার	-14321
▁ঢল	-14322
▁অমন	-14323
▁সমাজকে	-14324
ঞ্জস্য	-14325
▁এটার	-14326
▁ব্যাপী	-14327
▁দর্শকরা	-14328
▁জমজ	-14329
▁অন্দরে	-14330
▁খেলছে	-14331
▁মদের	-14332
▁খাতায়	-14333
এমএম	-14334
▁অপরিব	-14335
▁বক্তা	-14336
▁শৌচ	-14337
▁পুঁজি	-14338
কাহ	-14339
▁মনিটরি	-14340
▁সিন্ধু	-14341
▁গুছিয়ে	-14342
▁ভিড়ে	-14343
োজা	-14344
▁সোল	-14345
▁প্রতিকূল	-14346
▁প্রকোপ	-14347
▁মোবাইলের	-14348
▁আশঙ্কায়	-14349
দণ্ড	-14350
▁ভাগা	-14351
▁একটানা	-14352
▁মুরগির	-14353
▁নিহতরা	-14354
▁ছেলেমেয়ের	-14355
সর্গ	-14356
▁শামিল	-14357
▁মিঃ	-14358
▁খনিজ	-14359
৩টি	-14360
▁সুন্দরবনের	-14361
জীবনে	-14362
নেট	-14363
▁প্রতিফলন	-14364
▁লর	-14365
▁ছেঁ	-14366
▁তৌহ	-14367
▁আউয়াল	-14368
ভোজ	-14369
সংগ	-14370
▁নিবার	-14371
▁ঝাপ	-14372
▁গেমস	-14373
▁পুরুলিয়া	-14374
▁বিধবা	-14375
▁ঘেরাও	-14376
▁এগোতে	-14377
▁এফআইআর	-14378
▁মোয়াজ্জেম	-14379
▁মেঘের	-14380
▁খেলাপি	-14381
▁উত্তরাধিকার	-14382
৪টি	-14383
▁ভোরের	-14384
▁টিভিতে	-14385
▁রূ	-14386
▁স্যান	-14387
▁শিবসেনা	-14388
pt	-14389
▁বাচ্চার	-14390
▁মানুষেরা	-14391
▁বচ	-14392
▁সরস্বতী	-14393
▁আরেকজন	-14394
▁লখন	-14395
▁খ্রিস্টান	-14396
কলকাতা	-14397
▁কোণে	-14398
▁খরচের	-14399
▁ক্ষয়ক্ষতি	-14400
▁অভিজাত	-14401
▁ইনস্টাগ্রামে	-14402
টেম	-14403
ীট	-14404
▁সত্যিকার	-14405
▁সাইটের	-14406
▁ডিফেন্ডার	-14407
▁নির্ণয়	-14408
▁জিরো	-14409
▁ওয়ার্নার	-14410
▁পুরানো	-14411
ক্ষন	-14412
▁গোছ	-14413
নীত	-14414
▁অর্থায়নে	-14415
▁লেফট	-14416
কান্দি	-14417
্যসাচ	-14418
▁হইচই	-14419
▁এইচডি	-14420
▁বলতেই	-14421
▁সোনিয়া	-14422
▁অগ্নিকাণ্ডের	-14423
▁গ্রাফ	-14424
▁বিচ্ছেদ	-14425
▁বরুণ	-14426
▁কুঁ	-14427
বিমান	-14428
▁আপত্ত	-14429
দ্ম	-14430
▁৪টা	-14431
▁সব্যসাচ	-14432
ষেধ	-14433
▁গঙ্গা	-14434
▁ইত্যাদির	-14435
▁মুর্শিদাবাদ	-14436
▁শিকদার	-14437
াকাটি	-14438
ৰ্ণ	-14439
▁বাতাসের	-14440
্লভ	-14441
▁শিমুল	-14442
▁মুখর	-14443
▁প্রমান	-14444
▁বুদ্ধিজীবী	-14445
▁ডেইলি	-14446
রেট	-14447
পরিবারে	-14448
ৈঃ	-14449
▁খি	-14450
সত্য	-14451
▁ছাত্ৰ	-14452
▁জিগ	-14453
াপন্ন	-14454
▁বাঁচানোর	-14455
▁লাশের	-14456
▁চ্যানেলের	-14457
ীনগর	-14458
▁একাদশে	-14459
▁পেজে	-14460
▁পাঁচটা	-14461
▁বিক্ষুব্ধ	-14462
▁পৌছ	-14463
▁স্বেচ্ছায়	-14464
▁গণমাধ্যমকে	-14465
▁১৬টি	-14466
▁পথচার	-14467
ুমা	-14468
ুণ্ঠ	-14469
▁টার্মিনাল	-14470
শিম	-14471
াক্ষণ	-14472
▁উল্লা	-14473
▁নিস্ত	-14474
▁শতাব্দী	-14475
▁ভাঁজ	-14476
▁অশ্বিন	-14477
ian	-14478
▁সেলে	-14479
▁ফ্লা	-14480
▁কোয়াল	-14481
▁গৃহবধূর	-14482
▁বিরোধের	-14483
▁নির্বাস	-14484
▁নট	-14485
▁ইবাদত	-14486
▁ইলেক্ট্র	-14487
▁চারিদিকে	-14488
▁নিরিখে	-14489
▁চৌধুরীকে	-14490
▁শিপ	-14491
▁দাদার	-14492
▁আঘাতের	-14493
ছাত্রীদের	-14494
▁ডিস্ট	-14495
▁অন্যান্যদের	-14496
▁উদ্ভিদ	-14497
▁রাজস্থানের	-14498
▁প্রতিরক্ষ	-14499
▁শেখার	-14500
েরই	-14501
▁ব্যাকটের	-14502
▁বাণিজ্যমন্ত্রী	-14503
্লি	-14504
▁পৌঁছয়	-14505
▁আহাম	-14506
োব	-14507
হুদি	-14508
▁বিপণ	-14509
খনৰ	-14510
▁একত্রিত	-14511
▁পরিপ	-14512
▁দানা	-14513
▁বিআই	-14514
▁ইনস্টিটিউটের	-14515
▁com	-14516
▁ত্রিপ	-14517
▁মার্চে	-14518
▁এঁকে	-14519
▁পনেরো	-14520
মাণের	-14521
ownload	-14522
▁তারপরেই	-14523
▁লিজ	-14524
▁ফেইসব	-14525
▁শচীন	-14526
▁জিল	-14527
▁নাহার	-14528
▁পাবার	-14529
▁মেট্রোর	-14530
বাবুকে	-14531
,,	-14532
▁আসামিরা	-14533
▁ফায়	-14534
▁স্তব্ধ	-14535
▁তানভীর	-14536
▁অনুপ্রাণিত	-14537
এবং	-14538
▁প্রর	-14539
▁এটির	-14540
▁এতেই	-14541
▁শুনেছেন	-14542
মেইল	-14543
ুত্থ	-14544
▁মূলধন	-14545
▁জনৈক	-14546
▁দেখো	-14547
▁বীমা	-14548
▁সিলিন্ডার	-14549
▁বিট	-14550
▁খোঁজখবর	-14551
াপের	-14552
▁শিল্পে	-14553
▁বাদাম	-14554
ন্ডা	-14555
মর্য	-14556
্যাপারে	-14557
▁কেলেঙ্কার	-14558
▁সুখবর	-14559
ংশে	-14560
▁মোড	-14561
বাগানের	-14562
▁হাওড়ার	-14563
▁বীরভূ	-14564
ফিলে	-14565
▁সুজ	-14566
▁বদলের	-14567
▁পাবনার	-14568
্মার	-14569
▁ফ্রিজ	-14570
▁পোড়া	-14571
▁চুয়াডাঙ্গা	-14572
▁ম্যাড	-14573
▁সুষমা	-14574
▁পুকুরের	-14575
▁স্ত্রীলোক	-14576
▁গভীরে	-14577
▁গুণগত	-14578
▁কম্ব	-14579
লোভ	-14580
োপক	-14581
▁অভিযোগও	-14582
▁সাকিবের	-14583
সাহিত্য	-14584
ফ্রেন্ড	-14585
▁সৌমিত্র	-14586
টিয়	-14587
▁ইদানীং	-14588
▁ভাসমান	-14589
াবলি	-14590
▁কায়দায়	-14591
▁ডায়েরি	-14592
▁ভাগাভাগ	-14593
▁খালের	-14594
▁ক্রিকেটারের	-14595
▁চিদ	-14596
▁অক্ষর	-14597
▁সিমেন্ট	-14598
▁ক্রেতারা	-14599
▁নিশানা	-14600
▁নির্বিশেষে	-14601
বরণ	-14602
▁রুব	-14603
াঞ্চলে	-14604
▁বসানোর	-14605
▁বসবে	-14606
ন্যাল	-14607
▁বিঘা	-14608
▁মাত্রার	-14609
▁প্র্যাক	-14610
▁সার্বভৌম	-14611
▁ভাজা	-14612
▁স্ক্যান	-14613
াহতের	-14614
▁নাকচ	-14615
▁মুহাম্মাদ	-14616
ুহ	-14617
ইয়ার	-14618
▁জিজ্ঞাসাবাদে	-14619
▁সুল	-14620
বাদীদের	-14621
▁নক্ষত্র	-14622
▁প্রতিটা	-14623
▁এখানেও	-14624
▁৭টা	-14625
▁ঘরবাড়ি	-14626
বহ	-14627
▁বোরো	-14628
▁কর্ণধার	-14629
▁ঝড়ে	-14630
াইজেশন	-14631
▁দেশগুলো	-14632
:)	-14633
▁আবাহ	-14634
▁নগরীতে	-14635
▁৭টায়	-14636
▁দাওয়াত	-14637
▁প্লেট	-14638
▁আদেশের	-14639
▁প্রতিবাদের	-14640
▁চাদর	-14641
ামানের	-14642
দিনাজপুর২৪	-14643
দ্দার	-14644
▁মালয়েশিয়ায়	-14645
▁হৈছিল	-14646
▁স্মৃতির	-14647
গ্রাফ	-14648
▁নিচ্ছি	-14649
▁তুলেছিলেন	-14650
াকারীদের	-14651
▁বিস্ময়কর	-14652
▁গৈ	-14653
▁পটুয়াখালী	-14654
▁ঋদ্ধ	-14655
িটারি	-14656
▁বিসর্জন	-14657
▁হুর	-14658
▁এসিড	-14659
▁বামে	-14660
▁বিরূপ	-14661
ার্থক	-14662
▁একাডেমিক	-14663
▁কেস	-14664
▁১৯৯০	-14665
▁মারিয়া	-14666
হিক	-14667
▁বংশো	-14668
সংস্কার	-14669
▁উমর	-14670
▁লীলা	-14671
▁আধ্যাত্মিক	-14672
▁সরকারে	-14673
▁ইরাক	-14674
▁মাহমুদুর	-14675
▁কুলাউ	-14676
▁জেরেই	-14677
িসম্পদ	-14678
▁পেমেন্ট	-14679
▁মোটরবাই	-14680
▁বরাদ	-14681
াৰ্থ	-14682
চিকিৎ	-14683
▁ফেরাতে	-14684
▁শিবগঞ্জ	-14685
▁ঝালকাঠি	-14686
▁মির্জাপুর	-14687
▁সেফ	-14688
▁লোড	-14689
▁পহেলা	-14690
▁বোয়াল	-14691
্কের	-14692
▁খতি	-14693
চলা	-14694
▁হেনস্থা	-14695
্রামের	-14696
▁টুল	-14697
▁একদা	-14698
▁বোনাস	-14699
▁চুন	-14700
▁কেরলের	-14701
▁ব্লগে	-14702
▁ডিপার্ট	-14703
▁মানসিকভাবে	-14704
▁বলত	-14705
▁বিনাশ	-14706
▁বিপত্তি	-14707
চর্চা	-14708
▁ত্বকে	-14709
▁শ্লীল	-14710
▁কাও	-14711
▁কষ্টে	-14712
▁টিপস	-14713
▁শুনানিতে	-14714
▁ভাবেন	-14715
▁তুললেন	-14716
▁অ্যাক্ট	-14717
▁মানুষটি	-14718
▁পিয়	-14719
▁গানটির	-14720
▁মহসিন	-14721
িয়েট	-14722
▁খানেক	-14723
▁সুখে	-14724
▁সিনেমাটি	-14725
একজন	-14726
▁বাবর	-14727
ীরাও	-14728
▁ফ্যাক্টর	-14729
ডস	-14730
▁শ্ম	-14731
্বাচিত	-14732
▁সহায়তার	-14733
▁টেক্সটাইল	-14734
্র্যাট	-14735
▁সরবরাহের	-14736
▁স্টে	-14737
▁১৯৯৯	-14738
▁ট্র্যা	-14739
দর্শী	-14740
▁মুভ	-14741
▁স্যান্ড	-14742
কোনো	-14743
▁মই	-14744
রস	-14745
মিশ	-14746
▁পুণ্য	-14747
ুদার	-14748
▁লায়	-14749
▁ইন্টারনেটের	-14750
▁দ্বীপের	-14751
েশাদার	-14752
টেন্ট	-14753
▁ম্যাজিক	-14754
▁অধিকারের	-14755
▁ট্র্যাক	-14756
▁রেসিপি	-14757
ব্রে	-14758
▁কর্মশালায়	-14759
▁জন্যেই	-14760
▁হেল্প	-14761
সোল	-14762
▁পৌছে	-14763
▁প্রসেন	-14764
ুবের	-14765
▁টিপে	-14766
▁করিড	-14767
শাখ	-14768
▁হাবীব	-14769
▁রাজত্ব	-14770
আইটি	-14771
▁চেয়েছিলাম	-14772
থিল	-14773
▁রসায়ন	-14774
ডিএস	-14775
ছন	-14776
▁উঠিয়ে	-14777
পল্ল	-14778
▁প্রশ্নই	-14779
▁বিষণ	-14780
▁সিরিয়াল	-14781
▁ফাটল	-14782
েন্টাল	-14783
ফলের	-14784
▁দেয়ালে	-14785
▁ব্যৱ	-14786
▁রুজু	-14787
▁নাঈম	-14788
▁বেসরকারী	-14789
▁আশ্রম	-14790
▁দেবনাথ	-14791
▁প্রয়োজনীয়তা	-14792
িস্তানের	-14793
▁জঘ	-14794
▁তুর্কি	-14795
▁অপরিচিত	-14796
▁শেষমেশ	-14797
▁হতাহতের	-14798
ঁদ	-14799
▁ভুঁ	-14800
▁শামস	-14801
▁অম্ব	-14802
▁ভাস্কর	-14803
ীয়ান	-14804
▁কাণ্ডে	-14805
▁বাঁচার	-14806
▁পরিচর	-14807
▁উদ্যানে	-14808
▁ডিজাইনার	-14809
▁থের	-14810
▁আখ্য	-14811
▁গ্রাস	-14812
▁অরফ	-14813
▁শুভেন্দু	-14814
▁কেশব	-14815
াগা	-14816
আইএস	-14817
▁অভিন্ন	-14818
র্গের	-14819
▁পরিম	-14820
ামপুর	-14821
og	-14822
▁পাশ্চ	-14823
▁পেস্ট	-14824
▁মিডফিল	-14825
▁মিন্টু	-14826
▁সূচ	-14827
▁মাজার	-14828
▁প্রোফাইল	-14829
▁সংগঠক	-14830
▁কমিশনকে	-14831
▁ড্রেসিং	-14832
▁চশমা	-14833
▁হেমন্ত	-14834
িতেন	-14835
▁চঞ্চল	-14836
▁চুলে	-14837
ভারতের	-14838
▁ফ্র্যা	-14839
▁দক্ষতার	-14840
▁মণ্ডলের	-14841
▁তনু	-14842
▁কথোপক	-14843
▁বার্সেলোনার	-14844
▁জোটে	-14845
ঁধ	-14846
▁বাবলু	-14847
▁পড়বেন	-14848
▁ডেট	-14849
▁যাবত	-14850
▁সাংবাদিকতা	-14851
ান্বিত	-14852
▁সোসাইটির	-14853
▁মধ্যরাতে	-14854
আহ	-14855
▁ক্রিশ্চ	-14856
গার্ড	-14857
▁তাজা	-14858
▁কর্মসংস্থানের	-14859
্যতা	-14860
▁হরিয়ান	-14861
ৰিক	-14862
▁কলাম	-14863
▁ক্ষতিগ্রস্থ	-14864
▁কোপ	-14865
▁ট্রেলার	-14866
ফাজ্জল	-14867
▁দুটির	-14868
▁ফাইন্যান্স	-14869
বিধির	-14870
▁গিয়েছি	-14871
▁সমীক্ষায়	-14872
▁ইউজার	-14873
▁অধিনায়কের	-14874
▁পুজোয়	-14875
▁নভেম্বরের	-14876
বাণী	-14877
▁গমন	-14878
জনদের	-14879
▁ডকুম	-14880
▁বিন্দু	-14881
▁বেড়েই	-14882
0%	-14883
দায়ক	-14884
▁ফেরে	-14885
▁আবেদনে	-14886
সিটি	-14887
▁জনে	-14888
▁সেনাপ্রধান	-14889
▁বেড	-14890
▁ভুক্তভোগী	-14891
মাসে	-14892
▁কেকে	-14893
শিস	-14894
াম্প্র	-14895
বাবার	-14896
▁দাবীতে	-14897
স্কৃত	-14898
▁এসেই	-14899
▁রওশন	-14900
▁ভিসি	-14901
িকাদের	-14902
▁ঘেরা	-14903
▁কাফ	-14904
▁শীল	-14905
▁টুপি	-14906
▁বইতে	-14907
▁গতিশীল	-14908
▁ইউনুস	-14909
▁আম্পায়ার	-14910
▁এনা	-14911
হ্যাঁ	-14912
▁বকুল	-14913
▁জায়গাটা	-14914
জীবনের	-14915
▁তুলা	-14916
▁শতাংশে	-14917
▁বিবর্ত	-14918
ধর্মী	-14919
▁ইয়াসমিন	-14920
▁রেফ	-14921
▁মার্স	-14922
▁নওগাঁর	-14923
▁পড়লাম	-14924
▁সাশ্রয়	-14925
খালীতে	-14926
▁বর্ধমানের	-14927
ুগত্য	-14928
▁পিতৃ	-14929
০টি	-14930
▁মুখোপাধ্যায়ের	-14931
াবুর	-14932
▁ভাঙতে	-14933
▁সীমান্তবর্তী	-14934
লতা	-14935
▁দ্বীপে	-14936
য়াত	-14937
▁লাইক	-14938
▁জনপ্রশাসন	-14939
ib	-14940
অনেক	-14941
▁লুইস	-14942
িনায়ক	-14943
▁রুদ্ধ	-14944
বিদ্যা	-14945
▁তাদেরই	-14946
▁পারভীন	-14947
▁একাত্তরের	-14948
▁প্রতীকে	-14949
▁সেনাদের	-14950
▁ক্যারিবিয়ান	-14951
▁শূ	-14952
▁ম্যানচ	-14953
২টি	-14954
গল্প	-14955
▁বিড়াল	-14956
▁অচল	-14957
▁রাতারাতি	-14958
▁খাবেন	-14959
▁বোম	-14960
▁জমিয়ে	-14961
▁ভুগছেন	-14962
▁তেলা	-14963
▁খাবারে	-14964
▁গাইতে	-14965
সেফ	-14966
ৈব	-14967
▁ইহুদি	-14968
▁রেটিং	-14969
▁ডিজি	-14970
▁কৃষ্ণা	-14971
আরের	-14972
দরিদ্র	-14973
▁চাঙ্গা	-14974
▁চাপায়	-14975
▁মাধ্যমের	-14976
▁কোনওদিন	-14977
▁এলেই	-14978
▁পারে৷	-14979
▁24	-14980
▁বহিঃ	-14981
▁মনুষ্য	-14982
ug	-14983
▁সবসময়ই	-14984
▁ভার্স	-14985
ুক্তি	-14986
শাসিত	-14987
বাত	-14988
▁ইডি	-14989
▁বইম	-14990
ন্তন	-14991
▁মহানগরীর	-14992
▁আন্দোলনকারীদের	-14993
▁দশা	-14994
▁ভেদ	-14995
▁স্কে	-14996
িয়াসহ	-14997
her	-14998
▁নাস্তিক	-14999
▁ধুলো	-15000
▁রমেশ	-15001
▁ব্যাঙ্কে	-15002
▁ধ্বংসের	-15003
ৃৎ	-15004
▁সংলাপের	-15005
ুজোর	-15006
▁১৯৯১	-15007
িবের	-15008
▁নেত্রকোনা	-15009
▁নিঃশব্দ	-15010
▁দেশী	-15011
▁ক্লান্তি	-15012
▁কাঁঠাল	-15013
▁কাজই	-15014
জিতের	-15015
▁ওপরের	-15016
▁ঘোরা	-15017
▁বোঝে	-15018
▁বুদ্ধিম	-15019
▁নিছক	-15020
▁pro	-15021
▁চামড়ার	-15022
▁পরস্পর	-15023
▁কংগ্রেসকে	-15024
▁বেলজিয়াম	-15025
▁হবিগঞ্জের	-15026
ন্তি	-15027
দাদুল	-15028
▁পাউডার	-15029
াঙ্ক	-15030
ঞ্জেল	-15031
ous	-15032
লেটের	-15033
▁এক্সচেঞ্জে	-15034
log	-15035
মুজ	-15036
িহ	-15037
▁অশুভ	-15038
▁মুরগি	-15039
▁মৌলভীবাজারের	-15040
বিউ	-15041
▁সমবেত	-15042
▁কুদ্দুস	-15043
▁উঁকি	-15044
▁গণপিট	-15045
▁পিছনের	-15046
দুঃ	-15047
▁বিৰুদ্ধে	-15048
▁তুহিন	-15049
▁দোষীদের	-15050
▁উদ্যোক্তাদের	-15051
াপো	-15052
▁বিলি	-15053
▁হিন্দুত্ব	-15054
ূহল	-15055
▁সবকিছুই	-15056
▁প্রফ	-15057
▁লক	-15058
▁সীতাকু	-15059
▁১৪৪	-15060
▁সিরাজগঞ্জের	-15061
▁হ্যাল	-15062
▁লোকজনকে	-15063
▁বনগাঁ	-15064
▁কংগ্রেসে	-15065
▁প্রাইম	-15066
▁যেনো	-15067
▁সাফাই	-15068
▁ভাংচুর	-15069
▁প্রাণীর	-15070
▁মেগাওয়াট	-15071
▁সমাজতান্ত্রিক	-15072
্বংসী	-15073
▁জঙ্গলের	-15074
াসম্প	-15075
▁বানান	-15076
▁৯৩	-15077
▁ভান	-15078
▁সেব	-15079
ধায়	-15080
▁দেশপ্রে	-15081
▁খাশ	-15082
্রিদের	-15083
▁মাতৃভাষা	-15084
ভাত	-15085
▁হচ্ছে৷	-15086
▁কপাল	-15087
▁গাওয়া	-15088
▁অরফানেজ	-15089
▁প্যালে	-15090
তলে	-15091
▁রকেট	-15092
▁সারির	-15093
জমিন	-15094
মুন	-15095
▁অপব্যবহার	-15096
নশীল	-15097
বৃন্দের	-15098
▁পাত্রে	-15099
▁পিরোজপুর	-15100
▁আনুগত্য	-15101
▁ভ্রাম্যমান	-15102
▁তাণ্ডব	-15103
▁লেবু	-15104
▁স্বতঃ	-15105
▁প্রদর্শিত	-15106
বেলার	-15107
▁করছিলাম	-15108
▁সজাগ	-15109
মনিরপেক্ষ	-15110
▁কড়	-15111
▁সাসপ	-15112
▁আদেশে	-15113
▁মালিকরা	-15114
▁বিবেকান	-15115
▁স্নাতকো	-15116
বিক্ষ	-15117
রাস্ত	-15118
▁গোলরক্ষক	-15119
▁দত্তের	-15120
▁ক্যাটরিনা	-15121
ইপিএস	-15122
▁অনুসন্ধ	-15123
ৈতন্য	-15124
000	-15125
▁চ্যাটার	-15126
▁ভাবনার	-15127
▁ভাগই	-15128
▁সিপ	-15129
নির্দেশ	-15130
সেপ্ট	-15131
▁দেখাবে	-15132
টারী	-15133
▁জেটলি	-15134
▁লাগতে	-15135
সম্পর্ক	-15136
▁পৌঁছাতে	-15137
▁তাৎক্ষণিকভাবে	-15138
▁ভূষিত	-15139
▁আকরাম	-15140
▁মতল	-15141
▁রোদে	-15142
▁মনটা	-15143
▁ব্যোম	-15144
▁কালীগঞ্জ	-15145
▁প্রচেষ্টায়	-15146
▁ভৌমিক	-15147
ভেন্ট	-15148
টোয়ার	-15149
াখি	-15150
▁শর্মার	-15151
▁এগারো	-15152
▁রেখেছি	-15153
ছেলে	-15154
▁বিশ্বস্ত	-15155
▁আসুক	-15156
▁বর্ষণ	-15157
▁হাউসের	-15158
▁অজি	-15159
▁শখ	-15160
▁ব্যারাক	-15161
▁সহকর্মী	-15162
▁টোল	-15163
▁সাংবাদিকের	-15164
রেড	-15165
ৃক	-15166
▁বাজিয়ে	-15167
▁রূপান্তরিত	-15168
িয়ম	-15169
▁রিফাত	-15170
▁প্রতিকৃতি	-15171
▁গাব	-15172
▁ভুম	-15173
▁তারে	-15174
▁মনিটরিং	-15175
▁মশলা	-15176
▁শহীদদের	-15177
▁আফজাল	-15178
▁ফারাক	-15179
▁প্রযোজন	-15180
▁প্রেমিকা	-15181
▁দাঁতের	-15182
▁রাজশাহীতে	-15183
▁গুয়	-15184
▁অমানবিক	-15185
▁ব্রড	-15186
▁প্রশস্ত	-15187
সাজ	-15188
▁ফিরলেন	-15189
▁স্রোত	-15190
▁সিউ	-15191
▁প্যাকেজ	-15192
ary	-15193
▁নৈশ	-15194
▁রাখল	-15195
▁নানারকম	-15196
▁দৃষ্টান্তমূলক	-15197
▁হাওর	-15198
▁নিয়া	-15199
য়োগ	-15200
▁বৈধতা	-15201
ভালো	-15202
▁সামল	-15203
▁স্টুডিও	-15204
▁দৈর্ঘ্য	-15205
▁সোভিয়ে	-15206
▁ইনড	-15207
ফুল্ল	-15208
▁কলকাত	-15209
▁কেমিক্যাল	-15210
▁কামড়	-15211
▁বেধ	-15212
▁চিকিৎসকেরা	-15213
▁চাইলেও	-15214
ure	-15215
▁কৌতূহল	-15216
▁ভেজা	-15217
▁চিড়িয়া	-15218
▁আর্মি	-15219
সরাই	-15220
▁ডক্টর	-15221
▁শরৎ	-15222
▁কামড়ে	-15223
orld	-15224
▁কুচ	-15225
▁আশেপাশে	-15226
▁কিশোরীকে	-15227
াস্টার	-15228
▁পুনর্বাসন	-15229
শিক্ষক	-15230
▁সম্মুখে	-15231
▁১৯৭২	-15232
▁তাহলেই	-15233
▁কবিত	-15234
খালি	-15235
বাংলাদেশের	-15236
খুঁ	-15237
▁পোস্টের	-15238
▁সানা	-15239
▁আনল	-15240
▁সর্বপ্রথম	-15241
শালার	-15242
▁রামকৃষ্ণ	-15243
▁সহানু	-15244
▁আসছিলেন	-15245
▁গরমের	-15246
▁পুনরুদ্ধ	-15247
▁ঘটানো	-15248
ডন	-15249
▁উল্লেখিত	-15250
▁ফেব্রুয়ারী	-15251
▁ইনস্টাগ্রাম	-15252
াহাট	-15253
▁হাওয়ায়	-15254
প্তি	-15255
▁খলি	-15256
▁আদতে	-15257
▁কম্পিউটারের	-15258
▁মিলাদ	-15259
▁রোম	-15260
▁ফিরছেন	-15261
▁তদ	-15262
▁স্	-15263
▁আমন	-15264
▁সেইসব	-15265
▁12	-15266
▁দৌলত	-15267
▁ফরে	-15268
▁কেটেছে	-15269
বিদ্যুৎ	-15270
খল	-15271
▁সংকল	-15272
▁জনি	-15273
মতি	-15274
▁তলার	-15275
▁ওঁদের	-15276
▁হুসেইন	-15277
▁কুট	-15278
▁অভিনয়ে	-15279
▁কনসাল	-15280
▁সনাক্ত	-15281
▁জয়েন্ট	-15282
ৈরব	-15283
▁আমারও	-15284
▁গ্রাউন্ড	-15285
গোনা	-15286
ext	-15287
টোর	-15288
▁porn	-15289
তরুণ	-15290
▁সেলিব্র	-15291
েন্দ্রনাথ	-15292
▁চওড়া	-15293
▁আইজি	-15294
ুয়েট	-15295
২০১৫	-15296
সচেতন	-15297
▁বঙ্গবন্ধুকে	-15298
▁গিয়েছে৷	-15299
▁আত্মপ্রকাশ	-15300
▁মোসাদ্দ	-15301
▁ছেলেমেয়েদের	-15302
▁বিচারিক	-15303
▁বেক	-15304
গতভাবে	-15305
▁২টা	-15306
▁পন্থ	-15307
▁ক্ষুধা	-15308
▁ইরানি	-15309
▁পেনশন	-15310
▁খুললেন	-15311
▁উদ্ভাবন	-15312
▁কার্ল	-15313
বন্ত	-15314
▁অপরকে	-15315
▁আইপিএলের	-15316
▁সুড়	-15317
▁উন্নয়নশীল	-15318
ুবা	-15319
▁খেলবেন	-15320
মার্চ	-15321
▁স্বৈরা	-15322
▁রাশে	-15323
▁নোমান	-15324
▁প্রত্যয়	-15325
▁উপাস	-15326
▁ভাগের	-15327
▁উপচে	-15328
▁শিখর	-15329
▁কাম্য	-15330
▁বললেনঃ	-15331
▁সজল	-15332
▁মর্ত	-15333
▁পড়িয়া	-15334
▁গীতা	-15335
▁রোনাল্ডো	-15336
▁নেটি	-15337
▁মাহফিলে	-15338
▁একলা	-15339
▁bangladesh	-15340
তখন	-15341
▁কেনো	-15342
জিন	-15343
▁অ্যাম্বুলেন্স	-15344
সবুজ	-15345
▁সত্যের	-15346
▁জঘন্য	-15347
▁তুলছে	-15348
▁দিব্যি	-15349
▁লার	-15350
▁মুস্তাফিজ	-15351
লেম	-15352
াটাই	-15353
োনায়	-15354
▁পোকা	-15355
▁নাচের	-15356
▁le	-15357
▁স্মরণীয়	-15358
াহ্য	-15359
▁মেগাপ	-15360
▁আইনজীবীদের	-15361
▁ব্যাটে	-15362
াদেবী	-15363
▁জিন্দ	-15364
▁অভিবাসী	-15365
orm	-15366
াগারে	-15367
খেলা	-15368
▁টিকেট	-15369
ওয়াব	-15370
প্রকার	-15371
▁স্টেডিয়ামের	-15372
র্ব	-15373
সিভ	-15374
▁দেখেনি	-15375
▁্যালী	-15376
োচনার	-15377
▁পরিচালন	-15378
▁সদরে	-15379
▁র‍্যা	-15380
জুন	-15381
▁কিবর	-15382
▁মেঝেতে	-15383
ধন্য	-15384
▁রোজার	-15385
▁গেইল	-15386
হোম	-15387
করের	-15388
▁নেননি	-15389
্রা	-15390
▁সিয়াম	-15391
▁খুচরা	-15392
▁ভাস্কর্য	-15393
্গে	-15394
▁বিউটি	-15395
▁স্ট্রোক	-15396
▁হাউসে	-15397
▁ঘু	-15398
▁এলজি	-15399
▁অপেশাদার	-15400
▁নেদারল্যান্ড	-15401
▁ওয়ানডেতে	-15402
▁জীবনী	-15403
▁লেবার	-15404
সহকারী	-15405
[...]
