{
  "version": "1.0",
  "truncation": null,
  "padding": null,
  "added_tokens": [
    {
      "id": 12205,
      "content": "ক্ক",
      "single_word": false,
      "lstrip": false,
      "rstrip": false,
      "normalized": true,
      "special": false
    },
    {
      "id": 12206,
      "content": "ক্ত্র",
      "single_word": false,
      "lstrip": false,
      "rstrip": false,
      "normalized": true,
      "special": false
    },
    {
      "id": 12207,
      "content": "ক্ন",
      "single_word": false,
      "lstrip": false,
      "rstrip": false,
      "normalized": true,
      "special": false
    },
    {
      "id": 12208,
      "content": "ক্ব",
      "single_word": false,
      "lstrip": false,
      "rstrip": false,
      "normalized": true,
      "special": false
    },
    {
      "id": 12209,
      "content": "ক্ম",
      "single_word": false,
      "lstrip": false,
      "rstrip": false,
      "normalized": true,
      "special": false
    },
    {
      "id": 12210,
      "content": "ক্ল",
      "single_word": false,
      "lstrip": false,
      "rstrip": false,
      "normalized": true,
      "special": false
    },
    {
      "id": 12211,
      "content": "ক্ষ্ণ",
      "single_word": false,
      "lstrip": false,
      "rstrip": false,
      "normalized": true,
      "special": false
    },
    {
      "id": 12212,
      "content": "ক্ষ্ব",
      "single_word": false,
      "lstrip": false,
      "rstrip": false,
      "normalized": true,
      "special": false
    },
    {
      "id": 12213,
      "content": "ক্ষ্ম্য",
      "single_word": false,
      "lstrip": false,
      "rstrip": false,
      "normalized": true,
      "special": false
    },
    {
      "id": 12214,
      "content": "ক্ষ্য",
      "single_word": false,
      "lstrip": false,
      "rstrip": false,
      "normalized": true,
      "special": false
    },
    {
      "id": 12215,
      "content": "খ্য",
      "single_word": false,
      "lstrip": false,
      "rstrip": false,
      "normalized": true,
      "special": false
    },
    {
      "id": 12216,
      "content": "খ্র",
      "single_word": false,
      "lstrip": false,
      "rstrip": false,
      "normalized": true,
      "special": false
    },
    {
      "id": 12217,
      "content": "গ্‌ণ",
      "single_word": false,
      "lstrip": false,
      "rstrip": false,
      "normalized": true,
      "special": false
    },
    {
      "id": 12218,
      "content": "গ্ধ্য",
      "single_word": false,
      "lstrip": false,
      "rstrip": false,
      "normalized": true,
      "special": false
    },
    {
      "id": 12219,
      "content": "গ্ধ্র",
      "single_word": false,
      "lstrip": false,
      "rstrip": false,
      "normalized": true,
      "special": false
    },
    {
      "id": 12220,
      "content": "গ্ন্য",
      "single_word": false,
      "lstrip": false,
      "rstrip": false,
      "normalized": true,
      "special": false
    },
    {
      "id": 12221,
      "content": "গ্ব",
      "single_word": false,
      "lstrip": false,
      "rstrip": false,
      "normalized": true,
      "special": false
    },
    {
      "id": 12222,
      "content": "গ্ম",
      "single_word": false,
      "lstrip": false,
      "rstrip": false,
      "normalized": true,
      "special": false
    },
    {
      "id": 12223,
      "content": "গ্য",
      "single_word": false,
      "lstrip": false,
      "rstrip": false,
      "normalized": true,
      "special": false
    },
    {
      "id": 12224,
      "content": "গ্র্য",
      "single_word": false,
      "lstrip": false,
      "rstrip": false,
      "normalized": true,
      "special": false
    },
    {
      "id": 12225,
      "content": "গ্ল",
      "single_word": false,
      "lstrip": false,
      "rstrip": false,
      "normalized": true,
      "special": false
    },
    {
      "id": 12226,
      "content": "ঘ্ন",
      "single_word": false,
      "lstrip": false,
      "rstrip": false,
      "normalized": true,
      "special": false
    },
    {
      "id": 12227,
      "content": "ঘ্য",
      "single_word": false,
      "lstrip": false,
      "rstrip": false,
      "normalized": true,
      "special": false
    },
    {
      "id": 12228,
      "content": "ঙ্‌ক্ত",
      "single_word": false,
      "lstrip": false,
      "rstrip": false,
      "normalized": true,
      "special": false
    },
    {
      "id": 12229,
      "content": "ঙ্ক্য",
      "single_word": false,
      "lstrip": false,
      "rstrip": false,
      "normalized": true,
      "special": false
    },
    {
      "id": 12230,
      "content": "ঙ্ক্ষ",
      "single_word": false,
      "lstrip": false,
      "rstrip": false,
      "normalized": true,
      "special": false
    },
    {
      "id": 12231,
      "content": "ঙ্খ",
      "single_word": false,
      "lstrip": false,
      "rstrip": false,
      "normalized": true,
      "special": false
    },
    {
      "id": 12232,
      "content": "ঙ্খ্য",
      "single_word": false,
      "lstrip": false,
      "rstrip": false,
      "normalized": true,
      "special": false
    },
    {
      "id": 12233,
      "content": "ঙ্গ্য",
      "single_word": false,
      "lstrip": false,
      "rstrip": false,
      "normalized": true,
      "special": false
    },
    {
      "id": 12234,
      "content": "ঙ্ঘ",
      "single_word": false,
      "lstrip": false,
      "rstrip": false,
      "normalized": true,
      "special": false
    },
    {
      "id": 12235,
      "content": "ঙ্ঘ্য",
      "single_word": false,
      "lstrip": false,
      "rstrip": false,
      "normalized": true,
      "special": false
    },
    {
      "id": 12236,
      "content": "ঙ্ঘ্র",
      "single_word": false,
      "lstrip": false,
      "rstrip": false,
      "normalized": true,
      "special": false
    },
    {
      "id": 12237,
      "content": "ঙ্ম",
      "single_word": false,
      "lstrip": false,
      "rstrip": false,
      "normalized": true,
      "special": false
    },
    {
      "id": 12238,
      "content": "চ্ছ",
      "single_word": false,
      "lstrip": false,
      "rstrip": false,
      "normalized": true,
      "special": false
    },
    {
      "id": 12239,
      "content": "চ্ছ্ব",
      "single_word": false,
      "lstrip": false,
      "rstrip": false,
      "normalized": true,
      "special": false
    },
    {
      "id": 12240,
      "content": "চ্ছ্র",
      "single_word": false,
      "lstrip": false,
      "rstrip": false,
      "normalized": true,
      "special": false
    },
    {
      "id": 12241,
      "content": "চ্ঞ",
      "single_word": false,
      "lstrip": false,
      "rstrip": false,
      "normalized": true,
      "special": false
    },
    {
      "id": 12242,
      "content": "চ্ব",
      "single_word": false,
      "lstrip": false,
      "rstrip": false,
      "normalized": true,
      "special": false
    },
    {
      "id": 12243,
      "content": "চ্য",
      "single_word": false,
      "lstrip": false,
      "rstrip": false,
      "normalized": true,
      "special": false
    },
    {
      "id": 12244,
      "content": "জ্জ",
      "single_word": false,
      "lstrip": false,
      "rstrip": false,
      "normalized": true,
      "special": false
    },
    {
      "id": 12245,
      "content": "জ্জ্ব",
      "single_word": false,
      "lstrip": false,
      "rstrip": false,
      "normalized": true,
      "special": false
    },
    {
      "id": 12246,
      "content": "জ্ঝ",
      "single_word": false,
      "lstrip": false,
      "rstrip": false,
      "normalized": true,
      "special": false
    },
    {
      "id": 12247,
      "content": "জ্র",
      "single_word": false,
      "lstrip": false,
      "rstrip": false,
      "normalized": true,
      "special": false
    },
    {
      "id": 12248,
      "content": "ঞ্ছ",
      "single_word": false,
      "lstrip": false,
      "rstrip": false,
      "normalized": true,
      "special": false
    },
    {
      "id": 12249,
      "content": "ঞ্ঝ",
      "single_word": false,
      "lstrip": false,
      "rstrip": false,
      "normalized": true,
      "special": false
    },
    {
      "id": 12250,
      "content": "ট্ব",
      "single_word": false,
      "lstrip": false,
      "rstrip": false,
      "normalized": true,
      "special": false
    },
    {
      "id": 12251,
      "content": "ট্ম",
      "single_word": false,
      "lstrip": false,
      "rstrip": false,
      "normalized": true,
      "special": false
    },
    {
      "id": 12252,
      "content": "ট্য",
      "single_word": false,
      "lstrip": false,
      "rstrip": false,
      "normalized": true,
      "special": false
    },
    {
      "id": 12253,
      "content": "ড্ব",
      "single_word": false,
      "lstrip": false,
      "rstrip": false,
      "normalized": true,
      "special": false
    },
    {
      "id": 12254,
      "content": "ড্ম",
      "single_word": false,
      "lstrip": false,
      "rstrip": false,
      "normalized": true,
      "special": false
    },
    {
      "id": 12255,
      "content": "ড্য",
      "single_word": false,
      "lstrip": false,
      "rstrip": false,
      "normalized": true,
      "special": false
    },
    {
      "id": 12256,
      "content": "ড়্গ",
      "single_word": false,
      "lstrip": false,
      "rstrip": false,
      "normalized": true,
      "special": false
    },
    {
      "id": 12257,
      "content": "ঢ্র",
      "single_word": false,
      "lstrip": false,
      "rstrip": false,
      "normalized": true,
      "special": false
    },
    {
      "id": 12258,
      "content": "ণ্ট",
      "single_word": false,
      "lstrip": false,
      "rstrip": false,
      "normalized": true,
      "special": false
    },
    {
      "id": 12259,
      "content": "ণ্ঠ",
      "single_word": false,
      "lstrip": false,
      "rstrip": false,
      "normalized": true,
      "special": false
    },
    {
      "id": 12260,
      "content": "ণ্ঠ্য",
      "single_word": false,
      "lstrip": false,
      "rstrip": false,
      "normalized": true,
      "special": false
    },
    {
      "id": 12261,
      "content": "ণ্ড্য",
      "single_word": false,
      "lstrip": false,
      "rstrip": false,
      "normalized": true,
      "special": false
    },
    {
      "id": 12262,
      "content": "ণ্ড্র",
      "single_word": false,
      "lstrip": false,
      "rstrip": false,
      "normalized": true,
      "special": false
    },
    {
      "id": 12263,
      "content": "ণ্ঢ",
      "single_word": false,
      "lstrip": false,
      "rstrip": false,
      "normalized": true,
      "special": false
    },
    {
      "id": 12264,
      "content": "ণ্ণ",
      "single_word": false,
      "lstrip": false,
      "rstrip": false,
      "normalized": true,
      "special": false
    },
    {
      "id": 12265,
      "content": "ণ্ব",
      "single_word": false,
      "lstrip": false,
      "rstrip": false,
      "normalized": true,
      "special": false
    },
    {
      "id": 12266,
      "content": "ণ্ম",
      "single_word": false,
      "lstrip": false,
      "rstrip": false,
      "normalized": true,
      "special": false
    },
    {
      "id": 12267,
      "content": "ত্ত্র",
      "single_word": false,
      "lstrip": false,
      "rstrip": false,
      "normalized": true,
      "special": false
    },
    {
      "id": 12268,
      "content": "ত্ত্য",
      "single_word": false,
      "lstrip": false,
      "rstrip": false,
      "normalized": true,
      "special": false
    },
    {
      "id": 12269,
      "content": "ত্থ",
      "single_word": false,
      "lstrip": false,
      "rstrip": false,
      "normalized": true,
      "special": false
    },
    {
      "id": 12270,
      "content": "ত্ম্য",
      "single_word": false,
      "lstrip": false,
      "rstrip": false,
      "normalized": true,
      "special": false
    },
    {
      "id": 12271,
      "content": "ত্র্য",
      "single_word": false,
      "lstrip": false,
      "rstrip": false,
      "normalized": true,
      "special": false
    },
    {
      "id": 12272,
      "content": "থ্ব",
      "single_word": false,
      "lstrip": false,
      "rstrip": false,
      "normalized": true,
      "special": false
    },
    {
      "id": 12273,
      "content": "থ্য",
      "single_word": false,
      "lstrip": false,
      "rstrip": false,
      "normalized": true,
      "special": false
    },
    {
      "id": 12274,
      "content": "দ্গ",
      "single_word": false,
      "lstrip": false,
      "rstrip": false,
      "normalized": true,
      "special": false
    },
    {
      "id": 12275,
      "content": "দ্ঘ",
      "single_word": false,
      "lstrip": false,
      "rstrip": false,
      "normalized": true,
      "special": false
    },
    {
      "id": 12276,
      "content": "দ্দ্ব",
      "single_word": false,
      "lstrip": false,
      "rstrip": false,
      "normalized": true,
      "special": false
    },
    {
      "id": 12277,
      "content": "দ্ভ",
      "single_word": false,
      "lstrip": false,
      "rstrip": false,
      "normalized": true,
      "special": false
    },
    {
      "id": 12278,
      "content": "দ্ভ্র",
      "single_word": false,
      "lstrip": false,
      "rstrip": false,
      "normalized": true,
      "special": false
    },
    {
      "id": 12279,
      "content": "দ্ম",
      "single_word": false,
      "lstrip": false,
      "rstrip": false,
      "normalized": true,
      "special": false
    },
    {
      "id": 12280,
      "content": "দ্র্য",
      "single_word": false,
      "lstrip": false,
      "rstrip": false,
      "normalized": true,
      "special": false
    },
    {
      "id": 12281,
      "content": "ধ্ন",
      "single_word": false,
      "lstrip": false,
      "rstrip": false,
      "normalized": true,
      "special": false
    },
    {
      "id": 12282,
      "content": "ধ্ম",
      "single_word": false,
      "lstrip": false,
      "rstrip": false,
      "normalized": true,
      "special": false
    },
    {
      "id": 12283,
      "content": "ধ্র",
      "single_word": false,
      "lstrip": false,
      "rstrip": false,
      "normalized": true,
      "special": false
    },
    {
      "id": 12284,
      "content": "ন্ট্র",
      "single_word": false,
      "lstrip": false,
      "rstrip": false,
      "normalized": true,
      "special": false
    },
    {
      "id": 12285,
      "content": "ন্ঠ",
      "single_word": false,
      "lstrip": false,
      "rstrip": false,
      "normalized": true,
      "special": false
    },
    {
      "id": 12286,
      "content": "ন্ড্র",
      "single_word": false,
      "lstrip": false,
      "rstrip": false,
      "normalized": true,
      "special": false
    },
    {
      "id": 12287,
      "content": "ন্ত্ব",
      "single_word": false,
      "lstrip": false,
      "rstrip": false,
      "normalized": true,
      "special": false
    },
    {
      "id": 12288,
      "content": "ন্ত্য",
      "single_word": false,
      "lstrip": false,
      "rstrip": false,
      "normalized": true,
      "special": false
    },
    {
      "id": 12289,
      "content": "ন্ত্র্য",
      "single_word": false,
      "lstrip": false,
      "rstrip": false,
      "normalized": true,
      "special": false
    },
    {
      "id": 12290,
      "content": "ন্থ",
      "single_word": false,
      "lstrip": false,
      "rstrip": false,
      "normalized": true,
      "special": false
    },
    {
      "id": 12291,
      "content": "ন্থ্র",
      "single_word": false,
      "lstrip": false,
      "rstrip": false,
      "normalized": true,
      "special": false
    },
    {
      "id": 12292,
      "content": "ন্দ্য",
      "single_word": false,
      "lstrip": false,
      "rstrip": false,
      "normalized": true,
      "special": false
    },
    {
      "id": 12293,
      "content": "ন্দ্ব",
      "single_word": false,
      "lstrip": false,
      "rstrip": false,
      "normalized": true,
      "special": false
    },
    {
      "id": 12294,
      "content": "ন্ধ্য",
      "single_word": false,
      "lstrip": false,
      "rstrip": false,
      "normalized": true,
      "special": false
    },
    {
      "id": 12295,
      "content": "ন্ধ্র",
      "single_word": false,
      "lstrip": false,
      "rstrip": false,
      "normalized": true,
      "special": false
    },
    {
      "id": 12296,
      "content": "ন্ব",
      "single_word": false,
      "lstrip": false,
      "rstrip": false,
      "normalized": true,
      "special": false
    },
    {
      "id": 12297,
      "content": "ন্ম",
      "single_word": false,
      "lstrip": false,
      "rstrip": false,
      "normalized": true,
      "special": false
    },
    {
      "id": 12298,
      "content": "প্ট",
      "single_word": false,
      "lstrip": false,
      "rstrip": false,
      "normalized": true,
      "special": false
    },
    {
      "id": 12299,
      "content": "প্ন",
      "single_word": false,
      "lstrip": false,
      "rstrip": false,
      "normalized": true,
      "special": false
    },
    {
      "id": 12300,
      "content": "প্য",
      "single_word": false,
      "lstrip": false,
      "rstrip": false,
      "normalized": true,
      "special": false
    },
    {
      "id": 12301,
      "content": "প্র্য",
      "single_word": false,
      "lstrip": false,
      "rstrip": false,
      "normalized": true,
      "special": false
    },
    {
      "id": 12302,
      "content": "প্স",
      "single_word": false,
      "lstrip": false,
      "rstrip": false,
      "normalized": true,
      "special": false
    },
    {
      "id": 12303,
      "content": "ফ্ল",
      "single_word": false,
      "lstrip": false,
      "rstrip": false,
      "normalized": true,
      "special": false
    },
    {
      "id": 12304,
      "content": "ব্জ",
      "single_word": false,
      "lstrip": false,
      "rstrip": false,
      "normalized": true,
      "special": false
    },
    {
      "id": 12305,
      "content": "ভ্ব",
      "single_word": false,
      "lstrip": false,
      "rstrip": false,
      "normalized": true,
      "special": false
    },
    {
      "id": 12306,
      "content": "ভ্ল",
      "single_word": false,
      "lstrip": false,
      "rstrip": false,
      "normalized": true,
      "special": false
    },
    {
      "id": 12307,
      "content": "ম্ন",
      "single_word": false,
      "lstrip": false,
      "rstrip": false,
      "normalized": true,
      "special": false
    },
    {
      "id": 12308,
      "content": "ম্প্র",
      "single_word": false,
      "lstrip": false,
      "rstrip": false,
      "normalized": true,
      "special": false
    },
    {
      "id": 12309,
      "content": "ম্ফ",
      "single_word": false,
      "lstrip": false,
      "rstrip": false,
      "normalized": true,
      "special": false
    },
    {
      "id": 12310,
      "content": "ম্ব্র",
      "single_word": false,
      "lstrip": false,
      "rstrip": false,
      "normalized": true,
      "special": false
    },
    {
      "id": 12311,
      "content": "ম্ভ্র",
      "single_word": false,
      "lstrip": false,
      "rstrip": false,
      "normalized": true,
      "special": false
    },
    {
      "id": 12312,
      "content": "ম্ম",
      "single_word": false,
      "lstrip": false,
      "rstrip": false,
      "normalized": true,
      "special": false
    },
    {
      "id": 12313,
      "content": "ম্র",
      "single_word": false,
      "lstrip": false,
      "rstrip": false,
      "normalized": true,
      "special": false
    },
    {
      "id": 12314,
      "content": "ম্ল",
      "single_word": false,
      "lstrip": false,
      "rstrip": false,
      "normalized": true,
      "special": false
    },
    {
      "id": 12315,
      "content": "র্ক্য",
      "single_word": false,
      "lstrip": false,
      "rstrip": false,
      "normalized": true,
      "special": false
    },
    {
      "id": 12316,
      "content": "র্গ",
      "single_word": false,
      "lstrip": false,
      "rstrip": false,
      "normalized": true,
      "special": false
    },
    {
      "id": 12317,
      "content": "র্গ্য",
      "single_word": false,
      "lstrip": false,
      "rstrip": false,
      "normalized": true,
      "special": false
    },
    {
      "id": 12318,
      "content": "র্ঙ্গ",
      "single_word": false,
      "lstrip": false,
      "rstrip": false,
      "normalized": true,
      "special": false
    },
    {
      "id": 12319,
      "content": "র্চ্য",
      "single_word": false,
      "lstrip": false,
      "rstrip": false,
      "normalized": true,
      "special": false
    },
    {
      "id": 12320,
      "content": "র্জ্য",
      "single_word": false,
      "lstrip": false,
      "rstrip": false,
      "normalized": true,
      "special": false
    },
    {
      "id": 12321,
      "content": "র্জ্জ",
      "single_word": false,
      "lstrip": false,
      "rstrip": false,
      "normalized": true,
      "special": false
    },
    {
      "id": 12322,
      "content": "র্জ্ঞ",
      "single_word": false,
      "lstrip": false,
      "rstrip": false,
      "normalized": true,
      "special": false
    },
    {
      "id": 12323,
      "content": "র্ণ্য",
      "single_word": false,
      "lstrip": false,
      "rstrip": false,
      "normalized": true,
      "special": false
    },
    {
      "id": 12324,
      "content": "র্ত্য",
      "single_word": false,
      "lstrip": false,
      "rstrip": false,
      "normalized": true,
      "special": false
    },
    {
      "id": 12325,
      "content": "র্থ্য",
      "single_word": false,
      "lstrip": false,
      "rstrip": false,
      "normalized": true,
      "special": false
    },
    {
      "id": 12326,
      "content": "র্ব্য",
      "single_word": false,
      "lstrip": false,
      "rstrip": false,
      "normalized": true,
      "special": false
    },
    {
      "id": 12327,
      "content": "র্ম্য",
      "single_word": false,
      "lstrip": false,
      "rstrip": false,
      "normalized": true,
      "special": false
    },
    {
      "id": 12328,
      "content": "র্শ্য",
      "single_word": false,
      "lstrip": false,
      "rstrip": false,
      "normalized": true,
      "special": false
    },
    {
      "id": 12329,
      "content": "র্ষ্য",
      "single_word": false,
      "lstrip": false,
      "rstrip": false,
      "normalized": true,
      "special": false
    },
    {
      "id": 12330,
      "content": "র্হ্য",
      "single_word": false,
      "lstrip": false,
      "rstrip": false,
      "normalized": true,
      "special": false
    },
    {
      "id": 12331,
      "content": "র্খ",
      "single_word": false,
      "lstrip": false,
      "rstrip": false,
      "normalized": true,
      "special": false
    },
    {
      "id": 12332,
      "content": "র্গ্র",
      "single_word": false,
      "lstrip": false,
      "rstrip": false,
      "normalized": true,
      "special": false
    },
    {
      "id": 12333,
      "content": "র্চ",
      "single_word": false,
      "lstrip": false,
      "rstrip": false,
      "normalized": true,
      "special": false
    },
    {
      "id": 12334,
      "content": "র্ছ",
      "single_word": false,
      "lstrip": false,
      "rstrip": false,
      "normalized": true,
      "special": false
    },
    {
      "id": 12335,
      "content": "র্জ",
      "single_word": false,
      "lstrip": false,
      "rstrip": false,
      "normalized": true,
      "special": false
    },
    {
      "id": 12336,
      "content": "র্ঝ",
      "single_word": false,
      "lstrip": false,
      "rstrip": false,
      "normalized": true,
      "special": false
    },
    {
      "id": 12337,
      "content": "র্ট",
      "single_word": false,
      "lstrip": false,
      "rstrip": false,
      "normalized": true,
      "special": false
    },
    {
      "id": 12338,
      "content": "র্ড",
      "single_word": false,
      "lstrip": false,
      "rstrip": false,
      "normalized": true,
      "special": false
    },
    {
      "id": 12339,
      "content": "র্ৎ",
      "single_word": false,
      "lstrip": false,
      "rstrip": false,
      "normalized": true,
      "special": false
    },
    {
      "id": 12340,
      "content": "র্ত্ম",
      "single_word": false,
      "lstrip": false,
      "rstrip": false,
      "normalized": true,
      "special": false
    },
    {
      "id": 12341,
      "content": "র্ত্র",
      "single_word": false,
      "lstrip": false,
      "rstrip": false,
      "normalized": true,
      "special": false
    },
    {
      "id": 12342,
      "content": "র্দ",
      "single_word": false,
      "lstrip": false,
      "rstrip": false,
      "normalized": true,
      "special": false
    },
    {
      "id": 12343,
      "content": "র্দ্ব",
      "single_word": false,
      "lstrip": false,
      "rstrip": false,
      "normalized": true,
      "special": false
    },
    {
      "id": 12344,
      "content": "র্দ্র",
      "single_word": false,
      "lstrip": false,
      "rstrip": false,
      "normalized": true,
      "special": false
    },
    {
      "id": 12345,
      "content": "র্ধ",
      "single_word": false,
      "lstrip": false,
      "rstrip": false,
      "normalized": true,
      "special": false
    },
    {
      "id": 12346,
      "content": "র্ন",
      "single_word": false,
      "lstrip": false,
      "rstrip": false,
      "normalized": true,
      "special": false
    },
    {
      "id": 12347,
      "content": "র্প",
      "single_word": false,
      "lstrip": false,
      "rstrip": false,
      "normalized": true,
      "special": false
    },
    {
      "id": 12348,
      "content": "র্ফ",
      "single_word": false,
      "lstrip": false,
      "rstrip": false,
      "normalized": true,
      "special": false
    },
    {
      "id": 12349,
      "content": "র্ব",
      "single_word": false,
      "lstrip": false,
      "rstrip": false,
      "normalized": true,
      "special": false
    },
    {
      "id": 12350,
      "content": "র্ভ",
      "single_word": false,
      "lstrip": false,
      "rstrip": false,
      "normalized": true,
      "special": false
    },
    {
      "id": 12351,
      "content": "র্ম",
      "single_word": false,
      "lstrip": false,
      "rstrip": false,
      "normalized": true,
      "special": false
    },
    {
      "id": 12352,
      "content": "র্য",
      "single_word": false,
      "lstrip": false,
      "rstrip": false,
      "normalized": true,
      "special": false
    },
    {
      "id": 12353,
      "content": "র্ল",
      "single_word": false,
      "lstrip": false,
      "rstrip": false,
      "normalized": true,
      "special": false
    },
    {
      "id": 12354,
      "content": "র্শ্ব",
      "single_word": false,
      "lstrip": false,
      "rstrip": false,
      "normalized": true,
      "special": false
    },
    {
      "id": 12355,
      "content": "র্ষ্ট",
      "single_word": false,
      "lstrip": false,
      "rstrip": false,
      "normalized": true,
      "special": false
    },
    {
      "id": 12356,
      "content": "র্ষ্ণ",
      "single_word": false,
      "lstrip": false,
      "rstrip": false,
      "normalized": true,
      "special": false
    },
    {
      "id": 12357,
      "content": "র্ষ্ণ্য",
      "single_word": false,
      "lstrip": false,
      "rstrip": false,
      "normalized": true,
      "special": false
    },
    {
      "id": 12358,
      "content": "র্স",
      "single_word": false,
      "lstrip": false,
      "rstrip": false,
      "normalized": true,
      "special": false
    },
    {
      "id": 12359,
      "content": "র্হ",
      "single_word": false,
      "lstrip": false,
      "rstrip": false,
      "normalized": true,
      "special": false
    },
    {
      "id": 12360,
      "content": "র্ঢ্য",
      "single_word": false,
      "lstrip": false,
      "rstrip": false,
      "normalized": true,
      "special": false
    },
    {
      "id": 12361,
      "content": "ল্ক",
      "single_word": false,
      "lstrip": false,
      "rstrip": false,
      "normalized": true,
      "special": false
    },
    {
      "id": 12362,
      "content": "ল্ক্য",
      "single_word": false,
      "lstrip": false,
      "rstrip": false,
      "normalized": true,
      "special": false
    },
    {
      "id": 12363,
      "content": "ল্গ",
      "single_word": false,
      "lstrip": false,
      "rstrip": false,
      "normalized": true,
      "special": false
    },
    {
      "id": 12364,
      "content": "ল্ফ",
      "single_word": false,
      "lstrip": false,
      "rstrip": false,
      "normalized": true,
      "special": false
    },
    {
      "id": 12365,
      "content": "ল্ব",
      "single_word": false,
      "lstrip": false,
      "rstrip": false,
      "normalized": true,
      "special": false
    },
    {
      "id": 12366,
      "content": "ল্ভ",
      "single_word": false,
      "lstrip": false,
      "rstrip": false,
      "normalized": true,
      "special": false
    },
    {
      "id": 12367,
      "content": "ল্ম",
      "single_word": false,
      "lstrip": false,
      "rstrip": false,
      "normalized": true,
      "special": false
    },
    {
      "id": 12368,
      "content": "ল্য",
      "single_word": false,
      "lstrip": false,
      "rstrip": false,
      "normalized": true,
      "special": false
    },
    {
      "id": 12369,
      "content": "ল্ল",
      "single_word": false,
      "lstrip": false,
      "rstrip": false,
      "normalized": true,
      "special": false
    },
    {
      "id": 12370,
      "content": "শ্চ",
      "single_word": false,
      "lstrip": false,
      "rstrip": false,
      "normalized": true,
      "special": false
    },
    {
      "id": 12371,
      "content": "শ্ছ",
      "single_word": false,
      "lstrip": false,
      "rstrip": false,
      "normalized": true,
      "special": false
    },
    {
      "id": 12372,
      "content": "শ্ন",
      "single_word": false,
      "lstrip": false,
      "rstrip": false,
      "normalized": true,
      "special": false
    },
    {
      "id": 12373,
      "content": "শ্ম",
      "single_word": false,
      "lstrip": false,
      "rstrip": false,
      "normalized": true,
      "special": false
    },
    {
      "id": 12374,
      "content": "শ্ল",
      "single_word": false,
      "lstrip": false,
      "rstrip": false,
      "normalized": true,
      "special": false
    },
    {
      "id": 12375,
      "content": "ষ্ক্ব",
      "single_word": false,
      "lstrip": false,
      "rstrip": false,
      "normalized": true,
      "special": false
    },
    {
      "id": 12376,
      "content": "ষ্ক্র",
      "single_word": false,
      "lstrip": false,
      "rstrip": false,
      "normalized": true,
      "special": false
    },
    {
      "id": 12377,
      "content": "ষ্ট্য",
      "single_word": false,
      "lstrip": false,
      "rstrip": false,
      "normalized": true,
      "special": false
    },
    {
      "id": 12378,
      "content": "ষ্ঠ্য",
      "single_word": false,
      "lstrip": false,
      "rstrip": false,
      "normalized": true,
      "special": false
    },
    {
      "id": 12379,
      "content": "ষ্ণ্ব",
      "single_word": false,
      "lstrip": false,
      "rstrip": false,
      "normalized": true,
      "special": false
    },
    {
      "id": 12380,
      "content": "ষ্প্র",
      "single_word": false,
      "lstrip": false,
      "rstrip": false,
      "normalized": true,
      "special": false
    },
    {
      "id": 12381,
      "content": "ষ্ফ",
      "single_word": false,
      "lstrip": false,
      "rstrip": false,
      "normalized": true,
      "special": false
    },
    {
      "id": 12382,
      "content": "ষ্ব",
      "single_word": false,
      "lstrip": false,
      "rstrip": false,
      "normalized": true,
      "special": false
    },
    {
      "id": 12383,
      "content": "ষ্ম",
      "single_word": false,
      "lstrip": false,
      "rstrip": false,
      "normalized": true,
      "special": false
    },
    {
      "id": 12384,
      "content": "ষ্য",
      "single_word": false,
      "lstrip": false,
      "rstrip": false,
      "normalized": true,
      "special": false
    },
    {
      "id": 12385,
      "content": "স্ক্র",
      "single_word": false,
      "lstrip": false,
      "rstrip": false,
      "normalized": true,
      "special": false
    },
    {
      "id": 12386,
      "content": "স্খ",
      "single_word": false,
      "lstrip": false,
      "rstrip": false,
      "normalized": true,
      "special": false
    },
    {
      "id": 12387,
      "content": "স্ত্ব",
      "single_word": false,
      "lstrip": false,
      "rstrip": false,
      "normalized": true,
      "special": false
    },
    {
      "id": 12388,
      "content": "স্ত্য",
      "single_word": false,
      "lstrip": false,
      "rstrip": false,
      "normalized": true,
      "special": false
    },
    {
      "id": 12389,
      "content": "স্থ্য",
      "single_word": false,
      "lstrip": false,
      "rstrip": false,
      "normalized": true,
      "special": false
    },
    {
      "id": 12390,
      "content": "স্ন",
      "single_word": false,
      "lstrip": false,
      "rstrip": false,
      "normalized": true,
      "special": false
    },
    {
      "id": 12391,
      "content": "স্ন্য",
      "single_word": false,
      "lstrip": false,
      "rstrip": false,
      "normalized": true,
      "special": false
    },
    {
      "id": 12392,
      "content": "স্প্র",
      "single_word": false,
      "lstrip": false,
      "rstrip": false,
      "normalized": true,
      "special": false
    },
    {
      "id": 12393,
      "content": "স্প্‌ল",
      "single_word": false,
      "lstrip": false,
      "rstrip": false,
      "normalized": true,
      "special": false
    },
    {
      "id": 12394,
      "content": "স্ফ",
      "single_word": false,
      "lstrip": false,
      "rstrip": false,
      "normalized": true,
      "special": false
    },
    {
      "id": 12395,
      "content": "স্ম",
      "single_word": false,
      "lstrip": false,
      "rstrip": false,
      "normalized": true,
      "special": false
    },
    {
      "id": 12396,
      "content": "স্ল",
      "single_word": false,
      "lstrip": false,
      "rstrip": false,
      "normalized": true,
      "special": false
    },
    {
      "id": 12397,
      "content": "হ্ণ",
      "single_word": false,
      "lstrip": false,
      "rstrip": false,
      "normalized": true,
      "special": false
    },
    {
      "id": 12398,
      "content": "হ্ন",
      "single_word": false,
      "lstrip": false,
      "rstrip": false,
      "normalized": true,
      "special": false
    },
    {
      "id": 12399,
      "content": "হ্ব",
      "single_word": false,
      "lstrip": false,
      "rstrip": false,
      "normalized": true,
      "special": false
    },
    {
      "id": 12400,
      "content": "হ্ল",
      "single_word": false,
      "lstrip": false,
      "rstrip": false,
      "normalized": true,
      "special": false
    }
  ],
  "normalizer": null,
  "pre_tokenizer": {
    "type": "Whitespace"
  },
  "post_processor": null,
  "decoder": null,
  "model": {
    "type": "BPE",
    "dropout": null,
    "unk_token": "<unk>",
    "continuing_subword_prefix": null,
    "end_of_word_suffix": null,
    "fuse_unk": false,
    "byte_fallback": false,
    "ignore_merges": false,
    "vocab": {
      "!": 0,
      "\"": 1,
      "#": 2,
      "%": 3,
      "&": 4,
      "'": 5,
      "(": 6,
      ")": 7,
      "*": 8,
      "+": 9,
      ",": 10,
      "-": 11,
      ".": 12,
      "/": 13,
      "0": 14,
      "1": 15,
      "2": 16,
      "3": 17,
      "4": 18,
      "5": 19,
      "6": 20,
      "7": 21,
      "8": 22,
      "9": 23,
      ":": 24,
      ";": 25,
      "<": 26,
      "=": 27,
      ">": 28,
      "?": 29,
      "@": 30,
      "A": 31,
      "B": 32,
      "C": 33,
      "D": 34,
      "E": 35,
      "F": 36,
      "G": 37,
      "H": 38,
      "I": 39,
      "J": 40,
      "K": 41,
      "L": 42,
      "M": 43,
      "N": 44,
      "O": 45,
      "P": 46,
      "Q": 47,
      "R": 48,
      "S": 49,
      "T": 50,
      "U": 51,
      "V": 52,
      "W": 53,
      "X": 54,
      "Y": 55,
      "Z": 56,
      "[": 57,
      "\\": 58,
      "]": 59,
      "^": 60,
      "_": 61,
      "`": 62,
      "a": 63,
      "b": 64,
      "c": 65,
      "d": 66,
      "e": 67,
      "f": 68,
      "g": 69,
      "h": 70,
      "i": 71,
      "j": 72,
      "k": 73,
      "l": 74,
      "m": 75,
      "n": 76,
      "o": 77,
      "p": 78,
      "q": 79,
      "r": 80,
      "s": 81,
      "t": 82,
      "u": 83,
      "v": 84,
      "w": 85,
      "x": 86,
      "y": 87,
      "z": 88,
      "{": 89,
      "|": 90,
      "": 91,
      "¦": 92,
      "©": 93,
      "«": 94,
      "·": 95,
      "»": 96,
      "¿": 97,
      "Ñ": 98,
      "í": 99,
      "ó": 100,
      "ú": 101,
      "œ": 102,
      "Ÿ": 103,
      "।": 104,
      "॥": 105,
      "ঁ": 106,
      "ং": 107,
      "ঃ": 108,
      "অ": 109,
      "আ": 110,
      "ই": 111,
      "ঈ": 112,
      "উ": 113,
      "ঊ": 114,
      "ঋ": 115,
      "এ": 116,
      "ঐ": 117,
      "ও": 118,
      "ঔ": 119,
      "ক": 120,
      "খ": 121,
      "গ": 122,
      "ঘ": 123,
      "ঙ": 124,
      "চ": 125,
      "ছ": 126,
      "জ": 127,
      "ঝ": 128,
      "ঞ": 129,
      "ট": 130,
      "ঠ": 131,
      "ড": 132,
      "ঢ": 133,
      "ণ": 134,
      "ত": 135,
      "থ": 136,
      "দ": 137,
      "ধ": 138,
      "ন": 139,
      "প": 140,
      "ফ": 141,
      "ব": 142,
      "ভ": 143,
      "ম": 144,
      "য": 145,
      "র": 146,
      "ল": 147,
      "শ": 148,
      "ষ": 149,
      "স": 150,
      "হ": 151,
      "়": 152,
      "া": 153,
      "ি": 154,
      "ী": 155,
      "ু": 156,
      "ূ": 157,
      "ৃ": 158,
      "ে": 159,
      "ৈ": 160,
      "ো": 161,
      "ৌ": 162,
      "্": 163,
      "ৎ": 164,
      "ৗ": 165,
      "ড়": 166,
      "ঢ়": 167,
      "য়": 168,
      "০": 169,
      "১": 170,
      "২": 171,
      "৩": 172,
      "৪": 173,
      "৫": 174,
      "৬": 175,
      "৭": 176,
      "৮": 177,
      "৯": 178,
      "৳": 179,
      "৷": 180,
      "​": 181,
      "‌": 182,
      "‍": 183,
      "–": 184,
      "—": 185,
      "‘": 186,
      "’": 187,
      "“": 188,
      "”": 189,
      "•": 190,
      "…": 191,
      "›": 192,
      "€": 193,
      "℃": 194,
      "→": 195,
      "Ⓕ": 196,
      "☎": 197,
      "☑": 198,
      "☯": 199,
      "♣": 200,
      "✅": 201,
      "➤": 202,
      "": 203,
      "️": 204,
      "�": 205,
      "💬": 206,
      "ার": 207,
      "ের": 208,
      "্র": 209,
      "্য": 210,
      "ান": 211,
      "কর": 212,
      "্ত": 213,
      "বি": 214,
      "নি": 215,
      "বা": 216,
      "েন": 217,
      "কে": 218,
      "প্র": 219,
      "াম": 220,
      "াল": 221,
      "য়ে": 222,
      "তে": 223,
      "র্": 224,
      "বে": 225,
      "তি": 226,
      "টি": 227,
      "কা": 228,
      "লে": 229,
      "না": 230,
      "স্": 231,
      "লা": 232,
      "রা": 233,
      "ছে": 234,
      "ক্": 235,
      "তা": 236,
      "পর": 237,
      "দি": 238,
      "দে": 239,
      "মা": 240,
      "নে": 241,
      "ন্": 242,
      "্যা": 243,
      "দের": 244,
      "ায়": 245,
      "কার": 246,
      "ুর": 247,
      "মি": 248,
      "ক্ষ": 249,
      "ুল": 250,
      "সম": 251,
      "পা": 252,
      "সি": 253,
      "ভা": 254,
      "সে": 255,
      "জন": 256,
      "সা": 257,
      "করে": 258,
      "কি": 259,
      "য়": 260,
      "এক": 261,
      "িত": 262,
      "য়া": 263,
      "টা": 264,
      "্ব": 265,
      "হা": 266,
      "মে": 267,
      "ন্ত": 268,
      "ার্": 269,
      "থা": 270,
      "কো": 271,
      "ষ্": 272,
      "দ্": 273,
      "িল": 274,
      "গে": 275,
      "ঙ্": 276,
      "রে": 277,
      "বার": 278,
      "তার": 279,
      "থে": 280,
      "দেশ": 281,
      "মান": 282,
      "িক": 283,
      "ব্য": 284,
      "য়ার": 285,
      "শি": 286,
      "সং": 287,
      "ছেন": 288,
      "ত্র": 289,
      "পরি": 290,
      "জে": 291,
      "জি": 292,
      "ভি": 293,
      "লি": 294,
      "ক্ত": 295,
      "যা": 296,
      "মু": 297,
      "হয়ে": 298,
      "গ্র": 299,
      "পি": 300,
      "অন": 301,
      "টে": 302,
      "স্ত": 303,
      "জান": 304,
      "পার": 305,
      "রি": 306,
      "জা": 307,
      "বং": 308,
      "দু": 309,
      "করা": 310,
      "থেকে": 311,
      "এবং": 312,
      "্ম": 313,
      "এই": 314,
      "নের": 315,
      "োগ": 316,
      "প্রতি": 317,
      "দা": 318,
      "ুন": 319,
      "্প": 320,
      "বল": 321,
      "আর": 322,
      "মো": 323,
      "শে": 324,
      "নির্": 325,
      "ছিল": 326,
      "চ্": 327,
      "হি": 328,
      "ডি": 329,
      "ধ্য": 330,
      "ীর": 331,
      "দ্ধ": 332,
      "যে": 333,
      "ঞ্": 334,
      "জন্য": 335,
      "২০": 336,
      "শা": 337,
      "স্থ": 338,
      "সু": 339,
      "পুর": 340,
      "নার": 341,
      "হয়": 342,
      "এর": 343,
      "ঙ্গ": 344,
      "আম": 345,
      "বর": 346,
      "্ড": 347,
      "খা": 348,
      "খে": 349,
      "ক্র": 350,
      "উপ": 351,
      "01": 352,
      "ীয়": 353,
      "ভাগ": 354,
      "ট্র": 355,
      "সব": 356,
      "িয়ে": 357,
      "যোগ": 358,
      "করতে": 359,
      "..": 360,
      "দিন": 361,
      "লো": 362,
      "পে": 363,
      "কোন": 364,
      "টার": 365,
      "নাম": 366,
      "চে": 367,
      "হবে": 368,
      "ির": 369,
      "ছা": 370,
      "কর্ম": 371,
      "মন": 372,
      "201": 373,
      "ড়া": 374,
      "আপ": 375,
      "অনু": 376,
      "েন্": 377,
      "হত": 378,
      "কাল": 379,
      "বলে": 380,
      "্যান": 381,
      "একটি": 382,
      "চা": 383,
      "দো": 384,
      "সম্": 385,
      "ড়": 386,
      "বিভাগ": 387,
      "ন্ত্র": 388,
      "হয়েছে": 389,
      "হার": 390,
      "গা": 391,
      "যু": 392,
      "রের": 393,
      "ত্ত": 394,
      "জার": 395,
      "দ্র": 396,
      "প্ত": 397,
      "সহ": 398,
      "ফি": 399,
      "ধান": 400,
      "ওয়া": 401,
      "মধ্য": 402,
      "নিয়ে": 403,
      "ইল": 404,
      "নির্বা": 405,
      "ভার": 406,
      "ামী": 407,
      "ব্যব": 408,
      "২০১": 409,
      "আস": 410,
      "দিয়ে": 411,
      "ন্ন": 412,
      "য়ে": 413,
      "খন": 414,
      "চি": 415,
      "আই": 416,
      "ক্ষে": 417,
      "ভে": 418,
      "সময়": 419,
      "ধার": 420,
      "শন": 421,
      "কের": 422,
      "লার": 423,
      "ৃত": 424,
      "ধি": 425,
      "শু": 426,
      "শ্": 427,
      "ান্ত": 428,
      "ুলি": 429,
      "তিনি": 430,
      "সর": 431,
      "অব": 432,
      "জ্": 433,
      "মধ্যে": 434,
      "সের": 435,
      "োন": 436,
      "তো": 437,
      "াকা": 438,
      "নির্বাচ": 439,
      "চাল": 440,
      "লাই": 441,
      "গত": 442,
      "ীন": 443,
      "োর": 444,
      "ষ্ঠ": 445,
      "ম্ব": 446,
      "ড়ে": 447,
      "ানে": 448,
      "শেষ": 449,
      "ালে": 450,
      "প্": 451,
      "যায়": 452,
      "স্ট": 453,
      "ওয়": 454,
      "লী": 455,
      "চ্ছে": 456,
      "অভি": 457,
      "০০": 458,
      "জেলা": 459,
      "ঙ্গে": 460,
      "লাম": 461,
      "বু": 462,
      "ফে": 463,
      "রো": 464,
      "বলেন": 465,
      "আমা": 466,
      "ব্যা": 467,
      "সাম": 468,
      "ছু": 469,
      "সঙ্গে": 470,
      "ন্ধ": 471,
      "ঢাকা": 472,
      "পূ": 473,
      "বাদ": 474,
      "ঞ্জ": 475,
      "দল": 476,
      "গ্রাম": 477,
      "চার": 478,
      "চল": 479,
      "আমি": 480,
      "ইস": 481,
      "কল": 482,
      "ভাবে": 483,
      "ক্তি": 484,
      "ডে": 485,
      "পতি": 486,
      "ছি": 487,
      "বছ": 488,
      "্যাল": 489,
      "রু": 490,
      "বাস": 491,
      "টের": 492,
      "সদ": 493,
      "রাজ": 494,
      "ন্দ": 495,
      "ুরু": 496,
      "কর্ত": 497,
      "কম": 498,
      "নী": 499,
      "ানের": 500,
      "তাদের": 501,
      "তের": 502,
      "ফা": 503,
      "শ্ব": 504,
      "বিষ": 505,
      "নিয়": 506,
      "করেন": 507,
      "আল": 508,
      "ড়ি": 509,
      "য়ের": 510,
      "আগ": 511,
      "বেন": 512,
      "ম্বর": 513,
      "ীদের": 514,
      "টির": 515,
      "কাশ": 516,
      "অনে": 517,
      "মাম": 518,
      "মন্ত্র": 519,
      "শ্র": 520,
      "বেশ": 521,
      "দেশের": 522,
      "চিত": 523,
      "এম": 524,
      "এস": 525,
      "বৃ": 526,
      "হো": 527,
      "ক্স": 528,
      "তাঁ": 529,
      "কিছু": 530,
      "আমরা": 531,
      "জের": 532,
      "জু": 533,
      "হে": 534,
      "ষ্ট": 535,
      "তু": 536,
      "দার": 537,
      "পো": 538,
      "গো": 539,
      "ছবি": 540,
      "ব্র": 541,
      "আমাদের": 542,
      "...": 543,
      "অর্": 544,
      "ওয়ার": 545,
      "জী": 546,
      "প্রা": 547,
      "স্ব": 548,
      "স্থা": 549,
      "ছিলেন": 550,
      "দন": 551,
      "গঞ্জ": 552,
      "পুলি": 553,
      "ব্": 554,
      "সার্": 555,
      "ূল": 556,
      "ানি": 557,
      "কোনো": 558,
      "সরকার": 559,
      "জ্ঞ": 560,
      "in": 561,
      "পত্র": 562,
      "কু": 563,
      "কথা": 564,
      "তবে": 565,
      "তীয়": 566,
      "সেন": 567,
      "ন্তু": 568,
      "গুল": 569,
      "ঘট": 570,
      "ইউ": 571,
      "উদ্": 572,
      "বো": 573,
      "কিন্তু": 574,
      "এন": 575,
      "সভা": 576,
      "হলে": 577,
      "ানা": 578,
      "ক্ষা": 579,
      "থাক": 580,
      "পুলিশ": 581,
      "দক": 582,
      "বিশ্ব": 583,
      "পারে": 584,
      "পূর্": 585,
      "ণে": 586,
      "ফোন": 587,
      "মার": 588,
      "করার": 589,
      "প্রধান": 590,
      "প্রকাশ": 591,
      "সম্প": 592,
      "আজ": 593,
      "এলা": 594,
      "সার": 595,
      "য়ন": 596,
      "করেছে": 597,
      "লীগ": 598,
      "ইন": 599,
      "স্য": 600,
      "প্রদ": 601,
      "ইসলাম": 602,
      "হী": 603,
      "সিলে": 604,
      "সম্পা": 605,
      "বন": 606,
      "ন্ড": 607,
      "বর্ত": 608,
      "টাকা": 609,
      "হাস": 610,
      "গর": 611,
      "সন": 612,
      "র্ষ": 613,
      "মাধ্য": 614,
      "দুই": 615,
      "আদ": 616,
      "এখন": 617,
      "খু": 618,
      "যৌ": 619,
      "১০": 620,
      "দেখ": 621,
      "ভাল": 622,
      "পরে": 623,
      "দী": 624,
      "হাম": 625,
      "ুষ": 626,
      "বন্ধ": 627,
      "টো": 628,
      "ণা": 629,
      "শুরু": 630,
      "ণ্ড": 631,
      "বের": 632,
      "রহ": 633,
      "an": 634,
      "বহ": 635,
      "মনে": 636,
      "মার্": 637,
      "ল্": 638,
      "গু": 639,
      "ডা": 640,
      "মূল": 641,
      "শো": 642,
      "দিকে": 643,
      "অনেক": 644,
      "কৃ": 645,
      "শী": 646,
      "সাল": 647,
      "্যে": 648,
      "ান্": 649,
      "মুখ": 650,
      "ব্যবহার": 651,
      "স্বা": 652,
      "সাই": 653,
      "নির্বাচন": 654,
      "নয়": 655,
      "লেন": 656,
      "প্রথ": 657,
      "তির": 658,
      "নায়": 659,
      "আমার": 660,
      "টু": 661,
      "বী": 662,
      "তারা": 663,
      "োট": 664,
      "বিদ": 665,
      "বাই": 666,
      "কাজ": 667,
      "নেই": 668,
      "গুলো": 669,
      "যৌন": 670,
      "অধি": 671,
      "সাথে": 672,
      "করেছেন": 673,
      "ধু": 674,
      "পরী": 675,
      "ভিন্ন": 676,
      "েন্ট": 677,
      "er": 678,
      "আপনি": 679,
      "আপনার": 680,
      "সভাপতি": 681,
      "সম্পাদক": 682,
      "মাধ্যমে": 683,
      "আহ": 684,
      "সূ": 685,
      "হচ্ছে": 686,
      "পরিচাল": 687,
      "আগে": 688,
      "উদ": 689,
      "ারা": 690,
      "ার্থ": 691,
      "রহমান": 692,
      "অ্যা": 693,
      "ম্যা": 694,
      "রুল": 695,
      "হতে": 696,
      "১৯": 697,
      "তিক": 698,
      "জানান": 699,
      "--": 700,
      "ধা": 701,
      "রয়ে": 702,
      "সী": 703,
      "সো": 704,
      "বেদন": 705,
      "পর্য": 706,
      "উপজেলা": 707,
      "হত্যা": 708,
      "মন্ত্রী": 709,
      "খানে": 710,
      "গণ": 711,
      "ক্রি": 712,
      "প্রথম": 713,
      "es": 714,
      "জাম": 715,
      "সেই": 716,
      "মানুষ": 717,
      "ধারণ": 718,
      "আলো": 719,
      "এমন": 720,
      "নত": 721,
      "বাজার": 722,
      "তাই": 723,
      "জাতীয়": 724,
      "উত্ত": 725,
      "ষ্ট্র": 726,
      "যুক্ত": 727,
      "বছর": 728,
      "আন": 729,
      "পন": 730,
      "মের": 731,
      "কারী": 732,
      "স্থান": 733,
      "মামলা": 734,
      "on": 735,
      "।’": 736,
      "আওয়": 737,
      "গিয়ে": 738,
      "নিক": 739,
      "গেছে": 740,
      "জানা": 741,
      "ছাড়া": 742,
      "আছে": 743,
      "চু": 744,
      "তাল": 745,
      "থি": 746,
      "দুল": 747,
      "পক্ষ": 748,
      "গ্রহ": 749,
      "অন্য": 750,
      "হোসেন": 751,
      "এলাকা": 752,
      "নতুন": 753,
      "আওয়ামী": 754,
      "ওই": 755,
      "পু": 756,
      "বিভিন্ন": 757,
      "তিন": 758,
      "মেইল": 759,
      "স্ত্র": 760,
      "ভালো": 761,
      "om": 762,
      "কমি": 763,
      "পাল": 764,
      "০১": 765,
      "বিএন": 766,
      "নেতা": 767,
      "2018": 768,
      "ঘা": 769,
      "ফল": 770,
      "সেবে": 771,
      "সাধারণ": 772,
      "য়া": 773,
      "হিসেবে": 774,
      "সিলেট": 775,
      "যান": 776,
      "বেশি": 777,
      "কাছে": 778,
      "ংশ": 779,
      "টক": 780,
      "তথ": 781,
      "মাল": 782,
      "্যাম": 783,
      "করি": 784,
      "র্শ": 785,
      "অর্থ": 786,
      "ধর": 787,
      "পের": 788,
      "ফু": 789,
      "সর্": 790,
      "১১": 791,
      "প্রে": 792,
      "লীগের": 793,
      "সনদ": 794,
      "ত্যা": 795,
      "ত্ব": 796,
      "য়ো": 797,
      "করুন": 798,
      "কর্তৃ": 799,
      "বিএনপি": 800,
      "নৌ": 801,
      "পড়ে": 802,
      "শাল": 803,
      "নিহত": 804,
      "বাড়": 805,
      "প্রি": 806,
      "রাষ্ট্র": 807,
      "টাই": 808,
      "বারের": 809,
      "গ্রে": 810,
      "প্রতিনি": 811,
      "কর্মকর্ত": 812,
      "চাই": 813,
      "রয়েছে": 814,
      "re": 815,
      "এসে": 816,
      "দায়": 817,
      "ধরে": 818,
      "ম্যান": 819,
      "থাকে": 820,
      "জানিয়ে": 821,
      "নামে": 822,
      "প্রদান": 823,
      "যৌনকর্ম": 824,
      "চনা": 825,
      "দেন": 826,
      "পড়": 827,
      "পক্ষে": 828,
      "ফ্র": 829,
      "যদি": 830,
      "লক্ষ": 831,
      "হু": 832,
      "দিতে": 833,
      "কারণে": 834,
      "দেশে": 835,
      "আদাল": 836,
      "প্রতিনিধি": 837,
      "th": 838,
      "ইন্": 839,
      "উন্ন": 840,
      "এন্ড": 841,
      "মত": 842,
      "লের": 843,
      "হর": 844,
      "মাণ": 845,
      "অনুষ্ঠ": 846,
      "পোর্": 847,
      "তথ্য": 848,
      "ti": 849,
      "আবেদন": 850,
      "বান": 851,
      "১২": 852,
      "রাখ": 853,
      "দেখা": 854,
      "পাঠ": 855,
      "সংবাদ": 856,
      "ত্রে": 857,
      "দুর্": 858,
      "দ্ধে": 859,
      "েন্দ্র": 860,
      "্যান্ড": 861,
      "সদস্য": 862,
      "com": 863,
      "একা": 864,
      "মতি": 865,
      "সমা": 866,
      "নির": 867,
      "বাইল": 868,
      "বাড়ি": 869,
      "জেলার": 870,
      "মোবাইল": 871,
      "বিষয়": 872,
      "চিত্র": 873,
      "আবার": 874,
      "ঠে": 875,
      "দশ": 876,
      "িকা": 877,
      "ুয়ার": 878,
      "বিমান": 879,
      "স্ক": 880,
      "নেত": 881,
      "হাসি": 882,
      "শিক্ষ": 883,
      "ত্রী": 884,
      "পারেন": 885,
      "শেখ": 886,
      "উদ্দিন": 887,
      "খুব": 888,
      "শোধ": 889,
      "পর্যন্ত": 890,
      "ov": 891,
      "কয়ে": 892,
      "চলে": 893,
      "তৈ": 894,
      "মৃত": 895,
      "িতে": 896,
      "ঙ্গা": 897,
      "2016": 898,
      "তাঁর": 899,
      "সার্ভে": 900,
      "কর্মকর্তা": 901,
      "do": 902,
      "ধর্": 903,
      "১৫": 904,
      "লাখ": 905,
      "তাকে": 906,
      "ভাব": 907,
      "2017": 908,
      "কালে": 909,
      "অভিযোগ": 910,
      "বিদ্যাল": 911,
      "কয়েক": 912,
      "en": 913,
      "ma": 914,
      "এসব": 915,
      "কী": 916,
      "ম্": 917,
      "৩০": 918,
      "ারি": 919,
      "ারে": 920,
      "বিশেষ": 921,
      "স্ট্র": 922,
      "পাত": 923,
      "ঘটনা": 924,
      "অক্": 925,
      "ভূ": 926,
      "হান": 927,
      "৯৫": 928,
      "শাহী": 929,
      "ড়া": 930,
      "বর্তমান": 931,
      "কাম": 932,
      "খবর": 933,
      "ণের": 934,
      "োষ": 935,
      "বাহি": 936,
      "হাজার": 937,
      "কোটি": 938,
      "ষ্টি": 939,
      "২০১৮": 940,
      "বছরের": 941,
      "ফোনঃ": 942,
      "অক্টো": 943,
      "অপ": 944,
      "খান": 945,
      "রী": 946,
      "র্ত": 947,
      "বিজ্ঞ": 948,
      "নিজে": 949,
      "মাত্র": 950,
      "মিটার": 951,
      "ক্ষম": 952,
      "যাবে": 953,
      "প্রতিষ্ঠ": 954,
      "**": 955,
      "il": 956,
      "ওয়ে": 957,
      "কন": 958,
      "ট্": 959,
      "নভে": 960,
      "বয়": 961,
      "বিরু": 962,
      "একটা": 963,
      "নভেম্বর": 964,
      "ou": 965,
      "অফি": 966,
      "গঠ": 967,
      "গান": 968,
      "দপ্ত": 969,
      "ফর": 970,
      "১৬": 971,
      "২৪": 972,
      "্যু": 973,
      "র্থ": 974,
      "মিক": 975,
      "জিনি": 976,
      "আরও": 977,
      "চেয়ে": 978,
      "রাজশাহী": 979,
      "অক্টোবর": 980,
      "বিরুদ্ধে": 981,
      "চৌ": 982,
      "তী": 983,
      "দূ": 984,
      "বর্": 985,
      "ম্প": 986,
      "বেক": 987,
      "মাহ": 988,
      "সিং": 989,
      "রেখে": 990,
      "ডিও": 991,
      "শেষে": 992,
      "বিশ্ববিদ্যাল": 993,
      "সম্পর্": 994,
      "পরিচালক": 995,
      "নেতৃত": 996,
      "তৈরি": 997,
      "ঁচ": 998,
      "উন্": 999,
      "কেন": 1000,
      "কৃত": 1001,
      "গুলি": 1002,
      "ধুর": 1003,
      "বস": 1004,
      "বুল": 1005,
      "ভু": 1006,
      "ময়": 1007,
      "ল্প": 1008,
      "সালে": 1009,
      "জনের": 1010,
      "একই": 1011,
      "ষ্টা": 1012,
      "স্তা": 1013,
      "দাবি": 1014,
      "ব্যবস্থা": 1015,
      "থাকলে": 1016,
      "পরীক্ষ": 1017,
      "উই": 1018,
      "উজ": 1019,
      "ত্য": 1020,
      "মতো": 1021,
      "হক": 1022,
      "াজ": 1023,
      "ানো": 1024,
      "বিল": 1025,
      "নিজ": 1026,
      "প্রায়": 1027,
      "লেখ": 1028,
      "ন্দি": 1029,
      "মেল": 1030,
      "থাকা": 1031,
      "ঙ্গি": 1032,
      "ভারতের": 1033,
      "চিকি": 1034,
      "শুধু": 1035,
      "দলের": 1036,
      "বহন": 1037,
      "এতে": 1038,
      "কেন্দ্র": 1039,
      "ত্": 1040,
      "দক্ষ": 1041,
      "ফের": 1042,
      "হল": 1043,
      "৫০": 1044,
      "লায়": 1045,
      "একজন": 1046,
      "আইন": 1047,
      "ক্ষেত্রে": 1048,
      "সার্ভেয়ার": 1049,
      "ধর্ম": 1050,
      "bd": 1051,
      "এটি": 1052,
      "কবি": 1053,
      "কলে": 1054,
      "গি": 1055,
      "ঘোষ": 1056,
      "তর": 1057,
      "ত্ম": 1058,
      "নো": 1059,
      "পৌ": 1060,
      "পার্": 1061,
      "১৮": 1062,
      "ানোর": 1063,
      "কেট": 1064,
      "পাওয়া": 1065,
      "ড়ে": 1066,
      "য়েছে": 1067,
      "গ্রামের": 1068,
      "তুলে": 1069,
      "মার্চ": 1070,
      "উত্তর": 1071,
      "ইঞ্": 1072,
      "এটা": 1073,
      "ক্যা": 1074,
      "চুর": 1075,
      "ছোট": 1076,
      "জুন": 1077,
      "ঠিক": 1078,
      "দ্ব": 1079,
      "ধন": 1080,
      "বদ": 1081,
      "বৈ": 1082,
      "বড়": 1083,
      "বলা": 1084,
      "হয়": 1085,
      "হওয়ার": 1086,
      "্লা": 1087,
      "রাত": 1088,
      "দেখে": 1089,
      "ব্যক্তি": 1090,
      "অবস্থ": 1091,
      "০০০": 1092,
      "ব্যাং": 1093,
      "অধিদপ্ত": 1094,
      "চিকিৎ": 1095,
      "কপি": 1096,
      "চী": 1097,
      "জনা": 1098,
      "তম": 1099,
      "হের": 1100,
      "হলো": 1101,
      "িন": 1102,
      "১৩": 1103,
      "কেউ": 1104,
      "তায়": 1105,
      "কারণ": 1106,
      "মিত": 1107,
      "ভাই": 1108,
      "শিশু": 1109,
      "লিম": 1110,
      "পারবেন": 1111,
      "পেয়ে": 1112,
      "নির্বাচনে": 1113,
      "জুলাই": 1114,
      "ইউনিয়": 1115,
      "০১৭": 1116,
      "পোর্ট": 1117,
      "চৌধুর": 1118,
      "at": 1119,
      "ed": 1120,
      "উল্": 1121,
      "খালে": 1122,
      "পদ্ধ": 1123,
      "ফতার": 1124,
      "ভিত": 1125,
      "রং": 1126,
      "রক্ষ": 1127,
      "সকল": 1128,
      "াই": 1129,
      "বিক": 1130,
      "নিশ্": 1131,
      "র্ঘ": 1132,
      "সিটি": 1133,
      "সিদ্ধ": 1134,
      "সেপ্": 1135,
      "দ্বি": 1136,
      "সংসদ": 1137,
      "স্তার": 1138,
      "এলাকায়": 1139,
      "মেইলঃ": 1140,
      "ar": 1141,
      "gov": 1142,
      "কুর": 1143,
      "খাল": 1144,
      "খ্যা": 1145,
      "পণ": 1146,
      "শের": 1147,
      "সন্ত": 1148,
      "ুক": 1149,
      "বায়": 1150,
      "রাজন": 1151,
      "ছেলে": 1152,
      "য়ার": 1153,
      "িত্ব": 1154,
      "কোর্": 1155,
      "কোম্প": 1156,
      "পরিবারের": 1157,
      "পরিবহন": 1158,
      "যাচ্ছে": 1159,
      "চেষ্টা": 1160,
      "বিষয়ে": 1161,
      "আগামী": 1162,
      "প্রাপ্ত": 1163,
      "ব্ল": 1164,
      "য়োজন": 1165,
      "দক্ষি": 1166,
      "পদ্ধতি": 1167,
      "সেপ্টে": 1168,
      "al": 1169,
      "or": 1170,
      "se": 1171,
      "আটক": 1172,
      "উৎ": 1173,
      "উদ্ধ": 1174,
      "খো": 1175,
      "খুল": 1176,
      "ভী": 1177,
      "মর": 1178,
      "মঙ্গ": 1179,
      "ীরা": 1180,
      "ৈতিক": 1181,
      "নিজের": 1182,
      "ক্রম": 1183,
      "উপজেলার": 1184,
      "রোধ": 1185,
      "ন্দর": 1186,
      "তাঁদের": 1187,
      "জীবন": 1188,
      "দীর্ঘ": 1189,
      "সালের": 1190,
      "জানিয়েছেন": 1191,
      "ংবা": 1192,
      "অতি": 1193,
      "জঙ্গি": 1194,
      "টগ্রাম": 1195,
      "ণি": 1196,
      "ফিক": 1197,
      "মস": 1198,
      "শিল": 1199,
      "শনের": 1200,
      "১৪": 1201,
      "্যার": 1202,
      "ান্ড": 1203,
      "করবে": 1204,
      "বিচার": 1205,
      "প্রিল": 1206,
      "প্রশ্": 1207,
      "মাঝ": 1208,
      "পারি": 1209,
      "মোঃ": 1210,
      "লোক": 1211,
      "সম্মেল": 1212,
      "২০১৬": 1213,
      "কল্প": 1214,
      "আগস্ট": 1215,
      "কৃষ": 1216,
      "---": 1217,
      "গ্রহণ": 1218,
      "ফুট": 1219,
      "/-": 1220,
      "12": 1221,
      "ad": 1222,
      "অংশ": 1223,
      "এখানে": 1224,
      "এপ্রিল": 1225,
      "গুরু": 1226,
      "চর": 1227,
      "চট্": 1228,
      "জেন": 1229,
      "জমা": 1230,
      "ফুল": 1231,
      "বার্": 1232,
      "মৌ": 1233,
      "মন্ত": 1234,
      "করছেন": 1235,
      "স্টে": 1236,
      "রাতে": 1237,
      "কার্য": 1238,
      "কিস্ত": 1239,
      "পরিদ": 1240,
      "পরিশোধ": 1241,
      "চ্চ": 1242,
      "যোগ্য": 1243,
      "2015": 1244,
      "অনুমতি": 1245,
      "যুব": 1246,
      "২০১৭": 1247,
      "এলাকার": 1248,
      "dos": 1249,
      "সেপ্টেম্বর": 1250,
      "মঙ্গল": 1251,
      "গার": 1252,
      "গের": 1253,
      "গবে": 1254,
      "চো": 1255,
      "ফ্": 1256,
      "বরা": 1257,
      "বরি": 1258,
      "ভবন": 1259,
      "মন্দি": 1260,
      "হন": 1261,
      "হাল": 1262,
      "ুত": 1263,
      "্যের": 1264,
      "করলে": 1265,
      "বির": 1266,
      "নিতে": 1267,
      "কেই": 1268,
      "টিং": 1269,
      "লেখা": 1270,
      "লাশ": 1271,
      "দিক": 1272,
      "দেওয়া": 1273,
      "মিল": 1274,
      "রেজি": 1275,
      "জাহা": 1276,
      "েন্স": 1277,
      "গতকাল": 1278,
      "ফেব্র": 1279,
      "বৃদ্ধ": 1280,
      "পূর্ণ": 1281,
      "প্রকাশিত": 1282,
      "বন্ধু": 1283,
      "প্রিয়": 1284,
      "গ্রেফতার": 1285,
      "ইঞ্জিনি": 1286,
      "চৌধুরী": 1287,
      "মন্তব্য": 1288,
      "মঙ্গলবার": 1289,
      "ঘটে": 1290,
      "জয়": 1291,
      "তন": 1292,
      "তুল": 1293,
      "পথ": 1294,
      "পদ": 1295,
      "পায়": 1296,
      "মহা": 1297,
      "সড়": 1298,
      "সবাই": 1299,
      "য়ান": 1300,
      "র্ণ": 1301,
      "র্জা": 1302,
      "দেয়া": 1303,
      "কারা": 1304,
      "পাকিস্ত": 1305,
      "মেয়ে": 1306,
      "মুক্তি": 1307,
      "আরো": 1308,
      "খেলা": 1309,
      "কোনও": 1310,
      "ছাত্র": 1311,
      "দিয়েছে": 1312,
      "বুঝ": 1313,
      "সরকারি": 1314,
      "পূর্ব": 1315,
      "দেখতে": 1316,
      "স্বাস্থ": 1317,
      "কর্তৃপক্ষ": 1318,
      "নেতৃত্": 1319,
      "জনাব": 1320,
      "ভিত্ত": 1321,
      "উদ্ধার": 1322,
      "ইঞ্জিনিয়ার": 1323,
      ")।": 1324,
      "আহত": 1325,
      "উল": 1326,
      "উপর": 1327,
      "খি": 1328,
      "ঘরে": 1329,
      "টেন": 1330,
      "ডার": 1331,
      "থান": 1332,
      "ধে": 1333,
      "ধীন": 1334,
      "বক্ত": 1335,
      "বঙ্গ": 1336,
      "ভব": 1337,
      "স্যা": 1338,
      "বিশ্": 1339,
      "বিস্তার": 1340,
      "নিরা": 1341,
      "নিবার": 1342,
      "বাঁ": 1343,
      "টিক": 1344,
      "সাবেক": 1345,
      "পরিষ": 1346,
      "জানুয়ার": 1347,
      "হিসা": 1348,
      "চেয়ার": 1349,
      "চিব": 1350,
      "সদর": 1351,
      "জীব": 1352,
      "ঘটনায়": 1353,
      "্যাম্প": 1354,
      "আদালতে": 1355,
      "রংপুর": 1356,
      "খুলনা": 1357,
      "শিল্প": 1358,
      "স্বাস্থ্য": 1359,
      "এত": 1360,
      "এক্স": 1361,
      "কখন": 1362,
      "জো": 1363,
      "ডলার": 1364,
      "ণী": 1365,
      "তখন": 1366,
      "পর্": 1367,
      "পত্ত": 1368,
      "মহান": 1369,
      "শ্য": 1370,
      "য়াল": 1371,
      "২৫": 1372,
      "৩৫": 1373,
      "৪০": 1374,
      "ানী": 1375,
      "প্রার্থ": 1376,
      "বেগ": 1377,
      "স্কার": 1378,
      "ক্ট": 1379,
      "হাত": 1380,
      "শিপ": 1381,
      "ঞ্চল": 1382,
      "মনোন": 1383,
      "সামনে": 1384,
      "আলম": 1385,
      "শ্রে": 1386,
      "ing": 1387,
      "হাসপাত": 1388,
      "পরীক্ষা": 1389,
      "স্থানীয়": 1390,
      "সর্ব": 1391,
      "কর্তৃক": 1392,
      "mail": 1393,
      "ক্ষমতা": 1394,
      "ওয়েব": 1395,
      "চট্টগ্রাম": 1396,
      "বরিশাল": 1397,
      "বিস্তারিত": 1398,
      "মনোনয়ন": 1399,
      "হাসপাতালে": 1400,
      "11": 1401,
      "of": 1402,
      "ra": 1403,
      "আত্ম": 1404,
      "ইং": 1405,
      "ডের": 1406,
      "দৈ": 1407,
      "দুর": 1408,
      "নং": 1409,
      "পান": 1410,
      "ফো": 1411,
      "ফোর": 1412,
      "মী": 1413,
      "যো": 1414,
      "লু": 1415,
      "সন্": 1416,
      "সপ্ত": 1417,
      "হিত": 1418,
      "্পি": 1419,
      "নিউজ": 1420,
      "তোম": 1421,
      "রায়": 1422,
      "মাস": 1423,
      "সিরি": 1424,
      "হাই": 1425,
      "মুক্ত": 1426,
      "গ্রু": 1427,
      "অন্যান": 1428,
      "ডিসে": 1429,
      "ঞ্চ": 1430,
      "শাহ": 1431,
      "যোগা": 1432,
      "বলেছেন": 1433,
      "আমাকে": 1434,
      "বাসী": 1435,
      "জ্ঞা": 1436,
      "বিএনপির": 1437,
      "ঘোষণা": 1438,
      "খালেদা": 1439,
      "বক্তব্য": 1440,
      "),": 1441,
      "le": 1442,
      "st": 1443,
      "অন্ত": 1444,
      "উট": 1445,
      "জর": 1446,
      "ধিক": 1447,
      "পক": 1448,
      "মুল": 1449,
      "সায়": 1450,
      "ূপ": 1451,
      "২৩": 1452,
      "কেল": 1453,
      "নাগর": 1454,
      "দিনের": 1455,
      "দেয়": 1456,
      "মিনি": 1457,
      "সমস্যা": 1458,
      "পাঁচ": 1459,
      "ভাঙ": 1460,
      "মেদ": 1461,
      "গেলে": 1462,
      "সংঘ": 1463,
      "ভিডিও": 1464,
      "্মদ": 1465,
      "নির্দেশ": 1466,
      "চ্ছেন": 1467,
      "ক্রান্ত": 1468,
      "উপস্থ": 1469,
      "ছাড়া": 1470,
      "কালীন": 1471,
      "২০১৫": 1472,
      "উদ্য": 1473,
      "উদ্ব": 1474,
      "আলোচনা": 1475,
      "যৌনকর্মীদের": 1476,
      "অনুষ্ঠিত": 1477,
      "নিশ্চিত": 1478,
      "দক্ষিণ": 1479,
      "অন্যান্য": 1480,
      "ডিসেম্বর": 1481,
      "আশ": 1482,
      "আশা": 1483,
      "ইতি": 1484,
      "এছাড়া": 1485,
      "ক্য": 1486,
      "গ্": 1487,
      "গ্যা": 1488,
      "ড্র": 1489,
      "ধ্ব": 1490,
      "নীর": 1491,
      "ফলে": 1492,
      "বর্ষ": 1493,
      "ভো": 1494,
      "ভোট": 1495,
      "শতা": 1496,
      "৩৩": 1497,
      "বিক্রি": 1498,
      "প্রচার": 1499,
      "ামি": 1500,
      "র্শন": 1501,
      "নাই": 1502,
      "স্টার": 1503,
      "সিল": 1504,
      "ার্ড": 1505,
      "নির্ধার": 1506,
      "চ্ছা": 1507,
      "ধারা": 1508,
      "চলছে": 1509,
      "নীতি": 1510,
      "বৃহ": 1511,
      "পুলিশের": 1512,
      "প্রধানমন্ত্রী": 1513,
      "চুক্তি": 1514,
      "মালিক": 1515,
      "the": 1516,
      "মোবাইলঃ": 1517,
      "বিষয়টি": 1518,
      "ভূমি": 1519,
      "প্রতিষ্ঠান": 1520,
      "সিংহ": 1521,
      "সিদ্ধান্ত": 1522,
      "যোগাযোগ": 1523,
      "নাগরিক": 1524,
      "10": 1525,
      "gmail": 1526,
      "ওপর": 1527,
      "জমি": 1528,
      "টায়": 1529,
      "দান": 1530,
      "ভ্র": 1531,
      "যারা": 1532,
      "শনিবার": 1533,
      "ড়ার": 1534,
      "বাসি": 1535,
      "প্রস্ত": 1536,
      "প্রয়োজন": 1537,
      "তেই": 1538,
      "স্প": 1539,
      "নেট": 1540,
      "ায়ণ": 1541,
      "পাশে": 1542,
      "কিন": 1543,
      "একটু": 1544,
      "সংরক্ষ": 1545,
      "ত্রি": 1546,
      "যাত্র": 1547,
      "যাচাই": 1548,
      "এইচ": 1549,
      "নারায়ণ": 1550,
      "যুদ্ধ": 1551,
      "ভারত": 1552,
      "লাইন": 1553,
      "স্বী": 1554,
      "উদ্দেশ": 1555,
      "বর্তী": 1556,
      "শীল": 1557,
      "স্ত্রী": 1558,
      "উন্নয়ন": 1559,
      "দ্বিতীয়": 1560,
      "পণ্য": 1561,
      "রাজনৈতিক": 1562,
      "গবেষ": 1563,
      "de": 1564,
      "la": 1565,
      "ne": 1566,
      "আসে": 1567,
      "আন্ত": 1568,
      "আরে": 1569,
      "ইয়া": 1570,
      "এগিয়ে": 1571,
      "কান": 1572,
      "জিত": 1573,
      "ট্যা": 1574,
      "দর": 1575,
      "দৃ": 1576,
      "পথে": 1577,
      "বুর": 1578,
      "বীর": 1579,
      "ভ্য": 1580,
      "শার": 1581,
      "সৌ": 1582,
      "সঙ্গ": 1583,
      "সকাল": 1584,
      "হীন": 1585,
      "িকার": 1586,
      "১৭": 1587,
      "২২": 1588,
      "২৭": 1589,
      "করবেন": 1590,
      "বিত": 1591,
      "বিপক্ষে": 1592,
      "বাসের": 1593,
      "রাই": 1594,
      "ক্লা": 1595,
      "দিনে": 1596,
      "কারি": 1597,
      "কার্যাল": 1598,
      "ার্স": 1599,
      "বার্ত": 1600,
      "তারি": 1601,
      "যায়": 1602,
      "হয়েছেন": 1603,
      "থেকেই": 1604,
      "পুরো": 1605,
      "নারী": 1606,
      "নামের": 1607,
      "গাছ": 1608,
      "দিয়েছেন": 1609,
      "যায়ী": 1610,
      "গ্রামে": 1611,
      "সেনা": 1612,
      "হাম্মদ": 1613,
      "সাইট": 1614,
      "ম্যাচ": 1615,
      "র্শক": 1616,
      "হাসিনা": 1617,
      "মাহমু": 1618,
      "ইউনিয়ন": 1619,
      "চেয়ারম্যান": 1620,
      "তোমার": 1621,
      "নির্ধারিত": 1622,
      "13": 1623,
      "ha": 1624,
      "it": 1625,
      "অথ": 1626,
      "আব্": 1627,
      "ইছ": 1628,
      "উচ্চ": 1629,
      "এড": 1630,
      "ওয়া": 1631,
      "চলা": 1632,
      "চায়": 1633,
      "ছড়ি": 1634,
      "জ্য": 1635,
      "ণ্": 1636,
      "পৃ": 1637,
      "প্যা": 1638,
      "ফির": 1639,
      "বই": 1640,
      "বসে": 1641,
      "বলি": 1642,
      "যখন": 1643,
      "রোগ": 1644,
      "লিক": 1645,
      "শর": 1646,
      "শান্ত": 1647,
      "িতি": 1648,
      "ুদ্র": 1649,
      "৬০": 1650,
      "্রি": 1651,
      "বিরোধ": 1652,
      "প্রত্যা": 1653,
      "ালট": 1654,
      "নাজ": 1655,
      "স্পতি": 1656,
      "রাস": 1657,
      "ন্দ্র": 1658,
      "সমূ": 1659,
      "পাখি": 1660,
      "জিয়া": 1661,
      "জানতে": 1662,
      "বলী": 1663,
      "মোট": 1664,
      "২০০": 1665,
      "সবচেয়ে": 1666,
      "কর্মী": 1667,
      "মনসিংহ": 1668,
      "আপনা": 1669,
      "গাঁ": 1670,
      "ান্তর": 1671,
      "প্লে": 1672,
      "ওয়ায়": 1673,
      "সম্পূ": 1674,
      "হামলা": 1675,
      "স্ট্রে": 1676,
      "অপরা": 1677,
      "***": 1678,
      "অবস্থায়": 1679,
      "উল্লেখ": 1680,
      "পদ্ধতিঃ": 1681,
      "মসজি": 1682,
      "কৃষি": 1683,
      "নিরাপত্ত": 1684,
      "বেগম": 1685,
      "সপ্তা": 1686,
      "বৃহস্পতি": 1687,
      "নারায়ণগঞ্জ": 1688,
      "তারিখ": 1689,
      "বৃহস্পতিবার": 1690,
      "ag": 1691,
      "ww": 1692,
      "ংস": 1693,
      "আর্": 1694,
      "আন্": 1695,
      "ইসি": 1696,
      "উন": 1697,
      "এফ": 1698,
      "কত": 1699,
      "চুল": 1700,
      "ঠা": 1701,
      "ণাল": 1702,
      "থায়": 1703,
      "দন্ত": 1704,
      "দণ্ড": 1705,
      "ধর্ষ": 1706,
      "র‌": 1707,
      "শুর": 1708,
      "সৃ": 1709,
      "হ্যা": 1710,
      "হওয়া": 1711,
      "াক": 1712,
      "ড়িয়ে": 1713,
      "নিষ": 1714,
      "বাহ": 1715,
      "বাস্ত": 1716,
      "প্রবেশ": 1717,
      "রাশি": 1718,
      "তাহলে": 1719,
      "মিডি": 1720,
      "সময়ে": 1721,
      "সেটা": 1722,
      "জনকে": 1723,
      "ঙ্ক": 1724,
      "শিক্ষা": 1725,
      "সংশ্": 1726,
      "লিং": 1727,
      "যাত্রী": 1728,
      "মুস": 1729,
      "রিপোর্ট": 1730,
      "যেতে": 1731,
      "ক্রে": 1732,
      "অনুযায়ী": 1733,
      "ড়ি": 1734,
      "গাড়ি": 1735,
      "দ্রুত": 1736,
      "অবশ্য": 1737,
      "প্লা": 1738,
      "বুধ": 1739,
      "ফেসব": 1740,
      "রাজধান": 1741,
      "নিয়োগ": 1742,
      "মামলার": 1743,
      "মন্ত্রণাল": 1744,
      "বেশী": 1745,
      "স্থাপন": 1746,
      "ang": 1747,
      "আহমেদ": 1748,
      "ঘাট": 1749,
      "ধরনের": 1750,
      "ইন্টার": 1751,
      "নিজেদের": 1752,
      "সম্পর্কে": 1753,
      "ময়মনসিংহ": 1754,
      "পরীক্ষার": 1755,
      "ফুটবল": 1756,
      "ফেব্রুয়ার": 1757,
      "সড়ক": 1758,
      "উপস্থিত": 1759,
      "সম্পূর্ণ": 1760,
      "সংশ্লি": 1761,
      "50": 1762,
      "ht": 1763,
      "lo": 1764,
      "উঠ": 1765,
      "উনি": 1766,
      "উঠে": 1767,
      "চয়": 1768,
      "চার্": 1769,
      "চীন": 1770,
      "জন্": 1771,
      "জায়": 1772,
      "তদন্ত": 1773,
      "দাম": 1774,
      "নগ": 1775,
      "ন্যা": 1776,
      "পুন": 1777,
      "ভর": 1778,
      "যেন": 1779,
      "রক্ষা": 1780,
      "রূপ": 1781,
      "শহ": 1782,
      "শোর": 1783,
      "সুর": 1784,
      "সকালে": 1785,
      "সত্য": 1786,
      "হয়েছে": 1787,
      "াকার": 1788,
      "য়াম": 1789,
      "২৬": 1790,
      "২৮": 1791,
      "প্রমাণ": 1792,
      "য়েল": 1793,
      "টিতে": 1794,
      "কাগ": 1795,
      "কাদের": 1796,
      "রাস্তা": 1797,
      "ন্দু": 1798,
      "সমর্থ": 1799,
      "সেবা": 1800,
      "সেটি": 1801,
      "সেতু": 1802,
      "সাহা": 1803,
      "হাতে": 1804,
      "কোথা": 1805,
      "সংস্থা": 1806,
      "সংগঠ": 1807,
      "ক্তার": 1808,
      "নির্মাণ": 1809,
      "ছিলো": 1810,
      "ক্রবার": 1811,
      "পেতে": 1812,
      "অনুমো": 1813,
      "সম্ভব": 1814,
      "প্তি": 1815,
      "শুক্রবার": 1816,
      "লাইট": 1817,
      "প্ল": 1818,
      "ওয়ার্": 1819,
      "রোহি": 1820,
      "দলীয়": 1821,
      "সরকারের": 1822,
      "স্যার": 1823,
      "মূলক": 1824,
      "অ্যাপ": 1825,
      "ম্যাচে": 1826,
      "বাজারে": 1827,
      "আনন্দ": 1828,
      "কমিটির": 1829,
      "tion": 1830,
      "স্কুল": 1831,
      "কামাল": 1832,
      "র্তি": 1833,
      "অফিস": 1834,
      "কলেজ": 1835,
      "সন্তান": 1836,
      "গুরুত্ব": 1837,
      "বিশ্বাস": 1838,
      "দৈনিক": 1839,
      "সংঘর্ষ": 1840,
      "বার্তা": 1841,
      "বুধবার": 1842,
      "সংশ্লিষ্ট": 1843,
      "08": 1844,
      "un": 1845,
      "vi": 1846,
      "ইত্যা": 1847,
      "এল": 1848,
      "ওর": 1849,
      "খ্রি": 1850,
      "চাম": 1851,
      "টাল": 1852,
      "তৃ": 1853,
      "ন্য": 1854,
      "নানা": 1855,
      "পী": 1856,
      "বগু": 1857,
      "ভয়": 1858,
      "মদ": 1859,
      "মনি": 1860,
      "মহি": 1861,
      "মেন্ট": 1862,
      "রান": 1863,
      "লাল": 1864,
      "শফিক": 1865,
      "িনার": 1866,
      "ীপুর": 1867,
      "োভ": 1868,
      "৮৪": 1869,
      "বিস্": 1870,
      "বিদেশ": 1871,
      "বিজি": 1872,
      "বাব": 1873,
      "বাণি": 1874,
      "ামা": 1875,
      "ালো": 1876,
      "য়েত": 1877,
      "কাজে": 1878,
      "কাণ্ড": 1879,
      "স্টা": 1880,
      "লাভ": 1881,
      "রাখা": 1882,
      "পরাম": 1883,
      "মাই": 1884,
      "নেয়া": 1885,
      "মিথ": 1886,
      "পাই": 1887,
      "সেখানে": 1888,
      "জনগণ": 1889,
      "ব্যক্ত": 1890,
      "সুবি": 1891,
      "এরপর": 1892,
      "উপল": 1893,
      "ন্ত্রণ": 1894,
      "আসলে": 1895,
      "ান্তে": 1896,
      "ব্যাপারে": 1897,
      "আগের": 1898,
      "গোল": 1899,
      "শীর্ষ": 1900,
      "বাইরে": 1901,
      "দায়িত্ব": 1902,
      "সমাধান": 1903,
      "বাড়িতে": 1904,
      "শিক্ষার্থ": 1905,
      "মৃত্যু": 1906,
      "কয়েকটি": 1907,
      "বর্তমানে": 1908,
      "বাহিনীর": 1909,
      "থাকলেও": 1910,
      "নিজস্ব": 1911,
      "অধিদপ্তর": 1912,
      "বিচারপতি": 1913,
      "মাঝে": 1914,
      "র্জাতিক": 1915,
      "নেতৃত্বে": 1916,
      "আন্তর্জাতিক": 1917,
      "আরেক": 1918,
      "নাজমুল": 1919,
      "নিরাপত্তা": 1920,
      "ইত্যাদি": 1921,
      "14": 1922,
      ">>": 1923,
      "অস্ত্র": 1924,
      "একে": 1925,
      "এক্": 1926,
      "কৌ": 1927,
      "ছুর": 1928,
      "জল": 1929,
      "জ্ব": 1930,
      "তেন": 1931,
      "দপুর": 1932,
      "নথি": 1933,
      "পদে": 1934,
      "পানি": 1935,
      "ভায়": 1936,
      "সৈ": 1937,
      "সন্ধ": 1938,
      "াগ": 1939,
      "িয়া": 1940,
      "ীতে": 1941,
      "য়ায়": 1942,
      "২১": 1943,
      "৩১": 1944,
      "৯৯": 1945,
      "নিয়": 1946,
      "প্রশা": 1947,
      "প্রকল্প": 1948,
      "র্ক": 1949,
      "টিশ": 1950,
      "পর্যা": 1951,
      "দেওয়ার": 1952,
      "সাত": 1953,
      "সাংবা": 1954,
      "থাকার": 1955,
      "মানব": 1956,
      "িক্ত": 1957,
      "সংশোধ": 1958,
      "পরিস্থ": 1959,
      "টেড": 1960,
      "রিয়ে": 1961,
      "দাঁ": 1962,
      "ছিলাম": 1963,
      "যেমন": 1964,
      "সুযোগ": 1965,
      "খেল": 1966,
      "বিভাগঢাকা": 1967,
      "বিভাগরাজশাহী": 1968,
      "বিভাগরংপুর": 1969,
      "বিভাগখুলনা": 1970,
      "বিভাগময়মনসিংহ": 1971,
      "আইনি": 1972,
      "শুনে": 1973,
      "শ্চি": 1974,
      "পূর": 1975,
      "সার্ভি": 1976,
      "হাসান": 1977,
      "জামান": 1978,
      "গ্রেপ্ত": 1979,
      "এসেছে": 1980,
      "৯৫৫": 1981,
      "দূর": 1982,
      "পৌঁ": 1983,
      "কোম্পানি": 1984,
      "পরিদর্শন": 1985,
      "সমূহ": 1986,
      "ch": 1987,
      "ur": 1988,
      "ws": 1989,
      "অধ": 1990,
      "আক": 1991,
      "আসা": 1992,
      "গৃ": 1993,
      "চট্র": 1994,
      "ঢাকার": 1995,
      "পড়": 1996,
      "ফার": 1997,
      "ফলা": 1998,
      "ব্ব": 1999,
      "বন্দ": 2000,
      "রত": 2001,
      "রবি": 2002,
      "লামী": 2003,
      "শত": 2004,
      "শাম": 2005,
      "সক": 2006,
      "সুল": 2007,
      "হস্ত": 2008,
      "্স": 2009,
      "২৯": 2010,
      "৮৭": 2011,
      "করণ": 2012,
      "করছে": 2013,
      "টিন": 2014,
      "দেহ": 2015,
      "ন্ট": 2016,
      "সময়": 2017,
      "সমুদ্র": 2018,
      "তারপর": 2019,
      "ব্যালট": 2020,
      "সংখ": 2021,
      "জেল": 2022,
      "ভিয়েত": 2023,
      "লিমি": 2024,
      "হয়েছিল": 2025,
      "জাতির": 2026,
      "হয়নি": 2027,
      "খাঁ": 2028,
      "খাবার": 2029,
      "যোগি": 2030,
      "পেশা": 2031,
      "চাঁ": 2032,
      "বিভাগবরিশাল": 2033,
      "ব্যবসায়": 2034,
      "অভিযান": 2035,
      "সামাজ": 2036,
      "ডেস্ক": 2037,
      "ফাঁ": 2038,
      "কুমার": 2039,
      "মানুষের": 2040,
      "প্রেস": 2041,
      "আদালত": 2042,
      "বাহিনী": 2043,
      "বিশ্ববিদ্যালয়ের": 2044,
      "পৌর": 2045,
      "্লাহ": 2046,
      "অধিদপ্তরের": 2047,
      "চিকিৎসা": 2048,
      "প্রশ্ন": 2049,
      "সম্মেলনে": 2050,
      "মহানগর": 2051,
      "স্বীকার": 2052,
      "কোথাও": 2053,
      "সন্ধ্যা": 2054,
      "চট্রগ্রাম": 2055,
      "সামাজিক": 2056,
      "am": 2057,
      "ap": 2058,
      "em": 2059,
      "to": 2060,
      "অভ্য": 2061,
      "আলী": 2062,
      "ইলে": 2063,
      "খলা": 2064,
      "চন্দ্র": 2065,
      "জুর": 2066,
      "ডাকা": 2067,
      "তন্ত্র": 2068,
      "দ্য": 2069,
      "ফর্": 2070,
      "বদ্ধ": 2071,
      "ভীর": 2072,
      "শুন": 2073,
      "সভায়": 2074,
      "হয়ে": 2075,
      "হলেন": 2076,
      "েল": 2077,
      "োধ": 2078,
      "৩৭": 2079,
      "্রা": 2080,
      "কাউন্": 2081,
      "দিয়ে": 2082,
      "মায়": 2083,
      "ন্স": 2084,
      "মিলি": 2085,
      "ক্ষোভ": 2086,
      "ভাষ": 2087,
      "সেল": 2088,
      "জনক": 2089,
      "কোরি": 2090,
      "ষ্টার": 2091,
      "ব্যান্ড": 2092,
      "সংখ্যা": 2093,
      "সংক্রান্ত": 2094,
      "পরিবর্ত": 2095,
      "যাওয়ার": 2096,
      "মুছ": 2097,
      "পিতা": 2098,
      "টেক": 2099,
      "দুটি": 2100,
      "চ্চিত্র": 2101,
      "পুরস্কার": 2102,
      "ড়াই": 2103,
      "দোল": 2104,
      "বিভাগচট্রগ্রাম": 2105,
      "যুক্তি": 2106,
      "সহকারী": 2107,
      "ফিরে": 2108,
      "অবস্থান": 2109,
      "প্টেন": 2110,
      "ওয়ান": 2111,
      "সামিনার": 2112,
      "বাদী": 2113,
      "চলচ্চিত্র": 2114,
      "বছরে": 2115,
      "মামুন": 2116,
      "ব্রি": 2117,
      "আদায়": 2118,
      "বহু": 2119,
      "ল্লা": 2120,
      "কৃতি": 2121,
      "পরিচালনা": 2122,
      "এমনকি": 2123,
      "মামলায়": 2124,
      "আবেদনপত্র": 2125,
      "ক্যাপ্টেন": 2126,
      "ফ্লাইট": 2127,
      "থানার": 2128,
      "বঙ্গবন্ধু": 2129,
      "জানুয়ারি": 2130,
      "কখনো": 2131,
      "উদ্যো": 2132,
      "মাহমুদ": 2133,
      "অপরাধ": 2134,
      "আন্দোল": 2135,
      "জন্ম": 2136,
      "কাগজ": 2137,
      "সাহায": 2138,
      "অনুমোদন": 2139,
      "পরামর্শ": 2140,
      "এক্সামিনার": 2141,
      "সাংবাদিক": 2142,
      "পরিস্থিতি": 2143,
      "গ্রেপ্তার": 2144,
      "00": 2145,
      "24": 2146,
      "ck": 2147,
      "আছেন": 2148,
      "আবুল": 2149,
      "আউট": 2150,
      "ঐক্য": 2151,
      "ওয়ে": 2152,
      "ওবায়": 2153,
      "কূ": 2154,
      "ককে": 2155,
      "কমে": 2156,
      "খিল": 2157,
      "খানা": 2158,
      "খরুল": 2159,
      "গল্প": 2160,
      "চান": 2161,
      "টন": 2162,
      "ঠিত": 2163,
      "দলে": 2164,
      "নগর": 2165,
      "ফখরুল": 2166,
      "ববার": 2167,
      "ভার্": 2168,
      "মেন": 2169,
      "মবার": 2170,
      "মীর": 2171,
      "যার": 2172,
      "যন্ত্র": 2173,
      "সফ": 2174,
      "াতে": 2175,
      "ুতি": 2176,
      "ড়িত": 2177,
      "য়র": 2178,
      "০২": 2179,
      "করপো": 2180,
      "বিসি": 2181,
      "পরিক": 2182,
      "পরবর্তী": 2183,
      "দিলে": 2184,
      "দেব": 2185,
      "মাশ": 2186,
      "মাসু": 2187,
      "মাসের": 2188,
      "সিক": 2189,
      "সিম": 2190,
      "ভাগে": 2191,
      "সাহিত": 2192,
      "কিং": 2193,
      "য়ান": 2194,
      "সংগ্রহ": 2195,
      "পরিবেশ": 2196,
      "জির": 2197,
      "জিয়ার": 2198,
      "লিয়া": 2199,
      "লিখে": 2200,
      "গ্রা": 2201,
      "অনলাইন": 2202,
      "দুঃ": 2203,
      "সুন্দর": 2204,
      "পুরে": 2205,
      "লোড": 2206,
      "কর্মসূ": 2207,
      "আপিল": 2208,
      "হত্যার": 2209,
      "নির্বাহী": 2210,
      "আসেন": 2211,
      "আসছে": 2212,
      "আসামি": 2213,
      "সময়ের": 2214,
      "জ্জামান": 2215,
      "নির্বাচনের": 2216,
      "চালিয়ে": 2217,
      "ফেল": 2218,
      "সাম্": 2219,
      "চলতি": 2220,
      "শ্রী": 2221,
      "শ্রমিক": 2222,
      "তাঁরা": 2223,
      "তুমি": 2224,
      "ছবির": 2225,
      "হলেও": 2226,
      "খুলে": 2227,
      "মার্কিন": 2228,
      "মূল্য": 2229,
      "ধুনিক": 2230,
      "সূত্র": 2231,
      "ess": 2232,
      "যৌনকর্মী": 2233,
      "লক্ষ্য": 2234,
      "ইন্স": 2235,
      "রাখতে": 2236,
      "বিজ্ঞপ্তি": 2237,
      "অফিসার": 2238,
      "সম্পর্ক": 2239,
      "দ্বারা": 2240,
      "মন্দির": 2241,
      "ভিত্তিতে": 2242,
      "প্রার্থী": 2243,
      "শ্রেণ": 2244,
      "গ্যাস": 2245,
      "আব্দুল": 2246,
      "সৃষ্টি": 2247,
      "মুসলিম": 2248,
      "রোহিঙ্গা": 2249,
      "মহিলা": 2250,
      "বাণিজ্য": 2251,
      "সুবিধা": 2252,
      "অভ্যন্ত": 2253,
      "মুছলিম": 2254,
      "করপোরে": 2255,
      "19": 2256,
      "<<": 2257,
      "ce": 2258,
      "is": 2259,
      "ইএ": 2260,
      "এবার": 2261,
      "কমা": 2262,
      "কণ্ড": 2263,
      "ক্যাম্প": 2264,
      "চির": 2265,
      "টকে": 2266,
      "তরু": 2267,
      "নর": 2268,
      "নূ": 2269,
      "নম্বর": 2270,
      "ফ্যা": 2271,
      "ভুল": 2272,
      "মূ": 2273,
      "মডে": 2274,
      "মহাস": 2275,
      "রাম": 2276,
      "ল্যান্ড": 2277,
      "শৃ": 2278,
      "শব্": 2279,
      "সবার": 2280,
      "সন্ত্র": 2281,
      "হবি": 2282,
      "িং": 2283,
      "ৎকার": 2284,
      "৪৫": 2285,
      "৫৫": 2286,
      "৮৮": 2287,
      "কর্": 2288,
      "বাদে": 2289,
      "বাদের": 2290,
      "বাবু": 2291,
      "কেলে": 2292,
      "ালা": 2293,
      "বেঁ": 2294,
      "কাছ": 2295,
      "নাথ": 2296,
      "স্টি": 2297,
      "লাপ": 2298,
      "ছেড়ে": 2299,
      "মিন": 2300,
      "মির": 2301,
      "পাড়া": 2302,
      "কিম": 2303,
      "কিংবা": 2304,
      "দ্দের": 2305,
      "মানের": 2306,
      "পরিবার": 2307,
      "মুখে": 2308,
      "জানায়": 2309,
      "মোহাম্মদ": 2310,
      "চ্ছি": 2311,
      "স্থায়": 2312,
      "যুগ": 2313,
      "নির্বাচিত": 2314,
      "ভাবেই": 2315,
      "নিয়মিত": 2316,
      "অনেকেই": 2317,
      "এমপি": 2318,
      "এমইএ": 2319,
      "তাঁকে": 2320,
      "গোপাল": 2321,
      "পূর্বে": 2322,
      "সারা": 2323,
      "এখনও": 2324,
      "and": 2325,
      "মূলত": 2326,
      "সাইটের": 2327,
      "তিরিক্ত": 2328,
      "আহমদ": 2329,
      "সোমবার": 2330,
      "তালিকা": 2331,
      "উন্নয়": 2332,
      "ent": 2333,
      "বিজ্ঞা": 2334,
      "বয়স": 2335,
      "বিশ্ববিদ্যালয়": 2336,
      "০১৭১১": 2337,
      "কোম্পান": 2338,
      "ব্লক": 2339,
      "বৃদ্ধি": 2340,
      "পরিষদ": 2341,
      "গ্রুপ": 2342,
      "অন্তত": 2343,
      "শতাংশ": 2344,
      "উদ্দেশ্যে": 2345,
      "বিরোধী": 2346,
      "র‌্যা": 2347,
      "মিডিয়া": 2348,
      "শহরের": 2349,
      "উপলক্ষে": 2350,
      "কৌশ": 2351,
      "ওবায়দুল": 2352,
      "<<>>": 2353,
      "সন্ত্রা": 2354,
      "03": 2355,
      "06": 2356,
      "17": 2357,
      "22": 2358,
      "be": 2359,
      "ps": 2360,
      "অপর": 2361,
      "অতিরিক্ত": 2362,
      "আও": 2363,
      "আদেশ": 2364,
      "উটার": 2365,
      "এনে": 2366,
      "এদিকে": 2367,
      "কান্": 2368,
      "খর": 2369,
      "খার": 2370,
      "খন্দ": 2371,
      "খদ্দের": 2372,
      "গায়": 2373,
      "ঘণ্": 2374,
      "জাল": 2375,
      "জতে": 2376,
      "জার্": 2377,
      "টস": 2378,
      "ড্ড": 2379,
      "তান": 2380,
      "নজ": 2381,
      "নব": 2382,
      "নাল": 2383,
      "পছ": 2384,
      "পনা": 2385,
      "পশ্চি": 2386,
      "পঠিত": 2387,
      "বড়": 2388,
      "ভোগ": 2389,
      "মনির": 2390,
      "যত": 2391,
      "যি": 2392,
      "রিক": 2393,
      "শহর": 2394,
      "শরী": 2395,
      "ষণ": 2396,
      "সান": 2397,
      "সহি": 2398,
      "ুকে": 2399,
      "ড়ায়": 2400,
      "য়েন": 2401,
      "১২০": 2402,
      "৬৭": 2403,
      "বাল": 2404,
      "বাবা": 2405,
      "বাক্স": 2406,
      "কেটে": 2407,
      "াম্প": 2408,
      "ালি": 2409,
      "বেআইনি": 2410,
      "টিকে": 2411,
      "কাঁ": 2412,
      "কায়": 2413,
      "দেয়ার": 2414,
      "নেত্রী": 2415,
      "ায়া": 2416,
      "ক্ষণ": 2417,
      "পাথ": 2418,
      "পাস": 2419,
      "পাশা": 2420,
      "পাতাল": 2421,
      "সাপে": 2422,
      "সাড়ে": 2423,
      "করেই": 2424,
      "কিশোর": 2425,
      "য়াখাল": 2426,
      "মেডি": 2427,
      "তারে": 2428,
      "মানে": 2429,
      "মানিক": 2430,
      "শিষ্ট": 2431,
      "লিখ": 2432,
      "যাওয়া": 2433,
      "জাতি": 2434,
      "দাস": 2435,
      "শেয়ার": 2436,
      "ডিজি": 2437,
      "যেসব": 2438,
      "পুরের": 2439,
      "পেছ": 2440,
      "কালো": 2441,
      "গাই": 2442,
      "যুবলী": 2443,
      "সহযোগি": 2444,
      "সেরা": 2445,
      "লাইস": 2446,
      "ঢাকায়": 2447,
      "কল্যা": 2448,
      "কম্পি": 2449,
      "শ্বর": 2450,
      "আলফা": 2451,
      "মন্ত্রীর": 2452,
      "বৃত্ত": 2453,
      "ছবিতে": 2454,
      "গুলোর": 2455,
      "ঘটনার": 2456,
      "বোর্": 2457,
      "থাকবে": 2458,
      "বিশ্বকা": 2459,
      "স্বামী": 2460,
      "যুক্তরাষ্ট্র": 2461,
      "চাইলে": 2462,
      "ফ্রি": 2463,
      "লক্ষ্ম": 2464,
      "একাদশ": 2465,
      "স্ট্রি": 2466,
      "ফরম": 2467,
      "ল্পনা": 2468,
      "দাবিতে": 2469,
      "কবিতা": 2470,
      "ব্যাংকের": 2471,
      "অতিথি": 2472,
      "লোকজন": 2473,
      "পাকিস্তান": 2474,
      "হিসাব": 2475,
      "সংরক্ষিত": 2476,
      "news": 2477,
      "মসজিদে": 2478,
      "সংঘর্ষে": 2479,
      "বিজিএমইএ": 2480,
      "মিথ্যা": 2481,
      "ফলাফল": 2482,
      "হস্তান্তর": 2483,
      "মাশরা": 2484,
      "কণ্ডো": 2485,
      "বিজ্ঞাপন": 2486,
      "মেডিকেল": 2487,
      "04": 2488,
      "15": 2489,
      "16": 2490,
      "as": 2491,
      "ct": 2492,
      "ri": 2493,
      "ro": 2494,
      "ঁকি": 2495,
      "অঙ্গ": 2496,
      "আব": 2497,
      "আনি": 2498,
      "ইক": 2499,
      "খারা": 2500,
      "গী": 2501,
      "গুন": 2502,
      "ঘু": 2503,
      "ঘন্": 2504,
      "ঙে": 2505,
      "চের": 2506,
      "ছয়": 2507,
      "জড়িত": 2508,
      "টাম": 2509,
      "তলা": 2510,
      "থানা": 2511,
      "দৌ": 2512,
      "নড়া": 2513,
      "ফায়": 2514,
      "বসু": 2515,
      "বক্স": 2516,
      "ভক্ত": 2517,
      "যথ": 2518,
      "যথা": 2519,
      "রয়েছে": 2520,
      "শামী": 2521,
      "সচিব": 2522,
      "হওয়ায়": 2523,
      "ীয়": 2524,
      "ুয়": 2525,
      "১০০": 2526,
      "৩২": 2527,
      "৭০": 2528,
      "’।": 2529,
      "করো": 2530,
      "করছি": 2531,
      "নিম": 2532,
      "বাকি": 2533,
      "প্রস্তা": 2534,
      "প্রচুর": 2535,
      "প্রযুক্তি": 2536,
      "তেমন": 2537,
      "বেড়ে": 2538,
      "লাগ": 2539,
      "ক্লিক": 2540,
      "নেমে": 2541,
      "নেওয়া": 2542,
      "ক্ষতি": 2543,
      "সমান": 2544,
      "সমস্যার": 2545,
      "পাশি": 2546,
      "পাশের": 2547,
      "সিড": 2548,
      "সিস": 2549,
      "সিলি": 2550,
      "সিডি": 2551,
      "কির": 2552,
      "কিলো": 2553,
      "টাকার": 2554,
      "হাদি": 2555,
      "মেয়র": 2556,
      "রেজা": 2557,
      "পরিচয়": 2558,
      "জিন": 2559,
      "যাতে": 2560,
      "মুজি": 2561,
      "মুদ্র": 2562,
      "টেলি": 2563,
      "স্তি": 2564,
      "প্রতিবেদন": 2565,
      "দাবী": 2566,
      "দ্ধা": 2567,
      "স্থানে": 2568,
      "ট্রা": 2569,
      "ট্রাম্প": 2570,
      "ছাড়": 2571,
      "ছাত্রী": 2572,
      "2014": 2573,
      "ড়াতে": 2574,
      "বিভাগের": 2575,
      "সহজ": 2576,
      "আসামী": 2577,
      "ক্ষেপ": 2578,
      "ধারণা": 2579,
      "মধ্যেই": 2580,
      "ফেলে": 2581,
      "রোড": 2582,
      "রোববার": 2583,
      "বাসায়": 2584,
      "অনেকে": 2585,
      "বৃষ্টি": 2586,
      "হোক": 2587,
      "জুড়ে": 2588,
      "হেল": 2589,
      "স্বপ্": 2590,
      "পত্রিকার": 2591,
      "থাকেন": 2592,
      "প্রদত্ত": 2593,
      "সিলেটে": 2594,
      "সিলেটের": 2595,
      "সম্পাদ": 2596,
      "হাসপাতাল": 2597,
      "মাধ্যম": 2598,
      "ডাক": 2599,
      "কৃতিক": 2600,
      "সালা": 2601,
      "অধিকার": 2602,
      "আহ্ব": 2603,
      "সূত্রে": 2604,
      "রুলের": 2605,
      "আলোক": 2606,
      "আলোচ": 2607,
      "অন্যতম": 2608,
      "পালন": 2609,
      "নেতাকর্ম": 2610,
      "বাড়ী": 2611,
      "টাইম": 2612,
      "অনুষ্ঠানে": 2613,
      "একাধিক": 2614,
      "ারেল": 2615,
      "নেতৃত্ব": 2616,
      "ভুক্ত": 2617,
      "দ্বী": 2618,
      "চীফ": 2619,
      "ইউনিয়নের": 2620,
      "সম্মেলন": 2621,
      "মৌসু": 2622,
      "কার্যক্রম": 2623,
      "চোখে": 2624,
      "জাহাজের": 2625,
      "বুঝতে": 2626,
      "কর্তৃপক্ষের": 2627,
      "পরিষদের": 2628,
      "হাইকোর্": 2629,
      "প্রস্তুতি": 2630,
      "ক্লাবের": 2631,
      "অথবা": 2632,
      "ধর্ষণ": 2633,
      "রাজধানীর": 2634,
      "নগরের": 2635,
      "গৃহ": 2636,
      "সংখ্য": 2637,
      "কোরিয়ার": 2638,
      "পরিবর্তন": 2639,
      "সাহায্য": 2640,
      "কূলে": 2641,
      "পরিকল্পনা": 2642,
      "পাশাপাশি": 2643,
      "কল্যাণ": 2644,
      "কম্পিউটার": 2645,
      "কণ্ডোম": 2646,
      "নড়াইল": 2647,
      "কিলোমিটার": 2648,
      "05": 2649,
      "07": 2650,
      "09": 2651,
      "di": 2652,
      "el": 2653,
      "hm": 2654,
      "ংসা": 2655,
      "অপারে": 2656,
      "অ্যান্ড": 2657,
      "অডিও": 2658,
      "অঞ্চল": 2659,
      "আয়": 2660,
      "আনা": 2661,
      "আক্তার": 2662,
      "উড": 2663,
      "এশি": 2664,
      "ওসি": 2665,
      "কলা": 2666,
      "খের": 2667,
      "ঘর": 2668,
      "জনে": 2669,
      "জোর": 2670,
      "জয়ের": 2671,
      "ঝু": 2672,
      "তৎ": 2673,
      "তর্ক": 2674,
      "তব্ব": 2675,
      "দয়": 2676,
      "দরি": 2677,
      "নবী": 2678,
      "পড়ে": 2679,
      "ফরি": 2680,
      "ভের": 2681,
      "ভ্যা": 2682,
      "ভর্তি": 2683,
      "মতে": 2684,
      "মর্": 2685,
      "যানের": 2686,
      "রপ্ত": 2687,
      "রানে": 2688,
      "রকম": 2689,
      "রান্": 2690,
      "ল্ড": 2691,
      "শায়": 2692,
      "সুন": 2693,
      "হৃত": 2694,
      "াপ": 2695,
      "ীতি": 2696,
      "েজ": 2697,
      "েধা": 2698,
      "৩৯": 2699,
      "৪৯": 2700,
      "৫০০": 2701,
      "ারের": 2702,
      "বিয়ের": 2703,
      "বিটক": 2704,
      "বিক্ষোভ": 2705,
      "বিকেলে": 2706,
      "নিত": 2707,
      "নিয়ে": 2708,
      "বাতি": 2709,
      "বায়ন": 2710,
      "প্রশ": 2711,
      "বেদ": 2712,
      "তিতে": 2713,
      "লেই": 2714,
      "নাকি": 2715,
      "দিচ্ছে": 2716,
      "দিবস": 2717,
      "মাসে": 2718,
      "মাঠে": 2719,
      "মাস্টার": 2720,
      "মাতব্ব": 2721,
      "ন্দা": 2722,
      "কারীদের": 2723,
      "মিয়া": 2724,
      "ক্ষু": 2725,
      "সমন্": 2726,
      "পাতা": 2727,
      "পাওয়ার": 2728,
      "সিপি": 2729,
      "সাহ": 2730,
      "করেছি": 2731,
      "কিয়ে": 2732,
      "য়ের": 2733,
      "একবার": 2734,
      "মো": 2735,
      "ন্তা": 2736,
      "গেল": 2737,
      "গেছেন": 2738,
      "ঙ্কা": 2739,
      "দেশকে": 2740,
      "শিং": 2741,
      "পরিচিত": 2742,
      "জিতে": 2743,
      "যাব": 2744,
      "যাদের": 2745,
      "রিপোর্": 2746,
      "জাত": 2747,
      "প্রতিক": 2748,
      "বলতে": 2749,
      "মোতা": 2750,
      "নির্ভর": 2751,
      "যেখানে": 2752,
      "ঞ্জে": 2753,
      "শাক": 2754,
      "পুরুষ": 2755,
      "আমের": 2756,
      "খেলার": 2757,
      "ক্রো": 2758,
      "নামা": 2759,
      "কর্মকাণ্ড": 2760,
      "মনো": 2761,
      "অনুকূলে": 2762,
      "েন্টি": 2763,
      "বলেও": 2764,
      "সম্মান": 2765,
      "সম্প্রতি": 2766,
      "হারা": 2767,
      "গাজী": 2768,
      "নিয়েছে": 2769,
      "ভারপ্রাপ্ত": 2770,
      "২০১৪": 2771,
      "ভেঙে": 2772,
      "শনাল": 2773,
      "ধিকার": 2774,
      "অবস্থা": 2775,
      "চালক": 2776,
      "যায়নি": 2777,
      "ফেড": 2778,
      "ব্যাট": 2779,
      "ন্ধরা": 2780,
      "কলকা": 2781,
      "নিয়ন্ত্রণ": 2782,
      "শ্রয়": 2783,
      "ছবিটি": 2784,
      "ব্রা": 2785,
      "প্রাণ": 2786,
      "সরকারী": 2787,
      "জ্ঞতা": 2788,
      "ইউরো": 2789,
      "থাকতে": 2790,
      "প্রধানমন্ত্রীর": 2791,
      "প্রকাশক": 2792,
      "সম্পদ": 2793,
      "সারে": 2794,
      "হামলায়": 2795,
      "মুখী": 2796,
      "গুলোতে": 2797,
      "উদযা": 2798,
      "গণতন্ত্র": 2799,
      "ক্রিকেট": 2800,
      "কমিশন": 2801,
      "অর্থবছরের": 2802,
      "বাড়ির": 2803,
      "দায়ের": 2804,
      "অনুষ্ঠান": 2805,
      "বসবাস": 2806,
      "ব্যবস্থাপনা": 2807,
      "ব্যক্তিকে": 2808,
      "ব্যাংকে": 2809,
      "চিকিৎসক": 2810,
      "কুরে": 2811,
      "কোর্স": 2812,
      "মন্দিরের": 2813,
      "জাহাজ": 2814,
      "পাকিস্তানের": 2815,
      "হিসাবে": 2816,
      "জীবনের": 2817,
      "ওয়েবসাইট": 2818,
      "ফোরাম": 2819,
      "যোগে": 2820,
      "মিনিটে": 2821,
      "ভ্রম": 2822,
      "সৌদি": 2823,
      "গাছের": 2824,
      "ইছলামী": 2825,
      "শান্তি": 2826,
      "আপনাকে": 2827,
      "নিষেধা": 2828,
      "গুরুত্বপূর্ণ": 2829,
      "উদ্যোগে": 2830,
      "তরুণ": 2831,
      "ঘণ্টা": 2832,
      "সাপেক্ষে": 2833,
      "ডিজিটাল": 2834,
      "লাইসেন্স": 2835,
      "খারাপ": 2836,
      "বসুন্ধরা": 2837,
      "ুয়ারি": 2838,
      "আহ্বান": 2839,
      "//": 2840,
      "://": 2841,
      "ON": 2842,
      "UR": 2843,
      "ic": 2844,
      "id": 2845,
      "oo": 2846,
      "pp": 2847,
      "son": 2848,
      "te": 2849,
      "অ্যাল": 2850,
      "অল্প": 2851,
      "অস্ট্রে": 2852,
      "ইচ্ছা": 2853,
      "ঈদ": 2854,
      "উপা": 2855,
      "উরি": 2856,
      "উচিত": 2857,
      "এজন্য": 2858,
      "ঐতি": 2859,
      "কক্স": 2860,
      "কানা": 2861,
      "খনিজ": 2862,
      "গামী": 2863,
      "চ্যাম": 2864,
      "জভী": 2865,
      "ঠি": 2866,
      "ডট": 2867,
      "দানি": 2868,
      "নও": 2869,
      "নেন": 2870,
      "নুর": 2871,
      "নম্ব": 2872,
      "পিত": 2873,
      "পড়া": 2874,
      "পঞ্চ": 2875,
      "ফিল": 2876,
      "বরে": 2877,
      "বান্": 2878,
      "বন্দর": 2879,
      "মৃ": 2880,
      "ল্যা": 2881,
      "লভী": 2882,
      "সভার": 2883,
      "সফল": 2884,
      "সঠিক": 2885,
      "সতর্ক": 2886,
      "হৃ": 2887,
      "িম": 2888,
      "ুণ": 2889,
      "োমুখ": 2890,
      "ড়ের": 2891,
      "৪২০": 2892,
      "৫৭": 2893,
      "৯৬": 2894,
      "েরা": 2895,
      "বিবর": 2896,
      "নিং": 2897,
      "বাসা": 2898,
      "বাধীন": 2899,
      "কেশন": 2900,
      "প্রো": 2901,
      "প্রক্রি": 2902,
      "প্রশিক্ষ": 2903,
      "প্রভাব": 2904,
      "ালী": 2905,
      "বেলা": 2906,
      "টিয়ে": 2907,
      "নাট": 2908,
      "রাস্ত": 2909,
      "রাসেল": 2910,
      "ক্সি": 2911,
      "তাতে": 2912,
      "পরের": 2913,
      "দিত": 2914,
      "দেবেন": 2915,
      "্যাক": 2916,
      "কার্ড": 2917,
      "মির্জা": 2918,
      "সমস্ত": 2919,
      "সময়ে": 2920,
      "সাদা": 2921,
      "সাক্ষা": 2922,
      "হাঁ": 2923,
      "কোর": 2924,
      "দ্দ": 2925,
      "ঙ্খলা": 2926,
      "মান্ত": 2927,
      "ব্যস্ত": 2928,
      "সংক": 2929,
      "মুহ": 2930,
      "গ্রী": 2931,
      "টেবিল": 2932,
      "জানে": 2933,
      "প্রতিদিন": 2934,
      "প্রতিরোধ": 2935,
      "দাখিল": 2936,
      "ডিপি": 2937,
      "আমল": 2938,
      "খাওয়া": 2939,
      "্যান্": 2940,
      "চাকমা": 2941,
      "ফিস": 2942,
      "ব্যবসা": 2943,
      "ব্যবহৃত": 2944,
      "আসন": 2945,
      "আসতে": 2946,
      "আসনে": 2947,
      "আসন্ন": 2948,
      "আইনে": 2949,
      "আইফোন": 2950,
      "অব্যা": 2951,
      "প্লি": 2952,
      "ব্যাপক": 2953,
      "ব্যাপী": 2954,
      "চারটি": 2955,
      "ফাইন": 2956,
      "আগুন": 2957,
      "এসসি": 2958,
      "জুম": 2959,
      "অর্জন": 2960,
      "ইউনি": 2961,
      "বিশ্বের": 2962,
      "ন্ডার": 2963,
      "দেখার": 2964,
      "হামলার": 2965,
      "মুখ্য": 2966,
      "মুখোমুখ": 2967,
      "নায়ক": 2968,
      "রয়েছেন": 2969,
      "জামাল": 2970,
      "মানুষকে": 2971,
      "যুক্তির": 2972,
      "আনু": 2973,
      "থিম": 2974,
      "প্রেসিড": 2975,
      "হুম": 2976,
      "দুর্নীতি": 2977,
      "সদস্যদের": 2978,
      "dow": 2979,
      "ারেশন": 2980,
      "নিজেকে": 2981,
      "প্রতিষ্ঠানের": 2982,
      "ওয়েস্ট": 2983,
      "পরীক্ষায়": 2984,
      "ধর্মীয়": 2985,
      "গিয়ে": 2986,
      "নোয়াখাল": 2987,
      "বৈঠ": 2988,
      "চীনের": 2989,
      "খোলা": 2990,
      "ক্রমণ": 2991,
      "দীর্ঘদিন": 2992,
      "পরিদর্শক": 2993,
      "যোগ্যতা": 2994,
      "সবাইকে": 2995,
      "নেতৃত্বাধীন": 2996,
      "জানুয়ারী": 2997,
      "মিনিট": 2998,
      "ইতিহাস": 2999,
      "গ্ন": 3000,
      "জমিদার": 3001,
      "প্রয়োজনীয়": 3002,
      "গবেষণা": 3003,
      "সঙ্গী": 3004,
      "ইছলাম": 3005,
      "আপনাদের": 3006,
      "www": 3007,
      "ফেব্রুয়ারী": 3008,
      "htt": 3009,
      "ন্যাশনাল": 3010,
      "সমর্থন": 3011,
      "চামচ": 3012,
      "বিস্ফোর": 3013,
      "জনগণের": 3014,
      "ব্যক্তির": 3015,
      "সার্ভিস": 3016,
      "পৌঁছে": 3017,
      "সমুদ্রগামী": 3018,
      "মিলিয়ে": 3019,
      "টেকনা": 3020,
      "ওয়েব": 3021,
      "সাহিত্য": 3022,
      "লিখেছেন": 3023,
      "সাম্প্রতিক": 3024,
      "করপোরেশনের": 3025,
      "মহাসচিব": 3026,
      "শৃঙ্খলা": 3027,
      "শব্দ": 3028,
      "হবিগঞ্জ": 3029,
      "গোপালগঞ্জ": 3030,
      "র‌্যাব": 3031,
      "পছন্দ": 3032,
      "লক্ষ্মীপুর": 3033,
      "মাশরাফি": 3034,
      "শামীম": 3035,
      "বিটকয়েন": 3036,
      "চ্যাম্পি": 3037,
      "রাস্তায়": 3038,
      "মুখোমুখি": 3039,
      "প্রেসিডেন্ট": 3040,
      "18": 3041,
      "::": 3042,
      "EUR": 3043,
      "Se": 3044,
      "ber": 3045,
      "ig": 3046,
      "im": 3047,
      "ter": 3048,
      "ঁটে": 3049,
      "ংশে": 3050,
      "ংচুর": 3051,
      "অপে": 3052,
      "আফ": 3053,
      "আলা": 3054,
      "আজি": 3055,
      "আস্ত": 3056,
      "আকাশ": 3057,
      "আঘা": 3058,
      "আয়োজন": 3059,
      "ইমাম": 3060,
      "ঋণ": 3061,
      "এক্ষেত্রে": 3062,
      "কঠ": 3063,
      "কন্": 3064,
      "ক্যাম": 3065,
      "গরি": 3066,
      "গড়ে": 3067,
      "জবা": 3068,
      "জহি": 3069,
      "জোট": 3070,
      "টটি": 3071,
      "টনে": 3072,
      "তফ": 3073,
      "দর্শক": 3074,
      "নন": 3075,
      "নদী": 3076,
      "নৈতিক": 3077,
      "পুল": 3078,
      "পল্": 3079,
      "ফটো": 3080,
      "বন্দু": 3081,
      "মল": 3082,
      "রানের": 3083,
      "ষা": 3084,
      "সোন": 3085,
      "সরাস": 3086,
      "হ্": 3087,
      "হকের": 3088,
      "ৃদ্ধ": 3089,
      "োধন": 3090,
      "ড়াল": 3091,
      "ড়ির": 3092,
      "্যবাদ": 3093,
      "করব": 3094,
      "করায়": 3095,
      "করলেন": 3096,
      "করতেন": 3097,
      "বিয়ে": 3098,
      "বিধান": 3099,
      "বিএক্স": 3100,
      "বিনিয়োগ": 3101,
      "নিন": 3102,
      "বাঙ": 3103,
      "বালি": 3104,
      "প্রের": 3105,
      "প্রমুখ": 3106,
      "প্রবাসী": 3107,
      "প্রযুক্তির": 3108,
      "র্ধ্ব": 3109,
      "কাউ": 3110,
      "কাটা": 3111,
      "কাপড়": 3112,
      "রাতের": 3113,
      "মাছ": 3114,
      "মাঠ": 3115,
      "নেওয়ার": 3116,
      "মিস": 3117,
      "সম্ব": 3118,
      "সমৃদ্ধ": 3119,
      "পাহা": 3120,
      "সিন": 3121,
      "সিনে": 3122,
      "সিনিয়": 3123,
      "ভাংচুর": 3124,
      "জনপ্রিয়": 3125,
      "সাং": 3126,
      "সাফল": 3127,
      "কিউরি": 3128,
      "একমত": 3129,
      "ষ্টির": 3130,
      "রেল": 3131,
      "রো": 3132,
      "তারকা": 3133,
      "মান্": 3134,
      "শিকার": 3135,
      "সংস": 3136,
      "সংযোগ": 3137,
      "জিং": 3138,
      "জিম্": 3139,
      "লিন": 3140,
      "পিং": 3141,
      "পারলে": 3142,
      "ডিজা": 3143,
      "যোগ": 3144,
      "জন্যে": 3145,
      "শাস্তি": 3146,
      "স্থল": 3147,
      "হয়তো": 3148,
      "বরং": 3149,
      "চেয়ে": 3150,
      "অনুসর": 3151,
      "দোক": 3152,
      "দোকান": 3153,
      "হারের": 3154,
      "হারিয়ে": 3155,
      "যুদ্ধে": 3156,
      "জারী": 3157,
      "সহায়": 3158,
      "ভারি": 3159,
      "ব্যবধান": 3160,
      "লাইভ": 3161,
      "ব্যাপার": 3162,
      "ন্ধে": 3163,
      "আলহা": 3164,
      "দারি": 3165,
      "পোশাক": 3166,
      "গোপন": 3167,
      "গোলাপ": 3168,
      "আমাদেরকে": 3169,
      "অর্থা": 3170,
      "কুলে": 3171,
      "ইউপি": 3172,
      "ইউএস": 3173,
      "বোমা": 3174,
      "মারা": 3175,
      "সম্পন্ন": 3176,
      "আজকের": 3177,
      "খুঁ": 3178,
      "বন্ধুর": 3179,
      "ডাউন": 3180,
      "শোনা": 3181,
      "ান্স": 3182,
      "ব্যবহারের": 3183,
      "স্বাধীন": 3184,
      "প্রথমে": 3185,
      "বিদ্যু": 3186,
      "আপনারা": 3187,
      "আগেই": 3188,
      "রহমানের": 3189,
      "উপজেলায়": 3190,
      "তালুক": 3191,
      "তিনটি": 3192,
      "মালা": 3193,
      "সর্বো": 3194,
      "নৌযান": 3195,
      "পড়েছে": 3196,
      "শালী": 3197,
      "যদিও": 3198,
      "হরতাল": 3199,
      "রাখেন": 3200,
      "সমাজ": 3201,
      "কর্মকর্তাদের": 3202,
      "কয়েকজন": 3203,
      "কীভাবে": 3204,
      "রীণ": 3205,
      "out": 3206,
      "ব্যক্তিগত": 3207,
      "অবস্থিত": 3208,
      "হেরে": 3209,
      "শিশুদের": 3210,
      "পেয়েছে": 3211,
      "০১৭১৬": 3212,
      "খ্যাত": 3213,
      "প্রাপ্তি": 3214,
      "প্রশ্নের": 3215,
      "জেনে": 3216,
      "জেনারেল": 3217,
      "মহাপরিচালক": 3218,
      "য়ানমার": 3219,
      "থানায়": 3220,
      "ফোনের": 3221,
      "সন্দেহ": 3222,
      "সিরিজের": 3223,
      "উদ্বোধন": 3224,
      "ধ্বংস": 3225,
      "প্রচারিত": 3226,
      "ধারাবাহ": 3227,
      "বাসিন্দা": 3228,
      "যাত্রা": 3229,
      "যুদ্ধের": 3230,
      "অথচ": 3231,
      "পৃথি": 3232,
      "মন্ত্রণালয়": 3233,
      "angla": 3234,
      "ঘাটতি": 3235,
      "ফেব্রুয়ারি": 3236,
      "প্লট": 3237,
      "৮৪৩": 3238,
      "বিদেশি": 3239,
      "স্টাফ": 3240,
      "মাইক্রো": 3241,
      "জ্বল": 3242,
      "সৈয়": 3243,
      "পর্যায়ে": 3244,
      "খেলতে": 3245,
      "অধ্যা": 3246,
      "পেশাদার": 3247,
      "আন্দোলন": 3248,
      "শ্রেণীর": 3249,
      "অভ্যন্তরীণ": 3250,
      "ফ্যাক্স": 3251,
      "স্থায়ী": 3252,
      "সন্ত্রাসী": 3253,
      "খরচ": 3254,
      "নজরুল": 3255,
      "পঠিতব্য": 3256,
      "আবদুল": 3257,
      "টামিন": 3258,
      "যথাযথ": 3259,
      "আলোকচিত্র": 3260,
      "অপারেশন": 3261,
      "ঝুঁকি": 3262,
      "দরিদ্র": 3263,
      "ফরিদপুর": 3264,
      "প্রশংসা": 3265,
      "মাতব্বর": 3266,
      "রিপোর্টার": 3267,
      "মোতাবেক": 3268,
      "উদযাপন": 3269,
      "নিষেধাজ্ঞা": 3270,
      "জবাবে": 3271,
      "সরাসরি": 3272,
      "সিনিয়র": 3273,
      "তালুকদার": 3274,
      "ধারাবাহিক": 3275,
      "An": 3276,
      "Ch": 3277,
      "In": 3278,
      "PH": 3279,
      "Re": 3280,
      "SI": 3281,
      "TE": 3282,
      "can": 3283,
      "ia": 3284,
      "lin": 3285,
      "nse": 3286,
      "ol": 3287,
      "ue": 3288,
      "অগ্": 3289,
      "অসংখ্য": 3290,
      "আলে": 3291,
      "আরা": 3292,
      "আদি": 3293,
      "আয়ো": 3294,
      "আবাসি": 3295,
      "ইস্ট": 3296,
      "উভয়": 3297,
      "একর": 3298,
      "এসময়": 3299,
      "ওপরে": 3300,
      "কদের": 3301,
      "কষ্": 3302,
      "গগ": 3303,
      "গল": 3304,
      "গার্": 3305,
      "গড়া": 3306,
      "গভীর": 3307,
      "গঞ্জে": 3308,
      "ঘন": 3309,
      "জুল": 3310,
      "ঝা": 3311,
      "ডঃ": 3312,
      "তত": 3313,
      "তাম": 3314,
      "তপুর": 3315,
      "থমিক": 3316,
      "দফা": 3317,
      "ধরা": 3318,
      "নক": 3319,
      "নান্": 3320,
      "নটিক": 3321,
      "পয়": 3322,
      "বন্দি": 3323,
      "মহ": 3324,
      "মঞ্জ": 3325,
      "যমু": 3326,
      "রশি": 3327,
      "শনে": 3328,
      "শক্তি": 3329,
      "সেন্ট": 3330,
      "সফর": 3331,
      "হার্": 3332,
      "েই": 3333,
      "েড": 3334,
      "োক্তি": 3335,
      "য়ান্তে": 3336,
      "য়ন্স": 3337,
      "০৯৯": 3338,
      "৩৬": 3339,
      "৩৮": 3340,
      "৫২": 3341,
      "৫৬": 3342,
      "৫৮": 3343,
      "……": 3344,
      "্রাজ": 3345,
      "্যুর": 3346,
      "ানু": 3347,
      "করন": 3348,
      "বিবৃ": 3349,
      "নিলে": 3350,
      "বাম": 3351,
      "বাড়ি": 3352,
      "বাধিকার": 3353,
      "প্রত্য": 3354,
      "ামে": 3355,
      "বেক্ষ": 3356,
      "বেসরকারি": 3357,
      "বেঞ্চ": 3358,
      "টিভি": 3359,
      "টিউট": 3360,
      "কাজের": 3361,
      "নাবিক": 3362,
      "স্বল": 3363,
      "স্পাই": 3364,
      "ক্সে": 3365,
      "তাস": 3366,
      "তাড়া": 3367,
      "দেড়": 3368,
      "নেয়": 3369,
      "নেতাদের": 3370,
      "ন্দের": 3371,
      "কার্": 3372,
      "মিছিল": 3373,
      "মিনার": 3374,
      "মিয়ানমার": 3375,
      "ক্ষর": 3376,
      "পাবেন": 3377,
      "সিভ": 3378,
      "সিরাজ": 3379,
      "কিনে": 3380,
      "য়াত": 3381,
      "য়াস": 3382,
      "হাও": 3383,
      "হাজির": 3384,
      "মেয়া": 3385,
      "িলি": 3386,
      "িলার": 3387,
      "ব্যান": 3388,
      "য়ারী": 3389,
      "সংস্থ": 3390,
      "ভিন": 3391,
      "ভিটামিন": 3392,
      "যাই": 3393,
      "পিছ": 3394,
      "টেডের": 3395,
      "জানি": 3396,
      "জানেন": 3397,
      "পারবে": 3398,
      "পার্ব": 3399,
      "রিজভী": 3400,
      "প্রতিটি": 3401,
      "দাগ": 3402,
      "দায়": 3403,
      "শাখার": 3404,
      "সুরা": 3405,
      "সুষ্ঠ": 3406,
      "আমদানি": 3407,
      "খেতে": 3408,
      "টারি": 3409,
      "ছাই": 3410,
      "বলেছে": 3411,
      "বলেছিলেন": 3412,
      "চাপ": 3413,
      "দোয়া": 3414,
      "ত্তর": 3415,
      "জারি": 3416,
      "সহজে": 3417,
      "ভারতে": 3418,
      "চিন্তা": 3419,
      "জ্জা": 3420,
      "নির্বাচনী": 3421,
      "চালু": 3422,
      "অভিনেতা": 3423,
      "অভিজ্ঞতা": 3424,
      "০০৩": 3425,
      "বুদ্ধ": 3426,
      "সাম্রাজ": 3427,
      "ছুটে": 3428,
      "পূজা": 3429,
      "কমপ্লে": 3430,
      "বিষয়": 3431,
      "নিয়ম": 3432,
      "আল্লা": 3433,
      "শ্রম": 3434,
      "শ্রদ্ধা": 3435,
      "হোম": 3436,
      "কিছুই": 3437,
      "কিছুটা": 3438,
      "প্রাণী": 3439,
      "প্রাথমিক": 3440,
      "স্বত্ব": 3441,
      "রহস্য": 3442,
      "গুণ": 3443,
      "গুপ্ত": 3444,
      "ডাঃ": 3445,
      "ডাক্তার": 3446,
      "লেনদেন": 3447,
      "সভাপতিত্": 3448,
      "১৯৬": 3449,
      "১৯৯": 3450,
      "সীমান্ত": 3451,
      "নিকট": 3452,
      "হোসেনের": 3453,
      "কমিটি": 3454,
      "কমিশনের": 3455,
      "পালিয়ে": 3456,
      "ধরতে": 3457,
      "ত্যাগ": 3458,
      "পড়েছেন": 3459,
      "রাষ্ট্রপতি": 3460,
      "লক্ষ্যে": 3461,
      "রাখার": 3462,
      "পাঠক": 3463,
      "সদস্যের": 3464,
      "সদস্যরা": 3465,
      "একাডে": 3466,
      "খুবই": 3467,
      "চলেছে": 3468,
      "মৃত্যুর": 3469,
      "enc": 3470,
      "মাত্রা": 3471,
      "কন্যা": 3472,
      "our": 3473,
      "মাহবু": 3474,
      "উন্ডে": 3475,
      "উইকেটে": 3476,
      "লেখক": 3477,
      "কেন্দ্রীয়": 3478,
      "৫০৮": 3479,
      "গিয়াস": 3480,
      "ate": 3481,
      "াইভার": 3482,
      "জঙ্গিবাদ": 3483,
      "মৌলভী": 3484,
      "ফেব্রুয়ারি": 3485,
      "বঙ্গবন্ধুর": 3486,
      "কখনও": 3487,
      "ডলারের": 3488,
      "পর্ব": 3489,
      "সিরিজ": 3490,
      "উদ্যোগ": 3491,
      "ড্রাইভার": 3492,
      "স্পেন": 3493,
      "যাচাইয়ান্তে": 3494,
      "উদ্দেশ্য": 3495,
      "কার্যালয়": 3496,
      "সেনাবাহিনীর": 3497,
      "এড্স": 3498,
      "চলাচল": 3499,
      "শরীর": 3500,
      "গাঁও": 3501,
      "স্ট্রেশন": 3502,
      "শুরুর": 3503,
      "ফেসবুক": 3504,
      "জায়গায়": 3505,
      "সেতুমন্ত্রী": 3506,
      "সংগঠনের": 3507,
      "বগুড়া": 3508,
      "শফিকুর": 3509,
      "বাবগঞ্জ": 3510,
      "শিক্ষার্থীদের": 3511,
      "আরেকটি": 3512,
      "প্রশাস": 3513,
      "সংশোধনী": 3514,
      "পূরণ": 3515,
      "৯৫৫৪২০": 3516,
      "রবিবার": 3517,
      "লিমিটেডের": 3518,
      "প্রেসক্লাবের": 3519,
      "স্বীকারোক্তি": 3520,
      "ফর্মে": 3521,
      "ওয়ানডে": 3522,
      "ব্রিটিশ": 3523,
      "কর্মসূচি": 3524,
      "মডেল": 3525,
      "কোম্পানির": 3526,
      "কৌশল": 3527,
      "ড্ডা": 3528,
      "লিখিত": 3529,
      "যুবলীগের": 3530,
      "ঘন্টার": 3531,
      "ফেডারেশন": 3532,
      "কক্সবাজার": 3533,
      "হৃদয়": 3534,
      "অব্যাহত": 3535,
      "টেকনাফ": 3536,
      "চ্যাম্পিয়ন্স": 3537,
      "কাউকে": 3538,
      "সম্বন্ধে": 3539,
      "অনুসরণ": 3540,
      "অর্থাৎ": 3541,
      "০১৭১৬০৯৯": 3542,
      "অধ্যাপক": 3543,
      "আবাসিক": 3544,
      "নটিক্যাল": 3545,
      "স্পাইডার": 3546,
      "সুষ্ঠু": 3547,
      "আল্লাহর": 3548,
      "সভাপতিত্বে": 3549,
      "৯৫৫৪২০৬": 3550,
      "০১৭১৬০৯৯০০৩": 3551,
      ".)": 3552,
      "28": 3553,
      "70": 3554,
      "OR": 3555,
      "You": 3556,
      "cess": 3557,
      "fer": 3558,
      "gs": 3559,
      "ist": 3560,
      "me": 3561,
      "ment": 3562,
      "nlo": 3563,
      "ore": 3564,
      "su": 3565,
      "tar": 3566,
      "us": 3567,
      "ঁজি": 3568,
      "ংকার": 3569,
      "অনি": 3570,
      "অসু": 3571,
      "আফ্র": 3572,
      "আচর": 3573,
      "আধুনিক": 3574,
      "আক্রমণ": 3575,
      "ইজ": 3576,
      "ইম": 3577,
      "উক্ত": 3578,
      "এজ": 3579,
      "এদের": 3580,
      "এয়ার": 3581,
      "ওল": 3582,
      "ওকে": 3583,
      "ওয়ার": 3584,
      "কবর": 3585,
      "গন্ধ": 3586,
      "গঙ্গা": 3587,
      "চূ": 3588,
      "জ্যে": 3589,
      "টম": 3590,
      "টল": 3591,
      "টান": 3592,
      "ডান": 3593,
      "ডকু": 3594,
      "ণত": 3595,
      "ণার": 3596,
      "তমা": 3597,
      "তরে": 3598,
      "ত্যে": 3599,
      "দত্ত": 3600,
      "দীন": 3601,
      "দানের": 3602,
      "ধূ": 3603,
      "নান": 3604,
      "নকল": 3605,
      "নজর": 3606,
      "নবায়ন": 3607,
      "পেন": 3608,
      "পরাজ": 3609,
      "বক": 3610,
      "বয়": 3611,
      "বস্ত": 3612,
      "বোন": 3613,
      "ভ্যান": 3614,
      "ভোর": 3615,
      "ভবিষ": 3616,
      "মরা": 3617,
      "মুর": 3618,
      "মহাল": 3619,
      "রশী": 3620,
      "লঙ্": 3621,
      "লড়াই": 3622,
      "শূ": 3623,
      "শান": 3624,
      "সরিয়ে": 3625,
      "হই": 3626,
      "িদ্ধ": 3627,
      "ৈর": 3628,
      "োরে": 3629,
      "ড়ান্ত": 3630,
      "০৭": 3631,
      "০৮": 3632,
      "২য়": 3633,
      "৩০০": 3634,
      "৩২৪": 3635,
      "৪৭": 3636,
      "৭৫": 3637,
      "৯৪৯": 3638,
      "্রিক": 3639,
      "করবো": 3640,
      "বিধ": 3641,
      "বিনা": 3642,
      "বিনে": 3643,
      "বিত্র": 3644,
      "বিজে": 3645,
      "বিনাম": 3646,
      "বিতর": 3647,
      "বিভাগে": 3648,
      "বাজ": 3649,
      "বাড়": 3650,
      "বাহী": 3651,
      "বাধা": 3652,
      "কেবল": 3653,
      "কেমন": 3654,
      "প্রত্যে": 3655,
      "ামু": 3656,
      "টিভ": 3657,
      "টিটিউট": 3658,
      "লেগে": 3659,
      "নাগা": 3660,
      "নাটক": 3661,
      "স্মৃ": 3662,
      "লাগে": 3663,
      "তাহ": 3664,
      "দেবে": 3665,
      "দেবী": 3666,
      "মাদ": 3667,
      "মাদক": 3668,
      "মাগু": 3669,
      "মাথায়": 3670,
      "মাষ্টার": 3671,
      "নেতার": 3672,
      "ন্না": 3673,
      "কারে": 3674,
      "মিউজ": 3675,
      "সমালো": 3676,
      "পাব": 3677,
      "পাবে": 3678,
      "পাতি": 3679,
      "পায়": 3680,
      "সাগ": 3681,
      "সাব": 3682,
      "য়ামী": 3683,
      "িত্র": 3684,
      "হাট": 3685,
      "মেগা": 3686,
      "রেখা": 3687,
      "দেশটির": 3688,
      "মানসিক": 3689,
      "শিখ": 3690,
      "শিগগ": 3691,
      "যাঁ": 3692,
      "মুসা": 3693,
      "গ্রি": 3694,
      "পিবিএক্স": 3695,
      "রিয়া": 3696,
      "দুবাই": 3697,
      "বললেন": 3698,
      "আরব": 3699,
      "নির্মিত": 3700,
      "হিম": 3701,
      "হিন্দু": 3702,
      "ডিং": 3703,
      "ডিএস": 3704,
      "ীরিক": 3705,
      "ঞ্চলে": 3706,
      "পুরি": 3707,
      "নারীদের": 3708,
      "খেলে": 3709,
      "খেলো": 3710,
      "ভাগ্য": 3711,
      "ট্রি": 3712,
      "ট্রফি": 3713,
      "যোগী": 3714,
      "পেলে": 3715,
      "নামক": 3716,
      "চেতন": 3717,
      "িরই": 3718,
      "2013": 3719,
      "্যানেল": 3720,
      "চাহি": 3721,
      "চাকরি": 3722,
      "চাপায়": 3723,
      "ত্তি": 3724,
      "ত্তে": 3725,
      "নিয়েছেন": 3726,
      "ভারে": 3727,
      "ভারসাম": 3728,
      "ভারতীয়": 3729,
      "আসবে": 3730,
      "ান্ত্রিক": 3731,
      "অবসর": 3732,
      "অবশেষে": 3733,
      "স্টান": 3734,
      "অভিনেত্রী": 3735,
      "অভিযোগে": 3736,
      "বুকে": 3737,
      "রোজ": 3738,
      "সামরিক": 3739,
      "দলকে": 3740,
      "আমিন": 3741,
      "কম্প": 3742,
      "নিয়ন্ত্র": 3743,
      "করেননি": 3744,
      "হো": 3745,
      "ব্রু": 3746,
      "ব্রো": 3747,
      "জীবী": 3748,
      "প্রাকৃতিক": 3749,
      "গুলির": 3750,
      "উদ্দীন": 3751,
      "বোঝ": 3752,
      "পারেনি": 3753,
      "এখনো": 3754,
      "বন্ধন": 3755,
      "ণ্ডা": 3756,
      "বহাল": 3757,
      "কৃতির": 3758,
      "সাল্": 3759,
      "স্বামীর": 3760,
      "বীজ": 3761,
      "ers": 3762,
      "অ্যাকাউন্": 3763,
      "সোনার": 3764,
      "পর্যবেক্ষ": 3765,
      "esse": 3766,
      "বাজারের": 3767,
      "পুঁজি": 3768,
      "করিম": 3769,
      "ধরণের": 3770,
      "সর্বা": 3771,
      "নৌকা": 3772,
      "নৌযানের": 3773,
      "বাড়ানোর": 3774,
      "যৌনকর্মীরা": 3775,
      "পড়তে": 3776,
      "ফ্রন্ট": 3777,
      "আদালতের": 3778,
      "tit": 3779,
      "বানু": 3780,
      "পাঠানো": 3781,
      "সমাবেশ": 3782,
      "নির্যা": 3783,
      "বিষয়ক": 3784,
      "দশমিক": 3785,
      "বিমানবন্দ": 3786,
      "বিমানবন্দর": 3787,
      "নেতৃ": 3788,
      "পারেননি": 3789,
      "ovem": 3790,
      "অভিযোগপত্র": 3791,
      "৩০২": 3792,
      "৯৫৮৭": 3793,
      "৯৫৫০৮": 3794,
      "খানায়": 3795,
      "বিজ্ঞান": 3796,
      "ক্ষমতায়": 3797,
      "প্রতিষ্ঠা": 3798,
      "বয়সী": 3799,
      "গঠন": 3800,
      "জিনিয়া": 3801,
      "দূরে": 3802,
      "বর্ণ": 3803,
      "পরীক্ষার্থ": 3804,
      "শুধুমাত্র": 3805,
      "ফেরত": 3806,
      "আইনশৃঙ্খলা": 3807,
      "কবির": 3808,
      "কলেজের": 3809,
      "চুরি": 3810,
      "ধন্যবাদ": 3811,
      "ব্যাংক": 3812,
      "কপিরাই": 3813,
      "শিশুকে": 3814,
      "সন্তোষ": 3815,
      "রাজনীতি": 3816,
      "ফিকুল": 3817,
      "বার্ষ": 3818,
      "যুবক": 3819,
      "যুবকের": 3820,
      "হালকা": 3821,
      "রেজিস্ট্রেশন": 3822,
      "মেয়েদের": 3823,
      "ছাত্রলীগের": 3824,
      "ভিত্তি": 3825,
      "শিল্পী": 3826,
      "জোটের": 3827,
      "ক্টর": 3828,
      "শ্রেষ্ঠ": 3829,
      "সর্বশেষ": 3830,
      "গ্রুপের": 3831,
      "জরুর": 3832,
      "ইতিহা": 3833,
      "মোবাইলঃ০১৭১১": 3834,
      "প্রস্তুত": 3835,
      "স্পষ্ট": 3836,
      "deo": 3837,
      "দৃষ্টি": 3838,
      "শারীরিক": 3839,
      "কার্যালয়ে": 3840,
      "সেনাবাহিনী": 3841,
      "উচ্চতা": 3842,
      "পৃষ্ঠ": 3843,
      "জিয়াকে": 3844,
      "উল্লেখ্য": 3845,
      "সপ্তাহ": 3846,
      "সপ্তাহে": 3847,
      "ইসির": 3848,
      "নিষিদ্ধ": 3849,
      "রাশিয়ান": 3850,
      "শিক্ষাবর্ষ": 3851,
      "অবশ্যই": 3852,
      "ফেসবুকে": 3853,
      "রাজধানী": 3854,
      "ফুটবলের": 3855,
      "পুনর্": 3856,
      "কাদেরের": 3857,
      "সংগঠন": 3858,
      "খ্রিস্টান": 3859,
      "শিক্ষার্থী": 3860,
      "ছুরিকা": 3861,
      "শামসু": 3862,
      "লিমিটেড": 3863,
      "ব্যবসায়ী": 3864,
      "শুনানি": 3865,
      "খানাখন্দ": 3866,
      "ভার্জিনিয়া": 3867,
      "মেনে": 3868,
      "ইন্সটিটিউট": 3869,
      "বেঁধে": 3870,
      "উন্নয়নে": 3871,
      "আওয়ামী": 3872,
      "জালাল": 3873,
      "জার্মান": 3874,
      "কিশোরগঞ্জ": 3875,
      "পেছনে": 3876,
      "হাদিস": 3877,
      "মুদ্রিত": 3878,
      "টেলিভি": 3879,
      "স্বপ্ন": 3880,
      "সম্পাদকের": 3881,
      "অঞ্চলের": 3882,
      "রান্না": 3883,
      "ভ্রমণ": 3884,
      "বিবরণ": 3885,
      "হুমকি": 3886,
      "downlo": 3887,
      "ওয়েবসাইটের": 3888,
      "অপেক্ষা": 3889,
      "তফসিল": 3890,
      "বন্দুক": 3891,
      "সংসদে": 3892,
      "ডিজাইন": 3893,
      "দারিদ্র": 3894,
      "সর্বোচ্চ": 3895,
      "পৃথিবীর": 3896,
      "যমুনা": 3897,
      "স্বল্প": 3898,
      "মিয়ানমারের": 3899,
      "সংস্থার": 3900,
      "স্পাইডারম্যান": 3901,
      "ভবিষ্য": 3902,
      "মহালছড়ি": 3903,
      "রশীদ": 3904,
      "শূন্য": 3905,
      "৯৪৯৩২৪": 3906,
      "বিজেপি": 3907,
      "মাগুরা": 3908,
      "মিউজিক": 3909,
      "শিগগিরই": 3910,
      "খেলোয়া": 3911,
      "৯৫৮৭৩০২": 3912,
      "৯৫৫০৮৬৭": 3913,
      "কপিরাইট": 3914,
      "download": 3915,
      "44": 3916,
      "53": 3917,
      "Bangla": 3918,
      "More": 3919,
      "Novem": 3920,
      "Pre": 3921,
      "cn": 3922,
      "fre": 3923,
      "for": 3924,
      "ion": 3925,
      "ms": 3926,
      "pa": 3927,
      "sh": 3928,
      "ut": 3929,
      "ve": 3930,
      "অগ্র": 3931,
      "অস্ত": 3932,
      "অধিক": 3933,
      "আবি": 3934,
      "আশে": 3935,
      "আক্র": 3936,
      "আওয়া": 3937,
      "আগ্রহ": 3938,
      "আবদ": 3939,
      "আঞ্চল": 3940,
      "আক্রান্ত": 3941,
      "আশ্রয়": 3942,
      "ইট": 3943,
      "ইত্তে": 3944,
      "ঈশ্বর": 3945,
      "উর": 3946,
      "উড়": 3947,
      "উজ্": 3948,
      "উপরে": 3949,
      "এরা": 3950,
      "এগুলো": 3951,
      "এএফ": 3952,
      "কতা": 3953,
      "কমান": 3954,
      "কামী": 3955,
      "কবুল": 3956,
      "কথায়": 3957,
      "খাম": 3958,
      "খায়": 3959,
      "খিক": 3960,
      "খানের": 3961,
      "গৌ": 3962,
      "গড়": 3963,
      "ঘো": 3964,
      "ঘরের": 3965,
      "চর্": 3966,
      "চক্র": 3967,
      "চোর": 3968,
      "চতু": 3969,
      "ছড়া": 3970,
      "জক": 3971,
      "ঝিল": 3972,
      "টমো": 3973,
      "টানা": 3974,
      "ডো": 3975,
      "ণমূল": 3976,
      "থিত": 3977,
      "দখ": 3978,
      "দফ": 3979,
      "দম": 3980,
      "দমন": 3981,
      "পনে": 3982,
      "পদ্": 3983,
      "ফন": 3984,
      "ফনের": 3985,
      "ভয়ে": 3986,
      "মৎ": 3987,
      "ম্য": 3988,
      "মণ্ড": 3989,
      "মধু": 3990,
      "রক্ত": 3991,
      "রীন": 3992,
      "রচনা": 3993,
      "শম": 3994,
      "শত্র": 3995,
      "শক্ত": 3996,
      "শনার": 3997,
      "শহী": 3998,
      "শর্ত": 3999,
      "ষী": 4000,
      "ষে": 4001,
      "সকে": 4002,
      "সরে": 4003,
      "সজ্": 4004,
      "সীন": 4005,
      "সক্ষম": 4006,
      "হ্যাম্প": 4007,
      "াট": 4008,
      "িদ": 4009,
      "ীর্ণ": 4010,
      "ূর্ত": 4011,
      "ৃত্ত": 4012,
      "োল": 4013,
      "০১৯": 4014,
      "১০০০": 4015,
      "৪৩": 4016,
      "৪৬": 4017,
      "৭৬": 4018,
      "৮১": 4019,
      "’-": 4020,
      "্যারি": 4021,
      "ান্য": 4022,
      "বিবে": 4023,
      "বিক্র": 4024,
      "বিধি": 4025,
      "বিগত": 4026,
      "বিএস": 4027,
      "বিপরী": 4028,
      "বিশাল": 4029,
      "বিপ্ল": 4030,
      "বিশিষ্ট": 4031,
      "নিচে": 4032,
      "নিচ্ছে": 4033,
      "বাসে": 4034,
      "বায়": 4035,
      "বাবার": 4036,
      "বাছাই": 4037,
      "েন্ড": 4038,
      "কেজি": 4039,
      "তেজ": 4040,
      "বেল": 4041,
      "বেশে": 4042,
      "টিউ": 4043,
      "টিফি": 4044,
      "কাই": 4045,
      "কাঠ": 4046,
      "কাত": 4047,
      "কাতে": 4048,
      "কাশে": 4049,
      "কাজী": 4050,
      "নাত": 4051,
      "স্কো": 4052,
      "স্কুলে": 4053,
      "লাগবে": 4054,
      "রাউ": 4055,
      "রাহা": 4056,
      "রাজা": 4057,
      "ছেলের": 4058,
      "তাছাড়া": 4059,
      "দিল্": 4060,
      "দেয়": 4061,
      "মাকে": 4062,
      "মাটি": 4063,
      "মায়ের": 4064,
      "মাদার": 4065,
      "নেয়ার": 4066,
      "কারও": 4067,
      "কারো": 4068,
      "কারীর": 4069,
      "মিলে": 4070,
      "পাত্র": 4071,
      "পাওয়া": 4072,
      "সির": 4073,
      "সিস্টে": 4074,
      "সেস": 4075,
      "সেমি": 4076,
      "সেসব": 4077,
      "সেকেন": 4078,
      "সেক্রে": 4079,
      "সাজ": 4080,
      "সাকি": 4081,
      "কিত": 4082,
      "টাঙ্গা": 4083,
      "্বার": 4084,
      "মেঘ": 4085,
      "মেজর": 4086,
      "মেক্সি": 4087,
      "থাকি": 4088,
      "কোয়": 4089,
      "ষ্কার": 4090,
      "গেলেন": 4091,
      "বারি": 4092,
      "বারে": 4093,
      "বারিক": 4094,
      "য়ারেজ": 4095,
      "শিব": 4096,
      "শিশুর": 4097,
      "সংস্কার": 4098,
      "পরিণত": 4099,
      "লিপ": 4100,
      "যাক": 4101,
      "যাচ্ছেন": 4102,
      "মুন": 4103,
      "মুহাম্মদ": 4104,
      "গ্র্যান্ড": 4105,
      "জান্": 4106,
      "জানাল": 4107,
      "পারা": 4108,
      "রিং": 4109,
      "রিফ": 4110,
      "রিয়": 4111,
      "জাহান": 4112,
      "দুজন": 4113,
      "দুপুরে": 4114,
      "প্রতিবেশী": 4115,
      "দাশ": 4116,
      "দাতা": 4117,
      "বলছেন": 4118,
      "বললাম": 4119,
      "মোকা": 4120,
      "মোল্লা": 4121,
      "চ্ছিল": 4122,
      "চ্ছু": 4123,
      "হিদুল": 4124,
      "২০০০": 4125,
      "শাখা": 4126,
      "সুয়ারেজ": 4127,
      "এরকম": 4128,
      "খাদি": 4129,
      "খাতের": 4130,
      "খাগড়া": 4131,
      "উপস্থাপন": 4132,
      "ট্রিক": 4133,
      "ট্রাক": 4134,
      "ট্রান্স": 4135,
      "নাম্বার": 4136,
      "মনু": 4137,
      "অনুযায়": 4138,
      "অনুর্ধ্ব": 4139,
      "কালি": 4140,
      "চাকুর": 4141,
      "ত্ত্": 4142,
      "দ্রা": 4143,
      "দ্রব্য": 4144,
      "ফিচার": 4145,
      "নিয়েই": 4146,
      "আসার": 4147,
      "চিৎকার": 4148,
      "আইপি": 4149,
      "আইসিস": 4150,
      "ভেতরে": 4151,
      "কেরা": 4152,
      "সরবরা": 4153,
      "অবহে": 4154,
      "চালা": 4155,
      "লাইফ": 4156,
      "লাইনে": 4157,
      "স্ট্যান্ড": 4158,
      "অভিনয়": 4159,
      "বুর্": 4160,
      "চলন": 4161,
      "চলবে": 4162,
      "ইস্যু": 4163,
      "রুটে": 4164,
      "ফাক": 4165,
      "বিষয়ে": 4166,
      "বেশীর": 4167,
      "এমসি": 4168,
      "এসআই": 4169,
      "এসএসসি": 4170,
      "জুটি": 4171,
      "জুড়ে": 4172,
      "গোষ্ঠ": 4173,
      "ব্রে": 4174,
      "ব্রাজ": 4175,
      "অর্ডার": 4176,
      "সার্বিক": 4177,
      "ূল্যে": 4178,
      "আজও": 4179,
      "গরম": 4180,
      "সনদের": 4181,
      "খুশি": 4182,
      "যৌথ": 4183,
      "দেখি": 4184,
      "দীপি": 4185,
      "ডাক্ট": 4186,
      "অনেকটা": 4187,
      "শীতের": 4188,
      "সাইটে": 4189,
      "সাইকেল": 4190,
      "টুকরো": 4191,
      "অধিনায়ক": 4192,
      "সূর": 4193,
      "পরিচালিত": 4194,
      "সীম": 4195,
      "সীমা": 4196,
      "জামি": 4197,
      "জামিন": 4198,
      "ষ্ট্রে": 4199,
      "কারীরা": 4200,
      "পক্ষের": 4201,
      "অন্যদিকে": 4202,
      "পুরা": 4203,
      "পাল্": 4204,
      "সাধারণত": 4205,
      "বেশির": 4206,
      "পেরে": 4207,
      "প্রেম": 4208,
      "জানিয়েছে": 4209,
      "ইন্ডি": 4210,
      "উন্নত": 4211,
      "মতাম": 4212,
      "১২২৯": 4213,
      "দুর্দ": 4214,
      "্যান্ডের": 4215,
      "মতিঝিল": 4216,
      "হাসিক": 4217,
      "হাসিনার": 4218,
      "শিক্ষক": 4219,
      "ভাবনা": 4220,
      "নিজেই": 4221,
      "গঠিত": 4222,
      "দূত": 4223,
      "উইকেট": 4224,
      "থাকায়": 4225,
      "কেন্দ্রে": 4226,
      "ফেরার": 4227,
      "পার্কের": 4228,
      "পেয়েছেন": 4229,
      "উল্লা": 4230,
      "সকলের": 4231,
      "নিশ্চয়": 4232,
      "সিটিজেন": 4233,
      "কুরআন": 4234,
      "খালী": 4235,
      "উৎপা": 4236,
      "উৎসব": 4237,
      "মর্যা": 4238,
      "বিচারক": 4239,
      "পারিবারিক": 4240,
      "গুরুতর": 4241,
      "চরিত্র": 4242,
      "বরাবর": 4243,
      "বরাদ্দ": 4244,
      "প্রিয়তমা": 4245,
      "ঘটেছে": 4246,
      "বুঝে": 4247,
      "পূর্বক": 4248,
      "ভিত্তিক": 4249,
      "সর্বস্বত্ব": 4250,
      "ক্ষমতাসীন": 4251,
      "119": 4252,
      "ইংরেজি": 4253,
      "ইংল্যান্ড": 4254,
      "ফোর্": 4255,
      "সন্ধান": 4256,
      "রায়পুর": 4257,
      "জ্ঞাত": 4258,
      "ভাঙচুর": 4259,
      "ভিডিওচিত্র": 4260,
      "উদ্বোধ": 4261,
      "উদ্বৃত্ত": 4262,
      "এছাড়াও": 4263,
      "গ্যাসের": 4264,
      "শতাধিক": 4265,
      "ভূমিকা": 4266,
      "ভূমিকম্প": 4267,
      "সংরক্ষণ": 4268,
      "গবেষক": 4269,
      "পুরোপুরি": 4270,
      "ফিরতে": 4271,
      "রোগের": 4272,
      "মোটর": 4273,
      "সপ্তাহের": 4274,
      "আর্জ": 4275,
      "চুলের": 4276,
      "র‌্যাল": 4277,
      "লিংক": 4278,
      "মন্ত্রণালয়ের": 4279,
      "ইন্টারন্যাশনাল": 4280,
      "উঠেছে": 4281,
      "অ্যাপস": 4282,
      "video": 4283,
      "ওরফে": 4284,
      "তৃণমূল": 4285,
      "বিচারপতির": 4286,
      "প্রকল্পের": 4287,
      "মানবতা": 4288,
      "সার্ভিসের": 4289,
      "ভিয়েতনামের": 4290,
      "পৌরসভার": 4291,
      "কখনোই": 4292,
      "বাণিজ্যিক": 4293,
      "নূর": 4294,
      "মূর্তি": 4295,
      "বেঁচে": 4296,
      "যুগ্ম": 4297,
      "উন্নয়নের": 4298,
      "খদ্দেরদের": 4299,
      "পশ্চিম": 4300,
      "যিনি": 4301,
      "শরীরে": 4302,
      "পাথর": 4303,
      "গাইড": 4304,
      "সহযোগিতা": 4305,
      "বোর্ড": 4306,
      "বিশ্বকাপ": 4307,
      "যুক্তরাষ্ট্রের": 4308,
      "রেজাউল": 4309,
      "হাসপাতালের": 4310,
      "আলোচনায়": 4311,
      "নেতাকর্মীদের": 4312,
      "তৎকালীন": 4313,
      "সমন্বয়": 4314,
      "আমেরিকা": 4315,
      "pping": 4316,
      "অস্ট্রেলিয়া": 4317,
      "নওগাঁ": 4318,
      "প্রোডাক্ট": 4319,
      "প্রশিক্ষণ": 4320,
      "মুহূর্ত": 4321,
      "কঠিন": 4322,
      "সোনম": 4323,
      "সাফল্য": 4324,
      "কিউরিটি": 4325,
      "জিম্বাবু": 4326,
      "খুঁজে": 4327,
      "ডাউনলোড": 4328,
      "সৈয়দ": 4329,
      "নকশা": 4330,
      "রশিদ": 4331,
      "আচরণ": 4332,
      "এয়ারলাই": 4333,
      "ডকুমেন্ট": 4334,
      "স্মৃতি": 4335,
      "সমালোচনা": 4336,
      "ট্রফিতে": 4337,
      "চাহিদা": 4338,
      "নির্যাতন": 4339,
      "বার্ষিক": 4340,
      "November": 4341,
      "আবদুর": 4342,
      "আঞ্চলিক": 4343,
      "ইত্তেফাক": 4344,
      "মৎস্য": 4345,
      "সজ্জিত": 4346,
      "হ্যাম্পশায়": 4347,
      "সেকেন্ড": 4348,
      "অনুযায়ী": 4349,
      "ব্রাজিল": 4350,
      "02": 4351,
      "35": 4352,
      "55": 4353,
      ":-": 4354,
      "AT": 4355,
      "ab": 4356,
      "ation": 4357,
      "by": 4358,
      "co": 4359,
      "dd": 4360,
      "eb": 4361,
      "fi": 4362,
      "ir": 4363,
      "jo": 4364,
      "mp": 4365,
      "pl": 4366,
      "pla": 4367,
      "rou": 4368,
      "ta": 4369,
      "tw": 4370,
      "।”": 4371,
      "অফ": 4372,
      "অর": 4373,
      "অা": 4374,
      "অবর": 4375,
      "অভাব": 4376,
      "অজ্ঞাত": 4377,
      "আঁ": 4378,
      "আট": 4379,
      "আসি": 4380,
      "আবু": 4381,
      "আর্থ": 4382,
      "আবেদ": 4383,
      "ইমেইলঃ": 4384,
      "ইমর": 4385,
      "ইলিয়া": 4386,
      "ইজিং": 4387,
      "উত্": 4388,
      "এ্যা": 4389,
      "এটাই": 4390,
      "ওটি": 4391,
      "ওয়": 4392,
      "কক্ষ": 4393,
      "কুন": 4394,
      "খলি": 4395,
      "গর্": 4396,
      "গতি": 4397,
      "গিত": 4398,
      "গড়": 4399,
      "ঘুর": 4400,
      "চম": 4401,
      "চলার": 4402,
      "চক্ষু": 4403,
      "ছালা": 4404,
      "জরি": 4405,
      "জবান": 4406,
      "জবাব": 4407,
      "ঝি": 4408,
      "ঠান্ড": 4409,
      "ডু": 4410,
      "ডায়": 4411,
      "ঢো": 4412,
      "ঢুকে": 4413,
      "তনে": 4414,
      "তুর": 4415,
      "তৃত": 4416,
      "তবু": 4417,
      "দীর": 4418,
      "নু": 4419,
      "নীয়": 4420,
      "নতাই": 4421,
      "পনের": 4422,
      "পবিত্র": 4423,
      "ফাল": 4424,
      "বনে": 4425,
      "ভগ": 4426,
      "ভেন": 4427,
      "ভরা": 4428,
      "ভয়া": 4429,
      "মপ্লে": 4430,
      "যথে": 4431,
      "যশোর": 4432,
      "রম": 4433,
      "রস": 4434,
      "রনি": 4435,
      "রফিকুল": 4436,
      "লস": 4437,
      "সই": 4438,
      "সও": 4439,
      "স‌": 4440,
      "সমি": 4441,
      "সেন্": 4442,
      "সান্": 4443,
      "সচেতন": 4444,
      "হজ": 4445,
      "হতা": 4446,
      "হ্ম": 4447,
      "হানি": 4448,
      "ীনে": 4449,
      "ুরা": 4450,
      "ুকের": 4451,
      "ুয়ার": 4452,
      "োজ": 4453,
      "০৫": 4454,
      "১১৯": 4455,
      "৩৪": 4456,
      "৪৮": 4457,
      "৫৩": 4458,
      "৭১": 4459,
      "৭৮": 4460,
      "৮৫": 4461,
      "৯২": 4462,
      "্যবাদের": 4463,
      "করিয়ে": 4464,
      "বিশ": 4465,
      "বিলা": 4466,
      "বিভা": 4467,
      "বিকাশ": 4468,
      "বিনো": 4469,
      "বিজয়": 4470,
      "বিবিসি": 4471,
      "বিপুল": 4472,
      "নিয়া": 4473,
      "নিষ্ঠ": 4474,
      "নিলাম": 4475,
      "নিযুক্ত": 4476,
      "নিম্": 4477,
      "বাগ": 4478,
      "বাজে": 4479,
      "বাফু": 4480,
      "বাড্ডা": 4481,
      "কেজ": 4482,
      "প্রতা": 4483,
      "প্রসঙ্গে": 4484,
      "প্রসার": 4485,
      "প্রকৃত": 4486,
      "াম্য": 4487,
      "তেও": 4488,
      "তেল": 4489,
      "বেদক": 4490,
      "বেইজিং": 4491,
      "কাস্ট": 4492,
      "কাংশ": 4493,
      "কাপের": 4494,
      "কাফনের": 4495,
      "নাক": 4496,
      "নাস": 4497,
      "নায়": 4498,
      "স্বাদ": 4499,
      "লাব": 4500,
      "লাগা": 4501,
      "লাদার": 4502,
      "লাগিয়ে": 4503,
      "রাগ": 4504,
      "রাজি": 4505,
      "রাস্তার": 4506,
      "ক্সের": 4507,
      "ক্লাশ": 4508,
      "তাহা": 4509,
      "তাকিয়ে": 4510,
      "পর্যাল": 4511,
      "দিষ্ট": 4512,
      "দিলেন": 4513,
      "মাতৃ": 4514,
      "নেতারা": 4515,
      "ন্দে": 4516,
      "ন্সের": 4517,
      "মিশন": 4518,
      "ক্ষয়": 4519,
      "ক্ষণে": 4520,
      "সম্রা": 4521,
      "পাবল": 4522,
      "পাড়ে": 4523,
      "পাচ্ছে": 4524,
      "পাড়ায়": 4525,
      "সিমের": 4526,
      "সিকিউরিটি": 4527,
      "ভাড়া": 4528,
      "ভাইস": 4529,
      "ভাবিক": 4530,
      "সেবার": 4531,
      "সেক্স": 4532,
      "সেগুলো": 4533,
      "জনগোষ্ঠ": 4534,
      "করেনি": 4535,
      "করেছিল": 4536,
      "কিভাবে": 4537,
      "কিছুর": 4538,
      "টাতে": 4539,
      "হাবি": 4540,
      "হাতের": 4541,
      "মেয়ের": 4542,
      "কোচ": 4543,
      "কোষ্ট": 4544,
      "গেট": 4545,
      "ঙ্কর": 4546,
      "তারই": 4547,
      "দেশীয়": 4548,
      "মানা": 4549,
      "ব্যতি": 4550,
      "ব্যারি": 4551,
      "শিম": 4552,
      "শির": 4553,
      "শিয়ে": 4554,
      "শিয়া": 4555,
      "শিরো": 4556,
      "সংস্": 4557,
      "পরিশ্রম": 4558,
      "জিজ্ঞা": 4559,
      "ভিউ": 4560,
      "লিনা": 4561,
      "ক্তির": 4562,
      "গ্রস্ত": 4563,
      "পিয়ার": 4564,
      "অনুর": 4565,
      "অনলাইনে": 4566,
      "টেল": 4567,
      "জানার": 4568,
      "জানুয়ার": 4569,
      "জায়": 4570,
      "দুধ": 4571,
      "দুপুর": 4572,
      "প্রতিমা": 4573,
      "প্রতিরক্ষা": 4574,
      "প্রতিবেদক": 4575,
      "শেদ": 4576,
      "নির্দিষ্ট": 4577,
      "হিন": 4578,
      "যেটা": 4579,
      "যেকোনো": 4580,
      "স্থগিত": 4581,
      "সুন্দ": 4582,
      "সুখবর": 4583,
      "নারীর": 4584,
      "ঙ্গার": 4585,
      "্ডার": 4586,
      "খাত": 4587,
      "খাদ": 4588,
      "ক্রী": 4589,
      "উপদে": 4590,
      "উপায়": 4591,
      "উপযুক্ত": 4592,
      "017": 4593,
      "ট্রেন": 4594,
      "সবচেয়ে": 4595,
      "চেষ্টার": 4596,
      "কর্মীর": 4597,
      "আপলোড": 4598,
      "অনুভূ": 4599,
      "অনুসারে": 4600,
      "েন্দা": 4601,
      "কালের": 4602,
      "বলেই": 4603,
      "চাপা": 4604,
      "চাটমো": 4605,
      "হারে": 4606,
      "হারাম": 4607,
      "গাড়ির": 4608,
      "যুগে": 4609,
      "ফিরিয়ে": 4610,
      "ফিটনে": 4611,
      "২০১২": 4612,
      "২০১৩": 4613,
      "দিয়েছিলেন": 4614,
      "ন্নত": 4615,
      "আইনের": 4616,
      "ক্ষো": 4617,
      "ভেচ্ছা": 4618,
      "শুভেচ্ছা": 4619,
      "ান্তি": 4620,
      "তোফা": 4621,
      "চালায়": 4622,
      "ানো": 4623,
      "ালো": 4624,
      "স্টোরে": 4625,
      "লীল": 4626,
      "অভিযোগ": 4627,
      "রোজা": 4628,
      "ব্যাটিং": 4629,
      "ইসলামী": 4630,
      "ডেক": 4631,
      "ডেমো": 4632,
      "ছিনতাই": 4633,
      "বাসীর": 4634,
      "রাজী": 4635,
      "ফাউন্ডে": 4636,
      "আলবিনে": 4637,
      "আগাম": 4638,
      "মন্ত্রি": 4639,
      "শ্রো": 4640,
      "বৃন্দ": 4641,
      "হেফা": 4642,
      "হেতু": 4643,
      "ষ্টান": 4644,
      "স্বত্": 4645,
      "ব্লি": 4646,
      "পত্রিকা": 4647,
      "এনসিলি": 4648,
      "পূর্ণা": 4649,
      "পূর্বানু": 4650,
      "প্রদায়": 4651,
      "প্রদানের": 4652,
      "ইসলামের": 4653,
      "আদর্শ": 4654,
      "দেখলে": 4655,
      "দেখুন": 4656,
      "any": 4657,
      "an70": 4658,
      "মার্টিন": 4659,
      "ডাই": 4660,
      "ডাটা": 4661,
      "কৃত্রি": 4662,
      "মুখের": 4663,
      "স্বাভাবিক": 4664,
      "নির্বাচনকালীন": 4665,
      "আপনিও": 4666,
      "অ্যাড": 4667,
      "জানানো": 4668,
      "ধাক্": 4669,
      "প্রথমবারের": 4670,
      "উত্তে": 4671,
      "উত্তরা": 4672,
      "চুম্ব": 4673,
      "আওয়ামীলীগ": 4674,
      "কমিশনার": 4675,
      "অর্থনৈতিক": 4676,
      "ধরম": 4677,
      "প্রেমের": 4678,
      "বাড়তি": 4679,
      "টাইগার": 4680,
      "ren": 4681,
      "দায়ী": 4682,
      "পড়ার": 4683,
      "time": 4684,
      "রাখুন": 4685,
      "একাউন্": 4686,
      "নিরী": 4687,
      "নিরপে": 4688,
      "আবারও": 4689,
      "আবারো": 4690,
      "তৈরী": 4691,
      "অভিযোগের": 4692,
      "বাহিরে": 4693,
      "র্তির": 4694,
      "তীত": 4695,
      "বর্ধ": 4696,
      "ভুত": 4697,
      "ভুয়া": 4698,
      "ত্মক": 4699,
      "পার্ট": 4700,
      "পার্টির": 4701,
      "বদলে": 4702,
      "বদন্ত": 4703,
      "বদরুল": 4704,
      "বৈশিষ্ট": 4705,
      "ব্যক্তিদের": 4706,
      "০১৭১১৯": 4707,
      "সন্তানের": 4708,
      "খোঁ": 4709,
      "কৃষক": 4710,
      "129": 4711,
      "ফুলের": 4712,
      "বার্সা": 4713,
      "কার্যকর": 4714,
      "চোখের": 4715,
      "করলেও": 4716,
      "বিরতি": 4717,
      "মিলন": 4718,
      "তুলতে": 4719,
      "পদত্যাগ": 4720,
      "পায়ের": 4721,
      "বাঁধা": 4722,
      "পর্দা": 4723,
      "পত্তি": 4724,
      "৩৫১৯৬": 4725,
      "চট্টগ্রামে": 4726,
      "মনোনয়নপত্র": 4727,
      "rahm": 4728,
      "ফোনে": 4729,
      "নিউজিল": 4730,
      "শাহজালাল": 4731,
      "বক্তব্যে": 4732,
      "পাঁচটি": 4733,
      "ভাঙা": 4734,
      "আশরা": 4735,
      "গ্ধ": 4736,
      "ড্রে": 4737,
      "ভোটের": 4738,
      "সিলভার": 4739,
      "ভ্রাম্য": 4740,
      "স্পর্শ": 4741,
      "ত্রিপুরা": 4742,
      "ইয়াবা": 4743,
      "ট্যাবলে": 4744,
      "দরকার": 4745,
      "দৃশ্য": 4746,
      "সঙ্গত": 4747,
      "বিতর্": 4748,
      "133": 4749,
      "138": 4750,
      "প্যাকেজ": 4751,
      "মসজিদের": 4752,
      "age": 4753,
      "ংসতা": 4754,
      "ঠাণ্ডা": 4755,
      "হ্যাজ": 4756,
      "বাস্তবায়": 4757,
      "প্রবেশের": 4758,
      "গাড়িতে": 4759,
      "ইন্টারনেট": 4760,
      "জায়গা": 4761,
      "পুনরায়": 4762,
      "শহরে": 4763,
      "সত্যি": 4764,
      "ওয়ার্ক": 4765,
      "ওয়ার্ল্ড": 4766,
      "ম্যাচেই": 4767,
      "স্কুলের": 4768,
      "vir": 4769,
      "খ্রিষ্টান": 4770,
      "বগুড়ার": 4771,
      "মনিরুল": 4772,
      "শফিকুল": 4773,
      "141": 4774,
      "প্রশাসন": 4775,
      "অধীনে": 4776,
      "আকসা": 4777,
      "aper": 4778,
      "কাউন্সিল": 4779,
      "ভাষা": 4780,
      "সাংবাদিকদের": 4781,
      "নগরীর": 4782,
      "সফরে": 4783,
      "মাসুম": 4784,
      "কিংবদন্ত": 4785,
      "অভ্যন্তরীন": 4786,
      "মডেলের": 4787,
      "কোম্পানীর": 4788,
      "খন্দকার": 4789,
      "তারেক": 4790,
      "162": 4791,
      "ইকবাল": 4792,
      "প্রস্তাব": 4793,
      "মুজিব": 4794,
      "ছাড়পত্র": 4795,
      "হাইকোর্ট": 4796,
      "হাইকোর্টের": 4797,
      "কম্পিউটারের": 4798,
      "রপ্তানি": 4799,
      "কর্মকাণ্ডের": 4800,
      "ব্রাহ্ম": 4801,
      "ONE": 4802,
      "উপাদান": 4803,
      "ঐতিহাসিক": 4804,
      "ডটকম": 4805,
      "নম্বরের": 4806,
      "বান্ধ": 4807,
      "প্রক্রিয়া": 4808,
      "নাট্য": 4809,
      "হাঁস": 4810,
      "প্লিকেশন": 4811,
      "ফাইনালে": 4812,
      "বৈঠক": 4813,
      "সঙ্গীত": 4814,
      "https": 4815,
      "বিস্ফোরক": 4816,
      "আলাদা": 4817,
      "আস্তে": 4818,
      "ক্যামের": 4819,
      "জহিরুল": 4820,
      "দর্শকদের": 4821,
      "দোকানে": 4822,
      "আলহাজ্ব": 4823,
      "বিদ্যুৎ": 4824,
      "৮৪৩২৩": 4825,
      "PHONE": 4826,
      "Read": 4827,
      "অগ্নি": 4828,
      "মঞ্জুর": 4829,
      "হাওলাদার": 4830,
      "পার্বত্য": 4831,
      "সাম্রাজ্যবাদের": 4832,
      "লেনদেনের": 4833,
      "ences": 4834,
      "মৌলভীবাজার": 4835,
      "স্বীকারোক্তিমূলক": 4836,
      "ferences": 4837,
      "অসুস্থ": 4838,
      "এজেন্ট": 4839,
      "চূড়ান্ত": 4840,
      "পরাজিত": 4841,
      "বিনামূল্যে": 4842,
      "রোজগার": 4843,
      "ব্রুইন": 4844,
      "জরুরি": 4845,
      "ইতিহাসের": 4846,
      "ছুরিকাঘা": 4847,
      "Preferences": 4848,
      "msrahm": 4849,
      "অস্তিত্ব": 4850,
      "আওয়াজ": 4851,
      "উজ্জ্বল": 4852,
      "এএফপি": 4853,
      "চতুর্থ": 4854,
      "শহীদ": 4855,
      "বিপ্লব": 4856,
      "মাদারীপুর": 4857,
      "টাঙ্গাইল": 4858,
      "বারিধারা": 4859,
      "চ্ছুক": 4860,
      "খাগড়াছড়ি": 4861,
      "সরবরাহ": 4862,
      "সূর্য": 4863,
      "উল্লাহ": 4864,
      "মর্যাদা": 4865,
      "উদ্বোধনী": 4866,
      "আর্জেন্টি": 4867,
      "এয়ারলাইন্সের": 4868,
      "জবানবন্দি": 4869,
      "ভয়াবহ": 4870,
      "যথেষ্ট": 4871,
      "স‌চিব": 4872,
      "বিনোদন": 4873,
      "নিলামে": 4874,
      "পর্যালো": 4875,
      "পাবলিক": 4876,
      "কোষ্টাল": 4877,
      "ব্যারিস্টার": 4878,
      "স্বত্বাধিকার": 4879,
      "এনসিলিয়ারী": 4880,
      "পূর্ণাঙ্গ": 4881,
      "পূর্বানুমতি": 4882,
      "কৃত্রিম": 4883,
      "একাউন্ট": 4884,
      "০১৭১১৯৩৫১৯৬": 4885,
      "msrahman70": 4886,
      "''": 4887,
      ")/": 4888,
      "46": 4889,
      "48": 4890,
      "64": 4891,
      "76": 4892,
      "AC": 4893,
      "Co": 4894,
      "De": 4895,
      "KY": 4896,
      "MS": 4897,
      "OM": 4898,
      "SS": 4899,
      "Un": 4900,
      "af": 4901,
      "ay": 4902,
      "ama": 4903,
      "ahm": 4904,
      "cu": 4905,
      "cap": 4906,
      "gin": 4907,
      "ies": 4908,
      "ke": 4909,
      "ow": 4910,
      "tam": 4911,
      "um": 4912,
      "yout": 4913,
      "।\"": 4914,
      "ঁকে": 4915,
      "ঁড়ে": 4916,
      "অবা": 4917,
      "অদি": 4918,
      "অদ্": 4919,
      "অ্যান": 4920,
      "অ্যাম": 4921,
      "অাপ": 4922,
      "অপেশাদার": 4923,
      "অঞ্চলে": 4924,
      "আকার": 4925,
      "আয়া": 4926,
      "আনার": 4927,
      "আশ্": 4928,
      "আলাই": 4929,
      "আছি": 4930,
      "আটকে": 4931,
      "আরিফ": 4932,
      "ইলি": 4933,
      "ইটার": 4934,
      "ইতো": 4935,
      "ইমেইল": 4936,
      "ইয়া": 4937,
      "ইফতার": 4938,
      "উর্": 4939,
      "উজার": 4940,
      "উটের": 4941,
      "এতো": 4942,
      "এভাবে": 4943,
      "এপ্লিকেশন": 4944,
      "ওঠ": 4945,
      "ওষ": 4946,
      "ওসম": 4947,
      "ওঠে": 4948,
      "কং": 4949,
      "কক্ষে": 4950,
      "কণ্": 4951,
      "খী": 4952,
      "গাল": 4953,
      "গলা": 4954,
      "গীর": 4955,
      "গারে": 4956,
      "গড়ার": 4957,
      "ঘ্": 4958,
      "চব্": 4959,
      "চ্যানেল": 4960,
      "ছার": 4961,
      "ছড়িয়ে": 4962,
      "জত": 4963,
      "জর্": 4964,
      "জকি": 4965,
      "জমে": 4966,
      "জোগ": 4967,
      "জসীম": 4968,
      "ঝুল": 4969,
      "টজ": 4970,
      "টার্": 4971,
      "ঠো": 4972,
      "তঃ": 4973,
      "তক": 4974,
      "তরা": 4975,
      "তরের": 4976,
      "তান্ত্রিক": 4977,
      "থির": 4978,
      "ধ্": 4979,
      "নয়": 4980,
      "নষ্ট": 4981,
      "নগ্ন": 4982,
      "পদের": 4983,
      "পদক": 4984,
      "ফটি": 4985,
      "বণ": 4986,
      "বৌ": 4987,
      "বয়ে": 4988,
      "বনের": 4989,
      "বানি": 4990,
      "বধূ": 4991,
      "ভান্ড": 4992,
      "ভার্ড": 4993,
      "মঈ": 4994,
      "মজ": 4995,
      "ময়": 4996,
      "মনের": 4997,
      "মহাম": 4998,
      "রথ": 4999,
      "রূ": 5000,
      "রবী": 5001,
      "লোগ": 5002,
      "শর্": 5003,
      "শ্যাল": 5004,
      "শ্যাম": 5005,
      "ষড়": 5006,
      "সলে": 5007,
      "সজীব": 5008,
      "সভ্য": 5009,
      "হ্য": 5010,
      "হায়": 5011,
      "হচ্ছেন": 5012,
      "হঠা": 5013,
      "াঁ": 5014,
      "াকে": 5015,
      "িটাইম": 5016,
      "ীকে": 5017,
      "ুনে": 5018,
      "ুয়া": 5019,
      "ৃক্ত": 5020,
      "েট": 5021,
      "োজিত": 5022,
      "ড়ো": 5023,
      "ড়ানো": 5024,
      "য়ং": 5025,
      "য়োগ": 5026,
      "০৩১": 5027,
      "১ম": 5028,
      "২৫০": 5029,
      "৬৫": 5030,
      "৭২": 5031,
      "৭৯": 5032,
      "৮০": 5033,
      "’,": 5034,
      "ানায়": 5035,
      "ানিক": 5036,
      "কর্প": 5037,
      "করণের": 5038,
      "্তর": 5039,
      "বিএ": 5040,
      "বিন": 5041,
      "বিলে": 5042,
      "বিআর": 5043,
      "বিদ্র": 5044,
      "বিদেশে": 5045,
      "বিকল্প": 5046,
      "বিনিয়": 5047,
      "বিয়ান": 5048,
      "বিক্ষো": 5049,
      "নিক্ষে": 5050,
      "নিধন": 5051,
      "নিপী": 5052,
      "বাচ্": 5053,
      "বাধ্য": 5054,
      "বাণী": 5055,
      "কেও": 5056,
      "কেটের": 5057,
      "প্রতার": 5058,
      "প্রচল": 5059,
      "প্রকৃতি": 5060,
      "প্রকৌশ": 5061,
      "প্রয়াত": 5062,
      "প্রকৃতির": 5063,
      "প্রয়োগ": 5064,
      "তো": 5065,
      "র্নি": 5066,
      "বেজে": 5067,
      "বেশন": 5068,
      "বেড়াতে": 5069,
      "টিই": 5070,
      "টিকা": 5071,
      "কাপ": 5072,
      "কাকে": 5073,
      "কাব্য": 5074,
      "কাশ্": 5075,
      "কাতর": 5076,
      "লেহে": 5077,
      "নাচ": 5078,
      "নাশ": 5079,
      "নাদি": 5080,
      "নাতদন্ত": 5081,
      "নাসিম": 5082,
      "স্পি": 5083,
      "স্বর": 5084,
      "স্ক্রি": 5085,
      "স্টিং": 5086,
      "স্টিক": 5087,
      "লাতে": 5088,
      "রাজ্জা": 5089,
      "তাও": 5090,
      "তাক": 5091,
      "তাপ": 5092,
      "তাৎ": 5093,
      "দির": 5094,
      "দিবে": 5095,
      "দিকের": 5096,
      "মাদের": 5097,
      "মাদুর": 5098,
      "নেচে": 5099,
      "নেমপ্লে": 5100,
      "্যাট": 5101,
      "দেরও": 5102,
      "কারখানায়": 5103,
      "মিয়ার": 5104,
      "ক্ষিতে": 5105,
      "ুল্লাহ": 5106,
      "সমু": 5107,
      "সমর্": 5108,
      "সম্যান": 5109,
      "সমেন্ট": 5110,
      "সমবায়": 5111,
      "পাঁ": 5112,
      "পাট": 5113,
      "পাশ": 5114,
      "পাকা": 5115,
      "পাইন": 5116,
      "পাওয়ায়": 5117,
      "সিটির": 5118,
      "ভাব্য": 5119,
      "সেদিন": 5120,
      "সেলো": 5121,
      "সেক্টর": 5122,
      "সাঁ": 5123,
      "সাপ": 5124,
      "করেছিলেন": 5125,
      "য়তা": 5126,
      "একু": 5127,
      "একসাথে": 5128,
      "একমাত্র": 5129,
      "িতার": 5130,
      "হাতি": 5131,
      "হাকিম": 5132,
      "হাজতে": 5133,
      "মেসি": 5134,
      "মেশি": 5135,
      "মেমো": 5136,
      "মেহে": 5137,
      "মেইন": 5138,
      "কোথায়": 5139,
      "ষ্ণ": 5140,
      "দ্দি": 5141,
      "িলঃ": 5142,
      "গেম": 5143,
      "গোল": 5144,
      "রেড": 5145,
      "রেডিও": 5146,
      "দেশি": 5147,
      "মানবিক": 5148,
      "িকান": 5149,
      "ব্যয়": 5150,
      "য়ারে": 5151,
      "শিকারি": 5152,
      "সংবিধান": 5153,
      "পরিহার": 5154,
      "জিও": 5155,
      "ভিজি": 5156,
      "লিয়ার": 5157,
      "লিঙ্গ": 5158,
      "মুছে": 5159,
      "মুম্": 5160,
      "পিয়ে": 5161,
      "পিসিপি": 5162,
      "অনার্স": 5163,
      "টেস্ট": 5164,
      "পারছেন": 5165,
      "পারছি": 5166,
      "পারভিন": 5167,
      "রিন": 5168,
      "রিয়াল": 5169,
      "জাকির": 5170,
      "দুজনের": 5171,
      "এইসব": 5172,
      "প্রতিবাদ": 5173,
      "প্রতিবাদে": 5174,
      "বলম্ব": 5175,
      "বললেই": 5176,
      "আরবের": 5177,
      "মোহন": 5178,
      "মোবই": 5179,
      "নির্ধারণ": 5180,
      "চ্ছিলো": 5181,
      "হিরো": 5182,
      "ডিয়াম": 5183,
      "যেকোন": 5184,
      "যেভাবে": 5185,
      "যেহেতু": 5186,
      "শাদ": 5187,
      "সুই": 5188,
      "সুখ": 5189,
      "সুদ": 5190,
      "সুপার": 5191,
      "সুপ্রি": 5192,
      "খাদ্য": 5193,
      "খেয়াল": 5194,
      "ক্রা": 5195,
      "ক্রু": 5196,
      "ট্রাই": 5197,
      "সবু": 5198,
      "পেশ": 5199,
      "পেস্ট": 5200,
      "টারে": 5201,
      "নামাজ": 5202,
      "চেত": 5203,
      "চেঞ্জ": 5204,
      "ছাফা": 5205,
      "কর্মচার": 5206,
      "কর্মীরা": 5207,
      "কর্মরত": 5208,
      "অনুসন্ধান": 5209,
      "েন্সি": 5210,
      "হত্তর": 5211,
      "কালী": 5212,
      "কালিয়া": 5213,
      "সম্ভাবনা": 5214,
      "সম্ভাব্য": 5215,
      "ড়ার": 5216,
      "ত্ত্ব": 5217,
      "সহসভাপতি": 5218,
      "ফিশিং": 5219,
      "ওয়াত": 5220,
      "ভারী": 5221,
      "২০১১": 5222,
      "২০১৯": 5223,
      "আসছেন": 5224,
      "দিয়েই": 5225,
      "চিঠি": 5226,
      "চিহ্": 5227,
      "আইড": 5228,
      "আইডি": 5229,
      "ক্ষেত": 5230,
      "সময়ই": 5231,
      "সময়সূ": 5232,
      "ধারায়": 5233,
      "শ্লীল": 5234,
      "ুলিয়া": 5235,
      "তোলা": 5236,
      "তোমার": 5237,
      "তোমাদের": 5238,
      "চালানের": 5239,
      "ষ্ঠানিক": 5240,
      "ানোর": 5241,
      "স্ট্যা": 5242,
      "ওয়ালট": 5243,
      "অভিযুক্ত": 5244,
      "বুক": 5245,
      "রোডের": 5246,
      "সামনের": 5247,
      "সামগ্রী": 5248,
      "সামান্য": 5249,
      "ঢাকায়": 5250,
      "চার্য": 5251,
      "চলতে": 5252,
      "ডেট": 5253,
      "ডেকে": 5254,
      "ডেলি": 5255,
      "রুট": 5256,
      "রুশ": 5257,
      "বাসার": 5258,
      "কর্তব্য": 5259,
      "নীতির": 5260,
      "ফাইল": 5261,
      "এসপি": 5262,
      "বৃহত্তর": 5263,
      "হোস্টিং": 5264,
      "কিছুক্ষণ": 5265,
      "আমরাও": 5266,
      "হেশ": 5267,
      "ষ্টান্ত": 5268,
      "গোলা": 5269,
      "গোত্র": 5270,
      "জীবি": 5271,
      "প্রায়": 5272,
      "ব্ধ": 5273,
      "সার্চ": 5274,
      "ূলক": 5275,
      "জ্ঞান": 5276,
      "inf": 5277,
      "কুমি": 5278,
      "কুয়া": 5279,
      "ঘটছে": 5280,
      "পূর্বের": 5281,
      "মারওয়া": 5282,
      "সম্পৃক্ত": 5283,
      "সিলেক্ট": 5284,
      "বন্যা": 5285,
      "এখনই": 5286,
      "দেখিয়ে": 5287,
      "ভালু": 5288,
      "পরেই": 5289,
      "পরেও": 5290,
      "বেরিয়ে": 5291,
      "বহুল": 5292,
      "মার্ট": 5293,
      "ল্ট": 5294,
      "গুঁ": 5295,
      "গুগল": 5296,
      "মূলধন": 5297,
      "শোবি": 5298,
      "সালমান": 5299,
      "সাইজের": 5300,
      "টুইটার": 5301,
      "গুলোকে": 5302,
      "অধিদফ": 5303,
      "অধিকাংশ": 5304,
      "আহবান": 5305,
      "আহমাদ": 5306,
      "সূচনা": 5307,
      "অ্যাড্রে": 5308,
      "ম্যাজি": 5309,
      "সোনা": 5310,
      "সোহেল": 5311,
      "সোশ্যাল": 5312,
      "গণফোরাম": 5313,
      "আলোকে": 5314,
      "জাতীয়তা": 5315,
      "উত্তীর্ণ": 5316,
      "আনতে": 5317,
      "মেরিটাইম": 5318,
      "স্থানঃ": 5319,
      "জানাতে": 5320,
      "চুক্তির": 5321,
      "পুরাত": 5322,
      "স্ত্রীর": 5323,
      "ভালোবাসা": 5324,
      "কমিউনি": 5325,
      "পালের": 5326,
      "০১৮": 5327,
      "০১৮৪": 5328,
      "নেতাকর্মী": 5329,
      "ঘাঁ": 5330,
      "ঘাতী": 5331,
      "কাছেও": 5332,
      "করিনি": 5333,
      "প্রেক্ষিতে": 5334,
      "নিহতের": 5335,
      "বাড়ছে": 5336,
      "বাড়িয়ে": 5337,
      "প্রিয়া": 5338,
      "প্রিন্ট": 5339,
      "রাষ্ট্রের": 5340,
      "রাষ্ট্রদূত": 5341,
      "এসেছি": 5342,
      "পড়ল": 5343,
      "পড়েন": 5344,
      "ফ্রান্": 5345,
      "হুদা": 5346,
      "হুমায়": 5347,
      "হরণ": 5348,
      "পাঠিয়ে": 5349,
      "পাঠানোর": 5350,
      "সংবাদদাতা": 5351,
      "দুর্বৃত্ত": 5352,
      "দুর্নীতির": 5353,
      "দশম": 5354,
      "কর্মকর্তাকে": 5355,
      "ম্বা": 5356,
      "বিশেষজ্ঞ": 5357,
      "স্ট্রাই": 5358,
      "হাজারী": 5359,
      "মাত্রার": 5360,
      "ট্টা": 5361,
      "বয়ক": 5362,
      "ফরমে": 5363,
      "তীয়": 5364,
      "তীব্র": 5365,
      "দূরের": 5366,
      "বর্গ": 5367,
      "বর্ধন": 5368,
      "সিংদী": 5369,
      "রেখেছে": 5370,
      "বিশ্ববিদ্যালয়ে": 5371,
      "তৈরির": 5372,
      "বসতে": 5373,
      "ময়নাতদন্ত": 5374,
      "উইন্ড": 5375,
      "আইনজীবী": 5376,
      "কলেজে": 5377,
      "নোটিশ": 5378,
      "নোত্তর": 5379,
      "ঠিকানা": 5380,
      "বদরুলের": 5381,
      "বৈচিত্র": 5382,
      "ব্যাংকিং": 5383,
      "চিকিৎসার": 5384,
      "চৌধুরীর": 5385,
      "ata": 5386,
      "attar": 5387,
      "সিদ্ধার্থ": 5388,
      "খালি": 5389,
      "আগামীকাল": 5390,
      "দক্ষিণে": 5391,
      "উৎসাহ": 5392,
      "অংশগ্রহণ": 5393,
      "পরিশোধপদ্ধতিঃ": 5394,
      "চোখ": 5395,
      "বরাবরে": 5396,
      "মিলিত": 5397,
      "মিলনের": 5398,
      "রেজিষ্ট্রে": 5399,
      "বৃদ্ধা": 5400,
      "গ্রেফতারের": 5401,
      "পদক্ষেপ": 5402,
      "সড়কের": 5403,
      "কারাগারে": 5404,
      "মেয়েকে": 5405,
      "মুক্তিযো": 5406,
      "নিরাপদ": 5407,
      "জীবনে": 5408,
      "এক্সএস": 5409,
      "পর্বের": 5410,
      "৩৫৮৪": 5411,
      "প্রার্থীদের": 5412,
      "আলমগীর": 5413,
      "ক্ষমতায়ন": 5414,
      "আত্মসমর্": 5415,
      "সিরিজে": 5416,
      "বক্তব্যের": 5417,
      "lect": 5418,
      "str": 5419,
      "ভাঙার": 5420,
      "উপস্থিতি": 5421,
      "আশঙ্কা": 5422,
      "ক্যারি": 5423,
      "ভোরে": 5424,
      "ভোকেট": 5425,
      "৩৩৩৯": 5426,
      "যাত্রার": 5427,
      "ট্যাক্স": 5428,
      "ট্যাংকার": 5429,
      "দৃষ্টান্ত": 5430,
      "কার্যালয়ের": 5431,
      "নারীকে": 5432,
      "মাহমুদের": 5433,
      "ited": 5434,
      "পৃথ": 5435,
      "প্যাডে": 5436,
      "বলিউড": 5437,
      "শরণ": 5438,
      "হ্যাঁ": 5439,
      "বাস্তব": 5440,
      "রাশিয়া": 5441,
      "প্লাস": 5442,
      "প্লাস্টিক": 5443,
      "ফেসবুকের": 5444,
      "উঠতে": 5445,
      "চার্জার": 5446,
      "নগরে": 5447,
      "রূপান্তর": 5448,
      "সুরমা": 5449,
      "নির্মাণের": 5450,
      "এলজি": 5451,
      "বগুড়ায়": 5452,
      "লালবাতি": 5453,
      "ব্যক্তিত্ব": 5454,
      "সৈন্য": 5455,
      "সাতক্ষ": 5456,
      "দাঁড়ি": 5457,
      "৯৫৫৩৫৮৪": 5458,
      "আকবর": 5459,
      "পড়তে": 5460,
      "ফারুক": 5461,
      "সময়ের": 5462,
      "ভিয়েতনামে": 5463,
      "চাঁদপুর": 5464,
      "চাঁপাইন": 5465,
      "ব্যবসায়ীরা": 5466,
      "ইলেক": 5467,
      "ডাকাতি": 5468,
      "৩৭১": 5469,
      "চলচ্চিত্রের": 5470,
      "মামুনুল": 5471,
      "উদ্যোক্ত": 5472,
      "আন্দোলনের": 5473,
      "কাগজপত্র": 5474,
      "আবুলের": 5475,
      "ঐক্যবদ্ধ": 5476,
      "খিলক্ষেত": 5477,
      "সফট": 5478,
      "বিসিবি": 5479,
      "মাসুদ": 5480,
      "দুঃখ": 5481,
      "শ্রীল": 5482,
      "মূল্যবান": 5483,
      "শ্রেণির": 5484,
      "রোহিঙ্গাদের": 5485,
      "ক্যাম্পে": 5486,
      "নরসিংদী": 5487,
      "রামগড়": 5488,
      "পরিবারে": 5489,
      "চ্ছিন্ন": 5490,
      "০১৭১১৩৩৩৯": 5491,
      "আওতায়": 5492,
      "সহিহ": 5493,
      "সহিংসতা": 5494,
      "কাঁচা": 5495,
      "পাসপোর্ট": 5496,
      "তারেকের": 5497,
      "যুবলীগ": 5498,
      "সহযোগিতায়": 5499,
      "ফায়ার": 5500,
      "লাগছে": 5501,
      "মুজিবুর": 5502,
      "দ্বীপ": 5503,
      "মৌসুমী": 5504,
      "তৎপর": 5505,
      "নবীগঞ্জ": 5506,
      "গাজীপুর": 5507,
      "গাজীপুরের": 5508,
      "ব্যাটসম্যান": 5509,
      "কলকাতা": 5510,
      "কলকাতার": 5511,
      "ব্রাউজার": 5512,
      "songs": 5513,
      "ঐতিহ্য": 5514,
      "নুরুল": 5515,
      "নম্বরে": 5516,
      "পিতার": 5517,
      "পঞ্চম": 5518,
      "সাক্ষাৎকার": 5519,
      "আনুষ্ঠানিক": 5520,
      "নোয়াখালী": 5521,
      "http": 5522,
      "সাহিত্যিক": 5523,
      "ight": 5524,
      "আঘাত": 5525,
      "পল্লী": 5526,
      "বাঙালি": 5527,
      "সিনেমা": 5528,
      "ব্যবধানে": 5529,
      "ইউপিডি": 5530,
      "হরতালের": 5531,
      "প্রাপ্তিস্থানঃ": 5532,
      "ধারাবাহিকতা": 5533,
      "link": 5534,
      "আদিবাসী": 5535,
      "কষ্টের": 5536,
      "নান্টু": 5537,
      "বিবৃতি": 5538,
      "প্রত্যক্ষ": 5539,
      "কার্ট": 5540,
      "মিনারেল": 5541,
      "সিভিল": 5542,
      "সহজেই": 5543,
      "কমপ্লেক্স": 5544,
      "ডাক্তারের": 5545,
      "১৯৯০": 5546,
      "প্রশাসনের": 5547,
      "অনিচ্ছুক": 5548,
      "বস্তু": 5549,
      "পায়ূ": 5550,
      "মেগাহার্": 5551,
      "ডিএসই": 5552,
      "হোসেন": 5553,
      "অ্যাকাউন্ট": 5554,
      "tits": 5555,
      "নেতৃবৃন্দ": 5556,
      "পৃষ্ঠা": 5557,
      "জার্মানির": 5558,
      "টেলিভিশন": 5559,
      "খেলোয়াড়": 5560,
      "cns": 5561,
      "আক্রাম": 5562,
      "ডোমেইন": 5563,
      "শমসের": 5564,
      "বিপরীতে": 5565,
      "দিল্লি": 5566,
      "সিস্টেম": 5567,
      "সেক্রেটারি": 5568,
      "স্ট্যান্ডার্ড": 5569,
      "চলনবিল": 5570,
      "ইস্যুতে": 5571,
      "নিশ্চয়ই": 5572,
      "উৎপাদন": 5573,
      "জিম্বাবুয়ে": 5574,
      "অবরোধ": 5575,
      "আর্থিক": 5576,
      "ঘুরে": 5577,
      "ঠান্ডা": 5578,
      "তৃতীয়": 5579,
      "সান্ধ্য": 5580,
      "ব্যতিক্রম": 5581,
      "জিজ্ঞাসা": 5582,
      "জানুয়ারী": 5583,
      "জায়গা": 5584,
      "সুন্দরী": 5585,
      "উপদেষ্টা": 5586,
      "ফিটনেস": 5587,
      "ডেমোক্রে": 5588,
      "নিরপেক্ষ": 5589,
      "বৈশিষ্ট্য": 5590,
      "কাউন্সিলর": 5591,
      "ব্রাহ্মণ": 5592,
      "PHONEKY": 5593,
      "tamil": 5594,
      "youtu": 5595,
      "অদ্ভুত": 5596,
      "ওষু": 5597,
      "ওসমানী": 5598,
      "চব্বিশ": 5599,
      "জকিগঞ্জ": 5600,
      "জসীমউদ্দীন": 5601,
      "ভান্ডার": 5602,
      "রবীন্দ্র": 5603,
      "ষড়যন্ত্র": 5604,
      "হঠাৎ": 5605,
      "বিনিয়োগ": 5606,
      "নিক্ষেপের": 5607,
      "প্রচলিত": 5608,
      "প্রকৌশলী": 5609,
      "মুম্বাই": 5610,
      "মোবইিলঃ": 5611,
      "সুপ্রিম": 5612,
      "কালিয়াক": 5613,
      "পুরাতন": 5614,
      "দুর্বৃত্তরা": 5615,
      "রেজিষ্ট্রেশন": 5616,
      "চাঁপাইনবাবগঞ্জ": 5617,
      "০১৭১১৩৩৩৯৮১": 5618,
      ")-": 5619,
      "0m": 5620,
      "112": 5621,
      "25": 5622,
      "60": 5623,
      "80": 5624,
      "83": 5625,
      "85": 5626,
      "90": 5627,
      "92": 5628,
      "Add": 5629,
      "COM": 5630,
      "Data": 5631,
      "IC": 5632,
      "IN": 5633,
      "Ma": 5634,
      "Pr": 5635,
      "Pro": 5636,
      "SY": 5637,
      "Saf": 5638,
      "Th": 5639,
      "Win": 5640,
      "ac": 5641,
      "bad": 5642,
      "bun": 5643,
      "boo": 5644,
      "con": 5645,
      "cha": 5646,
      "ction": 5647,
      "du": 5648,
      "des": 5649,
      "day": 5650,
      "ea": 5651,
      "fa": 5652,
      "four": 5653,
      "ge": 5654,
      "gh": 5655,
      "gu": 5656,
      "gal": 5657,
      "ipping": 5658,
      "kal": 5659,
      "ly": 5660,
      "mo": 5661,
      "mov": 5662,
      "pu": 5663,
      "por": 5664,
      "qu": 5665,
      "sw": 5666,
      "une": 5667,
      "xx": 5668,
      "ya": 5669,
      "।'": 5670,
      "অন্ধ": 5671,
      "অভাবে": 5672,
      "অরু": 5673,
      "অষ্ট": 5674,
      "অত্যা": 5675,
      "অস্বীকার": 5676,
      "অংশে": 5677,
      "অসহায়": 5678,
      "অপরিহার": 5679,
      "অশ্লীল": 5680,
      "আত": 5681,
      "আধ": 5682,
      "আলি": 5683,
      "আগ্র": 5684,
      "আজা": 5685,
      "আঁচ": 5686,
      "আড়াই": 5687,
      "আন্ডার": 5688,
      "ইভ": 5689,
      "ইনি": 5690,
      "ইহা": 5691,
      "ইমে": 5692,
      "ইভি": 5693,
      "ইভে": 5694,
      "ইন্ড": 5695,
      "ইঙ্ক": 5696,
      "ঈদে": 5697,
      "ঈদের": 5698,
      "এন্": 5699,
      "এদিন": 5700,
      "এবারের": 5701,
      "এভাবেই": 5702,
      "এড়াতে": 5703,
      "এগিয়ে": 5704,
      "এএসপি": 5705,
      "ওনা": 5706,
      "ওরা": 5707,
      "ওদের": 5708,
      "ওলার": 5709,
      "ওঠা": 5710,
      "ওসমান": 5711,
      "ওভারে": 5712,
      "কই": 5713,
      "কুল": 5714,
      "কব্": 5715,
      "কানো": 5716,
      "কথিত": 5717,
      "খস": 5718,
      "খুন": 5719,
      "খ্যান": 5720,
      "গঙ্গ": 5721,
      "গরু": 5722,
      "গানের": 5723,
      "গানি": 5724,
      "গলায়": 5725,
      "গার্ড": 5726,
      "ঘে": 5727,
      "ঘবদ্ধ": 5728,
      "ঘ্রা": 5729,
      "ঙঘবদ্ধ": 5730,
      "চকে": 5731,
      "চিক": 5732,
      "চনায়": 5733,
      "চোট": 5734,
      "চত্ব": 5735,
      "চ্যু": 5736,
      "ছো": 5737,
      "ছায়": 5738,
      "ছানা": 5739,
      "ছহী": 5740,
      "জং": 5741,
      "জব": 5742,
      "জড়": 5743,
      "জদার": 5744,
      "জড়িয়ে": 5745,
      "জব্ব": 5746,
      "টুল": 5747,
      "টনের": 5748,
      "টানের": 5749,
      "টেন্ট": 5750,
      "টর্নি": 5751,
      "ডোন": 5752,
      "ঢুক": 5753,
      "ণায়": 5754,
      "তথা": 5755,
      "তালে": 5756,
      "থের": 5757,
      "থার্": 5758,
      "দহ": 5759,
      "দনের": 5760,
      "দর্শ": 5761,
      "দর্শন": 5762,
      "দফায়": 5763,
      "ধী": 5764,
      "ধায়": 5765,
      "ধরিয়ে": 5766,
      "নই": 5767,
      "নট": 5768,
      "নয়া": 5769,
      "নৃত": 5770,
      "নবীর": 5771,
      "নবাবগঞ্জ": 5772,
      "পঃ": 5773,
      "পস": 5774,
      "পনি": 5775,
      "পলা": 5776,
      "পলি": 5777,
      "প্প": 5778,
      "পীর": 5779,
      "পঞ্": 5780,
      "পড়া": 5781,
      "প্যান্": 5782,
      "ফট": 5783,
      "ফয়": 5784,
      "ফার্": 5785,
      "ফরে": 5786,
      "ফজল": 5787,
      "বউ": 5788,
      "বট": 5789,
      "বহি": 5790,
      "বহার": 5791,
      "বসের": 5792,
      "বস্ত্র": 5793,
      "বয়ো": 5794,
      "বতী": 5795,
      "ভৈর": 5796,
      "ভালো": 5797,
      "ভর্তির": 5798,
      "মম": 5799,
      "মঞ্": 5800,
      "মজু": 5801,
      "মজুম": 5802,
      "মহেশ": 5803,
      "যানে": 5804,
      "যরত": 5805,
      "রয়": 5806,
      "ররা": 5807,
      "রঙ্গ": 5808,
      "রানী": 5809,
      "রিলি": 5810,
      "লক্ষে": 5811,
      "লন্ড": 5812,
      "লম্বা": 5813,
      "ষষ্ঠ": 5814,
      "সঃ": 5815,
      "সল": 5816,
      "স্র": 5817,
      "সকলে": 5818,
      "সঙঘবদ্ধ": 5819,
      "হরা": 5820,
      "হুল": 5821,
      "হলি": 5822,
      "হরি": 5823,
      "হবেন": 5824,
      "হযরত": 5825,
      "াণ": 5826,
      "াদের": 5827,
      "াক্ত": 5828,
      "াগা": 5829,
      "াবলী": 5830,
      "িস": 5831,
      "িকে": 5832,
      "ীকার": 5833,
      "ুম": 5834,
      "ুকেট": 5835,
      "ুজ্জামান": 5836,
      "ূন": 5837,
      "ৈধ": 5838,
      "োপ": 5839,
      "্টি": 5840,
      "্মেল": 5841,
      "্গুন": 5842,
      "ৎসর": 5843,
      "ড়ী": 5844,
      "ড়তে": 5845,
      "০৬": 5846,
      "০৯": 5847,
      "০৯৬": 5848,
      "২টি": 5849,
      "২১৫": 5850,
      "৩য়": 5851,
      "৪১": 5852,
      "৪০০": 5853,
      "৪০০০": 5854,
      "৫০০০": 5855,
      "৬৪": 5856,
      "৬৯": 5857,
      "৬টা": 5858,
      "৬০০": 5859,
      "৭৭": 5860,
      "৭০০০": 5861,
      "৮ম": 5862,
      "৯৮": 5863,
      "‍‌": 5864,
      "‘‘": 5865,
      "”।": 5866,
      "্রু": 5867,
      "ানন্দ": 5868,
      "করত": 5869,
      "করছিলেন": 5870,
      "করুণ": 5871,
      "বিপ": 5872,
      "বিনি": 5873,
      "বিরা": 5874,
      "বিয়া": 5875,
      "বিয়ার": 5876,
      "বিডি": 5877,
      "বিকাল": 5878,
      "বিহার": 5879,
      "বিশ্র": 5880,
      "বিবাহ": 5881,
      "বিনিম": 5882,
      "বিরো": 5883,
      "বিঘ্": 5884,
      "বিআইড": 5885,
      "বিচ্ছিন্ন": 5886,
      "নিঃ": 5887,
      "নিউ": 5888,
      "নিকে": 5889,
      "নিটি": 5890,
      "নিবেদন": 5891,
      "নিবন্ধন": 5892,
      "বাচ": 5893,
      "বাজা": 5894,
      "বাদা": 5895,
      "বাঙ্গ": 5896,
      "বাপের": 5897,
      "বাবুল": 5898,
      "বাবদ": 5899,
      "বাহিত": 5900,
      "কেশ": 5901,
      "কো": 5902,
      "কোন": 5903,
      "কেউই": 5904,
      "কোনো": 5905,
      "প্রকার": 5906,
      "প্রভা": 5907,
      "প্রবন্ধ": 5908,
      "প্রয়ো": 5909,
      "প্রযো": 5910,
      "প্রসঙ্গত": 5911,
      "াল্ড": 5912,
      "ালাই": 5913,
      "র্কম": 5914,
      "র্ভুক্ত": 5915,
      "বো": 5916,
      "বেড়ে": 5917,
      "বেতন": 5918,
      "টিল": 5919,
      "টিসি": 5920,
      "কাট": 5921,
      "কাহি": 5922,
      "কাছা": 5923,
      "কাছি": 5924,
      "লেগেছে": 5925,
      "লোক": 5926,
      "নাজি": 5927,
      "স্পা": 5928,
      "স্মর": 5929,
      "স্কৃতিক": 5930,
      "স্মার্ট": 5931,
      "লাশের": 5932,
      "রাও": 5933,
      "রাকি": 5934,
      "রাখে": 5935,
      "রাশেদ": 5936,
      "তাফ": 5937,
      "পরই": 5938,
      "পরও": 5939,
      "দিয়া": 5940,
      "দিখান": 5941,
      "দিচ্ছি": 5942,
      "দেয়া": 5943,
      "দেহের": 5944,
      "মাথা": 5945,
      "মাইল": 5946,
      "ন্সি": 5947,
      "ন্ডি": 5948,
      "কারনে": 5949,
      "কার্স": 5950,
      "ুরিয়া": 5951,
      "মিং": 5952,
      "মিশ": 5953,
      "মিজান": 5954,
      "মিরাজ": 5955,
      "মিতু": 5956,
      "মিষ্টি": 5957,
      "মিশিয়ে": 5958,
      "ক্ষি": 5959,
      "ক্ষুদ্র": 5960,
      "সমী": 5961,
      "সম্ম": 5962,
      "সমক্ষে": 5963,
      "পাতে": 5964,
      "পাস্তা": 5965,
      "পাড়ার": 5966,
      "পাবলি": 5967,
      "পাছায়": 5968,
      "সিয়ে": 5969,
      "সিম্": 5970,
      "সিদ্দি": 5971,
      "সিজদার": 5972,
      "সেলের": 5973,
      "সেলিম": 5974,
      "জনসভায়": 5975,
      "সাক": 5976,
      "সাক্ষ": 5977,
      "সাভার": 5978,
      "সাধার": 5979,
      "কিনা": 5980,
      "য়তপুর": 5981,
      "য়েন্দা": 5982,
      "টাকে": 5983,
      "টাফরে": 5984,
      "হাব": 5985,
      "হাটে": 5986,
      "মেলার": 5987,
      "মেটাতে": 5988,
      "ার্ক": 5989,
      "থাকল": 5990,
      "কোড": 5991,
      "কোষ": 5992,
      "ঙ্কার": 5993,
      "ঙ্ঘন": 5994,
      "দেশী": 5995,
      "দেশজুড়ে": 5996,
      "মানী": 5997,
      "িকভাবে": 5998,
      "ব্যয়": 5999,
      "ব্যাল": 6000,
      "ব্যর্থ": 6001,
      "শিপিং": 6002,
      "সংক্র": 6003,
      "সংযুক্ত": 6004,
      "সংসর্": 6005,
      "সংবাদে": 6006,
      "সংবাদের": 6007,
      "সংগী": 6008,
      "পরিধান": 6009,
      "পরিবহ": 6010,
      "পরিমাণ": 6011,
      "পরিষ্কার": 6012,
      "পরিবেশন": 6013,
      "জিয়াম": 6014,
      "লিশ": 6015,
      "লিপি": 6016,
      "ক্তন": 6017,
      "যাজক": 6018,
      "মুরা": 6019,
      "মুশফিক": 6020,
      "মুন্না": 6021,
      "মুন্সি": 6022,
      "হয়েছি": 6023,
      "হয়েছিলেন": 6024,
      "পিএস": 6025,
      "টেবল": 6026,
      "স্তফা": 6027,
      "জানালে": 6028,
      "জানালা": 6029,
      "পারমাণ": 6030,
      "রিকা": 6031,
      "রিয়ার": 6032,
      "জাহ": 6033,
      "জাহি": 6034,
      "দুস": 6035,
      "দুটির": 6036,
      "দুদক": 6037,
      "দুটো": 6038,
      "দুশ্চি": 6039,
      "প্রতিযোগ": 6040,
      "প্রতিক্রি": 6041,
      "প্রতিবছর": 6042,
      "প্রতিফল": 6043,
      "প্রতিযোগি": 6044,
      "দাই": 6045,
      "দাবা": 6046,
      "দাওয়া": 6047,
      "দাদুল": 6048,
      "দাঙ্গা": 6049,
      "দাফন": 6050,
      "বলার": 6051,
      "বললে": 6052,
      "বলছে": 6053,
      "মোড়": 6054,
      "মোটা": 6055,
      "মোহাম": 6056,
      "মোজাম": 6057,
      "মোতায়": 6058,
      "মোমিন": 6059,
      "মোস্তফা": 6060,
      "চ্ছিলেন": 6061,
      "হিউ": 6062,
      "ডিফ": 6063,
      "ডিম": 6064,
      "যেটি": 6065,
      "জন্যই": 6066,
      "শাকি": 6067,
      "স্থির": 6068,
      "সুপারি": 6069,
      "সুযোগ্য": 6070,
      "সুন্না": 6071,
      "এরই": 6072,
      "এরশাদ": 6073,
      "খেয়ে": 6074,
      "খেসার": 6075,
      "ক্রয়": 6076,
      "ক্রমে": 6077,
      "ট্রন": 6078,
      "ট্রেড": 6079,
      "সবজি": 6080,
      "করতেই": 6081,
      "লোয়ার": 6082,
      "পেল": 6083,
      "পেপার": 6084,
      "টারী": 6085,
      "টারের": 6086,
      "নামার": 6087,
      "নামছে": 6088,
      "চেপে": 6089,
      "ছাপ": 6090,
      "কর্মের": 6091,
      "অনুভব": 6092,
      "েন্সের": 6093,
      "হতো": 6094,
      "বলেছি": 6095,
      "্যানে": 6096,
      "দোয়ার": 6097,
      "দোহার": 6098,
      "সম্মুখ": 6099,
      "গাং": 6100,
      "গাহ": 6101,
      "ত্তা": 6102,
      "সহ্য": 6103,
      "সহকারে": 6104,
      "ফিট": 6105,
      "ইলম": 6106,
      "আসনের": 6107,
      "দিয়েছি": 6108,
      "য়েড": 6109,
      "আইটি": 6110,
      "আইজু": 6111,
      "ভেজ": 6112,
      "ভেল": 6113,
      "ভেঙ্গে": 6114,
      "শুটিং": 6115,
      "ান্তা": 6116,
      "অবৈধ": 6117,
      "মধ্যেও": 6118,
      "োনো": 6119,
      "তোমরা": 6120,
      "চালুর": 6121,
      "চালানোর": 6122,
      "লাইনের": 6123,
      "ীনগর": 6124,
      "স্টক": 6125,
      "স্ট্যাম্প": 6126,
      "ওয়্যার": 6127,
      "অভিভাব": 6128,
      "জেলায়": 6129,
      "লামা": 6130,
      "বুথ": 6131,
      "ফোন": 6132,
      "রোগে": 6133,
      "ব্যাটারি": 6134,
      "ঞ্জের": 6135,
      "ঞ্জাম": 6136,
      "দলিল": 6137,
      "চারপাশে": 6138,
      "ছিলে": 6139,
      "বাসস": 6140,
      "রাজ্য": 6141,
      "রাজ্যের": 6142,
      "রাজবাড়ী": 6143,
      "নীল": 6144,
      "নীয়": 6145,
      "নীচের": 6146,
      "আল্": 6147,
      "আলুর": 6148,
      "আলীর": 6149,
      "আল্লাহ": 6150,
      "আলতাফ": 6151,
      "আগষ্ট": 6152,
      "অনেকের": 6153,
      "বৃটিশ": 6154,
      "বৃষ্টির": 6155,
      "হোটে": 6156,
      "কিছুদিন": 6157,
      "কিছুতেই": 6158,
      "জেরি": 6159,
      "জুয়েল": 6160,
      "হেঁটে": 6161,
      "দারুণ": 6162,
      "পোষ": 6163,
      "গোপনে": 6164,
      "গোয়েন্দা": 6165,
      "অর্জনের": 6166,
      "প্রাণি": 6167,
      "প্রাইভে": 6168,
      "প্রাক্তন": 6169,
      "গঞ্জের": 6170,
      "পুলিশে": 6171,
      "ব্দ": 6172,
      "ব্বির": 6173,
      "সার্টিফি": 6174,
      "ূলুল্লাহ": 6175,
      "ind": 6176,
      "কুম": 6177,
      "কুপিয়ে": 6178,
      "ইউনাই": 6179,
      "উদ্দেশে": 6180,
      "উদ্বেগ": 6181,
      "বোলিং": 6182,
      "এনসি": 6183,
      "সভায়": 6184,
      "হলেই": 6185,
      "থাকবেন": 6186,
      "বিশ্বব্যাপী": 6187,
      "প্রকাশ্যে": 6188,
      "আজবে": 6189,
      "আজকাল": 6190,
      "আজমল": 6191,
      "ইনস্টি": 6192,
      "ইসলামকে": 6193,
      "সম্পাদিত": 6194,
      "বন্য": 6195,
      "টাকায়": 6196,
      "১০টি": 6197,
      "দেখবেন": 6198,
      "গুহ": 6199,
      "গুলে": 6200,
      "শোভা": 6201,
      "সালমা": 6202,
      "স্বাগত": 6203,
      "স্বাক্ষর": 6204,
      "সাইফুল": 6205,
      "টুলা": 6206,
      "বিদায়": 6207,
      "বাইরের": 6208,
      "অধিবেশ": 6209,
      "ধুলা": 6210,
      "আহমে": 6211,
      "পরিচালনার": 6212,
      "অ্যাটর্নি": 6213,
      "ম্যাগ": 6214,
      "ধাপ": 6215,
      "সোহরা": 6216,
      "হত্যাচেষ্টা": 6217,
      "হত্যাকাণ্ড": 6218,
      "গণমাধ্যম": 6219,
      "গণতান্ত্রিক": 6220,
      "প্রথমবার": 6221,
      "জামায়া": 6222,
      "আলোচিত": 6223,
      "আনন্দের": 6224,
      "মেরিন": 6225,
      "গিয়েছে": 6226,
      "ছাড়াই": 6227,
      "থিন": 6228,
      "গ্রহণে": 6229,
      "হোসেনকে": 6230,
      "পুত্র": 6231,
      "ভালোভাবে": 6232,
      "ভালোবাস": 6233,
      "omi": 6234,
      "ঘাত": 6235,
      "অর্থমন্ত্রী": 6236,
      "ধরার": 6237,
      "ত্বকের": 6238,
      "শালা": 6239,
      "রাষ্ট্রীয়": 6240,
      "টাইপ": 6241,
      "কর্মকর্তার": 6242,
      "rect": 6243,
      "ধরেই": 6244,
      "যৌনকর্মীর": 6245,
      "পড়ুন": 6246,
      "ফ্রন্": 6247,
      "ফ্রস্ট": 6248,
      "লক্ষী": 6249,
      "দেশেই": 6250,
      "উন্নয়": 6251,
      "অনুষ্ঠানের": 6252,
      "বানিয়ে": 6253,
      "বানানোর": 6254,
      "১২৩৮": 6255,
      "পাঠা": 6256,
      "সমাজের": 6257,
      "সমাবেশে": 6258,
      "ঠেকাতে": 6259,
      "দশকের": 6260,
      "বিমানে": 6261,
      "ধর্মের": 6262,
      "১৫২১৫": 6263,
      "কয়েকদিন": 6264,
      "ম্ভ": 6265,
      "ঘটনাস্থ": 6266,
      "ভূত": 6267,
      "কামনা": 6268,
      "কামরুল": 6269,
      "খানকার": 6270,
      "কনটেন্ট": 6271,
      "বয়সের": 6272,
      "oun": 6273,
      "অফিসে": 6274,
      "গঠনের": 6275,
      "দপ্তর": 6276,
      "চৌদি": 6277,
      "তীর্থ": 6278,
      "বর্জন": 6279,
      "বর্ডার": 6280,
      "রেখেছেন": 6281,
      "সম্পর্কের": 6282,
      "উন্মো": 6283,
      "উন্মুক্ত": 6284,
      "কেনা": 6285,
      "বসত": 6286,
      "ব্যবস্থাপক": 6287,
      "উইলি": 6288,
      "লেখায়": 6289,
      "কেন্দ্রীয়": 6290,
      "ত্‍‌": 6291,
      "কবিতার": 6292,
      "ঘোষিত": 6293,
      "পার্টি": 6294,
      "তুলেছে": 6295,
      "তুলেছেন": 6296,
      "ইঞ্জিন": 6297,
      "দেখেছি": 6298,
      "চীনা": 6299,
      "ভাইরাস": 6300,
      "ed19": 6301,
      "উল্টে": 6302,
      "খালেদার": 6303,
      "ari": 6304,
      "খালা": 6305,
      "খ্যাঃ": 6306,
      "পণ্যের": 6307,
      "কোর্ট": 6308,
      "আগামীতে": 6309,
      "ব্লকের": 6310,
      "পদ্ধতিতে": 6311,
      "উৎস": 6312,
      "ন্দর্য": 6313,
      "অতিথির": 6314,
      "১৪১": 6315,
      "১৪৩": 6316,
      "্যারো": 6317,
      "মাঝারি": 6318,
      "কল্পনা": 6319,
      "121": 6320,
      "ades": 6321,
      "বার্সেলো": 6322,
      "মৌখিক": 6323,
      "স্টেশন": 6324,
      "স্টেডিয়াম": 6325,
      "ভবনটি": 6326,
      "মন্দিরে": 6327,
      "রেজিস্ট্র": 6328,
      "জাহাজে": 6329,
      "পথচার": 6330,
      "সড়কে": 6331,
      "কারাগার": 6332,
      "কারাদণ্ড": 6333,
      "আরোপ": 6334,
      "বুঝি": 6335,
      "উপরের": 6336,
      "টেনে": 6337,
      "বাঁশ": 6338,
      "বাঁচার": 6339,
      "বাঁড়ার": 6340,
      "হিসাবের": 6341,
      "এতদিন": 6342,
      "এক্সচেঞ্জ": 6343,
      "তখনই": 6344,
      "পর্বে": 6345,
      "শ্রেণী": 6346,
      "সর্বত্র": 6347,
      "113": 6348,
      "115": 6349,
      "117": 6350,
      "আত্মহত্যা": 6351,
      "আত্মঘাতী": 6352,
      "দুরূ": 6353,
      "মুক্তির": 6354,
      "গ্রুপে": 6355,
      "বাসীকে": 6356,
      "অন্তর": 6357,
      "ভাঙতে": 6358,
      "গেলেও": 6359,
      "নির্দেশনা": 6360,
      "নাইদহ": 6361,
      "চ্ছাসে": 6362,
      "নীতিমালা": 6363,
      "চুক্তিতে": 6364,
      "মালিকদের": 6365,
      "প্রতিষ্ঠানটি": 6366,
      "নাগরিককে": 6367,
      "নাগরিকদের": 6368,
      "104": 6369,
      "যাত্রায়": 6370,
      "যাত্রীদের": 6371,
      "স্বীকৃতি": 6372,
      "গবেষণায়": 6373,
      "ইয়াসিন": 6374,
      "দৃঢ়": 6375,
      "বুরহান": 6376,
      "সৌন্দর্য": 6377,
      "২৭৮৭": 6378,
      "ক্লাব": 6379,
      "ম্যাচের": 6380,
      "এডুকেট": 6381,
      "চায়না": 6382,
      "প্যাড": 6383,
      "প্রত্যাশ": 6384,
      "প্রত্যাশী": 6385,
      "পাখিশিকারি": 6386,
      "২০০৬": 6387,
      "২০০৮": 6388,
      "অপরাধে": 6389,
      "agra": 6390,
      "আর্ন": 6391,
      "কতটা": 6392,
      "দণ্ডের": 6393,
      "বাস্তবে": 6394,
      "বাস্তবায়ন": 6395,
      "মিডিয়া": 6396,
      "মুসল": 6397,
      "উঠবে": 6398,
      "চার্জ": 6399,
      "পুনঃ": 6400,
      "ভরসা": 6401,
      "২৬৯৯": 6402,
      "প্রমাণিত": 6403,
      "আনন্দবাজার": 6404,
      "কলেজছাত্রী": 6405,
      "সন্তানকে": 6406,
      "সংঘর্ষের": 6407,
      "চামড়া": 6408,
      "তৃপ্তি": 6409,
      "নানাবিধ": 6410,
      "বাণিজ্যে": 6411,
      "লাভের": 6412,
      "মিথিলার": 6413,
      "মৃত্যুদণ্ড": 6414,
      "140": 6415,
      "একেএম": 6416,
      "একেবারে": 6417,
      "নথিপত্র": 6418,
      "নিয়মিত": 6419,
      "নিয়ন্ত্রণ": 6420,
      "প্রশাসক": 6421,
      "র্কতাদের": 6422,
      "দাঁড়া": 6423,
      "দাঁড়িয়ে": 6424,
      "পূরণে": 6425,
      "৯৫৫২৬৯৯": 6426,
      "বন্দী": 6427,
      "রবিউল": 6428,
      "সুলতান": 6429,
      "তারপরও": 6430,
      "ভিয়েতনাম": 6431,
      "ফাঁস": 6432,
      "সন্ধ্যায়": 6433,
      "ফ্লাইটটি": 6434,
      "কাগজহীন": 6435,
      "ওয়েস্ট": 6436,
      "গ্রাহক": 6437,
      "গ্রাহকের": 6438,
      "ইন্সটাফরে": 6439,
      "করপোরেশন": 6440,
      "ক্যাম্পের": 6441,
      "নূরুল": 6442,
      "শৃং": 6443,
      "শব্দে": 6444,
      "কর্ণ": 6445,
      "তালিকাভুক্ত": 6446,
      "সন্ত্রাস": 6447,
      "কান্দা": 6448,
      "শরীয়তপুর": 6449,
      "কায়দায়": 6450,
      "মানেই": 6451,
      "মানিকগঞ্জ": 6452,
      "মানিকছড়ি": 6453,
      "জাতিসংঘ": 6454,
      "বোর্ডের": 6455,
      "বিশ্বকাপের": 6456,
      "ফ্রিজ": 6457,
      "152": 6458,
      "ঘুমর": 6459,
      "ঘন্টা": 6460,
      "দৌল": 6461,
      "ভক্তদের": 6462,
      "প্রস্তাবের": 6463,
      "ক্ষতিগ্রস্ত": 6464,
      "সিলিন্ডার": 6465,
      "সিডিসি": 6466,
      "মুদ্রা": 6467,
      "ট্রাকের": 6468,
      "স্বপ্নের": 6469,
      "সম্পাদনের": 6470,
      "সালাউদ্দিন": 6471,
      "আলোচনার": 6472,
      "নেতাকর্মীরা": 6473,
      "একাধিকবার": 6474,
      "দ্বীপে": 6475,
      "দ্বীপের": 6476,
      "গৃহকর্ত": 6477,
      "সংখ্যক": 6478,
      "direct": 6479,
      "এশিয়া": 6480,
      "এশিয়ান": 6481,
      "ভ্যাট": 6482,
      "মর্গে": 6483,
      "জিতেছে": 6484,
      "জাতক": 6485,
      "আমেরিকান": 6486,
      "মনোযোগ": 6487,
      "েন্টিফোর": 6488,
      "শান্তিপূর্ণ": 6489,
      "ঈদগাহ": 6490,
      "প্রক্রিয়ায়": 6491,
      "প্রভাবশালী": 6492,
      "কোরবান": 6493,
      "সংকট": 6494,
      "দাখিলের": 6495,
      "আমলকি": 6496,
      "ইউনিটের": 6497,
      "নোয়াখালীর": 6498,
      "বৈঠকে": 6499,
      "ইছলামের": 6500,
      "আজিজুল": 6501,
      "কন্ঠ": 6502,
      "ক্যামেরা": 6503,
      "গরিব": 6504,
      "বাঙালী": 6505,
      "প্রেরণ": 6506,
      "প্রেরণা": 6507,
      "পাহাড়ের": 6508,
      "সাংস্কৃতিক": 6509,
      "মান্নান": 6510,
      "দোকানের": 6511,
      "সহায়তায়": 6512,
      "আলহাজ": 6513,
      "গোলাপফুলের": 6514,
      "মারাত্মক": 6515,
      "৮৪৩২০": 6516,
      "SIM": 6517,
      "TER": 6518,
      "আয়োজনে": 6519,
      "ঝাঁকে": 6520,
      "পয়েন্ট": 6521,
      "শক্তিশালী": 6522,
      "সেন্টমার্টিন": 6523,
      "৫৮৯৫": 6524,
      "বিবৃতিতে": 6525,
      "তাড়াহু": 6526,
      "সিরাজদিখান": 6527,
      "ব্যানার": 6528,
      "পিছনে": 6529,
      "কমপ্লেক্সে": 6530,
      "রাষ্ট্রপতির": 6531,
      "মাহবুব": 6532,
      "ড্রাইভারদের": 6533,
      "ists": 6534,
      "suahm": 6535,
      "জ্যেষ্ঠ": 6536,
      "হইবে": 6537,
      "বিতরণ": 6538,
      "প্রত্যেকের": 6539,
      "নাগাদ": 6540,
      "পাবনা": 6541,
      "সাগরে": 6542,
      "সাগরের": 6543,
      "সাবধান": 6544,
      "শিখতে": 6545,
      "যাঁদের": 6546,
      "মুসাকে": 6547,
      "ভারসাম্য": 6548,
      "ভারসাম্যে": 6549,
      "ব্রোওলার": 6550,
      "সর্বাধুনিক": 6551,
      "বিমানবন্দরে": 6552,
      "বিমানবন্দরের": 6553,
      "পরীক্ষার্থীদের": 6554,
      "সন্তোষজনক": 6555,
      "বন্দুকযুদ্ধে": 6556,
      "free": 6557,
      "কমান্ডার": 6558,
      "খামারে": 6559,
      "চর্চা": 6560,
      "দখল": 6561,
      "পদ্মা": 6562,
      "শত্রু": 6563,
      "০১৯১২৩৮": 6564,
      "তেজগাঁও": 6565,
      "স্কোয়া": 6566,
      "সাকিব": 6567,
      "জান্নাত": 6568,
      "জানালেন": 6569,
      "খাদিজা": 6570,
      "অবহেলা": 6571,
      "বুর্জ": 6572,
      "দীপিকার": 6573,
      "বেশিরভাগ": 6574,
      "মতামত": 6575,
      "দুর্দশা": 6576,
      "মোটরসাইকেল": 6577,
      "র‌্যালী": 6578,
      "গাইডলাইনের": 6579,
      "place": 6580,
      "ইমরান": 6581,
      "এ্যাড": 6582,
      "কুনূ": 6583,
      "খলিফা": 6584,
      "ছালাতের": 6585,
      "ঝিনাইদহ": 6586,
      "ঢোকানো": 6587,
      "তবুও": 6588,
      "ফাল্গুন": 6589,
      "রমজান": 6590,
      "হানিফ": 6591,
      "বিজয়ী": 6592,
      "নাকচ": 6593,
      "নাসরিন": 6594,
      "সম্রাট": 6595,
      "হাবিবুর": 6596,
      "মেয়েরা": 6597,
      "সংস্কৃতি": 6598,
      "লিনাক্স": 6599,
      "অনুরোধ": 6600,
      "ক্রীড়া": 6601,
      "চাপাতির": 6602,
      "চাটমোহর": 6603,
      "ফাউন্ডেশন": 6604,
      "শ্রোতা": 6605,
      "হেফাজতে": 6606,
      "উত্তেজনা": 6607,
      "নিরীক্ষ": 6608,
      "খোঁজ": 6609,
      "নিউজিল্যান্ডের": 6610,
      "ভ্রাম্যমাণ": 6611,
      "স্পর্শকাতর": 6612,
      "ট্যাবলেট": 6613,
      "সত্যিই": 6614,
      "virgin": 6615,
      "কিংবদন্তি": 6616,
      "বান্ধব": 6617,
      "আর্জেন্টিনার": 6618,
      "United": 6619,
      "অদিতি": 6620,
      "আশ্চর": 6621,
      "আলাইহি": 6622,
      "ইতোমধ্যে": 6623,
      "কংগ্রে": 6624,
      "তরাং": 6625,
      "ধ্বে": 6626,
      "বৌদ্ধ": 6627,
      "মঈন": 6628,
      "সলেট": 6629,
      "সভ্যতার": 6630,
      "কর্পে": 6631,
      "বিদ্রো": 6632,
      "কাশ্মি": 6633,
      "লেহেঙ্গা": 6634,
      "নাদিম": 6635,
      "রাজ্জাক": 6636,
      "তাকবীর": 6637,
      "নেচেছেন": 6638,
      "নেমপ্লেটটি": 6639,
      "মেহেদী": 6640,
      "ক্রাউন": 6641,
      "সবুজ": 6642,
      "স্ট্যাটা": 6643,
      "ওয়ালটন": 6644,
      "info": 6645,
      "কুমিল্লা": 6646,
      "ভালুকা": 6647,
      "গুঁড়া": 6648,
      "শোবিজ": 6649,
      "অধিদফতরের": 6650,
      "অ্যাড্রেস": 6651,
      "০১৮৪১৫২১৫": 6652,
      "হুমায়ূন": 6653,
      "হাজারীবা": 6654,
      "মুক্তিযোদ্ধা": 6655,
      "ইলেকট্রন": 6656,
      "সফটওয়্যার": 6657,
      "তৎপরতা": 6658,
      "ইউপিডিএফ": 6659,
      "সান্ধ্যকালীন": 6660,
      "জায়গায়": 6661,
      "ব্রাহ্মণবাড়ি": 6662,
      "movies": 6663,
      "অষ্টম": 6664,
      "অপরিহার্য": 6665,
      "ঘ্রাণ": 6666,
      "চিকেন": 6667,
      "ছহীহ": 6668,
      "জব্বার": 6669,
      "ডোনাল্ড": 6670,
      "ভৈরব": 6671,
      "মজুমদার": 6672,
      "রঙ্গীন": 6673,
      "রিলিজ": 6674,
      "০৯৬১২": 6675,
      "বিরাট": 6676,
      "বিনিময়ে": 6677,
      "বিআইডব্লি": 6678,
      "র্কমর্কতাদের": 6679,
      "কাছাকাছি": 6680,
      "নাজিম": 6681,
      "মুন্সিগঞ্জ": 6682,
      "পারমাণবিক": 6683,
      "মোজাম্মেল": 6684,
      "মোতায়েন": 6685,
      "খেসারত": 6686,
      "প্রাণিসম্পদ": 6687,
      "প্রাইভেট": 6688,
      "সার্টিফিকেট": 6689,
      "ইউনাইটেড": 6690,
      "সোহরাওয়ার্": 6691,
      "ed1964": 6692,
      "suahmed1964": 6693,
      "০১৯১২৩৮২৭৮৭": 6694,
      "ফাল্গুনী": 6695,
      "virgins": 6696,
      "(/": 6697,
      "(\\": 6698,
      ");": 6699,
      "001": 6700,
      "150": 6701,
      "23": 6702,
      "26": 6703,
      "27": 6704,
      "33": 6705,
      "36": 6706,
      "49": 6707,
      "422": 6708,
      "54": 6709,
      "88": 6710,
      "8422": 6711,
      "93": 6712,
      "AN": 6713,
      "Ah": 6714,
      "Al": 6715,
      "Au": 6716,
      "Cer": 6717,
      "Cate": 6718,
      "ET": 6719,
      "En": 6720,
      "ION": 6721,
      "LO": 6722,
      "Mi": 6723,
      "NO": 6724,
      "No": 6725,
      "Paper": 6726,
      "Sh": 6727,
      "SMS": 6728,
      "Tra": 6729,
      "Wor": 6730,
      "Xia": 6731,
      "[…": 6732,
      "az": 6733,
      "are": 6734,
      "ack": 6735,
      "bo": 6736,
      "blo": 6737,
      "bangla": 6738,
      "cre": 6739,
      "dra": 6740,
      "dle": 6741,
      "fr": 6742,
      "fu": 6743,
      "fic": 6744,
      "go": 6745,
      "gor": 6746,
      "ght": 6747,
      "grou": 6748,
      "hour": 6749,
      "if": 6750,
      "iv": 6751,
      "ith": 6752,
      "ial": 6753,
      "ide": 6754,
      "ick": 6755,
      "ken": 6756,
      "less": 6757,
      "mm": 6758,
      "mu": 6759,
      "mis": 6760,
      "ned": 6761,
      "oth": 6762,
      "opping": 6763,
      "pm": 6764,
      "po": 6765,
      "pr": 6766,
      "ption": 6767,
      "pun": 6768,
      "paper": 6769,
      "ss": 6770,
      "sit": 6771,
      "tt": 6772,
      "uage": 6773,
      "wjo": 6774,
      "xs": 6775,
      "||": 6776,
      "।[": 6777,
      "।।": 6778,
      "ঁচু": 6779,
      "ংকর": 6780,
      "অল": 6781,
      "অবি": 6782,
      "অনা": 6783,
      "অলি": 6784,
      "অপরে": 6785,
      "অটো": 6786,
      "অসাধারণ": 6787,
      "অমর": 6788,
      "অজয়": 6789,
      "অয়েল": 6790,
      "অাগ": 6791,
      "অসুবিধা": 6792,
      "অমুছলিম": 6793,
      "অক্ষয়": 6794,
      "অবলম্ব": 6795,
      "আখ": 6796,
      "আয়ে": 6797,
      "আয়": 6798,
      "আমান": 6799,
      "আয়ার": 6800,
      "আযান": 6801,
      "আপাত": 6802,
      "আখ্যা": 6803,
      "আয়র": 6804,
      "আগ্রা": 6805,
      "আকর্": 6806,
      "আক্ষেপ": 6807,
      "ইও": 6808,
      "ইহ": 6809,
      "ইয়ে": 6810,
      "ইনার": 6811,
      "ইঙ্গ": 6812,
      "ইনাম": 6813,
      "ইঘাট": 6814,
      "ঈদুল": 6815,
      "ঈগল": 6816,
      "উদা": 6817,
      "উড়া": 6818,
      "উইন": 6819,
      "উঁচু": 6820,
      "ঋতু": 6821,
      "এতি": 6822,
      "এভি": 6823,
      "এজা": 6824,
      "এনাম": 6825,
      "এখানকার": 6826,
      "ঐক": 6827,
      "ওন": 6828,
      "ওজন": 6829,
      "ওযা": 6830,
      "ওভার": 6831,
      "ওএস": 6832,
      "ঔষ": 6833,
      "কস": 6834,
      "কয়": 6835,
      "কবে": 6836,
      "কটি": 6837,
      "কীর": 6838,
      "ক্যান": 6839,
      "কভার": 6840,
      "কশন": 6841,
      "কুলি": 6842,
      "কানে": 6843,
      "কলাম": 6844,
      "কষ্ট": 6845,
      "খতি": 6846,
      "খসে": 6847,
      "খির": 6848,
      "খন্ড": 6849,
      "খণ্ড": 6850,
      "খারি": 6851,
      "খতম": 6852,
      "গকে": 6853,
      "গরে": 6854,
      "গমন": 6855,
      "গরের": 6856,
      "গানে": 6857,
      "গতির": 6858,
      "গতিক": 6859,
      "গড়ে": 6860,
      "গ্লা": 6861,
      "গপ্প": 6862,
      "ঘি": 6863,
      "ঘূ": 6864,
      "ঘুষ": 6865,
      "ঘষে": 6866,
      "ঙের": 6867,
      "ঙামা": 6868,
      "চনার": 6869,
      "চ্যারি": 6870,
      "ছাল": 6871,
      "জজ": 6872,
      "জয়ে": 6873,
      "জিল": 6874,
      "জনেই": 6875,
      "জ্যাক": 6876,
      "ঝাল": 6877,
      "টপ": 6878,
      "টুর": 6879,
      "ট্যান": 6880,
      "টোন": 6881,
      "টানে": 6882,
      "ঠুর": 6883,
      "ডস": 6884,
      "ডেন": 6885,
      "ডিক": 6886,
      "ডায়া": 6887,
      "ঢে": 6888,
      "ণিক": 6889,
      "তল": 6890,
      "তৌ": 6891,
      "তীর": 6892,
      "তদার": 6893,
      "তল্লা": 6894,
      "তত্ত্": 6895,
      "তরিকা": 6896,
      "থ্র": 6897,
      "দাল": 6898,
      "দয়া": 6899,
      "দম্প": 6900,
      "নম": 6901,
      "নৃ": 6902,
      "নৈ": 6903,
      "নার্": 6904,
      "নানি": 6905,
      "পল": 6906,
      "পৈ": 6907,
      "পীয়": 6908,
      "পীন": 6909,
      "পানের": 6910,
      "পড়ি": 6911,
      "পর্ষ": 6912,
      "পটু": 6913,
      "পণের": 6914,
      "পলাশ": 6915,
      "পতন": 6916,
      "পমেন্ট": 6917,
      "প্যানেল": 6918,
      "ফুর": 6919,
      "ফারা": 6920,
      "বজ": 6921,
      "বন্": 6922,
      "বসা": 6923,
      "বটে": 6924,
      "বানের": 6925,
      "বরাত": 6926,
      "বজায়": 6927,
      "বড্ড": 6928,
      "বশির": 6929,
      "ভীন": 6930,
      "ভার্থ": 6931,
      "মও": 6932,
      "মগ": 6933,
      "মচ": 6934,
      "মশা": 6935,
      "মলের": 6936,
      "মধুর": 6937,
      "ম্মদ": 6938,
      "মবুর্": 6939,
      "য্য": 6940,
      "যান্ত্রিক": 6941,
      "রগ": 6942,
      "রণ": 6943,
      "রৈ": 6944,
      "রাল": 6945,
      "রিক্ত": 6946,
      "লক": 6947,
      "লার্": 6948,
      "লান্ত": 6949,
      "লড়া": 6950,
      "লেন্স": 6951,
      "লগ্ন": 6952,
      "শৌ": 6953,
      "শার্": 6954,
      "শফি": 6955,
      "শস্ত্র": 6956,
      "ষম্য": 6957,
      "সনে": 6958,
      "সহা": 6959,
      "সলি": 6960,
      "সঞ্": 6961,
      "সচি": 6962,
      "সফে": 6963,
      "সুরু": 6964,
      "সানি": 6965,
      "সক্রি": 6966,
      "সান্তা": 6967,
      "সতীর্থ": 6968,
      "হট": 6969,
      "হব": 6970,
      "হ্র": 6971,
      "হেন": 6972,
      "হতি": 6973,
      "হকি": 6974,
      "হ্যান": 6975,
      "হজ্": 6976,
      "হণের": 6977,
      "হওয়ার": 6978,
      "হচ্ছিলো": 6979,
      "াহ": 6980,
      "াঙ্গি": 6981,
      "ীল": 6982,
      "ীতির": 6983,
      "ীছড়ি": 6984,
      "ুনি": 6985,
      "ুবার": 6986,
      "ুদ্ধ": 6987,
      "ুপ্ত": 6988,
      "ূপে": 6989,
      "েজার": 6990,
      "েক্ষা": 6991,
      "োস": 6992,
      "োয়": 6993,
      "োর্": 6994,
      "োয়ার": 6995,
      "োলো": 6996,
      "োত্রী": 6997,
      "ড়ন": 6998,
      "ড়ান": 6999,
      "ড়কে": 7000,
      "ড়াম": 7001,
      "ড়টা": 7002,
      "য়িত": 7003,
      "য়িক": 7004,
      "য়িং": 7005,
      "০৩": 7006,
      "৩০০০": 7007,
      "৪৪": 7008,
      "৬৬": 7009,
      "৬৮": 7010,
      "৬টায়": 7011,
      "৭টা": 7012,
      "৭খাদি": 7013,
      "৮২": 7014,
      "৮৩": 7015,
      "৮৯": 7016,
      "৮টা": 7017,
      "৮৮৭": 7018,
      "৯১": 7019,
      "‌য়ের": 7020,
      "ারী": 7021,
      "ারীর": 7022,
      "ারকান্": 7023,
      "্রয়েড": 7024,
      "্যকর": 7025,
      "্যিক": 7026,
      "করল": 7027,
      "করের": 7028,
      "কর্ড": 7029,
      "্তি": 7030,
      "বিহ": 7031,
      "বিক্ষ": 7032,
      "বিদ্": 7033,
      "বিলি": 7034,
      "বিস্ত": 7035,
      "বিদ্ধ": 7036,
      "বিলো": 7037,
      "বিত্ত": 7038,
      "বিশু": 7039,
      "বিলের": 7040,
      "বিকালে": 7041,
      "বিবেক": 7042,
      "বিধ্ব": 7043,
      "বিন্দু": 7044,
      "বিভক্ত": 7045,
      "বিজয়ের": 7046,
      "বিরিয়": 7047,
      "বিছানা": 7048,
      "নিই": 7049,
      "নিষ্": 7050,
      "নিক্ষেপ": 7051,
      "নিদ্রা": 7052,
      "বাজু": 7053,
      "বাহু": 7054,
      "বাগান": 7055,
      "বাঁচ": 7056,
      "বাক্য": 7057,
      "বাড়াতে": 7058,
      "কেস": 7059,
      "প্রকা": 7060,
      "প্রথা": 7061,
      "প্রদেশ": 7062,
      "প্রফে": 7063,
      "প্রবী": 7064,
      "প্রচেষ্টা": 7065,
      "প্রান্তে": 7066,
      "প্রজাতির": 7067,
      "প্রশ্রয়": 7068,
      "প্রখ্যাত": 7069,
      "প্রকৌশল": 7070,
      "ামের": 7071,
      "ামবার": 7072,
      "য়েব": 7073,
      "য়েম": 7074,
      "য়েশ": 7075,
      "র্জার": 7076,
      "র্ণি": 7077,
      "বেত": 7078,
      "বোন": 7079,
      "বেছে": 7080,
      "বেটে": 7081,
      "বেসরকারী": 7082,
      "বেষী": 7083,
      "টিএ": 7084,
      "টিও": 7085,
      "টিত": 7086,
      "টিম": 7087,
      "টিস": 7088,
      "টিপি": 7089,
      "টিটু": 7090,
      "কাচ": 7091,
      "কাদ": 7092,
      "কাকা": 7093,
      "কাটে": 7094,
      "কাপুর": 7095,
      "কাবু": 7096,
      "কাকু": 7097,
      "কাঠি": 7098,
      "কাভার্ড": 7099,
      "লেও": 7100,
      "লেষণ": 7101,
      "নাও": 7102,
      "নাকে": 7103,
      "নাদে": 7104,
      "স্পে": 7105,
      "স্মার": 7106,
      "স্পোর্ট": 7107,
      "লাত": 7108,
      "লাফ": 7109,
      "লাগান": 7110,
      "লাঠি": 7111,
      "লাওয়াত": 7112,
      "রাক": 7113,
      "রাহ": 7114,
      "রায়": 7115,
      "রাজে": 7116,
      "রাইস": 7117,
      "রাউন্ডে": 7118,
      "রাঙামা": 7119,
      "ছোট": 7120,
      "ক্লিন": 7121,
      "তাত্": 7122,
      "তাগি": 7123,
      "তাত্ত্": 7124,
      "পরিত": 7125,
      "পররাষ্ট্র": 7126,
      "দিলী": 7127,
      "দিলিপ": 7128,
      "দিবসের": 7129,
      "দেওয়": 7130,
      "দেউল": 7131,
      "দেওয়া": 7132,
      "দেলোয়ার": 7133,
      "মাপ": 7134,
      "মাতা": 7135,
      "মাইন": 7136,
      "মাসিক": 7137,
      "মায়ের": 7138,
      "মাওল": 7139,
      "মাদ্রা": 7140,
      "নেল": 7141,
      "নেবে": 7142,
      "নেশা": 7143,
      "নেটের": 7144,
      "নেহাত": 7145,
      "্যাং": 7146,
      "্যায়": 7147,
      "্যাদি": 7148,
      "্যায়ন": 7149,
      "কারক": 7150,
      "কারোর": 7151,
      "কারেন্ট": 7152,
      "কারচু": 7153,
      "কারওয়ান": 7154,
      "কারেন্সি": 7155,
      "মিঃ": 7156,
      "মিল্": 7157,
      "মিষ্টির": 7158,
      "মিসেস": 7159,
      "মিছিলে": 7160,
      "ক্ষনিক": 7161,
      "ুলের": 7162,
      "সমকামী": 7163,
      "সমবেত": 7164,
      "পাক": 7165,
      "পাপ": 7166,
      "পায়ে": 7167,
      "পাড়": 7168,
      "পাইল": 7169,
      "পাটগ্রাম": 7170,
      "পাচ্ছি": 7171,
      "পাহারা": 7172,
      "পাওয়ার": 7173,
      "সিত": 7174,
      "সিধা": 7175,
      "সিবিএন": 7176,
      "সিঙ্গা": 7177,
      "ভাটা": 7178,
      "ভাবেন": 7179,
      "ভাসমান": 7180,
      "সেকার": 7181,
      "সেলি": 7182,
      "সেটাই": 7183,
      "সেখান": 7184,
      "সোমবার": 7185,
      "জনী": 7186,
      "জনতা": 7187,
      "জনপ্রি": 7188,
      "জনশীল": 7189,
      "সাঈ": 7190,
      "সাউ": 7191,
      "সাদ্": 7192,
      "সাজে": 7193,
      "সাজা": 7194,
      "সাইল": 7195,
      "সাহে": 7196,
      "সাগর": 7197,
      "সাড়ে": 7198,
      "সাব্যস্ত": 7199,
      "সাক্ষর": 7200,
      "করেছিলাম": 7201,
      "কিমি": 7202,
      "কিপার": 7203,
      "কিশে": 7204,
      "কিউই": 7205,
      "কিলাব": 7206,
      "য়র": 7207,
      "য়ী": 7208,
      "য়ো": 7209,
      "য়েন্টিফোর": 7210,
      "একথা": 7211,
      "একদিন": 7212,
      "একদিকে": 7213,
      "একটাই": 7214,
      "এক্রা": 7215,
      "একদম": 7216,
      "টাগর": 7217,
      "হাউ": 7218,
      "হাড়": 7219,
      "হাউজ": 7220,
      "মেলা": 7221,
      "মেদিন": 7222,
      "মেম্ব": 7223,
      "মেধা": 7224,
      "মেহের": 7225,
      "মেইলে": 7226,
      "মেয়র": 7227,
      "ন্তার": 7228,
      "ার্জি": 7229,
      "ষ্প": 7230,
      "দ্দিন": 7231,
      "গেটে": 7232,
      "গেলাম": 7233,
      "গেমস": 7234,
      "ঙ্কের": 7235,
      "রেটিং": 7236,
      "রেফ্রি": 7237,
      "রেসিপি": 7238,
      "রেকর্ড": 7239,
      "তারিক": 7240,
      "তারুণ": 7241,
      "থেমে": 7242,
      "দেশিক": 7243,
      "দেশব্যাপী": 7244,
      "মানি": 7245,
      "মানিয়ে": 7246,
      "মানবাধিকার": 7247,
      "ব্যুন": 7248,
      "ব্যতীত": 7249,
      "শিখে": 7250,
      "শিবির": 7251,
      "শিয়াল": 7252,
      "শিবলী": 7253,
      "সংসার": 7254,
      "সংগ্রামের": 7255,
      "সংযো": 7256,
      "সংক্রমণ": 7257,
      "সংলগ্ন": 7258,
      "ত্রান": 7259,
      "ত্রয়ো": 7260,
      "পরিচি": 7261,
      "পরিধি": 7262,
      "পরিসংখ": 7263,
      "পরিবেশে": 7264,
      "জো": 7265,
      "জিকে": 7266,
      "জিলা": 7267,
      "জিরা": 7268,
      "জিমেইলে": 7269,
      "ভিট": 7270,
      "ভিযান": 7271,
      "ভিডিপি": 7272,
      "লিঙ্ক": 7273,
      "লিটন": 7274,
      "লিটল": 7275,
      "যাকে": 7276,
      "যাবার": 7277,
      "যাবেন": 7278,
      "যাওয়ায়": 7279,
      "যাকাত": 7280,
      "মুত": 7281,
      "মুর্": 7282,
      "মুয়া": 7283,
      "মুভি": 7284,
      "গ্রেন": 7285,
      "পিঁ": 7286,
      "পিট": 7287,
      "পির": 7288,
      "পিস": 7289,
      "পিকে": 7290,
      "পিপি": 7291,
      "পিস্ত": 7292,
      "পিণ্ড": 7293,
      "পিঠে": 7294,
      "টেলিক": 7295,
      "টেইক": 7296,
      "স্তির": 7297,
      "স্তনী": 7298,
      "জানুয়ারি": 7299,
      "পারতো": 7300,
      "রিটের": 7301,
      "রিভিউ": 7302,
      "জাবি": 7303,
      "জাকারি": 7304,
      "জাতীয়": 7305,
      "বংশ": 7306,
      "দুষ্ট": 7307,
      "দুজ্জামান": 7308,
      "দুগ্ধ": 7309,
      "করাই": 7310,
      "করাতে": 7311,
      "থেকেও": 7312,
      "্মী": 7313,
      "োগা": 7314,
      "প্রতিশ্র": 7315,
      "প্রতিদ্ব": 7316,
      "প্রতিরক্ষ": 7317,
      "প্রতিজ্ঞা": 7318,
      "প্রতিস্থাপন": 7319,
      "প্রতিরূপ": 7320,
      "প্রতিবেদ": 7321,
      "প্রতিযোগী": 7322,
      "দাইল": 7323,
      "্পনিক": 7324,
      "বলব": 7325,
      "বলের": 7326,
      "বলিত": 7327,
      "আরবি": 7328,
      "আরডি": 7329,
      "মোটি": 7330,
      "মোবার": 7331,
      "মোবাই": 7332,
      "মোদির": 7333,
      "মোরগ": 7334,
      "হিজ": 7335,
      "হিদ": 7336,
      "হিয়া": 7337,
      "হিস্ট্রি": 7338,
      "ডিপ": 7339,
      "ডিগ্রী": 7340,
      "ীরার": 7341,
      "ঞ্জন": 7342,
      "জন্যও": 7343,
      "২০২১": 7344,
      "শাহে": 7345,
      "শাবন": 7346,
      "শাসন": 7347,
      "শাস্তির": 7348,
      "স্থানের": 7349,
      "সুমন": 7350,
      "সুস্বা": 7351,
      "সুশীল": 7352,
      "সুফলা": 7353,
      "সুতরাং": 7354,
      "পুরনো": 7355,
      "নারি": 7356,
      "হয়ত": 7357,
      "হয়না": 7358,
      "ঙ্গিক": 7359,
      "ঙ্গীর": 7360,
      "ঙ্গুলি": 7361,
      "ঙ্গারা": 7362,
      "আমলা": 7363,
      "আমন্ত্রণ": 7364,
      "বরণ": 7365,
      "্ডেল": 7366,
      "খাবারের": 7367,
      "খেলায়": 7368,
      "খেজুর": 7369,
      "উপকার": 7370,
      "উপার্": 7371,
      "উপহার": 7372,
      "উপেক্ষা": 7373,
      "018": 7374,
      "ভাগই": 7375,
      "ট্রল": 7376,
      "ট্রে": 7377,
      "ট্রেন্ট": 7378,
      "ট্রোল": 7379,
      "সবচে": 7380,
      "যোগের": 7381,
      "দিনই": 7382,
      "লোহা": 7383,
      "লোহার": 7384,
      "লোকের": 7385,
      "পেজ": 7386,
      "পো": 7387,
      "পৌ": 7388,
      "পেটে": 7389,
      "পেজের": 7390,
      "পেশার": 7391,
      "নামতে": 7392,
      "নামানু": 7393,
      "চেক": 7394,
      "চেহার": 7395,
      "ছাতে": 7396,
      "ছাদের": 7397,
      "ছাপা": 7398,
      "ছাড়ার": 7399,
      "কর্মীদের": 7400,
      "আপন": 7401,
      "অনুপাত": 7402,
      "অনুশীল": 7403,
      "েন্টে": 7404,
      "েন্টের": 7405,
      "কালাম": 7406,
      "কাল্পনিক": 7407,
      "্যান্স": 7408,
      "চাশ": 7409,
      "চাকর": 7410,
      "চাতে": 7411,
      "চায়": 7412,
      "দোষ": 7413,
      "সম্প্রদায়": 7414,
      "সম্মিলিত": 7415,
      "ড়ির": 7416,
      "ড়িতে": 7417,
      "ন্ত্রী": 7418,
      "গায়ে": 7419,
      "গাঙ্গ": 7420,
      "গাধা": 7421,
      "গাজিন": 7422,
      "দ্রি": 7423,
      "ফিজ": 7424,
      "ফিন": 7425,
      "ফিডলার": 7426,
      "ফিনাল": 7427,
      "ওয়াই": 7428,
      "ইলিক": 7429,
      "২০১০": 7430,
      "আসর": 7431,
      "আসল": 7432,
      "আসুন": 7433,
      "য়েল": 7434,
      "চিটা": 7435,
      "চিন্তার": 7436,
      "আইসি": 7437,
      "আইভীর": 7438,
      "আইওটি": 7439,
      "ক্ষেত্র": 7440,
      "ভেদ": 7441,
      "ভেবে": 7442,
      "ভেঞ্জ": 7443,
      "ধারী": 7444,
      "ধারে": 7445,
      "ধারনা": 7446,
      "ধারালো": 7447,
      "লারে": 7448,
      "সর্ত": 7449,
      "সরদার": 7450,
      "সরঞ্জাম": 7451,
      "অবগত": 7452,
      "জ্বা": 7453,
      "জ্জল": 7454,
      "তোর": 7455,
      "তোয়া": 7456,
      "তোরের": 7457,
      "তোলেন": 7458,
      "াকাটা": 7459,
      "চালিত": 7460,
      "চালানো": 7461,
      "চালাতে": 7462,
      "ম্বরের": 7463,
      "প্পি": 7464,
      "স্টল": 7465,
      "স্টের": 7466,
      "স্টোর": 7467,
      "ওয়ার্ড": 7468,
      "অভিমত": 7469,
      "বুড়ে": 7470,
      "ফেলা": 7471,
      "ব্যাগ": 7472,
      "ব্যাঙ্ক": 7473,
      "ব্যাবহার": 7474,
      "সামলে": 7475,
      "সাময়িক": 7476,
      "পূজার": 7477,
      "বাদীদের": 7478,
      "ঞ্জয়": 7479,
      "দলগুলো": 7480,
      "গ্রামটি": 7481,
      "গ্রামটির": 7482,
      "চলন্ত": 7483,
      "চলমান": 7484,
      "কলঙ্ক": 7485,
      "কলকব্": 7486,
      "ডেইলি": 7487,
      "ছিটকে": 7488,
      "রুজ্জামান": 7489,
      "রুহুল": 7490,
      "বাসন": 7491,
      "সদ্য": 7492,
      "রাজস্ব": 7493,
      "ন্দারা": 7494,
      "কমই": 7495,
      "কমল": 7496,
      "কমপক্ষে": 7497,
      "ফাতে": 7498,
      "শ্বরের": 7499,
      "শ্বশুর": 7500,
      "বিষয়ের": 7501,
      "নিয়তি": 7502,
      "নিয়োজিত": 7503,
      "আলু": 7504,
      "আল্যা": 7505,
      "আল্যার": 7506,
      "আগুনে": 7507,
      "এসটি": 7508,
      "বৃথা": 7509,
      "হোয়া": 7510,
      "জুক": 7511,
      "জুয়া": 7512,
      "হেঁ": 7513,
      "হেসে": 7514,
      "তুহিন": 7515,
      "পোস্ট": 7516,
      "গোড়াল": 7517,
      "ব্রত": 7518,
      "অর্থে": 7519,
      "জীবিত": 7520,
      "প্রাচীন": 7521,
      "স্বর্": 7522,
      "স্বার্থ": 7523,
      "স্থাপ": 7524,
      "সার্স": 7525,
      "সার্জন": 7526,
      "সার্টে": 7527,
      "সার্ভার": 7528,
      "সার্কুলে": 7529,
      "পত্রের": 7530,
      "কুঞ্জ": 7531,
      "কথাটি": 7532,
      "কথাসাহিত্যিক": 7533,
      "উদ্দিনের": 7534,
      "বোধ": 7535,
      "বোমার": 7536,
      "এনএন": 7537,
      "এনওসি": 7538,
      "থাকছে": 7539,
      "থাকুন": 7540,
      "থাকবো": 7541,
      "পূর্ন": 7542,
      "মারে": 7543,
      "সম্পদের": 7544,
      "সম্পত্তি": 7545,
      "য়নাল": 7546,
      "ইনভে": 7547,
      "ইনকোর্স": 7548,
      "ইনকিলাব": 7549,
      "স্যাম": 7550,
      "স্যামু": 7551,
      "প্রদী": 7552,
      "প্রদর্শ": 7553,
      "প্রদর্শন": 7554,
      "ইসলামিক": 7555,
      "ন্ডের": 7556,
      "মাধ্যমিক": 7557,
      "আদান": 7558,
      "১০টা": 7559,
      "১০টায়": 7560,
      "দেখল": 7561,
      "দেখছে": 7562,
      "দীপ্ত": 7563,
      "হাম্": 7564,
      "হামিদ": 7565,
      "বন্ধে": 7566,
      "টোরিয়াল": 7567,
      "ণাগার": 7568,
      "শুরুতে": 7569,
      "শুরুতেই": 7570,
      "ano": 7571,
      "ant": 7572,
      "মার্কেট": 7573,
      "ল্লার": 7574,
      "গুয়া": 7575,
      "ডাঙ্গা": 7576,
      "মূল্যে": 7577,
      "মূল্যায়ন": 7578,
      "শোষণ": 7579,
      "কৃষ্ণ": 7580,
      "শীত": 7581,
      "শীষ": 7582,
      "সালমার": 7583,
      "ান্টাম": 7584,
      "স্বাগতিক": 7585,
      "সাইবার": 7586,
      "নির্বাচনকে": 7587,
      "তিরমি": 7588,
      "নায়করা": 7589,
      "নায়কের": 7590,
      "নায়তনে": 7591,
      "টুকু": 7592,
      "তারাও": 7593,
      "তারাকান্দা": 7594,
      "বিদ্য": 7595,
      "কাজটা": 7596,
      "নেইমার": 7597,
      "অধিনায়কের": 7598,
      "সাথেই": 7599,
      "ধুয়ে": 7600,
      "erk": 7601,
      "আহম্": 7602,
      "আহসান": 7603,
      "সূচকে": 7604,
      "পরিচালনায়": 7605,
      "উদ্যে": 7606,
      "অ্যাসো": 7607,
      "অ্যাভেঞ্জ": 7608,
      "ম্যাগাজিন": 7609,
      "সীল": 7610,
      "সীমিত": 7611,
      "সোনাগা": 7612,
      "পর্যটক": 7613,
      "পর্যটন": 7614,
      "খানেক": 7615,
      "গণের": 7616,
      "প্রথমত": 7617,
      "জামে": 7618,
      "জাম্ব": 7619,
      "আলোর": 7620,
      "এমনটা": 7621,
      "উত্তম": 7622,
      "উত্তোল": 7623,
      "আনসার": 7624,
      "মামলাটি": 7625,
      "জানাযায়": 7626,
      "জানাচ্ছেন": 7627,
      "চুপ": 7628,
      "তালা": 7629,
      "তালি": 7630,
      "গ্রহণের": 7631,
      "অন্যকে": 7632,
      "অন্যদের": 7633,
      "আওয়ামীলীগের": 7634,
      "পুতি": 7635,
      "স্ত্রীদের": 7636,
      "ভালোই": 7637,
      "ভালোবাসে": 7638,
      "পালিত": 7639,
      "সাধারণভাবে": 7640,
      "সিলেটজুড়ে": 7641,
      "তথ্যাদি": 7642,
      "করিতে": 7643,
      "অর্থনীতি": 7644,
      "অর্থবছরে": 7645,
      "ফুটে": 7646,
      "ফুজুর": 7647,
      "১১টার": 7648,
      "প্রেমে": 7649,
      "প্রেক্ষা": 7650,
      "প্রেমিক": 7651,
      "সনদপত্র": 7652,
      "ত্বককে": 7653,
      "বিএনপিতে": 7654,
      "রাষ্ট্রপ্রধান": 7655,
      "টাইমস": 7656,
      "কর্মকর্তারা": 7657,
      "red": 7658,
      "replace": 7659,
      "দায়ক": 7660,
      "দায়ভাগ": 7661,
      "ম্যানেজার": 7662,
      "নামেও": 7663,
      "পড়বে": 7664,
      "পড়ছে": 7665,
      "হুদার": 7666,
      "কারণেই": 7667,
      "দেশেও": 7668,
      "প্রতিনিধিদলে": 7669,
      "tho": 7670,
      "that": 7671,
      "ইন্ডে": 7672,
      "এন্ডোর্": 7673,
      "তথ্যপ্রযুক্তি": 7674,
      "বানর": 7675,
      "বান্ডেল": 7676,
      "১২টি": 7677,
      "১২৩০": 7678,
      "রাখবে": 7679,
      "পাঠান": 7680,
      "পাঠায়": 7681,
      "পাঠাতে": 7682,
      "সংবাদমাধ্যম": 7683,
      "দুর্বার": 7684,
      "দুর্বারের": 7685,
      "দুর্ধর্ষ": 7686,
      "েন্দ্রনাথ": 7687,
      "একাই": 7688,
      "সমাজে": 7689,
      "দশকে": 7690,
      "দশটা": 7691,
      "িকাস": 7692,
      "বিমানটির": 7693,
      "স্ক্যান": 7694,
      "শিক্ষার": 7695,
      "ধর্মান্": 7696,
      "বিদ্যালয়": 7697,
      "বিদ্যালয়ের": 7698,
      "mar": 7699,
      "ারেশনের": 7700,
      "বিশেষভাবে": 7701,
      "ঘটনাস্থল": 7702,
      "হানির": 7703,
      "বাহির": 7704,
      "হাজারে": 7705,
      "অক্টোবরে": 7706,
      "অপমান": 7707,
      "অপশন": 7708,
      "রীতি": 7709,
      "বিজ্ঞানের": 7710,
      "ill": 7711,
      "ওয়েল": 7712,
      "কনস্টে": 7713,
      "কনসার্টে": 7714,
      "বয়সে": 7715,
      "অফিসের": 7716,
      "গঠনিক": 7717,
      "১৬৪": 7718,
      "২৪০": 7719,
      "২৪৪": 7720,
      "জিনিস": 7721,
      "দূর্": 7722,
      "বর্ণা": 7723,
      "মাহফুজুর": 7724,
      "সিংহের": 7725,
      "তৈরিতে": 7726,
      "কেনার": 7727,
      "কেননা": 7728,
      "কৃতজ্ঞ": 7729,
      "গুলিতে": 7730,
      "ভুটান": 7731,
      "ভুবনে": 7732,
      "বিলঙ": 7733,
      "বিলবা": 7734,
      "বিলুপ্ত": 7735,
      "লেখার": 7736,
      "ত্ন": 7737,
      "ফেরি": 7738,
      "আইনজীব": 7739,
      "ক্ষেত্রেই": 7740,
      "ধর্মঘটে": 7741,
      "ধর্মভীর": 7742,
      "ধর্মযাজক": 7743,
      "গিসকে": 7744,
      "পার্শ্ব": 7745,
      "ইঞ্জি": 7746,
      "এটাও": 7747,
      "ক্যাশ": 7748,
      "ক্যাডেট": 7749,
      "ক্যাটাগর": 7750,
      "ছোটদের": 7751,
      "বৈষম্য": 7752,
      "বৈদেশিক": 7753,
      "্লাহি": 7754,
      "্লাহু": 7755,
      "অবস্থার": 7756,
      "চিকিৎস": 7757,
      "১৩৪": 7758,
      "ভাইরাল": 7759,
      "শিশুটি": 7760,
      "পেয়েছিলেন": 7761,
      "পোর্টাল": 7762,
      "atur": 7763,
      "ভিতর": 7764,
      "রংয়ের": 7765,
      "সকলকে": 7766,
      "সিদ্ধির": 7767,
      "art": 7768,
      "শেরপুর": 7769,
      "বায়তুল": 7770,
      "রাজনীতির": 7771,
      "য়ারের": 7772,
      "কোর্টের": 7773,
      "বিষয়েও": 7774,
      "প্রাপ্তির": 7775,
      "ব্লগ": 7776,
      "ব্লকার": 7777,
      "ব্লগে": 7778,
      "ব্ল্যাক": 7779,
      "দক্ষিণা": 7780,
      "sex": 7781,
      "উৎপত্তি": 7782,
      "ভীষণ": 7783,
      "ভীড়টা": 7784,
      "দীর্ঘদিনের": 7785,
      "জঙ্গিরা": 7786,
      "জঙ্গিদের": 7787,
      "প্রশ্নোত্তর": 7788,
      "পারিনা": 7789,
      "সম্মেলনের": 7790,
      "গ্রহণযোগ্য": 7791,
      "125": 7792,
      "126": 7793,
      "এখানেই": 7794,
      "চরম": 7795,
      "বার্সার": 7796,
      "পরিশোধযোগ্য": 7797,
      "অনুমতিতে": 7798,
      "চোরা": 7799,
      "ফ্লাই": 7800,
      "বরাত্রি": 7801,
      "হালদার": 7802,
      "বিরত": 7803,
      "লেখাপড়া": 7804,
      "মিলনায়তনে": 7805,
      "রেজিস্ট্রি": 7806,
      "জাহাঙ্গীর": 7807,
      "বন্ধুরা": 7808,
      "বন্ধুদের": 7809,
      "গ্রেফতারকৃত": 7810,
      "মন্তব্যে": 7811,
      "তুলনায়": 7812,
      "পথের": 7813,
      "পায়নি": 7814,
      "মেয়েটির": 7815,
      "মুক্তিযুদ্ধের": 7816,
      "খেলাধুলা": 7817,
      "উদ্ধারের": 7818,
      "বিশ্বাসী": 7819,
      "বিশ্লেষণ": 7820,
      "বাঁকা": 7821,
      "সদরঘাট": 7822,
      "রংপুরের": 7823,
      "শিল্পের": 7824,
      "স্বাস্থ্যমন্ত্রী": 7825,
      "জোনের": 7826,
      "য়ালা": 7827,
      "প্রার্থনা": 7828,
      "প্রার্থনার": 7829,
      "আত্মীয়": 7830,
      "ইংলিশ": 7831,
      "পানামা": 7832,
      "লুইস": 7833,
      "লুক্সে": 7834,
      "শাহ্": 7835,
      "শাহরু": 7836,
      "শাহরিয়ার": 7837,
      "অন্তর্ভুক্ত": 7838,
      "দেয়নি": 7839,
      "মিনিটের": 7840,
      "সমস্যায়": 7841,
      "উদ্বুদ্ধ": 7842,
      "আশুলিয়া": 7843,
      "আশাবাদ": 7844,
      "আশাবাদী": 7845,
      "ইতিমধ্যে": 7846,
      "বর্ষের": 7847,
      "বর্ষপূ": 7848,
      "ভোটদান": 7849,
      "প্রচারণা": 7850,
      "নাইট": 7851,
      "নাইজেরি": 7852,
      "বৃহৎ": 7853,
      "মালিকের": 7854,
      "প্রতিষ্ঠানটির": 7855,
      "105": 7856,
      "1000": 7857,
      "জমিতে": 7858,
      "প্রস্তর": 7859,
      "নেটর": 7860,
      "পাশেই": 7861,
      "কিনতে": 7862,
      "সংরক্ষণাগার": 7863,
      "ত্রিদেশীয়": 7864,
      "যুদ্ধাপ": 7865,
      "স্ত্রীকে": 7866,
      "net": 7867,
      "আসেনি": 7868,
      "আন্তঃ": 7869,
      "ট্যাগ": 7870,
      "সৌম্য": 7871,
      "হীনতা": 7872,
      "বিতর্ক": 7873,
      "রাইড": 7874,
      "বার্তায়": 7875,
      "পুরোটা": 7876,
      "গাছির": 7877,
      "হাসিনাকে": 7878,
      "135": 7879,
      "hab": 7880,
      "have": 7881,
      "its": 7882,
      "আব্দুস": 7883,
      "ওয়াশিং": 7884,
      "চলাকালে": 7885,
      "চলাকালীন": 7886,
      "প্যাক": 7887,
      "রোগী": 7888,
      "শরীয়": 7889,
      "শান্তির": 7890,
      "৬০৯৮": 7891,
      "বিরোধের": 7892,
      "প্রত্যাশা": 7893,
      "প্রত্যাখ্যান": 7894,
      "রাসূল": 7895,
      "সমূহে": 7896,
      "জিয়াউর": 7897,
      "মোটামু": 7898,
      "২০০৪": 7899,
      "প্লেইস": 7900,
      "হামলাকারি": 7901,
      "স্ট্রেট": 7902,
      "উল্লেখযোগ্য": 7903,
      "মসজিদ": 7904,
      "নিরাপত্তার": 7905,
      "নারায়ণগঞ্জের": 7906,
      "তারিখঃ": 7907,
      "তারিখের": 7908,
      "আর্কানা": 7909,
      "দণ্ডনীয়": 7910,
      "সৃজনশীল": 7911,
      "হ্যাভেন": 7912,
      "বাহনে": 7913,
      "বাহ্যিক": 7914,
      "রাশিয়ার": 7915,
      "যাত্রীরা": 7916,
      "যাত্রীবাহী": 7917,
      "প্লাট": 7918,
      "প্লাস্টি": 7919,
      "angl": 7920,
      "angbad": 7921,
      "anguage": 7922,
      "ইন্টারভিউ": 7923,
      "ফুটবলার": 7924,
      "lored": 7925,
      "চার্টার": 7926,
      "চার্চের": 7927,
      "তদন্তে": 7928,
      "দামে": 7929,
      "নগদ": 7930,
      "ন্যায্য": 7931,
      "সুরক্ষা": 7932,
      "সত্যতা": 7933,
      "সত্যিকার": 7934,
      "সত্যেন্দ্রনাথ": 7935,
      "সেটিও": 7936,
      "সংগঠিত": 7937,
      "সম্ভবত": 7938,
      "প্ল্যাট": 7939,
      "রোহিঙ্গারা": 7940,
      "অ্যাপল": 7941,
      "কামালের": 7942,
      "সন্তানদের": 7943,
      "খ্রিঃ": 7944,
      "খ্রিস্টা": 7945,
      "রানার্স": 7946,
      "লালপুর": 7947,
      "লাল্লাহু": 7948,
      "বিস্ম": 7949,
      "বিদেশী": 7950,
      "বিজিবি": 7951,
      "বাবধায়": 7952,
      "স্টাইল": 7953,
      "সেখানেই": 7954,
      "গোলকিপার": 7955,
      "শীর্ষক": 7956,
      "সমাধানের": 7957,
      "মৃত্যুবগুড়ায়": 7958,
      "ইত্যাদির": 7959,
      "অস্ত্রোপ": 7960,
      "পানিতে": 7961,
      "পর্যাপ্ত": 7962,
      "পর্যায়ে": 7963,
      "মানববন্ধন": 7964,
      "সংশোধন": 7965,
      "সংশোধনের": 7966,
      "শুনেছি": 7967,
      "পূরণের": 7968,
      "পৌঁছ": 7969,
      "পৌঁছাতে": 7970,
      "কোম্পানিটি": 7971,
      "কোম্পানিটির": 7972,
      "url": 7973,
      "আসাদুজ্জামান": 7974,
      "গৃহে": 7975,
      "পড়ার": 7976,
      "শতকরা": 7977,
      "শামসুল": 7978,
      "সুলত": 7979,
      "সুলভ": 7980,
      "আদালতকে": 7981,
      "চিকিৎসাধীন": 7982,
      "ame": 7983,
      "appl": 7984,
      "ডাকাত": 7985,
      "ফর্ম": 7986,
      "ফর্মের": 7987,
      "দিয়েছেন": 7988,
      "মিলিয়ন": 7989,
      "ভাষার": 7990,
      "ভাষায়": 7991,
      "কোরিয়া": 7992,
      "ব্যান্ডে": 7993,
      "সংখ্যাও": 7994,
      "পুরস্কারদৈনিক": 7995,
      "চলচ্চিত্রে": 7996,
      "মামুনুর": 7997,
      "ব্রিজ": 7998,
      "ব্রিটেন": 7999,
      "বহুমুখী": 8000,
      "অপরাধী": 8001,
      "জন্মদিন": 8002,
      "পরামর্শের": 8003,
      "পরিস্থিতিতে": 8004,
      "ঐক্যফ্রন্": 8005,
      "চাননি": 8006,
      "ভার্চু": 8007,
      "মেনুবার": 8008,
      "যন্ত্রপাতি": 8009,
      "মাসুমের": 8010,
      "কর্মসূচী": 8011,
      "কর্মসূচির": 8012,
      "ফেলুন": 8013,
      "সাম্প্রদায়": 8014,
      "মূল্যঃ": 8015,
      "সূত্রপাত": 8016,
      "মহিলাদের": 8017,
[...]
