{
  "version": "1.0",
  "truncation": null,
  "padding": null,
  "added_tokens": [
    {
      "id": 0,
      "content": "<|endoftext|>",
      "single_word": false,
      "lstrip": false,
      "rstrip": false,
      "normalized": false,
      "special": true
    },
    {
      "id": 1,
      "content": "<|im_start|>",
      "single_word": false,
      "lstrip": false,
      "rstrip": false,
      "normalized": false,
      "special": true
    },
    {
      "id": 2,
      "content": "<|im_end|>",
      "single_word": false,
      "lstrip": false,
      "rstrip": false,
      "normalized": false,
      "special": true
    }
  ],
  "normalizer": {
    "type": "Sequence",
    "normalizers": [
      {
        "type": "NFC"
      }
    ]
  },
  "pre_tokenizer": {
    "type": "Sequence",
    "pretokenizers": [
      {
        "type": "Split",
        "pattern": {
          "String": "(?i:'s|'t|'re|'ve|'m|'ll|'d)|[^\\r\\n\\p{L}\\p{N}]?\\p{L}+|\\p{N}| ?[^\\s\\p{L}\\p{N}]+[\\r\\n]*|\\s*[\\r\\n]+|\\s+(?!\\S)|\\s+"
        },
        "behavior": "Isolated",
        "invert": false
      },
      {
        "type": "ByteLevel",
        "add_prefix_space": false,
        "trim_offsets": true,
        "use_regex": true
      }
    ]
  },
  "post_processor": null,
  "decoder": {
    "type": "ByteLevel",
    "add_prefix_space": true,
    "trim_offsets": true,
    "use_regex": true
  },
  "model": {
    "type": "BPE",
    "dropout": null,
    "unk_token": null,
    "continuing_subword_prefix": null,
    "end_of_word_suffix": null,
    "fuse_unk": false,
    "byte_fallback": false,
    "ignore_merges": false,
    "vocab": {
      "<|endoftext|>": 0,
      "<|im_start|>": 1,
      "<|im_end|>": 2,
      "!": 3,
      "\"": 4,
      "#": 5,
      "%": 6,
      "&": 7,
      "'": 8,
      "(": 9,
      ")": 10,
      "*": 11,
      "+": 12,
      ",": 13,
      "-": 14,
      ".": 15,
      "/": 16,
      "0": 17,
      "1": 18,
      "2": 19,
      "3": 20,
      "4": 21,
      "5": 22,
      "6": 23,
      "7": 24,
      "8": 25,
      "9": 26,
      ":": 27,
      ";": 28,
      "<": 29,
      "=": 30,
      ">": 31,
      "?": 32,
      "@": 33,
      "A": 34,
      "B": 35,
      "C": 36,
      "D": 37,
      "E": 38,
      "F": 39,
      "G": 40,
      "H": 41,
      "I": 42,
      "J": 43,
      "K": 44,
      "L": 45,
      "M": 46,
      "N": 47,
      "O": 48,
      "P": 49,
      "Q": 50,
      "R": 51,
      "S": 52,
      "T": 53,
      "U": 54,
      "V": 55,
      "W": 56,
      "X": 57,
      "Y": 58,
      "Z": 59,
      "[": 60,
      "]": 61,
      "_": 62,
      "`": 63,
      "a": 64,
      "b": 65,
      "c": 66,
      "d": 67,
      "e": 68,
      "f": 69,
      "g": 70,
      "h": 71,
      "i": 72,
      "j": 73,
      "k": 74,
      "l": 75,
      "m": 76,
      "n": 77,
      "o": 78,
      "p": 79,
      "q": 80,
      "r": 81,
      "s": 82,
      "t": 83,
      "u": 84,
      "v": 85,
      "w": 86,
      "x": 87,
      "y": 88,
      "z": 89,
      "|": 90,
      "¡": 91,
      "¢": 92,
      "£": 93,
      "¤": 94,
      "¥": 95,
      "¦": 96,
      "§": 97,
      "¨": 98,
      "©": 99,
      "ª": 100,
      "«": 101,
      "¬": 102,
      "®": 103,
      "¯": 104,
      "°": 105,
      "²": 106,
      "³": 107,
      "¶": 108,
      "·": 109,
      "¸": 110,
      "¹": 111,
      "º": 112,
      "»": 113,
      "¼": 114,
      "½": 115,
      "¾": 116,
      "¿": 117,
      "Â": 118,
      "Ã": 119,
      "Å": 120,
      "à": 121,
      "â": 122,
      "ï": 123,
      "ð": 124,
      "ĉ": 125,
      "Ċ": 126,
      "Ġ": 127,
      "Ģ": 128,
      "ģ": 129,
      "Ĥ": 130,
      "ĥ": 131,
      "Ħ": 132,
      "ħ": 133,
      "Ĩ": 134,
      "ĩ": 135,
      "Ī": 136,
      "ī": 137,
      "Ĭ": 138,
      "ĭ": 139,
      "Į": 140,
      "į": 141,
      "İ": 142,
      "ı": 143,
      "Ĳ": 144,
      "ĳ": 145,
      "Ĵ": 146,
      "ĵ": 147,
      "Ķ": 148,
      "ķ": 149,
      "ĸ": 150,
      "Ĺ": 151,
      "ĺ": 152,
      "Ļ": 153,
      "ļ": 154,
      "Ľ": 155,
      "ľ": 156,
      "Ŀ": 157,
      "ŀ": 158,
      "Ł": 159,
      "ł": 160,
      "Ń": 161,
      "à¦": 162,
      "à§": 163,
      "Ġà¦": 164,
      "à¦¾": 165,
      "à¦°": 166,
      "à§ĩ": 167,
      "à§į": 168,
      "à¦¿": 169,
      "à¦¨": 170,
      "à¦¯": 171,
      "à¦¤": 172,
      "à¦ķ": 173,
      "à¦²": 174,
      "à¦¼": 175,
      "à¦¬": 176,
      "à¦®": 177,
      "à§ģ": 178,
      "Ġà¦ķ": 179,
      "à¦¸": 180,
      "Ġà¦¸": 181,
      "Ġà¦¬": 182,
      "à¦¦": 183,
      "à§ĭ": 184,
      "Ġà¦ª": 185,
      "à¦Ł": 186,
      "à¦ª": 187,
      "à¥": 188,
      "à¥¤": 189,
      "à§Ģ": 190,
      "Ġà¦Ĩ": 191,
      "Ġà¦®": 192,
      "Ġà¦ı": 193,
      "à¦ľ": 194,
      "à¦¶": 195,
      "Ġà¦¨": 196,
      "à¦ĩ": 197,
      "à¦Ĺ": 198,
      "Ġà¦¦": 199,
      "Ġà¦¹": 200,
      "à¦Ľ": 201,
      "à¦¼à§ĩ": 202,
      "à¦¹": 203,
      "à¦¡": 204,
      "Ġà¦ķà¦°": 205,
      "à¦·": 206,
      "à¦¼à¦¾": 207,
      "Ġà¦ľ": 208,
      "à¦§": 209,
      "Ġà¦¤": 210,
      "Ġà¦ħ": 211,
      "à¦ļ": 212,
      "Ġà§": 213,
      "à¦Ń": 214,
      "à¦Ĥ": 215,
      "Ġà¦°": 216,
      "à¦ĸ": 217,
      "à¦¥": 218,
      "Ġà¦¯": 219,
      "à¦£": 220,
      "à¦ĵ": 221,
      "Ġà¦¶": 222,
      "Ġà¦Ĺ": 223,
      "Ġà¦ļ": 224,
      "à§ĩà¥¤": 225,
      "Ġà¦ĵ": 226,
      "âĢ": 227,
      "à§¦": 228,
      "Ġà¦ī": 229,
      "Ġà¦Ń": 230,
      "Ġà¦ªà¦°": 231,
      "Ġà¦ıà¦ķ": 232,
      "à¦«": 233,
      "Ġà¦«": 234,
      "Ġà¦¸à¦®": 235,
      "Ġà¦¹à¦¯": 236,
      "Ġà¦ĩ": 237,
      "§à§": 238,
      "Ġà¦²": 239,
      "Ġà¦¥": 240,
      "à§ĥ": 241,
      "Ġà¦ĸ": 242,
      "à§Ĥ": 243,
      "à¦°à¦¤": 244,
      "Ġà¦Ľ": 245,
      "Ġ(": 246,
      "à¦Ļ": 247,
      "à¦ı": 248,
      "Ġà¦ħà¦¨": 249,
      "Ġà¦Ĩà¦®": 250,
      "à¦ī": 251,
      "à¦ģ": 252,
      "Ġà¦ľà¦¨": 253,
      "à¦°à¦ķ": 254,
      "Ġà¦¬à¦²": 255,
      "à¦¬à¦°": 256,
      "à¦ł": 257,
      "à¦ĵà¦¯": 258,
      "Ġà¦Ł": 259,
      "à§§à§": 260,
      "âĢĻ": 261,
      "à¦Ĩ": 262,
      "à¦ŀ": 263,
      "Ġà§¨": 264,
      "Ġà¦¡": 265,
      "Ġà¦ıà¦¬": 266,
      "à¦°à¦£": 267,
      "à§Į": 268,
      "Ġà¦Ĩà¦°": 269,
      "à¦¾à¦ģ": 270,
      "à¦ªà¦¨": 271,
      "à¦ľà¦¨": 272,
      "à¦¼à¥¤": 273,
      "à¦¾à¥¤": 274,
      "à¦®à¦¨": 275,
      "Ġà¦ıà¦ĩ": 276,
      "à§¨": 277,
      "Ġà¦§": 278,
      "à¦ªà¦°": 279,
      "ĠâĢ": 280,
      "à¦ĥ": 281,
      "Ġà¦ĺ": 282,
      "à¦¤à¦°": 283,
      "Ġà¦®à¦¨": 284,
      "à¦¿à¥¤": 285,
      "Ġà¦ıà¦ķà¦Ł": 286,
      "à¦¼à¦¿": 287,
      "à§«": 288,
      "à¦ķà¦°": 289,
      "à§©": 290,
      "ĠÂ": 291,
      "Ġà¦ķà¦°à¦¤": 292,
      "à¦ªà¦¤": 293,
      "Ġà¦¹à¦¬": 294,
      "à¦¶à¦¨": 295,
      "à§ĩ,": 296,
      "01": 297,
      "à¦¬à¦¸": 298,
      "Ġà¦īà¦ª": 299,
      "Ġà§§à§": 300,
      "à¦¬à¦¨": 301,
      "à¦ļà¦¨": 302,
      "..": 303,
      "Ġ2": 304,
      "Ġà¦Ĩà¦¸": 305,
      "à¦°à¦®": 306,
      "Ġà¦Ĩà¦²": 307,
      "à¦¿à¦Ĥ": 308,
      "à¦ĩà¦²": 309,
      "à¦ĩà¦¨": 310,
      "Ġ201": 311,
      "à¦¾,": 312,
      "à§Ī": 313,
      "Ġà¦ıà¦°": 314,
      "à¦²à¦ķ": 315,
      "Ġà¦¸à¦®à¦¯": 316,
      "Ġà¦Ĩà¦Ĺ": 317,
      "Ġà§¨à§¦": 318,
      "Ġà¦īà¦¦": 319,
      "Ġà¦Ĩà¦¬": 320,
      "ĠâĢĺ": 321,
      "à¦²à¦¨": 322,
      "à¦ĸà¦¨": 323,
      "à¦ĺ": 324,
      "à¦°à¦¬": 325,
      "Ġà¦®à¦§": 326,
      "à§®": 327,
      "Ġà¦¹à¦²": 328,
      "à¦°à¦¸": 329,
      "Ġà¦ħà¦Ń": 330,
      "à§ª": 331,
      "Ġà¦¹à¦¤": 332,
      "à¦°à¦¦": 333,
      "Ġà¦ķà¦®": 334,
      "à§¯": 335,
      "Ġà§§": 336,
      "à§İ": 337,
      "à¦¬à¦¹": 338,
      "Ġà¦Ĩà¦ªà¦¨": 339,
      "Ġà¦§à¦°": 340,
      "Ġà¦¸à¦¬": 341,
      "à¦¹à¦®": 342,
      "à§¦à§¦": 343,
      "à¦¿,": 344,
      "à¦¦à¦¨": 345,
      "à¦®à¦²": 346,
      "Ġà¦ıà¦¸": 347,
      "à§Ń": 348,
      "à¦¦à¦°": 349,
      "à¦Ĺà¦°": 350,
      "Ġà¦¸à¦¨": 351,
      "Ġà¦¸à¦Ļ": 352,
      "Ġà¦ļà¦²": 353,
      "à¦®à¦¤": 354,
      "à§§": 355,
      "Ġà§¨à§¦à§§à§": 356,
      "à§¬": 357,
      "Ġà¦ªà¦¡": 358,
      "Ġ:": 359,
      "à¦¤à¦¬": 360,
      "à¦¸à¦²": 361,
      "à¦¦à¦ķ": 362,
      "à§ĭâĢĻ": 363,
      "à¦ķà¦²": 364,
      "à¦¾à¦Ĥ": 365,
      "Ġà¦¢": 366,
      "à¦Łà¦¨": 367,
      "Ġà¦Ĩà¦¨": 368,
      "Ġà§©": 369,
      "à¦Ľà¦°": 370,
      "Ġà¦¦à¦²": 371,
      "à¦¬à¦²": 372,
      "à¦·à¦£": 373,
      "à¦īà¦¨": 374,
      "à¦¹à¦¤": 375,
      "à¦¯à¦®": 376,
      "Ġà¦¬à¦°": 377,
      "Ġ-": 378,
      "à¦¤à¦¨": 379,
      "Ġà¦ĵà¦¯": 380,
      "à¦²à¦¤": 381,
      "à¦¼à§ĭ": 382,
      "Ġà¦¸à¦¹": 383,
      "à¦¼,": 384,
      "à¦ªà¦ķ": 385,
      "à¦Ĺà¦ŀ": 386,
      "à¦·à¦¯": 387,
      "Ġà¦ķà¦¥": 388,
      "Ġà¦ħà¦°": 389,
      "Ġà¦®à¦¹": 390,
      "à¦ĩà¦Ł": 391,
      "Ġà¦ıà¦²": 392,
      "Ġà¦Ľà¦¬": 393,
      "...": 394,
      "ĠÂ·": 395,
      "in": 396,
      "à¦°à¦¯": 397,
      "à¦¤à¦®": 398,
      "Ġà¦¬à¦Ľà¦°": 399,
      "Ġà¦Ĩà¦¦": 400,
      "Ġà¦īà¦ªà¦ľ": 401,
      "à¦¯à¦ķ": 402,
      "à¦²à¦¯": 403,
      "Ġà§«": 404,
      "Ġà¦Ĩà¦®à¦°": 405,
      "Ġà¦Ĩà¦ľ": 406,
      "à¦¸à¦¬": 407,
      "Ġà¦¸à¦Ń": 408,
      "Ġà¦ħà¦§": 409,
      "à¦°à¦§": 410,
      "à¦¸à¦®": 411,
      "à¦°à¦¶": 412,
      "Ġà§¦": 413,
      "Ġà¦ĩà¦¸à¦²": 414,
      "à¦Ŀ": 415,
      "Ġà¦Ĺà¦¤": 416,
      "Ġà¦ĩà¦¨": 417,
      "à¦¾-": 418,
      "à¦¯à¦¬à¦¹": 419,
      "à¦¼à§Ģ": 420,
      "à¦¨à¦¯": 421,
      "à¦Łà¦ķ": 422,
      "Ġà¦¤à¦¬": 423,
      "à¦°à¦¹": 424,
      "Ġà¦¸à¦°à¦ķ": 425,
      "Ġà¦ıà¦¨": 426,
      "Ġà§ª": 427,
      "Ġà¦ıà¦ĸà¦¨": 428,
      "Ġ0": 429,
      "à¦ķà¦Ł": 430,
      "Ġà¦Ĩà¦Ľ": 431,
      "à¦¥à¦®": 432,
      "à¦¨à¦¤": 433,
      "Ġà¦¸à¦°": 434,
      "Ġà¦®à¦¤": 435,
      "Ġà¦°à¦¯": 436,
      "à¦ıà¦¨": 437,
      "an": 438,
      "à¦®à¦°": 439,
      "à¦ĩà¦ķ": 440,
      "Ġà¦¹à¦ļ": 441,
      "à¦¶à¦ķ": 442,
      "Ġà¦¬à¦¨": 443,
      "à¦Ĺà¦¤": 444,
      "Ġt": 445,
      "à¦°à¦¨": 446,
      "à¦²à¦¬": 447,
      "à¦¸à¦¹": 448,
      "Ġà¦¨à¦¯": 449,
      "Ġà¦ħà¦¬": 450,
      "Ġà¦ıà¦Ł": 451,
      "Ġà¦ĺà¦Łà¦¨": 452,
      "à¦°à¦¥à¦®": 453,
      "Ġà¦¹à¦ĵà¦¯": 454,
      "er": 455,
      "à¦ħ": 456,
      "à¦°à¦ª": 457,
      "à¦¯à¦¨": 458,
      "Ġà¦ķà¦°à¦¬": 459,
      "Ġà¦ħà¦¬à¦¸": 460,
      "Ġà¦īà¦¨": 461,
      "à¦®à¦¸": 462,
      "Ġà¦Ĩà¦ķ": 463,
      "Ġà¦Ĩà¦ĵà¦¯": 464,
      "Ġà§¬": 465,
      "Ġà¦°à¦¹à¦®": 466,
      "à¦ıà¦¸": 467,
      "à¦¬à¦¬": 468,
      "Ġà¦ķà¦²": 469,
      "Ġà¦īà¦¤": 470,
      "Ġà§§à§¦": 471,
      "à¦¯à¦¬à¦¸": 472,
      "à¦®à¦ķ": 473,
      "Ġà¦Ĩà¦¶": 474,
      "Ġà¦ıà¦¤": 475,
      "Ġà¦ħà¦¸": 476,
      "Ġà§¯": 477,
      "es": 478,
      "Ġà¦ªà¦¦": 479,
      "à¦ĩà¦¸": 480,
      "Ġà¦ıà¦®à¦¨": 481,
      "à¦¨à¦ķ": 482,
      "à¦¹à¦°": 483,
      "Ġà¦ķà¦°à¦Ľ": 484,
      "Ġà§Ń": 485,
      "Ġà¦¸à¦¨à¦¦": 486,
      "Ġà¥¤": 487,
      "à¦¬à¦ķ": 488,
      "co": 489,
      "Ġà¦¤à¦¥": 490,
      "à§İà¦¸": 491,
      "à¦°à¦ļ": 492,
      "à¦¨à¦¬": 493,
      "Ġà¦¨à¦¤": 494,
      "à¦§à¦¨": 495,
      "à¦¨à¦Ł": 496,
      "à¦īà¦ľ": 497,
      "à§¨à§¦": 498,
      "Ġ2018": 499,
      "on": 500,
      "à¦®à¦ķà¦°": 501,
      "à¦¦à¦ª": 502,
      "Ġà¦Ĩà¦ĩà¦¨": 503,
      "à¦¢": 504,
      "à¦¸à¦ª": 505,
      "à¦ıà¦®": 506,
      "à¦ıà¦¨à¦ª": 507,
      "à¦¨à¦ķà¦°": 508,
      "Ġà¦¸à¦¦": 509,
      "Ġà¦¬à¦¸": 510,
      "Ġà¦ħà¦ķ": 511,
      "ĠÂ«": 512,
      "--": 513,
      "Ġ1": 514,
      "à¦·à¦ķ": 515,
      "Ġà¦ľà¦®": 516,
      "à¦¯à¦¬": 517,
      "à¦¤à¦ķ": 518,
      "Ġà¦¬à¦¡": 519,
      "Ġà¦ħà¦¤": 520,
      "Ġà¦ĵà¦ĩ": 521,
      "à¦®à¦¦": 522,
      "à¦¸à¦¨": 523,
      "Ġà§®": 524,
      "à¦ıà¦°": 525,
      "en": 526,
      "âĢĮ": 527,
      "Ġà¦«à¦²": 528,
      "Ġà¦ĩà¦¤": 529,
      "Ġà¦ĩà¦īà¦¨": 530,
      "Ġà¦²à¦ķ": 531,
      "Ġà¦Ĳ": 532,
      "à¦¬à¦¤": 533,
      "à¦®à¦¯": 534,
      "Ġà¦ķà¦¯": 535,
      "Ġà¦¸à¦ķ": 536,
      "à§Ģ,": 537,
      "Ġà¦Ĩà¦¯": 538,
      "à¦ļà¦²": 539,
      "Ġà¦¯à¦¦": 540,
      "Ġà¦¸à¦¦à¦¸": 541,
      "Ġà¦ħà¦ª": 542,
      "ĠÂ»": 543,
      "com": 544,
      "à¦°à¦Ĺ": 545,
      "à¦ĸà¦¤": 546,
      "ov": 547,
      "à¦ķà¦¤": 548,
      "à¦ķà¦¬": 549,
      "à¦¸à¦¦": 550,
      "Ġà¦ħà¦«": 551,
      "do": 552,
      "à¦°à¦²": 553,
      "à¦ĩà¦¯": 554,
      "Ġà¦¸à¦®à¦¸": 555,
      "Ġ2017": 556,
      "at": 557,
      "ĠS": 558,
      "Ġà¦ł": 559,
      "Ġà¦¬à¦¯": 560,
      "Ġ2016": 561,
      "à¦ķà¦¦": 562,
      "Ġà¦¬à¦ķ": 563,
      "Ġà¦ıà¦¸à¦¬": 564,
      "Ġ...": 565,
      "à¦°à¦Ń": 566,
      "à¦¨à¦¨": 567,
      "à§Ģà¥¤": 568,
      "Ġà¦Ĩà¦¹à¦®": 569,
      "Ġà¦¹à¦ķ": 570,
      "âĢ¦": 571,
      "à¦«à¦²": 572,
      "à§§à§Ń": 573,
      "re": 574,
      "Ġà¦ªà¦ķ": 575,
      "Ġà¦Ĩà¦ĩ": 576,
      "à¦ľà¦¶": 577,
      "Ġà¦ķà¦°à¦²": 578,
      "**": 579,
      "il": 580,
      "à¦¯à¦¤": 581,
      "Ġà¦ıà¦®": 582,
      "à¦¸à¦ķ": 583,
      "à¦Łà¦Ĺ": 584,
      "à¦īà¦Ł": 585,
      "ma": 586,
      "Ġs": 587,
      "à¦°à¦ĩ": 588,
      "à¦²à¦Ł": 589,
      "Ġà¦¨à¦Ń": 590,
      "à¦¹à¦¸": 591,
      "Ġà¦Ĩà¦°à¦ĵ": 592,
      "ou": 593,
      "à¦ķà¦®": 594,
      "à¦®à¦¬": 595,
      "Ġà¦ķà¦¬": 596,
      "à§ĭà¥¤": 597,
      "à¦ªà¦¦": 598,
      "Ġà¦ĸà¦¬à¦°": 599,
      "à¦°à¦Ł": 600,
      "à¦¿à¦ĥ": 601,
      "à¦¨à¦ĵ": 602,
      "à¦Ľà¦²": 603,
      "Ġà¦īà¦ł": 604,
      "à¦°à¦ĵ": 605,
      "à¦¿-": 606,
      "à§ģà¦ģ": 607,
      "Ġà¦ªà¦¥": 608,
      "Ġà¦ıà¦ª": 609,
      "Ġà¦ıà¦Ĺ": 610,
      "à¦ĩà¦°": 611,
      "à¦§à¦¤": 612,
      "Ġà¦ħà¦ªà¦°": 613,
      "à¦ĸà¦²": 614,
      "Ġà¦ıà¦ķà¦ľà¦¨": 615,
      "Ġà¦ĺà¦Ł": 616,
      "à¦°à¦¹à¦£": 617,
      "Ġà§¯à§«": 618,
      "bd": 619,
      "ĠP": 620,
      "à¦¨à¦¸": 621,
      "à¦¨à¦®à¦¨": 622,
      "Ġà¦Ĩà¦ª": 623,
      "Ġà¦Ĩà¦Łà¦ķ": 624,
      "à¦·à¦®à¦¤": 625,
      "Ġà¦¶à¦¤": 626,
      "Ġà¦Ĺà¦£": 627,
      "à¦«à¦¤": 628,
      "à§§à§¨": 629,
      "à§¦à§¦à§¦": 630,
      "à¦¸à¦°": 631,
      "Ġà¦ĩà¦ŀ": 632,
      "Ġà¦Ŀ": 633,
      "Ġà¦ķà¦ª": 634,
      "Ġà¦¬à¦¹": 635,
      "à¦·à¦¦": 636,
      "Ġà¦ıà¦ķà¦ĩ": 637,
      "Ġà§¨à§¦à§§à§®": 638,
      "ĠA": 639,
      "ĠC": 640,
      "Ġà¦ªà¦¤": 641,
      "Ġà¦¦à¦ķ": 642,
      "Ġà¦īà¦ªà¦°": 643,
      "Ġà§§à§¯": 644,
      "à¦¬à¦¹à¦¨": 645,
      "ed": 646,
      "gov": 647,
      "Âł": 648,
      "Ġà¦¸à¦ķà¦²": 649,
      "à¦Ľà¦¨": 650,
      "Ġà¦ľà¦Ļ": 651,
      "à¦ļà¦Ł": 652,
      "Ġà¦¶à¦°": 653,
      "ar": 654,
      "he": 655,
      "it": 656,
      "Ġa": 657,
      "Ġc": 658,
      "à¦ķà¦¨": 659,
      "à§ĭ,": 660,
      "à¦ľà¦°": 661,
      "à¦Ĺà¦£": 662,
      "Ġà¦īà¦²": 663,
      "Ġà¦īà¦ļ": 664,
      "Ġà¦Ńà¦¬à¦¨": 665,
      "Ġà¦ĺà¦°": 666,
      "Ġà¦īà¦ªà¦¸": 667,
      "Ġà¦Ĩà¦Ĺà¦¸": 668,
      "or": 669,
      "Ġà¦Ī": 670,
      "à§ĭà¦ĥ": 671,
      "Ġà¦ıà¦ĸ": 672,
      "Ġà¦¨à¦¬": 673,
      "Ġà¦ĵà¦ªà¦°": 674,
      "à¦Ĩà¦®": 675,
      "/-": 676,
      "à§ĩà¦ģ": 677,
      "à¦ķà¦ľà¦¨": 678,
      "Ġà¦¸à¦¦à¦°": 679,
      "à¦Łà¦°": 680,
      "Ġà¦Ĩà¦¤": 681,
      "à¦«à¦°": 682,
      "à¦īà¦²": 683,
      "à§§à§¯": 684,
      "Ġà¦Ĩà¦¸à¦¨": 685,
      "dos": 686,
      "Ġ'": 687,
      "Ġb": 688,
      "à¦¬à¦ª": 689,
      "à§ĭ.": 690,
      "à¦ľà¦®": 691,
      "à¦ĩà¦ľ": 692,
      "à¦Ĺà¦²à¦¬": 693,
      "Ġà¦ľà¦¯": 694,
      "à¦§à¦¬": 695,
      "à¦¥à¦¬": 696,
      "âĢĿ": 697,
      "Ġà¦ĩà¦¸": 698,
      "Ġà¦ĩà¦ī": 699,
      "à¦łà¦¨": 700,
      "à§§à§¬": 701,
      "Ġà§§à§§": 702,
      "Ġ2015": 703,
      "Ġà¦¸à¦¬à¦ļ": 704,
      "Ġà§¨à§¦à§§à§Ń": 705,
      "al": 706,
      "Ġ/": 707,
      "Ġp": 708,
      "à¦°à¦ªà¦¤": 709,
      "à¦¨à¦¦": 710,
      "à¦¼à§ĩà¥¤": 711,
      "Ġà¦°à¦ķ": 712,
      "Ġà¦¶à¦¹à¦°": 713,
      ")à¥¤": 714,
      "ad": 715,
      "à¦¨à¦®": 716,
      "à¦¨à¦Ĺà¦°": 717,
      "à¦²à¦®": 718,
      "à¦²à¦Ń": 719,
      "Ġà¦¸à¦¡": 720,
      "à¦¼à¦¾,": 721,
      "Ġà¦ľà¦¬": 722,
      "à¦§à¦°": 723,
      "Ġà¦ĩà¦®": 724,
      "à¦ıà¦ķ": 725,
      "à¦ıà¦ĩ": 726,
      "à¦Ĩà¦ĩ": 727,
      "ĠÂł": 728,
      "Ġà§§à§«": 729,
      "Ġà§§à§®": 730,
      "Ġà¦Ĩà¦²à¦®": 731,
      "Ġà§¨à§¦à§§à§¬": 732,
      "Ġn": 733,
      "à§·": 734,
      "à¦°à¦«": 735,
      "à¦¬à¦¦": 736,
      "Ġà¦ķà¦¨": 737,
      "Ġà¦ķà¦ĸà¦¨": 738,
      "Ġà¦¬à¦Ļ": 739,
      "Ġà¦Ĩà¦¹": 740,
      "Ġà¦Ĩà¦¹à¦¤": 741,
      "Ġà¦¤à¦ĸà¦¨": 742,
      "à¦¥à¦¨": 743,
      "à§§à§«": 744,
      "à§§à§®": 745,
      "à¦Ĩà¦°": 746,
      "à§¨à§ª": 747,
      "ĠâĢ¢": 748,
      "Ġà§§à§¨": 749,
      "ing": 750,
      "mail": 751,
      "of": 752,
      "se": 753,
      "Ġh": 754,
      "à§ĩ-": 755,
      "à§ģ,": 756,
      "Ġà¦ªà¦£": 757,
      "Ġà¦¨à¦®": 758,
      "à¦ĩà¦®": 759,
      "à¦ĩà¦Ń": 760,
      "Ġà¦¦à¦°": 761,
      "Ġà¦¦à¦¶": 762,
      "à¦¹à¦²": 763,
      "à¦·à¦¤": 764,
      "Ġà¦ļà¦Ł": 765,
      "ĠâĢľ": 766,
      "à¦ĺà¦°": 767,
      "à§İà¦ķ": 768,
      "Ġà¦ļà¦²à¦Ľ": 769,
      "Ġà¦Ĺà¦¤à¦ķ": 770,
      "),": 771,
      "12": 772,
      "le": 773,
      "st": 774,
      "à¦¯à¦¦": 775,
      "à§ģâĢĻ": 776,
      "Ġà¦¸à¦ª": 777,
      "à¦Łà¦®": 778,
      "à¥¤âĢĻ": 779,
      "Ġà¦®à¦Ļ": 780,
      "à¦Ĺà¦¬à¦¨": 781,
      "à¦Ľà¦¡": 782,
      "Ġà¦Ńà¦¯": 783,
      "Ġà¦«à¦°": 784,
      "à¦īà¦¦": 785,
      "Ġà¦¬à¦²à¦²": 786,
      "Ġà¦¡à¦²": 787,
      "ĠâĢ¦": 788,
      "à§«à§¦": 789,
      "Ġà¦Ĩà¦¸à¦Ľ": 790,
      "Ġà§¦à§§à§Ń": 791,
      "Ġà¦ħà¦¬à¦¶": 792,
      "13": 793,
      "ion": 794,
      "ra": 795,
      "Ġm": 796,
      "à§ĩ?": 797,
      "à¦¨à¦°": 798,
      "à¦²à¦ª": 799,
      "à¦¦à¦¶": 800,
      "à¦ľà¦¸": 801,
      "à¦ļà¦¯": 802,
      "Ġà¦ĩà¦¯": 803,
      "à¦łà¦ķ": 804,
      "à§©à§¦": 805,
      "gmail": 806,
      "ĠM": 807,
      "ĠĊ": 808,
      "à¦¿)": 809,
      "à¦¤à¦¤": 810,
      "à¦¸à¦Ń": 811,
      "Ġà¦¸à¦¤": 812,
      "Ġà¦ıà¦¡": 813,
      "à¦ľà¦¯": 814,
      "Ġà¦¨à¦Ĺà¦°": 815,
      "à¦Ĺà¦®": 816,
      "à¦Ńà¦¬": 817,
      "Ġà¦°à¦¬": 818,
      "à¦®à¦¨à¦¸": 819,
      "Ġthe": 820,
      "de": 821,
      "à¦¬à¦¶": 822,
      "à¦®à¦Ĺ": 823,
      "à¦ªà¦¡": 824,
      "Ġà¦®à¦°": 825,
      "à¦Ĺà¦ľ": 826,
      "à¦£à¦Ĺà¦ŀ": 827,
      "Ġà¦Ĺà¦¡": 828,
      "âĢĺ": 829,
      "Ġà¦Ĩà¦¨à¦¨": 830,
      "Ġà§©à§¦": 831,
      "un": 832,
      "Ġin": 833,
      "à¦¤à¦¦": 834,
      "à¦¸à¦Ł": 835,
      "à¦Łà¦¬à¦²": 836,
      "Ġà¦®à¦¸": 837,
      "Ġà¦ıà¦Ľ": 838,
      "à¦ĩà¦¡": 839,
      "à¦Ĺà¦²": 840,
      "Ġà¦¯à¦ĸà¦¨": 841,
      "Ġà¦Ĺà¦²": 842,
      "à¦īà¦¡": 843,
      "à¦°à¦®à¦£": 844,
      "Ġà¦§à¦°à¦¨": 845,
      "âĢĮà§į": 846,
      "***": 847,
      "ww": 848,
      "Ġf": 849,
      "Ġan": 850,
      "Ġof": 851,
      "à¦¾:": 852,
      "à¦¨à¦¬à¦¨": 853,
      "à¦²à¦Ĺ": 854,
      "à¦¼à§ģ": 855,
      "Ġà¦ıà¦¦": 856,
      "à¦ľà¦§": 857,
      "Ġà¦¯à¦¥": 858,
      "Ġà¦ĸà¦¨": 859,
      "à§§à§§": 860,
      "à§§à§©": 861,
      "à§Įà¦ģ": 862,
      "Ġà§§à§©": 863,
      "Ġà¦¸à¦¹à¦ľ": 864,
      "ang": 865,
      "ÂłĊ": 866,
      "50": 867,
      "ag": 868,
      "la": 869,
      "lo": 870,
      "ĠD": 871,
      "à¦²à¦¸": 872,
      "à¦¬à¦¯": 873,
      "Ġà¦ķà¦ķ": 874,
      "Ġà¦ķà¦£": 875,
      "à¦¦à¦²": 876,
      "à¦¶à¦°": 877,
      "Ġà¦¹à¦¨": 878,
      "Ġà¦¤à¦°": 879,
      "à¦ĸà¦°": 880,
      "Ġà¦Ĺà¦¬": 881,
      "Ġà¦ħà¦¨à¦²": 882,
      "à¦°à¦ķà¦²": 883,
      "Ġà§¨à§«": 884,
      "à§©à§«": 885,
      "Ġà§§à§ª": 886,
      "Ġà§§à§¬": 887,
      "Ġà¦Ĩà¦¸à¦²": 888,
      "Ġà§¨à§¦à§§à§«": 889,
      "ic": 890,
      "im": 891,
      "ĉĊ": 892,
      "Ġ?": 893,
      "ĠB": 894,
      "ĠE": 895,
      "à¦°à¦ªà¦°": 896,
      "à¦¿:": 897,
      "à¦¨à¦Ĺ": 898,
      "à¦¯à¦¸": 899,
      "à¦ķà¦ķ": 900,
      "à¦ªà¦Ł": 901,
      "à¦ľà¦¤": 902,
      "Ġà¦¨à¦ľà¦°": 903,
      "à¦ĩà¦¬": 904,
      "Ġà¦ľà¦¡": 905,
      "Ġà¦Ĺà¦°": 906,
      "Ġà¦īà§İ": 907,
      "Ġà¦Ńà¦°": 908,
      "Ġà¦ĩà¦Ľà¦²": 909,
      "Ġà¦ľà¦¨à¦Ĺà¦£": 910,
      "à¦ľà¦¨à¦ķ": 911,
      "Ġà¦ļà¦²à¦¤": 912,
      "---": 913,
      ">>": 914,
      "am": 915,
      "vi": 916,
      "ĠI": 917,
      "Ġâ": 918,
      "ĠĠ": 919,
      "à¦°à¦ľ": 920,
      "à¦Ĺà¦ĸ": 921,
      "à¦Ĺà¦¢": 922,
      "à¦Ĺà¦®à¦¯": 923,
      "à¦Ĺà¦ļà¦Ł": 924,
      "Ġà¦ľà¦°": 925,
      "Ġà¦¶à¦¨": 926,
      "Ġà¦ĵà¦¬": 927,
      "à¦«à¦Ł": 928,
      "à¦ıà¦«": 929,
      "à¦Ĩà¦ªà¦¨": 930,
      "Ġà§¨à§¦à§¦": 931,
      "à§®à§Ń": 932,
      "Ġà¦Ĳà¦ķ": 933,
      "Ġà§¯à§«à§«": 934,
      "14": 935,
      "ws": 936,
      "ĠT": 937,
      "Ġ01": 938,
      "à¦Ī": 939,
      "Ġà¦·": 940,
      "à¦¾)": 941,
      "à¦®à¦ļ": 942,
      "à¦¸à¦ļ": 943,
      "Ġà¦¸à¦ļ": 944,
      "à¦ľà¦ķ": 945,
      "à¦ľà¦²": 946,
      "à¦¶à¦²": 947,
      "Ġà¦¨à¦¥": 948,
      "à¦Ĺà¦¡": 949,
      "à¦Ĺà¦¬à¦°": 950,
      "Ġà¦ħà¦²": 951,
      "Ġà¦ħà¦ŀ": 952,
      "Ġà¦¶à¦«": 953,
      "Ġà¦īà¦ĩà¦ķ": 954,
      "Ġà¦¸à¦®à¦°": 955,
      "à§©à§¨": 956,
      "Ġà¦īà¦ªà¦²à¦ķ": 957,
      "à§¯à§¯": 958,
      "à§§à§¦": 959,
      "Ġà¦¸à¦¹à¦ķ": 960,
      "Ġà¦ıà¦®à¦¨à¦ķ": 961,
      "Ġà¦Īà¦¦": 962,
      "ct": 963,
      "em": 964,
      "th": 965,
      "à¦¾!": 966,
      "à¦¯à¦°": 967,
      "Ġà¦®à¦¯": 968,
      "à¦Ĺà¦¬": 969,
      "à¦Ĺà¦łà¦¨": 970,
      "Ġà¦¹à¦¸": 971,
      "à¦¹à¦¬": 972,
      "Ġà¦ħà¦Ĺ": 973,
      "à¦¥à¦²": 974,
      "Ġà¦ļà¦°": 975,
      "à¦«à¦¸": 976,
      "à¦īà¦°": 977,
      "Ġà¦ľà¦¨à¦ķ": 978,
      "à¦Ĩà¦ĩà¦¨": 979,
      "à¦¦à¦¨à¦ªà¦¤": 980,
      "Ġà¦ļà¦²à¦ļ": 981,
      "Ġà¦¸à¦¹à¦¯": 982,
      "Ġ10": 983,
      "ent": 984,
      "Ġà¦®à¦¸à¦ľ": 985,
      "19": 986,
      "ch": 987,
      "ro": 988,
      "ur": 989,
      "à¦¾.": 990,
      "à¦°à¦Ľ": 991,
      "à¦ķà¦Ń": 992,
      "à§ģà¦ĥ": 993,
      "Ġà¦ķà¦¤": 994,
      "à¦¦à¦®": 995,
      "à§ĭà¦ģ": 996,
      "Ġà¦®à¦¡": 997,
      "à¦ĩà¦¤": 998,
      "à¦¹à¦ķ": 999,
      "Ġà¦ķà¦°à¦ª": 1000,
      "à¦ļà¦ķ": 1001,
      "Ġà¦°à¦¶": 1002,
      "Ġà¦ļà¦¨": 1003,
      "Ġà¦ĵà¦°": 1004,
      "Ġà¦ªà¦°à¦¬à¦°": 1005,
      "Ġà¦«à¦°à¦®": 1006,
      "Ġà¦«à¦ĸà¦°": 1007,
      "à¦ŀà¦ª": 1008,
      "Ġà§¨à§ª": 1009,
      "à§¨à§Ń": 1010,
      "Ġà¦ĺà¦¨": 1011,
      "Ġà¦ıà¦°à¦ªà¦°": 1012,
      "Ġà§«à§¦": 1013,
      "Ġà§ªà§¦": 1014,
      "ess": 1015,
      "à¦ıà¦®à¦ĩ": 1016,
      "à¦¥à¦¬à¦Ľà¦°": 1017,
      "15": 1018,
      "<<": 1019,
      "ap": 1020,
      "as": 1021,
      "el": 1022,
      "ews": 1023,
      "Â»": 1024,
      "ĠW": 1025,
      "Ġvi": 1026,
      "Ġ<<": 1027,
      "à¦Ĳ": 1028,
      "à¦°à¦Ĺà¦ŀ": 1029,
      "à¦¿/": 1030,
      "à¦¤à¦²": 1031,
      "à¦ķà¦ļ": 1032,
      "à¦²à¦Ĺà¦ŀ": 1033,
      "à¦¼-": 1034,
      "à¦¬à¦ĩ": 1035,
      "à¦¸à¦¤": 1036,
      "à¦¸à¦°à¦ķ": 1037,
      "Ġà¦¬à¦¸à¦¬": 1038,
      "Ġà¦ªà¦²": 1039,
      "Ġà¦ªà¦¶": 1040,
      "à¦Łà¦Ł": 1041,
      "à¦ªà¦²": 1042,
      "à¦ªà¦¸": 1043,
      "à¦¶à¦¬": 1044,
      "à¦¶à¦Ĺ": 1045,
      "Ġà¦¦à¦«": 1046,
      "à¦¹à¦¨": 1047,
      "à¦¼à¦¾à¥¤": 1048,
      "Ġà¦¤à¦²": 1049,
      "Ġà¦¤à¦¦à¦¨": 1050,
      "à¦ĵà¦²": 1051,
      "à§ĩà¥¤âĢĻ": 1052,
      "Ġà¦ĩà¦ļ": 1053,
      "Ġà¦ľà¦¨à¦ª": 1054,
      "à§§à§§à§": 1055,
      "Ġà¦Ĩà¦°à¦¬": 1056,
      "Ġà§§à§Ń": 1057,
      "Ġà¦Ĩà¦¬à¦¦": 1058,
      "à¦ĺà¦¦": 1059,
      "Ġà¦ıà¦ĸà¦¨à¦ĵ": 1060,
      "à¦ıà¦®à¦ĩà¦ı": 1061,
      "Ġ<<>>": 1062,
      "17": 1063,
      "22": 1064,
      "ps": 1065,
      "tt": 1066,
      "Ġ,": 1067,
      "Ġ5": 1068,
      "ĠF": 1069,
      "ĠH": 1070,
      "Ġà¦ĭ": 1071,
      "à¦¾âĢĻ": 1072,
      "à¦¾à¦ĥ": 1073,
      "à¦°à¦°": 1074,
      "à¦¿.": 1075,
      "à¦¨à¦¡": 1076,
      "à¦¯à¦ĩ": 1077,
      "à¦¯à¦¥": 1078,
      "à¦¯à¦¤à¦®": 1079,
      "à¦ķà¦¶": 1080,
      "à¦®à¦ª": 1081,
      "Ġà¦ķà¦²à¦ķ": 1082,
      "Ġà¦¬à¦Ĺ": 1083,
      "Ġà¦ªà¦ł": 1084,
      "à¦Łà¦¸": 1085,
      "Ġà¦Ĩà¦īà¦Ł": 1086,
      "à¦ľà¦Ĺ": 1087,
      "Ġà¦¨à¦¡": 1088,
      "à¦Ĺà¦¦": 1089,
      "Ġà¦ħà¦ľ": 1090,
      "Ġà¦ħà¦Ļ": 1091,
      "à¦Ńà¦°": 1092,
      "Ġà¦Ĺà¦łà¦¨": 1093,
      "Ġà¦ĵà¦ł": 1094,
      "âĢĶ": 1095,
      "Ġà¦¸à¦®à¦¨": 1096,
      "Ġà¦ĩà¦²": 1097,
      "Ġà¦²à¦¡": 1098,
      "Ġà¦ĸà¦¦": 1099,
      "Ġà¦Ľà¦¯": 1100,
      "à¦īà¦ķ": 1101,
      "à¦°à¦ķà¦®": 1102,
      "Ġà¦¬à¦²à¦¤": 1103,
      "Ġà¦¬à¦²à¦Ľ": 1104,
      "à§§à§ª": 1105,
      "Ġà§¨à§¬": 1106,
      "Ġà¦ıà¦ĩà¦ļ": 1107,
      "à§©à§Ń": 1108,
      "Ġà¦Ĩà¦²à¦«": 1109,
      "Ġ---": 1110,
      "Ġà¦Ĩà¦¹à¦®à¦¦": 1111,
      "16": 1112,
      "ck": 1113,
      "is": 1114,
      "ĠL": 1115,
      "à¦°à¦ĸ": 1116,
      "à§ĩâĢĻ": 1117,
      "à¦¯à¦¯": 1118,
      "à¦¤à¦ĩ": 1119,
      "à¦ķà¦¸": 1120,
      "à§ģà¥¤": 1121,
      "Ġà¦ªà¦Ľà¦¨": 1122,
      "à¦ªà¦£": 1123,
      "Ġà¦Ĩà¦«": 1124,
      "Ġà¦®à¦ŀ": 1125,
      "à¦ľà¦Ń": 1126,
      "à¦¶à¦Ł": 1127,
      "Ġà¦¨à¦¦": 1128,
      "Ġà¦¨à¦Ł": 1129,
      "à¦ĩà¦ª": 1130,
      "à¦ĩà¦«": 1131,
      "à¦Ĺà¦¨": 1132,
      "à¦Ĺà¦ķ": 1133,
      "à¦·à¦®": 1134,
      "Ġà¦ħà¦®": 1135,
      "Ġà¦ħà¦¥à¦¬": 1136,
      "à¦ĸà¦Ľ": 1137,
      "à¦¥à¦°": 1138,
      "Ġà¦¶à¦ķ": 1139,
      "Ġà¦ļà¦ķ": 1140,
      "Ġà¦īà§İà¦¸": 1141,
      "Ġà¦Ľà¦¡": 1142,
      "à¦ŀà¦¤": 1143,
      "Ġà§¨à§¨": 1144,
      "Ġà¦¡à¦ķ": 1145,
      "Ġà¦ĺà¦£": 1146,
      "Ġà¦Ĩà¦¸à¦¤": 1147,
      "Ġà¦īà¦¦à¦¯": 1148,
      "à§ªà§¦": 1149,
      "à¦°à¦¦à¦¤": 1150,
      "Ġà§§à§¦à§¦": 1151,
      "à¦Ŀà¦¤": 1152,
      "à¦ħà¦¨": 1153,
      "Ġà§¬à§¦": 1154,
      "à§İà¦¸à¦ķ": 1155,
      "Ġà¦ıà¦®à¦ª": 1156,
      "Ġà¦¦à¦¶à¦®": 1157,
      "Ġà§¦à§§à§Ńà§§à§§à§": 1158,
      "Ġand": 1159,
      "24": 1160,
      "gh": 1161,
      "hm": 1162,
      "id": 1163,
      "Ġ*": 1164,
      "Ġ.": 1165,
      "ĠN": 1166,
      "ĠR": 1167,
      "Ġw": 1168,
      "à¦¾;": 1169,
      "à¦¨à¦ª": 1170,
      "à¦¯à¦®à¦¨": 1171,
      "à¦ķà¦°à¦£": 1172,
      "à¦®à¦¹": 1173,
      "à¦®à¦§": 1174,
      "Ġà¦¸à¦ľ": 1175,
      "Ġà¦¸à¦«": 1176,
      "Ġà¦¸à¦«à¦°": 1177,
      "à¦¦à¦¯": 1178,
      "à§ĭ-": 1179,
      "à¦Łà¦¦": 1180,
      "à¦ªà¦¶": 1181,
      "à§Ģ-": 1182,
      "Ġà¦Ĩà¦§": 1183,
      "Ġà¦®à¦ľ": 1184,
      "Ġà¦ıà¦¯": 1185,
      "à¦¶à¦¤": 1186,
      "à¦¡à¦¨": 1187,
      "Ġà¦ħà¦¡": 1188,
      "à¦Ńà¦¯": 1189,
      "à¦ĸà¦¬": 1190,
      "Ġà¦¶à¦¬": 1191,
      "Ġà¦īà¦Ńà¦¯": 1192,
      "à¦ıà¦²": 1193,
      "à¦Ĩà¦¨": 1194,
      "à¦Ĩà¦®à¦°": 1195,
      "Ġà§¨à§©": 1196,
      "à§¨à§¯": 1197,
      "à§©à§©": 1198,
      "Ġ2014": 1199,
      "à¦ĺà¦¨": 1200,
      "à¦ĺà¦Łà¦¨": 1201,
      "à§¯à§©": 1202,
      "à¦Łà¦ķà¦¯": 1203,
      "Ġto": 1204,
      "ate": 1205,
      "Ġà¦ĩà¦īà¦°": 1206,
      "Ġnews": 1207,
      "//": 1208,
      "://": 1209,
      "ON": 1210,
      "UR": 1211,
      "di": 1212,
      "ho": 1213,
      "ist": 1214,
      "pp": 1215,
      "ut": 1216,
      "Ġ!": 1217,
      "Ġ\"": 1218,
      "Ġ***": 1219,
      "à¦¾/": 1220,
      "à§ĩ!": 1221,
      "à¦¿?": 1222,
      "à¦¿âĢĻ": 1223,
      "à¦¨à¦ľ": 1224,
      "à¦¨à¦Ń": 1225,
      "à¦¯à¦ª": 1226,
      "à¦ķà¦¯": 1227,
      "à¦²à¦¦": 1228,
      "à¦²à¦«": 1229,
      "à¦¬à¦Ĺà¦ŀ": 1230,
      "Ġà¦ķà¦·": 1231,
      "à¦¸à¦¸": 1232,
      "Ġà¦¸à¦ł": 1233,
      "Ġà¦¬à¦ĩ": 1234,
      "Ġà¦ªà¦¦à¦ķ": 1235,
      "à¦Łà¦¤": 1236,
      "à¦ªà¦¥": 1237,
      "Ġà¦Ĩà¦ļ": 1238,
      "Ġà¦ıà¦¶": 1239,
      "Ġà¦ıà¦Ń": 1240,
      "à¦Ĺà¦ªà¦¤": 1241,
      "Ġà¦¦à¦£": 1242,
      "Ġà¦¦à¦®à¦¨": 1243,
      "Ġà¦¹à¦°à¦¤": 1244,
      "à¦¡à¦²": 1245,
      "Ġà¦ħà¦¦": 1246,
      "à¦Ĥ-": 1247,
      "Ġà¦¯à¦¨": 1248,
      "Ġà¦Ĺà¦°à¦®": 1249,
      "Ġà¦īà¦°": 1250,
      "Ġà¦Ńà¦ķ": 1251,
      "à¦«à¦¨": 1252,
      "Ġà¦ĸà¦°à¦ļ": 1253,
      "à¦¬à¦°à¦£": 1254,
      "âĢĻà¥¤": 1255,
      "à¦Ĩà¦Ĺ": 1256,
      "Ġà§¨à§§": 1257,
      "à§¨à§¨": 1258,
      "ĠâĢĵ": 1259,
      "Ġà¦Ĩà¦²à¦¹": 1260,
      "à§®à§¬": 1261,
      "à¦°à¦¸à¦Ļ": 1262,
      "à§ªà§¨à§¦": 1263,
      "à§¯à§®": 1264,
      "à§¯à§¬": 1265,
      "Ġà§¨à§¦à§§à§ª": 1266,
      "Ġà¦Ĩà¦ľà¦ķ": 1267,
      "Ġà§¦à§¨": 1268,
      "Ġà§ªà§«": 1269,
      "Ġ03": 1270,
      "à¦ıà¦¸à¦¸": 1271,
      "Ġà¦Ĳà¦¤": 1272,
      "dow": 1273,
      "Ġà¦Ĺà¦£à¦¤à¦¨": 1274,
      "Ġà¦ķà¦ĸà¦¨à¦ĵ": 1275,
      "Ġhtt": 1276,
      "www": 1277,
      "Ġà¦ĭà¦£": 1278,
      "00": 1279,
      "08": 1280,
      "70": 1281,
      "ber": 1282,
      "Ġe": 1283,
      "Ĥ¬": 1284,
      "à§ĩ:": 1285,
      "à¦¿!": 1286,
      "à¦¿à¦ģ": 1287,
      "à¦¨à¦ĩ": 1288,
      "à¦¯à¦ķà¦°": 1289,
      "à¦¬à¦Ł": 1290,
      "à¦¬à¦Ľà¦°": 1291,
      "à¦®à¦Ł": 1292,
      "à¦®à¦¡": 1293,
      "Ġà¦ķà¦ł": 1294,
      "à¦¸à¦°à¦£": 1295,
      "Ġà¦¸à¦¤à¦°": 1296,
      "à¦¦à¦¦": 1297,
      "à¦¦à¦£": 1298,
      "Ġà¦ªà¦ŀ": 1299,
      "à¦Łà¦²": 1300,
      "Ġà¦Ĩà¦¡": 1301,
      "Ġà¦Ĩà¦ĺ": 1302,
      "Ġà¦ıà¦ľ": 1303,
      "Ġà¦ıà¦ľà¦¨": 1304,
      "à¦ľà¦¦": 1305,
      "à¦ĩà¦¦": 1306,
      "à¦ĩà¦Ĺ": 1307,
      "à¦Ĺà¦Ĺ": 1308,
      "à¦·à¦°": 1309,
      "à¦¼à¦¾-": 1310,
      "Ġà¦ľà¦¹": 1311,
      "à¦ļà¦¤": 1312,
      "Ġà¦°à¦¸": 1313,
      "Ġà¦°à¦ķà¦®": 1314,
      "à¦ĸà¦ķ": 1315,
      "à¦¥à¦ļ": 1316,
      "à¦£à¦¤": 1317,
      "à¦£à¦¬": 1318,
      "à¦ĵà¦¤": 1319,
      "Ġà¦¶à¦¹": 1320,
      "Ġà¦Ĺà¦Ļ": 1321,
      "Ġà¦ļà¦¤": 1322,
      "Ġà¦ļà¦²à¦¨": 1323,
      "âĢľ": 1324,
      "à§¦à§®": 1325,
      "à§¦à§§à§Ń": 1326,
      "Ġà¦ıà¦ķà¦®à¦¤": 1327,
      "Ġà¦¸à¦®à¦¬": 1328,
      "Ġà¦Ĩà¦®à¦¦": 1329,
      "à¦¾à¥¤âĢĻ": 1330,
      "à§©à§§": 1331,
      "à¦°à¦¸à¦Ń": 1332,
      "à§ªà§©": 1333,
      "Ġà¦ķà¦®à¦ª": 1334,
      "Ġà§«à§¦à§¦": 1335,
      "Ġà§¦à§§à§®": 1336,
      "Ġ04": 1337,
      "Ġ06": 1338,
      "Ġ08": 1339,
      "Ġ09": 1340,
      "à¦°à¦¥à¦®à¦¬": 1341,
      "à§¨à§¦à§§à§®": 1342,
      "Ġà¦¬à¦¸à¦¤": 1343,
      "à¦¯à¦¬à¦§": 1344,
      "enc": 1345,
      "ation": 1346,
      "out": 1347,
      "à§§à§¬à§¦": 1348,
      "angla": 1349,
      "ĠEUR": 1350,
      "ĠâĤ¬": 1351,
      "ha": 1352,
      "ia": 1353,
      "iv": 1354,
      "lin": 1355,
      "ns": 1356,
      "ol": 1357,
      "oo": 1358,
      "ue": 1359,
      "Ġ+": 1360,
      "ĠJ": 1361,
      "Ġg": 1362,
      "Ġes": 1363,
      "Ġco": 1364,
      "à¦°à¦ĵà¦¯": 1365,
      "à¦°à¦Ĩà¦¨": 1366,
      "à¦¤à¦ª": 1367,
      "à¦¤à¦°à¦£": 1368,
      "à¦¼?": 1369,
      "à¦¼à§Ĥ": 1370,
      "à¦¬à¦§": 1371,
      "à¦®à¦ľ": 1372,
      "à¦®à¦ĵ": 1373,
      "Ġà¦ķà¦¨à¦¸": 1374,
      "Ġà¦¸à¦«à¦²": 1375,
      "Ġà¦¬à¦¦à¦°": 1376,
      "à¦ªà¦·": 1377,
      "à¦ľà¦¬": 1378,
      "à¦Ĺà¦ł": 1379,
      "Ġà¦¦à¦°à¦ķ": 1380,
      "à¦¼à§ĩ,": 1381,
      "à¦¹à¦ľ": 1382,
      "Ġà¦¤à¦¤": 1383,
      "Ġà¦¤à¦«à¦¸": 1384,
      "Ġà¦°à¦ª": 1385,
      "Ġà¦°à¦«": 1386,
      "Ġà¦°à¦ļà¦¨": 1387,
      "à¦¥à¦ķ": 1388,
      "à¦¥à¦Ĺ": 1389,
      "à¦£à¦®": 1390,
      "Ġà¦Ĺà¦¨": 1391,
      "Ġà¦Ĺà¦Ń": 1392,
      "Ġà¦īà¦¡": 1393,
      "Ġà¦Ńà¦¬": 1394,
      "Ġà¦ıà¦ķà¦¬": 1395,
      "Ġà¦«à¦Ł": 1396,
      "Ġà¦Ĩà¦®à¦²": 1397,
      "à¦Ĩà¦²": 1398,
      "à¦Ĩà¦¬": 1399,
      "à¦Ĩà¦ĵà¦¯": 1400,
      "Ġà§¨à§®": 1401,
      "à§Į-": 1402,
      "à§¨à§©": 1403,
      "Ġà¦§à¦°à¦¤": 1404,
      "à§«à§¨": 1405,
      "à§«à§«": 1406,
      "à¦ļà¦¨à¦ķ": 1407,
      "à§®à§®": 1408,
      "à§¦à§¦à§©": 1409,
      "Ġà§©à§§": 1410,
      "à¦īà¦¨à¦²": 1411,
      "Ġà§«à§®": 1412,
      "Ġ05": 1413,
      "Ġ07": 1414,
      "ers": 1415,
      "Ġà§Ńà§¦": 1416,
      "ĠSe": 1417,
      "âĢ¦âĢ¦": 1418,
      "Ġà¦Ĩà¦ĩà¦«": 1419,
      "our": 1420,
      "ĠAn": 1421,
      "à¦ıà¦ĩà¦ļ": 1422,
      "à§«à§¦à§®à§¬": 1423,
      "Ġà§¦à§§à§Ńà§§à§¬à§¦": 1424,
      "Ġà§¯à§«à§«à§ªà§¨à§¦": 1425,
      "à§¯à§¯à§¦à§¦à§©": 1426,
      "Ġà§¦à§§à§Ńà§§à§¬à§¦à§¯à§¯à§¦à§¦à§©": 1427,
      "Ġà§¯à§«à§«à§ªà§¨à§¦à§¬": 1428,
      "18": 1429,
      "OR": 1430,
      "You": 1431,
      "ce": 1432,
      "fer": 1433,
      "gs": 1434,
      "ment": 1435,
      "nlo": 1436,
      "ore": 1437,
      "ter": 1438,
      "Ġ#": 1439,
      "Ġ3": 1440,
      "Ġ[": 1441,
      "Ġy": 1442,
      "Ġdow": 1443,
      "à¦¾?": 1444,
      "à¦°à¦¥": 1445,
      "à¦¨à¦²": 1446,
      "à¦¨à¦ļ": 1447,
      "à¦¯à¦ĵ": 1448,
      "à¦¤à¦ľ": 1449,
      "à¦ķà¦Ľ": 1450,
      "à¦ķà¦¶à¦¨": 1451,
      "à¦²à¦Ļ": 1452,
      "à¦²à¦Ľà¦¡": 1453,
      "à¦®à¦Ļ": 1454,
      "à¦®à¦ĺ": 1455,
      "à¦®à¦īà¦¦": 1456,
      "à§ģ-": 1457,
      "à¦¸à¦Ļ": 1458,
      "à¦ªà¦®": 1459,
      "à¦ªà¦ļ": 1460,
      "Ġà¦Ĩà¦¦à¦°": 1461,
      "Ġà¦Ĩà¦ĩà¦¸": 1462,
      "Ġà¦®à¦£": 1463,
      "Ġà¦¨à¦ķà¦²": 1464,
      "à¦ĩà¦ī": 1465,
      "à¦Ĺà¦Ľ": 1466,
      "Ġà¦¦à¦¤": 1467,
      "Ġà¦¦à¦²à¦ķ": 1468,
      "Ġà¦¹à¦ľ": 1469,
      "à¦¡à¦¬": 1470,
      "à¦·à¦¨": 1471,
      "Ġà¦ľà¦¸": 1472,
      "à¦§à¦ķ": 1473,
      "Ġà¦ħà¦¶": 1474,
      "Ġà¦ħà¦¥à¦ļ": 1475,
      "à¦ļà¦°": 1476,
      "à¦ļà¦®": 1477,
      "Ġà§·": 1478,
      "Ġà¦¯à¦¤": 1479,
      "à¦ĵà¦¨": 1480,
      "à¦ĵà¦¸": 1481,
      "à¦ĵà¦Ł": 1482,
      "Ġà¦ĵà¦¸à¦®": 1483,
      "Ġà¦īà¦ĩà¦¨": 1484,
      "Ġà¦ıà¦ķà¦°": 1485,
      "Ġà¦ıà¦ķà¦¦": 1486,
      "Ġà¦ĩà¦ķ": 1487,
      "Ġà¦ĩà¦ķà¦¬": 1488,
      "Ġà§¨à§Ń": 1489,
      "à§¨à§§": 1490,
      "à§¨à§¬": 1491,
      "Ġà¦§à¦¨": 1492,
      "à¦¼à¦¿,": 1493,
      "à§«à§Ń": 1494,
      "à§©à§®": 1495,
      "Ġà¦īà¦ªà¦¯": 1496,
      "Ġà¦īà¦ªà¦ķ": 1497,
      "Ġà¦Ĩà¦¸à¦¬": 1498,
      "Ġ2013": 1499,
      "à§ªà§¯à§©": 1500,
      "à¦°à¦¦à¦°": 1501,
      "à§¯à§ªà§¯à§©": 1502,
      "Ġà¦ıà¦¸à¦®à¦¯": 1503,
      "Ġà¦ļà¦²à¦¬": 1504,
      "à§¬à§¦": 1505,
      "Ġà§©à§«": 1506,
      "Ġà§©à§©": 1507,
      "à¦¸à¦®à¦°": 1508,
      "à¦¸à¦®à¦¯": 1509,
      "Ġà¦ĩà¦¨à¦ķ": 1510,
      "Ġà¦ıà¦¨à¦¸": 1511,
      "Ġ00": 1512,
      "Ġth": 1513,
      "à¦ħà¦°": 1514,
      "à¦ħà¦Ń": 1515,
      "Ġà¦Ĩà¦¶à¦Ļ": 1516,
      "Ġà¦Ĩà¦ĩà¦¨à¦ľ": 1517,
      "Ġà¦Ĩà¦ĩà¦¨à¦¶": 1518,
      "ovem": 1519,
      "Ġà§¯à§«à§®à§Ń": 1520,
      "Ġà§¯à§«à§«à§¦à§®à§¬": 1521,
      "Ġcan": 1522,
      "Ġcess": 1523,
      "à§§à§¯à§¬": 1524,
      "Ġà¦ĩà¦īà¦ª": 1525,
      "Ġà¦ĩà¦īà¦ıà¦¸": 1526,
      "Ġnse": 1527,
      "à§©à§¦à§¨": 1528,
      "deo": 1529,
      "Ġà¦īà§İà¦ª": 1530,
      "ĠIn": 1531,
      "ght": 1532,
      "Ġà¦Ĩà¦ļà¦°à¦£": 1533,
      "à§¦à§§à§Ńà§§à§§": 1534,
      "Ġesse": 1535,
      "nload": 1536,
      "Ġdownload": 1537,
      "à§¯à§ªà§¯à§©à§¨à§ª": 1538,
      "Ġà§¯à§«à§®à§Ńà§©à§¦à§¨": 1539,
      "Ġà§¯à§«à§«à§¦à§®à§¬à§Ń": 1540,
      "10": 1541,
      "44": 1542,
      "83": 1543,
      "AT": 1544,
      "be": 1545,
      "ead": 1546,
      "ies": 1547,
      "om": 1548,
      "sra": 1549,
      "tar": 1550,
      "tion": 1551,
      "um": 1552,
      "Ġ)": 1553,
      "Ġd": 1554,
      "Ġon": 1555,
      "Ġde": 1556,
      "ĠYou": 1557,
      "à¦¾...": 1558,
      "à¦°à¦·": 1559,
      "à§ĩ)": 1560,
      "à¦¨à¦¶": 1561,
      "à¦¤à¦«": 1562,
      "à¦¤à¦°à¦ķ": 1563,
      "à¦¼!": 1564,
      "à¦¼:": 1565,
      "à¦¼à§į": 1566,
      "à¦¬à¦Ĺ": 1567,
      "à¦®à¦Ľ": 1568,
      "à§ģ'": 1569,
      "Ġà¦ķà¦¬à¦°": 1570,
      "à¦¸à¦¡": 1571,
      "à¦¸à¦«": 1572,
      "Ġà¦¬à¦¦à¦²": 1573,
      "Ġà¦ªà¦¯": 1574,
      "à¦Łà¦ª": 1575,
      "à¦Łà¦ľ": 1576,
      "à¦Łà¦«": 1577,
      "à§ĢâĢĻ": 1578,
      "à¦ľà¦Ł": 1579,
      "Ġà¦¨à¦¨": 1580,
      "Ġà¦¨à¦Ĺ": 1581,
      "Ġà¦¨à¦ĵ": 1582,
      "Ġà¦¨à¦ķà¦¶": 1583,
      "Ġà¦¦à¦¶à¦ķ": 1584,
      "à¦¹à¦ķà¦°": 1585,
      "à¦¡à¦¸": 1586,
      "à¦·à¦Ł": 1587,
      "à¦¼à¦¾à¦Ĥ": 1588,
      "Ġà¦ľà¦²": 1589,
      "Ġà¦¤à§İà¦ķ": 1590,
      "Ġà¦ħà¦¬à¦¹": 1591,
      "Ġà¦°à¦¨": 1592,
      "Ġà¦°à¦Ļ": 1593,
      "Ġà¦°à¦¹à¦¸": 1594,
      "à¦ĸà¦¬à¦°": 1595,
      "à¦ĵà¦ļ": 1596,
      "Ġà¦ĵà¦ķ": 1597,
      "Ġà¦ĵà¦Ń": 1598,
      "Ġà¦ĵà¦°à¦«": 1599,
      "Ġà¦«à¦¯": 1600,
      "Ġà¦ĩà¦¹": 1601,
      "Ġà¦ĩà¦Ļ": 1602,
      "Ġà¦ĩà¦®à¦°": 1603,
      "à¦Ļà¦ļ": 1604,
      "à¦ıà¦¬": 1605,
      "à¦ıà¦¦": 1606,
      "à¦ıà¦¡": 1607,
      "Ġà¦¬à¦²à¦¬": 1608,
      "Ġà¦Łà¦®": 1609,
      "à¦°à¦£à¦¤": 1610,
      "Ġà¦§à¦°à¦£": 1611,
      "à¦¿à¥¤âĢĻ": 1612,
      "Ġà¦īà¦ªà¦¦": 1613,
      "Ġà¦Ĩà¦²à¦¬": 1614,
      "à¦°à¦¸à¦¨": 1615,
      "à§ªà§©à§¨": 1616,
      "Ġ::": 1617,
      "Ġà§©à§Ń": 1618,
      "Ġà§¦à§Ń": 1619,
      "Ġ02": 1620,
      "Ġà¦¸à¦°à¦¬à¦°": 1621,
      "Ġtit": 1622,
      "à¦ħà¦ªà¦°": 1623,
      "Ġà¦Ĩà¦ķà¦¸": 1624,
      "à¦¨à¦¬à¦¤": 1625,
      "Ġà¦Ĩà¦ĩà¦ª": 1626,
      "Ġson": 1627,
      "ĠPH": 1628,
      "ĠPre": 1629,
      "à§§à§¨à§¨à§¯": 1630,
      "Ġà¦¬à¦¹à¦¨": 1631,
      "Ġà§§à§¯à§¯": 1632,
      "Ġà§§à§¯à§Ń": 1633,
      "Ġà¦Īà¦¶": 1634,
      "ĠMore": 1635,
      "Ġfre": 1636,
      "ime": 1637,
      "Ġà¦īà§İà¦¸à¦¬": 1638,
      "à¦ıà¦«à¦ª": 1639,
      "Ġvideo": 1640,
      "ĠNovem": 1641,
      "pping": 1642,
      "Ġà¦ļà¦²à¦¨à¦¬": 1643,
      "ĠNovember": 1644,
      "119": 1645,
      "60": 1646,
      "ack": 1647,
      "et": 1648,
      "fi": 1649,
      "gin": 1650,
      "ir": 1651,
      "ight": 1652,
      "jo": 1653,
      "rou": 1654,
      "us": 1655,
      "¯à§©à§«": 1656,
      "ĠO": 1657,
      "ĠU": 1658,
      "Ġk": 1659,
      "Ġl": 1660,
      "Ġà¥": 1661,
      "Ġma": 1662,
      "Ġun": 1663,
      "Ġwww": 1664,
      "à¦¾'": 1665,
      "à§ĩ'": 1666,
      "à§ĩ;": 1667,
      "à¦¨à¦¹": 1668,
      "à¦¨à¦ªà¦¤": 1669,
      "à¦¤à¦¦à¦¨": 1670,
      "à¦ķà¦Ĺ": 1671,
      "à¦ķà¦¥": 1672,
      "à¦²à¦°": 1673,
      "à¦²à¦²": 1674,
      "à¦²à¦Łà¦¨": 1675,
      "à¦¼à¦Ĥ": 1676,
      "à¦¬à¦®": 1677,
      "à¦¬à¦¦à¦¨": 1678,
      "à¦®à¦°à¦¤": 1679,
      "à¦¸à¦Ĺ": 1680,
      "Ġà¦¸à¦ŀ": 1681,
      "Ġà¦¬à¦ľ": 1682,
      "à¦¦à¦«": 1683,
      "à¦ªà¦«": 1684,
      "à§Ģ/": 1685,
      "Ġà¦Ĩà¦ŀ": 1686,
      "Ġà¦Ĩà¦ĵà¦¤": 1687,
      "Ġà¦®à¦¦": 1688,
      "Ġà¦®à§İà¦¸": 1689,
      "Ġà¦ıà¦°à¦ķà¦®": 1690,
      "à¦ĩà¦Ľ": 1691,
      "Ġà¦¦à¦ĸà¦²": 1692,
      "à¦¹à¦«": 1693,
      "à¦¡à¦ķ": 1694,
      "à¦¡à¦®": 1695,
      "à¦¡à¦Ń": 1696,
      "à¦·à¦ľ": 1697,
      "Ġà¦ħà¦¯": 1698,
      "Ġà¦ħà¦Ł": 1699,
      "Ġà¦ħà¦¬à¦°": 1700,
      "Ġà¦¯à¦®": 1701,
      "Ġà¦¯à¦¶": 1702,
      "à¦ĵà¦ĩ": 1703,
      "Ġà¦¶à¦°à¦£": 1704,
      "âĢį": 1705,
      "Ġà¦īà¦ķ": 1706,
      "Ġà¦ıà¦ķà¦®": 1707,
      "Ġà¦ĩà¦°": 1708,
      "Ġà¦ĩà¦ľ": 1709,
      "Ġà¦ĩà¦Ń": 1710,
      "Ġà¦²à¦Ļ": 1711,
      "à¦īà¦ª": 1712,
      "à¦īà¦ĩ": 1713,
      "Ġà¦ľà¦¨à¦Ĺ": 1714,
      "âĢĻ-": 1715,
      "à¦Ĩà¦ľ": 1716,
      "Ġà¦¡à¦Ł": 1717,
      "à¦¾à¦ģâĢĻ": 1718,
      "à¦¼à¥¤âĢĻ": 1719,
      "à§¨à§«": 1720,
      "à§¨à§®": 1721,
      "Ġà¦§à¦°à¦®": 1722,
      "ĠâĢĿ": 1723,
      "à§«à§¬": 1724,
      "à¦ķà¦°à¦¨": 1725,
      "à§©à§¯": 1726,
      "à§©à§¬": 1727,
      "Ġà¦Ĩà¦¸à¦°": 1728,
      "à§®à§«": 1729,
      "Ġà§¨à§¦à§§à§¨": 1730,
      "Ġà¦¦à¦²à¦Ĺ": 1731,
      "Ġà¦Ĩà¦ľà¦ĵ": 1732,
      "Ġà§¦à§§à§¯": 1733,
      "Ġà¦ĩà¦¨à¦¸": 1734,
      "à¦Łà¦ķà¦®": 1735,
      "à¦¶à¦ķà¦¦": 1736,
      "Ġte": 1737,
      "à¦®à¦¸à¦ľ": 1738,
      "Ġà¦Ĩà¦¶à¦°": 1739,
      "à§¨à§¦à§§à§«": 1740,
      "Ġ19": 1741,
      "à¦¤à¦ķà¦°à¦£": 1742,
      "Ġà§®à§ªà§©à§¨": 1743,
      "Ġsu": 1744,
      "ĠPr": 1745,
      "Ġà¦Ĩà¦ªà¦²": 1746,
      "Ġà¦Ĺà¦£à¦®": 1747,
      "Ġà¦Ĺà¦£à¦«": 1748,
      "Ġbe": 1749,
      "Ġby": 1750,
      "Ġà§§à§¨à§¦": 1751,
      "129": 1752,
      "lect": 1753,
      "133": 1754,
      "138": 1755,
      "Ġmsra": 1756,
      "Ġinf": 1757,
      "Ġany": 1758,
      "age": 1759,
      "141": 1760,
      "Ġ017": 1761,
      "à¦Īà¦¨": 1762,
      "à¦¾.)": 1763,
      "aper": 1764,
      "Ġ53": 1765,
      "162": 1766,
      "Ġà§¦à§§à§Ńà§§à§§à§¯à§©à§«": 1767,
      "hman": 1768,
      "ONE": 1769,
      "Ġhttps": 1770,
      "ences": 1771,
      "ferences": 1772,
      "ĠPreferences": 1773,
      "Ġà¥¥": 1774,
      "à¦¦à¦«à¦¤à¦°": 1775,
      "Ġmsrahman": 1776,
      "Ġà§¦à§§à§Ńà§§à§§à§¯à§©à§«à§§à§¯à§¬": 1777,
      "201": 1778,
      "35": 1779,
      "46": 1780,
      "64": 1781,
      "76": 1782,
      "ER": 1783,
      "KY": 1784,
      "MS": 1785,
      "OM": 1786,
      "Read": 1787,
      "SI": 1788,
      "SS": 1789,
      "af": 1790,
      "av": 1791,
      "ain": 1792,
      "ahm": 1793,
      "dd": 1794,
      "eb": 1795,
      "hi": 1796,
      "ow": 1797,
      "ri": 1798,
      "ti": 1799,
      "©à§©à§©": 1800,
      "Â©": 1801,
      "Ġ7": 1802,
      "Ġ;": 1803,
      "Ġ=": 1804,
      "ĠX": 1805,
      "Ġx": 1806,
      "Ġcom": 1807,
      "Ġla": 1808,
      "Ġim": 1809,
      "à¦°à¦ľà¦¨": 1810,
      "à¦°à¦®à¦¨": 1811,
      "à¦°à¦¬à¦¨": 1812,
      "à§ĩ.": 1813,
      "à¦¨à¦¸à¦¹": 1814,
      "à¦¯à¦«": 1815,
      "à¦¤à¦Ń": 1816,
      "à¦ķà¦ª": 1817,
      "à¦²à¦ĵ": 1818,
      "à¦²à¦§à¦¨": 1819,
      "à¦¬à¦ľ": 1820,
      "à¦¬à¦¡": 1821,
      "à¦¬à¦¤à¦¨": 1822,
      "à¦®à¦¶": 1823,
      "à¦®à¦£à¦¬": 1824,
      "à¦®à¦¸à¦®à¦°": 1825,
      "Ġà¦ķà¦¨à¦Ł": 1826,
      "à¦¸à¦ıà¦¸": 1827,
      "Ġà¦¸à¦«à¦Ł": 1828,
      "à¦¦à¦Ł": 1829,
      "à¦¦à¦ªà¦¤": 1830,
      "à§ĭ:": 1831,
      "Ġà¦ªà¦¬": 1832,
      "à¦Łà¦°à¦¸": 1833,
      "à¦Łà¦¸à¦®": 1834,
      "à¦Łà¦«à¦°": 1835,
      "à¦ªà¦¯": 1836,
      "à¦ªà¦°à¦¤": 1837,
      "à¦ªà¦ŀ": 1838,
      "à¦ªà¦ķà¦²": 1839,
      "à§Ģ:": 1840,
      "Ġà¦Ĩà¦Ł": 1841,
      "Ġà¦®à¦¤à¦¬": 1842,
      "Ġà¦®à¦Īà¦¨": 1843,
      "Ġà¦ıà¦®à¦¸": 1844,
      "Ġà¦ıà¦ıà¦¸": 1845,
      "à¦ľà¦ª": 1846,
      "à¦ľà¦Ľ": 1847,
      "à¦¶à¦«": 1848,
      "Ġà¦¨à¦·": 1849,
      "Ġà¦¨à¦°à¦®": 1850,
      "à¦ĩà¦¹": 1851,
      "à¦ĩà¦¸à¦²": 1852,
      "à¦ĩà¦®à¦¸": 1853,
      "à¦Ĺà¦¸": 1854,
      "à¦Ĺà¦Ł": 1855,
      "Ġà¦¦à¦®": 1856,
      "Ġà¦¦à¦ª": 1857,
      "Ġà¦¹à¦ł": 1858,
      "à¦¹à¦°à¦£": 1859,
      "à¦¡à¦ª": 1860,
      "Ġà¦ľà¦ķ": 1861,
      "à¦§à¦Ń": 1862,
      "à¦§à¦ªà¦¦": 1863,
      "Ġà¦¤à§İ": 1864,
      "Ġà¦ħà¦¸à¦®": 1865,
      "Ġà¦ħà¦¸à¦¹": 1866,
      "Ġà¦°à¦®à¦ľ": 1867,
      "à¦¥à¦®à¦¨": 1868,
      "à¦ĵà¦ľ": 1869,
      "Ġà¦¶à¦®à¦¸": 1870,
      "Ġà¦Ĺà¦ł": 1871,
      "Ġà¦ļà¦¬": 1872,
      "Ġà¦ļà¦°à¦®": 1873,
      "Ġà¦ĵà¦¦": 1874,
      "Ġà¦ĵà¦ľà¦¨": 1875,
      "à§¦à§¨": 1876,
      "Ġà¦īà¦Ł": 1877,
      "Ġà¦Ńà¦Ĺ": 1878,
      "Ġà¦Ńà¦°à¦¸": 1879,
      "Ġà¦ıà¦ķà¦¸": 1880,
      "Ġà¦«à¦ľà¦²": 1881,
      "Ġà¦ĩà¦Ł": 1882,
      "Ġà¦ĩà¦«à¦¤": 1883,
      "Ġà¦ĸà¦²": 1884,
      "à¦ıà¦Ľ": 1885,
      "à¦ıà¦¸à¦¬": 1886,
      "Ġà¦Ĩà¦®à¦¨": 1887,
      "Ġà¦Ĩà¦®à¦²à¦ķ": 1888,
      "Ġà¦ľà¦¨à¦¸": 1889,
      "à¦Ĩà¦¯": 1890,
      "Ġà§¨à§¯": 1891,
      "Ġà§¨à§«à§¦": 1892,
      "à¦®à¦¨à¦Ł": 1893,
      "Ġà¦ıà¦ĩà¦¸à¦¬": 1894,
      "à§«à§©": 1895,
      "à§©à§ª": 1896,
      "à¦¬à¦¨à¦¯": 1897,
      "à¦¿à¦Ĥ,": 1898,
      "à¦¿à¦Ĥ-": 1899,
      "à¦¿à¦Ĥà¥¤": 1900,
      "à¦ĩà¦¨à¦¬": 1901,
      "Ġà¦Ĩà¦Ĺà¦·": 1902,
      "à¦²à¦¨à¦ķ": 1903,
      "à§®à§ª": 1904,
      "Ġà¦ıà¦¸à¦ıà¦¸à¦¸": 1905,
      "à§§à§¦à§¦à§¦": 1906,
      "Ġà¦Ĩà¦¨à¦¤": 1907,
      "Ġà§©à§¦à§¦": 1908,
      "Ġà§©à§¬": 1909,
      "à¦¬à¦²à¦®": 1910,
      "Ġà¦¸à¦¹à¦¸à¦Ń": 1911,
      "à¦ĩà¦Łà¦Ł": 1912,
      "Ġà§«à§Ń": 1913,
      "Ġà§«à§¬": 1914,
      "Ġà¦Ĩà¦ľà¦®à¦²": 1915,
      "Ġà§¦à§§": 1916,
      "Ġà§¦à§©à§§": 1917,
      "à¦¼à§Ģ,": 1918,
      "Ġà§ªà§Ń": 1919,
      "Ġà¦ıà¦ĸà¦¨à¦ĩ": 1920,
      "Ġtam": 1921,
      "à¦¸à¦¹à¦ķ": 1922,
      "à¦ıà¦¸à¦ĩ": 1923,
      "Ġà¦ıà¦¤à¦¦": 1924,
      "Ġà¦ªà¦¦à¦¤": 1925,
      "Ġà¦ıà¦®à¦¨à¦Ł": 1926,
      "à¦°à¦ļà¦²": 1927,
      "à¦¨à¦¬à¦¬à¦¨": 1928,
      "à§¨à§¦à§ª": 1929,
      "Ġ12": 1930,
      "à¦¯à¦¬à¦¦": 1931,
      "Ġà§®à§®": 1932,
      "à¦ıà¦°à¦ªà¦°": 1933,
      "end": 1934,
      "attar": 1935,
      "Ġà¦Ĩà¦ĩà¦ľ": 1936,
      "Ġse": 1937,
      "Ġà¦īà¦łà¦¤": 1938,
      "Ġà¦īà¦łà¦²": 1939,
      "Ġà¦ĺà¦Łà¦Ľ": 1940,
      "à¦°à¦¹à¦£à¦ķ": 1941,
      "ĠCh": 1942,
      "ited": 1943,
      "Ġcns": 1944,
      "Ġà¦Ĩà¦²à¦®à¦Ĺ": 1945,
      "Ġà¦Ĩà¦¹à¦¬": 1946,
      "Ġà¦¦à¦¶à¦Ł": 1947,
      "à¦®à¦Ĺà¦¡": 1948,
      "à¦Ĺà¦ľà¦ªà¦¤": 1949,
      "à§©à§«à§®à§ª": 1950,
      "ĠBangla": 1951,
      "Ġà§¯à§«à§«à§©à§«à§®à§ª": 1952,
      "Ġà¦·à¦¡": 1953,
      "Ġà¦ķà¦¤à¦Ł": 1954,
      "à§©à§Ńà§§": 1955,
      "Ġà§¦à§§à§Ńà§§à§§à§©à§©à§©": 1956,
      "à§¯à§®à§§": 1957,
      "Ġhttp": 1958,
      "Ġà§¦à§§à§®à§ª": 1959,
      "outu": 1960,
      "link": 1961,
      "à¦¼à§Ĥ,": 1962,
      "Ġà¦¨à¦ĵà¦Ĺ": 1963,
      "Ġtits": 1964,
      "Ġsongs": 1965,
      "ĠPHONE": 1966,
      "Ġà¦¤à§İà¦ªà¦°à¦¤": 1967,
      "Ġtamil": 1968,
      "Ġà§¦à§§à§Ńà§§à§§à§©à§©à§©à§¯à§®à§§": 1969,
      "ĠPHONEKY": 1970,
      ")-": 1971,
      ")/": 1972,
      "06": 1973,
      "28": 1974,
      "48": 1975,
      "55": 1976,
      "80": 1977,
      "84": 1978,
      "85": 1979,
      "90": 1980,
      "92": 1981,
      "AC": 1982,
      "IC": 1983,
      "NE": 1984,
      "Un": 1985,
      "ab": 1986,
      "ay": 1987,
      "az": 1988,
      "bad": 1989,
      "ds": 1990,
      "du": 1991,
      "day": 1992,
      "four": 1993,
      "gal": 1994,
      "ig": 1995,
      "ly": 1996,
      "oc": 1997,
      "po": 1998,
      "por": 1999,
      "ption": 2000,
      "qu": 2001,
      "rgin": 2002,
      "ure": 2003,
      "ust": 2004,
      "ya": 2005,
      "youtu": 2006,
      "Ġ6": 2007,
      "Ġ8": 2008,
      "ĠG": 2009,
      "ĠK": 2010,
      "ĠV": 2011,
      "Ġo": 2012,
      "Ġen": 2013,
      "Ġit": 2014,
      "ĨĴ": 2015,
      "à¦°à¦ªà¦ķ": 2016,
      "à¦°à¦Ĺà¦¤": 2017,
      "à§ĩ...": 2018,
      "à§įâĢĮ": 2019,
      "à§įâĢį": 2020,
      "à¦¿...": 2021,
      "à¦¿âĢ¦": 2022,
      "à¦¿)à¥¤": 2023,
      "à¦¨à¦°à¦¸": 2024,
      "à¦¯à¦Ļ": 2025,
      "à¦¤à¦Ł": 2026,
      "à¦ķà¦Ĺà¦ŀ": 2027,
      "à¦ķà¦®à¦°": 2028,
      "à¦ķà¦Ľà¦¡": 2029,
      "à¦²à¦ľ": 2030,
      "à¦²à¦¶": 2031,
      "à¦²à¦Ľ": 2032,
      "à¦²à¦¡": 2033,
      "à¦²à¦ĵà¦¯": 2034,
      "à¦¬à¦Ń": 2035,
      "à¦¬à¦£": 2036,
      "à¦¬à¦°à¦ķ": 2037,
      "à¦¬à¦¦à¦°": 2038,
      "à¦®à¦°à¦£": 2039,
      "à¦®à¦¹à¦¤": 2040,
      "à¦®à¦Ĺà¦ŀ": 2041,
      "Ġà¦¸à¦¸": 2042,
      "Ġà¦¬à¦Ł": 2043,
      "Ġà¦¬à¦¶": 2044,
      "Ġà¦¬à¦ī": 2045,
      "à¦¦à¦¬": 2046,
      "à¦¦à¦¸": 2047,
      "à§ĭ?": 2048,
      "Ġà¦ªà¦Ł": 2049,
      "à¦Łà¦¬": 2050,
      "à¦Łà¦ĵà¦¯": 2051,
      "à¥¤\"": 2052,
      "Ġà¦Ĩà¦ĸ": 2053,
      "Ġà¦Ĩà¦Ļ": 2054,
      "Ġà¦Ĩà¦ķà¦°": 2055,
      "Ġà¦®à¦¶": 2056,
      "Ġà¦ıà¦ıà¦«à¦ª": 2057,
      "à¦ľà¦Ĺà¦ŀ": 2058,
      "à¦¶à¦ª": 2059,
      "à¦¶à¦ľ": 2060,
      "à¦¶à¦ĩ": 2061,
      "à¦¶à¦ĸ": 2062,
      "Ġà¦¨à¦°": 2063,
      "Ġà¦¨à¦ľ": 2064,
      "Ġà¦¨à¦ĩ": 2065,
      "à¦ĩà¦ļ": 2066,
      "à¦Ĺà¦ĩ": 2067,
      "Ġà¦¹à¦°": 2068,
      "Ġà¦¹à¦ĩà¦¬": 2069,
      "à¦¹à¦£": 2070,
      "à¦·à¦ľà¦¨à¦ķ": 2071,
      "à¦¼à¦¾)": 2072,
      "Ġà¦ħà¦·": 2073,
      "à¦ļà¦¦": 2074,
      "à¦ļà¦Ĺ": 2075,
      "à¦ļà¦¡": 2076,
      "à¦Ńà¦¬à¦¤": 2077,
      "Ġà¦°à¦¥": 2078,
      "à¦¥à¦¤": 2079,
      "à¦¥à¦Ń": 2080,
      "à¦ĵà¦ķ": 2081,
      "Ġà¦¶à¦¯": 2082,
      "Ġà¦ĵà¦¸": 2083,
      "âĢĵ": 2084,
      "à§¦à§«": 2085,
      "Ġà¦īà¦ĩ": 2086,
      "Ġà¦īà¦·": 2087,
      "Ġà¦īà¦ĩà¦²": 2088,
      "Ġà¦ªà¦°à¦®": 2089,
      "Ġà¦ªà¦°à¦ĵ": 2090,
      "Ġà¦ıà¦ķà¦ķ": 2091,
      "Ġà¦«à¦¤": 2092,
      "Ġà¦¸à¦®à¦ķ": 2093,
      "Ġà¦¹à¦¯à¦°à¦¤": 2094,
      "Ġà¦ĩà¦īà¦ľ": 2095,
      "Ġà¦ĩà¦®à¦¦": 2096,
      "Ġà¦ĩà¦²à¦®": 2097,
      "Ġà¦²à¦®": 2098,
      "à§ĥà¦Ĥ": 2099,
      "Ġà¦Ľà¦¹": 2100,
      "à¦Ļà¦¤": 2101,
      "à¦ıà¦¤": 2102,
      "à¦ıà¦Ł": 2103,
      "à¦ıà¦ķà¦Ł": 2104,
      "Ġà¦ľà¦¨à¦¤": 2105,
      "Ġà¦ľà¦¨à¦¸à¦Ń": 2106,
      "à¦łà¦ª": 2107,
      "Ġà¦Łà¦¨": 2108,
      "âĢĻ,": 2109,
      "à¦Ĩà¦¦": 2110,
      "à¦Ĩà¦ĩà¦¸": 2111,
      "à¦Ĩà¦°à¦Ł": 2112,
      "à¦°à¦£à¦ķ": 2113,
      "à§¨à§¦à§¦": 2114,
      "à§¨à§§à§«": 2115,
      "à¦¼à¦¿à¦Ĥ": 2116,
      "à¦¶à¦¨à¦ķ": 2117,
      "Ġà¦īà¦ªà¦²à¦¬": 2118,
      "Ġà§§à§§à§": 2119,
      "Ġ24": 2120,
      "Ġà§¨à§¦à§¦à§¦": 2121,
      "ĠâĢĺâĢĺ": 2122,
      "à¦ĺà¦¬à¦¦": 2123,
      "Ġà¦ķà¦®à¦¤": 2124,
      "Ġà¦¸à¦¬à¦ķ": 2125,
      "Ġà¦¸à¦¬à¦ľ": 2126,
      "Ġà¦ıà¦¸à¦ıà¦®": 2127,
      "à§Ńà§®": 2128,
      "Ġà¦¸à¦Ļà¦ĺà¦¬à¦¦": 2129,
      "Ġà§¨à§¦à§§à§¯": 2130,
      "à¦¸à¦²à¦®": 2131,
      "Ġà¦¦à¦²à¦Ł": 2132,
      "à¦¯à¦®à¦¯": 2133,
      "à¦ĩà¦Łà¦¸": 2134,
      "Ġà¦ıà¦²à¦ľ": 2135,
      "ind": 2136,
      "Ġà§«à§«": 2137,
      "Ġà§«à§¦à§¦à§¦": 2138,
      "Ġà¦Ĩà¦ľà¦¬": 2139,
      "Ġà¦Ĩà¦ľà¦®": 2140,
      "Ġà¦Ĩà¦ľà¦¹": 2141,
      "Ġà§¦à§¯à§¬": 2142,
      "Ġà¦ĩà¦¨à¦Ń": 2143,
      "Ġà¦ĩà¦¨à¦«": 2144,
      "Ġà§ªà§¦à§¦": 2145,
      "Ġà§ªà§¬": 2146,
      "à¦¶à¦ķà¦¤": 2147,
      "à¦Ĺà¦¤à¦ķ": 2148,
      "Ġtime": 2149,
      "Ġà¦ħà¦¬à¦¦": 2150,
      "à¦ħà¦ª": 2151,
      "à¦ħà¦¬à¦¶": 2152,
      "Ġà¦ħà¦¬à¦¸à¦°": 2153,
      "Ġà¦Ĩà¦ķà¦¬à¦°": 2154,
      "Ġà§¬à§Ń": 2155,
      "à¦ıà¦¸à¦Ł": 2156,
      "Ġà¦Ĩà¦¶à¦ª": 2157,
      "Ġà§Ńà§®": 2158,
      "Ġà§Ńà§§": 2159,
      "Ġà§Ńà§¦à§¦à§¦": 2160,
      "à¦¬à¦ķà¦ķ": 2161,
      "à§İà¦¸à¦°": 2162,
      "à§¨à§¦à§§à§¬": 2163,
      "à§¨à§¦à§§à§©": 2164,
      "Ġ17": 2165,
      "Ġà§®à§¦": 2166,
      "Ġà§®à§ªà§©": 2167,
      "Ġà¦ħà¦ªà¦®": 2168,
      "ovies": 2169,
      "ata": 2170,
      "ĠSI": 2171,
      "ĠSaf": 2172,
      "rect": 2173,
      "Ġà¦Ĩà¦ĩà¦¡": 2174,
      "Ġà¦īà¦łà¦¬": 2175,
      "Ġà¦ªà¦¥à¦ļ": 2176,
      "ĠPro": 2177,
      "Ġà¦Ĩà¦ªà¦¡": 2178,
      "Ġà¦Ĺà¦£à¦¤": 2179,
      "à§§à§¨à§©à§®": 2180,
      "ĠAdd": 2181,
      "ÂłĠÂł": 2182,
      "Ġab": 2183,
      "Ġam": 2184,
      "Ġcap": 2185,
      "Ġà¦Ńà¦¬à¦¨à¦Ł": 2186,
      "ori": 2187,
      "Ġbun": 2188,
      "âĢĿà¥¤": 2189,
      "ades": 2190,
      "à¦Ĩà¦ĩà¦«": 2191,
      "à¦Ĩà¦ĩà¦¡à¦¬": 2192,
      "à¦°à¦«à¦°à¦®": 2193,
      "Ġà¦ķà¦¨à¦«": 2194,
      "Ġà¦¤à¦ĸà¦¨à¦ĩ": 2195,
      "à§§à§«à§¨à§§à§«": 2196,
      "Ġà¦¦à¦°à¦ľ": 2197,
      "Ġmovies": 2198,
      "à¦Ĺà¦ľà¦¹": 2199,
      "une": 2200,
      "à¦ĩà¦¡à¦²": 2201,
      "Ġfor": 2202,
      "agra": 2203,
      "ĠDe": 2204,
      "ĠData": 2205,
      "Ġà§§à§ªà§§": 2206,
      "à¦°à¦ªà¦°à¦ĵ": 2207,
      "ĠâĨĴ": 2208,
      "Ġà§¨à§¦à§¦à§¬": 2209,
      "Ġà§¯à§«à§«à§¨à§¬": 2210,
      "140": 2211,
      "Ġà¦·à¦·": 2212,
      "Ġà¦Īà¦¦à¦Ĺ": 2213,
      "à¦¹à¦¬à¦§": 2214,
      "1964": 2215,
      "à§¨à§Ńà§®à§Ń": 2216,
      "152": 2217,
      "ĠWin": 2218,
      "Ġvirgin": 2219,
      "à§§à§ªà§©": 2220,
      "Ġà¦¸à¦«à¦°à¦ķ": 2221,
      "direct": 2222,
      "ists": 2223,
      "à¦ĩà¦¦à¦¹": 2224,
      "Ġà§«à§®à§¯": 2225,
      "ĠSelect": 2226,
      "tern": 2227,
      "à¦®à¦ĺà¦Ł": 2228,
      "omi": 2229,
      "Ġfree": 2230,
      "à¦īà¦ªà¦ľ": 2231,
      "Ġà§¦à§§à§¯à§§à§¨à§©à§®": 2232,
      "Ġà§®à§ªà§©à§¨à§©à§Ń": 2233,
      "Ġsuahm": 2234,
      "ave": 2235,
      "hipping": 2236,
      "Ġà¦¸à¦«à¦Łà¦ĵà¦¯": 2237,
      "Ġà¦ıà¦ıà¦¸à¦ª": 2238,
      "Ġà§¦à§§à§®à§ªà§§à§«à§¨à§§à§«": 2239,
      "United": 2240,
      "à§įâĢįâĢĮ": 2241,
      "Ġà§¦à§¯à§¬à§§à§¨": 2242,
      "Ġà§®à§ªà§©à§¨à§¦à§ª": 2243,
      "Ġà§¯à§«à§«à§¨à§¬à§¯à§¯": 2244,
      "Ġvirgins": 2245,
      "Ġà§¦à§§à§¯à§§à§¨à§©à§®à§¨à§Ńà§®à§Ń": 2246,
      "Ġsuahmed": 2247,
      "03": 2248,
      "11": 2249,
      "112": 2250,
      "113": 2251,
      "150": 2252,
      "115": 2253,
      "117": 2254,
      "23": 2255,
      "26": 2256,
      "27": 2257,
      "33": 2258,
      "36": 2259,
      "49": 2260,
      "54": 2261,
      "88": 2262,
      "93": 2263,
      ":-": 2264,
      "AN": 2265,
      "Ah": 2266,
      "COM": 2267,
      "EC": 2268,
      "ION": 2269,
      "OL": 2270,
      "SY": 2271,
      "ac": 2272,
      "ak": 2273,
      "ach": 2274,
      "ace": 2275,
      "boo": 2276,
      "cre": 2277,
      "dle": 2278,
      "eg": 2279,
      "ff": 2280,
      "go": 2281,
      "gor": 2282,
      "if": 2283,
      "ide": 2284,
      "ke": 2285,
      "kal": 2286,
      "ll": 2287,
      "lic": 2288,
      "less": 2289,
      "ml": 2290,
      "mAh": 2291,
      "ned": 2292,
      "os": 2293,
      "ox": 2294,
      "paper": 2295,
      "res": 2296,
      "ss": 2297,
      "sw": 2298,
      "sit": 2299,
      "tw": 2300,
      "tain": 2301,
      "ul": 2302,
      "uck": 2303,
      "uage": 2304,
      "went": 2305,
      "wjo": 2306,
      "||": 2307,
      "Ġj": 2308,
      "Ġv": 2309,
      "Ġat": 2310,
      "Ġre": 2311,
      "Ġ50": 2312,
      "Ġlo": 2313,
      "Ġ>>": 2314,
      "Ġlink": 2315,
      "Ġ||": 2316,
      "Ķà¦·": 2317,
      "Ġà¦Ĭ": 2318,
      "Ġà¦Ķà¦·": 2319,
      "à¦¾âĢĮ": 2320,
      "à¦¾),": 2321,
      "à¦°à¦¡": 2322,
      "à§ĩâĢĶ": 2323,
      "à¦¿;": 2324,
      "à¦¿=": 2325,
      "à¦¨à¦¥": 2326,
      "à¦¨à¦¶à¦¨": 2327,
      "à¦¨à¦¤à¦®": 2328,
      "à¦¨à¦¨à¦Ł": 2329,
      "à¦¯à¦Ĺ": 2330,
      "à¦¯à¦Ń": 2331,
      "à¦¯à¦°à¦¤": 2332,
      "à¦¯à¦®à¦¤": 2333,
      "à¦¯à¦ķà¦²": 2334,
      "à¦¯à¦Łà¦¨": 2335,
      "à¦¯à¦²à¦¯": 2336,
      "à¦¯à¦Łà¦ķ": 2337,
      "à¦ķà¦ĵ": 2338,
      "à¦ķà¦Ĩ": 2339,
      "à¦²à¦ĩ": 2340,
      "à¦²à¦ĸ": 2341,
      "à¦²à¦¥": 2342,
      "à¦²à¦®à¦¨": 2343,
      "à¦²à¦Ĺà¦°": 2344,
      "à¦²à¦¸à¦¹": 2345,
      "à¦¼;": 2346,
      "à¦¬à¦Ľ": 2347,
      "à¦¬à§İ": 2348,
      "à¦®à¦Ń": 2349,
      "à¦®à¦¹à¦²": 2350,
      "Ġà¦ķà¦Ł": 2351,
      "Ġà¦ķà¦ĩ": 2352,
      "Ġà¦ķà¦¡": 2353,
      "Ġà¦ķà¦ļ": 2354,
      "Ġà¦ķà¦Ń": 2355,
      "Ġà¦ķà¦¦à¦°": 2356,
      "Ġà¦ķà¦¬à¦²": 2357,
      "à¦¸à¦ĸ": 2358,
      "Ġà¦¸à¦²": 2359,
      "Ġà¦¸à¦¬à¦¸": 2360,
      "Ġà¦¸à¦°à¦¦": 2361,
      "Ġà¦¸à¦ĵà¦ľ": 2362,
      "Ġà¦¬à¦¦": 2363,
      "Ġà¦¬à¦§": 2364,
      "Ġà¦¬à¦ļ": 2365,
      "à¦¦à¦¤": 2366,
      "à¦¦à¦¹": 2367,
      "Ġà¦ªà¦¨": 2368,
      "Ġà¦ªà¦¹": 2369,
      "Ġà¦ªà¦¤à¦¨": 2370,
      "à¦Łà¦Ľ": 2371,
      "à¦ªà¦¬": 2372,
      "à¥¤à¥¤": 2373,
      "à§Ģ'": 2374,
      "à§Ģ)": 2375,
      "Ġà¦Ĩà¦Ń": 2376,
      "Ġà¦Ĩà¦¹à¦¸": 2377,
      "Ġà¦Ĩà¦«à¦°": 2378,
      "Ġà¦Ĩà¦«à¦¸": 2379,
      "Ġà¦®à¦®à¦¤": 2380,
      "Ġà¦®à¦ľà¦²": 2381,
      "Ġà¦®à¦ļà¦ķ": 2382,
      "à¦ľà¦¡": 2383,
      "à¦ľà¦ķà¦²": 2384,
      "à¦¶à¦¯": 2385,
      "à¦¶à¦®": 2386,
      "à¦¶à¦ªà¦¥": 2387,
      "Ġà¦¨à¦Ĺà¦¦": 2388,
      "à¦ĩà¦¶": 2389,
      "à¦ĩà¦ľà¦¨": 2390,
      "à¦ĩà¦ĺ": 2391,
      "à¦ĩà¦Ľà¦²": 2392,
      "Ġà¦¦à¦¯": 2393,
      "Ġà¦¹à¦ĩà¦¤": 2394,
      "à¦Ľà¦ķ": 2395,
      "à¦Ľà¦¬": 2396,
      "à¦Ľà¦Ł": 2397,
      "à¦¹à¦¯": 2398,
      "à¦¹à¦¦": 2399,
      "à¦¹à¦ĵ": 2400,
      "à¦¹à§İ": 2401,
      "à¦¡à¦«": 2402,
      "à¦·à¦¸": 2403,
      "à¦·à¦ª": 2404,
      "à¦·à¦ĩ": 2405,
      "à¦·à¦Ń": 2406,
      "Ġà¦ľà¦Ł": 2407,
      "Ġà¦ľà¦Ĺà¦¤": 2408,
      "à¦§à¦¯": 2409,
      "Ġà¦¤à¦¨": 2410,
      "Ġà¦¤à¦¤à¦ĩ": 2411,
      "Ġà¦ħà¦®à¦¨": 2412,
      "Ġà¦ħà¦ľà¦¯": 2413,
      "Ġà¦ħà¦¬à¦²à¦®": 2414,
      "à¦ļà¦Ĺà¦¡": 2415,
      "à¦Ńà¦ķ": 2416,
      "à¦Ńà¦°à¦¶": 2417,
      "Ġà¦°à¦ľà¦¤": 2418,
      "à¦ĸà¦¯": 2419,
      "à¦ĸà¦®": 2420,
      "à¦ĸà¦ª": 2421,
      "à¦¥à¦ĸà¦²": 2422,
      "Ġà¦¯à¦¤à¦ĩ": 2423,
      "à¦£à¦¨": 2424,
      "à¦£à¦ķ": 2425,
      "à¦£à¦§": 2426,
      "à¦ĵà¦°": 2427,
      "à¦ĵà¦²à¦ª": 2428,
      "Ġà¦¶à¦Ļ": 2429,
      "Ġà¦Ĺà¦¯": 2430,
      "Ġà¦Ĺà¦¦": 2431,
      "Ġà¦Ĺà¦ª": 2432,
      "Ġà¦ļà¦®": 2433,
      "Ġà¦ĵà¦ª": 2434,
      "Ġà¦ĵà¦·": 2435,
      "Ġà¦ĵà¦®à¦°": 2436,
      "Ġà¦ĵà¦ıà¦¸": 2437,
      "à§¦à§§": 2438,
      "Ġà¦īà¦ªà¦¨": 2439,
      "Ġà¦Ńà¦Ł": 2440,
      "Ġà¦ªà¦°à¦°": 2441,
      "Ġà¦ıà¦ķà¦¤": 2442,
      "Ġà¦ıà¦ķà¦¥": 2443,
      "Ġà¦ıà¦ķà¦ªà¦°": 2444,
      "Ġà¦ıà¦ķà¦¦à¦®": 2445,
      "Ġà¦«à¦¸à¦²": 2446,
      "Ġà¦«à¦¨à¦¸": 2447,
      "Ġà¦ĩà¦¸à¦®": 2448,
      "Ġà¦ĩà¦¹à¦ķ": 2449,
      "Ġà¦ĸà¦¤": 2450,
      "Ġà¦ĸà¦¤à¦®": 2451,
      "Ġà¦ĸà¦¸à¦°": 2452,
      "à¦°à¦¤à¦¯": 2453,
      "à¦°à¦¤à¦¬à¦°": 2454,
      "à¦ıà¦Ń": 2455,
      "à¦ıà¦®à¦¨": 2456,
      "à¦ıà¦ķà¦¬": 2457,
      "Ġà¦ħà¦¨à¦¨": 2458,
      "à¦īà¦®": 2459,
      "à¦īà¦¶à¦¨": 2460,
      "Ġà¦ľà¦¨à¦¸à¦®": 2461,
      "Ġà¦ľà¦¨à¦ªà¦¦": 2462,
      "à¦¬à¦°à¦Ĺà¦ŀ": 2463,
      "à¦łà¦Ł": 2464,
      "à¦łà¦¶": 2465,
      "Ġà¦Łà¦¸": 2466,
      "à¦Ĩà¦ª": 2467,
      "à¦Ĩà¦¸à¦¨": 2468,
      "à¦Ĩà¦¨à¦¨": 2469,
      "à¦Ĩà¦ľà¦ķ": 2470,
      "Ġà¦¡à¦Łà¦ķà¦®": 2471,
      "à¦°à¦£à¦Ń": 2472,
      "à¦ľà¦¨à¦¶": 2473,
      "à§¨à§¦à§¦à§¦": 2474,
      "ĠâĢį": 2475,
      "à¦ĥ)": 2476,
      "Ġà¦ĺà¦·": 2477,
      "à¦¤à¦°à¦¨": 2478,
      "à¦¼à¦¿âĢĻ": 2479,
      "à§«à§§": 2480,
      "à§©à§¦à§¦": 2481,
      "à¦¶à¦¨à¦Ł": 2482,
      "à¦¬à¦¸à¦®": 2483,
      "Ġà¦īà¦ªà¦¹": 2484,
      "Ġà¦Ĩà¦¸à¦ķ": 2485,
      "Ġà¦Ĩà¦²à¦¤": 2486,
      "Ġà¦ıà¦°à¦¶": 2487,
      "à¦ĺà¦®": 2488,
      "à¦°à¦¬à¦£": 2489,
      "à§®à§®à§Ń": 2490,
      "à¦°à¦¸à¦°": 2491,
      "à¦°à¦¸à¦®": 2492,
      "à¦°à¦¸à¦¹": 2493,
      "à§ªà§«": 2494,
      "à§ªà§¬": 2495,
      "à¦°à¦¦à¦ķ": 2496,
      "Ġà¦ķà¦®à¦²": 2497,
      "Ġà¦ķà¦®à¦ªà¦ķ": 2498,
      "à§¯à§¦": 2499,
      "à¦¬à¦¹à¦£": 2500,
      "à§¦à§¦à§¦à§¦": 2501,
      "à¦¦à¦¨à¦ķ": 2502,
      "Ġà¦ıà¦¸à¦Ĩà¦ĩ": 2503,
      "à§Ńà§«": 2504,
      "à¦¦à¦°à¦¬à¦¨": 2505,
      "Ġà¦ļà¦²à¦²": 2506,
      "Ġà¦ļà¦²à¦®": 2507,
      "Ġà§¨à§¦à§§à§§": 2508,
      "à§¬à§ª": 2509,
      "à§¬à§¯": 2510,
      "Ġà¦Ĩà¦¨à¦¸": 2511,
      "Ġà§©à§¨": 2512,
      "Ġà§©à§¦à§¦à§¦": 2513,
      "à¦¬à¦²à¦Ľ": 2514,
      "à¦·à¦£à¦ĩ": 2515,
      "à¦²à¦¤à¦ķ": 2516,
      "à¦²à¦¤à¦ª": 2517,
      "Ġà§«à§¨": 2518,
      "Ġà§¦à§«": 2519,
      "Ġà§¦à§©": 2520,
      "Ġà§¦à§¯": 2521,
      "à¦Ŀà¦°": 2522,
      "à¦¼à§Ģà¥¤": 2523,
      "à¦°à¦¹à¦¸": 2524,
      "Ġà¦¸à¦°à¦ŀ": 2525,
      "à¦ıà¦¨à¦ľ": 2526,
      "à¦ıà¦¨à¦ıà¦¨": 2527,
      "ant": 2528,
      "à¦Ĺà¦¤à¦Ń": 2529,
      "Ġtwent": 2530,
      "Ġà¦ħà¦¬à¦Ĺà¦¤": 2531,
      "erk": 2532,
      "à¦ħà¦¤": 2533,
      "à¦ħà¦¬": 2534,
      "à¦ħà¦§": 2535,
      "Ġà¦ħà¦¬à¦¸à¦°à¦ª": 2536,
      "Ġà§¬à§¯": 2537,
      "à¦ıà¦¸à¦Ĩà¦ĩ": 2538,
      "à¦ıà¦¸à¦ıà¦«": 2539,
      "Ġà¦ķà¦²à¦Ļ": 2540,
      "Ġà¦ıà¦¤à¦ķ": 2541,
      "Ġà¦ıà¦¤à¦Ł": 2542,
      "Ġà§¯à§¨": 2543,
      "Ġà¦ªà¦¦à¦Ł": 2544,
      "Ġà¦¸à¦¨à¦¦à¦ªà¦¤": 2545,
      "à¦·à¦ķà¦¦": 2546,
      "Ġà¦ħà¦ªà¦¬": 2547,
      "Ġà¦ħà¦ªà¦¶à¦¨": 2548,
      "atur": 2549,
      "âĢ¦]": 2550,
      "red": 2551,
      "Ġà¦Ĩà¦ĩà¦°": 2552,
      "Ġà¦Ĩà¦ĩà¦Ń": 2553,
      "Ġà¦Ĩà¦ĩà¦ĵà¦Ł": 2554,
      "ill": 2555,
      "Ġshipping": 2556,
      "oun": 2557,
      "à¦®à¦¬à¦Ļ": 2558,
      "à¦°à¦¹à¦£à¦¯": 2559,
      "ĠPaper": 2560,
      "Ġà¦¶à¦¤à¦ķà¦°": 2561,
      "à§§à§¨à§©à§¦": 2562,
      "Ġà¦Ŀà¦¡": 2563,
      "ĠCer": 2564,
      "ĠChe": 2565,
      "ari": 2566,
      "art": 2567,
      "ith": 2568,
      "Ġch": 2569,
      "Ġà¦īà¦²à¦Ļ": 2570,
      "ork": 2571,
      "Ġà¦Īà¦Ĺà¦²": 2572,
      "Ġà¦¨à¦¬à¦ľ": 2573,
      "Ġà¦¸à¦¦à¦°à¦ĺ": 2574,
      "à¦Łà¦°à¦°": 2575,
      "Ġblo": 2576,
      "Ġpm": 2577,
      "Ġpla": 2578,
      "Ġpack": 2579,
      "à¦ıà¦ķà¦ĩ": 2580,
      "Ġà¦ķà¦¨à¦Ń": 2581,
      "à¦Ĩà¦°à¦¡": 2582,
      "à§¨à§ªà§ª": 2583,
      "Ġhour": 2584,
      "Ġhave": 2585,
      "121": 2586,
      "125": 2587,
      "126": 2588,
      "135": 2589,
      "ional": 2590,
      "rain": 2591,
      "ĠMa": 2592,
      "ĠMi": 2593,
      "unt": 2594,
      "Ġfro": 2595,
      "à§§à§©à§ª": 2596,
      "angl": 2597,
      "angbad": 2598,
      "anguage": 2599,
      "lored": 2600,
      "Ġà§§à§¬à§ª": 2601,
      "ice": 2602,
      "ici": 2603,
      "Ġà¦īà§İà¦ªà¦¤": 2604,
      "ame": 2605,
      "Ġâĺ": 2606,
      "Ġà§¨à§¦à§¦à§ª": 2607,
      "ĠTrain": 2608,
      "Ġ018": 2609,
      "à¦Īà¦¦": 2610,
      "à¦¶à¦²à¦Ĺà¦¤": 2611,
      "155": 2612,
      "157": 2613,
      "app": 2614,
      "ash": 2615,
      "176": 2616,
      "178": 2617,
      "2222": 2618,
      "Ġà¦ĭà¦¤": 2619,
      "à¦¾à¦ĥ-": 2620,
      "à¦¯à¦¥à¦Ń": 2621,
      "Ġà¦ķà¦²à¦ķà¦¬": 2622,
      "160": 2623,
      "Ġà¦Ĩà¦«à¦Ĺ": 2624,
      "ida": 2625,
      "ĠNo": 2626,
      "ĠReg": 2627,
      "Ġà¦¸à¦«à¦²à¦¤": 2628,
      "ateur": 2629,
      "ategor": 2630,
      "Ġnewspaper": 2631,
      "hopping": 2632,
      "iaomi": 2633,
      "Ġcon": 2634,
      "Ġcolored": 2635,
      "âĢ¦âĢ¦âĢ¦âĢ¦": 2636,
      "ĠAny": 2637,
      "189": 2638,
      "gso": 2639,
      "Ġ[âĢ¦]": 2640,
      "à¦°à¦¥à¦®à¦¤": 2641,
      "Ġà¦īà¦ĩà¦¨à¦ļ": 2642,
      "à§¬à§¦à§¯à§®": 2643,
      "Ġthat": 2644,
      "104": 2645,
      "ATION": 2646,
      "uman": 2647,
      "Ġà§§à§¯à§¯à§¦": 2648,
      "Ġteen": 2649,
      "ĠProf": 2650,
      "Ġ01784": 2651,
      "ebsit": 2652,
      "rib": 2653,
      "ĠXiaomi": 2654,
      "endra": 2655,
      "Ġsex": 2656,
      "port": 2657,
      "ĠSIM": 2658,
      "ĠSafari": 2659,
      "Ġabout": 2660,
      "Ġamateur": 2661,
      "Ġbundle": 2662,
      "ĠWindow": 2663,
      "ternet": 2664,
      "aceboo": 2665,
      "wjob": 2666,
      "Ġà¦Ķà¦·à¦§": 2667,
      "à¦ķà¦Ĩà¦īà¦Ł": 2668,
      "Ġà¦ķà¦ĩà¦·": 2669,
      "Ġà¦¸à¦¬à¦¸à¦®à¦¯": 2670,
      "à§®à§®à§Ńà§¦": 2671,
      "Ġtwenty": 2672,
      "ĠPaperless": 2673,
      "Ġblowjob": 2674,
      "Ġhours": 2675,
      "Ġfrom": 2676,
      "Ġ017842222": 2677,
      "acebook": 2678,
      "!)": 2679,
      "!âĢĿ": 2680,
      "):": 2681,
      "05": 2682,
      "07": 2683,
      "09": 2684,
      "100": 2685,
      "25": 2686,
      "29": 2687,
      "34": 2688,
      "38": 2689,
      "39": 2690,
      "313": 2691,
      "56": 2692,
      "62": 2693,
      "69": 2694,
      "608": 2695,
      "71": 2696,
      "::": 2697,
      "?âĢĿ": 2698,
      "AR": 2699,
      "AS": 2700,
      "ASS": 2701,
      "Bangla": 2702,
      "CC": 2703,
      "Com": 2704,
      "DF": 2705,
      "EM": 2706,
      "GY": 2707,
      "HN": 2708,
      "IV": 2709,
      "KI": 2710,
      "Mov": 2711,
      "OC": 2712,
      "OT": 2713,
      "OGY": 2714,
      "PH": 2715,
      "PR": 2716,
      "Po": 2717,
      "Qu": 2718,
      "ST": 2719,
      "Tag": 2720,
      "TER": 2721,
      "TSY": 2722,
      "WS": 2723,
      "YT": 2724,
      "aw": 2725,
      "bangla": 2726,
      "baz": 2727,
      "cy": 2728,
      "cure": 2729,
      "der": 2730,
      "des": 2731,
      "ding": 2732,
      "ee": 2733,
      "ew": 2734,
      "fin": 2735,
      "facebook": 2736,
      "ga": 2737,
      "ge": 2738,
      "gl": 2739,
      "gy": 2740,
      "ger": 2741,
      "gle": 2742,
      "hy": 2743,
      "hal": 2744,
      "ham": 2745,
      "hns": 2746,
      "ix": 2747,
      "ian": 2748,
      "ike": 2749,
      "ken": 2750,
      "ln": 2751,
      "mer": 2752,
      "mation": 2753,
      "na": 2754,
      "news": 2755,
      "now": 2756,
      "oS": 2757,
      "oil": 2758,
      "odi": 2759,
      "ober": 2760,
      "ohns": 2761,
      "pr": 2762,
      "ple": 2763,
      "put": 2764,
      "que": 2765,
      "ron": 2766,
      "ren": 2767,
      "rim": 2768,
      "rist": 2769,
      "ration": 2770,
      "rue": 2771,
      "rdu": 2772,
      "sa": 2773,
      "sion": 2774,
      "sattar": 2775,
      "sbaz": 2776,
      "te": 2777,
      "tz": 2778,
      "tin": 2779,
      "tra": 2780,
      "tim": 2781,
      "tro": 2782,
      "tiv": 2783,
      "tml": 2784,
      "ub": 2785,
      "up": 2786,
      "uy": 2787,
      "ues": 2788,
      "uma": 2789,
      "ule": 2790,
      "ude": 2791,
      "uth": 2792,
      "uel": 2793,
      "uida": 2794,
      "xx": 2795,
      "yn": 2796,
      "Ãĳ": 2797,
      "Åĵ": 2798,
      "Ġ&": 2799,
      "ĠZ": 2800,
      "Ġ_": 2801,
      "Ġhe": 2802,
      "Ġor": 2803,
      "ĠĠÂł": 2804,
      "Ġle": 2805,
      "Ġra": 2806,
      "Ġqu": 2807,
      "İâ": 2808,
      "à¦Ĭ": 2809,
      "Ġà¦ĥ": 2810,
      "à¦¾âĢĿ": 2811,
      "à¦¾)à¥¤": 2812,
      "à¦°à¦¬à¦°": 2813,
      "à¦°à¦Łà¦¨": 2814,
      "à¦°à¦²à¦¬": 2815,
      "à¦°à¦ĩà¦¸": 2816,
      "à¦°à¦«à¦°": 2817,
      "à§ĩ/": 2818,
      "à§ĩà¦ĥ": 2819,
      "à§ĩâĢ¦": 2820,
      "à§įà¥¤": 2821,
      "à¦¿à¦¾": 2822,
      "à¦¿âĢĮ": 2823,
      "à¦¨à¦ľà¦¨": 2824,
      "à¦¨à¦¸à¦®": 2825,
      "à¦¨à¦®à¦¸": 2826,
      "à¦¨à¦ľà¦¨à¦ķ": 2827,
      "à¦¯à¦Ł": 2828,
      "à¦¯à¦ľ": 2829,
      "à¦¤à¦¹": 2830,
      "à¦¤à¦ļ": 2831,
      "à¦¤à¦¥": 2832,
      "à¦¤à¦ĵ": 2833,
      "à¦¤à¦ªà¦ķ": 2834,
      "à¦ķà¦ľ": 2835,
      "à¦ķà¦ĩ": 2836,
      "à¦ķà¦¡": 2837,
      "à¦ķà¦·": 2838,
      "à¦ķà¦ĵà¦¯": 2839,
      "à¦ķà¦²à¦¨": 2840,
      "à¦ķà¦¬à¦²": 2841,
      "à¦ķà¦¸à¦¨": 2842,
      "à¦ķà¦Ĺà¦£": 2843,
      "à¦²à¦ªà¦¤": 2844,
      "à¦²à¦ĸà¦¨": 2845,
      "à¦²à¦īà¦¡": 2846,
      "à¦¼)": 2847,
      "à¦¼à¦¿à¥¤": 2848,
      "à¦¬à¦ļ": 2849,
      "à¦¬à¦Ļ": 2850,
      "à¦¬à¦¬à¦°": 2851,
      "à¦¬à¦ªà¦¨": 2852,
      "à¦¬à¦ľà¦¨": 2853,
      "à¦¬à¦²à¦¨": 2854,
      "à¦®à¦ĩ": 2855,
      "à¦®à¦£": 2856,
      "à¦®à¦«": 2857,
      "à§ģ!": 2858,
      "à§ģà§į": 2859,
      "à§ģà§ģ": 2860,
      "à§ģà¦Ĥ": 2861,
      "Ġà¦ķà¦¦": 2862,
      "Ġà¦ķà¦®à¦¨": 2863,
      "Ġà¦ķà¦¸à¦®": 2864,
      "Ġà¦ķà¦¤à¦ķ": 2865,
      "Ġà¦ķà¦¤à¦¦": 2866,
      "à¦¸à¦ĵ": 2867,
      "à¦¸à¦ªà¦¨": 2868,
      "à¦¸à¦Ĩà¦°": 2869,
      "à¦¸à¦«à¦Ł": 2870,
      "Ġà¦¸à¦ĩ": 2871,
      "Ġà¦¸à¦¬à¦¨": 2872,
      "Ġà¦¬à¦®": 2873,
      "Ġà¦¬à¦ŀ": 2874,
      "Ġà¦¬à¦°à¦£": 2875,
      "Ġà¦¬à¦ĩà¦Ł": 2876,
      "Ġà¦¬à¦ĩà¦¯": 2877,
      "Ġà¦¬à§İà¦¸à¦°": 2878,
      "à¦¦à¦ľ": 2879,
      "à¦¦à¦¶à¦ķ": 2880,
      "à¦¦à¦īà¦²": 2881,
      "à¦¦à¦¬à¦ª": 2882,
      "Ġà¦ªà¦ª": 2883,
      "Ġà¦ªà¦ľ": 2884,
      "Ġà¦ªà¦Ĺ": 2885,
      "à¦Łà¦¹": 2886,
      "à¦Łà¦ĸ": 2887,
      "à¦Łà¦ĵ": 2888,
      "à¦Łà¦ªà¦°": 2889,
      "à¦Łà¦¸à¦¹": 2890,
      "à¦Łà¦®à¦¸": 2891,
      "à¦Łà¦²à¦Ł": 2892,
      "à¦ªà¦ª": 2893,
      "à¦ªà¦§": 2894,
      "à¦ªà¦¶à¦¨": 2895,
      "à¦ªà¦Ĺà¦ŀ": 2896,
      "à¦ªà¦ľà¦²": 2897,
      "à¥¤[": 2898,
      "à§Ģ;": 2899,
      "à§Ģ?": 2900,
      "Ġà¦Ĩà¦ªà¦¤": 2901,
      "Ġà¦Ĩà¦ĩà¦Ł": 2902,
      "Ġà¦Ĩà¦ĸà¦¤": 2903,
      "Ġà¦Ĩà¦ĩà¦¯": 2904,
      "Ġà¦Ĩà¦Łà¦Ł": 2905,
      "Ġà¦®à¦²": 2906,
      "Ġà¦®à¦ĩà¦¨": 2907,
      "Ġà¦®à¦²à¦¨": 2908,
      "Ġà¦®à¦°à¦¨": 2909,
      "Ġà¦®à¦ķà¦¬": 2910,
      "Ġà¦ıà¦«": 2911,
      "Ġà¦ıà¦®à¦¦": 2912,
      "Ġà¦ıà¦«à¦Ł": 2913,
      "à¦ľà¦ĩ": 2914,
      "à¦ľà¦¸à¦¹": 2915,
      "à¦ľà¦¤à¦ķ": 2916,
      "à¦ľà¦ķà¦¤": 2917,
      "à¦ľà¦īà¦ķ": 2918,
      "à¦¶à¦¸": 2919,
      "à¦¶à¦¹": 2920,
      "à¦¶à¦§": 2921,
      "à¦¶à¦Ļ": 2922,
      "à¦¶à¦ªà¦¤": 2923,
      "à¦¶à¦Ĺà¦¤": 2924,
      "Ġà¦¨à¦¹": 2925,
      "Ġà¦¨à¦¬à¦°": 2926,
      "Ġà¦¨à¦°à¦¸": 2927,
      "Ġà¦¨à¦¬à¦¬": 2928,
      "Ġà¦¨à¦«à¦²": 2929,
      "Ġà¦¨à¦ķà¦Ĩà¦īà¦Ł": 2930,
      "à¦ĩà¦ĵ": 2931,
      "à¦ĩà¦®à¦²": 2932,
      "à¦ĩà¦°à¦¹": 2933,
      "à¦ĩà¦īà¦ľ": 2934,
      "à¦ĩà¦«à¦Ł": 2935,
      "à¦ĩà¦«à¦¸": 2936,
      "à¦Ĺà¦ª": 2937,
      "à¦Ĺà¦Ļ": 2938,
      "à¦Ĺà¦®à¦¨": 2939,
      "à¦Ĺà¦®à¦ķ": 2940,
      "Ġà¦¦à¦Ĺ": 2941,
      "Ġà¦¦à¦²à¦¨": 2942,
      "Ġà¦¦à¦°à¦ªà¦¤": 2943,
      "Ġà¦¹à¦Ł": 2944,
      "Ġà¦¹à¦ĩà¦²": 2945,
      "Ġà¦¹à¦°à¦Ń": 2946,
      "Ġà¦¹à¦ľà¦®": 2947,
      "Ġà¦¹à¦Łà¦²": 2948,
      "à¦¼à§ĩ-": 2949,
      "à¦¹à¦Ł": 2950,
      "à¦¹à¦¶": 2951,
      "à¦¹à¦Ń": 2952,
      "à¦¹à¦ªà¦°": 2953,
      "à¦¹à¦¤à¦°": 2954,
      "à¦¹à¦¨à¦ķ": 2955,
      "à¦¡à¦¦": 2956,
      "à¦¡à¦Ĺ": 2957,
      "à¦¡à¦¸à¦¹": 2958,
      "à¦¡à¦Łà¦ķà¦®": 2959,
      "Ġà¦ķà¦°à¦¨": 2960,
      "Ġà¦ķà¦°à¦£": 2961,
      "à¦·à¦ĵ": 2962,
      "à¦·à¦°à¦¤": 2963,
      "à¦·à¦Ļ": 2964,
      "à¦·à¦®à¦¨": 2965,
      "à¦·à¦ķà¦°": 2966,
      "à¦·à¦¦à¦°": 2967,
      "à¦¼à¦¾âĢĻ": 2968,
      "à¦¼à¦¾âĢ¦": 2969,
      "Ġà¦ľà¦²à¦¸": 2970,
      "Ġà¦ľà¦ĸà¦®": 2971,
      "à¦§à¦²": 2972,
      "à¦§à¦®": 2973,
      "à¦§à¦¦": 2974,
      "à¦§à¦°à¦£": 2975,
      "à¦§à¦ķà¦°à¦£": 2976,
      "Ġà¦¤à¦¦": 2977,
      "Ġà¦¤à¦¤à¦ķ": 2978,
      "Ġà¦¤à¦°à¦²": 2979,
      "Ġà¦¤à¦°à¦«": 2980,
      "Ġà¦ħà¦®à¦²": 2981,
      "Ġà¦ħà¦®à¦°": 2982,
      "à¦ļà¦¬": 2983,
      "à¦ļà¦ĸ": 2984,
      "à¦ļà¦ĵ": 2985,
      "à¦ļà¦²à¦ķ": 2986,
      "à¦Ńà¦®": 2987,
      "à¦Ńà¦°à¦¤": 2988,
      "à¦Ńà¦ľà¦¨à¦ķ": 2989,
      "à¦Ĥ,": 2990,
      "à¦Ĥ:": 2991,
      "Ġà¦°à¦®": 2992,
      "Ġà¦°à¦¹": 2993,
      "Ġà¦°à¦¡": 2994,
      "Ġà¦°à¦£": 2995,
      "Ġà¦°à¦ī": 2996,
      "Ġà¦°à¦ĩà¦²": 2997,
      "Ġà¦°à¦¤à¦¨": 2998,
      "Ġà¦°à¦ĵà¦¨": 2999,
      "à¦ĸà¦£": 3000,
      "à¦ĸà¦ľà¦¨à¦ķ": 3001,
      "à¦¥à¦¦": 3002,
      "à¦¥à¦ª": 3003,
      "à¦¥à¦ķà¦°": 3004,
      "à¦¥à¦ķà¦¦": 3005,
      "Ġà¦¯à¦ķ": 3006,
      "Ġà¦¯à¦¤à¦¦": 3007,
      "à¦£à¦°": 3008,
      "à¦£à¦¯": 3009,
      "à¦£à¦ª": 3010,
      "à¦£à¦¹": 3011,
      "à¦£à¦Ń": 3012,
      "à¦£à¦®à¦¨": 3013,
      "à¦ĵà¦¬": 3014,
      "à¦ĵà¦¦": 3015,
      "à¦ĵà¦Ĺ": 3016,
      "à¦ĵà¦¡": 3017,
      "à¦ĵà¦·": 3018,
      "Ġà¦¶à¦®": 3019,
      "Ġà¦¶à¦ª": 3020,
      "Ġà¦¶à¦¶": 3021,
      "Ġà¦¶à¦ªà¦¥": 3022,
      "Ġà¦Ĺà¦ľ": 3023,
      "Ġà¦Ĺà¦«": 3024,
      "Ġà¦ļà¦¡": 3025,
      "Ġà¦ļà¦ĸ": 3026,
      "Ġà¦ļà¦£": 3027,
      "Ġà¦ļà¦®à¦ķ": 3028,
      "Ġà¦ļà¦Łà¦Ĺ": 3029,
      "à§ĩà¥¤'": 3030,
      "à§ĩà¥¤âĢĿ": 3031,
      "Ġà¦ĵà¦¨": 3032,
      "Ġà¦ĵà¦²": 3033,
      "Ġà¦ĵà¦Ĺ": 3034,
      "Ġà¦ĵà¦ĸ": 3035,
      "âĢ¢": 3036,
      "à§¦à§©": 3037,
      "à§¦à§ª": 3038,
      "Ġà¦īà¦®": 3039,
      "Ġà¦īà¦ľ": 3040,
      "Ġà¦īà¦Ĺ": 3041,
      "Ġà¦īà¦ªà¦¤": 3042,
      "Ġà¦īà¦¸à¦®": 3043,
      "Ġà¦īà§İà¦ķ": 3044,
      "Ġà¦ªà¦°à¦¨": 3045,
      "Ġà¦ªà¦°à¦¦": 3046,
      "Ġà¦ªà¦°à¦¶": 3047,
      "Ġà¦ªà¦°à¦ĩ": 3048,
      "Ġà¦ªà¦°à¦ªà¦°": 3049,
      "Ġà¦ıà¦ķà¦¨": 3050,
      "Ġà¦ıà¦ķà¦¶": 3051,
      "Ġà¦ıà¦ķà¦¸à¦Ļ": 3052,
      "à¦«à¦«": 3053,
      "Ġà¦«à¦²à¦¨": 3054,
      "Ġà¦¸à¦®à¦Ŀ": 3055,
      "Ġà¦ĩà¦¦": 3056,
      "Ġà¦ĩà¦¬à¦¨": 3057,
      "Ġà¦ĩà¦¸à¦°": 3058,
      "Ġà¦²à¦¨": 3059,
      "Ġà¦²à¦¤": 3060,
      "Ġà¦²à¦ľ": 3061,
      "Ġà¦²à¦Ń": 3062,
      "Ġà¦²à¦ĩà¦¯": 3063,
      "Ġà¦²à¦¬à¦£": 3064,
      "Ġà¦ĸà¦¡": 3065,
      "Ġà¦ĸà¦¸à¦ĸ": 3066,
      "à¦°à¦¤à¦²": 3067,
      "à¦°à¦¤à¦®": 3068,
      "Ġà¦Ľà¦Ł": 3069,
      "à¦Ļà¦¨": 3070,
      "à¦ıà¦ª": 3071,
      "à¦ıà¦ĸ": 3072,
      "à¦ıà¦®à¦¸": 3073,
      "à¦ıà¦ıà¦«à¦ª": 3074,
      "Ġà¦ħà¦¨à¦¬à¦¦": 3075,
      "Ġà¦Ĩà¦®à¦ľ": 3076,
      "à¦īà¦¤": 3077,
      "à¦īà¦¸": 3078,
      "à¦īà¦ļ": 3079,
      "à¦īà¦¥": 3080,
      "à¦īà¦ªà¦¦": 3081,
      "Ġà¦ľà¦¨à¦¨": 3082,
      "Ġà¦ľà¦¨à¦¶à¦ķ": 3083,
      "à¦°à¦ķà¦°": 3084,
      "à¦°à¦ķà¦ļà¦ķ": 3085,
      "à¦¬à¦°à¦¦": 3086,
      "à¦¬à¦°à¦ĩ": 3087,
      "à¦¬à¦°à¦¸à¦¹": 3088,
      "à¦łà¦¤": 3089,
      "à¦łà¦ªà¦°": 3090,
      "Ġà¦Łà¦®à¦¸": 3091,
      "à¦Ĩà¦ķ": 3092,
      "à¦Ĩà¦¡": 3093,
      "à¦Ĩà¦°à¦¬": 3094,
      "à¦Ĩà¦¹à¦®": 3095,
      "à¦Ĩà¦¸à¦²": 3096,
      "à¦Ĩà¦ĩà¦Ł": 3097,
      "à¦Ĩà¦²à¦¬": 3098,
      "à¦Ĩà¦¬à¦¦": 3099,
      "à¦ŀà¦°": 3100,
      "Ġà¦¡à¦ľà¦¨": 3101,
      "à¦¾à¦ģ,": 3102,
      "à¦ªà¦¨à¦ĵ": 3103,
      "à¦ľà¦¨à¦ĩ": 3104,
      "à¦ľà¦¨à¦¸à¦Ń": 3105,
      "à¦®à¦¨à¦ĩ": 3106,
      "Ġà¦ıà¦ĩà¦¬": 3107,
      "Ġà¦ıà¦ĩà¦ľà¦¨": 3108,
      "à§¨à§¨à§ªà§ª": 3109,
      "à¦ªà¦°à¦¬à¦°": 3110,
      "ĠâĢĭ": 3111,
      "ĠâĢĮ": 3112,
      "ĠâĢĶ": 3113,
      "Ġà¦ĺà¦¡": 3114,
      "Ġà¦ĺà¦°à¦¬": 3115,
      "à¦¤à¦°à¦¥": 3116,
      "Ġà¦®à¦¨à¦ľ": 3117,
      "à§«à§¯": 3118,
      "à§«à§¦à§¦": 3119,
      "à¦¬à¦¸à¦°": 3120,
      "à¦¬à¦¸à¦®à¦ķ": 3121,
      "Ġà¦īà¦ªà¦ªà¦°": 3122,
      "Ġà¦īà¦ªà¦®à¦¹": 3123,
      "Ġà¦īà¦ªà¦ķà¦°à¦¨": 3124,
      "Ġà¦īà¦ªà¦¶à¦®": 3125,
      "à¦¬à¦¨à¦°à¦¤": 3126,
      "à¦¬à¦¨à¦°à¦¹à¦¸": 3127,
      "à¦ļà¦¨à¦Ĺ": 3128,
      "Ġ25": 3129,
      "Ġ28": 3130,
      "à¦°à¦®à¦¶": 3131,
      "à¦¿à¦Ĥ)": 3132,
      "à¦ĩà¦²à¦Ł": 3133,
      "Ġà¦ıà¦°à¦ĩ": 3134,
      "Ġà¦ıà¦°à¦ĩà¦®": 3135,
      "à¦²à¦ķà¦ķ": 3136,
      "Ġà§¨à§¦à§¨à§¦": 3137,
      "Ġà§¨à§¦à§§à§¦": 3138,
      "Ġà§¨à§¦à§¨à§§": 3139,
      "Ġà¦īà¦¦à¦ĺ": 3140,
      "Ġà¦Ĩà¦¬à¦¹": 3141,
      "à¦ĺà¦Ł": 3142,
      "à¦°à¦¬à¦¤": 3143,
      "à¦°à¦¬à¦²": 3144,
      "à¦°à¦¬à¦ĺ": 3145,
      "à§®à§¨": 3146,
      "à§®à§©": 3147,
      "à§®à§¯": 3148,
      "à§®à§¨à§¦": 3149,
      "à§ªà§ª": 3150,
      "à§ªà§¯": 3151,
      "à§ªà§Ń": 3152,
      "à§ªà§¦à§¦à§¦": 3153,
      "à§ªà§ªà§¦": 3154,
      "Ġà¦ķà¦®à¦°": 3155,
      "Ġà¦ķà¦®à¦¬": 3156,
      "Ġà¦ķà¦®à¦ĩ": 3157,
      "Ġà§§à§¦à§¦à§¦": 3158,
      "Ġà¦§à¦°à¦²": 3159,
      "Ġà¦¸à¦¬à¦§à¦°à¦£": 3160,
      "à¦¦à¦¨à¦Ł": 3161,
      "à¦¦à¦¨à¦¶": 3162,
      "Ġà¦ıà¦¸à¦¡": 3163,
      "à§Ńà§¦": 3164,
      "à§Ńà§¯": 3165,
      "à§Ńà§Ń": 3166,
      "à¦®à¦¤à¦ª": 3167,
      "Ġà§¨à§¦à§§à§©": 3168,
      "Ġ:-": 3169,
      "à¦¤à¦¬à¦¤": 3170,
      "à¦¦à¦ķà¦¦": 3171,
      "à¦ķà¦²à¦®": 3172,
      "à¦¾à¦Ĥ,": 3173,
      "à¦¾à¦Ĥ-": 3174,
      "Ġà¦Ĩà¦¨à¦²": 3175,
      "Ġà¦Ĩà¦¨à¦¬": 3176,
      "Ġà¦Ĩà¦¨à¦ĩà¦¨": 3177,
      "Ġà§©à§¯": 3178,
      "Ġà¦¦à¦²à¦ĩ": 3179,
      "Ġà¦¦à¦²à¦¬à¦¦": 3180,
      "à¦·à¦£à¦¶": 3181,
      "à¦¯à¦®à¦ķ": 3182,
      "à¦¤à¦¨à¦ķ": 3183,
      "Ġà¦¸à¦¹à¦¬": 3184,
      "Ġà¦¸à¦¹à¦ª": 3185,
      "Ġà¦¸à¦¹à¦ķà¦°": 3186,
      "Ġà¦®à¦¹à¦¡": 3187,
      "à¦ĩà¦Łà¦ĵà¦¯": 3188,
      "Ġà¦ıà¦²à¦Ĩà¦°à¦¬": 3189,
      "ink": 3190,
      "indi": 3191,
      "inha": 3192,
      "Ġà¦¬à¦Ľà¦°à¦ĸ": 3193,
      "Ġà¦Ĩà¦¦à¦¤": 3194,
      "Ġà§«à§©": 3195,
      "Ġà§«à§ª": 3196,
      "Ġà¦Ĩà¦ľà¦Ĺà¦°": 3197,
      "à¦°à¦¶à¦¸": 3198,
      "Ġà§¦à§®": 3199,
      "Ġà§¦à§¬": 3200,
      "Ġà§¦à§§à§¬": 3201,
      "Ġà§¦à§¨à§ª": 3202,
      "à¦Ŀà¦¡": 3203,
      "à¦Ŀà¦ĸ": 3204,
      "Ġà¦ĩà¦¨à¦²": 3205,
      "Ġà¦ĩà¦¨à¦ľ": 3206,
      "Ġà¦ĩà¦¨à¦ļ": 3207,
      "à¦Łà¦ķà¦Ł": 3208,
      "à¦°à¦¹à¦¨": 3209,
      "Ġà¦ıà¦¨à¦¡": 3210,
      "Ġà¦ıà¦¨à¦Ĩà¦ĩ": 3211,
      "Ġà¦ıà¦¨à¦ĵà¦¸": 3212,
      "Ġà§ªà§®": 3213,
      "Ġà§ªà§¯": 3214,
      "Ġà§ªà§§": 3215,
      "Ġà§ªà§¦à§¦à§¦": 3216,
      "Ġ001": 3217,
      "à¦ķà¦Łà¦¬à¦°": 3218,
      "à¦¨à¦¤à¦ĵ": 3219,
      "Ġà¦¸à¦°à¦²": 3220,
      "Ġà¦®à¦¤à¦ĩ": 3221,
      "à¦ıà¦¨à¦¸": 3222,
      "ano": 3223,
      "aner": 3224,
      "anth": 3225,
      "ance": 3226,
      "à¦ĩà¦ķà¦¸": 3227,
      "Ġà¦¬à¦¨à¦¸": 3228,
      "Ġti": 3229,
      "Ġtag": 3230,
      "Ġtus": 3231,
      "à¦°à¦¨à¦Ĺà¦°": 3232,
      "Ġà¦ħà¦¬à¦ķ": 3233,
      "ere": 3234,
      "à¦ħà¦ķ": 3235,
      "à¦ħà¦¸": 3236,
      "à¦ħà¦«": 3237,
      "à¦ħà¦¥à¦ļ": 3238,
      "à¦ħà¦¬à¦¸à¦°": 3239,
      "Ġà§¬à§«": 3240,
      "Ġà§¬à§¦à§¦": 3241,
      "Ġà§¬à§¬": 3242,
      "à¦ıà¦¸à¦ľ": 3243,
      "à¦ıà¦¸à¦ĩà¦°": 3244,
      "à¦ıà¦¸à¦ıà¦¸à¦¸": 3245,
      "à¦ıà¦¸à¦ıà¦¨à¦ıà¦¨": 3246,
      "Ġà¦ķà¦²à¦®": 3247,
      "Ġà¦ķà¦²à¦Ĺ": 3248,
      "Ġà¦ķà¦²à¦¹": 3249,
      "à¦®à¦ķà¦°à¦£": 3250,
      "Ġà¦ħà¦¸à¦¨": 3251,
      "Ġà§¯à§§": 3252,
      "Ġà§Ńà§¨": 3253,
      "Ġà§Ńà§¬": 3254,
      "Ġà§Ńà§¨à§ª": 3255,
      "à¦¬à¦ķà¦¦": 3256,
      "à¦¨à¦¬à¦ľ": 3257,
      "à¦§à¦¨à¦¦": 3258,
      "à¦īà¦ľà¦ļ": 3259,
      "à§¨à§¦à§§à§§": 3260,
      "onth": 3261,
      "onlin": 3262,
      "ontin": 3263,
      "à¦ıà¦®à¦¬": 3264,
      "----": 3265,
      "Ġ14": 3266,
      "Ġ15": 3267,
      "Ġ18": 3268,
      "à¦¯à¦¬à¦¤": 3269,
      "Ġà¦ħà¦¤à¦ıà¦¬": 3270,
      "Ġà¦ĵà¦ĩà¦¸à¦¬": 3271,
      "Ġà§®à§¨": 3272,
      "Ġà§®à§¦à§¦à§¦": 3273,
      "ense": 3274,
      "engal": 3275,
      "Ġà¦Ĳà¦¶": 3276,
      "Ġà¦¸à¦ķà¦²à¦ķ": 3277,
      "Ġà¦ħà¦ªà¦ļ": 3278,
      "Ġà¦ħà¦ªà¦ķà¦°": 3279,
      "Ġà¦ħà¦ªà¦¹à¦°à¦£": 3280,
      "ated": 3281,
      "ĠSE": 3282,
      "ĠSon": 3283,
      "ĠSam": 3284,
      "ĠSur": 3285,
      "ĠSMS": 3286,
      "ĠSatur": 3287,
      "ĠSinha": 3288,
      "à§§à§Ńà§Ń": 3289,
      "ream": 3290,
      "Ġà¦Ĩà¦ĩà¦ıà¦¸": 3291,
      "ilid": 3292,
      "Ġà¦ıà¦®à¦ı": 3293,
      "à¦¸à¦ķà¦²à¦ķ": 3294,
      "à¦Łà¦Ĺà¦²": 3295,
      "mage": 3296,
      "Ġsha": 3297,
      "Ġsame": 3298,
      "Ġsoil": 3299,
      "ough": 3300,
      "ought": 3301,
      "à§ĭà¥¤âĢĻ": 3302,
      "à§ĭà¥¤âĢĿ": 3303,
      "Ġà¦ĸà¦¬à¦°à¦Ł": 3304,
      "Ġà¦ĸà¦¬à¦°à¦Ĺ": 3305,
      "à¦¨à¦ĵà¦Ĺ": 3306,
      "Ġà¦ªà¦¥à¦ļà¦²": 3307,
      "Ġà¦ıà¦ķà¦ľà¦¨à¦ķ": 3308,
      "Ġà¦ĺà¦Łà¦¤": 3309,
      "bdtim": 3310,
      "ĠPDF": 3311,
      "Ġà¦Ĩà¦Łà¦ķà¦ķ": 3312,
      "Ġà¦Ĺà¦£à¦¹": 3313,
      "à§§à§¨à§¦à§®": 3314,
      "à§§à§¨à§«à§«": 3315,
      "à§§à§¨à§¦à§¦à§¦à§¦": 3316,
      "à§§à§¨à§¦à§©": 3317,
      "Ġà¦Ŀà¦Ĺà¦¡": 3318,
      "ĠAc": 3319,
      "ĠAp": 3320,
      "ĠAOR": 3321,
      "ĠCo": 3322,
      "ĠCart": 3323,
      "ĠCategor": 3324,
      "ĠContin": 3325,
      "Ġà§§à§¯à§®à§«": 3326,
      "ard": 3327,
      "arNE": 3328,
      "ity": 3329,
      "itco": 3330,
      "itter": 3331,
      "Ġad": 3332,
      "Ġal": 3333,
      "Ġare": 3334,
      "Ġapp": 3335,
      "Ġcho": 3336,
      "à¦ķà¦¨à¦ª": 3337,
      "ors": 3338,
      "ormation": 3339,
      "Ġà¦Īà¦®": 3340,
      "Ġà¦Īà¦¦à¦ª": 3341,
      "Ġà¦¨à¦¬à¦Ĺà¦ł": 3342,
      "à¦ķà¦ľà¦¨à¦ķ": 3343,
      "à¦ķà¦ľà¦¨à¦ĵ": 3344,
      "Ġà¦Ĩà¦¤à¦Ļ": 3345,
      "à§§à§¯à§¯à§¦": 3346,
      "Ġ''": 3347,
      "Ġbal": 3348,
      "à¦§à¦¬à¦Ĺ": 3349,
      "Ġà¦ĩà¦īà¦ıà¦¸à¦¬": 3350,
      "à§§à§¬à§®": 3351,
      "à§§à§¬à§¬": 3352,
      "Ġà§§à§§à§¦": 3353,
      "alo": 3354,
      "als": 3355,
      "alth": 3356,
      "Ġà§§à§«à§¦": 3357,
      "Ġà§§à§«à§¦à§¦à§¦": 3358,
      "Ġniv": 3359,
      "Ġà¦Ĩà¦¹à¦°à¦£": 3360,
      "à§§à§«à§«": 3361,
      "à§§à§®à§¯à§¯": 3362,
      "à¦Ĩà¦°à¦ı": 3363,
      "à§¨à§ªà§¦": 3364,
      "ings": 3365,
      "Ġhd": 3366,
      "Ġhab": 3367,
      "Ġhindi": 3368,
      "leaner": 3369,
      "stagra": 3370,
      "ions": 3371,
      "racy": 3372,
      "Ġme": 3373,
      "Ġmp": 3374,
      "Ġmu": 3375,
      "Ġmodi": 3376,
      "à¦łà¦ķà¦¬à¦°": 3377,
      "à§©à§¦à§ªà§¦": 3378,
      "ĠMag": 3379,
      "ĠMMS": 3380,
      "ĠMonth": 3381,
      "Ġà¦ıà¦¡à¦Ń": 3382,
      "à¦¬à¦¶à¦°": 3383,
      "à¦¸à¦Łà¦²": 3384,
      "Ġfe": 3385,
      "à§§à§©à§«à§«": 3386,
      "Ġà§§à§©à§¨": 3387,
      "Ġà§§à§©à§®": 3388,
      "ages": 3389,
      "ĠDem": 3390,
      "ĠDoS": 3391,
      "ĠDream": 3392,
      "Ġà¦¤à¦°à¦Ļ": 3393,
      "Ġà§¨à§«à§¬": 3394,
      "Ġà§¨à§«à§§à§©à§ª": 3395,
      "Ġà§§à§ªà§ª": 3396,
      "ick": 3397,
      "icate": 3398,
      "imsattar": 3399,
      "ĠBu": 3400,
      "ĠBro": 3401,
      "ĠEn": 3402,
      "ĠETSY": 3403,
      "à¦¨à¦Ĺà¦®à¦¨": 3404,
      "à¦¯à¦¸à¦ļ": 3405,
      "Ġà¦īà§İà¦ªà¦²": 3406,
      "Ġà¦ľà¦¨à¦Ĺà¦£à¦ķ": 3407,
      "viron": 3408,
      "ĠIN": 3409,
      "ĠIm": 3410,
      "Ġà§¨à§¦à§¦à§®": 3411,
      "ĠThe": 3412,
      "ĠTEC": 3413,
      "à¦Īà¦¶": 3414,
      "Ġà¦ħà¦²à¦°": 3415,
      "Ġà¦ħà¦²à¦Ļ": 3416,
      "ctg": 3417,
      "ctober": 3418,
      "tha": 3419,
      "ther": 3420,
      "Ġ100": 3421,
      "Ġ105": 3422,
      "1983": 3423,
      "cha": 3424,
      "rop": 3425,
      "Ġà§ªà§¦à§®": 3426,
      "elle": 3427,
      "ĠWork": 3428,
      "Ġviagra": 3429,
      "à¦ªà¦¸à¦Ĺ": 3430,
      "Ġà¦¦à¦«à¦¤à¦°": 3431,
      "Ġà¦ľà¦¨à¦ªà¦¥": 3432,
      "ttings": 3433,
      "Ġ55": 3434,
      "ĠFor": 3435,
      "ĠHT": 3436,
      "ĠHAC": 3437,
      "ĠHuman": 3438,
      "à¦¿.)": 3439,
      "à¦¿.,": 3440,
      "à¦Łà¦¸à¦ħ": 3441,
      "Ġà¦Ĩà¦īà¦Łà¦ª": 3442,
      "à§©à§Ńà§¯": 3443,
      "ish": 3444,
      "ĠLanguage": 3445,
      "ĠLaw": 3446,
      "à§ĩâĢĻà¥¤": 3447,
      "à¦ĩà¦ªà¦®": 3448,
      "Ġà§§à§¦à§¦à§¦à§¦": 3449,
      "240": 3450,
      "idad": 3451,
      "ĠRight": 3452,
      "ĠRule": 3453,
      "Ġwill": 3454,
      "Ġwith": 3455,
      "Ġwebsit": 3456,
      "à¦ķà¦°à¦£à¦¤à¦¨": 3457,
      "Ġà¦Ĩà¦§à¦ĺ": 3458,
      "à¦ıà¦²à¦¡": 3459,
      "dia": 3460,
      "hoo": 3461,
      "istan": 3462,
      "istration": 3463,
      "à§ªà§¨à§¦à§¨": 3464,
      "Ġà¦ķà¦ĸà¦¨à¦ĵà¦ĩ": 3465,
      "000": 3466,
      "Ġex": 3467,
      "Ġeach": 3468,
      "Ġeff": 3469,
      "Ġà§¦à§§à§®à§§à§¯": 3470,
      "ency": 3471,
      "ational": 3472,
      "ive": 3473,
      "lines": 3474,
      "ollect": 3475,
      "ood": 3476,
      "uego": 3477,
      "ĠJust": 3478,
      "Ġgrou": 3479,
      "à¦Ĺà¦łà¦¨à¦Ł": 3480,
      "à§«à§¨à§®à§¨à§¦": 3481,
      "ersangbad": 3482,
      "ĠSee": 3483,
      "ĠSettings": 3484,
      "Ġyou": 3485,
      "à¦ĩà¦īà¦ª": 3486,
      "Ġà¦¯à¦¤Åĵ": 3487,
      "Ġ003": 3488,
      "Ġthrou": 3489,
      "ĠInternet": 3490,
      "Ġà¦Ĩà¦ļà¦°à¦£à¦¬": 3491,
      "444": 3492,
      "Ġdes": 3493,
      "Ġdon": 3494,
      "Ġdem": 3495,
      "Ġà¦¨à¦Ĺà¦°à¦¬": 3496,
      "à¦¼à¦¾à¦Ĥà¥¤": 3497,
      "Ġtitt": 3498,
      "Ġsong": 3499,
      "Ġà§§à§¯à§¯à§§": 3500,
      "Ġà§§à§¯à§Ńà§«": 3501,
      "Ġfreind": 3502,
      "fied": 3503,
      "ĠOctober": 3504,
      "Ġknow": 3505,
      "Ġmass": 3506,
      "âĢįà§į": 3507,
      "à§«à§¬à§¯": 3508,
      "à§«à§¬à§©à§Ńà§¯": 3509,
      "à§©à§¬à§®": 3510,
      "à§®à§«à§ª": 3511,
      "Ġteam": 3512,
      "Ġà§®à§ªà§©à§¨à§©à§¬à§®": 3513,
      "ĠPriv": 3514,
      "Ġinfo": 3515,
      "Ġinfoc": 3516,
      "Ġ01718": 3517,
      "2016": 3518,
      "4616": 3519,
      "Ġxxx": 3520,
      "Ġlaws": 3521,
      "Ġà§©à§¬à§©": 3522,
      "à¦ıà¦¸à¦ĩà¦ĵ": 3523,
      "Ġsecure": 3524,
      "ĠChrist": 3525,
      "289": 3526,
      "duct": 3527,
      "ocracy": 3528,
      "yahoo": 3529,
      "youtube": 3530,
      "ĠKuma": 3531,
      "ĠVi": 3532,
      "Ġother": 3533,
      "Ġenviron": 3534,
      "Ġits": 3535,
      "à§įâĢĮ,": 3536,
      "Ġà¦īà¦ĩà¦¥": 3537,
      "à§¨à§¦à§¦à§®": 3538,
      "Ġà¦ıà¦¸à¦ıà¦®à¦ª": 3539,
      "Ġà¦ıà¦¸à¦ıà¦®à¦ıà¦¸": 3540,
      "Ġcaptiv": 3541,
      "orial": 3542,
      "adesh": 3543,
      "Ġà§«à§®à§¯à§«à§¨à§®à§¨à§¦": 3544,
      "Ġà§«à§®à§¯à§«à§¬à§©à§Ńà§¯": 3545,
      "Ġà§®à§ªà§©à§¨à§©à§Ńà§¨": 3546,
      "Ġà§®à§ªà§©à§¨à§©à§Ńà§¬": 3547,
      "Ġà§¦à§§à§®à§ªà§§à§«à§¨à§§à§«à§¨à§¨": 3548,
      "Ġà§¦à§§à§®à§ªà§§à§«à§¨à§§à§«à§¨à§©": 3549,
      "Ġà§¦à§¯à§¬à§§à§¨à§¨à§¨à§ªà§ª": 3550,
      "Ġà§¦à§¯à§¬à§§à§¨à§§à§¨à§¦à§¦à§¦à§¦": 3551,
      "Ġà§®à§ªà§©à§¨à§¦à§ªà§®": 3552,
      "Ġà§®à§ªà§©à§¨à§¦à§ªà§Ń": 3553,
      "365": 3554,
      "OLOGY": 3555,
      "akistan": 3556,
      "creen": 3557,
      "kalerk": 3558,
      "lication": 3559,
      "oxsbaz": 3560,
      "twitter": 3561,
      "Ġlos": 3562,
      "Ġà¦Ĭà¦°": 3563,
      "à¦¯à¦Łà¦ķà¦¦": 3564,
      "Ġà¦¬à¦ļà¦¸": 3565,
      "Ġà¦ļà¦®à§İà¦ķ": 3566,
      "Ġà¦ľà¦¨à¦¸à¦®à¦ķ": 3567,
      "Ġà§¦à§©à§§à§¨à§«à§«": 3568,
      "ĠCerti": 3569,
      "ĠCheck": 3570,
      "Ġplay": 3571,
      "Ġpackages": 3572,
      "angladesh": 3573,
      "icient": 3574,
      "Ġâĺİâ": 3575,
      "ĠTraining": 3576,
      "Ġ0181983": 3577,
      "ĠRegistration": 3578,
      "hoppingdirect": 3579,
      "ĠProfess": 3580,
      "ribune": 3581,
      "portant": 3582,
      "Ġ01784222255": 3583,
      "10000": 3584,
      "313444": 3585,
      "ASSattar": 3586,
      "HNOLOGY": 3587,
      "IVE": 3588,
      "Tags": 3589,
      "lnk": 3590,
      "ohnson": 3591,
      "puter": 3592,
      "uidado": 3593,
      "Ġhealth": 3594,
      "à¦ķà¦Ĺà¦£à¦ķ": 3595,
      "à¦ľà¦ķà¦¤à¦¤": 3596,
      "Ġà¦¹à¦°à¦Ńà¦ľà¦¨": 3597,
      "Ġà¦°à¦īà¦«": 3598,
      "Ġà¦Ĺà¦«à¦°à¦Ĺ": 3599,
      "Ġà¦ªà¦°à¦ªà¦°à¦ĩ": 3600,
      "Ġà¦ĸà¦¸à¦ĸà¦¸": 3601,
      "Ġà¦ıà¦°à¦ĩà¦®à¦§": 3602,
      "Ġà§¦à§§à§¬à§Ńà§®": 3603,
      "Ġà§¦à§¨à§ªà§§à§©à§«à§«": 3604,
      "Ġà¦ıà¦¨à¦Ĩà¦ĩà¦¡": 3605,
      "antho": 3606,
      "Ġà§Ńà§¨à§ªà§®à§«à§ª": 3607,
      "online": 3608,
      "engali": 3609,
      "ĠSamuel": 3610,
      "ĠSurendra": 3611,
      "ĠSaturday": 3612,
      "ilidades": 3613,
      "bdtimes": 3614,
      "ĠContinue": 3615,
      "arNEWS": 3616,
      "Ġbalance": 3617,
      "Ġnivel": 3618,
      "Ġhabilidades": 3619,
      "stagram": 3620,
      "ĠDemocracy": 3621,
      "Ġà§¨à§«à§§à§©à§ªà§©à§«": 3622,
      "ĠBroken": 3623,
      "ĠTECHNOLOGY": 3624,
      "ĠRights": 3625,
      "Ġefficient": 3626,
      "ollected": 3627,
      "ĠJustice": 3628,
      "Ġthrough": 3629,
      "Ġfreindly": 3630,
      "Ġinfocn": 3631,
      "ĠKumar": 3632,
      "Ġenvironment": 3633,
      "Ġcaptivated": 3634,
      "Ġà§¦à§¯à§¬à§§à§¨à§¨à§¨à§ªà§ªà§¨à§¨": 3635,
      "kalerkantho": 3636,
      "oxsbazarNEWS": 3637,
      "Ġà§¦à§©à§§à§¨à§«à§«à§©à§¦à§ªà§¦": 3638,
      "Ġ01819834616": 3639,
      "Ġà§¦à§¨à§ªà§§à§©à§«à§«à§§à§Ńà§Ń": 3640,
      "%,": 3641,
      "''": 3642,
      "'m": 3643,
      "'s": 3644,
      "'à¥¤": 3645,
      "(!)": 3646,
      ")\"": 3647,
      ").": 3648,
      ");": 3649,
      "*)": 3650,
      ",âĢĺ": 3651,
      ",âĢĶ": 3652,
      "-âĢĺ": 3653,
      "/%": 3654,
      "04": 3655,
      "001": 3656,
      "20": 3657,
      "250": 3658,
      "283": 3659,
      "276": 3660,
      "290": 3661,
      "32": 3662,
      "37": 3663,
      "308": 3664,
      "344": 3665,
      "364": 3666,
      "306": 3667,
      "327": 3668,
      "41": 3669,
      "43": 3670,
      "47": 3671,
      "414": 3672,
      "408": 3673,
      "483": 3674,
      "435": 3675,
      "427": 3676,
      "429": 3677,
      "51": 3678,
      "57": 3679,
      "583": 3680,
      "560": 3681,
      "5201": 3682,
      "532": 3683,
      "66": 3684,
      "68": 3685,
      "622": 3686,
      "685": 3687,
      "72": 3688,
      "712": 3689,
      "713": 3690,
      "710": 3691,
      "744": 3692,
      "780": 3693,
      "743": 3694,
      "876": 3695,
      "869": 3696,
      "871": 3697,
      "99": 3698,
      ":âĢĺ": 3699,
      "=?": 3700,
      "AB": 3701,
      "AL": 3702,
      "Al": 3703,
      "Ar": 3704,
      "App": 3705,
      "All": 3706,
      "Auth": 3707,
      "BE": 3708,
      "BO": 3709,
      "BS": 3710,
      "Bus": 3711,
      "Bangladesh": 3712,
      "Bengali": 3713,
      "CP": 3714,
      "CR": 3715,
      "Ch": 3716,
      "Cl": 3717,
      "Co": 3718,
      "COR": 3719,
      "Categor": 3720,
      "Cleaner": 3721,
      "Collected": 3722,
      "CoxsbazarNEWS": 3723,
      "DG": 3724,
      "Di": 3725,
      "DOM": 3726,
      "DSS": 3727,
      "ET": 3728,
      "Em": 3729,
      "Eà¦Ł": 3730,
      "Edi": 3731,
      "ESI": 3732,
      "ESS": 3733,
      "EBO": 3734,
      "Fà¦¨": 3735,
      "FOR": 3736,
      "FIC": 3737,
      "Fren": 3738,
      "GM": 3739,
      "GX": 3740,
      "Hd": 3741,
      "How": 3742,
      "In": 3743,
      "Ich": 3744,
      "INE": 3745,
      "Image": 3746,
      "IBE": 3747,
      "IFIC": 3748,
      "Johnson": 3749,
      "KER": 3750,
      "LA": 3751,
      "LE": 3752,
      "LT": 3753,
      "Le": 3754,
      "Ll": 3755,
      "Like": 3756,
      "LINE": 3757,
      "ML": 3758,
      "MO": 3759,
      "MY": 3760,
      "Mu": 3761,
      "Man": 3762,
      "Mor": 3763,
      "Met": 3764,
      "Maz": 3765,
      "MATION": 3766,
      "MAR": 3767,
      "MDSS": 3768,
      "NG": 3769,
      "NP": 3770,
      "NSI": 3771,
      "NMu": 3772,
      "OK": 3773,
      "OU": 3774,
      "OKI": 3775,
      "PM": 3776,
      "PP": 3777,
      "PAN": 3778,
      "Qt": 3779,
      "Qif": 3780,
      "RC": 3781,
      "Ro": 3782,
      "Ronline": 3783,
      "ROU": 3784,
      "SB": 3785,
      "Se": 3786,
      "Si": 3787,
      "SMS": 3788,
      "SRo": 3789,
      "To": 3790,
      "The": 3791,
      "TOR": 3792,
      "TPH": 3793,
      "TIVE": 3794,
      "TNMu": 3795,
      "UV": 3796,
      "Urdu": 3797,
      "UBS": 3798,
      "Vis": 3799,
      "We": 3800,
      "Why": 3801,
      "Yem": 3802,
      "YST": 3803,
      "ZCP": 3804,
      "]\"": 3805,
      "].": 3806,
      "]à¥¤": 3807,
      "]]\"": 3808,
      "ax": 3809,
      "are": 3810,
      "ama": 3811,
      "ast": 3812,
      "aid": 3813,
      "aha": 3814,
      "air": 3815,
      "bm": 3816,
      "bs": 3817,
      "bon": 3818,
      "bar": 3819,
      "bing": 3820,
      "ble": 3821,
      "bas": 3822,
      "bol": 3823,
      "bori": 3824,
      "bos": 3825,
      "box": 3826,
      "bangl": 3827,
      "bian": 3828,
      "bama": 3829,
      "cm": 3830,
      "cu": 3831,
      "cin": 3832,
      "can": 3833,
      "ced": 3834,
      "cal": 3835,
      "cap": 3836,
      "cut": 3837,
      "cri": 3838,
      "crim": 3839,
      "card": 3840,
      "cTNMu": 3841,
      "dj": 3842,
      "dy": 3843,
      "dro": 3844,
      "das": 3845,
      "dren": 3846,
      "dctg": 3847,
      "eo": 3848,
      "ev": 3849,
      "ey": 3850,
      "eer": 3851,
      "eed": 3852,
      "ele": 3853,
      "elo": 3854,
      "eight": 3855,
      "each": 3856,
      "eQu": 3857,
      "fb": 3858,
      "fà¦ĩà¦¨": 3859,
      "fur": 3860,
      "ffer": 3861,
      "ful": 3862,
      "fuck": 3863,
      "formation": 3864,
      "ficate": 3865,
      "gan": 3866,
      "ged": 3867,
      "gar": 3868,
      "gra": 3869,
      "goo": 3870,
      "get": 3871,
      "grou": 3872,
      "gain": 3873,
      "gpo": 3874,
      "gust": 3875,
      "gues": 3876,
      "gency": 3877,
      "hon": 3878,
      "hat": 3879,
      "had": 3880,
      "hic": 3881,
      "hur": 3882,
      "hjo": 3883,
      "hists": 3884,
      "hork": 3885,
      "html": 3886,
      "iU": 3887,
      "iz": 3888,
      "iÃ": 3889,
      "ied": 3890,
      "ifi": 3891,
      "iport": 3892,
      "image": 3893,
      "ieQu": 3894,
      "jin": 3895,
      "jhal": 3896,
      "kar": 3897,
      "kla": 3898,
      "ket": 3899,
      "kash": 3900,
      "kjhal": 3901,
      "ld": 3902,
      "les": 3903,
      "ling": 3904,
      "lia": 3905,
      "lus": 3906,
      "lish": 3907,
      "lied": 3908,
      "my": 3909,
      "min": 3910,
      "mes": 3911,
      "ming": 3912,
      "mem": 3913,
      "mist": 3914,
      "mbian": 3915,
      "mdctg": 3916,
      "nes": 3917,
      "nse": 3918,
      "nel": 3919,
      "nia": 3920,
      "night": 3921,
      "nya": 3922,
      "nAl": 3923,
      "nifi": 3924,
      "oma": 3925,
      "ost": 3926,
      "ock": 3927,
      "otar": 3928,
      "oti": 3929,
      "otha": 3930,
      "ody": 3931,
      "okjhal": 3932,
      "pt": 3933,
      "py": 3934,
      "per": 3935,
      "pen": 3936,
      "plo": 3937,
      "pas": 3938,
      "pel": 3939,
      "pment": 3940,
      "pir": 3941,
      "pow": 3942,
      "part": 3943,
      "pions": 3944,
      "paid": 3945,
      "pdas": 3946,
      "pful": 3947,
      "qun": 3948,
      "rd": 3949,
      "ran": 3950,
      "rov": 3951,
      "rar": 3952,
      "ral": 3953,
      "rad": 3954,
      "ring": 3955,
      "rof": 3956,
      "run": 3957,
      "rent": 3958,
      "ris": 3959,
      "rid": 3960,
      "right": 3961,
      "rune": 3962,
      "rder": 3963,
      "rket": 3964,
      "sia": 3965,
      "sday": 3966,
      "sapp": 3967,
      "sense": 3968,
      "shoppingdirect": 3969,
      "tc": 3970,
      "td": 3971,
      "ton": 3972,
      "ted": 3973,
      "the": 3974,
      "tit": 3975,
      "tmail": 3976,
      "tps": 3977,
      "tate": 3978,
      "time": 3979,
      "tend": 3980,
      "tbol": 3981,
      "tgpo": 3982,
      "tokjhal": 3983,
      "ued": 3984,
      "use": 3985,
      "uide": 3986,
      "ugust": 3987,
      "vu": 3988,
      "ver": 3989,
      "vic": 3990,
      "velo": 3991,
      "vtps": 3992,
      "won": 3993,
      "wor": 3994,
      "wood": 3995,
      "xem": 3996,
      "yment": 3997,
      "yfuck": 3998,
      "ymbian": 3999,
      "zed": 4000,
      "zul": 4001,
      "¦à¦¾": 4002,
      "¨à§®à§¬": 4003,
      "¨à§®à§¨": 4004,
      "¬à§®": 4005,
      "®à§ª": 4006,
      "¯â": 4007,
      "³n": 4008,
      "¸ı": 4009,
      "ºà¦¿": 4010,
      "ºtbol": 4011,
      "½...": 4012,
      "¿½...": 4013,
      "Â·": 4014,
      "Âķ": 4015,
      "Â¦à¦¾": 4016,
      "ÃŃ": 4017,
      "Ãºtbol": 4018,
      "Å¸": 4019,
      "âĻ": 4020,
      "ïģ": 4021,
      "ï¸ı": 4022,
      "ï¿½...": 4023,
      "ðŁ": 4024,
      "Ġ4": 4025,
      "Ġ>": 4026,
      "Ġ`": 4027,
      "ĠâĢĻ": 4028,
      "Ġ..": 4029,
      "Ġov": 4030,
      "Ġdo": 4031,
      "Ġed": 4032,
      "Ġem": 4033,
      "Ġess": 4034,
      "Ġel": 4035,
      "Ġis": 4036,
      "Ġout": 4037,
      "Ġol": 4038,
      "Ġ60": 4039,
      "Ġres": 4040,
      "Ġque": 4041,
      "Ġrim": 4042,
      "Ġought": 4043,
      "ĠYem": 4044,
      "Ġimage": 4045,
      "Ġqun": 4046,
      "Ġrun": 4047,
      "Ġuse": 4048,
      "Ġïģ": 4049,
      "ĠðŁ": 4050,
      "ĥ,": 4051,
      "Ħĥ,": 4052,
      "ĳï¸ı": 4053,
      "Ĵ¬": 4054,
      "Ĵ»": 4055,
      "ĺĳï¸ı": 4056,
      "ľħ": 4057,
      "ŀ¤": 4058,
      "Ńà§«": 4059,
      "à¦¾=": 4060,
      "à¦¾à¦¿": 4061,
      "à¦¾à¦¾à¥¤": 4062,
      "à¦¾..": 4063,
      "à¦¾âĢ¦": 4064,
      "à¦¾âĢĺ": 4065,
      "à¦¾ï¿½...": 4066,
      "à¦°à¦¶à¦¨": 4067,
      "à¦°à¦ļà¦¨": 4068,
      "à¦°à¦ĩà¦²": 4069,
      "à¦°à¦¨à¦¤": 4070,
      "à¦°à¦«à¦¤": 4071,
      "à¦°à¦°à¦«": 4072,
      "à¦°à¦Ľà¦¡": 4073,
      "à¦°à¦īà¦¦": 4074,
      "à¦°à¦Ŀà¦°": 4075,
      "à¦°à¦Ŀà¦¡": 4076,
      "à§ĩ\"": 4077,
      "à§ĩ[": 4078,
      "à§ĩà§Ģ": 4079,
      "à§ĩà¦Ĥ": 4080,
      "à§ĩ..": 4081,
      "à§ĩâĢĮ": 4082,
      "à§ĩâĢĿ": 4083,
      "à§ĩ)à¥¤": 4084,
      "à§ĩ),": 4085,
      "à§ĩâĢ¦âĢ¦": 4086,
      "à§į-": 4087,
      "à§įâĢĻ": 4088,
      "à¦¿\"": 4089,
      "à¦¿_": 4090,
      "à¦¿à§ĩ": 4091,
      "à¦¿à§ģ": 4092,
      "à¦¿âĢĺ": 4093,
      "à¦¿âĢĵ": 4094,
      "à¦¿âĢ¦âĢ¦âĢ¦âĢ¦": 4095,
      "à¦¨à¦Ľ": 4096,
      "à¦¨à¦·": 4097,
      "à¦¨à¦«": 4098,
      "à¦¨à¦°à¦¤": 4099,
      "à¦¨à¦®à¦¤": 4100,
      "à¦¨à¦¬à¦²": 4101,
      "à¦¨à¦Ĺà¦¤": 4102,
      "à¦¨à¦®à¦ķ": 4103,
      "à¦¨à¦Ĺà¦£": 4104,
      "à¦¨à¦Ľà¦¡": 4105,
      "à¦¨à¦Ńà¦°": 4106,
      "à¦¨à¦¬à¦²à¦Ľ": 4107,
      "à¦¨à¦īà¦¤": 4108,
      "à¦¯à¦²": 4109,
      "à¦¯à¦¹": 4110,
      "à¦¯à¦ĸ": 4111,
      "à¦¯à¦¬à¦°": 4112,
      "à¦¯à¦ŀ": 4113,
      "à¦¯à¦ľà¦¨": 4114,
      "à¦¯à§İ": 4115,
      "à¦¯à¦¤à¦¬": 4116,
      "à¦¯à¦¹à¦¤": 4117,
      "à¦¯à¦¸à¦¹": 4118,
      "à¦¯à¦ľà¦¨à¦ķ": 4119,
      "à¦¯à¦°à¦ķà¦®": 4120,
      "à¦¤à¦¯": 4121,
      "à¦¤à¦¸": 4122,
      "à¦¤à¦¶": 4123,
      "à¦¤à¦Ĺ": 4124,
      "à¦¤à¦Ľ": 4125,
      "à¦¤à¦¡": 4126,
      "à¦¤à¦£": 4127,
      "à¦¤à¦¬à¦°": 4128,
      "à¦¤à¦ľà¦¨": 4129,
      "à¦¤à¦ªà¦°": 4130,
      "à¦¤à¦ķà¦°": 4131,
      "à¦¤à¦¬à¦¸": 4132,
      "à¦¤à¦ķà¦²": 4133,
      "à¦¤à¦Ĺà¦ŀ": 4134,
      "à¦¤à¦¤à¦ķ": 4135,
      "à¦¤à¦¸à¦ķ": 4136,
      "à¦¤à¦«à¦¸": 4137,
      "à¦¤à¦ļà¦°": 4138,
      "à¦¤à¦ķà¦°à¦¨": 4139,
      "à¦ķà¦ĸ": 4140,
      "à¦ķà¦£": 4141,
      "à¦ķà¦¬à¦°": 4142,
      "à¦ķà¦¤à¦°": 4143,
      "à¦ķà¦²à¦ķ": 4144,
      "à¦ķà¦®à¦¤": 4145,
      "à¦ķà¦ªà¦ķ": 4146,
      "à¦ķà¦¤à¦®": 4147,
      "à¦ķà¦¸à¦¬": 4148,
      "à¦ķà¦¸à¦¹": 4149,
      "à¦ķà¦¨à¦¸": 4150,
      "à¦ķà¦ĺà¦°": 4151,
      "à¦ķà¦¸à¦Ń": 4152,
      "à¦²à¦¹": 4153,
      "à¦²à¦ļ": 4154,
      "à¦²à¦°à¦ķ": 4155,
      "à¦²à¦ķà¦°": 4156,
      "à¦²à¦¬à¦¨": 4157,
      "à¦²à¦ĺ": 4158,
      "à¦²à¦°à¦¦": 4159,
      "à¦²à¦¸à¦ķ": 4160,
      "à¦²à¦¸à¦¹à¦ķ": 4161,
      "à¦²Tags": 4162,
      "à¦¼(": 4163,
      "à¦¼.": 4164,
      "à¦¼âĢĻ": 4165,
      "à¦¼à¦ĥ": 4166,
      "à¦¼à§ĭâĢĻ": 4167,
      "à¦¼)à¥¤": 4168,
      "à¦¼âĢĻà¥¤": 4169,
      "à¦¬à¦ĵ": 4170,
      "à¦¬à¦°à¦¤": 4171,
      "à¦¬à¦ķà¦°": 4172,
      "à¦¬à¦ĩà¦Ł": 4173,
      "à¦¬à¦ıà¦¨": 4174,
      "à¦¬à¦¤à¦ķ": 4175,
      "à¦®à¦®": 4176,
      "à¦®à¦ĸ": 4177,
      "à¦®à¦¬à¦°": 4178,
      "à¦®à¦ĵà¦¯": 4179,
      "à¦®à¦ŀ": 4180,
      "à¦®à¦ªà¦°": 4181,
      "à¦®à¦¤à¦°": 4182,
      "à¦®à¦ªà¦¤": 4183,
      "à¦®à¦¬à¦¨": 4184,
      "à¦®à¦ļà¦¨": 4185,
      "à¦®à¦ĩà¦¨": 4186,
      "à¦®à¦¥à¦®": 4187,
      "à¦®à¦¸à¦¹": 4188,
      "à¦®à§İà¦¸": 4189,
      "à¦®à¦¥à¦ķà¦°": 4190,
      "à§ģ.": 4191,
      "à§ģ:": 4192,
      "à§ģ...": 4193,
      "à§ģâĢĺ": 4194,
      "Ġà¦ķà¦¸": 4195,
      "Ġà¦ķà¦Ľ": 4196,
      "Ġà¦ķà¦«": 4197,
      "Ġà¦ķà¦Ļ": 4198,
      "Ġà¦ķà¦¸à¦¬": 4199,
      "Ġà¦ķà¦ķà¦Ł": 4200,
      "Ġà¦ķà¦¨à¦ķ": 4201,
      "Ġà¦ķà¦¸à¦ķ": 4202,
      "à¦¸à¦Ľ": 4203,
      "à¦¸à¦°à¦¤": 4204,
      "à¦¸à¦ĵà¦¯": 4205,
      "à¦¸à¦ŀ": 4206,
      "à¦¸à¦ľà¦¨": 4207,
      "à¦¸à¦¤à¦°": 4208,
      "à¦¸à¦¬à¦¸": 4209,
      "à¦¸à¦¬à¦¹": 4210,
      "à¦¸à¦ķà¦²": 4211,
      "à¦¸à¦°à¦¯": 4212,
      "à¦¸à¦¸à¦¹": 4213,
      "à¦¸à¦¨à¦ķ": 4214,
      "à¦¸à¦ĵà¦ľ": 4215,
      "Ġà¦¸à¦¯": 4216,
      "Ġà¦¸à¦ĸ": 4217,
      "Ġà¦¸à¦°à¦£": 4218,
      "Ġà¦¸à¦ªà¦°": 4219,
      "Ġà¦¸à¦°à¦¬": 4220,
      "Ġà¦¸à¦°à¦¸": 4221,
      "Ġà¦¸à¦¹à¦®": 4222,
      "Ġà¦¸à¦¦à¦ķ": 4223,
      "Ġà¦¸à¦¤à¦¨": 4224,
      "Ġà¦¸à¦²à¦¤": 4225,
      "Ġà¦¸à¦ļà¦²": 4226,
      "Ġà¦¸à¦ľà¦²": 4227,
      "Ġà¦¸à¦ĩà¦¤": 4228,
      "Ġà¦¸à¦¶à¦¬": 4229,
      "Ġà¦¸à¦Ĺà¦¦": 4230,
      "Ġà¦¸à¦¶à¦¸": 4231,
      "Ġà¦¸à¦ĵà¦¦": 4232,
      "Ġà¦¬à¦ĸ": 4233,
      "Ġà¦¬à¦£": 4234,
      "Ġà¦¬à¦ķà¦°": 4235,
      "Ġà¦¬à¦¸à¦²": 4236,
      "Ġà¦¬à¦ľà¦°": 4237,
      "Ġà¦¬à¦ĩà¦¤": 4238,
      "Ġà¦¬à¦ķà¦²à¦®": 4239,
      "à¦¦à¦¡": 4240,
      "à¦¦à¦ĸ": 4241,
      "à¦¦à¦ĵ": 4242,
      "à¦¦à¦°à¦¤": 4243,
      "à¦¦à¦¬à¦°": 4244,
      "à¦¦à¦ĵà¦¯": 4245,
      "à¦¦à¦ķà¦°": 4246,
      "à¦¦à¦¶à¦¨": 4247,
      "à¦¦à¦°à¦¸": 4248,
      "à¦¦à¦®à¦¤": 4249,
      "à¦¦à¦Ĺà¦ŀ": 4250,
      "à¦¦à¦¹à¦¨": 4251,
      "à§ĭâĢĮ": 4252,
      "à§ĭâĢĿ": 4253,
      "à§ĭ)à¥¤": 4254,
      "à§ĭÂ»": 4255,
      "Ġà¦ªà¦ļ": 4256,
      "Ġà¦ªà¦¬à¦¨": 4257,
      "Ġà¦ªà¦Ĺà¦¬": 4258,
      "à¦Łà¦¯": 4259,
      "à¦Łà¦ĩ": 4260,
      "à¦Łà¦¡": 4261,
      "à¦Łà¦ľà¦¨": 4262,
      "à¦Łà¦ĺ": 4263,
      "à¦Łà¦°à¦¬": 4264,
      "à¦Łà¦°à¦¦": 4265,
      "à¦Łà¦¸à¦¬": 4266,
      "à¦Łà¦¬à¦¦": 4267,
      "à¦Łà¦Ľà¦¡": 4268,
      "à¦Łà¦²à¦Ĺ": 4269,
      "à¦Łà¦¤à¦ĩ": 4270,
      "à¦ªà¦ľ": 4271,
      "à¦ªà¦ĩ": 4272,
      "à¦ªà¦Ĺ": 4273,
      "à¦ªà¦Ľ": 4274,
      "à¦ªà¦¹": 4275,
      "à¦ªà¦ĵ": 4276,
      "à¦ªà¦Ļ": 4277,
      "à¦ªà¦®à¦¨": 4278,
      "à¦ªà¦¦à¦ķ": 4279,
      "à¦ªà¦Łà¦¨": 4280,
      "à¦ªà¦Ľà¦¨": 4281,
      "à¦ªà¦īà¦¦": 4282,
      "à¥¤)": 4283,
      "à¥¤-": 4284,
      "à¥¤âĢĺ": 4285,
      "à¥¤''": 4286,
      "à§Ģ!": 4287,
      "à§Ģ\"": 4288,
      "à§Ģ.": 4289,
      "à§Ģà¦ĥ": 4290,
      "à§ĢâĢĿ": 4291,
      "à§ĢâĢĻà¥¤": 4292,
      "à§ĢâĢĿà¥¤": 4293,
      "à§Ģ----": 4294,
      "Ġà¦Ĩà¦°à¦¤": 4295,
      "Ġà¦Ĩà¦ī": 4296,
      "Ġà¦Ĩà¦ĩà¦²": 4297,
      "Ġà¦Ĩà¦¦à¦¨": 4298,
      "Ġà¦Ĩà¦īà¦¨": 4299,
      "Ġà¦Ĩà¦īà¦¡": 4300,
      "Ġà¦Ĩà¦Łà¦²": 4301,
      "Ġà¦®à¦®": 4302,
      "Ġà¦®à¦ļ": 4303,
      "Ġà¦®à¦°à¦£": 4304,
      "Ġà¦®à¦ľà¦¨": 4305,
      "Ġà¦®à¦°à¦¸": 4306,
      "Ġà¦®à¦°à¦¦": 4307,
      "Ġà¦®à¦¸à¦²": 4308,
      "Ġà¦®à¦ĸà¦²": 4309,
      "Ġà¦®à¦Ĺà¦ľ": 4310,
      "Ġà¦®à¦Ĺà¦¡": 4311,
      "Ġà¦®à¦Ĺà¦¬": 4312,
      "Ġà¦®à¦«à¦¸": 4313,
      "Ġà¦®à¦ķà¦¸": 4314,
      "Ġà¦®à¦²à¦¦": 4315,
      "Ġà¦®à¦¦à¦¦": 4316,
      "Ġà¦®à¦ĵà¦ķ": 4317,
      "Ġà¦®à¦ĵà¦¦": 4318,
      "Ġà¦ıà¦¹": 4319,
      "Ġà¦ıà¦ĵ": 4320,
      "Ġà¦ıà¦°à¦®": 4321,
      "Ġà¦ıà¦¤à¦¬": 4322,
      "Ġà¦ıà¦ıà¦«": 4323,
      "Ġà¦ıà¦ľà¦²": 4324,
      "à¦ľà¦ľ": 4325,
      "à¦ľà¦ĸ": 4326,
      "à¦ľà¦£": 4327,
      "à¦ľà¦ĵ": 4328,
      "à¦ľà¦°à¦¤": 4329,
      "à¦ľà¦ĵà¦¯": 4330,
      "à¦ľà¦ķà¦°": 4331,
      "à¦ľà¦®à¦¯": 4332,
      "à¦ľà¦ķà¦¦": 4333,
      "à¦ľà¦Ĺà¦£": 4334,
      "à¦ľà¦ĺà¦°": 4335,
      "à¦ľà¦ķà¦ķ": 4336,
      "à¦¶à¦¦": 4337,
      "à¦¶à¦ļ": 4338,
      "à¦¶à¦£": 4339,
      "à¦¶à¦ĵ": 4340,
      "à¦¶à¦®à¦¨": 4341,
      "à¦¶à¦ķà¦°": 4342,
      "à¦¶à¦Ŀ": 4343,
      "à¦¶à¦°à¦¹": 4344,
      "à¦¶à¦ķà¦Ł": 4345,
      "à¦¶à¦¸à¦¹": 4346,
      "à¦¶à¦¹à¦°": 4347,
      "Ġà¦¨à¦¸": 4348,
      "Ġà¦¨à¦ļ": 4349,
      "Ġà¦¨à¦ĸ": 4350,
      "Ġà¦¨à¦¬à¦¨": 4351,
      "à¦ĩà¦Ļ": 4352,
      "à¦ĩà¦ªà¦°": 4353,
      "à¦ĩà¦ķà¦°": 4354,
      "à¦ĩà¦īà¦¨": 4355,
      "à¦ĩà¦°à¦¯": 4356,
      "à¦ĩà¦¸à¦¬": 4357,
      "à¦ĩà¦®à¦°": 4358,
      "à¦ĩà¦«à¦¤": 4359,
      "à¦ĩà¦ıà¦ķ": 4360,
      "à¦ĩà¦ıà¦«": 4361,
      "à¦ĩà¦¶à¦¤": 4362,
      "à¦Ĺà¦¯": 4363,
      "à¦Ĺà¦§": 4364,
      "à¦Ĺà¦Ń": 4365,
      "à¦Ĺà¦ĵ": 4366,
      "à¦Ĺà¦«": 4367,
      "à¦Ĺà¦°à¦®": 4368,
      "à¦Ĺà¦ĩà¦¨": 4369,
      "à¦Ĺà§İ": 4370,
      "à¦Ĺà¦¸à¦¹": 4371,
      "à¦Ĺà¦ľà¦¨à¦ķ": 4372,
      "Ġà¦¦à¦°à¦¬": 4373,
      "Ġà¦¦à¦°à¦¸": 4374,
      "Ġà¦¦à¦°à¦Ĺ": 4375,
      "Ġà¦¹à¦®": 4376,
      "Ġà¦¹à¦ĩ": 4377,
      "Ġà¦¹à¦²à¦¨": 4378,
      "Ġà¦¹à¦°à¦¸": 4379,
      "Ġà¦¹à¦°à¦¹": 4380,
      "Ġà¦¹à¦ķà¦¦": 4381,
      "Ġà¦¹à¦¨à¦¨": 4382,
      "Ġà¦¹à¦ľà¦¯": 4383,
      "à¦Ľà¦¯": 4384,
      "à¦Ľà¦®": 4385,
      "à¦Ľà¦ª": 4386,
      "à¦Ľà¦Ĺ": 4387,
      "à¦Ľà¦ĵ": 4388,
      "à¦Ľà¦²à¦¤": 4389,
      "à¦¼à§ĩ;": 4390,
      "à¦¼à§ĩ...": 4391,
      "à¦¼à§ĩâĢĶ": 4392,
      "à¦¹à¦¹": 4393,
      "à¦¹à¦ļ": 4394,
      "à¦¹à¦ĸ": 4395,
      "à¦¹à¦°à¦¤": 4396,
      "à¦¹à¦¬à¦¹": 4397,
      "à¦¹à¦°à¦¯": 4398,
      "à¦¹à¦°à¦¹": 4399,
      "à¦¹à¦°à¦ª": 4400,
      "à¦¹à¦ķà¦¦": 4401,
      "à¦¹à¦²à¦Ń": 4402,
      "à¦¹à¦īà¦¦": 4403,
      "à¦¹à¦Ĺà¦²": 4404,
      "à¦¹à¦ķà¦ķ": 4405,
      "à¦¡à¦¯": 4406,
      "à¦¡à¦Ł": 4407,
      "à¦¡à¦¶": 4408,
      "à¦¡à¦ļ": 4409,
      "à¦¡à¦¬à¦²": 4410,
      "à¦¡à¦Ĺà¦¤": 4411,
      "à¦¡à¦°à¦Ł": 4412,
      "Ġà¦ķà¦°à¦¦": 4413,
      "à¦·à¦¬": 4414,
      "à¦·à¦¡": 4415,
      "à¦·à¦°à¦£": 4416,
      "à¦·à¦ľà¦¨": 4417,
      "à¦·à¦ªà¦°": 4418,
      "à¦·à¦¹à¦¤": 4419,
      "à¦·à¦ľà¦ķ": 4420,
      "à¦¼à¦¾!": 4421,
      "à¦¼à¦¾\"": 4422,
      "à¦¼à¦¾:": 4423,
      "à¦¼à¦¾;": 4424,
      "à¦¼à¦¾...": 4425,
      "à¦¼à¦¾âĢĮ": 4426,
      "à¦¼à¦¾Â»": 4427,
      "Ġà¦ľà¦ľ": 4428,
      "Ġà¦ľà¦¶": 4429,
      "Ġà¦ľà¦ĵà¦¯": 4430,
      "Ġà¦ľà¦²à¦ķ": 4431,
      "Ġà¦ľà¦²à¦¨": 4432,
      "Ġà¦ľà¦²à¦¬": 4433,
      "Ġà¦ľà¦ľà¦ķ": 4434,
      "Ġà¦ľà¦ĺà¦¨": 4435,
      "Ġà¦ľà¦Ĺà§İ": 4436,
      "à¦§à¦Ł": 4437,
      "à¦§à¦ª": 4438,
      "à¦§à¦ľ": 4439,
      "à¦§à¦¶": 4440,
      "à¦§à¦ĩ": 4441,
      "à¦§à¦Ĺ": 4442,
      "à¦§à¦ĵ": 4443,
      "à¦§à¦¬à¦¨": 4444,
      "à¦§à¦¤à¦¨": 4445,
      "à¦§à¦¸à¦®": 4446,
      "à¦§à¦¶à¦ķ": 4447,
      "à¦§à¦¨à¦ķ": 4448,
      "Ġà¦¤à¦®": 4449,
      "Ġà¦¤à¦ª": 4450,
      "Ġà¦¤à¦ªà¦¨": 4451,
      "Ġà¦¤à¦¸à¦²": 4452,
      "Ġà¦¤à¦²à¦¬": 4453,
      "Ġà¦¤à¦ķà¦®": 4454,
      "Ġà¦¤à¦Ľà¦¨": 4455,
      "Ġà¦¤à¦¤à¦¦": 4456,
      "Ġà¦¤à¦¹à¦¬": 4457,
      "Ġà¦¤à¦¹à¦¶": 4458,
      "Ġà¦ħà¦ĩ": 4459,
      "Ġà¦ħà¦ļ": 4460,
      "Ġà¦ħà¦¶à¦¨": 4461,
      "Ġà¦ħà¦¬à¦¨": 4462,
      "Ġà¦ħà¦°à¦¬": 4463,
      "Ġà¦ħà¦¬à¦²": 4464,
      "Ġà¦ħà¦ļà¦²": 4465,
      "Ġà¦ħà¦¹à¦°à¦¹": 4466,
      "à¦ļà¦ª": 4467,
      "à¦ļà¦Ń": 4468,
      "à¦ļà¦ŀ": 4469,
      "à¦ļà¦°à¦£": 4470,
      "à¦ļà¦ľà¦¨": 4471,
      "à¦ļà¦ªà¦°": 4472,
      "à¦ļà¦²à¦¤": 4473,
      "à¦ļà¦¤à¦®": 4474,
      "à¦ļà¦Ĺà¦¤": 4475,
      "à¦ļà¦®à¦¬": 4476,
      "à¦ļà¦ªà¦¦": 4477,
      "à¦ļà¦¬à¦Ł": 4478,
      "à¦Ńà¦²": 4479,
      "à¦Ńà¦¸": 4480,
      "à¦Ńà¦¦": 4481,
      "à¦Ńà¦Ł": 4482,
      "à¦Ńà¦ª": 4483,
      "à¦Ńà¦¡": 4484,
      "à¦Ńà¦§": 4485,
      "à¦Ńà¦ĵ": 4486,
      "à¦Ńà¦²à¦ķ": 4487,
      "à¦Ńà§İà¦¸": 4488,
      "à¦Ĥ)": 4489,
      "à¦Ĥ;": 4490,
      "à¦ĤâĢ¦": 4491,
      "Ġà¦°à¦¤": 4492,
      "Ġà¦°à¦ľ": 4493,
      "Ġà¦°à¦ļ": 4494,
      "Ġà¦°à¦ĵ": 4495,
      "Ġà¦°à¦ŀ": 4496,
      "Ġà¦°à¦ľà¦¨": 4497,
      "Ġà¦°à¦¨à¦¬": 4498,
      "Ġà¦°à¦ĩà¦ľ": 4499,
      "à¦ĸà¦Ł": 4500,
      "à¦ĸà¦²à¦ķ": 4501,
      "à¦ĸà¦ĺ": 4502,
      "à¦ĸà¦°à¦¨à¦Ĺà¦°": 4503,
      "à¦¥à¦¶": 4504,
      "à¦¥à¦ĵ": 4505,
      "à¦¥à¦ªà¦°": 4506,
      "à¦¥à¦ªà¦¤": 4507,
      "à¦¥à¦ªà¦¥": 4508,
      "Ġà¦¯à¦¯": 4509,
      "Ġà¦¯à¦¬": 4510,
      "Ġà¦¯à¦·": 4511,
      "Ġà¦¯à¦¤à¦¬": 4512,
      "Ġà¦¯à¦¤à¦ķ": 4513,
      "Ġà¦¯à¦Ī": 4514,
      "Ġà¦¯fà¦ĩà¦¨": 4515,
      "Ġà¦¯à¦¹à¦°à¦¤": 4516,
      "à¦£à¦¸": 4517,
      "à¦£à¦¦": 4518,
      "à¦£à¦Ĺ": 4519,
      "à¦£à¦ĵ": 4520,
      "à¦£à¦«": 4521,
      "à¦£à¦ł": 4522,
      "à¦£à¦ĺ": 4523,
      "à¦£à¦®à¦¤": 4524,
      "à¦£à¦¸à¦¹": 4525,
      "à¦ĵà¦¹": 4526,
      "à¦ĵà¦Ń": 4527,
      "à¦ĵà¦«": 4528,
      "à¦ĵà¦°à¦ķ": 4529,
      "à¦ĵà¦¸à¦®": 4530,
      "à¦ĵà¦®à¦°": 4531,
      "à¦ĵà¦¨à¦ķ": 4532,
      "à¦ĵà¦²à¦®": 4533,
      "à¦ĵà¦ªà¦¸": 4534,
      "à¦ĵà¦°à¦°": 4535,
      "Ġà¦¶à¦Ł": 4536,
      "Ġà¦¶à¦°à¦®": 4537,
      "Ġà¦¶à¦®à¦°": 4538,
      "Ġà¦¶à¦¤à¦ķ": 4539,
      "Ġà¦¶à¦ĵà¦ķ": 4540,
      "Ġà¦Ĺà¦®": 4541,
      "Ġà¦Ĺà¦ľà¦¨": 4542,
      "Ġà¦Ĺà¦®à¦¨": 4543,
      "Ġà¦Ĺà§İ": 4544,
      "Ġà¦Ĺà¦¤à¦¬": 4545,
      "Ġà¦Ĺà¦®à¦°": 4546,
      "Ġà¦Ĺà¦Ĺà¦¨": 4547,
      "Ġà¦ļà¦ŀ": 4548,
      "Ġà¦ļà¦Łà¦ķ": 4549,
      "Ġà¦ļà¦ķà¦¬": 4550,
      "Ġà¦ļà¦ĵà¦¡": 4551,
      "à§ĩà¥¤\"": 4552,
      "à§ĩà¥¤...": 4553,
      "à§ĩà¥¤âĢľ": 4554,
      "Ġà¦ĵà¦Ł": 4555,
      "Ġà¦ĵà¦¡": 4556,
      "Ġà¦ĵà¦²à¦®": 4557,
      "âĢºà¦¿": 4558,
      "à§¦à§¯": 4559,
      "à§¦à§Ń": 4560,
      "à§¦à§¬": 4561,
      "à§¦à§§à§¯": 4562,
      "à§¦à§§à§©": 4563,
      "à§¦à§ªà§©à§¨": 4564,
      "à§¦à§§à§«à§«": 4565,
      "Ġà¦īà¦¸": 4566,
      "Ġà¦īà¦¶": 4567,
      "Ġà¦īà¦ĸ": 4568,
      "Ġà¦īà¦²à¦ķ": 4569,
      "Ġà¦īà¦Ĺà¦°": 4570,
      "Ġà¦īà¦®à¦¤": 4571,
      "Ġà¦īà¦¸à¦ķ": 4572,
      "Ġà¦īà¦ĩà¦ľ": 4573,
      "Ġà¦īà¦ĩà¦®": 4574,
      "Ġà¦īà¦ĩà¦¦": 4575,
      "Ġà¦īà¦Īà¦¦": 4576,
      "Ġà¦Ńà¦²": 4577,
      "Ġà¦Ńà¦¸": 4578,
      "Ġà¦Ńà¦¦": 4579,
      "Ġà¦Ńà¦Ļ": 4580,
      "Ġà¦Ńà¦°à¦£": 4581,
      "Ġà¦Ńà¦ľà¦¨": 4582,
      "Ġà¦Ńà¦Ĺà¦¤": 4583,
      "Ġà¦Ńà¦Ĺà¦¬": 4584,
      "Ġà¦ªà¦°à¦ķ": 4585,
      "Ġà¦ªà¦°à¦ª": 4586,
      "Ġà¦ªà¦°à¦¬à¦¤": 4587,
      "Ġà¦ıà¦ķà¦¯": 4588,
      "Ġà¦ıà¦ķà¦ª": 4589,
      "Ġà¦ıà¦ķà¦Ĺ": 4590,
      "Ġà¦ıà¦ķà¦¤à¦°": 4591,
      "Ġà¦ıà¦ķà¦ªà¦ķ": 4592,
      "Ġà¦ıà¦ķà¦ĩà¦¸": 4593,
      "Ġà¦ıà¦ķà¦¸à¦ª": 4594,
      "Ġà¦ıà¦ķà¦¦à¦²": 4595,
      "Ġà¦ıà¦ķà¦°à¦ķà¦®": 4596,
      "Ġà¦ıà¦ķà¦¬à¦Ľà¦°": 4597,
      "Ġà¦ıà¦ķà¦¸à¦®à¦¯": 4598,
      "Ġà¦ıà¦ķà¦ķà¦¥": 4599,
      "à¦«à¦ķ": 4600,
      "à¦«à¦Ĺ": 4601,
      "à¦«à¦°à¦®": 4602,
      "à¦«à¦²à¦¨": 4603,
      "Ġà¦«à¦¨": 4604,
      "Ġà¦«à¦ķ": 4605,
      "Ġà¦«à¦ľ": 4606,
      "Ġà¦«à¦ķà¦°": 4607,
      "Ġà¦«à¦Łà¦ķ": 4608,
      "Ġà¦«à¦²à¦¬": 4609,
      "Ġà¦«à¦¸à¦ķ": 4610,
      "Ġà¦¸à¦®à¦¤": 4611,
      "Ġà¦¸à¦®à¦Ĺ": 4612,
      "Ġà¦¸à¦®à¦·": 4613,
      "Ġà¦¸à¦®à¦Ń": 4614,
      "Ġà¦ĩà¦¬": 4615,
      "Ġà¦ĩà¦Ĺ": 4616,
      "Ġà¦ĩà¦¡": 4617,
      "Ġà¦ĩà¦ķà¦°": 4618,
      "Ġà¦ĩà¦®à¦¤": 4619,
      "Ġà¦ĩà¦§à¦°": 4620,
      "Ġà¦ĩà¦¶à¦°": 4621,
      "Ġà¦ĩà¦ĩà¦ī": 4622,
      "Ġà¦²à¦°": 4623,
      "Ġà¦²à¦¯": 4624,
      "Ġà¦²à¦²": 4625,
      "Ġà¦²à¦¸": 4626,
      "Ġà¦²à¦ŀ": 4627,
      "Ġà¦²à¦ĩà¦¬": 4628,
      "Ġà¦²à¦ĩà¦¤": 4629,
      "Ġà¦²à¦Ĺà¦ĩà¦¨": 4630,
      "Ġà¦¥à¦®à¦ķ": 4631,
      "Ġà¦¥à¦®à¦¥à¦®": 4632,
      "Ġà¦ĸà¦°": 4633,
      "Ġà¦ĸà¦¸": 4634,
      "Ġà¦ĸà¦£": 4635,
      "Ġà¦ĸà¦°à¦®": 4636,
      "Ġà¦ĸà¦¨à¦¨": 4637,
      "Ġà¦ĸà¦¸à¦¡": 4638,
      "à§Ĥà¦ģ": 4639,
      "à¦°à¦¤à¦°": 4640,
      "Ġà¦Ľà¦¨": 4641,
      "Ġà¦Ľà¦¤": 4642,
      "Ġà¦Ľà¦²": 4643,
      "Ġà¦Ľà¦¦": 4644,
      "à¦Ļà¦¬": 4645,
      "à¦ıà¦¶": 4646,
      "à¦ıà¦ı": 4647,
      "à¦ıà¦Ĩ": 4648,
      "à¦ıà¦ľà¦¨": 4649,
      "à¦ıà¦°à¦¶": 4650,
      "à¦ıà¦ĩà¦¸": 4651,
      "à¦ıà¦ķà¦¤": 4652,
      "à¦ıà¦ķà¦ľà¦¨": 4653,
      "à¦ıà¦«à¦°": 4654,
      "à¦ıà¦°à¦ķà¦®": 4655,
      "à¦ıà¦¸à¦®à¦¯": 4656,
      "à¦ıà¦Ĩà¦°à¦ı": 4657,
      "Ġà¦ħà¦¨à¦®": 4658,
      "Ġà¦ħà¦¨à¦Ł": 4659,
      "Ġà¦ħà¦¨à¦¡": 4660,
      "Ġà¦ħà¦¨à¦®à¦¨": 4661,
      "Ġà¦ħà¦¨à¦¬à¦°à¦¤": 4662,
      "Ġà¦Ĩà¦®à¦¡": 4663,
      "Ġà¦Ĩà¦®à¦¤à¦²": 4664,
      "à¦īà¦¬": 4665,
      "à¦īà¦ªà¦¨": 4666,
      "à¦īà¦¤à¦°": 4667,
      "à¦īà¦¬à¦¸": 4668,
      "à¦īà¦²à¦ķ": 4669,
      "à¦īà¦¦à¦ķ": 4670,
      "à¦īà¦ªà¦ķ": 4671,
      "à¦īà¦ħ": 4672,
      "à¦īà¦ĩà¦°": 4673,
      "à¦īà¦§à¦°": 4674,
      "à¦īà¦ªà¦¶": 4675,
      "à¦īà¦ĩà¦¦": 4676,
      "à¦īLe": 4677,
      "Ġà¦ľà¦¨à¦ľ": 4678,
      "Ġà¦ľà¦¨à¦ĵ": 4679,
      "Ġà¦ľà¦¨à¦®à¦¤": 4680,
      "Ġà¦ľà¦¨à¦ķà¦²": 4681,
      "Ġà¦ľà¦¨à¦¬à¦²": 4682,
      "Ġà¦ľà¦¨à¦¸à¦¨": 4683,
      "Ġà¦ľà¦¨à¦ķà¦¨": 4684,
      "Ġà¦ľà¦¨à¦¸à¦ļ": 4685,
      "à¦°à¦ķà¦¤": 4686,
      "à¦°à¦ķà¦ķ": 4687,
      "à¦°à¦ķà¦¦": 4688,
      "à¦¬à¦°à¦ª": 4689,
      "à¦¬à¦°à¦Ĺ": 4690,
      "à¦łà¦°": 4691,
      "à¦łà¦¯": 4692,
      "à¦łà¦¸": 4693,
      "à¦łà¦¤à¦®": 4694,
      "Ġà¦Łà¦¯": 4695,
      "Ġà¦Łà¦ķ": 4696,
      "Ġà¦Łà¦¬": 4697,
      "âĢĻâĢĶ": 4698,
      "à¦Ĩà¦¤": 4699,
      "à¦Ĩà¦¸": 4700,
      "à¦Ĩà¦¶": 4701,
      "à¦Ĩà¦ļ": 4702,
      "à¦Ĩà¦ŀ": 4703,
      "à¦Ĩà¦®à¦²": 4704,
      "à¦Ĩà¦²à¦¤": 4705,
      "à¦Ĩà¦Łà¦ķ": 4706,
      "à¦Ĩà¦®à¦¦": 4707,
      "à¦Ĩà¦ķà¦¤": 4708,
      "à¦Ĩà¦°à¦ĩ": 4709,
      "à¦Ĩà¦°à¦ĵ": 4710,
      "à¦Ĩà¦ĩà¦°": 4711,
      "à¦Ĩà¦ľà¦²": 4712,
      "à¦Ĩà¦¦à¦®": 4713,
      "à¦Ĩà¦ķà¦Ľ": 4714,
      "à¦Ĩà¦¹à¦¤à¦°": 4715,
      "à¦Ĩà¦«à¦Ĺ": 4716,
      "Ġà§¨à§¨à§¦": 4717,
      "Ġà§¨à§©à§«": 4718,
      "Ġà§¨à§®à§Ń": 4719,
      "Ġà§¨à§¯à§®": 4720,
      "Ġà§¨000": 4721,
      "Ġà¦¡à¦°": 4722,
      "Ġà¦¡à¦¨": 4723,
      "Ġà¦¡à¦¯": 4724,
      "Ġà¦¡à¦®": 4725,
      "Ġà¦¡à¦Ĺ": 4726,
      "à¦°à¦£à¦°": 4727,
      "à¦°à¦£à¦¯": 4728,
      "à¦°à¦£à¦¬": 4729,
      "à¦°à¦£à¦¦": 4730,
      "à¦°à¦£à¦ªà¦¤": 4731,
      "à¦°à¦£à¦¬à¦¶": 4732,
      "Ġà¦Ĩà¦°à¦¨": 4733,
      "Ġà¦Ĩà¦°à¦Ł": 4734,
      "Ġà¦Ĩà¦°à¦¶": 4735,
      "à¦¾à¦ģ-": 4736,
      "à¦¾à¦ģâĢĿ": 4737,
      "à¦ªà¦¨à¦°": 4738,
      "à¦ªà¦¨à¦Ĺ": 4739,
      "à¦ªà¦¨à¦Ĺà¦°": 4740,
      "à¦ľà¦¨à¦Ł": 4741,
      "à¦ľà¦¨à¦ª": 4742,
      "à¦ľà¦¨à¦ªà¦Ł": 4743,
      "à¦¾à¥¤'": 4744,
      "à¦¾à¥¤[": 4745,
      "à¦®à¦¨à¦¬": 4746,
      "à¦®à¦¨à¦ļà¦¨": 4747,
      "Ġà¦ıà¦ĩà¦°": 4748,
      "Ġà¦ıà¦ĩà¦®": 4749,
      "Ġà¦ıà¦ĩà¦ľ": 4750,
      "Ġà¦ıà¦ĩà¦ļà¦Ł": 4751,
      "Ġà¦ıà¦ĩà¦¡à¦¸": 4752,
      "à§¨à§®à§Ń": 4753,
      "à§¨à§«à§«": 4754,
      "Ġà¦§à¦ķ": 4755,
      "Ġà¦§à¦²": 4756,
      "Ġà¦§à¦¡": 4757,
      "Ġà¦§à¦¨à¦¤": 4758,
      "Ġà¦§à¦®à¦ķ": 4759,
      "Ġà¦§à¦¨à¦ķ": 4760,
      "Ġà¦§à¦¨à¦¬": 4761,
      "Ġà¦§à¦¨à¦ľ": 4762,
      "à¦ªà¦°à¦ļ": 4763,
      "à¦ĥ-": 4764,
      "Ġà¦ĺà¦°à¦ķ": 4765,
      "Ġà¦ĺà¦°à¦¦": 4766,
      "Ġà¦ĺà¦°à¦Ł": 4767,
      "Ġà¦ĺà¦¨à¦®": 4768,
      "à¦¤à¦°à¦°": 4769,
      "à¦¤à¦°à¦ª": 4770,
      "à¦¤à¦°à¦ĸ": 4771,
      "à¦¤à¦°à¦«à¦²": 4772,
      "à¦¤à¦°à¦¬à¦Ļ": 4773,
      "Ġà¦®à¦¨à¦¸": 4774,
      "à¦¿à¥¤'": 4775,
      "à¦¿à¥¤âĢĿ": 4776,
      "à¦¼à¦¿-": 4777,
      "à§«à§§à§¨": 4778,
      "à§«à§«à§¦": 4779,
      "à§«à§¨à§Ń": 4780,
      "à¦ķà¦°à¦¬": 4781,
      "à¦ķà¦°à¦ĩà¦ķ": 4782,
      "à§©à§§à§Ń": 4783,
      "à§©à§§à§¬": 4784,
      "à§©à§«à§¦": 4785,
      "à§©à§©à§¨": 4786,
      "à§©à§¯à§¯": 4787,
      "ĠÂ©": 4788,
      "ĠÂ¿": 4789,
      "à¦¶à¦¨à¦¸": 4790,
      "à¦¶à¦¨à¦ª": 4791,
      "à¦¶à¦¨à¦ĵ": 4792,
      "à¦¶à¦¨à¦ıà¦°": 4793,
      "à§ĩ,\"": 4794,
      "à¦¬à¦¸à¦¯": 4795,
      "à¦¬à¦¸à¦ĵ": 4796,
      "Ġà¦īà¦ªà¦Ń": 4797,
      "Ġà¦īà¦ªà¦®à¦¨": 4798,
      "Ġà¦īà¦ªà¦ªà¦¤": 4799,
      "Ġà¦īà¦ªà¦ķà¦®": 4800,
      "Ġà¦īà¦ªà¦¸à¦°": 4801,
      "Ġà¦īà¦ªà¦²à¦¡": 4802,
      "Ġà¦īà¦ªà¦¶à¦¹à¦°": 4803,
      "à¦¬à¦¨à¦°": 4804,
      "à¦¬à¦¨à¦¬": 4805,
      "à¦¬à¦¨à¦§": 4806,
      "à¦ļà¦¨à¦ª": 4807,
      "à¦ļà¦¨à¦ĩ": 4808,
      "à¦ļà¦¨à¦ĵ": 4809,
      "..]": 4810,
      "Ġ22": 4811,
      "Ġà¦Ĩà¦¸à¦ĵà¦¯": 4812,
      "Ġà¦Ĩà¦¸à¦¨à¦Ł": 4813,
      "à¦°à¦®à¦¤": 4814,
      "à¦°à¦®à¦¬à¦°": 4815,
      "Ġà¦Ĩà¦²à¦¦": 4816,
      "Ġà¦Ĩà¦²à¦Ĺ": 4817,
      "Ġà¦Ĩà¦²à¦Ń": 4818,
      "à¦¿à¦ĤâĢĿ": 4819,
      "à¦¿à¦ĤâĢĻ-": 4820,
      "à¦¿à¦Ĥ:-": 4821,
      "à¦ĩà¦²à¦°": 4822,
      "à¦ĩà¦²à¦¸": 4823,
      "à¦ĩà¦²à¦¦": 4824,
      "à¦ĩà¦²à¦ĵ": 4825,
      "à¦ĩà¦²à¦Łà¦°": 4826,
      "à¦ĩà¦²à¦Ĩà¦¦": 4827,
      "à¦ĩà¦¨à¦°": 4828,
      "à¦ĩà¦¨à¦ķ": 4829,
      "à¦ĩà¦¨à¦¸": 4830,
      "à¦ĩà¦¨à¦Ĺ": 4831,
      "à¦ĩà¦¨à¦ļ": 4832,
      "à¦ĩà¦¨à¦Ĺà¦°": 4833,
      "à¦ĩà¦¨à¦¸à¦¹": 4834,
      "à¦ĩà¦¨à¦īà¦¦": 4835,
      "à¦ĩà¦¨à¦Ĩà¦ª": 4836,
      "à§Ī,": 4837,
      "à¦²à¦ķà¦Ł": 4838,
      "à¦²à¦ķà¦ª": 4839,
      "à¦²à¦ķà¦ĵ": 4840,
      "Ġà¦Ĩà¦Ĺà¦®à¦¨": 4841,
      "Ġà§¨à§¦à§Ń": 4842,
      "Ġà¦īà¦¦à¦Ń": 4843,
      "à¦²à¦¨à¦¸": 4844,
      "à¦²à¦¨à¦Ĺà¦°": 4845,
      "à¦ĺà¦¬": 4846,
      "à¦ĺà¦¸": 4847,
      "à¦ĺà¦¹": 4848,
      "à¦ĺà¦°à¦Ĺ": 4849,
      "à¦ĺà¦°à¦ĵ": 4850,
      "à¦ĺà¦²à¦ª": 4851,
      "à¦ĺà¦¸à¦®à¦¯": 4852,
      "à¦ĺà¦ĸà¦£": 4853,
      "à¦°à¦¬à¦ļ": 4854,
      "à¦°à¦¬à¦£à¦¤": 4855,
      "à§®à§¦à§¦": 4856,
      "à§®à§§": 4857,
      "à§®à§§à§¯": 4858,
      "à§®à§§à§¬": 4859,
      "à§®à§§à§®": 4860,
      "à§®à§«à§¦": 4861,
      "Ġà¦¹à¦²à¦°": 4862,
      "Ġà¦¹à¦²à¦¦": 4863,
      "à§ªà§¨": 4864,
      "à§ªà§§à§¬": 4865,
      "à§ªà§«à§Ń": 4866,
      "à§ªà§®à§¯": 4867,
      "Ġà¦¹à¦¤à¦¬": 4868,
      "Ġà¦¹à¦¤à¦¦à¦°": 4869,
      "à¦°à¦¦à¦²": 4870,
      "Ġà¦ķà¦®à¦Ľ": 4871,
      "Ġà¦ķà¦®à¦²à¦Ĺà¦ŀ": 4872,
      "à§¯à§¨": 4873,
      "à§¯à§§": 4874,
      "à§İà¦ļ": 4875,
      "à§İà¦«": 4876,
      "à§İà¦ªà¦°": 4877,
      "à§İà¦ķà¦°": 4878,
      "à§İà¦¸à¦¬": 4879,
      "à§İà¦«à¦°": 4880,
      "à§İà¦·à¦¤": 4881,
      "à¦¬à¦¹à¦¤": 4882,
      "Ġà¦¸à¦¬à¦²": 4883,
      "Ġà¦¸à¦¬à¦®": 4884,
      "Ġà¦¸à¦¬à¦¦": 4885,
      "Ġà¦¸à¦¬à¦¶": 4886,
      "Ġà¦¸à¦¬à¦ĩ": 4887,
      "Ġà¦¸à¦¬à¦Ĺ": 4888,
      "Ġà¦¸à¦¬à¦ĸ": 4889,
      "Ġà¦¸à¦¬à¦¥": 4890,
      "à¦¦à¦¨à¦ķà¦°à¦¨": 4891,
      "à¦®à¦²à¦¤": 4892,
      "à§Ńà§©": 4893,
      "à§Ńà§¦à§¦": 4894,
      "à§Ńà§¬": 4895,
      "à§Ńà§¨à§¦": 4896,
      "à§Ńà§«à§¦": 4897,
      "à§Ńà§§à§©": 4898,
      "à§Ńà§«à§Ń": 4899,
      "à§Ńà§«à§©": 4900,
      "à§Ńà§¬à§ª": 4901,
      "à¦¦à¦°à¦ª": 4902,
      "à¦Ĺà¦°à¦ª": 4903,
      "Ġà¦¸à¦¨à¦ľ": 4904,
      "à¦®à¦¤à¦²": 4905,
      "à¦®à¦¤à¦®": 4906,
      "à¦®à¦¤à¦Ń": 4907,
      "à§¬à§«": 4908,
      "à§¬à§®": 4909,
      "à§¬à§¦à§¦": 4910,
      "à§¬à§¬": 4911,
      "à§¬à§¦à§¦à§¦": 4912,
      "à§¬à§§à§§": 4913,
      "à§¬à§ªà§¦": 4914,
      "à§¬à§¯à§¬": 4915,
      "à§¬à§¨à§©": 4916,
      "Ġà¦ªà¦¡à¦ķ": 4917,
      "à¦¤à¦¬à¦¯": 4918,
      "à¦¤à¦¬à¦ľ": 4919,
      "à¦¦à¦ķà¦¸à¦¹": 4920,
      "à¦¾à¦Ĥà¥¤": 4921,
      "Ġà¦¢à¦²": 4922,
      "Ġà¦Ĩà¦¨à¦¯": 4923,
      "Ġà¦Ĩà¦¨à¦Ľ": 4924,
      "Ġà§©à§®": 4925,
      "Ġà§©à§ª": 4926,
      "Ġà§©à§§à§¬": 4927,
      "Ġà§©à§«à§¦": 4928,
      "Ġà§©à§¯à§¯": 4929,
      "Ġà§©à§ªà§¦": 4930,
      "Ġà§©à§¬à§¦": 4931,
      "Ġà¦¦à¦²à¦ĵ": 4932,
      "Ġà¦¦à¦²à¦¸à¦¹": 4933,
      "à¦¬à¦²à¦¤": 4934,
      "à¦·à¦£à¦ķ": 4935,
      "à¦·à¦£à¦¬": 4936,
      "à¦·à¦£à¦Ĺ": 4937,
      "à¦·à¦£à¦ķà¦°": 4938,
      "à¦¹à¦¤à¦¤": 4939,
      "à¦¯à¦®à¦Ĺ": 4940,
      "à¦¯à¦®à¦£": 4941,
      "Ġà¦¬à¦°à¦ŀ": 4942,
      "Ġ--": 4943,
      "à¦¤à¦¨à¦¤": 4944,
      "à¦¤à¦¨à¦ĵ": 4945,
      "à¦¤à¦¨à¦ľà¦¨": 4946,
      "à¦²à¦¤à¦¦": 4947,
      "Ġà¦¸à¦¹In": 4948,
      "à¦ªà¦ķà¦¬": 4949,
      "à¦ªà¦ķà¦¥à¦¨": 4950,
      "Ġà¦ķà¦¥à¦¨": 4951,
      "Ġà¦ħà¦°à¦¨": 4952,
      "Ġà¦ħà¦°à¦«": 4953,
      "Ġà¦®à¦¹à¦²": 4954,
      "Ġà¦®à¦¹à¦¸": 4955,
      "Ġà¦ıà¦²à¦¬": 4956,
      "ina": 4957,
      "ine": 4958,
      "inch": 4959,
      "iness": 4960,
      "inut": 4961,
      "intain": 4962,
      "instagram": 4963,
      "à¦°à¦¯à¦¤": 4964,
      "à¦¤à¦®à¦¯": 4965,
      "Ġà¦¬à¦Ľà¦°à¦Ł": 4966,
      "Ġà¦¬à¦Ľà¦°à¦ĩ": 4967,
      "Ġà¦¬à¦Ľà¦°à¦Ĺ": 4968,
      "Ġà¦Ĩà¦¦à¦¬": 4969,
      "Ġà¦Ĩà¦¦à¦®à¦¦": 4970,
      "Ġà¦īà¦ªà¦ľà¦²": 4971,
      "Ġà§«à§§": 4972,
      "Ġà§«à§§à§§": 4973,
      "Ġà§«à§§à§©": 4974,
      "Ġà§«à§¨à§Ń": 4975,
      "Ġà§«à§§à§¬à§®": 4976,
      "Ġà¦Ĩà¦ľà¦¦": 4977,
      "Ġà¦Ĩà¦ľà¦ª": 4978,
      "Ġà¦ħà¦§à¦®": 4979,
      "Ġà¦ħà¦§à¦¸": 4980,
      "à¦°à¦§à¦°": 4981,
      "à¦¸à¦®à¦ķ": 4982,
      "à¦°à¦¶à¦ķ": 4983,
      "à¦°à¦¶à¦¹à¦°": 4984,
      "Ġà§¦à§ª": 4985,
      "Ġà§¦à§§à§«": 4986,
      "à¦Ŀà¦ķ": 4987,
      "à¦Ŀà¦²": 4988,
      "à¦Ŀà¦¬": 4989,
      "à¦Ŀà¦ªà¦¥": 4990,
      "Ġà¦ĩà¦¨à¦Ł": 4991,
      "à¦¼à§Ģ'": 4992,
      "à¦¼à§Ģ-": 4993,
      "à¦Łà¦ķà¦ļ": 4994,
      "à¦Łà¦ķà¦ĵ": 4995,
      "Ġà¦ıà¦¨à¦°": 4996,
      "Ġà¦ıà¦¨à¦ľ": 4997,
      "Ġà¦ıà¦¨à¦ĩà¦¡": 4998,
      "Ġà§ªà§¨": 4999,
      "Ġà§ªà§©": 5000,
      "Ġà§ªà§ª": 5001,
      "Ġà§ªà§§à§¯": 5002,
      "Ġà§ªà§§à§©": 5003,
      "Ġà§ªà§¨à§Ń": 5004,
      "Ġà§ªà§ªà§¬": 5005,
      "Ġà¦ıà¦ĸà¦¨à¦ķ": 5006,
      "Ġ050": 5007,
      "Ġ022": 5008,
      "Ġ024": 5009,
      "Ġ008": 5010,
      "Ġ070": 5011,
      "à¦ķà¦Łà¦²": 5012,
      "à¦ķà¦Łà¦ª": 5013,
      "à¦ķà¦Łà¦ľà¦¨": 5014,
      "à¦¨à¦¤à¦¦": 5015,
      "à¦¨à¦¤à¦¤à¦°": 5016,
      "Ġà¦¸à¦°à¦«à¦°": 5017,
      "Ġà¦¸à¦°à¦ľà¦®": 5018,
      "Ġà¦¸à¦°à¦°à¦°": 5019,
      "Ġà¦®à¦¤à¦Ń": 5020,
      "à¦ıà¦¨à¦¬": 5021,
      "à¦ıà¦¨à¦Ń": 5022,
      "à¦ıà¦¨à¦ĵ": 5023,
      "à¦ıà¦¨à¦ıà¦¸": 5024,
      "à¦ıà¦¨à¦ĵà¦¸": 5025,
      "à¦ıà¦¨à¦ıà¦Ń": 5026,
      "à¦ıà¦¨CoxsbazarNEWS": 5027,
      "and": 5028,
      "anar": 5029,
      "anag": 5030,
      "anding": 5031,
      "annel": 5032,
      "à¦ĩà¦ķà¦ª": 5033,
      "Ġà¦¬à¦¨à¦¶": 5034,
      "Ġà¦¬à¦¨à¦Ĺ": 5035,
      "à¦Ĺà¦¤à¦¦": 5036,
      "Ġtar": 5037,
      "Ġtho": 5038,
      "Ġtak": 5039,
      "Ġtrib": 5040,
      "Ġtrue": 5041,
      "Ġtough": 5042,
      "Ġtrad": 5043,
      "à¦°à¦¨à¦²": 5044,
      "à¦¸à¦¹à¦ľ": 5045,
      "Ġà¦ħà¦¬à¦§": 5046,
      "Ġà¦ħà¦¬à¦¤à¦°à¦£": 5047,
      "ery": 5048,
      "erma": 5049,
      "eric": 5050,
      "eria": 5051,
      "erment": 5052,
      "ertain": 5053,
      "ercard": 5054,
      "ervic": 5055,
      "à¦ħà¦²": 5056,
      "à¦ħà¦¦": 5057,
      "à¦ħà¦ľ": 5058,
      "à¦ħà¦¶": 5059,
      "à¦ħà¦¬à¦°": 5060,
      "à¦ħà¦¬à¦¹": 5061,
      "à¦ħà¦¬à¦¤": 5062,
      "Ġà¦īà¦¨à¦ķ": 5063,
      "Ġà¦Ĩà¦ķà¦¨": 5064,
      "Ġà¦Ĩà¦ķà¦Ľ": 5065,
      "Ġà¦Ĩà¦ķà¦ļ": 5066,
      "Ġà¦Ĩà¦ķà¦¬à¦°à¦ķ": 5067,
      "Ġà§¬à§¨": 5068,
      "Ġà§¬à§©": 5069,
      "Ġà§¬à§®": 5070,
      "Ġà§¬à§ª": 5071,
      "Ġà§¬à§§": 5072,
      "Ġà§¬à§¦à§¦à§¦": 5073,
      "Ġà§¬à§©à§¨": 5074,
      "Ġà§¬à§¨à§©": 5075,
      "Ġà§¬à§«à§§": 5076,
      "Ġà§¬à§ªà§«": 5077,
      "Ġà§¬à§¦à§¦à§¦à§¦": 5078,
      "Ġà¦°à¦¹à¦®à¦¤à¦Ĺà¦ŀ": 5079,
      "à¦ıà¦¸à¦ıà¦¸": 5080,
      "à¦ıà¦¸à¦ĩà¦¸": 5081,
      "à¦ıà¦¸à¦ıà¦®": 5082,
      "à¦ıà¦¸à¦ıà¦ĩà¦ļ": 5083,
      "Ġà¦ķà¦²à¦Ł": 5084,
      "Ġà§§à§¦à§¨": 5085,
      "Ġà§§à§¦à§«": 5086,
      "Ġà§§à§¦à§©": 5087,
      "à¦®à¦ķà¦Ń": 5088,
      "Ġà¦ıà¦¤à¦Ĺ": 5089,
      "Ġà§¯à§¦": 5090,
      "Ġà§¯à§®": 5091,
      "Ġà§¯à§¯": 5092,
      "Ġà§¯à§¨à§¯": 5093,
      "Ġà§¯à§ªà§©": 5094,
      "Ġà§¯à§ªà§¬": 5095,
      "esig": 5096,
      "esul": 5097,
      "esional": 5098,
      "esÃŃ": 5099,
      "Ġà¦ªà¦¦à¦¯": 5100,
      "Ġà¦ªà¦¦à¦¬": 5101,
      "à¦¨à¦ķà¦ķ": 5102,
      "à¦¨à¦ķà¦ª": 5103,
      "à¦¨à¦ķà¦¡": 5104,
      "à¦¨à¦ķà¦°à¦ķà¦®": 5105,
      "Ġà§Ńà§«": 5106,
      "Ġà§Ńà§¯": 5107,
      "Ġà§Ńà§«à§¦": 5108,
      "Ġà§Ńà§§à§§": 5109,
      "Ġà§Ńà§¯à§®": 5110,
      "Ġà§Ńà§«à§Ń": 5111,
      "Ġà§Ńà§¬à§¯": 5112,
      "Ġà§Ńà§«à§¦à§¦": 5113,
      "Ġà§Ńà§Ńà§Ń": 5114,
      "Ġà§Ńà§ªà§«à§Ń": 5115,
      "Ġà§Ńà§Ńà§©": 5116,
      "Ġà¦¸à¦¨à¦¦à¦ª": 5117,
      "Ġà¦¸à¦¨à¦¦à¦§": 5118,
      "Ġà¥¤âĢĿ": 5119,
      "count": 5120,
      "à§İà¦¸à¦ķà¦°": 5121,
      "à§İà¦¸à¦ķà¦¦": 5122,
      "à¦¨à¦¬à¦ľà¦®": 5123,
      "à¦§à¦¨à¦Ĺà¦Ļ": 5124,
      "à¦īà¦ľà¦ķ": 5125,
      "à¦īà¦ľà¦¬": 5126,
      "à¦īà¦ľà¦«": 5127,
      "à§¨à§¦à§§à§Ń": 5128,
      "à§¨à§¦à§§à§¯": 5129,
      "à§¨à§¦à§§à§¦": 5130,
      "à§¨à§¦à§§à§ª": 5131,
      "à§¨à§¦à§¨à§§": 5132,
      "à§¨à§¦à§«à§Ń": 5133,
      "à¦®à¦ķà¦°à¦¨": 5134,
      "à¦¦à¦ªà¦¦": 5135,
      "Ġà¦Ĩà¦ĩà¦¨à¦¤": 5136,
      "à¦ıà¦®à¦ª": 5137,
      "à¦ıà¦®à¦ıà¦¨": 5138,
      "à¦ıà¦®à¦ıà¦²": 5139,
      "Ġà¦¬à¦¸à¦Ľ": 5140,
      "Ġ11": 5141,
      "Ġ13": 5142,
      "Ġ16": 5143,
      "Ġ101": 5144,
      "Ġ112": 5145,
      "Ġ113": 5146,
      "Ġ114": 5147,
      "Ġ119": 5148,
      "Ġ115": 5149,
      "Ġ117": 5150,
      "Ġ122": 5151,
      "Ġ116": 5152,
      "Ġ118": 5153,
      "Ġ110": 5154,
      "Ġ184": 5155,
      "Ġ111": 5156,
      "à¦·à¦ķà¦¤": 5157,
      "à¦·à¦ķà¦ķ": 5158,
      "à¦·à¦ķà¦Ĺà¦£": 5159,
      "à¦¯à¦¬à¦ĩà¦¯": 5160,
      "à¦¤à¦ķà¦¨": 5161,
      "à¦¤à¦ķà¦¤": 5162,
      "à¦¤à¦ķà¦¡": 5163,
      "Ġà§®à§«": 5164,
      "Ġà§®à§©": 5165,
      "Ġà§®à§¯": 5166,
      "Ġà§®à§Ń": 5167,
      "Ġà§®à§§": 5168,
      "Ġà§®à§©à§¦": 5169,
      "Ġà§®à§®à§«": 5170,
      "Ġà§®à§¬à§ª": 5171,
      "enes": 5172,
      "enPo": 5173,
      "enger": 5174,
      "Ġà¦²à¦ķà¦¡": 5175,
      "Ġà¦²à¦ķà¦²à¦ķ": 5176,
      "à¦¬à¦¤à¦ĩ": 5177,
      "Ġà¦Ĩà¦¯à¦¹": 5178,
      "à¦ļà¦²à¦Ĺ": 5179,
      "à¦ļà¦²à¦Ľ": 5180,
      "à¦ļà¦²à¦Ń": 5181,
      "Ġà¦ħà¦ªà¦¯": 5182,
      "Ġà¦ħà¦ªà¦Ł": 5183,
      "Ġà¦ħà¦ªà¦ª": 5184,
      "Ġà¦ħà¦ªà¦¹": 5185,
      "Ġà¦ħà¦ªà¦¸à¦¨": 5186,
      "Ġà¦ħà¦ªà¦Ľà¦¨": 5187,
      "Ġà¦ħà¦ªà¦ļà¦¯": 5188,
      "computer": 5189,
      "à¦°à¦Ĺà¦Ł": 5190,
      "dows": 5191,
      "dores": 5192,
      "dorid": 5193,
      "à¦°à¦²à¦¸": 5194,
      "Ġ20172016": 5195,
      "ater": 5196,
      "atad": 5197,
      "ating": 5198,
      "atch": 5199,
      "ature": 5200,
      "atribune": 5201,
      "ĠSD": 5202,
      "ĠSou": 5203,
      "ĠSha": 5204,
      "ĠSAT": 5205,
      "ĠSum": 5206,
      "ĠSattar": 5207,
      "ĠSig": 5208,
      "ĠShipping": 5209,
      "ĠShopping": 5210,
      "ĠScreen": 5211,
      "ĠSMAR": 5212,
      "ĠSUBS": 5213,
      "ĠSYST": 5214,
      "ĠScal": 5215,
      "ĠShork": 5216,
      "ĠSoma": 5217,
      "ĠSpel": 5218,
      "à¦ķà¦¦à¦£": 5219,
      "Ġà¦¬à¦ķà¦¸à¦¹": 5220,
      "à¦°à¦Ńà¦¬": 5221,
      "à§Ģà¥¤âĢĻ": 5222,
      "Ġà¦¹à¦ķà¦ķ": 5223,
      "âĢ¦.": 5224,
      "âĢ¦âĢĻ": 5225,
      "à¦«à¦²à¦ĩ": 5226,
      "à¦«à¦²à¦Ń": 5227,
      "à§§à§Ńà§¨à§Ń": 5228,
      "à§§à§Ńà§«à§Ń": 5229,
      "à§§à§Ńà§¨à§¦à§«à§Ń": 5230,
      "read": 5231,
      "Ġà¦Ĩà¦ĩà¦ļ": 5232,
      "Ġà¦Ĩà¦ĩà¦Ĩà¦°": 5233,
      "Ġà¦Ĩà¦ĩà¦Ńà¦°": 5234,
      "Ġà¦Ĩà¦ĩà¦ıà¦¸à¦¬": 5235,
      "Ġà¦Ĩà¦ĩà¦ıà¦¸à¦Ĩà¦ĩ": 5236,
      "Ġà¦Ĩà¦ĩà¦ıà¦Ĩ": 5237,
      "ilit": 5238,
      "ilding": 5239,
      "ildren": 5240,
      "iland": 5241,
      "Ġà¦ıà¦®à¦¬": 5242,
      "Ġà¦ıà¦®à¦Ĩà¦ĩ": 5243,
      "à¦īà¦Łà¦¸à¦®": 5244,
      "mas": 5245,
      "maoun": 5246,
      "Ġsa": 5247,
      "Ġshe": 5248,
      "Ġsof": 5249,
      "Ġsem": 5250,
      "Ġsel": 5251,
      "Ġsum": 5252,
      "Ġsaf": 5253,
      "Ġshal": 5254,
      "Ġste": 5255,
      "Ġscreen": 5256,
      "Ġshoppingdirect": 5257,
      "Ġspir": 5258,
      "Ġstate": 5259,
      "Ġsymbian": 5260,
      "Ġservic": 5261,
      "à¦°à¦ĩà¦¡": 5262,
      "à¦¹à¦¸à¦Ł": 5263,
      "à¦ķà¦®à¦²à¦¨à¦Ĺà¦°": 5264,
      "à¦ªà¦¦à¦¤": 5265,
      "à¦ªà¦¦à¦¸à¦¹": 5266,
      "à¦°à¦Łà¦ª": 5267,
      "à¦¿à¦ĥà¥¤": 5268,
      "à¦¨à¦ĵà¦Ł": 5269,
      "à¦¨à¦ĵà¦Ń": 5270,
      "Ġà¦īà¦łà¦Ľ": 5271,
      "Ġà¦ªà¦¥à¦¨": 5272,
      "Ġà¦ªà¦¥à¦ĩ": 5273,
      "Ġà¦ıà¦ªà¦¸": 5274,
      "Ġà¦ħà¦ªà¦°à¦¦": 5275,
      "Ġà¦ħà¦ªà¦°à¦ľà¦¨": 5276,
      "Ġà¦ĺà¦Łà¦²": 5277,
      "Ġà¦ĺà¦Łà¦¬": 5278,
      "à¦°à¦¹à¦£à¦°à¦¤": 5279,
      "Ġà§¯à§«à§¨à§Ń": 5280,
      "Ġà§¯à§«à§®à§®": 5281,
      "Ġà§¯à§«à§¬à§¯à§¬": 5282,
      "ĠPO": 5283,
      "ĠPla": 5284,
      "ĠPur": 5285,
      "ĠPUR": 5286,
      "ĠPol": 5287,
      "ĠPack": 5288,
      "ĠPage": 5289,
      "ĠPAN": 5290,
      "ĠPink": 5291,
      "ĠPakistan": 5292,
      "ĠPerma": 5293,
      "Ġà¦Ĩà¦ªà¦£": 5294,
      "Ġà¦¶à¦¤à¦Ń": 5295,
      "Ġà¦¶à¦¤à¦¬à¦°": 5296,
      "Ġà¦¶à¦¤à¦¶à¦¤": 5297,
      "Ġà¦Ĺà¦£à¦¸": 5298,
      "Ġà¦Ĺà¦£à¦ª": 5299,
      "Ġà¦Ĺà¦£à¦ªà¦°": 5300,
      "Ġà¦Ĺà¦£à¦¹à¦¤": 5301,
      "Ġà¦Ĺà¦£à¦ķà¦¬à¦°": 5302,
      "à§§à§¨à§§à§«": 5303,
      "à§§à§¨à§¯à§¬": 5304,
      "à§§à§¨à§¦à§«": 5305,
      "Ġà¦Ŀà¦²à¦¸": 5306,
      "Ġà¦Ŀà¦°à¦Ŀà¦°": 5307,
      "à¦·à¦¦à¦¸": 5308,
      "à¦·à¦¦à¦ĵ": 5309,
      "ĠAin": 5310,
      "ĠAde": 5311,
      "ĠApp": 5312,
      "ĠAust": 5313,
      "ĠAff": 5314,
      "ĠAll": 5315,
      "ĠACC": 5316,
      "ĠAPP": 5317,
      "ĠAbori": 5318,
      "ĠAsia": 5319,
      "ĠAthe": 5320,
      "ĠAugust": 5321,
      "ĠCan": 5322,
      "ĠCur": 5323,
      "ĠCap": 5324,
      "ĠCho": 5325,
      "ĠCoo": 5326,
      "ĠCour": 5327,
      "ĠCOR": 5328,
      "ĠCOM": 5329,
      "ĠCab": 5330,
      "ĠComi": 5331,
      "ĠClic": 5332,
      "ĠCss": 5333,
      "ĠCup": 5334,
      "ĠCity": 5335,
      "ĠCuidado": 5336,
      "ĠCollected": 5337,
      "ĠCoxsbazarNEWS": 5338,
      "ĠCCleaner": 5339,
      "Ġà§§à§¯à§¦": 5340,
      "Ġà§§à§¯à§¨à§ª": 5341,
      "Ġà§§à§¯à§©à§¦": 5342,
      "Ġà§§à§¯à§®à§¬": 5343,
      "Ġà§§à§¯à§¯à§®": 5344,
      "Ġà§§à§¯à§«à§¨": 5345,
      "Ġà§§à§¯à§«à§¬": 5346,
      "Ġà§§à§¯à§©à§¬": 5347,
      "Ġà§§à§¯à§«à§©": 5348,
      "Ġà§§à§¯à§¦à§§": 5349,
      "Ġà§§à§¯à§«à§¯": 5350,
      "Ġà§§à§¯à§ªà§Ń": 5351,
      "Ġà§§à§¯à§¬à§®": 5352,
      "edia": 5353,
      "ednes": 5354,
      "ÂłÂł": 5355,
      "ÂłÂłĊ": 5356,
      "à¦ļà¦Łà¦Ł": 5357,
      "ara": 5358,
      "ary": 5359,
      "arer": 5360,
      "arit": 5361,
      "arter": 5362,
      "arack": 5363,
      "argo": 5364,
      "arned": 5365,
      "arendra": 5366,
      "arfur": 5367,
      "itor": 5368,
      "itut": 5369,
      "Ġact": 5370,
      "Ġads": 5371,
      "Ġapo": 5372,
      "Ġall": 5373,
      "Ġayn": 5374,
      "Ġagain": 5375,
      "Ġamaoun": 5376,
      "Ġcur": 5377,
      "Ġcut": 5378,
      "Ġcuidado": 5379,
      "Ġctgpo": 5380,
      "Ġcertain": 5381,
      "à¦ķà¦¨à¦¦": 5382,
      "à¦ķà¦¨à¦ľ": 5383,
      "à¦ľà¦°à¦Ļ": 5384,
      "à¦Ĺà¦£à¦®": 5385,
      "à¦Ĺà¦£à¦ª": 5386,
      "à¦Ĺà¦£à¦¤à¦¨": 5387,
      "Ġà¦Ńà¦¬à¦¨à¦Ĺ": 5388,
      "orn": 5389,
      "orash": 5390,
      "orld": 5391,
      "Ġà¦Īà¦°": 5392,
      "Ġà¦Īà¦ķ": 5393,
      "Ġà¦¨à¦¬à¦¬à¦°": 5394,
      "à¦Ĩà¦®à¦²à¦ķ": 5395,
      "à§ĩà¦ģà¦ģ": 5396,
      "à¦ķà¦ľà¦¨à¦ĩ": 5397,
      "à§§à§¯à§©": 5398,
      "à§§à§¯à§ª": 5399,
      "à§§à§¯à§©à§Ń": 5400,
      "à§§à§¯à§¯à§¬": 5401,
      "à§§à§¯à§©à§®": 5402,
      "à§§à§¯à§¦à§§": 5403,
      "Ġà¦Ĩà¦¸à¦¨à¦Ĺ": 5404,
      "Ġà¦Ĩà¦¸à¦¨à¦¸à¦¹": 5405,
      "Ġbang": 5406,
      "Ġbut": 5407,
      "Ġbangla": 5408,
      "Ġbol": 5409,
      "Ġboo": 5410,
      "Ġbuy": 5411,
      "Ġbelle": 5412,
      "Ġbody": 5413,
      "Ġbrune": 5414,
      "Ġbarack": 5415,
      "à¦ĩà¦ľà¦ľ": 5416,
      "à¦ĩà¦ľà¦¡": 5417,
      "âĢĿ-": 5418,
      "Ġà¦ĩà¦¸à¦¤": 5419,
      "Ġà¦ĩà¦īà¦ķ": 5420,
      "Ġà¦ĩà¦īà¦ıà¦¨à¦ĵ": 5421,
      "à§§à§¬à§ª": 5422,
      "à§§à§¬à§®à§Ń": 5423,
      "aling": 5424,
      "alersangbad": 5425,
      "Ġpc": 5426,
      "Ġpun": 5427,
      "Ġpro": 5428,
      "Ġpur": 5429,
      "Ġpha": 5430,
      "Ġpers": 5431,
      "Ġprou": 5432,
      "Ġpds": 5433,
      "Ġpres": 5434,
      "Ġpunt": 5435,
      "Ġpub": 5436,
      "Ġpakistan": 5437,
      "Ġpast": 5438,
      "Ġpeo": 5439,
      "Ġphon": 5440,
      "Ġplus": 5441,
      "Ġppdas": 5442,
      "Ġprof": 5443,
      "Ġpued": 5444,
      "Ġpatad": 5445,
      "Ġpara": 5446,
      "Ġporn": 5447,
      "Ġà¦¶à¦¹à¦°à¦Ĺ": 5448,
      "ading": 5449,
      "à¦¼à¦¾,âĢĺ": 5450,
      "Ġà¦ľà¦¬à¦Ł": 5451,
      "Ġà¦ĩà¦®à¦®": 5452,
      "Ġà¦ĩà¦®à¦ª": 5453,
      "à¦ıà¦ķà¦ĩà¦¦": 5454,
      "à¦ıà¦ķà¦¸à¦®à¦¯": 5455,
      "à¦ıà¦ĩà¦ĸ": 5456,
      "à¦ıà¦ĩà¦ļà¦Ł": 5457,
      "ĠÂłĠÂł": 5458,
      "Ġà§§à§«à§¯": 5459,
      "Ġà§§à§«à§§": 5460,
      "Ġà§§à§®à§¦à§¦": 5461,
      "Ġà§§à§®à§¨à§ª": 5462,
      "Ġà§§à§®à§©à§¨": 5463,
      "Ġà§§à§®à§©à§§": 5464,
      "Ġà§§à§®à§«à§©": 5465,
      "Ġà§§à§®à§®à§¨": 5466,
      "Ġà§§à§®à§ªà§ª": 5467,
      "Ġà§§à§®à§¬à§¬": 5468,
      "Ġà¦Ĩà¦²à¦®à¦¡": 5469,
      "Ġno": 5470,
      "Ġnum": 5471,
      "Ġnew": 5472,
      "Ġnude": 5473,
      "Ġnational": 5474,
      "Ġneed": 5475,
      "Ġnarendra": 5476,
      "Ġà¦ķà¦¨à¦¡": 5477,
      "Ġà¦ķà¦ĸà¦¨à¦ĩ": 5478,
      "Ġà¦Ĩà¦¹à¦¯": 5479,
      "Ġà¦Ĩà¦¹Å¸": 5480,
      "Ġà¦¤à¦ĸà¦¨à¦ĵ": 5481,
      "à§§à§«à§Ńà§¬à§ª": 5482,
      "à§§à§®à§§à§«à§Ńà§¬à§ª": 5483,
      "à¦Ĩà¦°à¦ıà¦²": 5484,
      "Ġà§§à§¨à§¦à§®": 5485,
      "ingbd": 5486,
      "inging": 5487,
      "ington": 5488,
      "offer": 5489,
      "see": 5490,
      "sealing": 5491,
      "Ġhic": 5492,
      "Ġhas": 5493,
      "Ġhol": 5494,
      "Ġhapp": 5495,
      "Ġhuman": 5496,
      "à¦ĩà¦Ńà¦·": 5497,
      "à¦¹à¦²à¦Ĺ": 5498,
      "à¦·à¦¤à¦Ń": 5499,
      "122": 5500,
      "128": 5501,
      "1216": 5502,
      "lete": 5503,
      "legar": 5504,
      "sted": 5505,
      "stnews": 5506,
      "stercard": 5507,
      "stitut": 5508,
      "à¦¯à¦¦à¦¬à¦¸": 5509,
      "à§ģâĢĻ-": 5510,
      "à¦Łà¦®à¦¹à¦²à¦Ĺ": 5511,
      "à¥¤âĢĻâĢĻ": 5512,
      "Ġà¦«à¦°à¦ľ": 5513,
      "à§«à§¦à§§à§Ń": 5514,
      "Ġà§¦à§§à§Ńà§¨à§¨": 5515,
      "Ġà§¦à§§à§Ńà§§à§¨à§¨à§¯": 5516,
      "Ġà§¦à§§à§Ńà§¨à§¦à§¦à§¦": 5517,
      "Ġà§¦à§§à§Ńà§§à§Ńà§¨à§Ń": 5518,
      "Ġà§¦à§§à§Ńà§§à§¬à§®à§Ń": 5519,
      "131": 5520,
      "137": 5521,
      "raq": 5522,
      "ray": 5523,
      "Ġmis": 5524,
      "Ġmid": 5525,
      "Ġmore": 5526,
      "Ġmight": 5527,
      "Ġmmdctg": 5528,
      "Ġminut": 5529,
      "Ġmanag": 5530,
      "Ġmature": 5531,
      "à§ĩ?(": 5532,
      "à§ĩ?âĢĻ": 5533,
      "à¦²à¦ªà¦®": 5534,
      "à¦²à¦ªà¦¥": 5535,
      "à¦łà¦ķà¦ķ": 5536,
      "à§©à§¦à§«": 5537,
      "à§©à§¦à§Ńà§¯": 5538,
      "ĠMis": 5539,
      "ĠMEM": 5540,
      "ĠMOT": 5541,
      "ĠMano": 5542,
      "ĠMatch": 5543,
      "ĠMarit": 5544,
      "à¦¿);": 5545,
      "à¦¿)=": 5546,
      "à¦¸à¦Ńà¦¬à¦¨": 5547,
      "Ġà¦ıà¦¡à¦¸": 5548,
      "à¦Ĺà¦®à¦Ĺà¦ŀ": 5549,
      "à¦Ńà¦¬à¦ªà¦°": 5550,
      "Ġthey": 5551,
      "Ġtheapp": 5552,
      "dega": 5553,
      "à¦®à¦Ĺà¦¦": 5554,
      "à¦ªà¦¡à¦ķ": 5555,
      "à¦Ĺà¦ľà¦Ĺ": 5556,
      "Ġà§©à§¦à§§à§§": 5557,
      "una": 5558,
      "undega": 5559,
      "Ġintern": 5560,
      "Ġinternet": 5561,
      "Ġinbox": 5562,
      "Ġinver": 5563,
      "à¦ĩà¦¡à¦¦": 5564,
      "Ġà¦¯à¦ĸà¦¨à¦ĩ": 5565,
      "à¦īà¦¡à¦ķ": 5566,
      "à¦°à¦®à¦£à¦ķ": 5567,
      "à¦°à¦®à¦£à¦Ń": 5568,
      "Ġfas": 5569,
      "Ġfind": 5570,
      "Ġfuck": 5571,
      "Ġfacebook": 5572,
      "Ġfood": 5573,
      "ĠfÃºtbol": 5574,
      "Ġanal": 5575,
      "Ġanch": 5576,
      "Ġanotar": 5577,
      "à¦¾:)": 5578,
      "à¦²à¦Ĺà¦Ł": 5579,
      "à¦²à¦Ĺà¦ĵ": 5580,
      "à§§à§©à§¯à§©": 5581,
      "à§§à§©à§®à§¯": 5582,
      "Ġà§§à§©à§¦": 5583,
      "Ġà§§à§©à§Ń": 5584,
      "Ġà¦¸à¦¹à¦ľà¦¬": 5585,
      "Ġà¦¸à¦¹à¦ľà¦Ń": 5586,
      "Ġà¦¸à¦¹à¦ľà¦¤à¦°": 5587,
      "Ġà¦¸à¦¹à¦ľà¦²à¦Ń": 5588,
      "ange": 5589,
      "angel": 5590,
      "505": 5591,
      "507": 5592,
      "ague": 5593,
      "agged": 5594,
      "laide": 5595,
      "lock": 5596,
      "logy": 5597,
      "ĠDic": 5598,
      "ĠDel": 5599,
      "ĠDead": 5600,
      "ĠDow": 5601,
      "ĠDET": 5602,
      "ĠDesig": 5603,
      "ĠDarfur": 5604,
      "à¦¶à¦°à¦¥": 5605,
      "Ġà¦¹à¦¨à¦²": 5606,
      "à¦ĸà¦°à¦ŀ": 5607,
      "à§©à§«à§©": 5608,
      "à§©à§«à§¦à§¦": 5609,
      "Ġà§§à§ªà§«": 5610,
      "Ġà§§à§ªà§¬": 5611,
      "Ġà§§à§ªà§¬à§¦": 5612,
      "Ġà§§à§¬à§§": 5613,
      "Ġà§§à§¬à§Ńà§¦": 5614,
      "Ġà§§à§¬à§Ńà§¯": 5615,
      "icy": 5616,
      "imited": 5617,
      "imists": 5618,
      "Ġ?âĢĻ": 5619,
      "ĠBas": 5620,
      "ĠBut": 5621,
      "ĠBAT": 5622,
      "ĠBos": 5623,
      "ĠBitco": 5624,
      "ĠBelle": 5625,
      "ĠBangladesh": 5626,
      "ĠBengali": 5627,
      "ĠBaha": 5628,
      "ĠBeach": 5629,
      "ĠBlock": 5630,
      "ĠEns": 5631,
      "ĠEgy": 5632,
      "ĠEmer": 5633,
      "ĠExem": 5634,
      "à¦¿:-": 5635,
      "à¦¿::": 5636,
      "à¦ªà¦Łà¦ª": 5637,
      "Ġà¦ľà¦¨à¦Ĺà¦£à¦ĵ": 5638,
      "Ġà¦ľà¦¨à¦Ĺà¦£à¦¨à¦°": 5639,
      "ampions": 5640,
      "amuna": 5641,
      "vides": 5642,
      "vision": 5643,
      "ĠIsra": 5644,
      "ĠILT": 5645,
      "ĠIMO": 5646,
      "ĠIran": 5647,
      "ĠIraq": 5648,
      "ĠâĦĥ,": 5649,
      "ĠâĴ»": 5650,
      "à¦«à¦Łà¦¬": 5651,
      "à¦ıà¦«à¦¸": 5652,
      "à¦ıà¦«à¦ıà¦¸": 5653,
      "à¦ıà¦«à¦ĩà¦īà¦ľ": 5654,
      "Ġà§¨à§¦à§¦à§«": 5655,
      "Ġà§¨à§¦à§¦à§©": 5656,
      "Ġà§¨à§¦à§¦à§¯": 5657,
      "Ġà§¨à§¦à§¦à§Ń": 5658,
      "Ġà§¯à§«à§«à§©à§¯": 5659,
      "149": 5660,
      "1470": 5661,
      "ĠTo": 5662,
      "ĠTur": 5663,
      "ĠTut": 5664,
      "ĠTha": 5665,
      "ĠTime": 5666,
      "ĠTER": 5667,
      "ĠTig": 5668,
      "ĠTrop": 5669,
      "ĠTribune": 5670,
      "ĠTele": 5671,
      "ĠThur": 5672,
      "Ġ010": 5673,
      "Ġ011": 5674,
      "Ġ012": 5675,
      "Ġ013": 5676,
      "Ġ014": 5677,
      "Ġ015": 5678,
      "Ġ016": 5679,
      "Ġ019": 5680,
      "à¦Īà¦°": 5681,
      "à¦Īà¦®": 5682,
      "à¦Īà¦ľ": 5683,
      "à¦Īà¦Ĭ": 5684,
      "Ġà¦·à¦£": 5685,
      "à¦ľà¦ķà¦¸à¦¹": 5686,
      "à¦¶à¦²à¦ĵ": 5687,
      "à§©à§¨à§«": 5688,
      "à§§à§¦à§§à§§": 5689,
      "à§§à§¦à§¯à§¬": 5690,
      "à§§à§¦à§ªà§§à§¬": 5691,
      "à§§à§¦à§Ńà§«à§Ń": 5692,
      "ems": 5693,
      "ement": 5694,
      "thro": 5695,
      "though": 5696,
      "à¦¯à¦°à¦°": 5697,
      "à¦Ĺà¦łà¦¨à¦¸à¦¹": 5698,
      "Ġà¦ľà¦¨à¦ķà¦£": 5699,
      "Ġ102": 5700,
      "Ġ103": 5701,
      "Ġ104": 5702,
      "Ġ106": 5703,
      "Ġ107": 5704,
      "Ġ108": 5705,
      "Ġ109": 5706,
      "Ġ10000": 5707,
      "ento": 5708,
      "ents": 5709,
      "194": 5710,
      "1968": 5711,
      "chain": 5712,
      "chham": 5713,
      "chnya": 5714,
      "changel": 5715,
      "Ġà§¨à§ªà§¦": 5716,
      "à§¨à§Ńà§®": 5717,
      "à§¨à§Ńà§¨à§ª": 5718,
      "Ġà§ªà§¦à§¯": 5719,
      "à¦ıà¦®à¦ĩà¦ī": 5720,
      "156": 5721,
      "asan": 5722,
      "ason": 5723,
      "ased": 5724,
      "ashm": 5725,
      "elpful": 5726,
      "ĠWAT": 5727,
      "ĠWeb": 5728,
      "ĠWith": 5729,
      "ĠWebsit": 5730,
      "ĠWeight": 5731,
      "ĠWhat": 5732,
      "ĠWater": 5733,
      "ĠWednes": 5734,
      "ĠWorld": 5735,
      "Ġvisa": 5736,
      "Ġviento": 5737,
      "à¦¶à¦Ĺà¦Ļ": 5738,
      "à¦¹à¦¨à¦Ĺà¦ŀ": 5739,
      "à§§à§§à§¨à§®à§¨": 5740,
      "à§§à§§à§®à§ª": 5741,
      "Ġà§§à§Ńà§«": 5742,
      "Ġà§§à§Ńà§©": 5743,
      "Ġà§§à§Ńà§§": 5744,
      "Ġà§§à§Ńà§¬": 5745,
      "Ġà§§à§Ńà§¯à§§": 5746,
      "223": 5747,
      "225": 5748,
      "pside": 5749,
      "ttes": 5750,
      "Ġ51470": 5751,
      "ĠFL": 5752,
      "ĠFahm": 5753,
      "ĠFAC": 5754,
      "ĠFac": 5755,
      "ĠFix": 5756,
      "ĠFargo": 5757,
      "ĠHD": 5758,
      "ĠHom": 5759,
      "ĠHind": 5760,
      "ĠHtml": 5761,
      "ĠHub": 5762,
      "ĠHere": 5763,
      "ĠHasan": 5764,
      "ĠHelpful": 5765,
      "à¦°à¦°à¦¹à¦®": 5766,
      "à¦ķà¦¶à¦ª": 5767,
      "Ġà¦Ĺà¦łà¦¨à¦®": 5768,
      "Ġà¦Ĺà¦łà¦¨à¦Ĺà¦¤": 5769,
      "à¦°à¦ķà¦®à¦ĩ": 5770,
      "à§§à§ªà§©à§©": 5771,
      "à§§à§ªà§§à§¨à§¯à§¬": 5772,
      "Ġà§¨à§¬à§¦": 5773,
      "Ġà§¨à§¬à§¯": 5774,
      "Ġà§¨à§¬à§§": 5775,
      "Ġà¦ıà¦ĩà¦ļà¦¡": 5776,
      "Ġà¦ıà¦ĩà¦ļà¦ıà¦«à¦¸": 5777,
      "isal": 5778,
      "isha": 5779,
      "iscre": 5780,
      "ĠLOC": 5781,
      "ĠLike": 5782,
      "ĠLyn": 5783,
      "ĠLink": 5784,
      "ĠLev": 5785,
      "ĠLock": 5786,
      "ĠLtd": 5787,
      "ĠLundega": 5788,
      "ĠLimited": 5789,
      "à§ĩâĢĻ,": 5790,
      "à¦ķà¦¸à¦ĩ": 5791,
      "Ġà¦Ĩà¦«à¦ľ": 5792,
      "Ġà¦ħà¦®à¦°à¦¤": 5793,
      "Ġà§¨à§¨à§¯": 5794,
      "Ġà¦¡à¦ķà¦ĩà¦¯": 5795,
      "à¦ħà¦¨à¦²": 5796,
      "Ġà§¦à§§à§Ńà§§à§§à§¨à§®à§¬": 5797,
      "Ġà§¦à§§à§Ńà§§à§§à§¬à§®": 5798,
      "iding": 5799,
      "ĠNig": 5800,
      "ĠNOKI": 5801,
      "ĠRead": 5802,
      "ĠRAN": 5803,
      "ĠRESI": 5804,
      "ĠRiport": 5805,
      "ĠResul": 5806,
      "Ġwas": 5807,
      "Ġwho": 5808,
      "Ġwant": 5809,
      "Ġwash": 5810,
      "Ġwhic": 5811,
      "Ġwarned": 5812,
      "à¦ķà¦°à¦£à¦¸à¦¹": 5813,
      "Ġà¦¸à¦«à¦°à¦¸": 5814,
      "Ġà¦¸à¦«à¦°à¦°à¦¤": 5815,
      "Ġà¦®à¦ľà¦¬": 5816,
      "à¦ıà¦²à¦ľ": 5817,
      "à¦ıà¦²à¦ıà¦¨à¦ľ": 5818,
      "à§¨à§¯à§®": 5819,
      "ONIC": 5820,
      "ONLINE": 5821,
      "hotmail": 5822,
      "utorash": 5823,
      "Ġ!!": 5824,
      "Ġ\"(": 5825,
      "à¦¨à¦ľà¦Ł": 5826,
      "Ġà¦¬à¦ĩà¦Ľ": 5827,
      "à¦ªà¦¥à¦ĵ": 5828,
      "Ġà¦Ĩà¦ļà¦®à¦ķ": 5829,
      "à¦¬à¦°à¦£à¦Ł": 5830,
      "à¦Ĩà¦Ĺà¦°à¦¤à¦²": 5831,
      "Ġà§¨à§§à§¦à§¦": 5832,
      "à§¯à§¬à§«": 5833,
      "à§¯à§¬à§¬": 5834,
      "à§¯à§¬à§®à§«": 5835,
      "Ġ030": 5836,
      "Ġ031": 5837,
      "Ġ032": 5838,
      "Ġ033": 5839,
      "Ġ034": 5840,
      "Ġ035": 5841,
      "Ġ036": 5842,
      "Ġ037": 5843,
      "Ġ038": 5844,
      "Ġ039": 5845,
      "Ġà¦ĭà¦£à¦®": 5846,
      "Ġà¦ĭà¦£à¦¦": 5847,
      "Ġà¦ĭà¦£à¦ĸ": 5848,
      "704": 5849,
      "Ġemail": 5850,
      "ĠePo": 5851,
      "Ġebon": 5852,
      "Ġetc": 5853,
      "à¦ĸà¦ķà¦Ĺà¦£": 5854,
      "Ġà¦¶à¦¹à¦°à¦ķ": 5855,
      "Ġà¦¶à¦¹à¦°à¦¤à¦²": 5856,
      "à§¦à§®à§¯à§©": 5857,
      "à§¦à§§à§Ńà§®à§§à§®": 5858,
      "à§¦à§§à§Ńà§§à§¦à§¯à§¬": 5859,
      "à§©à§§à§¦à§¦": 5860,
      "Ġà§¦à§§à§®à§§à§¯à§¬": 5861,
      "Ġà§¦à§§à§®à§§à§Ńà§¨à§¦à§«à§Ń": 5862,
      "Ġà§¦à§§à§®à§§à§®à§§à§«à§Ńà§¬à§ª": 5863,
      "Ġ040": 5864,
      "Ġ041": 5865,
      "Ġ042": 5866,
      "Ġ043": 5867,
      "Ġ044": 5868,
      "Ġ045": 5869,
      "Ġ046": 5870,
      "Ġ047": 5871,
      "Ġ048": 5872,
      "Ġ049": 5873,
      "Ġ060": 5874,
      "Ġ061": 5875,
      "Ġ062": 5876,
      "Ġ063": 5877,
      "Ġ064": 5878,
      "Ġ065": 5879,
      "Ġ066": 5880,
      "Ġ067": 5881,
      "Ġ068": 5882,
      "Ġ069": 5883,
      "Ġ080": 5884,
      "Ġ081": 5885,
      "Ġ082": 5886,
      "Ġ083": 5887,
      "Ġ084": 5888,
      "Ġ085": 5889,
      "Ġ086": 5890,
      "Ġ087": 5891,
      "Ġ088": 5892,
      "Ġ089": 5893,
      "Ġ090": 5894,
      "Ġ091": 5895,
      "Ġ092": 5896,
      "Ġ093": 5897,
      "Ġ094": 5898,
      "Ġ095": 5899,
      "Ġ096": 5900,
      "Ġ097": 5901,
      "Ġ098": 5902,
      "Ġ099": 5903,
      "Ġà¦¬à¦¸à¦¤à¦ĺà¦°": 5904,
      "ence": 5905,
      "enciÃ": 5906,
      "ivers": 5907,
      "nsists": 5908,
      "olpo": 5909,
      "oogle": 5910,
      "ĠJews": 5911,
      "ĠJack": 5912,
      "ĠJav": 5913,
      "ĠJune": 5914,
      "ĠJohnson": 5915,
      "ĠJamuna": 5916,
      "ĠJutorash": 5917,
      "Ġgum": 5918,
      "Ġgame": 5919,
      "Ġguy": 5920,
      "Ġganar": 5921,
      "Ġgagged": 5922,
      "Ġgolpo": 5923,
      "Ġgoogle": 5924,
      "Ġcoup": 5925,
      "Ġcopy": 5926,
      "Ġconsists": 5927,
      "Ġà¦¸à¦«à¦²à¦Ń": 5928,
      "à¦Ĺà¦łà¦ķà¦°": 5929,
      "à¦Ĺà¦łà¦¨à¦ķ": 5930,
      "Ġà¦¤à¦¤à¦Ł": 5931,
      "Ġà§¨à§®à§¯": 5932,
      "à§®à§®à§¦": 5933,
      "Ġ051": 5934,
      "Ġ052": 5935,
      "Ġ053": 5936,
      "Ġ054": 5937,
      "Ġ055": 5938,
      "Ġ056": 5939,
      "Ġ057": 5940,
      "Ġ058": 5941,
      "Ġ059": 5942,
      "Ġ071": 5943,
      "Ġ072": 5944,
      "Ġ073": 5945,
      "Ġ074": 5946,
      "Ġ075": 5947,
      "Ġ076": 5948,
      "Ġ077": 5949,
      "Ġ078": 5950,
      "Ġ079": 5951,
      "ersham": 5952,
      "Ġà§Ńà§¦à§©à§ª": 5953,
      "ĠSein": 5954,
      "âĢ¦âĢ¦..": 5955,
      "ourwon": 5956,
      "ĠAnna": 5957,
      "ĠAndro": 5958,
      "ĠAndorid": 5959,
      "ĠAnimists": 5960,
      "ĠAnthro": 5961,
      "à¦ıà¦ĩà¦ļà¦¡": 5962,
      "à¦ıà¦ĩà¦ļà¦ı": 5963,
      "à¦ıà¦ĩà¦ļà¦ıà¦¸à¦¸": 5964,
      "ORY": 5965,
      "OROL": 5966,
      "mentation": 5967,
      "Ġ30": 5968,
      "Ġ370": 5969,
      "Ġ305": 5970,
      "Ġ[[": 5971,
      "Ġ[..]": 5972,
      "Ġyoutu": 5973,
      "Ġyoun": 5974,
      "Ġyourwon": 5975,
      "à¦¾?...": 5976,
      "à¦ķà¦Ľà¦Ł": 5977,
      "à¦ĩà¦īà¦¤": 5978,
      "à¦ĩà¦īà¦¬": 5979,
      "Ġà¦¹à¦ľà¦°à¦¤": 5980,
      "Ġà¦¯à¦¤à¦Ł": 5981,
      "Ġà§¨à§Ńà§§": 5982,
      "à§¨à§¬à§Ńà§«à§©": 5983,
      "Ġà¦§à¦¨à¦ŀ": 5984,
      "à§«à§Ńà§®": 5985,
      "à§¬à§¦à§¬": 5986,
      "Ġà§©à§«à§¦à§¦": 5987,
      "Ġà§©à§©à§ª": 5988,
      "Ġ002": 5989,
      "Ġ004": 5990,
      "Ġ005": 5991,
      "Ġ006": 5992,
      "Ġ007": 5993,
      "Ġ009": 5994,
      "Ġthis": 5995,
      "Ġthir": 5996,
      "Ġthought": 5997,
      "ovements": 5998,
      "Ġcanbe": 5999,
      "Ġcansee": 6000,
      "à§§à§¯à§¬à§¬": 6001,
      "deos": 6002,
      "ĠIntro": 6003,
      "ĠIndia": 6004,
      "ĠInstagram": 6005,
      "ĠInformation": 6006,
      "ĠIntend": 6007,
      "ĠInstitut": 6008,
      "Ġà¦Ĩà¦ļà¦°à¦£à¦Ĺà¦¤": 6009,
      "103": 6010,
      "1056": 6011,
      "440": 6012,
      "831": 6013,
      "835": 6014,
      "ATAL": 6015,
      "beenPo": 6016,
      "tionary": 6017,
      "Ġdds": 6018,
      "Ġdsw": 6019,
      "Ġdiscre": 6020,
      "Ġdefi": 6021,
      "ĠYoucan": 6022,
      "à¦¾...-": 6023,
      "à¦¤à¦°à¦ķà¦°à¦¨": 6024,
      "Ġà¦ķà¦¬à¦°à¦¸": 6025,
      "à¦Łà¦«à¦°à¦®": 6026,
      "à§ĢâĢĻÂ»": 6027,
      "Ġà¦¨à¦ĵà¦°": 6028,
      "Ġà¦¨à¦ĵà¦¹": 6029,
      "à¦ĸà¦¬à¦°à¦Ł": 6030,
      "à¦ĸà¦¬à¦°ONLINE": 6031,
      "Ġà¦ĵà¦ķà¦¸à¦ķ": 6032,
      "Ġà¦Łà¦®à¦Łà¦®": 6033,
      "à¦¿à¥¤âĢĻâĢĻ": 6034,
      "à¦°à¦¸à¦¨à¦ķà¦²": 6035,
      "Ġ020": 6036,
      "Ġ021": 6037,
      "Ġ023": 6038,
      "Ġ025": 6039,
      "Ġ026": 6040,
      "Ġ027": 6041,
      "Ġ028": 6042,
      "à¦ħà¦ªà¦°à¦¦": 6043,
      "ĠPHP": 6044,
      "ĠPHOT": 6045,
      "ĠPrepaid": 6046,
      "Ġà¦¬à¦¹à¦¨à¦¸à¦¹": 6047,
      "Ġà§§à§¯à§¯à§¨": 6048,
      "Ġà§§à§¯à§¯à§«": 6049,
      "Ġà§§à§¯à§Ńà§¨": 6050,
      "Ġà§§à§¯à§Ńà§©": 6051,
      "Ġà§§à§¯à§Ńà§ª": 6052,
      "Ġà§§à§¯à§Ńà§¯": 6053,
      "Ġà§§à§¯à§Ńà§§": 6054,
      "Ġfreeb": 6055,
      "Ġà¦īà§İà¦¸à¦¬à¦ķ": 6056,
      "604": 6057,
      "605": 6058,
      "fie": 6059,
      "fiqu": 6060,
      "ginals": 6061,
      "gineer": 6062,
      "iring": 6063,
      "irse": 6064,
      "jog": 6065,
      "joy": 6066,
      "usa": 6067,
      "ĠOption": 6068,
      "ĠOffer": 6069,
      "ĠOrder": 6070,
      "ĠUSS": 6071,
      "ĠUna": 6072,
      "ĠUrdu": 6073,
      "ĠUSB": 6074,
      "ĠUpside": 6075,
      "Ġkill": 6076,
      "Ġkey": 6077,
      "Ġkotha": 6078,
      "Ġkalersangbad": 6079,
      "Ġlt": 6080,
      "Ġluck": 6081,
      "Ġlanguage": 6082,
      "Ġluego": 6083,
      "Ġlanding": 6084,
      "Ġllegar": 6085,
      "Ġmade": 6086,
      "Ġmake": 6087,
      "Ġmarket": 6088,
      "Ġmaintain": 6089,
      "Ġunder": 6090,
      "Ġunidad": 6091,
      "Ġunsealing": 6092,
      "Ġunivers": 6093,
      "Ġunirse": 6094,
      "à¦¼à¦Ĥà¥¤": 6095,
      "Ġà¦ĩà¦Ńà¦²": 6096,
      "à¦Ĩà¦ľà¦ĵ": 6097,
      "à§¨à§«à§¯": 6098,
      "à§¨à§®à§ª": 6099,
      "à§¨à§®à§«à§¦": 6100,
      "à§«à§¬à§§à§¨": 6101,
      "à§©à§¬à§©": 6102,
      "Ġà§¦à§§à§¯à§«à§¬à§¯": 6103,
      "Ġà§¦à§§à§¯à§§à§ªà§§à§¨à§¯à§¬": 6104,
      "Ġ1972": 6105,
      "Ġsubm": 6106,
      "ĠsubeenPo": 6107,
      "ĠPress": 6108,
      "Ġbeen": 6109,
      "Ġinformation": 6110,
      "Ġinfring": 6111,
      "ĠanySI": 6112,
      "à¦¾.)âĢĻ": 6113,
      "2018": 6114,
      "2015201": 6115,
      "358": 6116,
      "35429": 6117,
      "SID": 6118,
      "ddhists": 6119,
      "hikar": 6120,
      "riate": 6121,
      "Ġ720": 6122,
      "ĠXR": 6123,
      "ĠXS": 6124,
      "Ġcomo": 6125,
      "Ġcomment": 6126,
      "Ġcomputer": 6127,
      "Ġcombos": 6128,
      "Ġlaw": 6129,
      "Ġlast": 6130,
      "Ġimo": 6131,
      "Ġimpr": 6132,
      "Ġimple": 6133,
      "Ġimportant": 6134,
      "Ġimmem": 6135,
      "Ġà¦ıà¦ıà¦¸à¦Ĩà¦ĩ": 6136,
      "à¦Ĺà¦¸à¦ĩ": 6137,
      "Ġà¦¦à¦®à¦ķà¦²": 6138,
      "Ġà¦ħà¦¸à¦¹à¦¨": 6139,
      "Ġà¦ĩà¦Łà¦Ń": 6140,
      "à§©à§ªà§§à§«": 6141,
      "Ġà§«à§Ńà§¦à§¨": 6142,
      "Ġà§«à§Ńà§¦à§ª": 6143,
      "Ġà§«à§¬à§®": 6144,
      "Ġà§ªà§Ńà§¦": 6145,
      "Ġà§ªà§Ńà§©": 6146,
      "à§¨à§¦à§ªà§§": 6147,
      "Ġ120": 6148,
      "Ġ121": 6149,
      "Ġ123": 6150,
      "Ġà§®à§®à§¦": 6151,
      "ĠChat": 6152,
      "ĠChildren": 6153,
      "ĠChampions": 6154,
      "Ġà§¦à§§à§®à§ªà§ª": 6155,
      "287": 6156,
      "556": 6157,
      "92001": 6158,
      "ACSI": 6159,
      "ICE": 6160,
      "NET": 6161,
      "azine": 6162,
      "badhikar": 6163,
      "dsw": 6164,
      "galax": 6165,
      "lywood": 6166,
      "pology": 6167,
      "porter": 6168,
      "quiring": 6169,
      "yadores": 6170,
      "ĠGPR": 6171,
      "ĠGMDSS": 6172,
      "ĠGROU": 6173,
      "ĠGuide": 6174,
      "ĠKick": 6175,
      "ĠKashm": 6176,
      "ĠVol": 6177,
      "ĠVGM": 6178,
      "Ġobama": 6179,
      "Ġopen": 6180,
      "Ġenjoy": 6181,
      "à¦²à¦¡à¦Łà¦ķà¦®": 6182,
      "à¦®à¦°à¦£à¦¸à¦Ń": 6183,
      "Ġà¦¬à¦Łà¦¤à¦²": 6184,
      "Ġà¦¬à¦¶à¦¬à¦°": 6185,
      "Ġà¦¬à¦īà¦®": 6186,
      "à¦¦à¦¸à¦ĩ": 6187,
      "Ġà¦ªà¦Łà¦Ń": 6188,
      "Ġà¦Ĩà¦ĸà¦¡": 6189,
      "Ġà¦¨à¦ľà¦°à¦¦": 6190,
      "à§¨à§¦à§¦à§¨": 6191,
      "à§¨à§¦à§¦à§«": 6192,
      "Ġà§§à§§à§§": 6193,
      "Ġà§§à§§à§«": 6194,
      "Ġà§§à§§à§¬": 6195,
      "Ġà§§à§§à§Ńà§«": 6196,
      "à§Ńà§®à§¨à§ª": 6197,
      "Ġà¦Ĩà¦ľà¦®à¦²à¦ķ": 6198,
      "Ġà¦ĩà¦¨à¦«à¦°à¦®": 6199,
      "Ġà§ªà§¬à§®": 6200,
      "Ġà§ªà§¬à§¬": 6201,
      "Ġà§¬à§Ńà§Ńà§«": 6202,
      "Ġà§Ńà§®à§©": 6203,
      "Ġà§Ńà§®à§¯": 6204,
      "Ġ1755": 6205,
      "ĠSID": 6206,
      "ĠSafe": 6207,
      "ĠProduct": 6208,
      "ĠProkash": 6209,
      "Ġable": 6210,
      "Ġameric": 6211,
      "Ġcaption": 6212,
      "Ġcaptha": 6213,
      "orized": 6214,
      "Ġbunch": 6215,
      "ĠDefin": 6216,
      "ĠDepart": 6217,
      "ĠDevelo": 6218,
      "ĠDelete": 6219,
      "ĠWindows": 6220,
      "ĠSelections": 6221,
      "030": 6222,
      "231": 6223,
      "266": 6224,
      "363": 6225,
      "495": 6226,
      "496": 6227,
      "543": 6228,
      "545": 6229,
      "ECTOR": 6230,
      "acy": 6231,
      "acity": 6232,
      "ify": 6233,
      "ifur": 6234,
      "kalersangbad": 6235,
      "swors": 6236,
      "swinging": 6237,
      "tware": 6238,
      "tains": 6239,
      "Ġjerk": 6240,
      "ĠjQu": 6241,
      "Ġjuego": 6242,
      "Ġvs": 6243,
      "Ġvalo": 6244,
      "ĠatenciÃ": 6245,
      "Ġrejin": 6246,
      "Ġreading": 6247,
      "Ġreason": 6248,
      "Ġlost": 6249,
      "Ġà¦Ĭà¦ªà¦¦": 6250,
      "à¦¯à¦Łà¦ķà¦Ĺà¦£": 6251,
      "à¦¹à¦ĵà¦¬": 6252,
      "Ġà¦ħà¦¬à¦Ĺà¦¤à¦ķà¦°à¦¨": 6253,
      "Ġà§¬à§¯à§¨": 6254,
      "à¦ıà¦¸à¦Ĩà¦ĩà¦Ĩà¦°": 6255,
      "atures": 6256,
      "ounce": 6257,
      "ĠCertit": 6258,
      "ĠChechnya": 6259,
      "Ġchina": 6260,
      "Ġchannel": 6261,
      "Ġchased": 6262,
      "Ġplace": 6263,
      "Ġpackage": 6264,
      "ĠMail": 6265,
      "ĠMahad": 6266,
      "ĠMastercard": 6267,
      "unta": 6268,
      "icebd": 6269,
      "iciency": 6270,
      "Ġâĺ¯â": 6271,
      "ĠTrainers": 6272,
      "ĠRegional": 6273,
      "Ġcontains": 6274,
      "ĠAnytime": 6275,
      "Ġteens": 6276,
      "ĠProficiency": 6277,
      "Ġà¦Ķà¦·à¦§à¦¸à¦®": 6278,
      "à§®à§®à§Ńà§¦à§§à§¬à§¦": 6279,
      "à§®à§®à§Ńà§¦à§¬à§ªà§¦": 6280,
      "à§®à§®à§Ńà§¦à§§à§¬à§ª": 6281,
      "Ġ01784222266": 6282,
      "259": 6283,
      "298": 6284,
      "340": 6285,
      "347": 6286,
      "381": 6287,
      "382": 6288,
      "396": 6289,
      "398": 6290,
      "621": 6291,
      "695": 6292,
      "ARMY": 6293,
      "ASONIC": 6294,
      "CCleaner": 6295,
      "KING": 6296,
      "Moved": 6297,
      "MovieQu": 6298,
      "OCATAL": 6299,
      "PHP": 6300,
      "PRICE": 6301,
      "STIVE": 6302,
      "TERY": 6303,
      "TERNET": 6304,
      "YTE": 6305,
      "YTIC": 6306,
      "deskla": 6307,
      "eee": 6308,
      "finals": 6309,
      "gajog": 6310,
      "glish": 6311,
      "ixsense": 6312,
      "ians": 6313,
      "mery": 6314,
      "newsdeskla": 6315,
      "pricebd": 6316,
      "ruet": 6317,
      "saifur": 6318,
      "tras": 6319,
      "uestras": 6320,
      "udemy": 6321,
      "uthorized": 6322,
      "ĠZend": 6323,
      "ĠZNP": 6324,
      "Ġ__": 6325,
      "Ġlegal": 6326,
      "Ġleague": 6327,
      "Ġrael": 6328,
      "Ġrace": 6329,
      "Ġquick": 6330,
      "Ġquarter": 6331,
      "à¦Ĭà¦¦": 6332,
      "à§ĩâĢ¦!": 6333,
      "à¦¿à¦¾à§ĩ": 6334,
      "à¦¤à¦ļà¦°à¦ķ": 6335,
      "à¦¤à¦ļà¦°à¦¬": 6336,
      "à¦ķà¦¬à¦²à¦¸": 6337,
      "Ġà¦ķà¦¦à¦²à¦ª": 6338,
      "Ġà¦ķà¦¦à¦®à¦¤à¦²": 6339,
      "Ġà¦ķà¦®à¦¨à¦ĵà¦¯": 6340,
      "Ġà¦ıà¦«à¦ı": 6341,
      "à¦¶à¦§à¦°à¦¦": 6342,
      "Ġà¦¨à¦¬à¦¬à¦§": 6343,
      "à¦ĩà¦ĵà¦°à¦ª": 6344,
      "à¦Ĺà¦ªà§İ": 6345,
      "à¦Ĺà¦®à¦¨à¦ķ": 6346,
      "Ġà¦¹à¦ľà¦®à¦ľà¦¨": 6347,
      "Ġà¦¤à¦°à¦«à¦¦": 6348,
      "Ġà¦ħà¦®à¦°à¦¨": 6349,
      "à¦Ńà¦°à¦¤à¦¦": 6350,
      "Ġà¦°à¦£à¦¤à¦°": 6351,
      "Ġà¦°à¦£à¦¸à¦Ļ": 6352,
      "Ġà¦ļà¦®à¦ķà¦ª": 6353,
      "Ġà¦īà§İà¦ķà¦£": 6354,
      "Ġà¦Ľà¦Łà¦«à¦Ł": 6355,
      "Ġà¦Łà¦®à¦¸à¦¨": 6356,
      "Ġà¦Łà¦®à¦¸à¦¨à¦ķ": 6357,
      "à¦Ĩà¦¹à¦®à¦¦": 6358,
      "à§ªà§ªà§¦à§¬à§§à§§": 6359,
      "à§ªà§ªà§¦à§¬à§¦à§¬": 6360,
      "Ġtips": 6361,
      "Ġtienes": 6362,
      "ereporter": 6363,
      "ĠSENSI": 6364,
      "ĠSons": 6365,
      "Ġà¦Ĩà¦ĩà¦ıà¦¸à¦ª": 6366,
      "Ġà¦ıà¦®à¦ıà¦ľ": 6367,
      "Ġshah": 6368,
      "Ġshare": 6369,
      "ĠAccount": 6370,
      "ĠAcquiring": 6371,
      "ĠApps": 6372,
      "ĠApunta": 6373,
      "ĠCoque": 6374,
      "ĠCategory": 6375,
      "ĠCategories": 6376,
      "Ġadmin": 6377,
      "Ġadvtps": 6378,
      "Ġalread": 6379,
      "Ġapplication": 6380,
      "Ġapplied": 6381,
      "Ġchose": 6382,
      "Ġchoti": 6383,
      "à§§à§¬à§®à§«à§Ńà§®": 6384,
      "à§§à§¬à§¬à§«à§¯": 6385,
      "alogues": 6386,
      "à§§à§®à§¯à§¯à§§à§¬": 6387,
      "Ġmuch": 6388,
      "Ġmuzul": 6389,
      "Ġmodified": 6390,
      "ĠMagnifi": 6391,
      "ĠMagazine": 6392,
      "Ġfear": 6393,
      "Ġfeatures": 6394,
      "ĠBuilding": 6395,
      "ĠBuddhists": 6396,
      "ĠEngineer": 6397,
      "ĠEnglish": 6398,
      "ĠINFOR": 6399,
      "ĠINTERNET": 6400,
      "ĠImportant": 6401,
      "ĠImsaifur": 6402,
      "ĠThemes": 6403,
      "chase": 6404,
      "ropriate": 6405,
      "ĠWorks": 6406,
      "ĠHTC": 6407,
      "ĠHTML": 6408,
      "ĠHACKER": 6409,
      "ĠHACKING": 6410,
      "Ġwebsite": 6411,
      "Ġwebsites": 6412,
      "Ġà¦Ĩà¦§à¦ĺà¦£": 6413,
      "Ġexam": 6414,
      "Ġextra": 6415,
      "Ġà§¦à§§à§®à§§à§¯à§¦à§¯": 6416,
      "Ġà§¦à§§à§®à§§à§¯à§§à§®à§¯à§¯à§§à§¬": 6417,
      "Ġgroup": 6418,
      "Ġgroups": 6419,
      "Ġà¦¯à¦¤Åĵà¦¶": 6420,
      "Ġdescri": 6421,
      "Ġdeshjo": 6422,
      "Ġdonde": 6423,
      "Ġdemost": 6424,
      "Ġdemuestras": 6425,
      "Ġtitties": 6426,
      "Ġtittyfuck": 6427,
      "Ġmassive": 6428,
      "à§«à§¬à§¯à§Ń": 6429,
      "ĠPrivate": 6430,
      "ĠPrivacy": 6431,
      "ĠChristmas": 6432,
      "ĠChristians": 6433,
      "duction": 6434,
      "ĠView": 6435,
      "ĠVideos": 6436,
      "ĠCertified": 6437,
      "ĠCertificate": 6438,
      "ĠCheckout": 6439,
      "Ġplayed": 6440,
      "Ġpackagesoffer": 6441,
      "Ġâĺİâĺĳï¸ı": 6442,
      "Ġâĺİâľħ": 6443,
      "ĠProfessional": 6444,
      "ĠProfessors": 6445,
      "408225": 6446,
      "9992001": 6447,
      "ABYTE": 6448,
      "Archangel": 6449,
      "Approv": 6450,
      "Author": 6451,
      "Business": 6452,
      "Bangladesher": 6453,
      "CRIBE": 6454,
      "Change": 6455,
      "Clixsense": 6456,
      "CoP": 6457,
      "Category": 6458,
      "Dialogues": 6459,
      "Empow": 6460,
      "EBOOK": 6461,
      "FrenesÃŃ": 6462,
      "GXcTNMu": 6463,
      "Hdw": 6464,
      "Ichchham": 6465,
      "IFICATION": 6466,
      "Morgan": 6467,
      "Meta": 6468,
      "Maze": 6469,
      "PANY": 6470,
      "QifU": 6471,
      "RonlineARMY": 6472,
      "SiO": 6473,
      "SRoy": 6474,
      "ToT": 6475,
      "Thein": 6476,
      "TPHONE": 6477,
      "Vision": 6478,
      "WeRonlineARMY": 6479,
      "ZCPE": 6480,
      "airs": 6481,
      "barisal": 6482,
      "basar": 6483,
      "banglatribune": 6484,
      "cups": 6485,
      "cinating": 6486,
      "capcha": 6487,
      "cutpricebd": 6488,
      "crimereporter": 6489,
      "djvu": 6490,
      "gram": 6491,
      "groups": 6492,
      "lished": 6493,
      "misti": 6494,
      "nAlthough": 6495,
      "peration": 6496,
      "ployment": 6497,
      "passwors": 6498,
      "ralia": 6499,
      "risingbd": 6500,
      "tokjhalmisti": 6501,
      "word": 6502,
      "âĻ£": 6503,
      "Ġ..'": 6504,
      "Ġovers": 6505,
      "Ġdoa": 6506,
      "Ġeditor": 6507,
      "Ġemployment": 6508,
      "Ġessbarisal": 6509,
      "Ġolvides": 6510,
      "Ġresiding": 6511,
      "Ġrimming": 6512,
      "ĠYemen": 6513,
      "Ġqunut": 6514,
      "Ġruns": 6515,
      "Ġïģ¬": 6516,
      "ĠðŁĴ¬": 6517,
      "à¦¾....": 6518,
      "à¦¿âĢ¦âĢ¦âĢ¦âĢ¦âĢ¦âĢ¦âĢ¦âĢ¦": 6519,
      "à¦ķà¦¸à¦¬à¦ľ": 6520,
      "Ġà¦ķà¦¨à¦ķà¦¨": 6521,
      "Ġà¦ķà¦¸à¦ķà¦¨à¦ķà¦ª": 6522,
      "Ġà¦¸à¦¹à¦®à¦°": 6523,
      "à¦¦à¦°à¦¸à¦ľ": 6524,
      "à¦Łà¦ľà¦¨à¦¦": 6525,
      "à§Ģ------": 6526,
      "Ġà¦Ĩà¦īà¦¯": 6527,
      "Ġà¦®à¦ļà¦®à¦ļ": 6528,
      "Ġà¦®à¦Ĺà¦ľà¦§": 6529,
      "Ġà¦ıà¦°à¦®à¦§": 6530,
      "Ġà¦ıà¦¤à¦¬à¦¡": 6531,
      "Ġà¦¨à¦ĸà¦¦à¦¨": 6532,
      "à¦Ĺà¦¸à¦¹à¦¯": 6533,
      "Ġà¦¤à¦Ľà¦¨à¦Ľ": 6534,
      "Ġà¦ħà¦¬à¦¨à¦¤": 6535,
      "Ġà¦°à¦ĵà¦¶à¦¨": 6536,
      "Ġà¦¯à¦Īà¦«": 6537,
      "Ġà¦Ĺà§İà¦¬": 6538,
      "Ġà¦Ĺà¦¤à¦¬à¦Ľà¦°": 6539,
      "Ġà¦Ĺà¦Ĺà¦¨à¦ļ": 6540,
      "Ġà¦ļà¦Łà¦ķà¦¦": 6541,
      "Ġà¦ļà¦ķà¦¬à¦°à¦ķà¦¤": 6542,
      "à§¦à§§à§¯à§®à§§à§¯": 6543,
      "à§¦à§§à§«à§«à§§à§¦à§Ńà§«à§Ń": 6544,
      "Ġà¦ıà¦ķà¦¤à¦°à¦«": 6545,
      "Ġà¦ıà¦ķà¦ĩà¦¸à¦Ļ": 6546,
      "Ġà¦«à¦²à¦¬à¦¤": 6547,
      "Ġà¦ĸà¦°à¦®à¦ª": 6548,
      "à¦ıà¦ıà¦²à¦¸": 6549,
      "à¦ıà¦ĩà¦¸à¦ĵ": 6550,
      "à¦īà¦ªà¦ķà¦°à¦£": 6551,
      "à¦īà¦ħà¦¡": 6552,
      "à¦īLeave": 6553,
      "à¦Ĩà¦®à¦¦à¦ĩ": 6554,
      "à¦Ĩà¦°à¦ĩà¦ī": 6555,
      "à¦Ĩà¦¦à¦®à¦ľ": 6556,
      "Ġà§¨à§¨à§¦à§«": 6557,
      "à¦°à¦£à¦¬à¦¶à¦¤": 6558,
      "Ġà¦§à¦¨à¦ľà¦ĩà¦²": 6559,
      "à§«à§§à§¨à§©": 6560,
      "à§«à§«à§¦à§§à§§à§®à§ª": 6561,
      "à§«à§¨à§Ńà§Ńà§®": 6562,
      "à§©à§§à§Ńà§®à§§à§¬": 6563,
      "à§©à§©à§¨à§¯à§©": 6564,
      "à§ªà§®à§¯à§«à§¨à§Ńà§Ńà§®": 6565,
      "à§Ńà§¨à§¦à§©à§¦à§¦": 6566,
      "Ġà§©à§ªà§¦à§©": 6567,
      "Ġà¦¸à¦¹India": 6568,
      "Ġà§«à§¨à§Ńà§¨": 6569,
      "Ġà§¦à§§à§«à§«à§§": 6570,
      "Ġtarget": 6571,
      "Ġthose": 6572,
      "Ġtaken": 6573,
      "Ġtribbing": 6574,
      "Ġtougher": 6575,
      "Ġtrade": 6576,
      "à¦ıà¦¸à¦ıà¦®à¦ıà¦®à¦ĩà¦ī": 6577,
      "à¦ıà¦¸à¦ıà¦ĩà¦ļà¦ıà¦®": 6578,
      "Ġà§¯à§¨à§¯à§«": 6579,
      "Ġà§Ńà§§à§§à§¦à§®à§¯à§©": 6580,
      "Ġ18435429": 6581,
      "Ġ201720162015201": 6582,
      "ĠSouth": 6583,
      "ĠShare": 6584,
      "ĠSumon": 6585,
      "ĠSigned": 6586,
      "ĠSMARTPHONE": 6587,
      "ĠSUBSCRIBE": 6588,
      "ĠSYSTEM": 6589,
      "ĠScale": 6590,
      "ĠShorkarer": 6591,
      "ĠSomalia": 6592,
      "ĠSpelling": 6593,
      "Ġà¦Ĩà¦ĩà¦Ĩà¦°à¦ľ": 6594,
      "Ġà¦Ĩà¦ĩà¦ıà¦Ĩà¦°à¦¸": 6595,
      "ilitate": 6596,
      "Ġà¦ıà¦®à¦Ĩà¦ĩà¦¬": 6597,
      "Ġsheersham": 6598,
      "Ġsoftware": 6599,
      "Ġsemis": 6600,
      "Ġselfie": 6601,
      "Ġsummery": 6602,
      "Ġsafe": 6603,
      "Ġshall": 6604,
      "Ġsteps": 6605,
      "Ġspirit": 6606,
      "Ġservices": 6607,
      "Ġà§¯à§«à§®à§®à§©à§¯à§¯": 6608,
      "Ġà§¯à§«à§¬à§¯à§¬à§¨à§«": 6609,
      "ĠPlaced": 6610,
      "ĠPurify": 6611,
      "ĠPURIFICATION": 6612,
      "ĠPolicy": 6613,
      "ĠPackage": 6614,
      "ĠPANASONIC": 6615,
      "ĠPermalink": 6616,
      "ĠAdelaide": 6617,
      "ĠAppropriate": 6618,
      "ĠAustralia": 6619,
      "ĠAffairs": 6620,
      "ĠACCESS": 6621,
      "ĠAPPLE": 6622,
      "ĠAboriginals": 6623,
      "ĠAtheists": 6624,
      "ĠCurrent": 6625,
      "ĠCapacity": 6626,
      "ĠChoti": 6627,
      "ĠCooperation": 6628,
      "ĠCourse": 6629,
      "ĠCOMPANY": 6630,
      "ĠCable": 6631,
      "ĠComience": 6632,
      "ĠClick": 6633,
      "Ġactive": 6634,
      "Ġadsense": 6635,
      "Ġapoyadores": 6636,
      "Ġaynun": 6637,
      "Ġagainst": 6638,
      "Ġamaount": 6639,
      "Ġcures": 6640,
      "Ġcuties": 6641,
      "Ġctgpost": 6642,
      "Ġcertainly": 6643,
      "Ġbollywood": 6644,
      "Ġboobs": 6645,
      "Ġbrunettes": 6646,
      "Ġpunisha": 6647,
      "Ġpros": 6648,
      "Ġpurchase": 6649,
      "Ġphase": 6650,
      "Ġperson": 6651,
      "Ġproud": 6652,
      "Ġpdsonline": 6653,
      "Ġprestar": 6654,
      "Ġpuntos": 6655,
      "Ġpublished": 6656,
      "Ġpaste": 6657,
      "Ġpeople": 6658,
      "Ġphone": 6659,
      "Ġprofesional": 6660,
      "Ġpuede": 6661,
      "Ġpatadas": 6662,
      "Ġnumber": 6663,
      "Ġhiccups": 6664,
      "Ġholy": 6665,
      "Ġhappy": 6666,
      "stnewsbd": 6667,
      "Ġà§¦à§§à§Ńà§§à§¨à§¨à§¯à§©à§¦à§Ńà§¯": 6668,
      "Ġà§¦à§§à§Ńà§¨à§¦à§¦à§¦à§¯à§¬à§®à§«": 6669,
      "Ġà§¦à§§à§Ńà§§à§Ńà§¨à§Ńà§§à§©à§¯à§©": 6670,
      "Ġà§¦à§§à§Ńà§§à§¬à§®à§Ńà§«à§¦à§®à§¬": 6671,
      "Ġmiss": 6672,
      "Ġmidnight": 6673,
      "Ġmmdctgbd": 6674,
      "Ġminutes": 6675,
      "Ġmanagement": 6676,
      "ĠMission": 6677,
      "ĠMEMORY": 6678,
      "ĠMOTOROL": 6679,
      "ĠManobadhikar": 6680,
      "ĠMaritime": 6681,
      "Ġtheapplication": 6682,
      "Ġinternational": 6683,
      "Ġinverted": 6684,
      "Ġfascinating": 6685,
      "Ġanchor": 6686,
      "ĠDictionary": 6687,
      "ĠDelray": 6688,
      "ĠDown": 6689,
      "ĠDETECTOR": 6690,
      "ĠDesignAlthough": 6691,
      "Ġà§§à§ªà§¬à§¦à§ª": 6692,
      "ĠBasic": 6693,
      "ĠBATTERY": 6694,
      "ĠBosnia": 6695,
      "ĠBitcoin": 6696,
      "ĠBlockchain": 6697,
      "ĠEnsure": 6698,
      "ĠEgypt": 6699,
      "ĠEmergency": 6700,
      "ĠExemption": 6701,
      "ĠIsrael": 6702,
      "ĠILTS": 6703,
      "Ġà§¯à§«à§«à§©à§¯à§«à§¨": 6704,
      "ĠTurned": 6705,
      "ĠTutorial": 6706,
      "ĠThailand": 6707,
      "ĠTERABYTE": 6708,
      "ĠTigers": 6709,
      "ĠTrophy": 6710,
      "ĠTelevision": 6711,
      "ĠThursday": 6712,
      "à¦Īà¦Ĭà¦īà¦ħà¦¡": 6713,
      "ĠWATER": 6714,
      "ĠWebsite": 6715,
      "ĠWhatsapp": 6716,
      "ĠWednesday": 6717,
      "ĠFahmida": 6718,
      "ĠFACEBOOK": 6719,
      "ĠFacilitate": 6720,
      "ĠHome": 6721,
      "ĠHindus": 6722,
      "ĠLOCATION": 6723,
      "ĠLynch": 6724,
      "ĠLevenger": 6725,
      "ĠLundegaard": 6726,
      "Ġà§¦à§§à§Ńà§§à§§à§¨à§®à§¬à§¦à§§à§©": 6727,
      "Ġà§¦à§§à§Ńà§§à§§à§¬à§®à§¦à§ªà§©à§¨": 6728,
      "ĠNigeria": 6729,
      "ĠNOKIA": 6730,
      "ĠRANDOM": 6731,
      "ĠRESISTIVE": 6732,
      "ĠResult": 6733,
      "Ġwashington": 6734,
      "Ġwhich": 6735,
      "ĠePoems": 6736,
      "Ġebony": 6737,
      "à§¦à§§à§Ńà§®à§§à§®à§©à§©à§¨à§¯à§©": 6738,
      "à§¦à§§à§Ńà§§à§¦à§¯à§¬à§¨à§Ńà§¨à§ª": 6739,
      "Ġà§¦à§§à§®à§§à§¯à§¬à§¨à§¬à§Ńà§«à§©": 6740,
      "Ġà§¦à§§à§®à§§à§Ńà§¨à§¦à§«à§Ńà§§à§¨": 6741,
      "Ġà§¦à§§à§®à§§à§®à§§à§«à§Ńà§¬à§ªà§®": 6742,
      "ĠJava": 6743,
      "ĠJutorashtro": 6744,
      "Ġgumption": 6745,
      "Ġcouples": 6746,
      "Ġcopyright": 6747,
      "ĠAndroid": 6748,
      "ĠAnthropology": 6749,
      "Ġyoutube": 6750,
      "Ġyounger": 6751,
      "Ġthird": 6752,
      "Ġthoughts": 6753,
      "ĠIntroduction": 6754,
      "ĠIntended": 6755,
      "ĠInstitute": 6756,
      "Ġdswctg": 6757,
      "Ġdiscretion": 6758,
      "ĠPHOTOCATAL": 6759,
      "Ġfreebitco": 6760,
      "fiquer": 6761,
      "ĠUSSR": 6762,
      "ĠUnauthorized": 6763,
      "Ġkeyword": 6764,
      "Ġunderlines": 6765,
      "Ġuniversidad": 6766,
      "Ġà§¦à§§à§¯à§«à§¬à§¯à§§à§¬à§¬à§«à§¯": 6767,
      "Ġà§¦à§§à§¯à§§à§ªà§§à§¨à§¯à§¬à§¯à§¯": 6768,
      "Ġsubmit": 6769,
      "ĠsubeenPosted": 6770,
      "Ġinfringes": 6771,
      "ĠanySIM": 6772,
      "Ġimprovements": 6773,
      "Ġimplementation": 6774,
      "Ġimmemorial": 6775,
      "galaxy": 6776,
      "ĠGPRS": 6777,
      "ĠGROUP": 6778,
      "ĠGuidelines": 6779,
      "ĠKicker": 6780,
      "ĠKashmir": 6781,
      "Ġopening": 6782,
      "ĠProkashon": 6783,
      "Ġamericano": 6784,
      "ĠDefined": 6785,
      "ĠDepartment": 6786,
      "ĠDevelopment": 6787,
      "Ġjerking": 6788,
      "ĠjQuery": 6789,
      "Ġvalobasar": 6790,
      "ĠatenciÃ³n": 6791,
      "Ġrejinab": 6792,
      "ĠCertiticate": 6793,
      "ĠMahadi": 6794,
      "Ġâĺ¯âŀ¤": 6795,
      "MovieQuiz": 6796,
      "newsdesklastnewsbd": 6797,
      "ĠSENSITIVE": 6798,
      "Ġadvtpsangbad": 6799,
      "Ġalready": 6800,
      "Ġmuzulfiquer": 6801,
      "ĠMagnifiers": 6802,
      "ĠINFORMATION": 6803,
      "Ġà§¦à§§à§®à§§à§¯à§¦à§¯à§Ńà§®à§¨à§ª": 6804,
      "Ġdescription": 6805,
      "Ġdeshjogajog": 6806,
      "Ġdemostrar": 6807,
      "Ġtittyfucking": 6808,
      "Ġpackagesoffered": 6809,
      "Approval": 6810,
      "Empowerment": 6811,
      "Ichchhamoti": 6812,
      "à§¦à§§à§¯à§®à§§à§¯à§§à§¦à§ªà§§à§¬": 6813,
      "à§¦à§§à§«à§«à§§à§¦à§Ńà§«à§Ńà§«à§¦": 6814,
      "à§«à§«à§¦à§§à§§à§®à§ªà§§": 6815,
      "Ġ184354296": 6816,
      "Ġ2017201620152014": 6817,
      "Ġsheershamedia": 6818,
      "Ġpunishable": 6819,
      "ĠMOTOROLLA": 6820,
      "ĠPHOTOCATALYTIC": 6821
    },
    "merges": [
      "à ¦",
      "à §",
      "Ġ à¦",
      "à¦ ¾",
      "à¦ °",
      "à§ ĩ",
      "à§ į",
      "à¦ ¿",
      "à¦ ¨",
      "à¦ ¯",
      "à¦ ¤",
      "à¦ ķ",
      "à¦ ²",
      "à¦ ¼",
      "à¦ ¬",
      "à¦ ®",
      "à§ ģ",
      "Ġà¦ ķ",
      "à¦ ¸",
      "Ġà¦ ¸",
      "Ġà¦ ¬",
      "à¦ ¦",
      "à§ ĭ",
      "Ġà¦ ª",
      "à¦ Ł",
      "à¦ ª",
      "à ¥",
      "à¥ ¤",
      "à§ Ģ",
      "Ġà¦ Ĩ",
      "Ġà¦ ®",
      "Ġà¦ ı",
      "à¦ ľ",
      "à¦ ¶",
      "Ġà¦ ¨",
      "à¦ ĩ",
      "à¦ Ĺ",
      "Ġà¦ ¦",
      "Ġà¦ ¹",
      "à¦ Ľ",
      "à¦¼ à§ĩ",
      "à¦ ¹",
      "à¦ ¡",
      "Ġà¦ķ à¦°",
      "à¦ ·",
      "à¦¼ à¦¾",
      "Ġà¦ ľ",
      "à¦ §",
      "Ġà¦ ¤",
      "Ġà¦ ħ",
      "à¦ ļ",
      "Ġ à§",
      "à¦ Ń",
      "à¦ Ĥ",
      "Ġà¦ °",
      "à¦ ĸ",
      "à¦ ¥",
      "Ġà¦ ¯",
      "à¦ £",
      "à¦ ĵ",
      "Ġà¦ ¶",
      "Ġà¦ Ĺ",
      "Ġà¦ ļ",
      "à§ĩ à¥¤",
      "Ġà¦ ĵ",
      "â Ģ",
      "à§ ¦",
      "Ġà¦ ī",
      "Ġà¦ Ń",
      "Ġà¦ª à¦°",
      "Ġà¦ı à¦ķ",
      "à¦ «",
      "Ġà¦ «",
      "Ġà¦¸ à¦®",
      "Ġà¦¹ à¦¯",
      "Ġà¦ ĩ",
      "§ à§",
      "Ġà¦ ²",
      "Ġà¦ ¥",
      "à§ ĥ",
      "Ġà¦ ĸ",
      "à§ Ĥ",
      "à¦° à¦¤",
      "Ġà¦ Ľ",
      "Ġ (",
      "à¦ Ļ",
      "à¦ ı",
      "Ġà¦ħ à¦¨",
      "Ġà¦Ĩ à¦®",
      "à¦ ī",
      "à¦ ģ",
      "Ġà¦ľ à¦¨",
      "à¦° à¦ķ",
      "Ġà¦¬ à¦²",
      "à¦¬ à¦°",
      "à¦ ł",
      "à¦ĵ à¦¯",
      "Ġà¦ Ł",
      "à§ §à§",
      "âĢ Ļ",
      "à¦ Ĩ",
      "à¦ ŀ",
      "Ġà§ ¨",
      "Ġà¦ ¡",
      "Ġà¦ı à¦¬",
      "à¦° à¦£",
      "à§ Į",
      "Ġà¦Ĩ à¦°",
      "à¦¾ à¦ģ",
      "à¦ª à¦¨",
      "à¦ľ à¦¨",
      "à¦¼ à¥¤",
      "à¦¾ à¥¤",
      "à¦® à¦¨",
      "Ġà¦ı à¦ĩ",
      "à§ ¨",
      "Ġà¦ §",
      "à¦ª à¦°",
      "Ġ âĢ",
      "à¦ ĥ",
      "Ġà¦ ĺ",
      "à¦¤ à¦°",
      "Ġà¦® à¦¨",
      "à¦¿ à¥¤",
      "Ġà¦ıà¦ķ à¦Ł",
      "à¦¼ à¦¿",
      "à§ «",
      "à¦ķ à¦°",
      "à§ ©",
      "Ġ Â",
      "Ġà¦ķà¦° à¦¤",
      "à¦ª à¦¤",
      "Ġà¦¹ à¦¬",
      "à¦¶ à¦¨",
      "à§ĩ ,",
      "0 1",
      "à¦¬ à¦¸",
      "Ġà¦ī à¦ª",
      "Ġà§ §à§",
      "à¦¬ à¦¨",
      "à¦ļ à¦¨",
      ". .",
      "Ġ 2",
      "Ġà¦Ĩ à¦¸",
      "à¦° à¦®",
      "Ġà¦Ĩ à¦²",
      "à¦¿ à¦Ĥ",
      "à¦ĩ à¦²",
      "à¦ĩ à¦¨",
      "Ġ2 01",
      "à¦¾ ,",
      "à§ Ī",
      "Ġà¦ı à¦°",
      "à¦² à¦ķ",
      "Ġà¦¸à¦® à¦¯",
      "Ġà¦Ĩ à¦Ĺ",
      "Ġà§¨ à§¦",
      "Ġà¦ī à¦¦",
      "Ġà¦Ĩ à¦¬",
      "ĠâĢ ĺ",
      "à¦² à¦¨",
      "à¦ĸ à¦¨",
      "à¦ ĺ",
      "à¦° à¦¬",
      "Ġà¦® à¦§",
      "à§ ®",
      "Ġà¦¹ à¦²",
      "à¦° à¦¸",
      "Ġà¦ħ à¦Ń",
      "à§ ª",
      "Ġà¦¹ à¦¤",
      "à¦° à¦¦",
      "Ġà¦ķ à¦®",
      "à§ ¯",
      "Ġà§ §",
      "à§ İ",
      "à¦¬ à¦¹",
      "Ġà¦Ĩ à¦ªà¦¨",
      "Ġà¦§ à¦°",
      "Ġà¦¸ à¦¬",
      "à¦¹ à¦®",
      "à§¦ à§¦",
      "à¦¿ ,",
      "à¦¦ à¦¨",
      "à¦® à¦²",
      "Ġà¦ı à¦¸",
      "à§ Ń",
      "à¦¦ à¦°",
      "à¦Ĺ à¦°",
      "Ġà¦¸ à¦¨",
      "Ġà¦¸ à¦Ļ",
      "Ġà¦ļ à¦²",
      "à¦® à¦¤",
      "à§ §",
      "Ġà§¨à§¦ à§§à§",
      "à§ ¬",
      "Ġà¦ª à¦¡",
      "Ġ :",
      "à¦¤ à¦¬",
      "à¦¸ à¦²",
      "à¦¦ à¦ķ",
      "à§ĭ âĢĻ",
      "à¦ķ à¦²",
      "à¦¾ à¦Ĥ",
      "Ġà¦ ¢",
      "à¦Ł à¦¨",
      "Ġà¦Ĩ à¦¨",
      "Ġà§ ©",
      "à¦Ľ à¦°",
      "Ġà¦¦ à¦²",
      "à¦¬ à¦²",
      "à¦· à¦£",
      "à¦ī à¦¨",
      "à¦¹ à¦¤",
      "à¦¯ à¦®",
      "Ġà¦¬ à¦°",
      "Ġ -",
      "à¦¤ à¦¨",
      "Ġà¦ĵ à¦¯",
      "à¦² à¦¤",
      "à¦¼ à§ĭ",
      "Ġà¦¸ à¦¹",
      "à¦¼ ,",
      "à¦ª à¦ķ",
      "à¦Ĺ à¦ŀ",
      "à¦· à¦¯",
      "Ġà¦ķ à¦¥",
      "Ġà¦ħ à¦°",
      "Ġà¦® à¦¹",
      "à¦ĩ à¦Ł",
      "Ġà¦ı à¦²",
      "Ġà¦Ľ à¦¬",
      ".. .",
      "ĠÂ ·",
      "i n",
      "à¦° à¦¯",
      "à¦¤ à¦®",
      "Ġà¦¬ à¦Ľà¦°",
      "Ġà¦Ĩ à¦¦",
      "Ġà¦īà¦ª à¦ľ",
      "à¦¯ à¦ķ",
      "à¦² à¦¯",
      "Ġà§ «",
      "Ġà¦Ĩà¦® à¦°",
      "Ġà¦Ĩ à¦ľ",
      "à¦¸ à¦¬",
      "Ġà¦¸ à¦Ń",
      "Ġà¦ħ à¦§",
      "à¦° à¦§",
      "à¦¸ à¦®",
      "à¦° à¦¶",
      "Ġà§ ¦",
      "Ġà¦ĩ à¦¸à¦²",
      "à¦ Ŀ",
      "Ġà¦Ĺ à¦¤",
      "Ġà¦ĩ à¦¨",
      "à¦¾ -",
      "à¦¯ à¦¬à¦¹",
      "à¦¼ à§Ģ",
      "à¦¨ à¦¯",
      "à¦Ł à¦ķ",
      "Ġà¦¤ à¦¬",
      "à¦° à¦¹",
      "Ġà¦¸ à¦°à¦ķ",
      "Ġà¦ı à¦¨",
      "Ġà§ ª",
      "Ġà¦ı à¦ĸà¦¨",
      "Ġ 0",
      "à¦ķ à¦Ł",
      "Ġà¦Ĩ à¦Ľ",
      "à¦¥ à¦®",
      "à¦¨ à¦¤",
      "Ġà¦¸ à¦°",
      "Ġà¦® à¦¤",
      "Ġà¦° à¦¯",
      "à¦ı à¦¨",
      "a n",
      "à¦® à¦°",
      "à¦ĩ à¦ķ",
      "Ġà¦¹ à¦ļ",
      "à¦¶ à¦ķ",
      "Ġà¦¬ à¦¨",
      "à¦Ĺ à¦¤",
      "Ġ t",
      "à¦° à¦¨",
      "à¦² à¦¬",
      "à¦¸ à¦¹",
      "Ġà¦¨ à¦¯",
      "Ġà¦ħ à¦¬",
      "Ġà¦ı à¦Ł",
      "Ġà¦ĺ à¦Łà¦¨",
      "à¦° à¦¥à¦®",
      "Ġà¦¹ à¦ĵà¦¯",
      "e r",
      "à¦ ħ",
      "à¦° à¦ª",
      "à¦¯ à¦¨",
      "Ġà¦ķà¦° à¦¬",
      "Ġà¦ħ à¦¬à¦¸",
      "Ġà¦ī à¦¨",
      "à¦® à¦¸",
      "Ġà¦Ĩ à¦ķ",
      "Ġà¦Ĩ à¦ĵà¦¯",
      "Ġà§ ¬",
      "Ġà¦° à¦¹à¦®",
      "à¦ı à¦¸",
      "à¦¬ à¦¬",
      "Ġà¦ķ à¦²",
      "Ġà¦ī à¦¤",
      "Ġà§§ à§¦",
      "à¦¯ à¦¬à¦¸",
      "à¦® à¦ķ",
      "Ġà¦Ĩ à¦¶",
      "Ġà¦ı à¦¤",
      "Ġà¦ħ à¦¸",
      "Ġà§ ¯",
      "e s",
      "Ġà¦ª à¦¦",
      "à¦ĩ à¦¸",
      "Ġà¦ı à¦®à¦¨",
      "à¦¨ à¦ķ",
      "à¦¹ à¦°",
      "Ġà¦ķà¦° à¦Ľ",
      "Ġà§ Ń",
      "Ġà¦¸à¦¨ à¦¦",
      "Ġ à¥¤",
      "à¦¬ à¦ķ",
      "c o",
      "Ġà¦¤ à¦¥",
      "à§İ à¦¸",
      "à¦° à¦ļ",
      "à¦¨ à¦¬",
      "Ġà¦¨ à¦¤",
      "à¦§ à¦¨",
      "à¦¨ à¦Ł",
      "à¦ī à¦ľ",
      "à§¨ à§¦",
      "Ġ201 8",
      "o n",
      "à¦® à¦ķà¦°",
      "à¦¦ à¦ª",
      "Ġà¦Ĩ à¦ĩà¦¨",
      "à¦ ¢",
      "à¦¸ à¦ª",
      "à¦ı à¦®",
      "à¦ıà¦¨ à¦ª",
      "à¦¨ à¦ķà¦°",
      "Ġà¦¸ à¦¦",
      "Ġà¦¬ à¦¸",
      "Ġà¦ħ à¦ķ",
      "ĠÂ «",
      "- -",
      "Ġ 1",
      "à¦· à¦ķ",
      "Ġà¦ľ à¦®",
      "à¦¯ à¦¬",
      "à¦¤ à¦ķ",
      "Ġà¦¬ à¦¡",
      "Ġà¦ħ à¦¤",
      "Ġà¦ĵ à¦ĩ",
      "à¦® à¦¦",
      "à¦¸ à¦¨",
      "Ġà§ ®",
      "à¦ı à¦°",
      "e n",
      "âĢ Į",
      "Ġà¦« à¦²",
      "Ġà¦ĩ à¦¤",
      "Ġà¦ĩ à¦īà¦¨",
      "Ġà¦² à¦ķ",
      "Ġà¦ Ĳ",
      "à¦¬ à¦¤",
      "à¦® à¦¯",
      "Ġà¦ķ à¦¯",
      "Ġà¦¸ à¦ķ",
      "à§Ģ ,",
      "Ġà¦Ĩ à¦¯",
      "à¦ļ à¦²",
      "Ġà¦¯ à¦¦",
      "Ġà¦¸à¦¦ à¦¸",
      "Ġà¦ħ à¦ª",
      "ĠÂ »",
      "co m",
      "à¦° à¦Ĺ",
      "à¦ĸ à¦¤",
      "o v",
      "à¦ķ à¦¤",
      "à¦ķ à¦¬",
      "à¦¸ à¦¦",
      "Ġà¦ħ à¦«",
      "d o",
      "à¦° à¦²",
      "à¦ĩ à¦¯",
      "Ġà¦¸à¦® à¦¸",
      "Ġ201 7",
      "a t",
      "Ġ S",
      "Ġà¦ ł",
      "Ġà¦¬ à¦¯",
      "Ġ201 6",
      "à¦ķ à¦¦",
      "Ġà¦¬ à¦ķ",
      "Ġà¦ıà¦¸ à¦¬",
      "Ġ ...",
      "à¦° à¦Ń",
      "à¦¨ à¦¨",
      "à§Ģ à¥¤",
      "Ġà¦Ĩ à¦¹à¦®",
      "Ġà¦¹ à¦ķ",
      "âĢ ¦",
      "à¦« à¦²",
      "à§§à§ Ń",
      "r e",
      "Ġà¦ª à¦ķ",
      "Ġà¦Ĩ à¦ĩ",
      "à¦ľ à¦¶",
      "Ġà¦ķà¦° à¦²",
      "* *",
      "i l",
      "à¦¯ à¦¤",
      "Ġà¦ı à¦®",
      "à¦¸ à¦ķ",
      "à¦Ł à¦Ĺ",
      "à¦ī à¦Ł",
      "m a",
      "Ġ s",
      "à¦° à¦ĩ",
      "à¦² à¦Ł",
      "Ġà¦¨ à¦Ń",
      "à¦¹ à¦¸",
      "Ġà¦Ĩà¦° à¦ĵ",
      "o u",
      "à¦ķ à¦®",
      "à¦® à¦¬",
      "Ġà¦ķ à¦¬",
      "à§ĭ à¥¤",
      "à¦ª à¦¦",
      "Ġà¦ĸ à¦¬à¦°",
      "à¦° à¦Ł",
      "à¦¿ à¦ĥ",
      "à¦¨ à¦ĵ",
      "à¦Ľ à¦²",
      "Ġà¦ī à¦ł",
      "à¦° à¦ĵ",
      "à¦¿ -",
      "à§ģ à¦ģ",
      "Ġà¦ª à¦¥",
      "Ġà¦ı à¦ª",
      "Ġà¦ı à¦Ĺ",
      "à¦ĩ à¦°",
      "à¦§ à¦¤",
      "Ġà¦ħ à¦ªà¦°",
      "à¦ĸ à¦²",
      "Ġà¦ıà¦ķ à¦ľà¦¨",
      "Ġà¦ĺ à¦Ł",
      "à¦°à¦¹ à¦£",
      "Ġà§¯ à§«",
      "b d",
      "Ġ P",
      "à¦¨ à¦¸",
      "à¦¨ à¦®à¦¨",
      "Ġà¦Ĩ à¦ª",
      "Ġà¦Ĩ à¦Łà¦ķ",
      "à¦· à¦®à¦¤",
      "Ġà¦¶ à¦¤",
      "Ġà¦Ĺ à¦£",
      "à¦« à¦¤",
      "à§§à§ ¨",
      "à§¦à§¦ à§¦",
      "à¦¸ à¦°",
      "Ġà¦ĩ à¦ŀ",
      "Ġà¦ Ŀ",
      "Ġà¦ķ à¦ª",
      "Ġà¦¬ à¦¹",
      "à¦· à¦¦",
      "Ġà¦ıà¦ķ à¦ĩ",
      "Ġà§¨à§¦à§§à§ ®",
      "Ġ A",
      "Ġ C",
      "Ġà¦ª à¦¤",
      "Ġà¦¦ à¦ķ",
      "Ġà¦ī à¦ªà¦°",
      "Ġà§§à§ ¯",
      "à¦¬à¦¹ à¦¨",
      "e d",
      "g ov",
      "Â ł",
      "Ġà¦¸ à¦ķà¦²",
      "à¦Ľ à¦¨",
      "Ġà¦ľ à¦Ļ",
      "à¦ļ à¦Ł",
      "Ġà¦¶ à¦°",
      "a r",
      "h e",
      "i t",
      "Ġ a",
      "Ġ c",
      "à¦ķ à¦¨",
      "à§ĭ ,",
      "à¦ľ à¦°",
      "à¦Ĺ à¦£",
      "Ġà¦ī à¦²",
      "Ġà¦ī à¦ļ",
      "Ġà¦Ń à¦¬à¦¨",
      "Ġà¦ĺ à¦°",
      "Ġà¦īà¦ª à¦¸",
      "Ġà¦Ĩà¦Ĺ à¦¸",
      "o r",
      "Ġà¦ Ī",
      "à§ĭ à¦ĥ",
      "Ġà¦ı à¦ĸ",
      "Ġà¦¨ à¦¬",
      "Ġà¦ĵ à¦ªà¦°",
      "à¦Ĩ à¦®",
      "/ -",
      "à§ĩ à¦ģ",
      "à¦ķ à¦ľà¦¨",
      "Ġà¦¸ à¦¦à¦°",
      "à¦Ł à¦°",
      "Ġà¦Ĩ à¦¤",
      "à¦« à¦°",
      "à¦ī à¦²",
      "à§§à§ ¯",
      "Ġà¦Ĩà¦¸ à¦¨",
      "do s",
      "Ġ '",
      "Ġ b",
      "à¦¬ à¦ª",
      "à§ĭ .",
      "à¦ľ à¦®",
      "à¦ĩ à¦ľ",
      "à¦Ĺ à¦²à¦¬",
      "Ġà¦ľ à¦¯",
      "à¦§ à¦¬",
      "à¦¥ à¦¬",
      "âĢ Ŀ",
      "Ġà¦ĩ à¦¸",
      "Ġà¦ĩ à¦ī",
      "à¦ł à¦¨",
      "à§§à§ ¬",
      "Ġà§§à§ §",
      "Ġ201 5",
      "Ġà¦¸à¦¬ à¦ļ",
      "Ġà§¨à§¦à§§à§ Ń",
      "a l",
      "Ġ /",
      "Ġ p",
      "à¦° à¦ªà¦¤",
      "à¦¨ à¦¦",
      "à¦¼à§ĩ à¥¤",
      "Ġà¦° à¦ķ",
      "Ġà¦¶ à¦¹à¦°",
      ") à¥¤",
      "a d",
      "à¦¨ à¦®",
      "à¦¨ à¦Ĺà¦°",
      "à¦² à¦®",
      "à¦² à¦Ń",
      "Ġà¦¸ à¦¡",
      "à¦¼à¦¾ ,",
      "Ġà¦ľ à¦¬",
      "à¦§ à¦°",
      "Ġà¦ĩ à¦®",
      "à¦ı à¦ķ",
      "à¦ı à¦ĩ",
      "à¦Ĩ à¦ĩ",
      "ĠÂ ł",
      "Ġà§§à§ «",
      "Ġà§§à§ ®",
      "Ġà¦Ĩà¦² à¦®",
      "Ġà§¨à§¦à§§à§ ¬",
      "Ġ n",
      "à§ ·",
      "à¦° à¦«",
      "à¦¬ à¦¦",
      "Ġà¦ķ à¦¨",
      "Ġà¦ķ à¦ĸà¦¨",
      "Ġà¦¬ à¦Ļ",
      "Ġà¦Ĩ à¦¹",
      "Ġà¦Ĩ à¦¹à¦¤",
      "Ġà¦¤ à¦ĸà¦¨",
      "à¦¥ à¦¨",
      "à§§à§ «",
      "à§§à§ ®",
      "à¦Ĩ à¦°",
      "à§¨ à§ª",
      "ĠâĢ ¢",
      "Ġà§§à§ ¨",
      "in g",
      "ma il",
      "o f",
      "s e",
      "Ġ h",
      "à§ĩ -",
      "à§ģ ,",
      "Ġà¦ª à¦£",
      "Ġà¦¨ à¦®",
      "à¦ĩ à¦®",
      "à¦ĩ à¦Ń",
      "Ġà¦¦ à¦°",
      "Ġà¦¦ à¦¶",
      "à¦¹ à¦²",
      "à¦· à¦¤",
      "Ġà¦ļ à¦Ł",
      "ĠâĢ ľ",
      "à¦ĺ à¦°",
      "à§İ à¦ķ",
      "Ġà¦ļà¦² à¦Ľ",
      "Ġà¦Ĺà¦¤ à¦ķ",
      ") ,",
      "1 2",
      "l e",
      "s t",
      "à¦¯ à¦¦",
      "à§ģ âĢĻ",
      "Ġà¦¸ à¦ª",
      "à¦Ł à¦®",
      "à¥¤ âĢĻ",
      "Ġà¦® à¦Ļ",
      "à¦Ĺ à¦¬à¦¨",
      "à¦Ľ à¦¡",
      "Ġà¦Ń à¦¯",
      "Ġà¦« à¦°",
      "à¦ī à¦¦",
      "Ġà¦¬à¦² à¦²",
      "Ġà¦¡ à¦²",
      "ĠâĢ ¦",
      "à§« à§¦",
      "Ġà¦Ĩà¦¸ à¦Ľ",
      "Ġà§¦ à§§à§Ń",
      "Ġà¦ħà¦¬ à¦¶",
      "1 3",
      "i on",
      "r a",
      "Ġ m",
      "à§ĩ ?",
      "à¦¨ à¦°",
      "à¦² à¦ª",
      "à¦¦ à¦¶",
      "à¦ľ à¦¸",
      "à¦ļ à¦¯",
      "Ġà¦ĩ à¦¯",
      "à¦ł à¦ķ",
      "à§© à§¦",
      "g mail",
      "Ġ M",
      "Ġ Ċ",
      "à¦¿ )",
      "à¦¤ à¦¤",
      "à¦¸ à¦Ń",
      "Ġà¦¸ à¦¤",
      "Ġà¦ı à¦¡",
      "à¦ľ à¦¯",
      "Ġà¦¨ à¦Ĺà¦°",
      "à¦Ĺ à¦®",
      "à¦Ń à¦¬",
      "Ġà¦° à¦¬",
      "à¦®à¦¨ à¦¸",
      "Ġt he",
      "d e",
      "à¦¬ à¦¶",
      "à¦® à¦Ĺ",
      "à¦ª à¦¡",
      "Ġà¦® à¦°",
      "à¦Ĺ à¦ľ",
      "à¦£ à¦Ĺà¦ŀ",
      "Ġà¦Ĺ à¦¡",
      "âĢ ĺ",
      "Ġà¦Ĩà¦¨ à¦¨",
      "Ġà§© à§¦",
      "u n",
      "Ġ in",
      "à¦¤ à¦¦",
      "à¦¸ à¦Ł",
      "à¦Ł à¦¬à¦²",
      "Ġà¦® à¦¸",
      "Ġà¦ı à¦Ľ",
      "à¦ĩ à¦¡",
      "à¦Ĺ à¦²",
      "Ġà¦¯ à¦ĸà¦¨",
      "Ġà¦Ĺ à¦²",
      "à¦ī à¦¡",
      "à¦°à¦® à¦£",
      "Ġà¦§à¦° à¦¨",
      "âĢĮ à§į",
      "** *",
      "w w",
      "Ġ f",
      "Ġ an",
      "Ġ of",
      "à¦¾ :",
      "à¦¨ à¦¬à¦¨",
      "à¦² à¦Ĺ",
      "à¦¼ à§ģ",
      "Ġà¦ı à¦¦",
      "à¦ľ à¦§",
      "Ġà¦¯ à¦¥",
      "Ġà¦ĸ à¦¨",
      "à§§à§ §",
      "à§§à§ ©",
      "à§Į à¦ģ",
      "Ġà§§à§ ©",
      "Ġà¦¸à¦¹ à¦ľ",
      "an g",
      "Âł Ċ",
      "5 0",
      "a g",
      "l a",
      "l o",
      "Ġ D",
      "à¦² à¦¸",
      "à¦¬ à¦¯",
      "Ġà¦ķ à¦ķ",
      "Ġà¦ķ à¦£",
      "à¦¦ à¦²",
      "à¦¶ à¦°",
      "Ġà¦¹ à¦¨",
      "Ġà¦¤ à¦°",
      "à¦ĸ à¦°",
      "Ġà¦Ĺ à¦¬",
      "Ġà¦ħà¦¨ à¦²",
      "à¦°à¦ķ à¦²",
      "Ġà§¨ à§«",
      "à§© à§«",
      "Ġà§§à§ ª",
      "Ġà§§à§ ¬",
      "Ġà¦Ĩà¦¸ à¦²",
      "Ġà§¨à§¦à§§à§ «",
      "i c",
      "i m",
      "ĉ Ċ",
      "Ġ ?",
      "Ġ B",
      "Ġ E",
      "à¦° à¦ªà¦°",
      "à¦¿ :",
      "à¦¨ à¦Ĺ",
      "à¦¯ à¦¸",
      "à¦ķ à¦ķ",
      "à¦ª à¦Ł",
      "à¦ľ à¦¤",
      "Ġà¦¨ à¦ľà¦°",
      "à¦ĩ à¦¬",
      "Ġà¦ľ à¦¡",
      "Ġà¦Ĺ à¦°",
      "Ġà¦ī à§İ",
      "Ġà¦Ń à¦°",
      "Ġà¦ĩ à¦Ľà¦²",
      "Ġà¦ľà¦¨ à¦Ĺà¦£",
      "à¦ľà¦¨ à¦ķ",
      "Ġà¦ļà¦² à¦¤",
      "-- -",
      "> >",
      "a m",
      "v i",
      "Ġ I",
      "Ġ â",
      "Ġ Ġ",
      "à¦° à¦ľ",
      "à¦Ĺ à¦ĸ",
      "à¦Ĺ à¦¢",
      "à¦Ĺ à¦®à¦¯",
      "à¦Ĺ à¦ļà¦Ł",
      "Ġà¦ľ à¦°",
      "Ġà¦¶ à¦¨",
      "Ġà¦ĵ à¦¬",
      "à¦« à¦Ł",
      "à¦ı à¦«",
      "à¦Ĩ à¦ªà¦¨",
      "Ġà§¨à§¦ à§¦",
      "à§® à§Ń",
      "Ġà¦Ĳ à¦ķ",
      "Ġà§¯à§« à§«",
      "1 4",
      "w s",
      "Ġ T",
      "Ġ 01",
      "à¦ Ī",
      "Ġà¦ ·",
      "à¦¾ )",
      "à¦® à¦ļ",
      "à¦¸ à¦ļ",
      "Ġà¦¸ à¦ļ",
      "à¦ľ à¦ķ",
      "à¦ľ à¦²",
      "à¦¶ à¦²",
      "Ġà¦¨ à¦¥",
      "à¦Ĺ à¦¡",
      "à¦Ĺ à¦¬à¦°",
      "Ġà¦ħ à¦²",
      "Ġà¦ħ à¦ŀ",
      "Ġà¦¶ à¦«",
      "Ġà¦ī à¦ĩà¦ķ",
      "Ġà¦¸à¦® à¦°",
      "à§© à§¨",
      "Ġà¦īà¦ª à¦²à¦ķ",
      "à§¯ à§¯",
      "à§§ à§¦",
      "Ġà¦¸à¦¹ à¦ķ",
      "Ġà¦ıà¦®à¦¨ à¦ķ",
      "Ġà¦Ī à¦¦",
      "c t",
      "e m",
      "t h",
      "à¦¾ !",
      "à¦¯ à¦°",
      "Ġà¦® à¦¯",
      "à¦Ĺ à¦¬",
      "à¦Ĺ à¦łà¦¨",
      "Ġà¦¹ à¦¸",
      "à¦¹ à¦¬",
      "Ġà¦ħ à¦Ĺ",
      "à¦¥ à¦²",
      "Ġà¦ļ à¦°",
      "à¦« à¦¸",
      "à¦ī à¦°",
      "Ġà¦ľà¦¨ à¦ķ",
      "à¦Ĩ à¦ĩà¦¨",
      "à¦¦à¦¨ à¦ªà¦¤",
      "Ġà¦ļà¦² à¦ļ",
      "Ġà¦¸à¦¹ à¦¯",
      "Ġ1 0",
      "en t",
      "Ġà¦®à¦¸ à¦ľ",
      "1 9",
      "c h",
      "r o",
      "u r",
      "à¦¾ .",
      "à¦° à¦Ľ",
      "à¦ķ à¦Ń",
      "à§ģ à¦ĥ",
      "Ġà¦ķ à¦¤",
      "à¦¦ à¦®",
      "à§ĭ à¦ģ",
      "Ġà¦® à¦¡",
      "à¦ĩ à¦¤",
      "à¦¹ à¦ķ",
      "Ġà¦ķà¦° à¦ª",
      "à¦ļ à¦ķ",
      "Ġà¦° à¦¶",
      "Ġà¦ļ à¦¨",
      "Ġà¦ĵ à¦°",
      "Ġà¦ªà¦° à¦¬à¦°",
      "Ġà¦« à¦°à¦®",
      "Ġà¦« à¦ĸà¦°",
      "à¦ŀ à¦ª",
      "Ġà§¨ à§ª",
      "à§¨ à§Ń",
      "Ġà¦ĺ à¦¨",
      "Ġà¦ıà¦° à¦ªà¦°",
      "Ġà§« à§¦",
      "Ġà§ª à§¦",
      "es s",
      "à¦ıà¦® à¦ĩ",
      "à¦¥à¦¬ à¦Ľà¦°",
      "1 5",
      "< <",
      "a p",
      "a s",
      "e l",
      "e ws",
      "Â »",
      "Ġ W",
      "Ġ vi",
      "Ġ <<",
      "à¦ Ĳ",
      "à¦° à¦Ĺà¦ŀ",
      "à¦¿ /",
      "à¦¤ à¦²",
      "à¦ķ à¦ļ",
      "à¦² à¦Ĺà¦ŀ",
      "à¦¼ -",
      "à¦¬ à¦ĩ",
      "à¦¸ à¦¤",
      "à¦¸ à¦°à¦ķ",
      "Ġà¦¬ à¦¸à¦¬",
      "Ġà¦ª à¦²",
      "Ġà¦ª à¦¶",
      "à¦Ł à¦Ł",
      "à¦ª à¦²",
      "à¦ª à¦¸",
      "à¦¶ à¦¬",
      "à¦¶ à¦Ĺ",
      "Ġà¦¦ à¦«",
      "à¦¹ à¦¨",
      "à¦¼à¦¾ à¥¤",
      "Ġà¦¤ à¦²",
      "Ġà¦¤ à¦¦à¦¨",
      "à¦ĵ à¦²",
      "à§ĩà¥¤ âĢĻ",
      "Ġà¦ĩ à¦ļ",
      "Ġà¦ľà¦¨ à¦ª",
      "à§§à§ §à§",
      "Ġà¦Ĩà¦° à¦¬",
      "Ġà§§à§ Ń",
      "Ġà¦Ĩà¦¬ à¦¦",
      "à¦ĺ à¦¦",
      "Ġà¦ıà¦ĸà¦¨ à¦ĵ",
      "à¦ıà¦®à¦ĩ à¦ı",
      "Ġ<< >>",
      "1 7",
      "2 2",
      "p s",
      "t t",
      "Ġ ,",
      "Ġ 5",
      "Ġ F",
      "Ġ H",
      "Ġà¦ ĭ",
      "à¦¾ âĢĻ",
      "à¦¾ à¦ĥ",
      "à¦° à¦°",
      "à¦¿ .",
      "à¦¨ à¦¡",
      "à¦¯ à¦ĩ",
      "à¦¯ à¦¥",
      "à¦¯ à¦¤à¦®",
      "à¦ķ à¦¶",
      "à¦® à¦ª",
      "Ġà¦ķ à¦²à¦ķ",
      "Ġà¦¬ à¦Ĺ",
      "Ġà¦ª à¦ł",
      "à¦Ł à¦¸",
      "Ġà¦Ĩ à¦īà¦Ł",
      "à¦ľ à¦Ĺ",
      "Ġà¦¨ à¦¡",
      "à¦Ĺ à¦¦",
      "Ġà¦ħ à¦ľ",
      "Ġà¦ħ à¦Ļ",
      "à¦Ń à¦°",
      "Ġà¦Ĺ à¦łà¦¨",
      "Ġà¦ĵ à¦ł",
      "âĢ Ķ",
      "Ġà¦¸à¦® à¦¨",
      "Ġà¦ĩ à¦²",
      "Ġà¦² à¦¡",
      "Ġà¦ĸ à¦¦",
      "Ġà¦Ľ à¦¯",
      "à¦ī à¦ķ",
      "à¦°à¦ķ à¦®",
      "Ġà¦¬à¦² à¦¤",
      "Ġà¦¬à¦² à¦Ľ",
      "à§§à§ ª",
      "Ġà§¨ à§¬",
      "Ġà¦ıà¦ĩ à¦ļ",
      "à§© à§Ń",
      "Ġà¦Ĩà¦² à¦«",
      "Ġ- --",
      "Ġà¦Ĩà¦¹à¦® à¦¦",
      "1 6",
      "c k",
      "i s",
      "Ġ L",
      "à¦° à¦ĸ",
      "à§ĩ âĢĻ",
      "à¦¯ à¦¯",
      "à¦¤ à¦ĩ",
      "à¦ķ à¦¸",
      "à§ģ à¥¤",
      "Ġà¦ª à¦Ľà¦¨",
      "à¦ª à¦£",
      "Ġà¦Ĩ à¦«",
      "Ġà¦® à¦ŀ",
      "à¦ľ à¦Ń",
      "à¦¶ à¦Ł",
      "Ġà¦¨ à¦¦",
      "Ġà¦¨ à¦Ł",
      "à¦ĩ à¦ª",
      "à¦ĩ à¦«",
      "à¦Ĺ à¦¨",
      "à¦Ĺ à¦ķ",
      "à¦· à¦®",
      "Ġà¦ħ à¦®",
      "Ġà¦ħ à¦¥à¦¬",
      "à¦ĸ à¦Ľ",
      "à¦¥ à¦°",
      "Ġà¦¶ à¦ķ",
      "Ġà¦ļ à¦ķ",
      "Ġà¦ī à§İà¦¸",
      "Ġà¦Ľ à¦¡",
      "à¦ŀ à¦¤",
      "Ġà§¨ à§¨",
      "Ġà¦¡ à¦ķ",
      "Ġà¦ĺ à¦£",
      "Ġà¦Ĩà¦¸ à¦¤",
      "Ġà¦īà¦¦ à¦¯",
      "à§ª à§¦",
      "à¦°à¦¦ à¦¤",
      "Ġà§§ à§¦à§¦",
      "à¦Ŀ à¦¤",
      "à¦ħ à¦¨",
      "Ġà§¬ à§¦",
      "à§İà¦¸ à¦ķ",
      "Ġà¦ıà¦® à¦ª",
      "Ġà¦¦à¦¶ à¦®",
      "Ġà§¦à§§à§Ń à§§à§§à§",
      "Ġan d",
      "2 4",
      "g h",
      "h m",
      "i d",
      "Ġ *",
      "Ġ .",
      "Ġ N",
      "Ġ R",
      "Ġ w",
      "à¦¾ ;",
      "à¦¨ à¦ª",
      "à¦¯ à¦®à¦¨",
      "à¦ķ à¦°à¦£",
      "à¦® à¦¹",
      "à¦® à¦§",
      "Ġà¦¸ à¦ľ",
      "Ġà¦¸ à¦«",
      "Ġà¦¸ à¦«à¦°",
      "à¦¦ à¦¯",
      "à§ĭ -",
      "à¦Ł à¦¦",
      "à¦ª à¦¶",
      "à§Ģ -",
      "Ġà¦Ĩ à¦§",
      "Ġà¦® à¦ľ",
      "Ġà¦ı à¦¯",
      "à¦¶ à¦¤",
      "à¦¡ à¦¨",
      "Ġà¦ħ à¦¡",
      "à¦Ń à¦¯",
      "à¦ĸ à¦¬",
      "Ġà¦¶ à¦¬",
      "Ġà¦ī à¦Ńà¦¯",
      "à¦ı à¦²",
      "à¦Ĩ à¦¨",
      "à¦Ĩ à¦®à¦°",
      "Ġà§¨ à§©",
      "à§¨ à§¯",
      "à§© à§©",
      "Ġ201 4",
      "à¦ĺ à¦¨",
      "à¦ĺ à¦Łà¦¨",
      "à§¯ à§©",
      "à¦Łà¦ķ à¦¯",
      "Ġt o",
      "at e",
      "Ġà¦ĩà¦ī à¦°",
      "Ġn ews",
      "/ /",
      ": //",
      "O N",
      "U R",
      "d i",
      "h o",
      "i st",
      "p p",
      "u t",
      "Ġ !",
      "Ġ \"",
      "Ġ ***",
      "à¦¾ /",
      "à§ĩ !",
      "à¦¿ ?",
      "à¦¿ âĢĻ",
      "à¦¨ à¦ľ",
      "à¦¨ à¦Ń",
      "à¦¯ à¦ª",
      "à¦ķ à¦¯",
      "à¦² à¦¦",
      "à¦² à¦«",
      "à¦¬ à¦Ĺà¦ŀ",
      "Ġà¦ķ à¦·",
      "à¦¸ à¦¸",
      "Ġà¦¸ à¦ł",
      "Ġà¦¬ à¦ĩ",
      "Ġà¦ª à¦¦à¦ķ",
      "à¦Ł à¦¤",
      "à¦ª à¦¥",
      "Ġà¦Ĩ à¦ļ",
      "Ġà¦ı à¦¶",
      "Ġà¦ı à¦Ń",
      "à¦Ĺ à¦ªà¦¤",
      "Ġà¦¦ à¦£",
      "Ġà¦¦ à¦®à¦¨",
      "Ġà¦¹ à¦°à¦¤",
      "à¦¡ à¦²",
      "Ġà¦ħ à¦¦",
      "à¦Ĥ -",
      "Ġà¦¯ à¦¨",
      "Ġà¦Ĺ à¦°à¦®",
      "Ġà¦ī à¦°",
      "Ġà¦Ń à¦ķ",
      "à¦« à¦¨",
      "Ġà¦ĸ à¦°à¦ļ",
      "à¦¬à¦° à¦£",
      "âĢĻ à¥¤",
      "à¦Ĩ à¦Ĺ",
      "Ġà§¨ à§§",
      "à§¨ à§¨",
      "ĠâĢ ĵ",
      "Ġà¦Ĩà¦² à¦¹",
      "à§® à§¬",
      "à¦°à¦¸ à¦Ļ",
      "à§ª à§¨à§¦",
      "à§¯ à§®",
      "à§¯ à§¬",
      "Ġà§¨à§¦à§§à§ ª",
      "Ġà¦Ĩà¦ľ à¦ķ",
      "Ġà§¦ à§¨",
      "Ġà§ª à§«",
      "Ġ0 3",
      "à¦ıà¦¸ à¦¸",
      "Ġà¦Ĳ à¦¤",
      "do w",
      "Ġà¦Ĺà¦£ à¦¤à¦¨",
      "Ġà¦ķà¦ĸà¦¨ à¦ĵ",
      "Ġh tt",
      "ww w",
      "Ġà¦ĭ à¦£",
      "0 0",
      "0 8",
      "7 0",
      "b er",
      "Ġ e",
      "Ĥ ¬",
      "à§ĩ :",
      "à¦¿ !",
      "à¦¿ à¦ģ",
      "à¦¨ à¦ĩ",
      "à¦¯ à¦ķà¦°",
      "à¦¬ à¦Ł",
      "à¦¬ à¦Ľà¦°",
      "à¦® à¦Ł",
      "à¦® à¦¡",
      "Ġà¦ķ à¦ł",
      "à¦¸ à¦°à¦£",
      "Ġà¦¸ à¦¤à¦°",
      "à¦¦ à¦¦",
      "à¦¦ à¦£",
      "Ġà¦ª à¦ŀ",
      "à¦Ł à¦²",
      "Ġà¦Ĩ à¦¡",
      "Ġà¦Ĩ à¦ĺ",
      "Ġà¦ı à¦ľ",
      "Ġà¦ı à¦ľà¦¨",
      "à¦ľ à¦¦",
      "à¦ĩ à¦¦",
      "à¦ĩ à¦Ĺ",
      "à¦Ĺ à¦Ĺ",
      "à¦· à¦°",
      "à¦¼à¦¾ -",
      "Ġà¦ľ à¦¹",
      "à¦ļ à¦¤",
      "Ġà¦° à¦¸",
      "Ġà¦° à¦ķà¦®",
      "à¦ĸ à¦ķ",
      "à¦¥ à¦ļ",
      "à¦£ à¦¤",
      "à¦£ à¦¬",
      "à¦ĵ à¦¤",
      "Ġà¦¶ à¦¹",
      "Ġà¦Ĺ à¦Ļ",
      "Ġà¦ļ à¦¤",
      "Ġà¦ļ à¦²à¦¨",
      "âĢ ľ",
      "à§¦ à§®",
      "à§¦ à§§à§Ń",
      "Ġà¦ıà¦ķ à¦®à¦¤",
      "Ġà¦¸à¦® à¦¬",
      "Ġà¦Ĩà¦® à¦¦",
      "à¦¾à¥¤ âĢĻ",
      "à§© à§§",
      "à¦°à¦¸ à¦Ń",
      "à§ª à§©",
      "Ġà¦ķà¦® à¦ª",
      "Ġà§« à§¦à§¦",
      "Ġà§¦ à§§à§®",
      "Ġ0 4",
      "Ġ0 6",
      "Ġ0 8",
      "Ġ0 9",
      "à¦°à¦¥à¦® à¦¬",
      "à§¨à§¦ à§§à§®",
      "Ġà¦¬à¦¸ à¦¤",
      "à¦¯à¦¬ à¦§",
      "en c",
      "at ion",
      "ou t",
      "à§§à§¬ à§¦",
      "ang la",
      "ĠE UR",
      "Ġâ Ĥ¬",
      "h a",
      "i a",
      "i v",
      "l in",
      "n s",
      "o l",
      "o o",
      "u e",
      "Ġ +",
      "Ġ J",
      "Ġ g",
      "Ġ es",
      "Ġ co",
      "à¦° à¦ĵà¦¯",
      "à¦° à¦Ĩà¦¨",
      "à¦¤ à¦ª",
      "à¦¤ à¦°à¦£",
      "à¦¼ ?",
      "à¦¼ à§Ĥ",
      "à¦¬ à¦§",
      "à¦® à¦ľ",
      "à¦® à¦ĵ",
      "Ġà¦ķ à¦¨à¦¸",
      "Ġà¦¸ à¦«à¦²",
      "Ġà¦¬ à¦¦à¦°",
      "à¦ª à¦·",
      "à¦ľ à¦¬",
      "à¦Ĺ à¦ł",
      "Ġà¦¦ à¦°à¦ķ",
      "à¦¼à§ĩ ,",
      "à¦¹ à¦ľ",
      "Ġà¦¤ à¦¤",
      "Ġà¦¤ à¦«à¦¸",
      "Ġà¦° à¦ª",
      "Ġà¦° à¦«",
      "Ġà¦° à¦ļà¦¨",
      "à¦¥ à¦ķ",
      "à¦¥ à¦Ĺ",
      "à¦£ à¦®",
      "Ġà¦Ĺ à¦¨",
      "Ġà¦Ĺ à¦Ń",
      "Ġà¦ī à¦¡",
      "Ġà¦Ń à¦¬",
      "Ġà¦ıà¦ķ à¦¬",
      "Ġà¦« à¦Ł",
      "Ġà¦Ĩà¦® à¦²",
      "à¦Ĩ à¦²",
      "à¦Ĩ à¦¬",
      "à¦Ĩ à¦ĵà¦¯",
      "Ġà§¨ à§®",
      "à§Į -",
      "à§¨ à§©",
      "Ġà¦§ à¦°à¦¤",
      "à§« à§¨",
      "à§« à§«",
      "à¦ļà¦¨ à¦ķ",
      "à§® à§®",
      "à§¦à§¦ à§©",
      "Ġà§© à§§",
      "à¦īà¦¨ à¦²",
      "Ġà§« à§®",
      "Ġ0 5",
      "Ġ0 7",
      "er s",
      "Ġà§Ń à§¦",
      "ĠS e",
      "âĢ¦ âĢ¦",
      "Ġà¦Ĩà¦ĩ à¦«",
      "ou r",
      "ĠA n",
      "à¦ıà¦ĩ à¦ļ",
      "à§«à§¦ à§®à§¬",
      "Ġà§¦à§§à§Ń à§§à§¬à§¦",
      "Ġà§¯à§«à§« à§ªà§¨à§¦",
      "à§¯à§¯ à§¦à§¦à§©",
      "Ġà§¦à§§à§Ńà§§à§¬à§¦ à§¯à§¯à§¦à§¦à§©",
      "Ġà§¯à§«à§«à§ªà§¨à§¦ à§¬",
      "1 8",
      "O R",
      "Y ou",
      "c e",
      "f er",
      "g s",
      "m ent",
      "n lo",
      "o re",
      "t er",
      "Ġ #",
      "Ġ 3",
      "Ġ [",
      "Ġ y",
      "Ġ dow",
      "à¦¾ ?",
      "à¦° à¦¥",
      "à¦¨ à¦²",
      "à¦¨ à¦ļ",
      "à¦¯ à¦ĵ",
      "à¦¤ à¦ľ",
      "à¦ķ à¦Ľ",
      "à¦ķ à¦¶à¦¨",
      "à¦² à¦Ļ",
      "à¦² à¦Ľà¦¡",
      "à¦® à¦Ļ",
      "à¦® à¦ĺ",
      "à¦® à¦īà¦¦",
      "à§ģ -",
      "à¦¸ à¦Ļ",
      "à¦ª à¦®",
      "à¦ª à¦ļ",
      "Ġà¦Ĩ à¦¦à¦°",
      "Ġà¦Ĩ à¦ĩà¦¸",
      "Ġà¦® à¦£",
      "Ġà¦¨ à¦ķà¦²",
      "à¦ĩ à¦ī",
      "à¦Ĺ à¦Ľ",
      "Ġà¦¦ à¦¤",
      "Ġà¦¦ à¦²à¦ķ",
      "Ġà¦¹ à¦ľ",
      "à¦¡ à¦¬",
      "à¦· à¦¨",
      "Ġà¦ľ à¦¸",
      "à¦§ à¦ķ",
      "Ġà¦ħ à¦¶",
      "Ġà¦ħ à¦¥à¦ļ",
      "à¦ļ à¦°",
      "à¦ļ à¦®",
      "Ġà§ ·",
      "Ġà¦¯ à¦¤",
      "à¦ĵ à¦¨",
      "à¦ĵ à¦¸",
      "à¦ĵ à¦Ł",
      "Ġà¦ĵ à¦¸à¦®",
      "Ġà¦ī à¦ĩà¦¨",
      "Ġà¦ıà¦ķ à¦°",
      "Ġà¦ıà¦ķ à¦¦",
      "Ġà¦ĩ à¦ķ",
      "Ġà¦ĩ à¦ķà¦¬",
      "Ġà§¨ à§Ń",
      "à§¨ à§§",
      "à§¨ à§¬",
      "Ġà¦§ à¦¨",
      "à¦¼à¦¿ ,",
      "à§« à§Ń",
      "à§© à§®",
      "Ġà¦īà¦ª à¦¯",
      "Ġà¦īà¦ª à¦ķ",
      "Ġà¦Ĩà¦¸ à¦¬",
      "Ġ201 3",
      "à§ª à§¯à§©",
      "à¦°à¦¦ à¦°",
      "à§¯ à§ªà§¯à§©",
      "Ġà¦ıà¦¸ à¦®à¦¯",
      "Ġà¦ļà¦² à¦¬",
      "à§¬ à§¦",
      "Ġà§© à§«",
      "Ġà§© à§©",
      "à¦¸à¦® à¦°",
      "à¦¸à¦® à¦¯",
      "Ġà¦ĩà¦¨ à¦ķ",
      "Ġà¦ıà¦¨ à¦¸",
      "Ġ0 0",
      "Ġt h",
      "à¦ħ à¦°",
      "à¦ħ à¦Ń",
      "Ġà¦Ĩà¦¶ à¦Ļ",
      "Ġà¦Ĩà¦ĩà¦¨ à¦ľ",
      "Ġà¦Ĩà¦ĩà¦¨ à¦¶",
      "ov em",
      "Ġà§¯à§« à§®à§Ń",
      "Ġà§¯à§« à§«à§¦à§®à§¬",
      "Ġc an",
      "Ġc ess",
      "à§§à§¯ à§¬",
      "Ġà¦ĩà¦ī à¦ª",
      "Ġà¦ĩà¦ī à¦ıà¦¸",
      "Ġn se",
      "à§©à§¦ à§¨",
      "de o",
      "Ġà¦īà§İ à¦ª",
      "ĠI n",
      "gh t",
      "Ġà¦Ĩà¦ļ à¦°à¦£",
      "à§¦à§§à§Ń à§§à§§",
      "Ġes se",
      "nlo ad",
      "Ġdow nload",
      "à§¯à§ªà§¯à§© à§¨à§ª",
      "Ġà§¯à§«à§®à§Ń à§©à§¦à§¨",
      "Ġà§¯à§«à§«à§¦à§®à§¬ à§Ń",
      "1 0",
      "4 4",
      "8 3",
      "A T",
      "b e",
      "e ad",
      "i es",
      "o m",
      "s ra",
      "t ar",
      "t ion",
      "u m",
      "Ġ )",
      "Ġ d",
      "Ġ on",
      "Ġ de",
      "Ġ You",
      "à¦¾ ...",
      "à¦° à¦·",
      "à§ĩ )",
      "à¦¨ à¦¶",
      "à¦¤ à¦«",
      "à¦¤ à¦°à¦ķ",
      "à¦¼ !",
      "à¦¼ :",
      "à¦¼ à§į",
      "à¦¬ à¦Ĺ",
      "à¦® à¦Ľ",
      "à§ģ '",
      "Ġà¦ķ à¦¬à¦°",
      "à¦¸ à¦¡",
      "à¦¸ à¦«",
      "Ġà¦¬ à¦¦à¦²",
      "Ġà¦ª à¦¯",
      "à¦Ł à¦ª",
      "à¦Ł à¦ľ",
      "à¦Ł à¦«",
      "à§Ģ âĢĻ",
      "à¦ľ à¦Ł",
      "Ġà¦¨ à¦¨",
      "Ġà¦¨ à¦Ĺ",
      "Ġà¦¨ à¦ĵ",
      "Ġà¦¨ à¦ķà¦¶",
      "Ġà¦¦ à¦¶à¦ķ",
      "à¦¹ à¦ķà¦°",
      "à¦¡ à¦¸",
      "à¦· à¦Ł",
      "à¦¼à¦¾ à¦Ĥ",
      "Ġà¦ľ à¦²",
      "Ġà¦¤ à§İà¦ķ",
      "Ġà¦ħ à¦¬à¦¹",
      "Ġà¦° à¦¨",
      "Ġà¦° à¦Ļ",
      "Ġà¦° à¦¹à¦¸",
      "à¦ĸ à¦¬à¦°",
      "à¦ĵ à¦ļ",
      "Ġà¦ĵ à¦ķ",
      "Ġà¦ĵ à¦Ń",
      "Ġà¦ĵ à¦°à¦«",
      "Ġà¦« à¦¯",
      "Ġà¦ĩ à¦¹",
      "Ġà¦ĩ à¦Ļ",
      "Ġà¦ĩ à¦®à¦°",
      "à¦Ļ à¦ļ",
      "à¦ı à¦¬",
      "à¦ı à¦¦",
      "à¦ı à¦¡",
      "Ġà¦¬à¦² à¦¬",
      "Ġà¦Ł à¦®",
      "à¦°à¦£ à¦¤",
      "Ġà¦§ à¦°à¦£",
      "à¦¿à¥¤ âĢĻ",
      "Ġà¦īà¦ª à¦¦",
      "Ġà¦Ĩà¦² à¦¬",
      "à¦°à¦¸ à¦¨",
      "à§ª à§©à§¨",
      "Ġ: :",
      "Ġà§© à§Ń",
      "Ġà§¦ à§Ń",
      "Ġ0 2",
      "Ġà¦¸à¦° à¦¬à¦°",
      "Ġt it",
      "à¦ħ à¦ªà¦°",
      "Ġà¦Ĩà¦ķ à¦¸",
      "à¦¨à¦¬ à¦¤",
      "Ġà¦Ĩà¦ĩ à¦ª",
      "Ġs on",
      "ĠP H",
      "ĠP re",
      "à§§à§¨ à§¨à§¯",
      "Ġà¦¬à¦¹ à¦¨",
      "Ġà§§à§¯ à§¯",
      "Ġà§§à§¯ à§Ń",
      "Ġà¦Ī à¦¶",
      "ĠM ore",
      "Ġf re",
      "im e",
      "Ġà¦īà§İ à¦¸à¦¬",
      "à¦ıà¦« à¦ª",
      "Ġvi deo",
      "ĠN ovem",
      "pp ing",
      "Ġà¦ļà¦²à¦¨ à¦¬",
      "ĠNovem ber",
      "1 19",
      "6 0",
      "a ck",
      "e t",
      "f i",
      "g in",
      "i r",
      "i ght",
      "j o",
      "r ou",
      "u s",
      "¯ à§©à§«",
      "Ġ O",
      "Ġ U",
      "Ġ k",
      "Ġ l",
      "Ġ à¥",
      "Ġ ma",
      "Ġ un",
      "Ġ www",
      "à¦¾ '",
      "à§ĩ '",
      "à§ĩ ;",
      "à¦¨ à¦¹",
      "à¦¨ à¦ªà¦¤",
      "à¦¤ à¦¦à¦¨",
      "à¦ķ à¦Ĺ",
      "à¦ķ à¦¥",
      "à¦² à¦°",
      "à¦² à¦²",
      "à¦² à¦Łà¦¨",
      "à¦¼ à¦Ĥ",
      "à¦¬ à¦®",
      "à¦¬ à¦¦à¦¨",
      "à¦® à¦°à¦¤",
      "à¦¸ à¦Ĺ",
      "Ġà¦¸ à¦ŀ",
      "Ġà¦¬ à¦ľ",
      "à¦¦ à¦«",
      "à¦ª à¦«",
      "à§Ģ /",
      "Ġà¦Ĩ à¦ŀ",
      "Ġà¦Ĩ à¦ĵà¦¤",
      "Ġà¦® à¦¦",
      "Ġà¦® à§İà¦¸",
      "Ġà¦ı à¦°à¦ķà¦®",
      "à¦ĩ à¦Ľ",
      "Ġà¦¦ à¦ĸà¦²",
      "à¦¹ à¦«",
      "à¦¡ à¦ķ",
      "à¦¡ à¦®",
      "à¦¡ à¦Ń",
      "à¦· à¦ľ",
      "Ġà¦ħ à¦¯",
      "Ġà¦ħ à¦Ł",
      "Ġà¦ħ à¦¬à¦°",
      "Ġà¦¯ à¦®",
      "Ġà¦¯ à¦¶",
      "à¦ĵ à¦ĩ",
      "Ġà¦¶ à¦°à¦£",
      "âĢ į",
      "Ġà¦ī à¦ķ",
      "Ġà¦ıà¦ķ à¦®",
      "Ġà¦ĩ à¦°",
      "Ġà¦ĩ à¦ľ",
      "Ġà¦ĩ à¦Ń",
      "Ġà¦² à¦Ļ",
      "à¦ī à¦ª",
      "à¦ī à¦ĩ",
      "Ġà¦ľà¦¨ à¦Ĺ",
      "âĢĻ -",
      "à¦Ĩ à¦ľ",
      "Ġà¦¡ à¦Ł",
      "à¦¾à¦ģ âĢĻ",
      "à¦¼à¥¤ âĢĻ",
      "à§¨ à§«",
      "à§¨ à§®",
      "Ġà¦§ à¦°à¦®",
      "ĠâĢ Ŀ",
      "à§« à§¬",
      "à¦ķà¦° à¦¨",
      "à§© à§¯",
      "à§© à§¬",
      "Ġà¦Ĩà¦¸ à¦°",
      "à§® à§«",
      "Ġà§¨à§¦à§§à§ ¨",
      "Ġà¦¦à¦² à¦Ĺ",
      "Ġà¦Ĩà¦ľ à¦ĵ",
      "Ġà§¦ à§§à§¯",
      "Ġà¦ĩà¦¨ à¦¸",
      "à¦Łà¦ķ à¦®",
      "à¦¶à¦ķ à¦¦",
      "Ġt e",
      "à¦®à¦¸ à¦ľ",
      "Ġà¦Ĩà¦¶ à¦°",
      "à§¨à§¦ à§§à§«",
      "Ġ1 9",
      "à¦¤à¦ķ à¦°à¦£",
      "Ġà§® à§ªà§©à§¨",
      "Ġs u",
      "ĠP r",
      "Ġà¦Ĩà¦ª à¦²",
      "Ġà¦Ĺà¦£ à¦®",
      "Ġà¦Ĺà¦£ à¦«",
      "Ġb e",
      "Ġb y",
      "Ġà§§à§¨ à§¦",
      "12 9",
      "le ct",
      "13 3",
      "13 8",
      "Ġm sra",
      "Ġin f",
      "Ġan y",
      "ag e",
      "14 1",
      "Ġ01 7",
      "à¦Ī à¦¨",
      "à¦¾. )",
      "ap er",
      "Ġ5 3",
      "16 2",
      "Ġà§¦à§§à§Ńà§§à§§à§ ¯à§©à§«",
      "hm an",
      "ON E",
      "Ġhtt ps",
      "enc es",
      "fer ences",
      "ĠPre ferences",
      "Ġà¥ ¥",
      "à¦¦à¦« à¦¤à¦°",
      "Ġmsra hman",
      "Ġà§¦à§§à§Ńà§§à§§à§¯à§©à§« à§§à§¯à§¬",
      "2 01",
      "3 5",
      "4 6",
      "6 4",
      "7 6",
      "E R",
      "K Y",
      "M S",
      "O M",
      "R ead",
      "S I",
      "S S",
      "a f",
      "a v",
      "a in",
      "a hm",
      "d d",
      "e b",
      "h i",
      "o w",
      "r i",
      "t i",
      "© à§©à§©",
      "Â ©",
      "Ġ 7",
      "Ġ ;",
      "Ġ =",
      "Ġ X",
      "Ġ x",
      "Ġ com",
      "Ġ la",
      "Ġ im",
      "à¦° à¦ľà¦¨",
      "à¦° à¦®à¦¨",
      "à¦° à¦¬à¦¨",
      "à§ĩ .",
      "à¦¨ à¦¸à¦¹",
      "à¦¯ à¦«",
      "à¦¤ à¦Ń",
      "à¦ķ à¦ª",
      "à¦² à¦ĵ",
      "à¦² à¦§à¦¨",
      "à¦¬ à¦ľ",
      "à¦¬ à¦¡",
      "à¦¬ à¦¤à¦¨",
      "à¦® à¦¶",
      "à¦® à¦£à¦¬",
      "à¦® à¦¸à¦®à¦°",
      "Ġà¦ķ à¦¨à¦Ł",
      "à¦¸ à¦ıà¦¸",
      "Ġà¦¸ à¦«à¦Ł",
      "à¦¦ à¦Ł",
      "à¦¦ à¦ªà¦¤",
      "à§ĭ :",
      "Ġà¦ª à¦¬",
      "à¦Ł à¦°à¦¸",
      "à¦Ł à¦¸à¦®",
      "à¦Ł à¦«à¦°",
      "à¦ª à¦¯",
      "à¦ª à¦°à¦¤",
      "à¦ª à¦ŀ",
      "à¦ª à¦ķà¦²",
      "à§Ģ :",
      "Ġà¦Ĩ à¦Ł",
      "Ġà¦® à¦¤à¦¬",
      "Ġà¦® à¦Īà¦¨",
      "Ġà¦ı à¦®à¦¸",
      "Ġà¦ı à¦ıà¦¸",
      "à¦ľ à¦ª",
      "à¦ľ à¦Ľ",
      "à¦¶ à¦«",
      "Ġà¦¨ à¦·",
      "Ġà¦¨ à¦°à¦®",
      "à¦ĩ à¦¹",
      "à¦ĩ à¦¸à¦²",
      "à¦ĩ à¦®à¦¸",
      "à¦Ĺ à¦¸",
      "à¦Ĺ à¦Ł",
      "Ġà¦¦ à¦®",
      "Ġà¦¦ à¦ª",
      "Ġà¦¹ à¦ł",
      "à¦¹ à¦°à¦£",
      "à¦¡ à¦ª",
      "Ġà¦ľ à¦ķ",
      "à¦§ à¦Ń",
      "à¦§ à¦ªà¦¦",
      "Ġà¦¤ à§İ",
      "Ġà¦ħ à¦¸à¦®",
      "Ġà¦ħ à¦¸à¦¹",
      "Ġà¦° à¦®à¦ľ",
      "à¦¥ à¦®à¦¨",
      "à¦ĵ à¦ľ",
      "Ġà¦¶ à¦®à¦¸",
      "Ġà¦Ĺ à¦ł",
      "Ġà¦ļ à¦¬",
      "Ġà¦ļ à¦°à¦®",
      "Ġà¦ĵ à¦¦",
      "Ġà¦ĵ à¦ľà¦¨",
      "à§¦ à§¨",
      "Ġà¦ī à¦Ł",
      "Ġà¦Ń à¦Ĺ",
      "Ġà¦Ń à¦°à¦¸",
      "Ġà¦ıà¦ķ à¦¸",
      "Ġà¦« à¦ľà¦²",
      "Ġà¦ĩ à¦Ł",
      "Ġà¦ĩ à¦«à¦¤",
      "Ġà¦ĸ à¦²",
      "à¦ı à¦Ľ",
      "à¦ı à¦¸à¦¬",
      "Ġà¦Ĩà¦® à¦¨",
      "Ġà¦Ĩà¦® à¦²à¦ķ",
      "Ġà¦ľà¦¨ à¦¸",
      "à¦Ĩ à¦¯",
      "Ġà§¨ à§¯",
      "Ġà§¨ à§«à§¦",
      "à¦®à¦¨ à¦Ł",
      "Ġà¦ıà¦ĩ à¦¸à¦¬",
      "à§« à§©",
      "à§© à§ª",
      "à¦¬à¦¨ à¦¯",
      "à¦¿à¦Ĥ ,",
      "à¦¿à¦Ĥ -",
      "à¦¿à¦Ĥ à¥¤",
      "à¦ĩà¦¨ à¦¬",
      "Ġà¦Ĩà¦Ĺ à¦·",
      "à¦²à¦¨ à¦ķ",
      "à§® à§ª",
      "Ġà¦ıà¦¸ à¦ıà¦¸à¦¸",
      "à§§ à§¦à§¦à§¦",
      "Ġà¦Ĩà¦¨ à¦¤",
      "Ġà§© à§¦à§¦",
      "Ġà§© à§¬",
      "à¦¬à¦² à¦®",
      "Ġà¦¸à¦¹ à¦¸à¦Ń",
      "à¦ĩà¦Ł à¦Ł",
      "Ġà§« à§Ń",
      "Ġà§« à§¬",
      "Ġà¦Ĩà¦ľ à¦®à¦²",
      "Ġà§¦ à§§",
      "Ġà§¦ à§©à§§",
      "à¦¼à§Ģ ,",
      "Ġà§ª à§Ń",
      "Ġà¦ıà¦ĸà¦¨ à¦ĩ",
      "Ġt am",
      "à¦¸à¦¹ à¦ķ",
      "à¦ıà¦¸ à¦ĩ",
      "Ġà¦ıà¦¤ à¦¦",
      "Ġà¦ªà¦¦ à¦¤",
      "Ġà¦ıà¦®à¦¨ à¦Ł",
      "à¦°à¦ļ à¦²",
      "à¦¨à¦¬ à¦¬à¦¨",
      "à§¨à§¦ à§ª",
      "Ġ1 2",
      "à¦¯à¦¬ à¦¦",
      "Ġà§® à§®",
      "à¦ıà¦° à¦ªà¦°",
      "en d",
      "at tar",
      "Ġà¦Ĩà¦ĩ à¦ľ",
      "Ġs e",
      "Ġà¦īà¦ł à¦¤",
      "Ġà¦īà¦ł à¦²",
      "Ġà¦ĺà¦Ł à¦Ľ",
      "à¦°à¦¹à¦£ à¦ķ",
      "ĠC h",
      "it ed",
      "Ġc ns",
      "Ġà¦Ĩà¦²à¦® à¦Ĺ",
      "Ġà¦Ĩà¦¹ à¦¬",
      "Ġà¦¦à¦¶ à¦Ł",
      "à¦®à¦Ĺ à¦¡",
      "à¦Ĺà¦ľ à¦ªà¦¤",
      "à§©à§« à§®à§ª",
      "ĠB angla",
      "Ġà§¯à§«à§« à§©à§«à§®à§ª",
      "Ġà¦· à¦¡",
      "Ġà¦ķà¦¤ à¦Ł",
      "à§©à§Ń à§§",
      "Ġà§¦à§§à§Ńà§§à§§à§ ©à§©à§©",
      "à§¯à§® à§§",
      "Ġhtt p",
      "Ġà§¦à§§à§® à§ª",
      "out u",
      "lin k",
      "à¦¼à§Ĥ ,",
      "Ġà¦¨à¦ĵ à¦Ĺ",
      "Ġtit s",
      "Ġson gs",
      "ĠPH ONE",
      "Ġà¦¤à§İ à¦ªà¦°à¦¤",
      "Ġtam il",
      "Ġà§¦à§§à§Ńà§§à§§à§©à§©à§© à§¯à§®à§§",
      "ĠPHONE KY",
      ") -",
      ") /",
      "0 6",
      "2 8",
      "4 8",
      "5 5",
      "8 0",
      "8 4",
      "8 5",
      "9 0",
      "9 2",
      "A C",
      "I C",
      "N E",
      "U n",
      "a b",
      "a y",
      "a z",
      "b ad",
      "d s",
      "d u",
      "d ay",
      "f our",
      "g al",
      "i g",
      "l y",
      "o c",
      "p o",
      "p or",
      "p tion",
      "q u",
      "r gin",
      "u re",
      "u st",
      "y a",
      "y outu",
      "Ġ 6",
      "Ġ 8",
      "Ġ G",
      "Ġ K",
      "Ġ V",
      "Ġ o",
      "Ġ en",
      "Ġ it",
      "Ĩ Ĵ",
      "à¦° à¦ªà¦ķ",
      "à¦° à¦Ĺà¦¤",
      "à§ĩ ...",
      "à§į âĢĮ",
      "à§į âĢį",
      "à¦¿ ...",
      "à¦¿ âĢ¦",
      "à¦¿ )à¥¤",
      "à¦¨ à¦°à¦¸",
      "à¦¯ à¦Ļ",
      "à¦¤ à¦Ł",
      "à¦ķ à¦Ĺà¦ŀ",
      "à¦ķ à¦®à¦°",
      "à¦ķ à¦Ľà¦¡",
      "à¦² à¦ľ",
      "à¦² à¦¶",
      "à¦² à¦Ľ",
      "à¦² à¦¡",
      "à¦² à¦ĵà¦¯",
      "à¦¬ à¦Ń",
      "à¦¬ à¦£",
      "à¦¬ à¦°à¦ķ",
      "à¦¬ à¦¦à¦°",
      "à¦® à¦°à¦£",
      "à¦® à¦¹à¦¤",
      "à¦® à¦Ĺà¦ŀ",
      "Ġà¦¸ à¦¸",
      "Ġà¦¬ à¦Ł",
      "Ġà¦¬ à¦¶",
      "Ġà¦¬ à¦ī",
      "à¦¦ à¦¬",
      "à¦¦ à¦¸",
      "à§ĭ ?",
      "Ġà¦ª à¦Ł",
      "à¦Ł à¦¬",
      "à¦Ł à¦ĵà¦¯",
      "à¥¤ \"",
      "Ġà¦Ĩ à¦ĸ",
      "Ġà¦Ĩ à¦Ļ",
      "Ġà¦Ĩ à¦ķà¦°",
      "Ġà¦® à¦¶",
      "Ġà¦ı à¦ıà¦«à¦ª",
      "à¦ľ à¦Ĺà¦ŀ",
      "à¦¶ à¦ª",
      "à¦¶ à¦ľ",
      "à¦¶ à¦ĩ",
      "à¦¶ à¦ĸ",
      "Ġà¦¨ à¦°",
      "Ġà¦¨ à¦ľ",
      "Ġà¦¨ à¦ĩ",
      "à¦ĩ à¦ļ",
      "à¦Ĺ à¦ĩ",
      "Ġà¦¹ à¦°",
      "Ġà¦¹ à¦ĩà¦¬",
      "à¦¹ à¦£",
      "à¦· à¦ľà¦¨à¦ķ",
      "à¦¼à¦¾ )",
      "Ġà¦ħ à¦·",
      "à¦ļ à¦¦",
      "à¦ļ à¦Ĺ",
      "à¦ļ à¦¡",
      "à¦Ń à¦¬à¦¤",
      "Ġà¦° à¦¥",
      "à¦¥ à¦¤",
      "à¦¥ à¦Ń",
      "à¦ĵ à¦ķ",
      "Ġà¦¶ à¦¯",
      "Ġà¦ĵ à¦¸",
      "âĢ ĵ",
      "à§¦ à§«",
      "Ġà¦ī à¦ĩ",
      "Ġà¦ī à¦·",
      "Ġà¦ī à¦ĩà¦²",
      "Ġà¦ªà¦° à¦®",
      "Ġà¦ªà¦° à¦ĵ",
      "Ġà¦ıà¦ķ à¦ķ",
      "Ġà¦« à¦¤",
      "Ġà¦¸à¦® à¦ķ",
      "Ġà¦¹à¦¯ à¦°à¦¤",
      "Ġà¦ĩ à¦īà¦ľ",
      "Ġà¦ĩ à¦®à¦¦",
      "Ġà¦ĩ à¦²à¦®",
      "Ġà¦² à¦®",
      "à§ĥ à¦Ĥ",
      "Ġà¦Ľ à¦¹",
      "à¦Ļ à¦¤",
      "à¦ı à¦¤",
      "à¦ı à¦Ł",
      "à¦ı à¦ķà¦Ł",
      "Ġà¦ľà¦¨ à¦¤",
      "Ġà¦ľà¦¨ à¦¸à¦Ń",
      "à¦ł à¦ª",
      "Ġà¦Ł à¦¨",
      "âĢĻ ,",
      "à¦Ĩ à¦¦",
      "à¦Ĩ à¦ĩà¦¸",
      "à¦Ĩ à¦°à¦Ł",
      "à¦°à¦£ à¦ķ",
      "à§¨ à§¦à§¦",
      "à§¨ à§§à§«",
      "à¦¼à¦¿ à¦Ĥ",
      "à¦¶à¦¨ à¦ķ",
      "Ġà¦īà¦ª à¦²à¦¬",
      "Ġà§§à§ §à§",
      "Ġ2 4",
      "Ġà§¨à§¦ à§¦à§¦",
      "ĠâĢĺ âĢĺ",
      "à¦ĺ à¦¬à¦¦",
      "Ġà¦ķà¦® à¦¤",
      "Ġà¦¸à¦¬ à¦ķ",
      "Ġà¦¸à¦¬ à¦ľ",
      "Ġà¦ıà¦¸ à¦ıà¦®",
      "à§Ń à§®",
      "Ġà¦¸à¦Ļ à¦ĺà¦¬à¦¦",
      "Ġà§¨à§¦à§§à§ ¯",
      "à¦¸à¦² à¦®",
      "Ġà¦¦à¦² à¦Ł",
      "à¦¯à¦® à¦¯",
      "à¦ĩà¦Ł à¦¸",
      "Ġà¦ıà¦² à¦ľ",
      "in d",
      "Ġà§« à§«",
      "Ġà§« à§¦à§¦à§¦",
      "Ġà¦Ĩà¦ľ à¦¬",
      "Ġà¦Ĩà¦ľ à¦®",
      "Ġà¦Ĩà¦ľ à¦¹",
      "Ġà§¦ à§¯à§¬",
      "Ġà¦ĩà¦¨ à¦Ń",
      "Ġà¦ĩà¦¨ à¦«",
      "Ġà§ª à§¦à§¦",
      "Ġà§ª à§¬",
      "à¦¶à¦ķ à¦¤",
      "à¦Ĺà¦¤ à¦ķ",
      "Ġt ime",
      "Ġà¦ħà¦¬ à¦¦",
      "à¦ħ à¦ª",
      "à¦ħ à¦¬à¦¶",
      "Ġà¦ħà¦¬à¦¸ à¦°",
      "Ġà¦Ĩà¦ķ à¦¬à¦°",
      "Ġà§¬ à§Ń",
      "à¦ıà¦¸ à¦Ł",
      "Ġà¦Ĩà¦¶ à¦ª",
      "Ġà§Ń à§®",
      "Ġà§Ń à§§",
      "Ġà§Ń à§¦à§¦à§¦",
      "à¦¬à¦ķ à¦ķ",
      "à§İà¦¸ à¦°",
      "à§¨à§¦ à§§à§¬",
      "à§¨à§¦ à§§à§©",
      "Ġ1 7",
      "Ġà§® à§¦",
      "Ġà§® à§ªà§©",
      "Ġà¦ħà¦ª à¦®",
      "ov ies",
      "at a",
      "ĠS I",
      "ĠS af",
      "re ct",
      "Ġà¦Ĩà¦ĩ à¦¡",
      "Ġà¦īà¦ł à¦¬",
      "Ġà¦ªà¦¥ à¦ļ",
      "ĠP ro",
      "Ġà¦Ĩà¦ª à¦¡",
      "Ġà¦Ĺà¦£ à¦¤",
      "à§§à§¨ à§©à§®",
      "ĠA dd",
      "Âł ĠÂł",
      "Ġa b",
      "Ġa m",
      "Ġc ap",
      "Ġà¦Ńà¦¬à¦¨ à¦Ł",
      "or i",
      "Ġb un",
      "âĢĿ à¥¤",
      "ad es",
      "à¦Ĩà¦ĩ à¦«",
      "à¦Ĩà¦ĩ à¦¡à¦¬",
      "à¦°à¦« à¦°à¦®",
      "Ġà¦ķà¦¨ à¦«",
      "Ġà¦¤à¦ĸà¦¨ à¦ĩ",
      "à§§à§« à§¨à§§à§«",
      "Ġà¦¦à¦° à¦ľ",
      "Ġm ovies",
      "à¦Ĺà¦ľ à¦¹",
      "un e",
      "à¦ĩà¦¡ à¦²",
      "Ġf or",
      "ag ra",
      "ĠD e",
      "ĠD ata",
      "Ġà§§à§ª à§§",
      "à¦°à¦ªà¦° à¦ĵ",
      "Ġâ ĨĴ",
      "Ġà§¨à§¦à§¦ à§¬",
      "Ġà§¯à§«à§« à§¨à§¬",
      "14 0",
      "Ġà¦· à¦·",
      "Ġà¦Īà¦¦ à¦Ĺ",
      "à¦¹à¦¬ à¦§",
      "19 64",
      "à§¨à§Ń à§®à§Ń",
      "15 2",
      "ĠW in",
      "Ġvi rgin",
      "à§§à§ª à§©",
      "Ġà¦¸à¦« à¦°à¦ķ",
      "di rect",
      "ist s",
      "à¦ĩà¦¦ à¦¹",
      "Ġà§«à§® à§¯",
      "ĠSe lect",
      "ter n",
      "à¦®à¦ĺ à¦Ł",
      "om i",
      "Ġfre e",
      "à¦īà¦ª à¦ľ",
      "Ġà§¦à§§à§¯ à§§à§¨à§©à§®",
      "Ġà§®à§ªà§©à§¨ à§©à§Ń",
      "Ġsu ahm",
      "av e",
      "hi pping",
      "Ġà¦¸à¦«à¦Ł à¦ĵà¦¯",
      "Ġà¦ıà¦ıà¦¸ à¦ª",
      "Ġà§¦à§§à§®à§ª à§§à§«à§¨à§§à§«",
      "Un ited",
      "à§įâĢį âĢĮ",
      "Ġà§¦à§¯à§¬ à§§à§¨",
      "Ġà§®à§ªà§© à§¨à§¦à§ª",
      "Ġà§¯à§«à§«à§¨à§¬ à§¯à§¯",
      "Ġvirgin s",
      "Ġà§¦à§§à§¯à§§à§¨à§©à§® à§¨à§Ńà§®à§Ń",
      "Ġsuahm ed",
      "0 3",
      "1 1",
      "1 12",
      "1 13",
      "1 50",
      "1 15",
      "1 17",
      "2 3",
      "2 6",
      "2 7",
      "3 3",
      "3 6",
      "4 9",
      "5 4",
      "8 8",
      "9 3",
      ": -",
      "A N",
      "A h",
      "C OM",
      "E C",
      "I ON",
      "O L",
      "S Y",
      "a c",
      "a k",
      "a ch",
      "a ce",
      "b oo",
      "c re",
      "d le",
      "e g",
      "f f",
      "g o",
      "g or",
      "i f",
      "i de",
      "k e",
      "k al",
      "l l",
      "l ic",
      "l ess",
      "m l",
      "m Ah",
      "n ed",
      "o s",
      "o x",
      "p aper",
      "r es",
      "s s",
      "s w",
      "s it",
      "t w",
      "t ain",
      "u l",
      "u ck",
      "u age",
      "w ent",
      "w jo",
      "| |",
      "Ġ j",
      "Ġ v",
      "Ġ at",
      "Ġ re",
      "Ġ 50",
      "Ġ lo",
      "Ġ >>",
      "Ġ link",
      "Ġ ||",
      "Ķ à¦·",
      "Ġà¦ Ĭ",
      "Ġà¦ Ķà¦·",
      "à¦¾ âĢĮ",
      "à¦¾ ),",
      "à¦° à¦¡",
      "à§ĩ âĢĶ",
      "à¦¿ ;",
      "à¦¿ =",
      "à¦¨ à¦¥",
      "à¦¨ à¦¶à¦¨",
      "à¦¨ à¦¤à¦®",
      "à¦¨ à¦¨à¦Ł",
      "à¦¯ à¦Ĺ",
      "à¦¯ à¦Ń",
      "à¦¯ à¦°à¦¤",
      "à¦¯ à¦®à¦¤",
      "à¦¯ à¦ķà¦²",
      "à¦¯ à¦Łà¦¨",
      "à¦¯ à¦²à¦¯",
      "à¦¯ à¦Łà¦ķ",
      "à¦ķ à¦ĵ",
      "à¦ķ à¦Ĩ",
      "à¦² à¦ĩ",
      "à¦² à¦ĸ",
      "à¦² à¦¥",
      "à¦² à¦®à¦¨",
      "à¦² à¦Ĺà¦°",
      "à¦² à¦¸à¦¹",
      "à¦¼ ;",
      "à¦¬ à¦Ľ",
      "à¦¬ à§İ",
      "à¦® à¦Ń",
      "à¦® à¦¹à¦²",
      "Ġà¦ķ à¦Ł",
      "Ġà¦ķ à¦ĩ",
      "Ġà¦ķ à¦¡",
      "Ġà¦ķ à¦ļ",
      "Ġà¦ķ à¦Ń",
      "Ġà¦ķ à¦¦à¦°",
      "Ġà¦ķ à¦¬à¦²",
      "à¦¸ à¦ĸ",
      "Ġà¦¸ à¦²",
      "Ġà¦¸ à¦¬à¦¸",
      "Ġà¦¸ à¦°à¦¦",
      "Ġà¦¸ à¦ĵà¦ľ",
      "Ġà¦¬ à¦¦",
      "Ġà¦¬ à¦§",
      "Ġà¦¬ à¦ļ",
      "à¦¦ à¦¤",
      "à¦¦ à¦¹",
      "Ġà¦ª à¦¨",
      "Ġà¦ª à¦¹",
      "Ġà¦ª à¦¤à¦¨",
      "à¦Ł à¦Ľ",
      "à¦ª à¦¬",
      "à¥¤ à¥¤",
      "à§Ģ '",
      "à§Ģ )",
      "Ġà¦Ĩ à¦Ń",
      "Ġà¦Ĩ à¦¹à¦¸",
      "Ġà¦Ĩ à¦«à¦°",
      "Ġà¦Ĩ à¦«à¦¸",
      "Ġà¦® à¦®à¦¤",
      "Ġà¦® à¦ľà¦²",
      "Ġà¦® à¦ļà¦ķ",
      "à¦ľ à¦¡",
      "à¦ľ à¦ķà¦²",
      "à¦¶ à¦¯",
      "à¦¶ à¦®",
      "à¦¶ à¦ªà¦¥",
      "Ġà¦¨ à¦Ĺà¦¦",
      "à¦ĩ à¦¶",
      "à¦ĩ à¦ľà¦¨",
      "à¦ĩ à¦ĺ",
      "à¦ĩ à¦Ľà¦²",
      "Ġà¦¦ à¦¯",
      "Ġà¦¹ à¦ĩà¦¤",
      "à¦Ľ à¦ķ",
      "à¦Ľ à¦¬",
      "à¦Ľ à¦Ł",
      "à¦¹ à¦¯",
      "à¦¹ à¦¦",
      "à¦¹ à¦ĵ",
      "à¦¹ à§İ",
      "à¦¡ à¦«",
      "à¦· à¦¸",
      "à¦· à¦ª",
      "à¦· à¦ĩ",
      "à¦· à¦Ń",
      "Ġà¦ľ à¦Ł",
      "Ġà¦ľ à¦Ĺà¦¤",
      "à¦§ à¦¯",
      "Ġà¦¤ à¦¨",
      "Ġà¦¤ à¦¤à¦ĩ",
      "Ġà¦ħ à¦®à¦¨",
      "Ġà¦ħ à¦ľà¦¯",
      "Ġà¦ħ à¦¬à¦²à¦®",
      "à¦ļ à¦Ĺà¦¡",
      "à¦Ń à¦ķ",
      "à¦Ń à¦°à¦¶",
      "Ġà¦° à¦ľà¦¤",
      "à¦ĸ à¦¯",
      "à¦ĸ à¦®",
      "à¦ĸ à¦ª",
      "à¦¥ à¦ĸà¦²",
      "Ġà¦¯ à¦¤à¦ĩ",
      "à¦£ à¦¨",
      "à¦£ à¦ķ",
      "à¦£ à¦§",
      "à¦ĵ à¦°",
      "à¦ĵ à¦²à¦ª",
      "Ġà¦¶ à¦Ļ",
      "Ġà¦Ĺ à¦¯",
      "Ġà¦Ĺ à¦¦",
      "Ġà¦Ĺ à¦ª",
      "Ġà¦ļ à¦®",
      "Ġà¦ĵ à¦ª",
      "Ġà¦ĵ à¦·",
      "Ġà¦ĵ à¦®à¦°",
      "Ġà¦ĵ à¦ıà¦¸",
      "à§¦ à§§",
      "Ġà¦ī à¦ªà¦¨",
      "Ġà¦Ń à¦Ł",
      "Ġà¦ªà¦° à¦°",
      "Ġà¦ıà¦ķ à¦¤",
      "Ġà¦ıà¦ķ à¦¥",
      "Ġà¦ıà¦ķ à¦ªà¦°",
      "Ġà¦ıà¦ķ à¦¦à¦®",
      "Ġà¦« à¦¸à¦²",
      "Ġà¦« à¦¨à¦¸",
      "Ġà¦ĩ à¦¸à¦®",
      "Ġà¦ĩ à¦¹à¦ķ",
      "Ġà¦ĸ à¦¤",
      "Ġà¦ĸ à¦¤à¦®",
      "Ġà¦ĸ à¦¸à¦°",
      "à¦°à¦¤ à¦¯",
      "à¦°à¦¤ à¦¬à¦°",
      "à¦ı à¦Ń",
      "à¦ı à¦®à¦¨",
      "à¦ı à¦ķà¦¬",
      "Ġà¦ħà¦¨ à¦¨",
      "à¦ī à¦®",
      "à¦ī à¦¶à¦¨",
      "Ġà¦ľà¦¨ à¦¸à¦®",
      "Ġà¦ľà¦¨ à¦ªà¦¦",
      "à¦¬à¦° à¦Ĺà¦ŀ",
      "à¦ł à¦Ł",
      "à¦ł à¦¶",
      "Ġà¦Ł à¦¸",
      "à¦Ĩ à¦ª",
      "à¦Ĩ à¦¸à¦¨",
      "à¦Ĩ à¦¨à¦¨",
      "à¦Ĩ à¦ľà¦ķ",
      "Ġà¦¡ à¦Łà¦ķà¦®",
      "à¦°à¦£ à¦Ń",
      "à¦ľà¦¨ à¦¶",
      "à§¨ à§¦à§¦à§¦",
      "ĠâĢ į",
      "à¦ĥ )",
      "Ġà¦ĺ à¦·",
      "à¦¤à¦° à¦¨",
      "à¦¼à¦¿ âĢĻ",
      "à§« à§§",
      "à§© à§¦à§¦",
      "à¦¶à¦¨ à¦Ł",
      "à¦¬à¦¸ à¦®",
      "Ġà¦īà¦ª à¦¹",
      "Ġà¦Ĩà¦¸ à¦ķ",
      "Ġà¦Ĩà¦² à¦¤",
      "Ġà¦ıà¦° à¦¶",
      "à¦ĺ à¦®",
      "à¦°à¦¬ à¦£",
      "à§® à§®à§Ń",
      "à¦°à¦¸ à¦°",
      "à¦°à¦¸ à¦®",
      "à¦°à¦¸ à¦¹",
      "à§ª à§«",
      "à§ª à§¬",
      "à¦°à¦¦ à¦ķ",
      "Ġà¦ķà¦® à¦²",
      "Ġà¦ķà¦® à¦ªà¦ķ",
      "à§¯ à§¦",
      "à¦¬à¦¹ à¦£",
      "à§¦à§¦ à§¦à§¦",
      "à¦¦à¦¨ à¦ķ",
      "Ġà¦ıà¦¸ à¦Ĩà¦ĩ",
      "à§Ń à§«",
      "à¦¦à¦° à¦¬à¦¨",
      "Ġà¦ļà¦² à¦²",
      "Ġà¦ļà¦² à¦®",
      "Ġà§¨à§¦à§§à§ §",
      "à§¬ à§ª",
      "à§¬ à§¯",
      "Ġà¦Ĩà¦¨ à¦¸",
      "Ġà§© à§¨",
      "Ġà§© à§¦à§¦à§¦",
      "à¦¬à¦² à¦Ľ",
      "à¦·à¦£ à¦ĩ",
      "à¦²à¦¤ à¦ķ",
      "à¦²à¦¤ à¦ª",
      "Ġà§« à§¨",
      "Ġà§¦ à§«",
      "Ġà§¦ à§©",
      "Ġà§¦ à§¯",
      "à¦Ŀ à¦°",
      "à¦¼à§Ģ à¥¤",
      "à¦°à¦¹ à¦¸",
      "Ġà¦¸à¦° à¦ŀ",
      "à¦ıà¦¨ à¦ľ",
      "à¦ıà¦¨ à¦ıà¦¨",
      "an t",
      "à¦Ĺà¦¤ à¦Ń",
      "Ġt went",
[...]
