{"version": "1.0", "truncation": null, "padding": null, "added_tokens": [{"id": 29111, "content": "ক্ক", "single_word": false, "lstrip": false, "rstrip": false, "normalized": true, "special": false}, {"id": 29112, "content": "ক্ট্র", "single_word": false, "lstrip": false, "rstrip": false, "normalized": true, "special": false}, {"id": 29113, "content": "ক্ত্র", "single_word": false, "lstrip": false, "rstrip": false, "normalized": true, "special": false}, {"id": 29114, "content": "ক্ন", "single_word": false, "lstrip": false, "rstrip": false, "normalized": true, "special": false}, {"id": 29115, "content": "ক্ম", "single_word": false, "lstrip": false, "rstrip": false, "normalized": true, "special": false}, {"id": 29116, "content": "ক্ষ্ণ", "single_word": false, "lstrip": false, "rstrip": false, "normalized": true, "special": false}, {"id": 29117, "content": "ক্ষ্ব", "single_word": false, "lstrip": false, "rstrip": false, "normalized": true, "special": false}, {"id": 29118, "content": "ক্ষ্ম্য", "single_word": false, "lstrip": false, "rstrip": false, "normalized": true, "special": false}, {"id": 29119, "content": "খ্য", "single_word": false, "lstrip": false, "rstrip": false, "normalized": true, "special": false}, {"id": 29120, "content": "খ্র", "single_word": false, "lstrip": false, "rstrip": false, "normalized": true, "special": false}, {"id": 29121, "content": "গ্‌ণ", "single_word": false, "lstrip": false, "rstrip": false, "normalized": true, "special": false}, {"id": 29122, "content": "গ্ধ্য", "single_word": false, "lstrip": false, "rstrip": false, "normalized": true, "special": false}, {"id": 29123, "content": "গ্ধ্র", "single_word": false, "lstrip": false, "rstrip": false, "normalized": true, "special": false}, {"id": 29124, "content": "গ্ন্য", "single_word": false, "lstrip": false, "rstrip": false, "normalized": true, "special": false}, {"id": 29125, "content": "গ্ব", "single_word": false, "lstrip": false, "rstrip": false, "normalized": true, "special": false}, {"id": 29126, "content": "গ্ম", "single_word": false, "lstrip": false, "rstrip": false, "normalized": true, "special": false}, {"id": 29127, "content": "গ্য", "single_word": false, "lstrip": false, "rstrip": false, "normalized": true, "special": false}, {"id": 29128, "content": "গ্র্য", "single_word": false, "lstrip": false, "rstrip": false, "normalized": true, "special": false}, {"id": 29129, "content": "গ্ল", "single_word": false, "lstrip": false, "rstrip": false, "normalized": true, "special": false}, {"id": 29130, "content": "ঘ্ন", "single_word": false, "lstrip": false, "rstrip": false, "normalized": true, "special": false}, {"id": 29131, "content": "ঙ্‌ক্ত", "single_word": false, "lstrip": false, "rstrip": false, "normalized": true, "special": false}, {"id": 29132, "content": "ঙ্ক্য", "single_word": false, "lstrip": false, "rstrip": false, "normalized": true, "special": false}, {"id": 29133, "content": "ঙ্ক্ষ", "single_word": false, "lstrip": false, "rstrip": false, "normalized": true, "special": false}, {"id": 29134, "content": "ঙ্খ্য", "single_word": false, "lstrip": false, "rstrip": false, "normalized": true, "special": false}, {"id": 29135, "content": "ঙ্গ্য", "single_word": false, "lstrip": false, "rstrip": false, "normalized": true, "special": false}, {"id": 29136, "content": "ঙ্ঘ", "single_word": false, "lstrip": false, "rstrip": false, "normalized": true, "special": false}, {"id": 29137, "content": "ঙ্ঘ্য", "single_word": false, "lstrip": false, "rstrip": false, "normalized": true, "special": false}, {"id": 29138, "content": "ঙ্ঘ্র", "single_word": false, "lstrip": false, "rstrip": false, "normalized": true, "special": false}, {"id": 29139, "content": "ঙ্ম", "single_word": false, "lstrip": false, "rstrip": false, "normalized": true, "special": false}, {"id": 29140, "content": "চ্ছ্ব", "single_word": false, "lstrip": false, "rstrip": false, "normalized": true, "special": false}, {"id": 29141, "content": "চ্ছ্র", "single_word": false, "lstrip": false, "rstrip": false, "normalized": true, "special": false}, {"id": 29142, "content": "চ্ঞ", "single_word": false, "lstrip": false, "rstrip": false, "normalized": true, "special": false}, {"id": 29143, "content": "চ্ব", "single_word": false, "lstrip": false, "rstrip": false, "normalized": true, "special": false}, {"id": 29144, "content": "জ্জ্ব", "single_word": false, "lstrip": false, "rstrip": false, "normalized": true, "special": false}, {"id": 29145, "content": "জ্ঝ", "single_word": false, "lstrip": false, "rstrip": false, "normalized": true, "special": false}, {"id": 29146, "content": "জ্র", "single_word": false, "lstrip": false, "rstrip": false, "normalized": true, "special": false}, {"id": 29147, "content": "ঞ্ঝ", "single_word": false, "lstrip": false, "rstrip": false, "normalized": true, "special": false}, {"id": 29148, "content": "ট্ব", "single_word": false, "lstrip": false, "rstrip": false, "normalized": true, "special": false}, {"id": 29149, "content": "ট্ম", "single_word": false, "lstrip": false, "rstrip": false, "normalized": true, "special": false}, {"id": 29150, "content": "ড্ব", "single_word": false, "lstrip": false, "rstrip": false, "normalized": true, "special": false}, {"id": 29151, "content": "ড্ম", "single_word": false, "lstrip": false, "rstrip": false, "normalized": true, "special": false}, {"id": 29152, "content": "ড্য", "single_word": false, "lstrip": false, "rstrip": false, "normalized": true, "special": false}, {"id": 29153, "content": "ড়্গ", "single_word": false, "lstrip": false, "rstrip": false, "normalized": true, "special": false}, {"id": 29154, "content": "ঢ্র", "single_word": false, "lstrip": false, "rstrip": false, "normalized": true, "special": false}, {"id": 29155, "content": "ণ্ঠ্য", "single_word": false, "lstrip": false, "rstrip": false, "normalized": true, "special": false}, {"id": 29156, "content": "ণ্ড্য", "single_word": false, "lstrip": false, "rstrip": false, "normalized": true, "special": false}, {"id": 29157, "content": "ণ্ড্র", "single_word": false, "lstrip": false, "rstrip": false, "normalized": true, "special": false}, {"id": 29158, "content": "ণ্ঢ", "single_word": false, "lstrip": false, "rstrip": false, "normalized": true, "special": false}, {"id": 29159, "content": "ণ্ণ", "single_word": false, "lstrip": false, "rstrip": false, "normalized": true, "special": false}, {"id": 29160, "content": "ণ্ব", "single_word": false, "lstrip": false, "rstrip": false, "normalized": true, "special": false}, {"id": 29161, "content": "ণ্ম", "single_word": false, "lstrip": false, "rstrip": false, "normalized": true, "special": false}, {"id": 29162, "content": "ত্ত্র", "single_word": false, "lstrip": false, "rstrip": false, "normalized": true, "special": false}, {"id": 29163, "content": "ত্ত্য", "single_word": false, "lstrip": false, "rstrip": false, "normalized": true, "special": false}, {"id": 29164, "content": "ত্থ", "single_word": false, "lstrip": false, "rstrip": false, "normalized": true, "special": false}, {"id": 29165, "content": "ত্র্য", "single_word": false, "lstrip": false, "rstrip": false, "normalized": true, "special": false}, {"id": 29166, "content": "থ্ব", "single_word": false, "lstrip": false, "rstrip": false, "normalized": true, "special": false}, {"id": 29167, "content": "দ্গ", "single_word": false, "lstrip": false, "rstrip": false, "normalized": true, "special": false}, {"id": 29168, "content": "দ্ঘ", "single_word": false, "lstrip": false, "rstrip": false, "normalized": true, "special": false}, {"id": 29169, "content": "দ্দ্ব", "single_word": false, "lstrip": false, "rstrip": false, "normalized": true, "special": false}, {"id": 29170, "content": "দ্ভ", "single_word": false, "lstrip": false, "rstrip": false, "normalized": true, "special": false}, {"id": 29171, "content": "দ্ভ্র", "single_word": false, "lstrip": false, "rstrip": false, "normalized": true, "special": false}, {"id": 29172, "content": "দ্ম", "single_word": false, "lstrip": false, "rstrip": false, "normalized": true, "special": false}, {"id": 29173, "content": "দ্র্য", "single_word": false, "lstrip": false, "rstrip": false, "normalized": true, "special": false}, {"id": 29174, "content": "ধ্ন", "single_word": false, "lstrip": false, "rstrip": false, "normalized": true, "special": false}, {"id": 29175, "content": "ধ্ম", "single_word": false, "lstrip": false, "rstrip": false, "normalized": true, "special": false}, {"id": 29176, "content": "ন্ট্র", "single_word": false, "lstrip": false, "rstrip": false, "normalized": true, "special": false}, {"id": 29177, "content": "ন্ড্র", "single_word": false, "lstrip": false, "rstrip": false, "normalized": true, "special": false}, {"id": 29178, "content": "ন্ত্ব", "single_word": false, "lstrip": false, "rstrip": false, "normalized": true, "special": false}, {"id": 29179, "content": "ন্ত্য", "single_word": false, "lstrip": false, "rstrip": false, "normalized": true, "special": false}, {"id": 29180, "content": "ন্ত্র্য", "single_word": false, "lstrip": false, "rstrip": false, "normalized": true, "special": false}, {"id": 29181, "content": "ন্থ্র", "single_word": false, "lstrip": false, "rstrip": false, "normalized": true, "special": false}, {"id": 29182, "content": "ন্দ্ব", "single_word": false, "lstrip": false, "rstrip": false, "normalized": true, "special": false}, {"id": 29183, "content": "ন্ধ্য", "single_word": false, "lstrip": false, "rstrip": false, "normalized": true, "special": false}, {"id": 29184, "content": "ন্ধ্র", "single_word": false, "lstrip": false, "rstrip": false, "normalized": true, "special": false}, {"id": 29185, "content": "ন্ব", "single_word": false, "lstrip": false, "rstrip": false, "normalized": true, "special": false}, {"id": 29186, "content": "প্ন", "single_word": false, "lstrip": false, "rstrip": false, "normalized": true, "special": false}, {"id": 29187, "content": "প্প", "single_word": false, "lstrip": false, "rstrip": false, "normalized": true, "special": false}, {"id": 29188, "content": "প্র্য", "single_word": false, "lstrip": false, "rstrip": false, "normalized": true, "special": false}, {"id": 29189, "content": "ব্জ", "single_word": false, "lstrip": false, "rstrip": false, "normalized": true, "special": false}, {"id": 29190, "content": "ভ্ব", "single_word": false, "lstrip": false, "rstrip": false, "normalized": true, "special": false}, {"id": 29191, "content": "ভ্ল", "single_word": false, "lstrip": false, "rstrip": false, "normalized": true, "special": false}, {"id": 29192, "content": "ম্প্র", "single_word": false, "lstrip": false, "rstrip": false, "normalized": true, "special": false}, {"id": 29193, "content": "ম্ফ", "single_word": false, "lstrip": false, "rstrip": false, "normalized": true, "special": false}, {"id": 29194, "content": "ম্ব্র", "single_word": false, "lstrip": false, "rstrip": false, "normalized": true, "special": false}, {"id": 29195, "content": "ম্ভ্র", "single_word": false, "lstrip": false, "rstrip": false, "normalized": true, "special": false}, {"id": 29196, "content": "ম্ম", "single_word": false, "lstrip": false, "rstrip": false, "normalized": true, "special": false}, {"id": 29197, "content": "ম্র", "single_word": false, "lstrip": false, "rstrip": false, "normalized": true, "special": false}, {"id": 29198, "content": "ম্ল", "single_word": false, "lstrip": false, "rstrip": false, "normalized": true, "special": false}, {"id": 29199, "content": "র্ক্য", "single_word": false, "lstrip": false, "rstrip": false, "normalized": true, "special": false}, {"id": 29200, "content": "র্গ্য", "single_word": false, "lstrip": false, "rstrip": false, "normalized": true, "special": false}, {"id": 29201, "content": "র্ঘ্য", "single_word": false, "lstrip": false, "rstrip": false, "normalized": true, "special": false}, {"id": 29202, "content": "র্ঙ্গ", "single_word": false, "lstrip": false, "rstrip": false, "normalized": true, "special": false}, {"id": 29203, "content": "র্চ্য", "single_word": false, "lstrip": false, "rstrip": false, "normalized": true, "special": false}, {"id": 29204, "content": "র্জ্য", "single_word": false, "lstrip": false, "rstrip": false, "normalized": true, "special": false}, {"id": 29205, "content": "র্জ্জ", "single_word": false, "lstrip": false, "rstrip": false, "normalized": true, "special": false}, {"id": 29206, "content": "র্জ্ঞ", "single_word": false, "lstrip": false, "rstrip": false, "normalized": true, "special": false}, {"id": 29207, "content": "র্ণ্য", "single_word": false, "lstrip": false, "rstrip": false, "normalized": true, "special": false}, {"id": 29208, "content": "র্ত্য", "single_word": false, "lstrip": false, "rstrip": false, "normalized": true, "special": false}, {"id": 29209, "content": "র্থ্য", "single_word": false, "lstrip": false, "rstrip": false, "normalized": true, "special": false}, {"id": 29210, "content": "র্ব্য", "single_word": false, "lstrip": false, "rstrip": false, "normalized": true, "special": false}, {"id": 29211, "content": "র্ম্য", "single_word": false, "lstrip": false, "rstrip": false, "normalized": true, "special": false}, {"id": 29212, "content": "র্শ্য", "single_word": false, "lstrip": false, "rstrip": false, "normalized": true, "special": false}, {"id": 29213, "content": "র্ষ্য", "single_word": false, "lstrip": false, "rstrip": false, "normalized": true, "special": false}, {"id": 29214, "content": "র্হ্য", "single_word": false, "lstrip": false, "rstrip": false, "normalized": true, "special": false}, {"id": 29215, "content": "র্খ", "single_word": false, "lstrip": false, "rstrip": false, "normalized": true, "special": false}, {"id": 29216, "content": "র্গ্র", "single_word": false, "lstrip": false, "rstrip": false, "normalized": true, "special": false}, {"id": 29217, "content": "র্চ", "single_word": false, "lstrip": false, "rstrip": false, "normalized": true, "special": false}, {"id": 29218, "content": "র্ছ", "single_word": false, "lstrip": false, "rstrip": false, "normalized": true, "special": false}, {"id": 29219, "content": "র্জ", "single_word": false, "lstrip": false, "rstrip": false, "normalized": true, "special": false}, {"id": 29220, "content": "র্ঝ", "single_word": false, "lstrip": false, "rstrip": false, "normalized": true, "special": false}, {"id": 29221, "content": "র্ড", "single_word": false, "lstrip": false, "rstrip": false, "normalized": true, "special": false}, {"id": 29222, "content": "র্ৎ", "single_word": false, "lstrip": false, "rstrip": false, "normalized": true, "special": false}, {"id": 29223, "content": "র্ত্ম", "single_word": false, "lstrip": false, "rstrip": false, "normalized": true, "special": false}, {"id": 29224, "content": "র্ত্র", "single_word": false, "lstrip": false, "rstrip": false, "normalized": true, "special": false}, {"id": 29225, "content": "র্দ", "single_word": false, "lstrip": false, "rstrip": false, "normalized": true, "special": false}, {"id": 29226, "content": "র্দ্ব", "single_word": false, "lstrip": false, "rstrip": false, "normalized": true, "special": false}, {"id": 29227, "content": "র্দ্র", "single_word": false, "lstrip": false, "rstrip": false, "normalized": true, "special": false}, {"id": 29228, "content": "র্ধ", "single_word": false, "lstrip": false, "rstrip": false, "normalized": true, "special": false}, {"id": 29229, "content": "র্প", "single_word": false, "lstrip": false, "rstrip": false, "normalized": true, "special": false}, {"id": 29230, "content": "র্ফ", "single_word": false, "lstrip": false, "rstrip": false, "normalized": true, "special": false}, {"id": 29231, "content": "র্ভ", "single_word": false, "lstrip": false, "rstrip": false, "normalized": true, "special": false}, {"id": 29232, "content": "র্ম", "single_word": false, "lstrip": false, "rstrip": false, "normalized": true, "special": false}, {"id": 29233, "content": "র্ল", "single_word": false, "lstrip": false, "rstrip": false, "normalized": true, "special": false}, {"id": 29234, "content": "র্শ", "single_word": false, "lstrip": false, "rstrip": false, "normalized": true, "special": false}, {"id": 29235, "content": "র্শ্ব", "single_word": false, "lstrip": false, "rstrip": false, "normalized": true, "special": false}, {"id": 29236, "content": "র্ষ্ট", "single_word": false, "lstrip": false, "rstrip": false, "normalized": true, "special": false}, {"id": 29237, "content": "র্ষ্ণ", "single_word": false, "lstrip": false, "rstrip": false, "normalized": true, "special": false}, {"id": 29238, "content": "র্ষ্ণ্য", "single_word": false, "lstrip": false, "rstrip": false, "normalized": true, "special": false}, {"id": 29239, "content": "র্হ", "single_word": false, "lstrip": false, "rstrip": false, "normalized": true, "special": false}, {"id": 29240, "content": "র্ঢ্য", "single_word": false, "lstrip": false, "rstrip": false, "normalized": true, "special": false}, {"id": 29241, "content": "ল্ক্য", "single_word": false, "lstrip": false, "rstrip": false, "normalized": true, "special": false}, {"id": 29242, "content": "ল্গ", "single_word": false, "lstrip": false, "rstrip": false, "normalized": true, "special": false}, {"id": 29243, "content": "ল্ব", "single_word": false, "lstrip": false, "rstrip": false, "normalized": true, "special": false}, {"id": 29244, "content": "ল্ভ", "single_word": false, "lstrip": false, "rstrip": false, "normalized": true, "special": false}, {"id": 29245, "content": "ল্ম", "single_word": false, "lstrip": false, "rstrip": false, "normalized": true, "special": false}, {"id": 29246, "content": "শ্চ", "single_word": false, "lstrip": false, "rstrip": false, "normalized": true, "special": false}, {"id": 29247, "content": "শ্ছ", "single_word": false, "lstrip": false, "rstrip": false, "normalized": true, "special": false}, {"id": 29248, "content": "শ্ল", "single_word": false, "lstrip": false, "rstrip": false, "normalized": true, "special": false}, {"id": 29249, "content": "ষ্ক্ব", "single_word": false, "lstrip": false, "rstrip": false, "normalized": true, "special": false}, {"id": 29250, "content": "ষ্ক্র", "single_word": false, "lstrip": false, "rstrip": false, "normalized": true, "special": false}, {"id": 29251, "content": "ষ্ট্য", "single_word": false, "lstrip": false, "rstrip": false, "normalized": true, "special": false}, {"id": 29252, "content": "ষ্ঠ্য", "single_word": false, "lstrip": false, "rstrip": false, "normalized": true, "special": false}, {"id": 29253, "content": "ষ্ণ্ব", "single_word": false, "lstrip": false, "rstrip": false, "normalized": true, "special": false}, {"id": 29254, "content": "ষ্প", "single_word": false, "lstrip": false, "rstrip": false, "normalized": true, "special": false}, {"id": 29255, "content": "ষ্প্র", "single_word": false, "lstrip": false, "rstrip": false, "normalized": true, "special": false}, {"id": 29256, "content": "ষ্ফ", "single_word": false, "lstrip": false, "rstrip": false, "normalized": true, "special": false}, {"id": 29257, "content": "ষ্ব", "single_word": false, "lstrip": false, "rstrip": false, "normalized": true, "special": false}, {"id": 29258, "content": "ষ্ম", "single_word": false, "lstrip": false, "rstrip": false, "normalized": true, "special": false}, {"id": 29259, "content": "ষ্য", "single_word": false, "lstrip": false, "rstrip": false, "normalized": true, "special": false}, {"id": 29260, "content": "স্ক্র", "single_word": false, "lstrip": false, "rstrip": false, "normalized": true, "special": false}, {"id": 29261, "content": "স্খ", "single_word": false, "lstrip": false, "rstrip": false, "normalized": true, "special": false}, {"id": 29262, "content": "স্ত্ব", "single_word": false, "lstrip": false, "rstrip": false, "normalized": true, "special": false}, {"id": 29263, "content": "স্ত্য", "single_word": false, "lstrip": false, "rstrip": false, "normalized": true, "special": false}, {"id": 29264, "content": "স্ন্য", "single_word": false, "lstrip": false, "rstrip": false, "normalized": true, "special": false}, {"id": 29265, "content": "স্প্র", "single_word": false, "lstrip": false, "rstrip": false, "normalized": true, "special": false}, {"id": 29266, "content": "স্প্‌ল", "single_word": false, "lstrip": false, "rstrip": false, "normalized": true, "special": false}, {"id": 29267, "content": "স্ল", "single_word": false, "lstrip": false, "rstrip": false, "normalized": true, "special": false}, {"id": 29268, "content": "হ্ণ", "single_word": false, "lstrip": false, "rstrip": false, "normalized": true, "special": false}, {"id": 29269, "content": "হ্ব", "single_word": false, "lstrip": false, "rstrip": false, "normalized": true, "special": false}, {"id": 29270, "content": "হ্ম", "single_word": false, "lstrip": false, "rstrip": false, "normalized": true, "special": false}, {"id": 29271, "content": "হ্ল", "single_word": false, "lstrip": false, "rstrip": false, "normalized": true, "special": false}, {"id": 29272, "content": "কঃ", "single_word": false, "lstrip": false, "rstrip": false, "normalized": true, "special": false}, {"id": 29273, "content": "কঁ", "single_word": false, "lstrip": false, "rstrip": false, "normalized": true, "special": false}, {"id": 29274, "content": "খূ", "single_word": false, "lstrip": false, "rstrip": false, "normalized": true, "special": false}, {"id": 29275, "content": "খৈ", "single_word": false, "lstrip": false, "rstrip": false, "normalized": true, "special": false}, {"id": 29276, "content": "খৌ", "single_word": false, "lstrip": false, "rstrip": false, "normalized": true, "special": false}, {"id": 29277, "content": "খং", "single_word": false, "lstrip": false, "rstrip": false, "normalized": true, "special": false}, {"id": 29278, "content": "খঃ", "single_word": false, "lstrip": false, "rstrip": false, "normalized": true, "special": false}, {"id": 29279, "content": "খঁ", "single_word": false, "lstrip": false, "rstrip": false, "normalized": true, "special": false}, {"id": 29280, "content": "গূ", "single_word": false, "lstrip": false, "rstrip": false, "normalized": true, "special": false}, {"id": 29281, "content": "গঃ", "single_word": false, "lstrip": false, "rstrip": false, "normalized": true, "special": false}, {"id": 29282, "content": "গঁ", "single_word": false, "lstrip": false, "rstrip": false, "normalized": true, "special": false}, {"id": 29283, "content": "ঘী", "single_word": false, "lstrip": false, "rstrip": false, "normalized": true, "special": false}, {"id": 29284, "content": "ঘৈ", "single_word": false, "lstrip": false, "rstrip": false, "normalized": true, "special": false}, {"id": 29285, "content": "ঘৌ", "single_word": false, "lstrip": false, "rstrip": false, "normalized": true, "special": false}, {"id": 29286, "content": "ঘং", "single_word": false, "lstrip": false, "rstrip": false, "normalized": true, "special": false}, {"id": 29287, "content": "ঘঃ", "single_word": false, "lstrip": false, "rstrip": false, "normalized": true, "special": false}, {"id": 29288, "content": "ঘঁ", "single_word": false, "lstrip": false, "rstrip": false, "normalized": true, "special": false}, {"id": 29289, "content": "ঙি", "single_word": false, "lstrip": false, "rstrip": false, "normalized": true, "special": false}, {"id": 29290, "content": "ঙী", "single_word": false, "lstrip": false, "rstrip": false, "normalized": true, "special": false}, {"id": 29291, "content": "ঙু", "single_word": false, "lstrip": false, "rstrip": false, "normalized": true, "special": false}, {"id": 29292, "content": "ঙূ", "single_word": false, "lstrip": false, "rstrip": false, "normalized": true, "special": false}, {"id": 29293, "content": "ঙৃ", "single_word": false, "lstrip": false, "rstrip": false, "normalized": true, "special": false}, {"id": 29294, "content": "ঙৈ", "single_word": false, "lstrip": false, "rstrip": false, "normalized": true, "special": false}, {"id": 29295, "content": "ঙো", "single_word": false, "lstrip": false, "rstrip": false, "normalized": true, "special": false}, {"id": 29296, "content": "ঙৌ", "single_word": false, "lstrip": false, "rstrip": false, "normalized": true, "special": false}, {"id": 29297, "content": "ঙং", "single_word": false, "lstrip": false, "rstrip": false, "normalized": true, "special": false}, {"id": 29298, "content": "ঙঃ", "single_word": false, "lstrip": false, "rstrip": false, "normalized": true, "special": false}, {"id": 29299, "content": "ঙঁ", "single_word": false, "lstrip": false, "rstrip": false, "normalized": true, "special": false}, {"id": 29300, "content": "চৃ", "single_word": false, "lstrip": false, "rstrip": false, "normalized": true, "special": false}, {"id": 29301, "content": "চঃ", "single_word": false, "lstrip": false, "rstrip": false, "normalized": true, "special": false}, {"id": 29302, "content": "চঁ", "single_word": false, "lstrip": false, "rstrip": false, "normalized": true, "special": false}, {"id": 29303, "content": "ছী", "single_word": false, "lstrip": false, "rstrip": false, "normalized": true, "special": false}, {"id": 29304, "content": "ছূ", "single_word": false, "lstrip": false, "rstrip": false, "normalized": true, "special": false}, {"id": 29305, "content": "ছৃ", "single_word": false, "lstrip": false, "rstrip": false, "normalized": true, "special": false}, {"id": 29306, "content": "ছৌ", "single_word": false, "lstrip": false, "rstrip": false, "normalized": true, "special": false}, {"id": 29307, "content": "ছং", "single_word": false, "lstrip": false, "rstrip": false, "normalized": true, "special": false}, {"id": 29308, "content": "ছঃ", "single_word": false, "lstrip": false, "rstrip": false, "normalized": true, "special": false}, {"id": 29309, "content": "ছঁ", "single_word": false, "lstrip": false, "rstrip": false, "normalized": true, "special": false}, {"id": 29310, "content": "জূ", "single_word": false, "lstrip": false, "rstrip": false, "normalized": true, "special": false}, {"id": 29311, "content": "জৃ", "single_word": false, "lstrip": false, "rstrip": false, "normalized": true, "special": false}, {"id": 29312, "content": "জৌ", "single_word": false, "lstrip": false, "rstrip": false, "normalized": true, "special": false}, {"id": 29313, "content": "জঃ", "single_word": false, "lstrip": false, "rstrip": false, "normalized": true, "special": false}, {"id": 29314, "content": "জঁ", "single_word": false, "lstrip": false, "rstrip": false, "normalized": true, "special": false}, {"id": 29315, "content": "ঝী", "single_word": false, "lstrip": false, "rstrip": false, "normalized": true, "special": false}, {"id": 29316, "content": "ঝূ", "single_word": false, "lstrip": false, "rstrip": false, "normalized": true, "special": false}, {"id": 29317, "content": "ঝৃ", "single_word": false, "lstrip": false, "rstrip": false, "normalized": true, "special": false}, {"id": 29318, "content": "ঝৈ", "single_word": false, "lstrip": false, "rstrip": false, "normalized": true, "special": false}, {"id": 29319, "content": "ঝৌ", "single_word": false, "lstrip": false, "rstrip": false, "normalized": true, "special": false}, {"id": 29320, "content": "ঝং", "single_word": false, "lstrip": false, "rstrip": false, "normalized": true, "special": false}, {"id": 29321, "content": "ঝঃ", "single_word": false, "lstrip": false, "rstrip": false, "normalized": true, "special": false}, {"id": 29322, "content": "ঝঁ", "single_word": false, "lstrip": false, "rstrip": false, "normalized": true, "special": false}, {"id": 29323, "content": "টূ", "single_word": false, "lstrip": false, "rstrip": false, "normalized": true, "special": false}, {"id": 29324, "content": "টৃ", "single_word": false, "lstrip": false, "rstrip": false, "normalized": true, "special": false}, {"id": 29325, "content": "টৈ", "single_word": false, "lstrip": false, "rstrip": false, "normalized": true, "special": false}, {"id": 29326, "content": "টৌ", "single_word": false, "lstrip": false, "rstrip": false, "normalized": true, "special": false}, {"id": 29327, "content": "টং", "single_word": false, "lstrip": false, "rstrip": false, "normalized": true, "special": false}, {"id": 29328, "content": "টঃ", "single_word": false, "lstrip": false, "rstrip": false, "normalized": true, "special": false}, {"id": 29329, "content": "টঁ", "single_word": false, "lstrip": false, "rstrip": false, "normalized": true, "special": false}, {"id": 29330, "content": "ঠী", "single_word": false, "lstrip": false, "rstrip": false, "normalized": true, "special": false}, {"id": 29331, "content": "ঠূ", "single_word": false, "lstrip": false, "rstrip": false, "normalized": true, "special": false}, {"id": 29332, "content": "ঠৃ", "single_word": false, "lstrip": false, "rstrip": false, "normalized": true, "special": false}, {"id": 29333, "content": "ঠৈ", "single_word": false, "lstrip": false, "rstrip": false, "normalized": true, "special": false}, {"id": 29334, "content": "ঠৌ", "single_word": false, "lstrip": false, "rstrip": false, "normalized": true, "special": false}, {"id": 29335, "content": "ঠং", "single_word": false, "lstrip": false, "rstrip": false, "normalized": true, "special": false}, {"id": 29336, "content": "ঠঃ", "single_word": false, "lstrip": false, "rstrip": false, "normalized": true, "special": false}, {"id": 29337, "content": "ঠঁ", "single_word": false, "lstrip": false, "rstrip": false, "normalized": true, "special": false}, {"id": 29338, "content": "ডী", "single_word": false, "lstrip": false, "rstrip": false, "normalized": true, "special": false}, {"id": 29339, "content": "ডূ", "single_word": false, "lstrip": false, "rstrip": false, "normalized": true, "special": false}, {"id": 29340, "content": "ডৃ", "single_word": false, "lstrip": false, "rstrip": false, "normalized": true, "special": false}, {"id": 29341, "content": "ডৈ", "single_word": false, "lstrip": false, "rstrip": false, "normalized": true, "special": false}, {"id": 29342, "content": "ডৌ", "single_word": false, "lstrip": false, "rstrip": false, "normalized": true, "special": false}, {"id": 29343, "content": "ডঁ", "single_word": false, "lstrip": false, "rstrip": false, "normalized": true, "special": false}, {"id": 29344, "content": "ঢী", "single_word": false, "lstrip": false, "rstrip": false, "normalized": true, "special": false}, {"id": 29345, "content": "ঢূ", "single_word": false, "lstrip": false, "rstrip": false, "normalized": true, "special": false}, {"id": 29346, "content": "ঢৃ", "single_word": false, "lstrip": false, "rstrip": false, "normalized": true, "special": false}, {"id": 29347, "content": "ঢৈ", "single_word": false, "lstrip": false, "rstrip": false, "normalized": true, "special": false}, {"id": 29348, "content": "ঢৌ", "single_word": false, "lstrip": false, "rstrip": false, "normalized": true, "special": false}, {"id": 29349, "content": "ঢং", "single_word": false, "lstrip": false, "rstrip": false, "normalized": true, "special": false}, {"id": 29350, "content": "ঢঃ", "single_word": false, "lstrip": false, "rstrip": false, "normalized": true, "special": false}, {"id": 29351, "content": "ঢঁ", "single_word": false, "lstrip": false, "rstrip": false, "normalized": true, "special": false}, {"id": 29352, "content": "ণূ", "single_word": false, "lstrip": false, "rstrip": false, "normalized": true, "special": false}, {"id": 29353, "content": "ণৃ", "single_word": false, "lstrip": false, "rstrip": false, "normalized": true, "special": false}, {"id": 29354, "content": "ণৈ", "single_word": false, "lstrip": false, "rstrip": false, "normalized": true, "special": false}, {"id": 29355, "content": "ণো", "single_word": false, "lstrip": false, "rstrip": false, "normalized": true, "special": false}, {"id": 29356, "content": "ণৌ", "single_word": false, "lstrip": false, "rstrip": false, "normalized": true, "special": false}, {"id": 29357, "content": "ণং", "single_word": false, "lstrip": false, "rstrip": false, "normalized": true, "special": false}, {"id": 29358, "content": "ণঃ", "single_word": false, "lstrip": false, "rstrip": false, "normalized": true, "special": false}, {"id": 29359, "content": "ণঁ", "single_word": false, "lstrip": false, "rstrip": false, "normalized": true, "special": false}, {"id": 29360, "content": "তং", "single_word": false, "lstrip": false, "rstrip": false, "normalized": true, "special": false}, {"id": 29361, "content": "তঁ", "single_word": false, "lstrip": false, "rstrip": false, "normalized": true, "special": false}, {"id": 29362, "content": "থূ", "single_word": false, "lstrip": false, "rstrip": false, "normalized": true, "special": false}, {"id": 29363, "content": "থৃ", "single_word": false, "lstrip": false, "rstrip": false, "normalized": true, "special": false}, {"id": 29364, "content": "থৈ", "single_word": false, "lstrip": false, "rstrip": false, "normalized": true, "special": false}, {"id": 29365, "content": "থৌ", "single_word": false, "lstrip": false, "rstrip": false, "normalized": true, "special": false}, {"id": 29366, "content": "থং", "single_word": false, "lstrip": false, "rstrip": false, "normalized": true, "special": false}, {"id": 29367, "content": "থঃ", "single_word": false, "lstrip": false, "rstrip": false, "normalized": true, "special": false}, {"id": 29368, "content": "থঁ", "single_word": false, "lstrip": false, "rstrip": false, "normalized": true, "special": false}, {"id": 29369, "content": "দং", "single_word": false, "lstrip": false, "rstrip": false, "normalized": true, "special": false}, {"id": 29370, "content": "দঃ", "single_word": false, "lstrip": false, "rstrip": false, "normalized": true, "special": false}, {"id": 29371, "content": "দঁ", "single_word": false, "lstrip": false, "rstrip": false, "normalized": true, "special": false}, {"id": 29372, "content": "ধৃ", "single_word": false, "lstrip": false, "rstrip": false, "normalized": true, "special": false}, {"id": 29373, "content": "ধৌ", "single_word": false, "lstrip": false, "rstrip": false, "normalized": true, "special": false}, {"id": 29374, "content": "ধং", "single_word": false, "lstrip": false, "rstrip": false, "normalized": true, "special": false}, {"id": 29375, "content": "ধঃ", "single_word": false, "lstrip": false, "rstrip": false, "normalized": true, "special": false}, {"id": 29376, "content": "ধঁ", "single_word": false, "lstrip": false, "rstrip": false, "normalized": true, "special": false}, {"id": 29377, "content": "নঃ", "single_word": false, "lstrip": false, "rstrip": false, "normalized": true, "special": false}, {"id": 29378, "content": "নঁ", "single_word": false, "lstrip": false, "rstrip": false, "normalized": true, "special": false}, {"id": 29379, "content": "পঃ", "single_word": false, "lstrip": false, "rstrip": false, "normalized": true, "special": false}, {"id": 29380, "content": "ফূ", "single_word": false, "lstrip": false, "rstrip": false, "normalized": true, "special": false}, {"id": 29381, "content": "ফৃ", "single_word": false, "lstrip": false, "rstrip": false, "normalized": true, "special": false}, {"id": 29382, "content": "ফৈ", "single_word": false, "lstrip": false, "rstrip": false, "normalized": true, "special": false}, {"id": 29383, "content": "ফং", "single_word": false, "lstrip": false, "rstrip": false, "normalized": true, "special": false}, {"id": 29384, "content": "ফঃ", "single_word": false, "lstrip": false, "rstrip": false, "normalized": true, "special": false}, {"id": 29385, "content": "ফঁ", "single_word": false, "lstrip": false, "rstrip": false, "normalized": true, "special": false}, {"id": 29386, "content": "বূ", "single_word": false, "lstrip": false, "rstrip": false, "normalized": true, "special": false}, {"id": 29387, "content": "বঃ", "single_word": false, "lstrip": false, "rstrip": false, "normalized": true, "special": false}, {"id": 29388, "content": "বঁ", "single_word": false, "lstrip": false, "rstrip": false, "normalized": true, "special": false}, {"id": 29389, "content": "ভৃ", "single_word": false, "lstrip": false, "rstrip": false, "normalized": true, "special": false}, {"id": 29390, "content": "ভং", "single_word": false, "lstrip": false, "rstrip": false, "normalized": true, "special": false}, {"id": 29391, "content": "ভঃ", "single_word": false, "lstrip": false, "rstrip": false, "normalized": true, "special": false}, {"id": 29392, "content": "ভঁ", "single_word": false, "lstrip": false, "rstrip": false, "normalized": true, "special": false}, {"id": 29393, "content": "মঃ", "single_word": false, "lstrip": false, "rstrip": false, "normalized": true, "special": false}, {"id": 29394, "content": "মঁ", "single_word": false, "lstrip": false, "rstrip": false, "normalized": true, "special": false}, {"id": 29395, "content": "যৃ", "single_word": false, "lstrip": false, "rstrip": false, "normalized": true, "special": false}, {"id": 29396, "content": "যৈ", "single_word": false, "lstrip": false, "rstrip": false, "normalized": true, "special": false}, {"id": 29397, "content": "যং", "single_word": false, "lstrip": false, "rstrip": false, "normalized": true, "special": false}, {"id": 29398, "content": "যঃ", "single_word": false, "lstrip": false, "rstrip": false, "normalized": true, "special": false}, {"id": 29399, "content": "যঁ", "single_word": false, "lstrip": false, "rstrip": false, "normalized": true, "special": false}, {"id": 29400, "content": "রৃ", "single_word": false, "lstrip": false, "rstrip": false, "normalized": true, "special": false}, {"id": 29401, "content": "রৈ", "single_word": false, "lstrip": false, "rstrip": false, "normalized": true, "special": false}, {"id": 29402, "content": "রঁ", "single_word": false, "lstrip": false, "rstrip": false, "normalized": true, "special": false}, {"id": 29403, "content": "লূ", "single_word": false, "lstrip": false, "rstrip": false, "normalized": true, "special": false}, {"id": 29404, "content": "লৃ", "single_word": false, "lstrip": false, "rstrip": false, "normalized": true, "special": false}, {"id": 29405, "content": "লৈ", "single_word": false, "lstrip": false, "rstrip": false, "normalized": true, "special": false}, {"id": 29406, "content": "লঃ", "single_word": false, "lstrip": false, "rstrip": false, "normalized": true, "special": false}, {"id": 29407, "content": "লঁ", "single_word": false, "lstrip": false, "rstrip": false, "normalized": true, "special": false}, {"id": 29408, "content": "শঃ", "single_word": false, "lstrip": false, "rstrip": false, "normalized": true, "special": false}, {"id": 29409, "content": "শঁ", "single_word": false, "lstrip": false, "rstrip": false, "normalized": true, "special": false}, {"id": 29410, "content": "ষূ", "single_word": false, "lstrip": false, "rstrip": false, "normalized": true, "special": false}, {"id": 29411, "content": "ষৃ", "single_word": false, "lstrip": false, "rstrip": false, "normalized": true, "special": false}, {"id": 29412, "content": "ষৈ", "single_word": false, "lstrip": false, "rstrip": false, "normalized": true, "special": false}, {"id": 29413, "content": "ষৌ", "single_word": false, "lstrip": false, "rstrip": false, "normalized": true, "special": false}, {"id": 29414, "content": "ষং", "single_word": false, "lstrip": false, "rstrip": false, "normalized": true, "special": false}, {"id": 29415, "content": "ষঃ", "single_word": false, "lstrip": false, "rstrip": false, "normalized": true, "special": false}, {"id": 29416, "content": "ষঁ", "single_word": false, "lstrip": false, "rstrip": false, "normalized": true, "special": false}, {"id": 29417, "content": "সঁ", "single_word": false, "lstrip": false, "rstrip": false, "normalized": true, "special": false}, {"id": 29418, "content": "হৌ", "single_word": false, "lstrip": false, "rstrip": false, "normalized": true, "special": false}, {"id": 29419, "content": "হঃ", "single_word": false, "lstrip": false, "rstrip": false, "normalized": true, "special": false}, {"id": 29420, "content": "হঁ", "single_word": false, "lstrip": false, "rstrip": false, "normalized": true, "special": false}, {"id": 29421, "content": "ড়ু", "single_word": false, "lstrip": false, "rstrip": false, "normalized": true, "special": false}, {"id": 29422, "content": "ড়ূ", "single_word": false, "lstrip": false, "rstrip": false, "normalized": true, "special": false}, {"id": 29423, "content": "ড়ৃ", "single_word": false, "lstrip": false, "rstrip": false, "normalized": true, "special": false}, {"id": 29424, "content": "ড়ৈ", "single_word": false, "lstrip": false, "rstrip": false, "normalized": true, "special": false}, {"id": 29425, "content": "ড়ৌ", "single_word": false, "lstrip": false, "rstrip": false, "normalized": true, "special": false}, {"id": 29426, "content": "ড়ং", "single_word": false, "lstrip": false, "rstrip": false, "normalized": true, "special": false}, {"id": 29427, "content": "ড়ঃ", "single_word": false, "lstrip": false, "rstrip": false, "normalized": true, "special": false}, {"id": 29428, "content": "ড়ঁ", "single_word": false, "lstrip": false, "rstrip": false, "normalized": true, "special": false}, {"id": 29429, "content": "ঢ়া", "single_word": false, "lstrip": false, "rstrip": false, "normalized": true, "special": false}, {"id": 29430, "content": "ঢ়ি", "single_word": false, "lstrip": false, "rstrip": false, "normalized": true, "special": false}, {"id": 29431, "content": "ঢ়ী", "single_word": false, "lstrip": false, "rstrip": false, "normalized": true, "special": false}, {"id": 29432, "content": "ঢ়ু", "single_word": false, "lstrip": false, "rstrip": false, "normalized": true, "special": false}, {"id": 29433, "content": "ঢ়ূ", "single_word": false, "lstrip": false, "rstrip": false, "normalized": true, "special": false}, {"id": 29434, "content": "ঢ়ৃ", "single_word": false, "lstrip": false, "rstrip": false, "normalized": true, "special": false}, {"id": 29435, "content": "ঢ়ে", "single_word": false, "lstrip": false, "rstrip": false, "normalized": true, "special": false}, {"id": 29436, "content": "ঢ়ৈ", "single_word": false, "lstrip": false, "rstrip": false, "normalized": true, "special": false}, {"id": 29437, "content": "ঢ়ো", "single_word": false, "lstrip": false, "rstrip": false, "normalized": true, "special": false}, {"id": 29438, "content": "ঢ়ৌ", "single_word": false, "lstrip": false, "rstrip": false, "normalized": true, "special": false}, {"id": 29439, "content": "ঢ়ং", "single_word": false, "lstrip": false, "rstrip": false, "normalized": true, "special": false}, {"id": 29440, "content": "ঢ়ঃ", "single_word": false, "lstrip": false, "rstrip": false, "normalized": true, "special": false}, {"id": 29441, "content": "ঢ়ঁ", "single_word": false, "lstrip": false, "rstrip": false, "normalized": true, "special": false}, {"id": 29442, "content": "য়ি", "single_word": false, "lstrip": false, "rstrip": false, "normalized": true, "special": false}, {"id": 29443, "content": "য়ূ", "single_word": false, "lstrip": false, "rstrip": false, "normalized": true, "special": false}, {"id": 29444, "content": "য়ৃ", "single_word": false, "lstrip": false, "rstrip": false, "normalized": true, "special": false}, {"id": 29445, "content": "য়ৈ", "single_word": false, "lstrip": false, "rstrip": false, "normalized": true, "special": false}, {"id": 29446, "content": "য়ৌ", "single_word": false, "lstrip": false, "rstrip": false, "normalized": true, "special": false}, {"id": 29447, "content": "য়ঃ", "single_word": false, "lstrip": false, "rstrip": false, "normalized": true, "special": false}, {"id": 29448, "content": "য়ঁ", "single_word": false, "lstrip": false, "rstrip": false, "normalized": true, "special": false}, {"id": 29449, "content": "চ্র", "single_word": false, "lstrip": false, "rstrip": false, "normalized": true, "special": false}, {"id": 29450, "content": "ছ্য", "single_word": false, "lstrip": false, "rstrip": false, "normalized": true, "special": false}, {"id": 29451, "content": "ছ্র", "single_word": false, "lstrip": false, "rstrip": false, "normalized": true, "special": false}, {"id": 29452, "content": "ঝ্য", "single_word": false, "lstrip": false, "rstrip": false, "normalized": true, "special": false}, {"id": 29453, "content": "ঝ্র", "single_word": false, "lstrip": false, "rstrip": false, "normalized": true, "special": false}, {"id": 29454, "content": "ঞ্য", "single_word": false, "lstrip": false, "rstrip": false, "normalized": true, "special": false}, {"id": 29455, "content": "ঞ্র", "single_word": false, "lstrip": false, "rstrip": false, "normalized": true, "special": false}, {"id": 29456, "content": "ঠ্য", "single_word": false, "lstrip": false, "rstrip": false, "normalized": true, "special": false}, {"id": 29457, "content": "ঠ্র", "single_word": false, "lstrip": false, "rstrip": false, "normalized": true, "special": false}, {"id": 29458, "content": "ণ্র", "single_word": false, "lstrip": false, "rstrip": false, "normalized": true, "special": false}, {"id": 29459, "content": "ন্র", "single_word": false, "lstrip": false, "rstrip": false, "normalized": true, "special": false}, {"id": 29460, "content": "ফ্য", "single_word": false, "lstrip": false, "rstrip": false, "normalized": true, "special": false}, {"id": 29461, "content": "য্র", "single_word": false, "lstrip": false, "rstrip": false, "normalized": true, "special": false}, {"id": 29462, "content": "র্র", "single_word": false, "lstrip": false, "rstrip": false, "normalized": true, "special": false}, {"id": 29463, "content": "ল্র", "single_word": false, "lstrip": false, "rstrip": false, "normalized": true, "special": false}, {"id": 29464, "content": "ষ্র", "single_word": false, "lstrip": false, "rstrip": false, "normalized": true, "special": false}, {"id": 29465, "content": "ড়্য", "single_word": false, "lstrip": false, "rstrip": false, "normalized": true, "special": false}, {"id": 29466, "content": "ড়্র", "single_word": false, "lstrip": false, "rstrip": false, "normalized": true, "special": false}, {"id": 29467, "content": "ঢ়্য", "single_word": false, "lstrip": false, "rstrip": false, "normalized": true, "special": false}, {"id": 29468, "content": "ঢ়্র", "single_word": false, "lstrip": false, "rstrip": false, "normalized": true, "special": false}, {"id": 29469, "content": "য়্য", "single_word": false, "lstrip": false, "rstrip": false, "normalized": true, "special": false}, {"id": 29470, "content": "য়্র", "single_word": false, "lstrip": false, "rstrip": false, "normalized": true, "special": false}], "normalizer": null, "pre_tokenizer": {"type": "Whitespace"}, "post_processor": null, "decoder": null, "model": {"type": "BPE", "dropout": null, "unk_token": "<unk>", "continuing_subword_prefix": null, "end_of_word_suffix": null, "fuse_unk": false, "byte_fallback": false, "ignore_merges": false, "vocab": {"\u0003": 0, "A": 1, "B": 2, "C": 3, "D": 4, "E": 5, "F": 6, "G": 7, "H": 8, "I": 9, "J": 10, "K": 11, "L": 12, "M": 13, "N": 14, "O": 15, "P": 16, "Q": 17, "R": 18, "S": 19, "T": 20, "U": 21, "V": 22, "W": 23, "X": 24, "Y": 25, "Z": 26, "a": 27, "b": 28, "c": 29, "d": 30, "e": 31, "f": 32, "g": 33, "h": 34, "i": 35, "j": 36, "k": 37, "l": 38, "m": 39, "n": 40, "o": 41, "p": 42, "q": 43, "r": 44, "s": 45, "t": 46, "u": 47, "v": 48, "w": 49, "x": 50, "y": 51, "z": 52, "": 53, "": 54, "¡": 55, "¥": 56, "§": 57, "¬": 58, "®": 59, "¯": 60, "°": 61, "²": 62, "´": 63, "¾": 64, "É": 65, "Í": 66, "Ð": 67, "Ñ": 68, "Ó": 69, "Ö": 70, "×": 71, "Ø": 72, "ß": 73, "à": 74, "á": 75, "â": 76, "ã": 77, "ä": 78, "å": 79, "æ": 80, "ç": 81, "è": 82, "é": 83, "ê": 84, "ì": 85, "ñ": 86, "ò": 87, "ó": 88, "ô": 89, "ö": 90, "ø": 91, "ú": 92, "ü": 93, "ý": 94, "ā": 95, "ă": 96, "ą": 97, "č": 98, "Đ": 99, "đ": 100, "ē": 101, "ę": 102, "ě": 103, "ğ": 104, "ī": 105, "İ": 106, "ı": 107, "ł": 108, "ō": 109, "ő": 110, "œ": 111, "ś": 112, "ş": 113, "š": 114, "Ÿ": 115, "ž": 116, "ƒ": 117, "ư": 118, "Ʊ": 119, "ƻ": 120, "ƽ": 121, "ə": 122, "ɪ": 123, "ʱ": 124, "ʼ": 125, "ʿ": 126, "ˈ": 127, "ː": 128, "̃": 129, "̨": 130, "ͼ": 131, "Ε": 132, "ά": 133, "έ": 134, "ή": 135, "ί": 136, "α": 137, "β": 138, "γ": 139, "δ": 140, "ε": 141, "η": 142, "θ": 143, "ι": 144, "κ": 145, "λ": 146, "μ": 147, "ν": 148, "ο": 149, "π": 150, "ρ": 151, "ς": 152, "σ": 153, "τ": 154, "υ": 155, "φ": 156, "χ": 157, "ω": 158, "ό": 159, "А": 160, "Б": 161, "В": 162, "Г": 163, "Д": 164, "Е": 165, "Ж": 166, "З": 167, "И": 168, "Й": 169, "К": 170, "Л": 171, "М": 172, "Н": 173, "О": 174, "П": 175, "Р": 176, "С": 177, "Т": 178, "У": 179, "Ф": 180, "Х": 181, "Ц": 182, "Ч": 183, "Ъ": 184, "Ы": 185, "Ь": 186, "Я": 187, "а": 188, "б": 189, "в": 190, "г": 191, "д": 192, "е": 193, "ж": 194, "з": 195, "и": 196, "й": 197, "к": 198, "л": 199, "м": 200, "н": 201, "о": 202, "п": 203, "р": 204, "с": 205, "т": 206, "у": 207, "ф": 208, "х": 209, "ц": 210, "ч": 211, "ш": 212, "щ": 213, "ъ": 214, "ы": 215, "ь": 216, "э": 217, "ю": 218, "я": 219, "і": 220, "ї": 221, "ա": 222, "ե": 223, "ն": 224, "ր": 225, "ֱ": 226, "ַ": 227, "א": 228, "ב": 229, "ג": 230, "ד": 231, "ה": 232, "ו": 233, "ח": 234, "ט": 235, "י": 236, "כ": 237, "ל": 238, "ם": 239, "מ": 240, "ן": 241, "נ": 242, "ס": 243, "ע": 244, "פ": 245, "צ": 246, "ק": 247, "ר": 248, "ש": 249, "ת": 250, "،": 251, "؟": 252, "ء": 253, "آ": 254, "أ": 255, "ؤ": 256, "إ": 257, "ئ": 258, "ا": 259, "ب": 260, "ة": 261, "ت": 262, "ث": 263, "ج": 264, "ح": 265, "خ": 266, "د": 267, "ذ": 268, "ر": 269, "ز": 270, "س": 271, "ش": 272, "ص": 273, "ض": 274, "ط": 275, "ظ": 276, "ع": 277, "غ": 278, "ـ": 279, "ف": 280, "ق": 281, "ك": 282, "ل": 283, "م": 284, "ن": 285, "ه": 286, "و": 287, "ى": 288, "ي": 289, "ً": 290, "ٌ": 291, "ٍ": 292, "َ": 293, "ُ": 294, "ِ": 295, "ّ": 296, "ْ": 297, "ٰ": 298, "ٱ": 299, "پ": 300, "چ": 301, "ک": 302, "ڪ": 303, "گ": 304, "ہ": 305, "ی": 306, "ۡ": 307, "ं": 308, "अ": 309, "क": 310, "ग": 311, "च": 312, "ज": 313, "ट": 314, "ठ": 315, "त": 316, "द": 317, "न": 318, "प": 319, "ब": 320, "भ": 321, "म": 322, "य": 323, "र": 324, "ल": 325, "व": 326, "श": 327, "स": 328, "ह": 329, "ा": 330, "ि": 331, "ी": 332, "ु": 333, "ू": 334, "े": 335, "ै": 336, "ो": 337, "्": 338, "।": 339, "॥": 340, "ঁ": 341, "ং": 342, "ঃ": 343, "অ": 344, "আ": 345, "ই": 346, "ঈ": 347, "উ": 348, "ঊ": 349, "ঋ": 350, "এ": 351, "ঐ": 352, "ও": 353, "ঔ": 354, "ক": 355, "খ": 356, "গ": 357, "ঘ": 358, "ঙ": 359, "চ": 360, "ছ": 361, "জ": 362, "ঝ": 363, "ঞ": 364, "ট": 365, "ঠ": 366, "ড": 367, "ঢ": 368, "ণ": 369, "ত": 370, "থ": 371, "দ": 372, "ধ": 373, "ন": 374, "প": 375, "ফ": 376, "ব": 377, "ভ": 378, "ম": 379, "য": 380, "র": 381, "ল": 382, "শ": 383, "ষ": 384, "স": 385, "হ": 386, "়": 387, "া": 388, "ি": 389, "ী": 390, "ু": 391, "ূ": 392, "ৃ": 393, "ে": 394, "ৈ": 395, "ো": 396, "ৌ": 397, "্": 398, "ৎ": 399, "ৗ": 400, "ড়": 401, "ঢ়": 402, "য়": 403, "৤": 404, "০": 405, "১": 406, "২": 407, "৩": 408, "৪": 409, "৫": 410, "৬": 411, "৭": 412, "৮": 413, "৯": 414, "ৰ": 415, "ৱ": 416, "৳": 417, "ਾ": 418, "੔": 419, "ર": 420, "ા": 421, "த": 422, "ம": 423, "ி": 424, "்": 425, "ు": 426, "ನ": 427, "್": 428, "ം": 429, "ക": 430, "ട": 431, "ത": 432, "ന": 433, "പ": 434, "മ": 435, "യ": 436, "ര": 437, "ല": 438, "ള": 439, "വ": 440, "ാ": 441, "ി": 442, "ു": 443, "െ": 444, "്": 445, "ก": 446, "ง": 447, "ท": 448, "น": 449, "ม": 450, "ย": 451, "ร": 452, "อ": 453, "า": 454, "เ": 455, "ไ": 456, "่": 457, "้": 458, "ປ": 459, "န": 460, "မ": 461, "ာ": 462, "်": 463, "ြ": 464, "ა": 465, "ი": 466, "რ": 467, "ម": 468, "រ": 469, "្": 470, "ạ": 471, "ế": 472, "ệ": 473, "‏": 474, "–": 475, "—": 476, "―": 477, "‘": 478, "’": 479, "‚": 480, "“": 481, "”": 482, "†": 483, "‡": 484, "․": 485, "‪": 486, "‬": 487, "′": 488, "″": 489, "›": 490, "€": 491, "₹": 492, "℃": 493, "™": 494, "←": 495, "↓": 496, "⇒": 497, "−": 498, "√": 499, "ার": 500, "ের": 501, "্র": 502, "্য": 503, "ান": 504, "কর": 505, "্ত": 506, "বি": 507, "বা": 508, "নি": 509, "েন": 510, "কে": 511, "প্র": 512, "য়ে": 513, "লা": 514, "কা": 515, "না": 516, "বে": 517, "তি": 518, "র্": 519, "তে": 520, "লে": 521, "স্": 522, "টি": 523, "মা": 524, "রা": 525, "তা": 526, "ছে": 527, "সা": 528, "ক্": 529, "্যা": 530, "দে": 531, "দি": 532, "ন্": 533, "পর": 534, "নে": 535, "মি": 536, "পা": 537, "য়": 538, "লি": 539, "ভা": 540, "য়া": 541, "দের": 542, "ুর": 543, "কার": 544, "ক্ষ": 545, "সে": 546, "হা": 547, "কি": 548, "করে": 549, "জন": 550, "সি": 551, "ম্": 552, "টা": 553, "এক": 554, "িত": 555, "থা": 556, "ন্ত": 557, "শি": 558, "ুল": 559, "বার": 560, "মে": 561, "ষ্": 562, "মান": 563, "থে": 564, "দ্": 565, "ছি": 566, "ায়": 567, "গে": 568, "তার": 569, "ঙ্": 570, "ার্": 571, "রে": 572, "জা": 573, "কো": 574, "দেশ": 575, "ক্ত": 576, "বর": 577, "মু": 578, "সং": 579, "লেন": 580, "ভি": 581, "গ্র": 582, "থেকে": 583, "হয়ে": 584, "ছেন": 585, "দা": 586, "রি": 587, "জি": 588, "ত্র": 589, "জে": 590, "টে": 591, "নের": 592, "ব্য": 593, "স্ত": 594, "লো": 595, "চা": 596, "শা": 597, "য়ার": 598, "অন": 599, "ল্": 600, "করা": 601, "পরি": 602, "এই": 603, "যা": 604, "ডি": 605, "পি": 606, "শ্": 607, "দু": 608, "চ্": 609, "হি": 610, "সম": 611, "জান": 612, "পার": 613, "প্রতি": 614, "বং": 615, "খা": 616, "গা": 617, "সম্": 618, "শে": 619, "এবং": 620, "আর": 621, "যে": 622, "ীর": 623, "ধ্য": 624, "পুর": 625, "হয়": 626, "সু": 627, "ওয়া": 628, "ক্র": 629, "োগ": 630, "ীয়": 631, "দ্ধ": 632, "মো": 633, "স্থ": 634, "নার": 635, "নির্": 636, "েন্": 637, "িক": 638, "জন্য": 639, "ুন": 640, "এর": 641, "পে": 642, "লের": 643, "মার": 644, "ঞ্": 645, "বাং": 646, "ট্র": 647, "খে": 648, "চে": 649, "নো": 650, "বাংলা": 651, "ানে": 652, "িয়ে": 653, "ড়": 654, "ছা": 655, "উপ": 656, "লী": 657, "সব": 658, "তিনি": 659, "য়ে": 660, "মী": 661, "জার": 662, "হবে": 663, "তো": 664, "ন্ত্র": 665, "চি": 666, "্যান": 667, "হয়েছে": 668, "ড়া": 669, "ছিল": 670, "লার": 671, "বলে": 672, "ষ্ঠ": 673, "সর": 674, "জ্": 675, "ত্ত": 676, "ভাগ": 677, "ঙ্গ": 678, "অনু": 679, "নিয়ে": 680, "মের": 681, "একটি": 682, "ধান": 683, "টার": 684, "মন": 685, "করতে": 686, "পু": 687, "যোগ": 688, "দিন": 689, "কর্": 690, "হার": 691, "দ্র": 692, "যু": 693, "ফি": 694, "ন্ন": 695, "শু": 696, "চার": 697, "অব": 698, "মধ্য": 699, "রো": 700, "ক্তি": 701, "সহ": 702, "কের": 703, "খন": 704, "বাংলাদেশ": 705, "ত্": 706, "আই": 707, "দিয়ে": 708, "্ড": 709, "ব্যব": 710, "গ্রা": 711, "ব্যা": 712, "বিভাগ": 713, "বলেন": 714, "অভি": 715, "োর": 716, "লাম": 717, "করেন": 718, "বন্": 719, "গত": 720, "বল": 721, "আপ": 722, "বিশ্": 723, "য়ের": 724, "ধার": 725, "চ্ছে": 726, "ঙ্গে": 727, "শিক্ষ": 728, "শেষ": 729, "ান্ত": 730, "ভাবে": 731, "মধ্যে": 732, "বু": 733, "রু": 734, "ভার": 735, "হত": 736, "কু": 737, "ানি": 738, "বো": 739, "সঙ্গে": 740, "ছু": 741, "বছ": 742, "স্থা": 743, "ড়ে": 744, "গু": 745, "নির্বা": 746, "ক্ষে": 747, "স্ট": 748, "সদ": 749, "রাজ": 750, "বাস": 751, "ুরু": 752, "তাদের": 753, "চিত": 754, "তাঁ": 755, "বিষ": 756, "মন্ত্র": 757, "নী": 758, "প্ত": 759, "ফে": 760, "সরকার": 761, "ফা": 762, "পূ": 763, "ছিলেন": 764, "বী": 765, "ঢা": 766, "বাদ": 767, "ইস": 768, "প্রা": 769, "জের": 770, "সময়": 771, "যায়": 772, "গুল": 773, "য়া": 774, "বছর": 775, "ড়ি": 776, "ল্প": 777, "ভে": 778, "কথা": 779, "গো": 780, "ুষ": 781, "শন": 782, "্যাল": 783, "জী": 784, "আমি": 785, "ডে": 786, "ব্র": 787, "সের": 788, "সার": 789, "জ্ঞ": 790, "ানা": 791, "ব্": 792, "ধি": 793, "তীয়": 794, "আমা": 795, "লাই": 796, "আম": 797, "ন্তু": 798, "টির": 799, "নিয়": 800, "ইউ": 801, "পারে": 802, "কিছু": 803, "কৃ": 804, "প্": 805, "ন্দ": 806, "শ্র": 807, "ম্বর": 808, "র্থ": 809, "ত্য": 810, "হো": 811, "ষ্ট": 812, "বেন": 813, "হী": 814, "পতি": 815, "বিশ্ব": 816, "ণা": 817, "বিদ": 818, "কিন্তু": 819, "জেলা": 820, "কাশ": 821, "পো": 822, "ঘট": 823, "অনে": 824, "প্রধান": 825, "ানের": 826, "ঢাকা": 827, "হলে": 828, "টের": 829, "দী": 830, "কর্ম": 831, "আস": 832, "লিশ": 833, "তু": 834, "বন্ধ": 835, "তারা": 836, "সভা": 837, "দক": 838, "করার": 839, "বৃ": 840, "থাক": 841, "কোন": 842, "নির্বাচ": 843, "পূর্": 844, "এন": 845, "ওয়ার": 846, "প্রথ": 847, "তের": 848, "হে": 849, "কোনো": 850, "মনে": 851, "চল": 852, "মূ": 853, "বর্ত": 854, "ক্স": 855, "জু": 856, "এস": 857, "করেছে": 858, "স্বা": 859, "শী": 860, "আমার": 861, "নয়": 862, "উদ্": 863, "আমাদের": 864, "স্ব": 865, "কর্ত": 866, "মানুষ": 867, "প্রকাশ": 868, "পুলিশ": 869, "বাই": 870, "ণে": 871, "ঞ্জ": 872, "কাল": 873, "ডা": 874, "ংশ": 875, "দার": 876, "তিক": 877, "সেন": 878, "ার্থ": 879, "শুরু": 880, "ক্রি": 881, "তবে": 882, "গুলো": 883, "সেই": 884, "হাস": 885, "আমরা": 886, "চাল": 887, "খু": 888, "স্য": 889, "নাম": 890, "সো": 891, "কাজ": 892, "কম": 893, "দিকে": 894, "গের": 895, "আল": 896, "খানে": 897, "প্রথম": 898, "প্রি": 899, "সূ": 900, "দেখ": 901, "মন্ত্রী": 902, "দল": 903, "এম": 904, "আজ": 905, "র্ষ": 906, "মার্": 907, "ভিন্ন": 908, "বের": 909, "অনেক": 910, "ির": 911, "ীদের": 912, "হচ্ছে": 913, "নায়": 914, "মাধ্য": 915, "রের": 916, "ণের": 917, "টাকা": 918, "বাজার": 919, "নেই": 920, "মূল": 921, "আগে": 922, "সম্পা": 923, "হু": 924, "দুই": 925, "য়েছে": 926, "ইন": 927, "টো": 928, "কমি": 929, "ল্লা": 930, "বন": 931, "সাথে": 932, "কল": 933, "ধা": 934, "ান্": 935, "গ্রহ": 936, "আছে": 937, "েন্ট": 938, "এলা": 939, "মলা": 940, "হিসে": 941, "সম্প": 942, "টু": 943, "পর্য": 944, "ধী": 945, "এখন": 946, "অনুষ্ঠ": 947, "হিসেবে": 948, "রহ": 949, "স্থান": 950, "সমা": 951, "সম্পাদক": 952, "আহ": 953, "ানো": 954, "বেশ": 955, "এমন": 956, "গ্রাম": 957, "হাজার": 958, "দায়": 959, "বিভিন্ন": 960, "অন্য": 961, "ক্ষা": 962, "করেছেন": 963, "নত": 964, "প্রে": 965, "গঞ্জ": 966, "তাঁর": 967, "ষ্ট্র": 968, "মিক": 969, "দুল": 970, "গিয়ে": 971, "পরে": 972, "জানা": 973, "বিদ্যাল": 974, "an": 975, "হতে": 976, "দেশের": 977, "in": 978, "মুখ": 979, "ধারণ": 980, "সী": 981, "বেশি": 982, "সাই": 983, "ম্যা": 984, "তিন": 985, "অ্যা": 986, "তী": 987, "গর": 988, "ওই": 989, "er": 990, "ারা": 991, "রাষ্ট্র": 992, "ধু": 993, "স্ক": 994, "যো": 995, "আলো": 996, "তাই": 997, "ব্যবহার": 998, "উত্ত": 999, "তির": 1000, "কাছে": 1001, "ছবি": 1002, "্ট": 1003, "ত্ব": 1004, "দন": 1005, "কায়": 1006, "নতুন": 1007, "বিএন": 1008, "্ব": 1009, "গণ": 1010, "দেখা": 1011, "জাতীয়": 1012, "ফো": 1013, "ঠে": 1014, "পানি": 1015, "লন": 1016, "ভূ": 1017, "রয়েছে": 1018, "গেছে": 1019, "ধর": 1020, "রহমান": 1021, "দ্য": 1022, "মৃ": 1023, "ইসলাম": 1024, "য়ো": 1025, "থ্য": 1026, "কারী": 1027, "খান": 1028, "করি": 1029, "েন্দ্র": 1030, "সর্": 1031, "জানান": 1032, "য়ন": 1033, "বিষয়": 1034, "কী": 1035, "সভাপতি": 1036, "যদি": 1037, "ত্রে": 1038, "বিএনপি": 1039, "আপনার": 1040, "পের": 1041, "মত": 1042, "্যান্ড": 1043, "অর্থ": 1044, "সালে": 1045, "তথ্য": 1046, "প্রতিষ্ঠ": 1047, "সদস্য": 1048, "ভাব": 1049, "নিক": 1050, "লু": 1051, "রাখ": 1052, "ছাত্র": 1053, "পর্যন্ত": 1054, "মাধ্যমে": 1055, "যুক্ত": 1056, "ঘা": 1057, "ছাড়া": 1058, "ইল": 1059, "ভো": 1060, "ষ্টি": 1061, "তাকে": 1062, "ড়া": 1063, "দো": 1064, "আন": 1065, "হোসেন": 1066, "গঠ": 1067, "একটা": 1068, "ইন্": 1069, "বিজ্ঞ": 1070, "সাধারণ": 1071, "পরী": 1072, "রণ": 1073, "র্ত": 1074, "হন": 1075, "দেশে": 1076, "ঘটনা": 1077, "শিক্ষা": 1078, "জেলার": 1079, "পন": 1080, "শো": 1081, "ময়": 1082, "পূর্ণ": 1083, "দান": 1084, "ণ্ড": 1085, "স্ত্র": 1086, "লিম": 1087, "তৃ": 1088, "ধরে": 1089, "দ্ধে": 1090, "মাত্র": 1091, "কল্প": 1092, "মদ": 1093, "ভালো": 1094, "আওয়া": 1095, "মতো": 1096, "দুর্": 1097, "ত্যা": 1098, "ঞ্চ": 1099, "নিউ": 1100, "অধি": 1101, "ধর্": 1102, "on": 1103, "্যে": 1104, "দর্": 1105, "ফ্র": 1106, "বাড়ি": 1107, "উপজেলা": 1108, "ঙ্গা": 1109, "য়ান": 1110, "হয়": 1111, "দর": 1112, "ক্যা": 1113, "দিতে": 1114, "্যার": 1115, "লেখ": 1116, "সাং": 1117, "কেন্দ্র": 1118, "বৈ": 1119, "নির্বাচন": 1120, "য়ার": 1121, "অংশ": 1122, "ট্ট": 1123, "অপ": 1124, "কারণে": 1125, "বিশেষ": 1126, "পাঠ": 1127, "আব": 1128, "একজন": 1129, "বাংলাদেশের": 1130, "চিত্র": 1131, "হত্যা": 1132, "তৈ": 1133, "পক্ষ": 1134, "উন্": 1135, "বড়": 1136, "এসে": 1137, "থাকে": 1138, "গ্রে": 1139, "আওয়ামী": 1140, "পড়": 1141, "যাবে": 1142, "কেট": 1143, "রী": 1144, "পার্": 1145, "ঘো": 1146, "ফু": 1147, "অর্": 1148, "দেন": 1149, "সংবাদ": 1150, "লীগের": 1151, "ঠিক": 1152, "জানিয়ে": 1153, "গুলি": 1154, "চনা": 1155, "যান": 1156, "চাই": 1157, "কর্মকর্ত": 1158, "লক্ষ": 1159, "থি": 1160, "আইন": 1161, "সিং": 1162, "আপনি": 1163, "আগ": 1164, "ধ্যা": 1165, "উন্ন": 1166, "চেয়ে": 1167, "দলের": 1168, "ম্যান": 1169, "বিশ্ববিদ্যাল": 1170, "িতে": 1171, "ফল": 1172, "খ্যা": 1173, "পত্র": 1174, "নেতা": 1175, "ব্যবস্থা": 1176, "ভু": 1177, "কলে": 1178, "সার্": 1179, "মাণ": 1180, "আরও": 1181, "ষ্টা": 1182, "চু": 1183, "চট্ট": 1184, "মাল": 1185, "উৎ": 1186, "খবর": 1187, "দেওয়া": 1188, "তখন": 1189, "ব্যক্তি": 1190, "ভব": 1191, "পড়ে": 1192, "পক্ষে": 1193, "ar": 1194, "বিরু": 1195, "লিক": 1196, "দিক": 1197, "সম্পর্": 1198, "রাজন": 1199, "হয়ে": 1200, "ার্থী": 1201, "ব্যাং": 1202, "এটা": 1203, "পাতা": 1204, "চৌ": 1205, "প্রায়": 1206, "আট": 1207, "পরিচাল": 1208, "বাহি": 1209, "অতি": 1210, "দাবি": 1211, "শিশু": 1212, "বিরুদ্ধে": 1213, "খুব": 1214, "সালের": 1215, "or": 1216, "জো": 1217, "es": 1218, "হর": 1219, "প্রশ্": 1220, "শেখ": 1221, "ঘোষ": 1222, "মামলা": 1223, "সিলে": 1224, "স্তা": 1225, "বারের": 1226, "বান": 1227, "চ্চ": 1228, "একা": 1229, "রিক": 1230, "বলা": 1231, "তৈরি": 1232, "ুয়ার": 1233, "য়েক": 1234, "কালে": 1235, "সন্": 1236, "ট্রা": 1237, "দূ": 1238, "বর্": 1239, "তায়": 1240, "মুক্তি": 1241, "সাবে": 1242, "পোর্": 1243, "বছরের": 1244, "্যের": 1245, "শাস": 1246, "নিজে": 1247, "হল": 1248, "বাড়": 1249, "কেন": 1250, "পদ": 1251, "আদা": 1252, "কয়েক": 1253, "at": 1254, "ডিও": 1255, "ঁচ": 1256, "আবার": 1257, "তম": 1258, "ফর": 1259, "ভাষ": 1260, "ক্ষেত্রে": 1261, "অভিযোগ": 1262, "en": 1263, "নারী": 1264, "গ্": 1265, "দ্বি": 1266, "ন্ড": 1267, "নির": 1268, "বির": 1269, "এটি": 1270, "কারণ": 1271, "স্টে": 1272, "সায়": 1273, "ঠা": 1274, "ধুর": 1275, "গ্রহণ": 1276, "ট্রে": 1277, "কেউ": 1278, "ওয়ে": 1279, "ফের": 1280, "জয়": 1281, "ারে": 1282, "বস": 1283, "গামী": 1284, "নভে": 1285, "কর্মকর্তা": 1286, "তন": 1287, "টাই": 1288, "করছে": 1289, "বয়": 1290, "মর": 1291, "ৈতিক": 1292, "লাখ": 1293, "শুধু": 1294, "দশ": 1295, "য়োজন": 1296, "নিহত": 1297, "হাসি": 1298, "দক্ষ": 1299, "ক্ষম": 1300, "ন্তর্": 1301, "কর্তৃ": 1302, "সরকারি": 1303, "চর": 1304, "বার্": 1305, "সদর": 1306, "পারেন": 1307, "বক্ত": 1308, "লেও": 1309, "চেয়ার": 1310, "নিজের": 1311, "ছো": 1312, "শতা": 1313, "চলে": 1314, "হলো": 1315, "আদাল": 1316, "উপজেলার": 1317, "ওয়": 1318, "বিষয়ে": 1319, "বর্তমান": 1320, "আসা": 1321, "শাল": 1322, "প্রধানমন্ত্রী": 1323, "নিশ্": 1324, "নভেম্বর": 1325, "ধীন": 1326, "ধর্ম": 1327, "টিং": 1328, "হের": 1329, "আরো": 1330, "মস": 1331, "মানুষের": 1332, "কিস্ত": 1333, "রেখে": 1334, "নামে": 1335, "শিল্প": 1336, "হান": 1337, "উত্তর": 1338, "মৃত্য": 1339, "ড়িয়ে": 1340, "মনো": 1341, "পৌ": 1342, "কন": 1343, "গান": 1344, "জন্": 1345, "দেয়া": 1346, "কার্য": 1347, "হক": 1348, "ওপর": 1349, "অফি": 1350, "চেষ্টা": 1351, "থান": 1352, "পাওয়া": 1353, "গ্রামের": 1354, "নাই": 1355, "ডের": 1356, "হাম্": 1357, "অক্": 1358, "একই": 1359, "তুলে": 1360, "চিকি": 1361, "লোক": 1362, "শ্য": 1363, "হিত": 1364, "গুরু": 1365, "হাসপাতা": 1366, "কিং": 1367, "ইউনিয়": 1368, "ভাই": 1369, "চৌধুর": 1370, "বিচার": 1371, "সাম": 1372, "খো": 1373, "স্থিত": 1374, "উল্": 1375, "বেদন": 1376, "আগামী": 1377, "এসব": 1378, "সেখানে": 1379, "এতে": 1380, "গি": 1381, "ওয়া": 1382, "কর্মী": 1383, "কোটি": 1384, "েনে": 1385, "মাহ": 1386, "বিত": 1387, "ক্রম": 1388, "করুন": 1389, "চট্টগ্রাম": 1390, "ছেলে": 1391, "জীবন": 1392, "উদ্দিন": 1393, "বন্ধু": 1394, "অনুষ্ঠিত": 1395, "যখন": 1396, "জর": 1397, "লীগ": 1398, "গতকাল": 1399, "িত্ব": 1400, "ত্ম": 1401, "th": 1402, "লায়": 1403, "পক": 1404, "বৃহ": 1405, "সর্ব": 1406, "ফলে": 1407, "স্যা": 1408, "চিকিৎ": 1409, "সেপ্": 1410, "ইং": 1411, "কৃত": 1412, "ড়ি": 1413, "তুল": 1414, "করবে": 1415, "রাম": 1416, "দেখে": 1417, "ব্রা": 1418, "তেই": 1419, "ধন": 1420, "নিউজ": 1421, "ানোর": 1422, "কেল": 1423, "সেপ্টে": 1424, "ভিত": 1425, "নাল": 1426, "বলেছেন": 1427, "স্তার": 1428, "িকা": 1429, "al": 1430, "শনের": 1431, "বিক": 1432, "ঙ্গল": 1433, "বায়": 1434, "বীর": 1435, "রান": 1436, "কুর": 1437, "লাল": 1438, "চো": 1439, "ড়ে": 1440, "দিনের": 1441, "ইতি": 1442, "লিয়ে": 1443, "তালি": 1444, "মাঝ": 1445, "প্রকাশিত": 1446, "মুছ": 1447, "কোম্": 1448, "যুক্তি": 1449, "এবার": 1450, "লেখা": 1451, "পাকিস্ত": 1452, "ডিয়া": 1453, "ধরনের": 1454, "ৃষ্টি": 1455, "তর": 1456, "সেপ্টেম্বর": 1457, "যাত্র": 1458, "জুলাই": 1459, "বই": 1460, "চী": 1461, "নিরা": 1462, "সামনে": 1463, "অবস্থা": 1464, "উই": 1465, "পৃ": 1466, "স্থানীয়": 1467, "সিলেট": 1468, "ফুল": 1469, "হওয়া": 1470, "হাতে": 1471, "সরকারের": 1472, "হাম্মদ": 1473, "ফোন": 1474, "পেয়ে": 1475, "নীতি": 1476, "নিতে": 1477, "বঙ্গ": 1478, "উদ্ধ": 1479, "চৌধুরী": 1480, "হ্": 1481, "্যু": 1482, "দিয়েছে": 1483, "জীব": 1484, "জনের": 1485, "দক্ষি": 1486, "হওয়ার": 1487, "চ্ছেন": 1488, "হামলা": 1489, "ণি": 1490, "এখানে": 1491, "জুন": 1492, "পাঁচ": 1493, "বলি": 1494, "ডিসে": 1495, "উপর": 1496, "অথ": 1497, "ার্ড": 1498, "মার্চ": 1499, "ti": 1500, "বক্তব্য": 1501, "টিতে": 1502, "সিদ্ধ": 1503, "টর": 1504, "থাকা": 1505, "পান": 1506, "যাচ্ছে": 1507, "সকল": 1508, "জাতিক": 1509, "ভিডিও": 1510, "খুল": 1511, "রাই": 1512, "ব্ল": 1513, "পরিষ": 1514, "পর্": 1515, "চেয়ারম্যান": 1516, "আলম": 1517, "ঘোষণা": 1518, "শাহ": 1519, "জায়": 1520, "ed": 1521, "রাত": 1522, "কত": 1523, "অক্টো": 1524, "দাঁ": 1525, "ক্লা": 1526, "বিএনপির": 1527, "প্রতিনি": 1528, "পত্ত": 1529, "যৌ": 1530, "শাহী": 1531, "প্রচার": 1532, "পুরে": 1533, "শান্ত": 1534, "আল্লা": 1535, "আন্তর্": 1536, "দেয়": 1537, "শেষে": 1538, "প্রশ্ন": 1539, "কোম্পানি": 1540, "আলী": 1541, "প্রাপ্ত": 1542, "ভূমি": 1543, "ডিসেম্বর": 1544, "তাহলে": 1545, "শের": 1546, "যুদ্ধ": 1547, "ন্দো": 1548, "ফার": 1549, "রায়": 1550, "রিয়া": 1551, "মহা": 1552, "ঘটে": 1553, "আন্তর্জাতিক": 1554, "যেতে": 1555, "স্কার": 1556, "টন": 1557, "সৌ": 1558, "ণী": 1559, "বর্ষ": 1560, "শিক্ষক": 1561, "রক্ষ": 1562, "মুস": 1563, "র্ঘ": 1564, "পাল": 1565, "নিজ": 1566, "এলাকায়": 1567, "পর্যা": 1568, "সড়": 1569, "ভারতের": 1570, "স্তু": 1571, "ইসলা": 1572, "উল্লেখ": 1573, "অক্টোবর": 1574, "রং": 1575, "বর্তী": 1576, "শোর": 1577, "মুছলিম": 1578, "মিন": 1579, "সাবেক": 1580, "কিন": 1581, "ক্রান্ত": 1582, "ধে": 1583, "পথ": 1584, "প্রশাস": 1585, "করছেন": 1586, "শ্রে": 1587, "আব্": 1588, "াগ": 1589, "ন্যা": 1590, "এপ্রি": 1591, "দর্শ": 1592, "ল্যান্ড": 1593, "ফেব্র": 1594, "মৃত্যু": 1595, "is": 1596, "বাঁ": 1597, "ুক": 1598, "মতি": 1599, "ষি": 1600, "খনো": 1601, "জন্ম": 1602, "উদ্য": 1603, "মঙ্গল": 1604, "এলাকা": 1605, "মেয়ে": 1606, "খালে": 1607, "বিরো": 1608, "জ্য": 1609, "বেগ": 1610, "ন্তব্য": 1611, "শার": 1612, "যারা": 1613, "মহি": 1614, "বাসী": 1615, "ফুট": 1616, "ুরি": 1617, "লিয়া": 1618, "ঝা": 1619, "রাতে": 1620, "করলে": 1621, "প্রতিনিধি": 1622, "সাংবা": 1623, "র্তি": 1624, "ঠি": 1625, "জ্জা": 1626, "ম্যাচ": 1627, "উঠে": 1628, "বিস্তার": 1629, "যেন": 1630, "টায়": 1631, "ধিক": 1632, "সুযোগ": 1633, "শতাংশ": 1634, "অন্যান": 1635, "পারি": 1636, "সম্ভব": 1637, "সংগঠ": 1638, "লিত": 1639, "বরি": 1640, "কান": 1641, "উচ্চ": 1642, "উদ্ধার": 1643, "নির্বাচনে": 1644, "স্বাস্থ": 1645, "সংখ্যা": 1646, "জিত": 1647, "ডার": 1648, "ম্পি": 1649, "মলার": 1650, "গবে": 1651, "দন্ত": 1652, "করবেন": 1653, "এপ্রিল": 1654, "হাত": 1655, "ভিত্ত": 1656, "স্থি": 1657, "কবি": 1658, "মাস": 1659, "ইছ": 1660, "নিশ্চিত": 1661, "হাই": 1662, "ডেস্ক": 1663, "যুব": 1664, "মেদ": 1665, "দ্বিতীয়": 1666, "দুর": 1667, "মিত": 1668, "ঙ্গি": 1669, "সিদ্ধান্ত": 1670, "স্কুল": 1671, "মিনি": 1672, "নং": 1673, "সবাই": 1674, "ব্যাংক": 1675, "দীর্ঘ": 1676, "ছোট": 1677, "দক্ষিণ": 1678, "জল": 1679, "পরীক্ষ": 1680, "নেতৃ": 1681, "শহ": 1682, "আত্ম": 1683, "ভারত": 1684, "সিংহ": 1685, "পণ": 1686, "কলেজ": 1687, "শক্তি": 1688, "রাজশাহী": 1689, "পূর্ব": 1690, "জিয়া": 1691, "প্রযুক্তি": 1692, "অন্যান্য": 1693, "তিতে": 1694, "খি": 1695, "গুলোর": 1696, "যোগা": 1697, "শিয়া": 1698, "কেই": 1699, "প্রতিষ্ঠান": 1700, "সত্য": 1701, "বৃদ্ধ": 1702, "ুয়ারি": 1703, "আন্দো": 1704, "এরপর": 1705, "পরিচালক": 1706, "ূপ": 1707, "শুক্র": 1708, "মন্তব্য": 1709, "বাল": 1710, "নির্দেশ": 1711, "উপস্থিত": 1712, "ইয়া": 1713, "ার্স": 1714, "পরিবর্ত": 1715, "বাব": 1716, "স্পতি": 1717, "পায়": 1718, "সাংবাদিক": 1719, "খেলা": 1720, "সির": 1721, "বুধ": 1722, "মৌ": 1723, "নানা": 1724, "মারা": 1725, "বৃহস্পতি": 1726, "সংসদ": 1727, "সঙ্গ": 1728, "্রা": 1729, "হয়েছিল": 1730, "শীল": 1731, "স্বাস্থ্য": 1732, "লাইন": 1733, "ফিক": 1734, "প্রয়োজন": 1735, "ণ্": 1736, "সমস্যা": 1737, "রাজনৈতিক": 1738, "অপরা": 1739, "গুরুত্ব": 1740, "ক্য": 1741, "রাখা": 1742, "সাত": 1743, "যেমন": 1744, "সিড": 1745, "ঘটনায়": 1746, "জমি": 1747, "নিয়োগ": 1748, "অবশ্য": 1749, "বৃহস্পতিবার": 1750, "পাশা": 1751, "বুধবার": 1752, "পুলিশের": 1753, "য়ের": 1754, "সকাল": 1755, "ধারা": 1756, "সারা": 1757, "য়ান": 1758, "যোগাযোগ": 1759, "সন্ত": 1760, "সংঘ": 1761, "রিপোর্": 1762, "প্রিয়": 1763, "পরীক্ষা": 1764, "তেন": 1765, "বিস্তারিত": 1766, "বিজ্ঞান": 1767, "আটক": 1768, "ব্রি": 1769, "বুঝ": 1770, "মুদ্র": 1771, "শনি": 1772, "সময়ে": 1773, "মবার": 1774, "সম্পর্কে": 1775, "হয়নি": 1776, "নগর": 1777, "তদন্ত": 1778, "এফ": 1779, "বাস্ত": 1780, "ভাল": 1781, "থাকবে": 1782, "নাট": 1783, "থেকেই": 1784, "মঙ্গলবার": 1785, "আশ": 1786, "বিশ্বাস": 1787, "ad": 1788, "দেশি": 1789, "আলোচনা": 1790, "মোবাই": 1791, "্রি": 1792, "হায়": 1793, "দুটি": 1794, "ou": 1795, "নিয়ে": 1796, "সেটা": 1797, "সিক": 1798, "আহত": 1799, "রাজধান": 1800, "শুক্রবার": 1801, "re": 1802, "কোর্": 1803, "এল": 1804, "শ্চি": 1805, "দিয়েছেন": 1806, "ন্দ্র": 1807, "খুলনা": 1808, "সিটি": 1809, "le": 1810, "যার": 1811, "্লা": 1812, "বরা": 1813, "স্ত্রী": 1814, "জিক": 1815, "ময়মন": 1816, "স্বী": 1817, "পালন": 1818, "আগস্ট": 1819, "উঠ": 1820, "চিব": 1821, "পরিকল্প": 1822, "ফতার": 1823, "মোহাম্মদ": 1824, "আরে": 1825, "টেক": 1826, "যোগ্য": 1827, "কাজে": 1828, "প্রদান": 1829, "বিষয়টি": 1830, "শ্রী": 1831, "প্রত্যা": 1832, "সাহা": 1833, "বিভাগের": 1834, "as": 1835, "আহমেদ": 1836, "এক্স": 1837, "ার্থীদের": 1838, "মুক্ত": 1839, "জাতি": 1840, "তাঁদের": 1841, "মাই": 1842, "সাল": 1843, "আর্": 1844, "পাশি": 1845, "গাঁ": 1846, "লিমি": 1847, "শত": 1848, "ভর্তি": 1849, "জ্ঞা": 1850, "স্বাধীন": 1851, "নীর": 1852, "কৃতি": 1853, "চাঁ": 1854, "সন": 1855, "খালেদা": 1856, "শনিবার": 1857, "আপনা": 1858, "যুক্তরাষ্ট্র": 1859, "পাশাপাশি": 1860, "দেখতে": 1861, "রংপুর": 1862, "স্ট্রে": 1863, "বিমান": 1864, "কদের": 1865, "সৃষ্টি": 1866, "টিউ": 1867, "ভর": 1868, "বাবা": 1869, "চলছে": 1870, "সোমবার": 1871, "গবেষ": 1872, "ধর্ষ": 1873, "স্টার": 1874, "কেটে": 1875, "সম্মে": 1876, "কার্যাল": 1877, "কৌ": 1878, "কোনও": 1879, "বরিশাল": 1880, "নিরাপত্ত": 1881, "অনুষ্ঠানে": 1882, "এলাকার": 1883, "বসে": 1884, "নামের": 1885, "পুরুষ": 1886, "সবচেয়ে": 1887, "জনকে": 1888, "পরিবার": 1889, "লাভ": 1890, "ঙা": 1891, "যোগি": 1892, "পী": 1893, "ব্যাপারে": 1894, "ত্বে": 1895, "পুরো": 1896, "স্টি": 1897, "কাউন্": 1898, "আসে": 1899, "প্রার্থী": 1900, "আমাকে": 1901, "ীতি": 1902, "কটি": 1903, "জির": 1904, "মাঝে": 1905, "ণাল": 1906, "পথে": 1907, "প্তা": 1908, "বাংলাদেশে": 1909, "গল্প": 1910, "ক্ষমতা": 1911, "শীর্ষ": 1912, "বার্ত": 1913, "বোর্": 1914, "শেয়ার": 1915, "জানিয়েছেন": 1916, "দায়িত্ব": 1917, "ন্দর": 1918, "পারবেন": 1919, "স্তি": 1920, "নির্বাহী": 1921, "এত": 1922, "বাজারে": 1923, "পাশে": 1924, "হাসপাতালে": 1925, "হয়েছেন": 1926, "গঞ্": 1927, "প্রাথ": 1928, "সেনা": 1929, "ডলার": 1930, "বিশ্ববিদ্যালয়ের": 1931, "কিশোর": 1932, "গ্রামে": 1933, "ch": 1934, "ধরা": 1935, "মোবাইল": 1936, "হয়েছে": 1937, "মিল": 1938, "স্প": 1939, "il": 1940, "হলেও": 1941, "জার্": 1942, "দিয়ে": 1943, "সামা": 1944, "ীরা": 1945, "যায়": 1946, "শর": 1947, "ময়মনসিংহ": 1948, "ছিলাম": 1949, "বলতে": 1950, "কমিটির": 1951, "সরি": 1952, "এছাড়া": 1953, "সৈ": 1954, "উল": 1955, "আশা": 1956, "ব্যবসায়": 1957, "হাসান": 1958, "মাথা": 1959, "থানার": 1960, "ফ্যা": 1961, "জানতে": 1962, "ইউনি": 1963, "প্রাথমিক": 1964, "একে": 1965, "সুর": 1966, "ব্দ": 1967, "পাস": 1968, "পশ্চি": 1969, "গার": 1970, "লিমিটে": 1971, "চয়": 1972, "বিল": 1973, "প্ল": 1974, "ডো": 1975, "আলা": 1976, "সিরি": 1977, "সমর্থ": 1978, "সকালে": 1979, "ফিরে": 1980, "চ্যা": 1981, "গাড়ি": 1982, "বিরোধী": 1983, "মন্ত্রণাল": 1984, "গ্রু": 1985, "ফাই": 1986, "it": 1987, "স্টা": 1988, "উন্নয়ন": 1989, "ing": 1990, "তাঁকে": 1991, "নয়ন": 1992, "ইন্টার": 1993, "ভোট": 1994, "ছাড়া": 1995, "্যানে": 1996, "সুবি": 1997, "খর": 1998, "বৈঠ": 1999, "ম্প": 2000, "সংখ": 2001, "প্রত্য": 2002, "অধ্যা": 2003, "প্রকল্প": 2004, "গোল": 2005, "of": 2006, "দিনে": 2007, "একটু": 2008, "কক্স": 2009, "তারি": 2010, "মূলক": 2011, "মেন্ট": 2012, "যাওয়া": 2013, "লো": 2014, "করণ": 2015, "লেই": 2016, "প্রতিবে": 2017, "দ্ধা": 2018, "চ্ছা": 2019, "আবেদন": 2020, "যি": 2021, "যায়ী": 2022, "কর্তৃক": 2023, "পুন": 2024, "am": 2025, "মোঃ": 2026, "েন্স": 2027, "চের": 2028, "বিক্রি": 2029, "পরিবারের": 2030, "অথবা": 2031, "ক্রে": 2032, "প্রেসিড": 2033, "ঘটনার": 2034, "সূত্র": 2035, "মহান": 2036, "প্তার": 2037, "পুরের": 2038, "তাঁরা": 2039, "আছেন": 2040, "ক্ষতি": 2041, "শিক্ষার্থী": 2042, "মার্কিন": 2043, "প্রস্তু": 2044, "সময়": 2045, "বড়": 2046, "র্যা": 2047, "em": 2048, "কাদের": 2049, "সংস্থা": 2050, "আবদুল": 2051, "মানব": 2052, "কর্তৃপক্ষ": 2053, "লিং": 2054, "হীন": 2055, "বান্": 2056, "খালী": 2057, "রোগ": 2058, "চিন্ত": 2059, "েক": 2060, "্যান্": 2061, "বুল": 2062, "প্রেস": 2063, "কোর": 2064, "দ্বার": 2065, "গ্রেফতার": 2066, "সভায়": 2067, "সান": 2068, "মিডিয়া": 2069, "গেল": 2070, "মনোনয়ন": 2071, "ন্য": 2072, "জ্জামান": 2073, "যাওয়ার": 2074, "হাসিনা": 2075, "হারা": 2076, "লক্ষে": 2077, "ঘু": 2078, "দৈ": 2079, "ভাষা": 2080, "নেওয়া": 2081, "নিং": 2082, "বর্তমানে": 2083, "সেবা": 2084, "থাকতে": 2085, "িকার": 2086, "বেগম": 2087, "গ্রেপ্তার": 2088, "রাখতে": 2089, "চ্ছ": 2090, "ic": 2091, "এগিয়ে": 2092, "অবস্থান": 2093, "হ্যা": 2094, "য়েন্": 2095, "ওয়ার্": 2096, "মসজি": 2097, "কুমার": 2098, "নিজেদের": 2099, "ওর": 2100, "ভী": 2101, "ফেসব": 2102, "হাট": 2103, "ট্রি": 2104, "সাহিত": 2105, "বার্তা": 2106, "মেডি": 2107, "সাব": 2108, "চ্ছি": 2109, "বিশ্বকা": 2110, "কোথা": 2111, "ro": 2112, "স্থানে": 2113, "প্রো": 2114, "ম্যাচে": 2115, "রেজি": 2116, "সাইট": 2117, "রবি": 2118, "ুত": 2119, "বাইরে": 2120, "বাহিনী": 2121, "খুঁ": 2122, "ফেলে": 2123, "লাশ": 2124, "চলচ্": 2125, "অনুযায়ী": 2126, "চলচ্চিত্র": 2127, "তীয়": 2128, "ফাঁ": 2129, "র্ক": 2130, "কক্সবাজার": 2131, "এইচ": 2132, "আমের": 2133, "সড়ক": 2134, "দৃ": 2135, "জেন": 2136, "দর্শন": 2137, "নর": 2138, "চলা": 2139, "তরু": 2140, "মাসে": 2141, "ক্ষণ": 2142, "কালী": 2143, "সামাজিক": 2144, "ল্ড": 2145, "নেট": 2146, "ওয়েব": 2147, "মূল্য": 2148, "নাগ": 2149, "নিয়ন্ত্র": 2150, "নেত্র": 2151, "মহিলা": 2152, "অন্ত": 2153, "বাহ": 2154, "মিটার": 2155, "আদালত": 2156, "নাথ": 2157, "ক্রিকেট": 2158, "উপা": 2159, "নম্বর": 2160, "বাহিনীর": 2161, "শুর": 2162, "রোহি": 2163, "টিকে": 2164, "ইছলা": 2165, "লিখ": 2166, "st": 2167, "আয়": 2168, "মুখে": 2169, "ন্ত্রা": 2170, "ভুক্ত": 2171, "বহু": 2172, "সূচি": 2173, "জঙ্গি": 2174, "দাম": 2175, "দলে": 2176, "চিকিৎসা": 2177, "খ্রি": 2178, "নিরাপত্তা": 2179, "নদী": 2180, "দ্রুত": 2181, "সাহায": 2182, "য়াল": 2183, "ষণ": 2184, "বেলা": 2185, "মিয়া": 2186, "কাঁ": 2187, "প্রেসিডেন্ট": 2188, "করেছিলেন": 2189, "বাড়": 2190, "শ্বর": 2191, "আব্দুল": 2192, "জামা": 2193, "তালিকা": 2194, "পরিকল্পনা": 2195, "পাই": 2196, "ক্ট": 2197, "কেন্দ্রীয়": 2198, "সফ": 2199, "সপ্তা": 2200, "বাণি": 2201, "ভুল": 2202, "কারা": 2203, "ol": 2204, "দেওয়ার": 2205, "গড়ে": 2206, "যোগে": 2207, "শান্তি": 2208, "স্থিতি": 2209, "ঘর": 2210, "ন্ট": 2211, "পৃথি": 2212, "মালিক": 2213, "মহাস": 2214, "ইউনিয়নের": 2215, "হৃ": 2216, "অপরাধ": 2217, "নৌ": 2218, "যৌন": 2219, "দূর": 2220, "গুরুত্বপূর্ণ": 2221, "কিংবা": 2222, "ক্তার": 2223, "অবস্থায়": 2224, "নজর": 2225, "ইউনিয়ন": 2226, "মাঠে": 2227, "সংশ্": 2228, "সংক্রান্ত": 2229, "কাছ": 2230, "বেল": 2231, "কৌশ": 2232, "মাহমু": 2233, "চার্": 2234, "নামা": 2235, "সম্মান": 2236, "বিপক্ষে": 2237, "মুসলিম": 2238, "সন্ত্রা": 2239, "সম্পূর্ণ": 2240, "সহায়": 2241, "সিনে": 2242, "কাম": 2243, "শরী": 2244, "বছরে": 2245, "খেল": 2246, "ডিং": 2247, "জমা": 2248, "বিদ্যু": 2249, "লক্ষ্য": 2250, "দপুর": 2251, "জনক": 2252, "ang": 2253, "সিল": 2254, "নেয়া": 2255, "ল্যা": 2256, "বরে": 2257, "ভয়": 2258, "গেলে": 2259, "টেলি": 2260, "ন্দি": 2261, "সংরক্ষ": 2262, "উদ্দেশ": 2263, "লিষ্ট": 2264, "যেখানে": 2265, "পরিবেশ": 2266, "বিসি": 2267, "বিশ্বের": 2268, "চান": 2269, "টাল": 2270, "বিশ্ববিদ্যালয়": 2271, "শুন": 2272, "ঙ্ক": 2273, "শহরের": 2274, "মির": 2275, "প্লে": 2276, "মোট": 2277, "বহ": 2278, "অ্যান্ড": 2279, "ঘরে": 2280, "তারপর": 2281, "সমাজ": 2282, "দ্বী": 2283, "অধিকার": 2284, "কামাল": 2285, "্যারি": 2286, "যত": 2287, "সন্তান": 2288, "ড়াই": 2289, "জনে": 2290, "ন্দু": 2291, "স্বপ্": 2292, "বাদী": 2293, "পরবর্তী": 2294, "রত": 2295, "পৌর": 2296, "আবু": 2297, "ত্রি": 2298, "সংস্": 2299, "সংশ্লিষ্ট": 2300, "যন্ত্র": 2301, "বিধান": 2302, "রিক্ত": 2303, "টাকার": 2304, "্লাহ": 2305, "প্রাণ": 2306, "সম্প্রতি": 2307, "মণ": 2308, "এসেছে": 2309, "রোড": 2310, "বেড়ে": 2311, "the": 2312, "and": 2313, "পাহা": 2314, "পড়া": 2315, "ভারতীয়": 2316, "ক্রিয়া": 2317, "চায়": 2318, "রক্ত": 2319, "পড়": 2320, "বাড়ী": 2321, "সবার": 2322, "সংগ্রহ": 2323, "গৃ": 2324, "সুবিধা": 2325, "ছয়": 2326, "দেহ": 2327, "শ্রমিক": 2328, "চুক্তি": 2329, "বোধ": 2330, "নবী": 2331, "সাড়ে": 2332, "মতে": 2333, "la": 2334, "প্রস্তা": 2335, "রোহিঙ্গা": 2336, "দেব": 2337, "গাজী": 2338, "ন্দা": 2339, "পুরস্কার": 2340, "জানায়": 2341, "নির্বাচনের": 2342, "ওয়ান": 2343, "ct": 2344, "রোব": 2345, "বৃত্ত": 2346, "গাছ": 2347, "বিস্": 2348, "সচিব": 2349, "বাণিজ্য": 2350, "ফোর": 2351, "দণ্ড": 2352, "অধ্যাপক": 2353, "পাড়া": 2354, "বিজ্ঞা": 2355, "টিশ": 2356, "গী": 2357, "জীবী": 2358, "বিয়ে": 2359, "শিক্ষার্থীদের": 2360, "স্থার": 2361, "গতি": 2362, "অতিরিক্ত": 2363, "পনা": 2364, "সুন্দর": 2365, "পরিবর্তন": 2366, "গ্যা": 2367, "অন্যতম": 2368, "পদে": 2369, "যোগিতা": 2370, "শহী": 2371, "আল্লাহ": 2372, "আগের": 2373, "ছিলো": 2374, "বুর": 2375, "এদিকে": 2376, "অনলাইন": 2377, "পাকিস্তান": 2378, "দলীয়": 2379, "পয়": 2380, "তন্ত্র": 2381, "বৃদ্ধি": 2382, "সন্ধ্যা": 2383, "বঙ্গবন্ধু": 2384, "সুপার": 2385, "মীর": 2386, "ঐক্য": 2387, "মন্ত্রীর": 2388, "কমে": 2389, "থাকার": 2390, "বিজ্ঞপ্ত": 2391, "তাতে": 2392, "সেরা": 2393, "প্যা": 2394, "বর্ণ": 2395, "ভ্র": 2396, "সম্পর্ক": 2397, "দ্বারা": 2398, "যদিও": 2399, "লনে": 2400, "অভিযান": 2401, "রকম": 2402, "জানিয়েছে": 2403, "ক্ষু": 2404, "বহন": 2405, "জুর": 2406, "উনি": 2407, "ur": 2408, "ক্ষেপ": 2409, "রক্ষা": 2410, "পৌঁ": 2411, "যাতে": 2412, "চালিয়ে": 2413, "সহকারী": 2414, "আয়োজন": 2415, "মাদক": 2416, "প্রচ": 2417, "হিসাবে": 2418, "ঝু": 2419, "ৎকার": 2420, "করেছিল": 2421, "অর্থা": 2422, "নিন": 2423, "পরিষদের": 2424, "অনুষ্ঠান": 2425, "ীয়": 2426, "ুয়ারী": 2427, "ফ্": 2428, "তলা": 2429, "স্বীকার": 2430, "নেন": 2431, "ান্ড": 2432, "বাদে": 2433, "জনা": 2434, "কমিটি": 2435, "য়ী": 2436, "ঙ্কা": 2437, "আনন্দ": 2438, "সমান": 2439, "মুল": 2440, "মনি": 2441, "কৃষি": 2442, "আয়ো": 2443, "গল": 2444, "সূত্রে": 2445, "গায়": 2446, "কৃতিক": 2447, "ষে": 2448, "এন্ড": 2449, "আহমদ": 2450, "দপ্ত": 2451, "হারিয়ে": 2452, "টস": 2453, "নির্মাণ": 2454, "অস্ত্র": 2455, "ri": 2456, "বিষয়ক": 2457, "নির্বাচিত": 2458, "মামলায়": 2459, "সমি": 2460, "জানি": 2461, "ধিকার": 2462, "অনুমতি": 2463, "দায়ের": 2464, "মামলার": 2465, "সংগঠন": 2466, "সক": 2467, "উন": 2468, "নায়ক": 2469, "উপলক্ষে": 2470, "কর্মসূচি": 2471, "নব": 2472, "অতিথি": 2473, "পেতে": 2474, "উচিত": 2475, "নাজ": 2476, "মাটি": 2477, "থাকেন": 2478, "লিখে": 2479, "আন্দোলন": 2480, "লির": 2481, "ভোগ": 2482, "প্রবেশ": 2483, "য়েছে": 2484, "ঘণ্": 2485, "কেরা": 2486, "থাকলে": 2487, "বারে": 2488, "শহর": 2489, "এমপি": 2490, "শব্দ": 2491, "el": 2492, "চোখ": 2493, "চীন": 2494, "সাক্ষা": 2495, "তরুণ": 2496, "তুমি": 2497, "টেস্ট": 2498, "om": 2499, "ব্যবসা": 2500, "মুহ": 2501, "শিকার": 2502, "অস্ট্রে": 2503, "মাসের": 2504, "আইসি": 2505, "এখনো": 2506, "পশ্চিম": 2507, "ড্র": 2508, "ুয়ার": 2509, "সুল": 2510, "লিমিটেড": 2511, "আবুল": 2512, "জানুয়ারি": 2513, "কলকা": 2514, "মানের": 2515, "অপে": 2516, "প্রতিটি": 2517, "মাধ্যম": 2518, "হলেন": 2519, "নিয়া": 2520, "নাগরিক": 2521, "শ্রেণ": 2522, "বদ্ধ": 2523, "পরীক্ষার": 2524, "ুকে": 2525, "উৎপা": 2526, "সেল": 2527, "সীমান": 2528, "বিজ্ঞাপন": 2529, "ঐতি": 2530, "আদালতে": 2531, "অফিস": 2532, "কির": 2533, "কুলে": 2534, "ঢাকার": 2535, "উদ্যো": 2536, "শিষ্ট": 2537, "আফ": 2538, "সৌদি": 2539, "প্রতিবেদন": 2540, "নির্যা": 2541, "টিভি": 2542, "রোববার": 2543, "চক": 2544, "কালীন": 2545, "করেছি": 2546, "জার্মান": 2547, "ফেল": 2548, "ব্যাংকের": 2549, "সেন্": 2550, "রূপ": 2551, "য়েল": 2552, "ধারণা": 2553, "ভাবনা": 2554, "উদ": 2555, "রাজধানীর": 2556, "পরিচালনা": 2557, "ড়ার": 2558, "সুস্থ": 2559, "ভীর": 2560, "সমূ": 2561, "তারিখ": 2562, "চিন্তা": 2563, "কখনো": 2564, "প্রমাণ": 2565, "কারি": 2566, "ংস": 2567, "দুপুরে": 2568, "কেলে": 2569, "োধ": 2570, "ঘাট": 2571, "ent": 2572, "বিনি": 2573, "জাহা": 2574, "নেমে": 2575, "বিভাগঢাকা": 2576, "বিভাগরাজশাহী": 2577, "বিভাগরংপুর": 2578, "শনার": 2579, "চন্দ্র": 2580, "খাবার": 2581, "পণ্য": 2582, "ইউরো": 2583, "বাঙা": 2584, "মতা": 2585, "to": 2586, "স্বাভা": 2587, "ঞ্চল": 2588, "নুর": 2589, "ঘুর": 2590, "খার": 2591, "বাড়িতে": 2592, "স্থাপন": 2593, "ঘাত": 2594, "দিবস": 2595, "আসছে": 2596, "করছি": 2597, "বিভাগখুলনা": 2598, "জনপ্রিয়": 2599, "বিভাগময়মনসিংহ": 2600, "ওয়ার": 2601, "নূ": 2602, "শরীর": 2603, "পদ্ধ": 2604, "হাল": 2605, "সরা": 2606, "ডট": 2607, "ইত্যা": 2608, "পাত": 2609, "ক্ষো": 2610, "যাত্রা": 2611, "নিজস্ব": 2612, "ত্ত্": 2613, "শিয়ার": 2614, "আরেক": 2615, "স্বামী": 2616, "অফিসার": 2617, "সঠিক": 2618, "ষ্কার": 2619, "সাহায্য": 2620, "ফির": 2621, "হুম": 2622, "অপর": 2623, "কপি": 2624, "বললেন": 2625, "মেইল": 2626, "পরিষদ": 2627, "স্বাভাবিক": 2628, "ইতিহাস": 2629, "কাজের": 2630, "মাছ": 2631, "হামলার": 2632, "ষিক": 2633, "দৌ": 2634, "থানা": 2635, "ow": 2636, "নয়": 2637, "জাতির": 2638, "প্রতিষ্ঠা": 2639, "গর্": 2640, "সর্বো": 2641, "পর্যায়ে": 2642, "বিবে": 2643, "মানে": 2644, "ওয়ে": 2645, "আর্থ": 2646, "আসলে": 2647, "পরিমাণ": 2648, "য়াত": 2649, "ছড়ি": 2650, "মাদ": 2651, "সময়ের": 2652, "মুন্": 2653, "শালী": 2654, "ফুটবল": 2655, "বাকি": 2656, "পেছ": 2657, "ডু": 2658, "দ্রা": 2659, "গুলোতে": 2660, "উইকেট": 2661, "কাণ্ড": 2662, "পরিচিত": 2663, "ইসি": 2664, "আগেই": 2665, "রানের": 2666, "দেয়ার": 2667, "ইত্যাদি": 2668, "জিনি": 2669, "সাহিত্য": 2670, "পারবে": 2671, "েনের": 2672, "মৃত": 2673, "রাজনীতি": 2674, "বিদ্যুৎ": 2675, "বিভাগবরিশাল": 2676, "থানায়": 2677, "চরিত": 2678, "বিত্র": 2679, "নৈতিক": 2680, "কমিশন": 2681, "জানানো": 2682, "বার্ষিক": 2683, "ঙ্খ": 2684, "বাসি": 2685, "নাকি": 2686, "বাসা": 2687, "ew": 2688, "অভ": 2689, "ঈদ": 2690, "সম্পন্ন": 2691, "নেত্রী": 2692, "ত্তে": 2693, "ওসি": 2694, "ir": 2695, "তুর": 2696, "গ্রুপ": 2697, "জোর": 2698, "কার্যক্রম": 2699, "অঞ্চ": 2700, "ড়ায়": 2701, "হিন্দু": 2702, "রাজ্য": 2703, "দখ": 2704, "পাব": 2705, "জীবনের": 2706, "গঠন": 2707, "ul": 2708, "টিয়ে": 2709, "জ্ঞান": 2710, "মেয়": 2711, "ন্থ": 2712, "ট্": 2713, "বাবু": 2714, "বাগ": 2715, "প্রশিক্ষ": 2716, "ভাবেই": 2717, "ion": 2718, "শনাল": 2719, "হয়তো": 2720, "মডে": 2721, "প্রভাব": 2722, "তিনটি": 2723, "িয়া": 2724, "বিন": 2725, "হোক": 2726, "ভারপ্রাপ্ত": 2727, "টিক": 2728, "তৃতীয়": 2729, "গ্রি": 2730, "হত্যার": 2731, "মধ্যেই": 2732, "আউ": 2733, "মাহমুদ": 2734, "চালু": 2735, "সাহ": 2736, "পিএ": 2737, "শৃ": 2738, "রেল": 2739, "লাগ": 2740, "ছেড়ে": 2741, "ধ্ব": 2742, "উৎসব": 2743, "রাখেন": 2744, "সফল": 2745, "সেতু": 2746, "র্ণ": 2747, "কয়েকটি": 2748, "মায়": 2749, "প্রথমে": 2750, "দীর": 2751, "ফেব্রুয়ারি": 2752, "ag": 2753, "জড়": 2754, "গঞ্জের": 2755, "হই": 2756, "কিত": 2757, "বাতি": 2758, "প্রতিদিন": 2759, "ক্ষোভ": 2760, "গ্রী": 2761, "ভূমিকা": 2762, "কাউ": 2763, "চাইলে": 2764, "নিয়মিত": 2765, "গবেষণা": 2766, "কমিশনার": 2767, "চট্র": 2768, "শোধ": 2769, "মেডিকেল": 2770, "দাস": 2771, "ফরি": 2772, "বোর্ড": 2773, "ইঞ্": 2774, "বিনা": 2775, "রয়ে": 2776, "লক্ষ্যে": 2777, "করলেন": 2778, "মুক্তিযো": 2779, "কলা": 2780, "অবশ্যই": 2781, "কৃষ": 2782, "রাজা": 2783, "পছ": 2784, "ীকে": 2785, "ব্লক": 2786, "পরাম": 2787, "ব্যাট": 2788, "সভার": 2789, "ঙে": 2790, "দৈনিক": 2791, "খুবই": 2792, "পরামর্": 2793, "জরি": 2794, "বিজ্ঞপ্তি": 2795, "অর্থাৎ": 2796, "ব্যাপক": 2797, "প্রস্তাব": 2798, "কখন": 2799, "সম্প্র": 2800, "কুমি": 2801, "বাধ্য": 2802, "ান্তর": 2803, "চট্রগ্রাম": 2804, "অভিযোগে": 2805, "স্যার": 2806, "et": 2807, "কারীদের": 2808, "খ্যাত": 2809, "কিভাবে": 2810, "জুল": 2811, "ভিত্তিক": 2812, "আও": 2813, "আপনাকে": 2814, "ন্স": 2815, "কুল": 2816, "চরিত্র": 2817, "সর্বোচ্চ": 2818, "কাটা": 2819, "মহ": 2820, "স্থায়ী": 2821, "দম": 2822, "শহীদ": 2823, "এমনকি": 2824, "দীন": 2825, "কিব": 2826, "আহ্ব": 2827, "তোমার": 2828, "মানিক": 2829, "যোগী": 2830, "ফ্রি": 2831, "মুখো": 2832, "পবিত্র": 2833, "ঈশ্বর": 2834, "ইট": 2835, "আসামি": 2836, "আনু": 2837, "গোষ্ঠ": 2838, "কূ": 2839, "ক্সি": 2840, "নারায়": 2841, "গাঁও": 2842, "ককে": 2843, "টেল": 2844, "মেলা": 2845, "বিজয়": 2846, "নির্মা": 2847, "নান": 2848, "un": 2849, "লনের": 2850, "জেন্": 2851, "ব্যাপী": 2852, "পাকিস্তানের": 2853, "পাওয়ার": 2854, "ক্রো": 2855, "যথা": 2856, "য়ন": 2857, "শনে": 2858, "পরিচয়": 2859, "য়ানমার": 2860, "জায়গা": 2861, "সহজ": 2862, "ov": 2863, "এখনও": 2864, "এসসি": 2865, "ভবন": 2866, "বিনিয়োগ": 2867, "ধর্ষণ": 2868, "বাদের": 2869, "জিয়ার": 2870, "ারেল": 2871, "উদ্যোগ": 2872, "অভিনয়": 2873, "পাধ্যা": 2874, "টার্": 2875, "নেয়": 2876, "ক্যাম্": 2877, "মুজি": 2878, "খাদ্য": 2879, "কোম্পানির": 2880, "দাঁড়িয়ে": 2881, "মেয়র": 2882, "চাপ": 2883, "খোঁ": 2884, "অনেকেই": 2885, "বোধন": 2886, "তাম": 2887, "পল্": 2888, "যুক্তরাষ্ট্রের": 2889, "স্বপ্ন": 2890, "আনা": 2891, "ধানে": 2892, "ফেসবুক": 2893, "চ্যাম্পি": 2894, "ছবির": 2895, "মেনে": 2896, "কান্": 2897, "ইসলামী": 2898, "পার্ব": 2899, "দরকার": 2900, "বয়সী": 2901, "অনুর": 2902, "প্রার্থ": 2903, "রিপোর্ট": 2904, "ওভার": 2905, "বসু": 2906, "বিভাগচট্রগ্রাম": 2907, "প্রশাসন": 2908, "রাখার": 2909, "কম্পি": 2910, "ঝি": 2911, "শর্ত": 2912, "অথচ": 2913, "সৈয়": 2914, "সম্মেলনে": 2915, "আহ্বান": 2916, "ভার্": 2917, "ষা": 2918, "সমাধান": 2919, "হওয়ায়": 2920, "উন্নয়": 2921, "ইনিং": 2922, "উটার": 2923, "উল্লা": 2924, "নিত": 2925, "কার্": 2926, "ট্যা": 2927, "সেটি": 2928, "কারাগ": 2929, "শিল্পী": 2930, "গণের": 2931, "রাস্তা": 2932, "চলতি": 2933, "রেকর্": 2934, "অনুমো": 2935, "মালা": 2936, "পোস্ট": 2937, "কর্মীদের": 2938, "বলার": 2939, "উর": 2940, "চূ": 2941, "মো": 2942, "ব্যাপার": 2943, "ইলে": 2944, "সীমান্ত": 2945, "ধুনিক": 2946, "কলেজের": 2947, "ফ্যাক্স": 2948, "আলাদা": 2949, "নির্ভর": 2950, "বেসরকারি": 2951, "বাড়ি": 2952, "পড়ে": 2953, "বুদ্ধ": 2954, "দিত": 2955, "ানির": 2956, "সত": 2957, "কাজী": 2958, "চাকরি": 2959, "হাঁ": 2960, "দৃষ্টি": 2961, "গ্ন": 2962, "বন্ধন": 2963, "কং": 2964, "মুদ্রিত": 2965, "আইনজীবী": 2966, "ফলা": 2967, "আসতে": 2968, "তান": 2969, "he": 2970, "দুঃ": 2971, "জিতে": 2972, "কবিতা": 2973, "জাত": 2974, "মিথ": 2975, "মরা": 2976, "কঠি": 2977, "ক্টর": 2978, "নিয়েছে": 2979, "বেঁ": 2980, "ঘি": 2981, "নিজেকে": 2982, "আপনাদের": 2983, "নেতৃত্বে": 2984, "তেমন": 2985, "নিয়র": 2986, "একাদশ": 2987, "মুন": 2988, "কল্যা": 2989, "বিপ": 2990, "খেলে": 2991, "সরাসরি": 2992, "নগ": 2993, "ভবিষ": 2994, "সামরিক": 2995, "সুদ": 2996, "শৃঙ্খ": 2997, "সমালো": 2998, "অর্জন": 2999, "দেশটির": 3000, "কিনা": 3001, "পিত": 3002, "কঠিন": 3003, "প্রধানমন্ত্রীর": 3004, "মিয়ানমার": 3005, "ইমা": 3006, "নাত": 3007, "দিষ্ট": 3008, "আর্থিক": 3009, "ট্রো": 3010, "স্বাধীনতা": 3011, "শুনে": 3012, "পাঠানো": 3013, "ম্য": 3014, "নারায়ণ": 3015, "কীভাবে": 3016, "কিছুই": 3017, "ভবিষ্য": 3018, "খেলো": 3019, "জগ": 3020, "সিরাজ": 3021, "সৃ": 3022, "আক": 3023, "পরিণ": 3024, "রাজধানী": 3025, "ber": 3026, "তরে": 3027, "একাধিক": 3028, "ডিজি": 3029, "পরিস্থিতি": 3030, "ফাক": 3031, "মাও": 3032, "ণার": 3033, "শিরো": 3034, "মন্দি": 3035, "সংঘর্ষ": 3036, "প্রমুখ": 3037, "মুক্তিযোদ্ধা": 3038, "প্রশ্নের": 3039, "অন্তর্": 3040, "কেবল": 3041, "অ্যাড": 3042, "id": 3043, "ন্ধ": 3044, "অন্তত": 3045, "ay": 3046, "ধ্": 3047, "প্লা": 3048, "আক্রম": 3049, "ক্রিকে": 3050, "ইছলামী": 3051, "সাম্": 3052, "গরি": 3053, "উঠেছে": 3054, "ইত্তে": 3055, "সার্ভি": 3056, "যাব": 3057, "সংখ্য": 3058, "এদের": 3059, "মাঠ": 3060, "েনা": 3061, "নির্ধার": 3062, "আইনি": 3063, "কম্পিউটার": 3064, "পোশা": 3065, "কমা": 3066, "অধিনায়ক": 3067, "চালা": 3068, "অভিজ্ঞ": 3069, "ঘটনাস্থ": 3070, "খানা": 3071, "সম্পদ": 3072, "অনেকে": 3073, "উদ্বোধন": 3074, "পুত্র": 3075, "পির": 3076, "জেনে": 3077, "নির্দিষ্ট": 3078, "পড়েছে": 3079, "মহানগর": 3080, "পাবেন": 3081, "বলেছে": 3082, "কিউ": 3083, "ভাগে": 3084, "পরিবহন": 3085, "ক্লাব": 3086, "ক্ষর": 3087, "মডেল": 3088, "এনে": 3089, "সমন্": 3090, "যুদ্ধের": 3091, "বন্দর": 3092, "মুনা": 3093, "কালের": 3094, "ন্যাশনাল": 3095, "বরং": 3096, "ia": 3097, "ুণ": 3098, "মান্ড": 3099, "র্জা": 3100, "বাধা": 3101, "ইংরেজি": 3102, "ail": 3103, "পড়তে": 3104, "ব্যবস্থাপনা": 3105, "বাজে": 3106, "হামলায়": 3107, "ওয়ার্ড": 3108, "ভেঙে": 3109, "কার্যকর": 3110, "বগু": 3111, "য়ো": 3112, "ত্যাগ": 3113, "গড়া": 3114, "প্রতিষ্ঠানের": 3115, "বয়স": 3116, "অবৈ": 3117, "পরামর্শ": 3118, "রয়েছে": 3119, "কিয়ে": 3120, "খারা": 3121, "চালিত": 3122, "ac": 3123, "কোথাও": 3124, "আসার": 3125, "নিষি": 3126, "নু": 3127, "মিলি": 3128, "খুঁজে": 3129, "নারীদের": 3130, "জারি": 3131, "মাহবু": 3132, "চর্": 3133, "ওঠে": 3134, "সংগঠনের": 3135, "পক্ষের": 3136, "ক্রী": 3137, "পোরে": 3138, "বৃষ্টি": 3139, "কোচ": 3140, "অগ্র": 3141, "কাগ": 3142, "চেতন": 3143, "ইংল্যান্ড": 3144, "নিষিদ্ধ": 3145, "ত্তি": 3146, "বলছেন": 3147, "সঙ্গী": 3148, "ব্যক্তিগত": 3149, "প্রস্তুতি": 3150, "নিম্": 3151, "হিদ": 3152, "ফরম": 3153, "দর্শক": 3154, "নিচে": 3155, "স্মৃ": 3156, "জেনারেল": 3157, "ঋণ": 3158, "গভীর": 3159, "নজরুল": 3160, "অত্য": 3161, "উদ্যোগে": 3162, "সারে": 3163, "মিনিটে": 3164, "ারি": 3165, "হতো": 3166, "পেরে": 3167, "ভূত": 3168, "অবৈধ": 3169, "জন্যে": 3170, "মৌসু": 3171, "তৎ": 3172, "হরণ": 3173, "বুঝতে": 3174, "বণ": 3175, "বিদ্যালয়": 3176, "বেদ": 3177, "শিশুদের": 3178, "বিকেলে": 3179, "দানের": 3180, "তোমা": 3181, "কৌশল": 3182, "ুয়ারি": 3183, "অ্যাপ": 3184, "শুভ": 3185, "কেও": 3186, "তারকা": 3187, "আশ্র": 3188, "ঢাকায়": 3189, "জীবনে": 3190, "মূলত": 3191, "ঝুঁ": 3192, "পেয়েছে": 3193, "পাশের": 3194, "আগুন": 3195, "চক্র": 3196, "সিন": 3197, "us": 3198, "জিন": 3199, "রবিবার": 3200, "চম": 3201, "ইত্তেফাক": 3202, "টাঙ্গা": 3203, "ডাক": 3204, "কানা": 3205, "ক্রমে": 3206, "অর্থনৈতিক": 3207, "মাত্রা": 3208, "ওবায়": 3209, "ইসলামের": 3210, "াই": 3211, "রয়েছেন": 3212, "আদায়": 3213, "শহরে": 3214, "গেছেন": 3215, "স্পষ্ট": 3216, "রানে": 3217, "বিজে": 3218, "দেবে": 3219, "একমাত্র": 3220, "oo": 3221, "সরে": 3222, "আলোচ": 3223, "শান": 3224, "পুরা": 3225, "পার্বত্য": 3226, "ইন্ডি": 3227, "অপারে": 3228, "প্রক্রিয়া": 3229, "যায়নি": 3230, "জড়িত": 3231, "সমস্ত": 3232, "রেকর্ড": 3233, "প্রান্ত": 3234, "আলাই": 3235, "গুণ": 3236, "মল": 3237, "জাতিসংঘ": 3238, "ফায়": 3239, "গৃহ": 3240, "রিপোর্টার": 3241, "যাত্রী": 3242, "আজি": 3243, "কবির": 3244, "অং": 3245, "রুল": 3246, "হঠা": 3247, "তেও": 3248, "খুলে": 3249, "বিশাল": 3250, "মাথায়": 3251, "দিলে": 3252, "গাই": 3253, "অবস্থিত": 3254, "প্রশিক্ষণ": 3255, "কালো": 3256, "ষ্ঠান": 3257, "সাংবাদিকদের": 3258, "কষ্ট": 3259, "মান্": 3260, "ব্রাহ্": 3261, "দায়": 3262, "ব্যর্থ": 3263, "পিতা": 3264, "শোনা": 3265, "হস্ত": 3266, "আদি": 3267, "পৃথিবীর": 3268, "থাকলেও": 3269, "কুমিল্লা": 3270, "প্রের": 3271, "হুমকি": 3272, "মান্য": 3273, "নীল": 3274, "মিনিট": 3275, "ূর্ত": 3276, "রাজ্যের": 3277, "বিদেশি": 3278, "ওবায়দুল": 3279, "মৃত্যুর": 3280, "বোমা": 3281, "কিছুটা": 3282, "ব্যস্ত": 3283, "আঁ": 3284, "ভক্ত": 3285, "জায়গায়": 3286, "ান্স": 3287, "স্পি": 3288, "থাকায়": 3289, "বালি": 3290, "আসেন": 3291, "বাচ্": 3292, "খরচ": 3293, "খারাপ": 3294, "ব্রিটিশ": 3295, "বহি": 3296, "আল্লাহর": 3297, "আসনে": 3298, "বাড়ির": 3299, "শফিক": 3300, "সংযোগ": 3301, "একবার": 3302, "সহি": 3303, "বাঙালি": 3304, "কিলো": 3305, "ইয়": 3306, "যুদ্ধে": 3307, "ত্তর": 3308, "যুগ্": 3309, "ানো": 3310, "দাবিতে": 3311, "আইনে": 3312, "ষ্ণ": 3313, "প্রাই": 3314, "হেল": 3315, "গড়": 3316, "পুঁ": 3317, "নিকট": 3318, "ফার্": 3319, "বিষয়": 3320, "ha": 3321, "সভাপতিত্বে": 3322, "প্রয়োজনীয়": 3323, "নারীর": 3324, "আরব": 3325, "টুকু": 3326, "লাগে": 3327, "গোপাল": 3328, "শ্রীল": 3329, "ধ্বং": 3330, "ফর্": 3331, "ব্যবসায়ী": 3332, "মুসল": 3333, "করিম": 3334, "সুই": 3335, "কার্ড": 3336, "তো": 3337, "আনো": 3338, "বিতরণ": 3339, "আফ্র": 3340, "ভাইস": 3341, "অন্যদিকে": 3342, "ফাইনা": 3343, "অঙ্গ": 3344, "েন্টের": 3345, "সেক্স": 3346, "খেলার": 3347, "জনগণের": 3348, "এসই": 3349, "বিনো": 3350, "আক্রান্ত": 3351, "মানা": 3352, "শির": 3353, "হিসাব": 3354, "যুগ্ম": 3355, "সন্ধান": 3356, "লোড": 3357, "ধর্মীয়": 3358, "রোধ": 3359, "স্ট্রি": 3360, "ভিত্তিতে": 3361, "রূ": 3362, "করেই": 3363, "চিহ্": 3364, "ছাত্রলীগের": 3365, "জামাল": 3366, "মাদ্রা": 3367, "রহমানের": 3368, "অংশগ্রহণ": 3369, "শৃঙ্খলা": 3370, "কারে": 3371, "সচেতন": 3372, "সৈয়দ": 3373, "ation": 3374, "তাল": 3375, "অত্যন্ত": 3376, "অব্যা": 3377, "নদীর": 3378, "পর্ব": 3379, "নিয়": 3380, "সহযোগিতা": 3381, "নিয়ম": 3382, "শ্যা": 3383, "পছন্দ": 3384, "নেওয়ার": 3385, "ঘণ্টা": 3386, "দ্বন্": 3387, "ভেতরে": 3388, "বিস্ফোর": 3389, "হ্য": 3390, "মন্ত্রণালয়ের": 3391, "আইনের": 3392, "তল": 3393, "সিনিয়র": 3394, "হুল": 3395, "পেশা": 3396, "আসন": 3397, "ইউপি": 3398, "গৌ": 3399, "রাষ্ট্রপতি": 3400, "ভ্যা": 3401, "কার্যালয়": 3402, "সিনেমা": 3403, "বাংলার": 3404, "বলছে": 3405, "ব্রাহ্মণ": 3406, "সেন্টার": 3407, "চাম": 3408, "আজকের": 3409, "মির্জা": 3410, "দিচ্ছে": 3411, "মার্ট": 3412, "পয়েন্ট": 3413, "করো": 3414, "মুর": 3415, "হঠাৎ": 3416, "পরা": 3417, "দিলেন": 3418, "তাদেরকে": 3419, "আক্তার": 3420, "য়াড়": 3421, "ষ্ঠানিক": 3422, "কট": 3423, "বিডি": 3424, "ts": 3425, "পূরণ": 3426, "বোঝা": 3427, "অধ্য": 3428, "করব": 3429, "আধুনিক": 3430, "নির্বাচনী": 3431, "করায়": 3432, "বিক্ষোভ": 3433, "দুর্নীতি": 3434, "টানা": 3435, "রিয়াল": 3436, "বৈঠক": 3437, "দেখি": 3438, "সম্ভাবনা": 3439, "ড়াতে": 3440, "অপেক্ষা": 3441, "ডাকা": 3442, "সেমি": 3443, "পরের": 3444, "স্টাফ": 3445, "ঘটেছে": 3446, "বৈঠকে": 3447, "সালা": 3448, "পঞ্চ": 3449, "যাই": 3450, "েরা": 3451, "ইক": 3452, "কেমন": 3453, "ews": 3454, "সম্মেলন": 3455, "উৎপাদন": 3456, "প্রকাশক": 3457, "মেয়ের": 3458, "স্বার্": 3459, "যোগ": 3460, "কর্মচার": 3461, "স্মৃতি": 3462, "একাডে": 3463, "দশমিক": 3464, "বাসে": 3465, "ক্কা": 3466, "দখল": 3467, "রোজ": 3468, "আত": 3469, "কর্মীরা": 3470, "বো": 3471, "আমিন": 3472, "পরিণত": 3473, "ig": 3474, "শং": 3475, "লানা": 3476, "জেল": 3477, "ঘুরে": 3478, "চুল": 3479, "ফেন": 3480, "সরবরা": 3481, "নিয়ন্ত্রণ": 3482, "os": 3483, "শাস্তি": 3484, "গাজীপুর": 3485, "হিম": 3486, "চ্যাম্পিয়ন": 3487, "ঘন": 3488, "করতেন": 3489, "বাধিকার": 3490, "বিদ্যালয়ের": 3491, "দোকান": 3492, "সতর্ক": 3493, "রাজনী": 3494, "কিলোমিটার": 3495, "সংস্কৃতি": 3496, "সংস্কার": 3497, "যেসব": 3498, "বাসের": 3499, "প্রস্তুত": 3500, "প্রায়": 3501, "লেনদেন": 3502, "দিনাজ": 3503, "মিয়ার": 3504, "বাক": 3505, "মুহূর্ত": 3506, "নীতির": 3507, "লেখক": 3508, "খোলা": 3509, "উদ্দেশ্যে": 3510, "এভাবে": 3511, "সমূহ": 3512, "ডাউন": 3513, "বাংলাদেশি": 3514, "আউট": 3515, "ইছলাম": 3516, "শূ": 3517, "সত্যি": 3518, "ব্যক্তির": 3519, "সোনা": 3520, "সমর্থন": 3521, "খ্রিষ্ট": 3522, "বিচারপতি": 3523, "চোখে": 3524, "রিয়ে": 3525, "রেজা": 3526, "মসজিদ": 3527, "দূরে": 3528, "ছড়িয়ে": 3529, "উন্নত": 3530, "মন্ত্রণালয়": 3531, "জাহান": 3532, "দির": 3533, "ভাঙ": 3534, "বেশির": 3535, "ফলাফল": 3536, "অর্থনীতি": 3537, "কন্": 3538, "হাউ": 3539, "চরণ": 3540, "চার্য": 3541, "সংরক্ষিত": 3542, "সাদা": 3543, "দনে": 3544, "মুখি": 3545, "দেখুন": 3546, "উপদে": 3547, "আসবে": 3548, "দৃশ্য": 3549, "পূর্বে": 3550, "অধিদপ্ত": 3551, "চ্ছিল": 3552, "বাসায়": 3553, "ড্ড": 3554, "লোকজন": 3555, "্রিক": 3556, "বিশ্বকাপ": 3557, "সংস": 3558, "im": 3559, "টিন": 3560, "পার্টির": 3561, "লড়াই": 3562, "মরণ": 3563, "মানুষকে": 3564, "কমিউনি": 3565, "অত": 3566, "পাল্": 3567, "পনের": 3568, "গীর": 3569, "এসময়": 3570, "কেন্দ্রে": 3571, "সেখান": 3572, "প্রসঙ্গে": 3573, "লম্": 3574, "সাইটের": 3575, "পাবে": 3576, "angla": 3577, "থার": 3578, "যাদের": 3579, "প্রতী": 3580, "ড়ান্ত": 3581, "নিশ্চয়": 3582, "ফিল্": 3583, "বিশিষ্ট": 3584, "ইন্টারনেট": 3585, "ব্যবহারের": 3586, "ঘরের": 3587, "রফ": 3588, "ব্যয়": 3589, "টেন": 3590, "রম": 3591, "রবী": 3592, "সরকারী": 3593, "হাদি": 3594, "বন্ধুর": 3595, "নিষে": 3596, "মেয়া": 3597, "খেলোয়াড়": 3598, "ব্রাজি": 3599, "চতু": 3600, "বিয়ের": 3601, "লিন": 3602, "um": 3603, "বাসন": 3604, "পেন": 3605, "nd": 3606, "খাত": 3607, "বেশে": 3608, "আরা": 3609, "ষ্টির": 3610, "আদালতের": 3611, "কল্যাণ": 3612, "সর্বশেষ": 3613, "ইতিহা": 3614, "জুড়ে": 3615, "পেয়েছেন": 3616, "অফ": 3617, "গঞ্জে": 3618, "চুর": 3619, "নেতারা": 3620, "বনে": 3621, "িং": 3622, "স্মার্ট": 3623, "অল": 3624, "সিম": 3625, "শিক্ষাবর্ষ": 3626, "জাদ": 3627, "ঐক্যফ্র": 3628, "চ্যানে": 3629, "চিঠি": 3630, "ট্রাম্প": 3631, "লিখিত": 3632, "মর্": 3633, "জোট": 3634, "ছাড়": 3635, "সহজে": 3636, "পাবলি": 3637, "বাজারের": 3638, "হাসপাতাল": 3639, "সিয়ে": 3640, "উপজেলায়": 3641, "উল্লাহ": 3642, "ছবিতে": 3643, "মানসিক": 3644, "ডটকম": 3645, "মেরা": 3646, "হাসিনার": 3647, "একেবারে": 3648, "সল": 3649, "ান্ত্রিক": 3650, "হাজির": 3651, "গোপন": 3652, "ছাই": 3653, "পাথ": 3654, "চেয়ে": 3655, "সাংস্": 3656, "ত্রু": 3657, "ধন্য": 3658, "সবু": 3659, "নাটক": 3660, "চাহি": 3661, "েন্ড": 3662, "ut": 3663, "পোর্ট": 3664, "সাইটে": 3665, "পদ্ধতি": 3666, "পাট": 3667, "প্রযো": 3668, "পৃথিবী": 3669, "ইমাম": 3670, "সন্ত্রাসী": 3671, "মুসলমান": 3672, "লাইট": 3673, "গুলোকে": 3674, "বন্দ": 3675, "দুপুর": 3676, "নির্ধারিত": 3677, "বরণ": 3678, "ওয়েব": 3679, "প্রতিবাদ": 3680, "ফিলি": 3681, "সহায়তা": 3682, "মাধ্যমিক": 3683, "জাল": 3684, "লিউ": 3685, "সিদ্": 3686, "বক": 3687, "কারাগারে": 3688, "মিলে": 3689, "ভেল": 3690, "পারেনি": 3691, "ন্দের": 3692, "মহাসচিব": 3693, "সিরিজ": 3694, "শ্রম": 3695, "হাইকোর্": 3696, "হেতু": 3697, "কাশে": 3698, "কেশন": 3699, "জাতীয়": 3700, "অনুরোধ": 3701, "লাইনে": 3702, "আদেশ": 3703, "ভারতে": 3704, "কংগ্রে": 3705, "পুনর্": 3706, "উন্ডে": 3707, "আনোয়ার": 3708, "উপদেষ্টা": 3709, "সমাবেশ": 3710, "বাতিল": 3711, "ভাষায়": 3712, "মুখী": 3713, "রাইট": 3714, "সদস্যরা": 3715, "ডিজিটাল": 3716, "পেছনে": 3717, "খাওয়া": 3718, "হাসপাতালের": 3719, "রো": 3720, "রফিক": 3721, "শ্ব": 3722, "মনের": 3723, "বাহী": 3724, "ওয়েবসাইট": 3725, "বাস্তবা": 3726, "বলিউ": 3727, "ধারাবাহি": 3728, "আয়োজিত": 3729, "সমিতির": 3730, "সাংস্কৃতিক": 3731, "প্রকল্পের": 3732, "য়েন্টি": 3733, "দেখিয়ে": 3734, "পত্রিকা": 3735, "রাজি": 3736, "টান": 3737, "হতা": 3738, "কাউন্সিল": 3739, "বিবি": 3740, "মুহাম্মদ": 3741, "বাস্তব": 3742, "গিয়ে": 3743, "অনি": 3744, "পৃষ্ঠ": 3745, "বারি": 3746, "আশঙ্কা": 3747, "গ্রস্ত": 3748, "কয়েকজন": 3749, "প্রেম": 3750, "জরুরি": 3751, "রঙ": 3752, "ঐতিহ্য": 3753, "চূড়ান্ত": 3754, "জবা": 3755, "ক্লাবের": 3756, "ate": 3757, "ম্যাচের": 3758, "উদ্দেশ্য": 3759, "বিধি": 3760, "ম্বরে": 3761, "বাণিজ্যিক": 3762, "সাফল": 3763, "নির্যাতন": 3764, "তালিকায়": 3765, "পোশাক": 3766, "অ্যাকাউন্": 3767, "নির্ধারণ": 3768, "আলোক": 3769, "ra": 3770, "পররাষ্ট্র": 3771, "চির": 3772, "সাক্ষাৎকার": 3773, "জানুয়ারী": 3774, "ধূ": 3775, "অসুস্থ": 3776, "অব্যাহত": 3777, "ব্যক্ত": 3778, "পাহাড়": 3779, "পট": 3780, "অনুসর": 3781, "তেল": 3782, "তবু": 3783, "ember": 3784, "ii": 3785, "ঝুঁকি": 3786, "অনুমোদন": 3787, "প্রিন্": 3788, "ডাক্তার": 3789, "মায়ের": 3790, "মেন": 3791, "দিয়া": 3792, "খেলতে": 3793, "আগষ্ট": 3794, "অস্ট্রেলি": 3795, "মোটর": 3796, "ক্যারি": 3797, "ঠাকুর": 3798, "মাদার": 3799, "নিয়েছেন": 3800, "শাখা": 3801, "ানী": 3802, "ধরণের": 3803, "মুখ্য": 3804, "প্রতিবেদক": 3805, "কার্যালয়ে": 3806, "জম": 3807, "পদক্ষেপ": 3808, "পুঁজি": 3809, "ডারে": 3810, "জয়ের": 3811, "হারে": 3812, "ধের": 3813, "দিল": 3814, "আন্দোলনের": 3815, "চট্টগ্রামের": 3816, "আলোকে": 3817, "সীমা": 3818, "ম্যানে": 3819, "হাবি": 3820, "ওয়": 3821, "টাঙ্গাইল": 3822, "শিক্ষার": 3823, "চাষ": 3824, "ধো": 3825, "কারো": 3826, "রবীন্দ্র": 3827, "কাগজ": 3828, "গোলাম": 3829, "কারীরা": 3830, "দ্দ": 3831, "টারি": 3832, "ob": 3833, "রাশিয়া": 3834, "মিথ্যা": 3835, "দেখার": 3836, "লক্ষ্": 3837, "যুগ": 3838, "গোলে": 3839, "ইচ্ছা": 3840, "পৌঁছে": 3841, "ইভ": 3842, "সফর": 3843, "স্তফা": 3844, "যিনি": 3845, "বস্তু": 3846, "নুরুল": 3847, "মর্যা": 3848, "সংস্থার": 3849, "ওপরে": 3850, "দ্বীপ": 3851, "পার্টি": 3852, "কাঠ": 3853, "জিং": 3854, "যেকোনো": 3855, "নিরাপদ": 3856, "জনগণ": 3857, "কো": 3858, "মুখোমুখি": 3859, "জানে": 3860, "নিম্ন": 3861, "হবেন": 3862, "এসআই": 3863, "সন্ত্রাস": 3864, "বাসিন্দা": 3865, "ওয়েস্ট": 3866, "জতে": 3867, "আরেকটি": 3868, "হৃত": 3869, "ফেব্রুয়ারী": 3870, "ট্রিক": 3871, "ফাইনালে": 3872, "ইন্স": 3873, "প্রিন্ট": 3874, "স্তায়": 3875, "সরবরাহ": 3876, "লীর": 3877, "পড়ার": 3878, "ক্সে": 3879, "মিউ": 3880, "ট্রেডিং": 3881, "প্রকৃত": 3882, "সূল": 3883, "লুক": 3884, "কাঠা": 3885, "অলি": 3886, "আপনারা": 3887, "মাওলানা": 3888, "বদ": 3889, "বিএক্স": 3890, "কমিশনের": 3891, "ষু": 3892, "বিকেল": 3893, "বিজি": 3894, "বর্ধ": 3895, "এড": 3896, "আত্": 3897, "tion": 3898, "খোঁজ": 3899, "সংগী": 3900, "খুশি": 3901, "দত্ত": 3902, "জিজ্ঞা": 3903, "পরিচালিত": 3904, "বৌ": 3905, "অনা": 3906, "বিনোদন": 3907, "টক": 3908, "তনের": 3909, "খুন": 3910, "স্কুলে": 3911, "দাতা": 3912, "লস": 3913, "হৃদ": 3914, "চলাচল": 3915, "কাউকে": 3916, "ক্রীড়া": 3917, "আরি": 3918, "তথা": 3919, "কখনও": 3920, "দারি": 3921, "টুর্": 3922, "দিল্": 3923, "টেলিভি": 3924, "টেকনা": 3925, "পলি": 3926, "ল্লাহু": 3927, "বিনিময়": 3928, "ক্রিকেটার": 3929, "শক্তিশালী": 3930, "লন্ড": 3931, "নন": 3932, "বসুন্": 3933, "খ্রিষ্টান": 3934, "কণ্": 3935, "বিশেষজ্ঞ": 3936, "গুলির": 3937, "ার্ট": 3938, "মনির": 3939, "অল্প": 3940, "te": 3941, "সন্ধ্যায়": 3942, "ঙ্গীর": 3943, "বিবাহ": 3944, "ter": 3945, "for": 3946, "বিপরী": 3947, "দুঃখ": 3948, "চালক": 3949, "দারুণ": 3950, "ধারাবাহিক": 3951, "হবি": 3952, "আলাইহি": 3953, "সাংগঠ": 3954, "ছুর": 3955, "iv": 3956, "বোন": 3957, "খাতে": 3958, "op": 3959, "সফট": 3960, "জটি": 3961, "টল": 3962, "রান্": 3963, "অভিনেত্রী": 3964, "আবি": 3965, "কলকাতা": 3966, "সাংগঠনিক": 3967, "ছাড়াও": 3968, "গঠিত": 3969, "সবাইকে": 3970, "ইমর": 3971, "শ্রেণির": 3972, "বসুন্ধরা": 3973, "se": 3974, "চার্জ": 3975, "অঞ্চল": 3976, "মামুন": 3977, "মেহের": 3978, "ীতে": 3979, "প্রণ": 3980, "কিম": 3981, "সাকিব": 3982, "সমস্যার": 3983, "বদলে": 3984, "যাচ্ছেন": 3985, "উদা": 3986, "বাম": 3987, "পরই": 3988, "অনুসরণ": 3989, "ডান": 3990, "শিক্ষার্থীরা": 3991, "নীয়": 3992, "বিভাগে": 3993, "সাধার": 3994, "য়েত": 3995, "বিদায়": 3996, "হাতি": 3997, "নও": 3998, "ওষু": 3999, "জন্যই": 4000, "গলা": 4001, "সপ্তাহ": 4002, "আইসিস": 4003, "এরই": 4004, "বয়": 4005, "সদস্যদের": 4006, "বিশ্লে": 4007, "আনুষ্ঠানিক": 4008, "কাপ": 4009, "আমেরিকা": 4010, "অভিয": 4011, "ফখর": 4012, "ভবনে": 4013, "প্লট": 4014, "পেক্ষ": 4015, "চারটি": 4016, "পরীক্ষায়": 4017, "স্বত্ব": 4018, "আকর্": 4019, "ধর্ষণের": 4020, "ভেবে": 4021, "বিপ্ল": 4022, "বাবার": 4023, "খায়": 4024, "বিদেশ": 4025, "সক্ষম": 4026, "বসবাস": 4027, "অধী": 4028, "ধীরে": 4029, "হচ্ছেন": 4030, "কপিরাইট": 4031, "শিব": 4032, "ক্যাল": 4033, "বেরিয়ে": 4034, "বলেছিলেন": 4035, "নির্দেশনা": 4036, "এবারের": 4037, "মহাসড়": 4038, "তারেক": 4039, "শারী": 4040, "সূরা": 4041, "আশ্রয়": 4042, "স্টেডিয়া": 4043, "সুখ": 4044, "টুর্নাম": 4045, "জক": 4046, "বলেই": 4047, "সম্যান": 4048, "আন্ত": 4049, "ঈদের": 4050, "বান্দর": 4051, "প্রত্যাশী": 4052, "মিছিল": 4053, "পাশ": 4054, "হোসেনের": 4055, "যাপন": 4056, "মজু": 4057, "সাহে": 4058, "সুনাম": 4059, "অভ্য": 4060, "সমুদ্র": 4061, "যৌথ": 4062, "সাগর": 4063, "উত্": 4064, "টিভ": 4065, "লক্ষ্মী": 4066, "গরম": 4067, "বলেও": 4068, "ম্বার": 4069, "প্রতিবেদনে": 4070, "sh": 4071, "চিকিৎসক": 4072, "লিমিটেডের": 4073, "কোথায়": 4074, "স্মরণ": 4075, "মালি": 4076, "মণ্ড": 4077, "দীর্ঘদিন": 4078, "ধ্বংস": 4079, "অনুষ্ঠানের": 4080, "বেআইনি": 4081, "েন্টে": 4082, "পাক": 4083, "শ্রদ্ধা": 4084, "হার্ড": 4085, "কেজি": 4086, "আওতায়": 4087, "বেড়েছে": 4088, "হরি": 4089, "তাপ": 4090, "ড্রা": 4091, "ধন্যবাদ": 4092, "সমাজের": 4093, "ce": 4094, "উন্ড": 4095, "ছাত্রী": 4096, "পারেননি": 4097, "ত্বের": 4098, "আর্জেন্": 4099, "কাংশ": 4100, "স্কুলের": 4101, "তীব্র": 4102, "গ্রহণের": 4103, "নিষ্ঠ": 4104, "Ch": 4105, "হোম": 4106, "আনি": 4107, "কৃতির": 4108, "চরম": 4109, "নেতাদের": 4110, "বাণী": 4111, "গোলা": 4112, "রাস্তায়": 4113, "শুধুমাত্র": 4114, "সাক্ষ": 4115, "প্রাকৃতিক": 4116, "পালিয়ে": 4117, "রাখে": 4118, "ো": 4119, "শিং": 4120, "সন্দেহ": 4121, "জ্বল": 4122, "একদিন": 4123, "গণতন্ত্র": 4124, "জিম্": 4125, "উন্নয়নের": 4126, "যথ": 4127, "প্রবাসী": 4128, "ক্লিক": 4129, "ওঠ": 4130, "এরা": 4131, "ফখরুল": 4132, "নয়া": 4133, "ক্রয়": 4134, "ইমেইল": 4135, "োপ": 4136, "সিয়া": 4137, "নারায়ণগঞ্জ": 4138, "অধিকাংশ": 4139, "ীপুর": 4140, "তাও": 4141, "বিকল্প": 4142, "বিবৃ": 4143, "মিলন": 4144, "ভাড়া": 4145, "সাইকেল": 4146, "গানের": 4147, "কাহি": 4148, "আকাশ": 4149, "মূল্যে": 4150, "উপরে": 4151, "কন্যা": 4152, "প্রশাসক": 4153, "ab": 4154, "ভিত্তি": 4155, "সিপি": 4156, "তুলনায়": 4157, "মেল": 4158, "The": 4159, "অঞ্চলের": 4160, "সাধারণত": 4161, "চতুর্থ": 4162, "মসজিদে": 4163, "ভোর": 4164, "দ্রো": 4165, "জবাবে": 4166, "কাট": 4167, "করপোরে": 4168, "ডিয়া": 4169, "রচনা": 4170, "ইস্ট": 4171, "লাগা": 4172, "মেঘ": 4173, "আঘাত": 4174, "শায়": 4175, "পাধ্যায়": 4176, "শাসন": 4177, "জানেন": 4178, "হাদ": 4179, "ট্রাক": 4180, "কারণেই": 4181, "চাহিদা": 4182, "হিদুল": 4183, "জিজ্ঞাসা": 4184, "খিল": 4185, "যেহেতু": 4186, "ইকবাল": 4187, "লাত": 4188, "স্বর": 4189, "আবারও": 4190, "কানে": 4191, "গিয়েছে": 4192, "খানের": 4193, "ভোটার": 4194, "িত্": 4195, "করলেও": 4196, "তৃণ": 4197, "প্রত্যেক": 4198, "মৌল": 4199, "নিঃ": 4200, "উল্লেখ্য": 4201, "র্য": 4202, "অটো": 4203, "প্রতিযোগিতা": 4204, "রাট": 4205, "আইপি": 4206, "পিয়ে": 4207, "বাজ": 4208, "শ্রু": 4209, "মাশ": 4210, "বন্ধে": 4211, "ঘন্": 4212, "ভাইরা": 4213, "ফোর্": 4214, "ত্ত্ব": 4215, "দায়ী": 4216, "সপ্তাহে": 4217, "্যাক": 4218, "ম্পের": 4219, "পাত্র": 4220, "করল": 4221, "হানি": 4222, "শিশুর": 4223, "চলবে": 4224, "আখ": 4225, "দানি": 4226, "মিলিয়ে": 4227, "আসনের": 4228, "সমালোচনা": 4229, "অধিক": 4230, "উৎস": 4231, "দুর্ঘটনা": 4232, "নেয়ার": 4233, "চীনের": 4234, "বাস্তবায়ন": 4235, "ধর্মের": 4236, "বোর্ডের": 4237, "এয়ার": 4238, "খেয়ে": 4239, "উক্ত": 4240, "সাইন": 4241, "এটাই": 4242, "পানির": 4243, "দেওয়া": 4244, "সামান্য": 4245, "গিত": 4246, "্যানি": 4247, "ব্যাটসম্যান": 4248, "নৌকা": 4249, "জামিন": 4250, "য়ায়": 4251, "চাকমা": 4252, "তত": 4253, "জিনিস": 4254, "প্রচারিত": 4255, "বৃন্দ": 4256, "বেতন": 4257, "রুশ": 4258, "অধীনে": 4259, "বিশ্ববিদ্যালয়ে": 4260, "দ্রি": 4261, "সংলা": 4262, "পদ্": 4263, "খাগড়া": 4264, "আশরা": 4265, "ল্লাল্লাহু": 4266, "কারের": 4267, "কর্মকর্তারা": 4268, "বিপুল": 4269, "ইরা": 4270, "আচরণ": 4271, "সবুজ": 4272, "কমপ্লে": 4273, "স্বাক্ষর": 4274, "প্রশং": 4275, "দেড়": 4276, "নষ্ট": 4277, "মানবাধিকার": 4278, "গ্যাস": 4279, "মালয়ে": 4280, "ন্ডি": 4281, "পরিষ্কার": 4282, "শূন্য": 4283, "নামক": 4284, "মোস্তফা": 4285, "কয়ে": 4286, "র্যাব": 4287, "তোলা": 4288, "যশোর": 4289, "লিখেছেন": 4290, "ওয়্যার": 4291, "রাশি": 4292, "Nov": 4293, "অডিও": 4294, "ত্মক": 4295, "উত্তরা": 4296, "গ্রাহক": 4297, "পরাজ": 4298, "্যান্ট": 4299, "নাট্য": 4300, "সুষ্ঠ": 4301, "এশিয়া": 4302, "খাগড়াছড়ি": 4303, "অভিজ্ঞতা": 4304, "শারীরিক": 4305, "শ্রেষ্ঠ": 4306, "জাহাঙ্গীর": 4307, "বুদ্ধি": 4308, "তাস": 4309, "সিডি": 4310, "খালি": 4311, "ফরিদপুর": 4312, "এ্যা": 4313, "সাল্": 4314, "og": 4315, "কিশোরগঞ্জ": 4316, "যথে": 4317, "পুকুর": 4318, "বানি": 4319, "রশি": 4320, "নেতৃত্ব": 4321, "শাদ": 4322, "আজাদ": 4323, "বাছাই": 4324, "হাওয়া": 4325, "র্ধ্ব": 4326, "পাঠিয়ে": 4327, "খেতে": 4328, "স্বীকৃতি": 4329, "ইয়াবা": 4330, "খো": 4331, "চাঁদপুর": 4332, "প্রচুর": 4333, "কারীর": 4334, "গানি": 4335, "ডিএসই": 4336, "ানু": 4337, "কঠ": 4338, "কারও": 4339, "স্টিটিউ": 4340, "রিয়ার": 4341, "তপুর": 4342, "অতী": 4343, "মিজান": 4344, "প্রতিরোধ": 4345, "আলমগীর": 4346, "ৃত": 4347, "পরিস্থি": 4348, "বায়ক": 4349, "রাঙ্গা": 4350, "oc": 4351, "ৃদ্ধ": 4352, "য়োগ": 4353, "মেয়েদের": 4354, "উত্তে": 4355, "নীত": 4356, "ব্যবহৃত": 4357, "্যায়": 4358, "সিস্টে": 4359, "গোয়েন্": 4360, "সিত": 4361, "জবাব": 4362, "প্রতিক": 4363, "দুজন": 4364, "স্থগিত": 4365, "কস": 4366, "হারের": 4367, "িতার": 4368, "বিশ্বে": 4369, "মারি": 4370, "প্রতিদ্বন্": 4371, "ব্রাউ": 4372, "সমৃদ্ধ": 4373, "অন্ধ": 4374, "পিএবিএক্স": 4375, "ঘাতী": 4376, "কঠোর": 4377, "চালানো": 4378, "শিক": 4379, "ভোকেট": 4380, "বলী": 4381, "সই": 4382, "নূর": 4383, "প্রশাসনের": 4384, "বাসীর": 4385, "তান্ত্রিক": 4386, "আনতে": 4387, "জনাব": 4388, "ফাউন্ডে": 4389, "দনের": 4390, "নরসিং": 4391, "ট্রাই": 4392, "মারী": 4393, "বিজেপি": 4394, "সভ": 4395, "টাকে": 4396, "গ্রন্থ": 4397, "দোয়া": 4398, "পাবলিক": 4399, "ঠো": 4400, "শরীরে": 4401, "ঙ্গের": 4402, "মেধা": 4403, "উজ্": 4404, "পত্তি": 4405, "ক্ষমতায়": 4406, "য়াল": 4407, "ইয়ে": 4408, "ডিজা": 4409, "সার্বিক": 4410, "ছিয়ে": 4411, "এছাড়াও": 4412, "পত্রিকার": 4413, "আগ্রহ": 4414, "ফেরত": 4415, "সংবিধান": 4416, "ব্যাটিং": 4417, "পিএস": 4418, "তুলতে": 4419, "লাইস": 4420, "আলি": 4421, "য়োজন": 4422, "ওরা": 4423, "শাখার": 4424, "ওয়ানডে": 4425, "চলেছে": 4426, "November": 4427, "রেখেছেন": 4428, "মাইক্রো": 4429, "গুরুতর": 4430, "ডিসি": 4431, "অগ্": 4432, "ঘিরে": 4433, "বেশী": 4434, "মাহবুব": 4435, "দফ": 4436, "যোগিতায়": 4437, "উপায়": 4438, "ST": 4439, "তাব": 4440, "হামি": 4441, "গার্": 4442, "দুস": 4443, "ক্ষিত": 4444, "নির্মিত": 4445, "সুন": 4446, "বঙ্গবন্ধুর": 4447, "সুষ্ঠু": 4448, "আক্রমণ": 4449, "ক্লি": 4450, "ইনস্টিটিউ": 4451, "অঞ্চলে": 4452, "সাল্লাম": 4453, "বাস্তবায়": 4454, "ফিরিয়ে": 4455, "ান্তি": 4456, "বাসীদের": 4457, "নিষ্": 4458, "রাজবাড়ী": 4459, "প্রভা": 4460, "গ্রুপের": 4461, "যাবেন": 4462, "অ্যাল": 4463, "দেবেন": 4464, "ৃতি": 4465, "শোক": 4466, "পূর": 4467, "ক্রিয়": 4468, "ub": 4469, "pro": 4470, "উভয়": 4471, "শ্বাস": 4472, "খন্দ": 4473, "ফোনে": 4474, "মন্দির": 4475, "এগুলো": 4476, "উদ্দীন": 4477, "ist": 4478, "পারলে": 4479, "ঢুকে": 4480, "গন": 4481, "দিয়েছিলেন": 4482, "বিবেচনা": 4483, "বন্দি": 4484, "বিকাশ": 4485, "ap": 4486, "চ্যালে": 4487, "তরা": 4488, "рж": 4489, "সেঞ্চ": 4490, "সাম্প্রতিক": 4491, "পরও": 4492, "গরু": 4493, "রাতের": 4494, "থির": 4495, "স্বরাষ্ট্র": 4496, "জয়": 4497, "লেখার": 4498, "ভাগ্য": 4499, "সহিংস": 4500, "বর্ণনা": 4501, "তাকা": 4502, "ফারুক": 4503, "টেনে": 4504, "নিজেই": 4505, "কেশ": 4506, "গেম": 4507, "ফেব্রুয়ারি": 4508, "নিষেধা": 4509, "আস্ত": 4510, "মন্ড": 4511, "তেমনি": 4512, "জিয়াকে": 4513, "আফগানি": 4514, "বিখ্যাত": 4515, "বুক": 4516, "যাঁ": 4517, "যথেষ্ট": 4518, "লজি": 4519, "চেয়ারপার": 4520, "নৃ": 4521, "কোটা": 4522, "ক্ষি": 4523, "ঠিকানা": 4524, "বৃত্তি": 4525, "ঝড়": 4526, "প্রফে": 4527, "আপি": 4528, "টুই": 4529, "প্রয়োগ": 4530, "ড্ডা": 4531, "দলকে": 4532, "বাচক": 4533, "সার্ভিস": 4534, "শরীরের": 4535, "টেড": 4536, "ট্টা": 4537, "প্য": 4538, "লিল": 4539, "ধায়": 4540, "তোমাদের": 4541, "সড়কের": 4542, "নিরী": 4543, "পরিদর্শক": 4544, "মধু": 4545, "Se": 4546, "বুঝে": 4547, "মরি": 4548, "অনুসারে": 4549, "মিং": 4550, "সনের": 4551, "আটকে": 4552, "বেঁচে": 4553, "পৃথ": 4554, "স্তাফি": 4555, "অবর": 4556, "আলোকচিত্র": 4557, "জিল্যান্ড": 4558, "লিপি": 4559, "মাটিতে": 4560, "ডিগ্রি": 4561, "পঞ্": 4562, "মুহূর্তে": 4563, "ঢে": 4564, "আফগানিস্ত": 4565, "কেন্দ্রের": 4566, "আর্জেন্টি": 4567, "ছবিটি": 4568, "অস্ট্রেলিয়া": 4569, "সাল্লাল্লাহু": 4570, "মেসি": 4571, "সীন": 4572, "প্রতিমন্ত্রী": 4573, "ডাউনলোড": 4574, "প্রতিষ্ঠিত": 4575, "জর্": 4576, "টনে": 4577, "সম্মত": 4578, "শুরুর": 4579, "ভবনের": 4580, "আবা": 4581, "সঞ্": 4582, "কাঠামো": 4583, "বৌদ্ধ": 4584, "মিম": 4585, "মোকা": 4586, "গোয়েন্দা": 4587, "নেল": 4588, "ভেন": 4589, "লাস": 4590, "জটিল": 4591, "ময়": 4592, "মুজিবুর": 4593, "কমান্ড": 4594, "শৈ": 4595, "অসংখ্য": 4596, "মেয়ে": 4597, "রোহিঙ্গাদের": 4598, "ফটো": 4599, "পাথর": 4600, "পার্থ": 4601, "অবদান": 4602, "তারিখে": 4603, "লেট": 4604, "শুটিং": 4605, "কৃষক": 4606, "অভিন": 4607, "নারীকে": 4608, "জব": 4609, "ইউনিভার্": 4610, "অ্যাকাউন্ট": 4611, "আত্মঘাতী": 4612, "পাওয়া": 4613, "স্টক": 4614, "স্র": 4615, "হয": 4616, "থাকছে": 4617, "যেভাবে": 4618, "মমতা": 4619, "থাকবেন": 4620, "দুর্বল": 4621, "ইতো": 4622, "পাচার": 4623, "দোষ": 4624, "হেরে": 4625, "ষড়": 4626, "রাসূল": 4627, "উপাদান": 4628, "বার্ষিকী": 4629, "এনজি": 4630, "মর্যাদা": 4631, "তনে": 4632, "ওষুধ": 4633, "গুপ্ত": 4634, "ব্যাখ্যা": 4635, "একমত": 4636, "ess": 4637, "ভেতর": 4638, "ইহু": 4639, "ছেলের": 4640, "স্বাগত": 4641, "শেদ": 4642, "সংরক্ষণ": 4643, "শর্": 4644, "ত্রা": 4645, "স্বে": 4646, "ot": 4647, "কামী": 4648, "ল্পে": 4649, "অা": 4650, "রান্না": 4651, "পর্যবে": 4652, "মাসুদ": 4653, "মতামত": 4654, "সত্ত্": 4655, "ঞ্জন": 4656, "সাঁ": 4657, "গ্রামী": 4658, "কম্": 4659, "সদস্যের": 4660, "প্রার্থনা": 4661, "রুপি": 4662, "বন্দু": 4663, "ঘুম": 4664, "সেনাবাহিনী": 4665, "প্রত্যক্ষ": 4666, "বক্তব্যে": 4667, "কলেজে": 4668, "রুম": 4669, "ঁয়া": 4670, "অভিযুক্ত": 4671, "করিয়ে": 4672, "অনেকের": 4673, "কথায়": 4674, "বাচ্চা": 4675, "সংগীত": 4676, "পন্থ": 4677, "কিট": 4678, "কতা": 4679, "হাদী": 4680, "নিবন্ধ": 4681, "শুনানি": 4682, "প্রিন্টিং": 4683, "জোটের": 4684, "গ্রহী": 4685, "চ্যানেল": 4686, "কিছুদিন": 4687, "অনলাইনে": 4688, "করেনি": 4689, "তৈরির": 4690, "কয়": 4691, "নক": 4692, "পস": 4693, "পাঠা": 4694, "শতাধিক": 4695, "করিয়া": 4696, "চিকিৎস": 4697, "মুক্তির": 4698, "কিনে": 4699, "পরিদর্শন": 4700, "দাবী": 4701, "এশি": 4702, "কুষ্টি": 4703, "দূত": 4704, "বাসার": 4705, "টাকায়": 4706, "ক্তা": 4707, "তুলনা": 4708, "আমেরিকার": 4709, "সোনার": 4710, "থাকি": 4711, "আসন্ন": 4712, "ডেন": 4713, "lin": 4714, "বিশ": 4715, "বিএস": 4716, "od": 4717, "ষড়যন্ত্র": 4718, "ছাত্রলীগ": 4719, "ঙ্কার": 4720, "সরিয়ে": 4721, "আপত্তি": 4722, "ুল্লাহ": 4723, "বৃদ্ধির": 4724, "পানিতে": 4725, "বয়ে": 4726, "কৃতজ্ঞ": 4727, "প্রতিবাদে": 4728, "হোটেল": 4729, "দুটো": 4730, "আসি": 4731, "উপন্যা": 4732, "যুবক": 4733, "পেলে": 4734, "টিফি": 4735, "উদাহরণ": 4736, "টিম": 4737, "আদর্শ": 4738, "হবার": 4739, "ফেনী": 4740, "সংযুক্ত": 4741, "চ্ছিন্ন": 4742, "মুন্সি": 4743, "ভয়ে": 4744, "গোটা": 4745, "সেগুলো": 4746, "আমদানি": 4747, "যিহো": 4748, "স্টেশন": 4749, "মাইল": 4750, "তেজ": 4751, "ট্রেন": 4752, "ক্ষুদ্র": 4753, "দিনাজপুর": 4754, "হাম": 4755, "খাতের": 4756, "ণায়": 4757, "সমাপ্ত": 4758, "শরণ": 4759, "অধ্যক্ষ": 4760, "নিয়েই": 4761, "গোষ্ঠী": 4762, "রব": 4763, "ঐতিহাসি": 4764, "লাইফ": 4765, "মও": 4766, "ন্দন": 4767, "পুরি": 4768, "ব্রাউজার": 4769, "দুধ": 4770, "রপ্ত": 4771, "আইডি": 4772, "রায়": 4773, "ak": 4774, "গ্ধ": 4775, "আছি": 4776, "জরিমানা": 4777, "হযরত": 4778, "পায়": 4779, "েস": 4780, "নামাজ": 4781, "উইকেটে": 4782, "পরিশোধ": 4783, "প্রেক্ষ": 4784, "স্নাত": 4785, "ন্টের": 4786, "মাশরা": 4787, "ers": 4788, "লেক": 4789, "প্রাচীন": 4790, "বিষয়ে": 4791, "মাদ্রাসা": 4792, "গো": 4793, "প্রসঙ্গ": 4794, "আঞ্চ": 4795, "পরবর্তীতে": 4796, "বিশ্বকাপে": 4797, "কর্মকর্তাদের": 4798, "ফেসবুকে": 4799, "পূজা": 4800, "গোপালগঞ্জ": 4801, "অভিনেতা": 4802, "দ্রব্য": 4803, "নরসিংদী": 4804, "ওভারে": 4805, "উঠতে": 4806, "বিশ্বকাপের": 4807, "প্রেক্ষিতে": 4808, "গুগল": 4809, "আগু": 4810, "আঞ্চলিক": 4811, "কশন": 4812, "রেখেছে": 4813, "রাজ্যে": 4814, "নিরপেক্ষ": 4815, "সাংসদ": 4816, "কক্ষে": 4817, "রবীন্দ্রনাথ": 4818, "ال": 4819, "প্রদর্শন": 4820, "ক্যারিয়ার": 4821, "ফাইল": 4822, "হজ": 4823, "সহযোগী": 4824, "বারিধারা": 4825, "সিলেটের": 4826, "সন্তানের": 4827, "জিম্বাবু": 4828, "ইন্টারন্যাশনাল": 4829, "সাময়": 4830, "মঞ্": 4831, "পিছ": 4832, "প্রতিবন্ধ": 4833, "বগুড়া": 4834, "লীল": 4835, "কৌশলী": 4836, "বিলি": 4837, "হির": 4838, "ব্যক্তিদের": 4839, "এখান": 4840, "টেন্ট": 4841, "চিহ্নিত": 4842, "out": 4843, "রাঙা": 4844, "বলল": 4845, "অপরাধে": 4846, "ঞ্জা": 4847, "সফরে": 4848, "গুলিতে": 4849, "সাময়িক": 4850, "গেট": 4851, "বিবিসি": 4852, "দুদ": 4853, "গেলেন": 4854, "টেস্টে": 4855, "পৃথক": 4856, "িকান": 4857, "খন্দকার": 4858, "লগ্ন": 4859, "জন্মের": 4860, "মেরে": 4861, "pe": 4862, "শুরুতে": 4863, "মাকে": 4864, "জেলায়": 4865, "নিউজিল্যান্ড": 4866, "লিও": 4867, "বরাদ্দ": 4868, "ারের": 4869, "ঐতিহাসিক": 4870, "ইম": 4871, "কেনা": 4872, "আমির": 4873, "সেদিন": 4874, "কারখানা": 4875, "অভিভাব": 4876, "গির": 4877, "ীন": 4878, "মিয়ে": 4879, "চেত": 4880, "ওয়াল": 4881, "কর্তৃপক্ষের": 4882, "চলমান": 4883, "নাগা": 4884, "সালাম": 4885, "বিদ্রো": 4886, "ফুর": 4887, "রহস্য": 4888, "আহ্": 4889, "যথাযথ": 4890, "ঝো": 4891, "শামী": 4892, "সুপারি": 4893, "বন্দুক": 4894, "অগ্নি": 4895, "সাফল্য": 4896, "বিভাগীয়": 4897, "চট্টগ্রামে": 4898, "ক্ষতিগ্রস্ত": 4899, "বারিক": 4900, "por": 4901, "দফা": 4902, "অফিসে": 4903, "নিচের": 4904, "বারবার": 4905, "চর্চা": 4906, "স্থানের": 4907, "স্বার্থ": 4908, "চালায়": 4909, "য়াতের": 4910, "ah": 4911, "জালাল": 4912, "স্কো": 4913, "স্ট্র": 4914, "সমিতি": 4915, "দুর্দ": 4916, "শত্রু": 4917, "মৌলভী": 4918, "par": 4919, "রাস্তার": 4920, "হ্যাঁ": 4921, "থিত": 4922, "ঙ্গু": 4923, "সেট": 4924, "চলতে": 4925, "qu": 4926, "তালা": 4927, "টেকনাফ": 4928, "আনার": 4929, "লেগে": 4930, "চাঁদ": 4931, "সেলিম": 4932, "ডায়": 4933, "news": 4934, "দরি": 4935, "শুভে": 4936, "মতের": 4937, "ইতালি": 4938, "নীয়": 4939, "মোড়": 4940, "সালমান": 4941, "সিরিজের": 4942, "কামর": 4943, "আহসান": 4944, "ইসরা": 4945, "মজ": 4946, "সেন্ট": 4947, "মোহন": 4948, "করেননি": 4949, "ory": 4950, "সরকারকে": 4951, "স্বাধীনতার": 4952, "লিতে": 4953, "বাহিত": 4954, "এক্ষেত্রে": 4955, "বেও": 4956, "ড়িয়ে": 4957, "কাউন্সিলর": 4958, "বান্দরবান": 4959, "পড়েন": 4960, "ভিউ": 4961, "পাখি": 4962, "গিয়েছিল": 4963, "ud": 4964, "নগরীর": 4965, "মদার": 4966, "করবো": 4967, "সেতুমন্ত্রী": 4968, "বিচ্ছিন্ন": 4969, "উদ্বোধ": 4970, "বৈধ": 4971, "সুপ্রি": 4972, "বিঘ": 4973, "হয়েছিল": 4974, "ভ্রমণ": 4975, "তফ": 4976, "অনেকটা": 4977, "পুরনো": 4978, "দুজ্জামান": 4979, "আপিল": 4980, "প্রতিক্রিয়া": 4981, "ইমরান": 4982, "বালিকা": 4983, "ঝিনাই": 4984, "সকলের": 4985, "দেবী": 4986, "মন্ত্রি": 4987, "Al": 4988, "মেশি": 4989, "সৌন্দর": 4990, "ফ্রান্": 4991, "তোমরা": 4992, "বিতর্": 4993, "লাগবে": 4994, "বানা": 4995, "প্রদর্শ": 4996, "স্পোর্": 4997, "অভিবাসী": 4998, "সাদ": 4999, "পশ্চিমবঙ্গ": 5000, "পারিবারিক": 5001, "ঞ্চিত": 5002, "মজুমদার": 5003, "লিভার": 5004, "আকর্ষণ": 5005, "ধব": 5006, "পাঠক": 5007, "ব্যথা": 5008, "আলীর": 5009, "প্রকৌশলী": 5010, "করলাম": 5011, "মানবিক": 5012, "কালি": 5013, "ওপেন": 5014, "ইস্যু": 5015, "পুলি": 5016, "ভর্ত": 5017, "স্পে": 5018, "কোনো": 5019, "ওসমান": 5020, "ট্রাম্পের": 5021, "ফোনের": 5022, "হত্যাকাণ্ড": 5023, "ind": 5024, "বিদেশে": 5025, "পিছিয়ে": 5026, "বাংলাদেশী": 5027, "মোটা": 5028, "নো": 5029, "মার্কে": 5030, "চেক": 5031, "সংকট": 5032, "ক্ষিপ্ত": 5033, "রীতি": 5034, "রফিকুল": 5035, "ইঞ্জিনি": 5036, "এন্": 5037, "সাগ": 5038, "উঁ": 5039, "চালি": 5040, "বিরাট": 5041, "ইনিংস": 5042, "হারাম": 5043, "সিকিউ": 5044, "সঙ্গীত": 5045, "ব্রে": 5046, "উন্মুক্ত": 5047, "তৈরী": 5048, "হো": 5049, "বিদ্যা": 5050, "ইতিমধ্যে": 5051, "ক্সের": 5052, "বরাবর": 5053, "ধানের": 5054, "শয়": 5055, "কোর্স": 5056, "ঘটনাস্থলে": 5057, "এরকম": 5058, "খাঁ": 5059, "অবশেষে": 5060, "সংগ্রাম": 5061, "শুভেচ্ছা": 5062, "প্রকার": 5063, "eb": 5064, "টেকনো": 5065, "পৌ": 5066, "ঙ্গার": 5067, "প্রচলিত": 5068, "পাইন": 5069, "গণমাধ্যম": 5070, "প্রফেসর": 5071, "ফেরার": 5072, "নিষেধাজ্ঞা": 5073, "সিরিয়া": 5074, "পিং": 5075, "বলের": 5076, "অন্তর্ভুক্ত": 5077, "ফেলা": 5078, "মার্কেট": 5079, "by": 5080, "পাড়া": 5081, "উত্তম": 5082, "তালুক": 5083, "পল": 5084, "একক": 5085, "ক্ষমা": 5086, "কবর": 5087, "ইছলামের": 5088, "তত্ত্": 5089, "কণ্ঠ": 5090, "ভয়া": 5091, "জানাতে": 5092, "মুক্তিযুদ্ধের": 5093, "হাও": 5094, "লিঃ": 5095, "এরশাদ": 5096, "Re": 5097, "ক্যান্": 5098, "রানা": 5099, "স্ত্রীর": 5100, "মেহেরপুর": 5101, "মোর": 5102, "আইনশৃঙ্খলা": 5103, "ht": 5104, "ন্দে": 5105, "কৃষ্ণ": 5106, "ফিচার": 5107, "অভ্যন্ত": 5108, "চিং": 5109, "ব্যাক": 5110, "ফিল": 5111, "খতি": 5112, "মাদারীপুর": 5113, "বিদ্ধ": 5114, "বাড়িয়ে": 5115, "ঞ্জুর": 5116, "টেই": 5117, "চ্যালেঞ্জ": 5118, "ভোটের": 5119, "চোখের": 5120, "হাতের": 5121, "জ্বাল": 5122, "নোটিশ": 5123, "স্টো": 5124, "ত্তা": 5125, "কারাদণ্ড": 5126, "রশিদ": 5127, "অনুসন্ধান": 5128, "বেছে": 5129, "একসঙ্গে": 5130, "ম্যাজি": 5131, "স্লো": 5132, "গেলেও": 5133, "বাঁচ": 5134, "উপহার": 5135, "তদন্তের": 5136, "ব্ধ": 5137, "দেয়": 5138, "প্লি": 5139, "সংলগ্ন": 5140, "আওয়ামীলীগের": 5141, "তানি": 5142, "জানার": 5143, "রাও": 5144, "অত্যা": 5145, "দীপ": 5146, "ভগ": 5147, "পৌঁছ": 5148, "সংখ্যক": 5149, "পৌরসভার": 5150, "চিকিৎসার": 5151, "আয়োজনে": 5152, "ওদের": 5153, "কামনা": 5154, "কুলেশন": 5155, "তালিকাভুক্ত": 5156, "ইলেক": 5157, "অভিযানে": 5158, "লক্ষ্মীপুর": 5159, "লাইভ": 5160, "টেলিভিশন": 5161, "ভয়াবহ": 5162, "মুশফিক": 5163, "তালুকদার": 5164, "সাজা": 5165, "বানু": 5166, "ঝাল": 5167, "মোল্লা": 5168, "বাড়িয়া": 5169, "পড়তে": 5170, "are": 5171, "আগ্রহী": 5172, "ওজন": 5173, "ভালোবাসা": 5174, "সর্বো": 5175, "এলি": 5176, "নেবে": 5177, "গাছের": 5178, "মঞ্চ": 5179, "দেখানো": 5180, "য়াখালী": 5181, "সাধারন": 5182, "জাফর": 5183, "দমন": 5184, "ভ্রা": 5185, "টো": 5186, "ইউরোপ": 5187, "আয়ে": 5188, "ish": 5189, "অশ্": 5190, "এতো": 5191, "সার্কুলেশন": 5192, "শ্যাল": 5193, "ভরসা": 5194, "রাশিয়ার": 5195, "লাগিয়ে": 5196, "স্থির": 5197, "হেফা": 5198, "ফাইনাল": 5199, "po": 5200, "সেক": 5201, "স্বামীর": 5202, "হুমায়": 5203, "বিঘ্": 5204, "বিস্ত": 5205, "তাড়া": 5206, "দরিদ্র": 5207, "জমির": 5208, "দম্": 5209, "পাচ্ছেন": 5210, "ভাষার": 5211, "উদ্দেশে": 5212, "এজন্য": 5213, "মিস": 5214, "জড়িয়ে": 5215, "দহ": 5216, "প্রিয়": 5217, "প্রতিশ্রু": 5218, "ডিস": 5219, "অতিথির": 5220, "পাকিস্তানি": 5221, "অবরোধ": 5222, "মাংস": 5223, "নিবন্ধন": 5224, "মৎ": 5225, "করত": 5226, "ক্লাস": 5227, "নাশ": 5228, "সেস": 5229, "মিয়ানমারের": 5230, "জেলে": 5231, "বন্দ্য": 5232, "ানায়": 5233, "ডোনা": 5234, "নাসির": 5235, "সাতক্ষ": 5236, "ফর্ম": 5237, "সুপ্রিম": 5238, "সর্বা": 5239, "ser": 5240, "আবেদ": 5241, "আলোচিত": 5242, "গোষ্ঠীর": 5243, "স্টেডিয়ামে": 5244, "বোঝ": 5245, "পর্বে": 5246, "চ্যু": 5247, "মানিকগঞ্জ": 5248, "তামিম": 5249, "শব্": 5250, "শাহা": 5251, "নেতার": 5252, "পরিবহ": 5253, "পড়ুন": 5254, "শরি": 5255, "মিজানুর": 5256, "মৌসুমে": 5257, "কমপক্ষে": 5258, "ক্যামেরা": 5259, "স্বেচ্ছা": 5260, "ব্লগ": 5261, "অস্বীকার": 5262, "জিৎ": 5263, "চুরি": 5264, "টারে": 5265, "কাপড়": 5266, "উল্লেখযোগ্য": 5267, "কুম": 5268, "স্বজন": 5269, "চাপা": 5270, "িকায়": 5271, "টকে": 5272, "শ্রমি": 5273, "জাতিসংঘের": 5274, "কক্ষ": 5275, "est": 5276, "উজ্জ্বল": 5277, "St": 5278, "Bangla": 5279, "প্রাচ": 5280, "এসেছেন": 5281, "কর্মকাণ্ড": 5282, "ফরা": 5283, "চেয়ারপারসন": 5284, "সম্পর্কিত": 5285, "তোলার": 5286, "ুয়া": 5287, "অনুবাদ": 5288, "শিখ": 5289, "oti": 5290, "প্রকাশের": 5291, "অনুপ": 5292, "প্রজা": 5293, "নাক্ত": 5294, "রাজনীতির": 5295, "প্রশংসা": 5296, "মুখ্যমন্ত্রী": 5297, "মাটির": 5298, "স্থল": 5299, "সংসদের": 5300, "টাও": 5301, "সমাবেশে": 5302, "বন্দরে": 5303, "জুটি": 5304, "চরিত্রে": 5305, "প্রযুক্তির": 5306, "হানা": 5307, "বেশিরভাগ": 5308, "মানববন্ধন": 5309, "বিপরীতে": 5310, "ইহুদি": 5311, "সহজেই": 5312, "আবাসিক": 5313, "পাচ্ছে": 5314, "প্রথমবারের": 5315, "বিবৃতিতে": 5316, "অভাব": 5317, "মার্ক": 5318, "জামায়াত": 5319, "ইলি": 5320, "সামগ্রী": 5321, "ঘটনাটি": 5322, "শীত": 5323, "আগামীকাল": 5324, "জ্যে": 5325, "সবচেয়ে": 5326, "যমুনা": 5327, "প্রাণী": 5328, "বাড়ছে": 5329, "হোটে": 5330, "esh": 5331, "ষ্টার": 5332, "করণের": 5333, "জাহাজ": 5334, "ভেট": 5335, "প্রতিবেশী": 5336, "ল্লার": 5337, "গায়ে": 5338, "আব্দুর": 5339, "দেহে": 5340, "যো": 5341, "ঈশ্বরের": 5342, "পার্ট": 5343, "শীর্ষক": 5344, "ক্ষেত্র": 5345, "বেঁধে": 5346, "দিচ্ছেন": 5347, "পাল্টা": 5348, "প্যারি": 5349, "কাছি": 5350, "বিচারক": 5351, "প্রবন্ধ": 5352, "ক্ষমতার": 5353, "েন্সের": 5354, "যাচাই": 5355, "সেলো": 5356, "ডেকে": 5357, "কান্ড": 5358, "our": 5359, "ফেডারে": 5360, "সুতরা": 5361, "আবদুর": 5362, "বক্তব্যের": 5363, "আমন্ত্র": 5364, "বিউ": 5365, "স্বর্": 5366, "ম্মদ": 5367, "ওরফে": 5368, "পশু": 5369, "দূর্": 5370, "বেশন": 5371, "ট্রাস্ট": 5372, "ব্যবধানে": 5373, "সংঘর্ষে": 5374, "তৎপর": 5375, "ভুলে": 5376, "শিশুকে": 5377, "সড়": 5378, "গণতান্ত্রিক": 5379, "ওনা": 5380, "দ্দিন": 5381, "সুতরাং": 5382, "প্রতীক": 5383, "জাদু": 5384, "পনে": 5385, "স্বল্প": 5386, "তিনজন": 5387, "গ্রামীণ": 5388, "লম্বা": 5389, "আসর": 5390, "উন্নয়নে": 5391, "uc": 5392, "ল্টি": 5393, "অন্যদের": 5394, "খাতুন": 5395, "সার্চ": 5396, "চনার": 5397, "মাতৃ": 5398, "কালাম": 5399, "কলকাতার": 5400, "ment": 5401, "সাহেব": 5402, "কয়েক": 5403, "চ্ছেদ": 5404, "কংগ্রেস": 5405, "ছুটি": 5406, "আলো": 5407, "সমন্বয়": 5408, "জয়ী": 5409, "কেননা": 5410, "আলহা": 5411, "যুগে": 5412, "পুরোপুরি": 5413, "লুকা": 5414, "পর্যায়ের": 5415, "ইফতার": 5416, "ফায়ার": 5417, "শালা": 5418, "ফান্ড": 5419, "বাগের": 5420, "উইন্": 5421, "মিশন": 5422, "সত্ত্বেও": 5423, "সমাজে": 5424, "মিলিয়ন": 5425, "সেঞ্চুরি": 5426, "চাকর": 5427, "সেনাবাহিনীর": 5428, "আলোচনায়": 5429, "সামনের": 5430, "দুর্বৃত্ত": 5431, "ভের": 5432, "প্রয়োজন": 5433, "নারা": 5434, "ল্ট": 5435, "নির্যাতনের": 5436, "যোগিতার": 5437, "বিতর্ক": 5438, "ঘোষণার": 5439, "সবকিছু": 5440, "পরো": 5441, "টিস": 5442, "হবিগঞ্জ": 5443, "দেশীয়": 5444, "সংশোধ": 5445, "োড": 5446, "হেড": 5447, "এক্সচে": 5448, "আবে": 5449, "আগা": 5450, "বাঁধ": 5451, "নিয়া": 5452, "ইঞ্জিনিয়ার": 5453, "পালা": 5454, "পশ্চিমা": 5455, "প্রত্যে": 5456, "মিতা": 5457, "বিনিম": 5458, "নিল": 5459, "সিঙ্গা": 5460, "মানি": 5461, "এসএম": 5462, "কিল": 5463, "নাজি": 5464, "চৌধুরীর": 5465, "জ্যা": 5466, "বিজিবি": 5467, "অস্ত": 5468, "গুলো": 5469, "ত্ন": 5470, "যাক": 5471, "সিস্টেম": 5472, "চ্চার": 5473, "প্রাক্ত": 5474, "ড়ার": 5475, "সূর্য": 5476, "বর্ষের": 5477, "সভ্য": 5478, "চনায়": 5479, "ইউএন": 5480, "সূচক": 5481, "ইরানের": 5482, "টিয়া": 5483, "তলী": 5484, "মাশরাফি": 5485, "ছড়া": 5486, "বয়সে": 5487, "প্রতিষ্ঠাতা": 5488, "থেকেও": 5489, "সিস": 5490, "জ্ব": 5491, "গুন": 5492, "কাছা": 5493, "অর্থমন্ত্রী": 5494, "স্পোর্টস": 5495, "নির্মাণের": 5496, "পুল": 5497, "বৈশিষ্ট": 5498, "ইর": 5499, "স্যু": 5500, "কূল": 5501, "ব্যক্তিকে": 5502, "In": 5503, "যৌ": 5504, "অসাধারণ": 5505, "খ্রিস্ট": 5506, "উন্নতি": 5507, "সড়কে": 5508, "নাজমুল": 5509, "ইবনে": 5510, "মাস্টার": 5511, "পণ্যের": 5512, "ইতিহাসে": 5513, "জ্ঞাত": 5514, "ংকার": 5515, "তালে": 5516, "্যান্স": 5517, "দম্পতি": 5518, "প্রতার": 5519, "ফিন": 5520, "মুক্তিযুদ্ধ": 5521, "উপস্থাপন": 5522, "রায়ের": 5523, "সঙ্গম": 5524, "শ্রেণীর": 5525, "পেজের": 5526, "কাঠি": 5527, "প্রবল": 5528, "ত্তম": 5529, "টাতে": 5530, "দেখেন": 5531, "ছুঁ": 5532, "রাঙ্গামাটি": 5533, "রুমে": 5534, "পাঁচটি": 5535, "আলোচনার": 5536, "বোলিং": 5537, "গম": 5538, "এডি": 5539, "ত্বা": 5540, "ধরতে": 5541, "প্রচেষ্টা": 5542, "all": 5543, "যোগ্যতা": 5544, "দেরকে": 5545, "কার্যালয়ের": 5546, "বাজি": 5547, "ক্রিকেটে": 5548, "সাইফুল": 5549, "নাইজের": 5550, "ফুটবলার": 5551, "এএফ": 5552, "য়েন্টিফোর": 5553, "ভৌ": 5554, "বর্গ": 5555, "অবসর": 5556, "দিব": 5557, "ore": 5558, "কর্মরত": 5559, "আকবর": 5560, "ভিটা": 5561, "আসল": 5562, "স্বর্ণ": 5563, "তুরস্": 5564, "কনটেন্ট": 5565, "আত্মীয়": 5566, "মিলনায়": 5567, "রেখা": 5568, "কাহিনী": 5569, "নায়": 5570, "পড়া": 5571, "অধিদপ্তরের": 5572, "সারের": 5573, "ভাস": 5574, "জায়": 5575, "ps": 5576, "পালিত": 5577, "হওয়া": 5578, "য়েছেন": 5579, "দাখিল": 5580, "ট্রেড": 5581, "ফজল": 5582, "ড়ির": 5583, "de": 5584, "মিত্র": 5585, "ব্যতি": 5586, "ব্যান": 5587, "ভঙ্গ": 5588, "সোশ্যাল": 5589, "প্রতিষ্ঠানে": 5590, "মেহে": 5591, "খণ্ড": 5592, "নিরাপত্তার": 5593, "কারখান": 5594, "ব্রাজিল": 5595, "তাৎ": 5596, "দুর্ঘটনায়": 5597, "ক্ল": 5598, "সারণ": 5599, "গুঁ": 5600, "পরেই": 5601, "সিবি": 5602, "বক্তৃ": 5603, "ইচ্ছে": 5604, "পরেও": 5605, "সুপারিশ": 5606, "ধাপ": 5607, "কাছাকাছি": 5608, "প্রাক্তন": 5609, "কাতার": 5610, "য়েড": 5611, "প্রয়ো": 5612, "গার্ড": 5613, "ain": 5614, "az": 5615, "তৃণমূল": 5616, "পর্যটন": 5617, "ম্বি": 5618, "হকের": 5619, "পন্থী": 5620, "নৈ": 5621, "রিটি": 5622, "দায়ে": 5623, "বাংলাদেশকে": 5624, "বাগান": 5625, "রানী": 5626, "মতোই": 5627, "তফসিল": 5628, "অবি": 5629, "মিশ্র": 5630, "মিষ্টি": 5631, "উপাচার্য": 5632, "ব্যক্তিত্ব": 5633, "বিনামূল্যে": 5634, "আইএস": 5635, "রাজস্ব": 5636, "ভারতীয়": 5637, "পূর্বা": 5638, "বিরোধ": 5639, "ইসলামিক": 5640, "কাতে": 5641, "কোর্ট": 5642, "এলে": 5643, "ডাঙ্গা": 5644, "লাইসেন্স": 5645, "আপনিও": 5646, "সর্বোচ্চ": 5647, "লিগ": 5648, "পদ্মা": 5649, "লাব": 5650, "ডিজাইন": 5651, "মেগা": 5652, "মুম্": 5653, "চামচ": 5654, "ক্ষায়": 5655, "বিলম্": 5656, "মৎস্য": 5657, "মনোনয়নপত্র": 5658, "বন্দ্যো": 5659, "ক্ষমতাসীন": 5660, "সন্তু": 5661, "হাব": 5662, "নিশ্চয়ই": 5663, "কাই": 5664, "অস্ট্রেলিয়ার": 5665, "পঞ্চম": 5666, "কীর": 5667, "ভিডিওচিত্র": 5668, "বাহন": 5669, "ফাঁস": 5670, "বাধ": 5671, "লিমের": 5672, "inf": 5673, "সম্ভা": 5674, "সর্বস্বত্ব": 5675, "ুয়ারী": 5676, "জেন্ট": 5677, "ধরেই": 5678, "সার্টিফি": 5679, "বঞ্চিত": 5680, "বক্স": 5681, "পতাকা": 5682, "বার্সেলো": 5683, "ধারার": 5684, "সিদ্দি": 5685, "ইতোমধ্যে": 5686, "মিলিত": 5687, "বন্দী": 5688, "চারা": 5689, "পরিমা": 5690, "আলে": 5691, "সক্রিয়": 5692, "নেটওয়ার্": 5693, "মেলায়": 5694, "প্রেমের": 5695, "রক": 5696, "fer": 5697, "মিট": 5698, "রপ্তানি": 5699, "মুরা": 5700, "সাব্": 5701, "্তু": 5702, "বেলায়": 5703, "তখনই": 5704, "মেয়েকে": 5705, "সপ্তাহের": 5706, "নওগাঁ": 5707, "জানালেন": 5708, "পারছেন": 5709, "দিয়েছিল": 5710, "শান্তির": 5711, "ভূতি": 5712, "সম্ভাব্য": 5713, "বদল": 5714, "এলো": 5715, "শামীম": 5716, "লঙ্": 5717, "শ্রমিকদের": 5718, "টেক্স": 5719, "বাজেট": 5720, "এছাড়া": 5721, "তত্ত্বাব": 5722, "নেইমার": 5723, "হলি": 5724, "কমিউনিটি": 5725, "দেয়া": 5726, "মঞ্জুর": 5727, "ার্জি": 5728, "য়াখালী": 5729, "ধাক্কা": 5730, "Ind": 5731, "রুজ্জামান": 5732, "ঙ্কর": 5733, "bl": 5734, "cs": 5735, "বৈশা": 5736, "মেট্রো": 5737, "শ্রেণী": 5738, "ফিলিস্তি": 5739, "তৎকালীন": 5740, "রস": 5741, "পল্লী": 5742, "ইনিংসে": 5743, "পিক": 5744, "অফিসের": 5745, "জানুয়ারি": 5746, "আড়াই": 5747, "সবসময়": 5748, "man": 5749, "িন": 5750, "নদীতে": 5751, "sc": 5752, "পঞ্চা": 5753, "পদার্থ": 5754, "সাধ": 5755, "মগ": 5756, "জানো": 5757, "সূচী": 5758, "নিচ্ছে": 5759, "বাবগঞ্জ": 5760, "ভুত": 5761, "প্রার্থীদের": 5762, "বউ": 5763, "ঝাঁ": 5764, "গঠনের": 5765, "দরজা": 5766, "উদ্বোধনী": 5767, "রাষ্ট্রীয়": 5768, "অবাক": 5769, "প্যারা": 5770, "এদিন": 5771, "চন": 5772, "মিরপুর": 5773, "আওয়া": 5774, "ইন্ডা": 5775, "আসছেন": 5776, "সৌন্দর্য": 5777, "নিয়ার": 5778, "পালের": 5779, "gr": 5780, "রুখ": 5781, "শক্তির": 5782, "ড়ো": 5783, "হওয়ার": 5784, "ঐক্যফ্রন্টের": 5785, "ফেরা": 5786, "সো": 5787, "অংশে": 5788, "হালকা": 5789, "নিয়ন্ত্রণে": 5790, "গাছা": 5791, "ঘন্টা": 5792, "ব্রত": 5793, "কতটা": 5794, "পদক": 5795, "রমজান": 5796, "ফরিদ": 5797, "রোজা": 5798, "পরিবর্তে": 5799, "ফ্রান্স": 5800, "হয়েছিলেন": 5801, "উঁচু": 5802, "উদযাপন": 5803, "বিজয়ী": 5804, "be": 5805, "সোহেল": 5806, "মূর্তি": 5807, "সংখ্যার": 5808, "ন্যায়": 5809, "সম্ভবত": 5810, "স্মার": 5811, "কর্মচারী": 5812, "সাহস": 5813, "হায়": 5814, "ভিড": 5815, "বিষয়ের": 5816, "অলিম্পি": 5817, "শস্ত্র": 5818, "উপন্যাস": 5819, "হাকিম": 5820, "ঐক্যফ্রন্ট": 5821, "কাশ্": 5822, "তোয়া": 5823, "মোমিন": 5824, "আহ্বায়ক": 5825, "প্রাইভেট": 5826, "অপহরণ": 5827, "পেল": 5828, "গ্রহন": 5829, "মসজিদের": 5830, "মিড": 5831, "নগরের": 5832, "শিরোপা": 5833, "ডোনাল্ড": 5834, "if": 5835, "দিয়েই": 5836, "গুনা": 5837, "সংসদে": 5838, "মকে": 5839, "ম্যাজিস্ট্রে": 5840, "mail": 5841, "প্রগতি": 5842, "আজকে": 5843, "ব্যু": 5844, "স্থানীয়": 5845, "পদ্ধতিতে": 5846, "ick": 5847, "প্রিমিয়ার": 5848, "ইংল্যান্ডের": 5849, "ড়িয়ে": 5850, "বইয়ের": 5851, "টনের": 5852, "সুলতান": 5853, "উইন্ডো": 5854, "কাত": 5855, "দ্বিতীয়": 5856, "ফ্রে": 5857, "মোশার": 5858, "bangla": 5859, "খবরে": 5860, "বাড়িতে": 5861, "দর্শী": 5862, "মাতা": 5863, "কুকুর": 5864, "ইজ": 5865, "জনতা": 5866, "দায়িত্": 5867, "প্রভ": 5868, "মজা": 5869, "বিগত": 5870, "ণাঙ্গ": 5871, "কৈ": 5872, "কর্মকর্তার": 5873, "শরীয়": 5874, "যেটা": 5875, "দুর্গা": 5876, "দাশ": 5877, "ক্রেতা": 5878, "মিডিয়া": 5879, "ইতিহাসের": 5880, "শুল": 5881, "কর্ণ": 5882, "ঘণ্টার": 5883, "পর্যালো": 5884, "শুনতে": 5885, "গতিক": 5886, "সাজ": 5887, "ity": 5888, "con": 5889, "রাসেল": 5890, "আলোর": 5891, "ডেভেল": 5892, "শিক্ষকদের": 5893, "কোন": 5894, "আফ্রিকা": 5895, "খাওয়ার": 5896, "শিক্ষাবর্ষে": 5897, "প্রদানের": 5898, "পুলিশকে": 5899, "সত্যতা": 5900, "সিলেটে": 5901, "তরের": 5902, "জান্": 5903, "সেটাই": 5904, "ব্যান্ড": 5905, "অ্যান": 5906, "আগেও": 5907, "ব্যারি": 5908, "সত্যিই": 5909, "ve": 5910, "হারুন": 5911, "পয়সা": 5912, "সিসি": 5913, "হার্ডকোর": 5914, "রুহুল": 5915, "শহিদুল": 5916, "মুন্সিগঞ্জ": 5917, "পত্য": 5918, "পৃথিবীতে": 5919, "শামস": 5920, "মিলা": 5921, "রাষ্ট্রের": 5922, "কাঁচা": 5923, "ঙ্গী": 5924, "সকলে": 5925, "লিনা": 5926, "বিকাল": 5927, "বাড়িয়া": 5928, "রাজী": 5929, "যুবলীগের": 5930, "বানিয়ে": 5931, "ইউনিট": 5932, "শিবি": 5933, "হাইকোর্ট": 5934, "মুদ্রা": 5935, "জমিতে": 5936, "পরিত": 5937, "করছিল": 5938, "স্টিক": 5939, "বোলার": 5940, "পূর্বানু": 5941, "Pre": 5942, "সুমন": 5943, "খোঁ": 5944, "উৎসাহ": 5945, "স্নাতক": 5946, "হলু": 5947, "বিআর": 5948, "ইংলিশ": 5949, "উপভোগ": 5950, "enc": 5951, "ওঠা": 5952, "নকল": 5953, "মহিলার": 5954, "সম্বন্ধে": 5955, "যেত": 5956, "দলটি": 5957, "হোয়া": 5958, "ছিন": 5959, "সিরিজে": 5960, "শ্রা": 5961, "আদিবাসী": 5962, "কাদেরের": 5963, "বুকে": 5964, "স্মার্টফোন": 5965, "ুরী": 5966, "হান্": 5967, "ম্যানেজার": 5968, "বালা": 5969, "চালানোর": 5970, "মুখের": 5971, "রাগ": 5972, "সেবার": 5973, "সচি": 5974, "সেসব": 5975, "মরদেহ": 5976, "ধুলা": 5977, "করেও": 5978, "রহিম": 5979, "কারনে": 5980, "অভিবাসন": 5981, "টিপস": 5982, "উত্তো": 5983, "লোকের": 5984, "অ্যাসো": 5985, "ডায়া": 5986, "টুয়েন্টিফোর": 5987, "ভবিষ্যতে": 5988, "tits": 5989, "put": 5990, "মতবিনিময়": 5991, "রেজ": 5992, "মদের": 5993, "হুদা": 5994, "উপস্থিতি": 5995, "জলে": 5996, "মেশিন": 5997, "ব্যাংকিং": 5998, "ভূমিক": 5999, "মালয়েশিয়া": 6000, "বিদ্য": 6001, "শরীফ": 6002, "যৌন": 6003, "আশু": 6004, "ডেট": 6005, "বললাম": 6006, "সোর্": 6007, "বাঁধা": 6008, "যাকে": 6009, "নগদ": 6010, "চাঁদা": 6011, "ক্যান": 6012, "মুছলিমদের": 6013, "ইরান": 6014, "মেয়েরা": 6015, "ক্যাম্পে": 6016, "মোজা": 6017, "দানে": 6018, "কুয়া": 6019, "হাফি": 6020, "পূর্বানুমতি": 6021, "মেলে": 6022, "স্ক্রি": 6023, "সুনামগঞ্জ": 6024, "পুরুষের": 6025, "ক্ষণিক": 6026, "বলিউড": 6027, "মেলার": 6028, "me": 6029, "টপ": 6030, "ঢো": 6031, "মিলনায়তনে": 6032, "সবজি": 6033, "রিজ": 6034, "চক্রবর্তী": 6035, "লাউ": 6036, "মাধ্যমের": 6037, "জন্মদিন": 6038, "কোড": 6039, "নিকে": 6040, "নাক": 6041, "Oct": 6042, "সার্টিফিকেট": 6043, "সমী": 6044, "সমগ্র": 6045, "ব্যাব": 6046, "সংবাদদাতা": 6047, "চালান": 6048, "ছুটে": 6049, "স্বার্থে": 6050, "প্রবণ": 6051, "শেয়ারবাজার": 6052, "স্টু": 6053, "পুঁজিবাজারে": 6054, "ভ্যান": 6055, "পরিবারে": 6056, "জাপ": 6057, "ময়না": 6058, "জৈ": 6059, "লিজ": 6060, "যী": 6061, "ফয়": 6062, "আনে": 6063, "ুব": 6064, "ভিতরে": 6065, "হরা": 6066, "চৌদি": 6067, "সম্পর্কের": 6068, "রীণ": 6069, "খেলায়": 6070, "অশ্লীল": 6071, "আবিষ্কার": 6072, "বাগত": 6073, "স্থাপনা": 6074, "গাইবান্": 6075, "উত্তেজনা": 6076, "iz": 6077, "ধর্মযা": 6078, "ik": 6079, "রাখুন": 6080, "বায়ু": 6081, "যাচ্ছি": 6082, "প্রেরণ": 6083, "গণিত": 6084, "আন্দোলনে": 6085, "ফ্ল্যা": 6086, "মাদ্রি": 6087, "তবুও": 6088, "প্রত্যাশা": 6089, "রিকশা": 6090, "সনদ": 6091, "সময়ে": 6092, "সাভার": 6093, "শেরপুর": 6094, "কাস্ট": 6095, "ল্যান্ডের": 6096, "ডিবি": 6097, "বোর": 6098, "মজি": 6099, "গভ": 6100, "ফুটে": 6101, "অভিযোগের": 6102, "বাইবেল": 6103, "পাড়": 6104, "ক্ষার": 6105, "বিলা": 6106, "ব্র্যান্ড": 6107, "চ্ছিলেন": 6108, "দাদুল": 6109, "হেলা": 6110, "সেবক": 6111, "অর্ডার": 6112, "নিলে": 6113, "অর": 6114, "মিনিটের": 6115, "কর্মসূচির": 6116, "লুট": 6117, "ডেমো": 6118, "বীজ": 6119, "স্মারক": 6120, "মোস্তাফি": 6121, "ঁটে": 6122, "লং": 6123, "বজায়": 6124, "হার্": 6125, "পার্লাম": 6126, "দলটির": 6127, "হামিদ": 6128, "একর": 6129, "ওকে": 6130, "এব": 6131, "স্পর্": 6132, "সংবাদে": 6133, "বিদ্যালয়ে": 6134, "নাগাদ": 6135, "বৈচিত্র": 6136, "টাইম": 6137, "তীত": 6138, "এসপি": 6139, "ইউটিউ": 6140, "সাম্প্র": 6141, "চিহ্ন": 6142, "ব্যাগ": 6143, "হালাল": 6144, "ইলিশ": 6145, "আলাপ": 6146, "ক্যামের": 6147, "টেকনোলজি": 6148, "তারপরও": 6149, "গ্লো": 6150, "হীত": 6151, "সফটওয়্যার": 6152, "সদ্য": 6153, "তোমাকে": 6154, "পুরুষদের": 6155, "An": 6156, "বৈশাখ": 6157, "ার্থীর": 6158, "নেতাকর্মীদের": 6159, "বোনের": 6160, "শিক্ষাবর্ষের": 6161, "লিংক": 6162, "গাড়ির": 6163, "নান্": 6164, "পত্রের": 6165, "নিহতের": 6166, "জাকির": 6167, "কোম্পান": 6168, "য়নের": 6169, "কাটিয়ে": 6170, "টাইল": 6171, "সিনেমার": 6172, "স্যাটে": 6173, "চাওয়া": 6174, "এসি": 6175, "প্রক্রি": 6176, "সাব্বির": 6177, "ফাত": 6178, "বিচারের": 6179, "পীর": 6180, "সিভি": 6181, "অধিদপ্তর": 6182, "দুর্দান্ত": 6183, "অবস্থার": 6184, "সুম": 6185, "প্যানে": 6186, "ইন্দো": 6187, "কেয়া": 6188, "আনন্দবাজার": 6189, "মজার": 6190, "লিটন": 6191, "দেশকে": 6192, "রঙের": 6193, "সম্পৃ": 6194, "ওয়ার্ডের": 6195, "পার্ক": 6196, "জগত": 6197, "বিশ্লেষণ": 6198, "মানো": 6199, "মুঠো": 6200, "আওয়ামী": 6201, "আওতা": 6202, "বিপর্য": 6203, "আদম": 6204, "চীনা": 6205, "কানের": 6206, "প্রয়োজনে": 6207, "চাইতে": 6208, "বাঘ": 6209, "আন্তরিক": 6210, "মৃত্যুদণ্ড": 6211, "ব্লিউ": 6212, "পুনরায়": 6213, "পাপ": 6214, "টরি": 6215, "নির্মাতা": 6216, "য়েজ": 6217, "ঈদুল": 6218, "গন্ধ": 6219, "পরাজিত": 6220, "এসএসসি": 6221, "রূপে": 6222, "ক্যাম্প": 6223, "দাঁড়া": 6224, "আফ্রিকার": 6225, "বাঁচা": 6226, "ইব্রা": 6227, "জ্যো": 6228, "উইকি": 6229, "দায়িত্ব": 6230, "লেন্": 6231, "আমান": 6232, "পায়ে": 6233, "হাজী": 6234, "ড়াই": 6235, "স্বরূপ": 6236, "সৃজন": 6237, "পারব": 6238, "একের": 6239, "নেতৃবৃন্দ": 6240, "শ্রেণি": 6241, "মুখপাত্র": 6242, "হইতে": 6243, "বিকালে": 6244, "যৌনসঙ্গম": 6245, "বধূ": 6246, "নায়িকা": 6247, "কর্তব্য": 6248, "কানি": 6249, "আহমে": 6250, "ড়ানো": 6251, "স্ট্যা": 6252, "আত্মহত্যা": 6253, "টাইগার": 6254, "প্রতিপক্ষ": 6255, "পরিসংখ": 6256, "ব্যবস্থার": 6257, "ডিয়ার": 6258, "গুলশান": 6259, "অজ্ঞাত": 6260, "বিপ্লব": 6261, "প্রত্যাহার": 6262, "দৃঢ়": 6263, "শুদ্ধ": 6264, "টাইমস": 6265, "চমৎকার": 6266, "ষেক": 6267, "কাব্য": 6268, "email": 6269, "সম্পৃক্ত": 6270, "সাড়া": 6271, "ধর্মী": 6272, "কমেছে": 6273, "SD": 6274, "সুন্দ": 6275, "মম": 6276, "শক্ত": 6277, "অদ্": 6278, "মুন্সী": 6279, "কুরআন": 6280, "সার্ব": 6281, "কুড়ি": 6282, "কিনতে": 6283, "সেমিনার": 6284, "টেম": 6285, "পাসপোর্ট": 6286, "গৃহীত": 6287, "প্রতিশ্রুতি": 6288, "নির্বিঘ্": 6289, "বন্যা": 6290, "ত্বাধীন": 6291, "lect": 6292, "সম্প্রদায়ের": 6293, "যাঁরা": 6294, "পটু": 6295, "তাছাড়া": 6296, "প্রদেশের": 6297, "বেনা": 6298, "বাড্ডা": 6299, "ছোট্ট": 6300, "চাঁপাইন": 6301, "সকে": 6302, "আপাত": 6303, "রিমান্ড": 6304, "পনী": 6305, "Un": 6306, "আমেরিকান": 6307, "ওয়েবসাইটের": 6308, "দারের": 6309, "এলাকাবাসী": 6310, "শুল্": 6311, "একু": 6312, "শিগ": 6313, "tr": 6314, "নিযুক্ত": 6315, "বিশ্লেষ": 6316, "নাও": 6317, "শপথ": 6318, "উদ্যোক্তা": 6319, "পরিবর্তনের": 6320, "স্টাইল": 6321, "শাম": 6322, "ভারী": 6323, "স্থাপনের": 6324, "দুর্নীতির": 6325, "স্ট্যান্ড": 6326, "রেক্স": 6327, "নেতৃত্বাধীন": 6328, "অভিষেক": 6329, "প্রকাশ্যে": 6330, "অফার": 6331, "একদম": 6332, "ঘাতে": 6333, "পড়বে": 6334, "অ্যান্": 6335, "পৌঁ": 6336, "সচেতনতা": 6337, "উৎসবের": 6338, "ডিম": 6339, "পার্শ্ব": 6340, "আবহাওয়া": 6341, "পাতে": 6342, "টেবিল": 6343, "pr": 6344, "নিখোঁজ": 6345, "লামা": 6346, "রাষ্ট্রদূত": 6347, "ফ্রান্সের": 6348, "কমান্ডার": 6349, "সভাপতিত্ব": 6350, "হচ্ছিল": 6351, "ট্রাইব্যু": 6352, "নাস": 6353, "রোনাল": 6354, "করতেই": 6355, "জিরা": 6356, "জাপান": 6357, "পার্থক্য": 6358, "করছিলেন": 6359, "সমূহের": 6360, "য়ার্": 6361, "আর্জেন্টিনা": 6362, "প্রতিযোগিতায়": 6363, "যানজ": 6364, "Sh": 6365, "কারন": 6366, "বাংলায়": 6367, "নরেন্দ্র": 6368, "পারা": 6369, "য়ী": 6370, "গিয়েছিলেন": 6371, "পররাষ্ট্রমন্ত্রী": 6372, "ফট": 6373, "প্রমাণিত": 6374, "শিপ": 6375, "আশরাফুল": 6376, "সুফ": 6377, "মঞ্চে": 6378, "রেডিও": 6379, "চাকুর": 6380, "চুয়া": 6381, "পোরে": 6382, "চাকরির": 6383, "ইউনাই": 6384, "পরিচি": 6385, "ুজ্জামান": 6386, "হোসাইন": 6387, "সংক্ষিপ্ত": 6388, "কিয়া": 6389, "বনের": 6390, "ক্লাবে": 6391, "লক্ষেত": 6392, "বৈশিষ্ট্য": 6393, "আমলে": 6394, "থাকুন": 6395, "ঞ্জে": 6396, "দক্ষতা": 6397, "আবেদনের": 6398, "পেট": 6399, "আলহাজ্ব": 6400, "ev": 6401, "ধানম": 6402, "দোকানে": 6403, "দারিদ্র": 6404, "অর্ধ": 6405, "মহে": 6406, "ইন্সটল": 6407, "ইনস্টিটিউট": 6408, "ভাইয়ের": 6409, "ক্রাই": 6410, "পর্যাপ্ত": 6411, "ীর্ণ": 6412, "বিহীন": 6413, "তীর": 6414, "ভাঁ": 6415, "যানবাহন": 6416, "অনুভব": 6417, "সশস্ত্র": 6418, "ড্রাই": 6419, "সিকিউরিটি": 6420, "সংসার": 6421, "ইউনিভার্সিটি": 6422, "বর্ণিত": 6423, "আস্থা": 6424, "শফি": 6425, "েন্দু": 6426, "অষ্ট": 6427, "দাও": 6428, "her": 6429, "ম্যাজিস্ট্রেট": 6430, "সূচনা": 6431, "য়নের": 6432, "মহাপরিচালক": 6433, "যুক্তরাষ্ট্রে": 6434, "দূতা": 6435, "হস্তান্তর": 6436, "গড়ে": 6437, "তেজগাঁও": 6438, "সিটির": 6439, "গানে": 6440, "কর্পোরে": 6441, "সম্পত্তি": 6442, "কবীর": 6443, "কেলের": 6444, "সংক": 6445, "মৌলিক": 6446, "সৈন্য": 6447, "লিখতে": 6448, "কর্নেল": 6449, "্তি": 6450, "করলো": 6451, "চিকিৎসাধীন": 6452, "গর্ভ": 6453, "মাসিক": 6454, "অ্যাডভোকেট": 6455, "জ্যেষ্ঠ": 6456, "ক্তিক": 6457, "ফোরাম": 6458, "ব্রাহ্মণবাড়িয়া": 6459, "রেড": 6460, "সৎ": 6461, "তৌ": 6462, "দেহের": 6463, "lo": 6464, "বেড়ে": 6465, "পাহাড়ি": 6466, "অ্যান্ড্র": 6467, "জব্দ": 6468, "দেখেছি": 6469, "দপ্তর": 6470, "টিকিট": 6471, "সীম": 6472, "আসামী": 6473, "বিদেশী": 6474, "দুদক": 6475, "াবলী": 6476, "যায়ী": 6477, "রুবেল": 6478, "নম্বরে": 6479, "মেজর": 6480, "ছাড়াই": 6481, "ন্নত": 6482, "হলুদ": 6483, "পরিচ": 6484, "বাঁশ": 6485, "বহুল": 6486, "গড়": 6487, "প্রদর্শনী": 6488, "অপু": 6489, "ণু": 6490, "ফেলতে": 6491, "মুজিব": 6492, "পারছি": 6493, "ill": 6494, "পাড়ার": 6495, "বস্ত": 6496, "দায়িক": 6497, "চিনি": 6498, "তুরস্কের": 6499, "প্রতিরক্ষা": 6500, "তথ্যপ্রযুক্তি": 6501, "ঘোষিত": 6502, "end": 6503, "ook": 6504, "নোট": 6505, "জজ": 6506, "ছাত্রীদের": 6507, "সিদ্দিক": 6508, "মাক": 6509, "সমঝো": 6510, "প্রাঙ্গ": 6511, "ভাতা": 6512, "এলাকায়": 6513, "প্রোডা": 6514, "সিদ্দিকী": 6515, "বিজ্ঞানী": 6516, "ইঙ্গ": 6517, "উপযুক্ত": 6518, "মৈ": 6519, "প্রকৃতি": 6520, "ংশে": 6521, "কর্মসং": 6522, "প্রার্থীর": 6523, "eng": 6524, "ধীর": 6525, "কামরুল": 6526, "পদত্যাগ": 6527, "রাহুল": 6528, "মিনার": 6529, "ith": 6530, "ট্রান্স": 6531, "সম্পাদ": 6532, "নিয়ো": 6533, "স্তান": 6534, "আজিজ": 6535, "বাক্য": 6536, "বিদ্যমান": 6537, "্তে": 6538, "পাকা": 6539, "দিনার": 6540, "চ্ছু": 6541, "খাল": 6542, "ইতিবাচক": 6543, "মৌলভীবাজার": 6544, "বাড়তি": 6545, "ক্রু": 6546, "উপল": 6547, "চুক্তির": 6548, "মোটরসাইকেল": 6549, "পীড়": 6550, "মারাত্মক": 6551, "শিল্পের": 6552, "হলেই": 6553, "যোগদান": 6554, "পড়ছে": 6555, "মেয়াদ": 6556, "উভ": 6557, "খিলক্ষেত": 6558, "কর্তা": 6559, "অনার্স": 6560, "ওবা": 6561, "সুলত": 6562, "আস্তে": 6563, "সাহায্যে": 6564, "ইনকি": 6565, "টোয়েন্টি": 6566, "পিসি": 6567, "জামান": 6568, "গভর্": 6569, "অনুষ": 6570, "্যাট": 6571, "সাতক্ষীরা": 6572, "রোডের": 6573, "সংগ্রহের": 6574, "পড়েছেন": 6575, "উত্তরে": 6576, "আওয়ামীলীগ": 6577, "নোয়াখালী": 6578, "ার্ন": 6579, "স্টেট": 6580, "প্রযোজ্য": 6581, "বৈষ": 6582, "নীতিমালা": 6583, "ack": 6584, "ভ্রাম্য": 6585, "ঈদে": 6586, "শরীয়তপুর": 6587, "ফ্রা": 6588, "নামুল": 6589, "কলাম": 6590, "নেবেন": 6591, "আবদুল্লাহ": 6592, "পাবনা": 6593, "একদল": 6594, "রয়": 6595, "্ডার": 6596, "age": 6597, "শীষ": 6598, "স্তর": 6599, "টিউটো": 6600, "পৌরসভা": 6601, "অবলম্": 6602, "আনসার": 6603, "ly": 6604, "বিদ্রোহী": 6605, "অভিযোগ": 6606, "মিউজিক": 6607, "বিমানবন্দর": 6608, "শীর্ষে": 6609, "অভ্যন্তরীণ": 6610, "সাউ": 6611, "দিকের": 6612, "মিশি": 6613, "সমাপনী": 6614, "ভেসে": 6615, "প্রতিষ্ঠার": 6616, "ছহী": 6617, "ইউনিটের": 6618, "ex": 6619, "শোধন": 6620, "হৃদয়": 6621, "চিৎকার": 6622, "বৃহৎ": 6623, "শাসক": 6624, "খেলাধুলা": 6625, "কক্সবাজারের": 6626, "জালে": 6627, "জামায়াতের": 6628, "সেক্রে": 6629, "পরিস্থিতির": 6630, "লক": 6631, "প্রান্তিক": 6632, "একান্ত": 6633, "ব্যারিস্টার": 6634, "কাঙ্": 6635, "বিনিময়ে": 6636, "ফাউন্ডেশনের": 6637, "সবই": 6638, "com": 6639, "হিক": 6640, "সাম্প্রদায়িক": 6641, "ধারায়": 6642, "অর্ধে": 6643, "সেখানেই": 6644, "যুদ্ধা": 6645, "্যানিশ": 6646, "গাড়": 6647, "ন্না": 6648, "ঞ্চলের": 6649, "জিজ্ঞ": 6650, "য়ং": 6651, "সৃষ্টির": 6652, "পালনের": 6653, "পয়েন্": 6654, "বর্তন": 6655, "পরিচিতি": 6656, "মনোনীত": 6657, "িয়ে": 6658, "কায়ে": 6659, "মান্নান": 6660, "কাস": 6661, "আয়ের": 6662, "দিয়েছি": 6663, "পিস": 6664, "ডিভাইস": 6665, "তাকিয়ে": 6666, "কোরিয়ার": 6667, "শুল্ক": 6668, "ক্রিকেটের": 6669, "ঘে": 6670, "ফাকিস্ত": 6671, "জত": 6672, "ছিনতাই": 6673, "ভিন": 6674, "mw": 6675, "্যাস": 6676, "শিক্ষিত": 6677, "সংবর্ধ": 6678, "ট্টো": 6679, "বয়সের": 6680, "অর্থে": 6681, "মুন্না": 6682, "অতএব": 6683, "Com": 6684, "জাহিদ": 6685, "ফিল্ম": 6686, "কাজটি": 6687, "ভিসা": 6688, "মহল": 6689, "বাবুল": 6690, "সাক্ষাৎ": 6691, "output": 6692, "মেজ": 6693, "প্রেক্ষা": 6694, "নেত্রকো": 6695, "পারছে": 6696, "হুর": 6697, "প্রজাতন্ত্র": 6698, "জিল": 6699, "ভো": 6700, "প্রশাসনিক": 6701, "ন্টু": 6702, "একাডেমি": 6703, "হিন": 6704, "parser": 6705, "রাজ্জা": 6706, "পরিসংখ্যান": 6707, "যৌক্তিক": 6708, "স্কোর": 6709, "আরবের": 6710, "ঞ্জের": 6711, "উম্": 6712, "স্বচ্ছ": 6713, "ফসল": 6714, "পন্ন": 6715, "গ্রহণযোগ্য": 6716, "ff": 6717, "aw": 6718, "তারই": 6719, "উন্ডার": 6720, "জিজ্ঞেস": 6721, "ধরার": 6722, "ভেঙ্গে": 6723, "আঙ": 6724, "হাদিস": 6725, "ভর্তির": 6726, "ভোরে": 6727, "পাঠানোর": 6728, "অক্টো": 6729, "ঘনিষ্ঠ": 6730, "ওয়েল": 6731, "দিনব্যাপী": 6732, "ট্রাফিক": 6733, "ব্যুর": 6734, "প্রায়ই": 6735, "ডিফ": 6736, "পরিচালনায়": 6737, "aj": 6738, "বিধ": 6739, "প্রতিদ্বন্দ্বি": 6740, "ক্রা": 6741, "বিজ্ঞপ্তিতে": 6742, "ধরেন": 6743, "En": 6744, "ইন্দোনে": 6745, "পোল": 6746, "মানোর": 6747, "লাইনের": 6748, "গোল্ড": 6749, "জ্বালানি": 6750, "ইনকিলাব": 6751, "দাত": 6752, "দয়া": 6753, "রেজাউল": 6754, "রাজনীতিতে": 6755, "অবস্থানে": 6756, "ইউসুফ": 6757, "হয়র": 6758, "পাতি": 6759, "ক্কায়": 6760, "জিও": 6761, "কোট": 6762, "আবারো": 6763, "নিজা": 6764, "ওঠার": 6765, "lish": 6766, "মাদরা": 6767, "আহবান": 6768, "খাবারের": 6769, "হোটেলে": 6770, "দুনিয়া": 6771, "আগুনে": 6772, "বৃষ্টির": 6773, "শনাক্ত": 6774, "অসম্ভব": 6775, "কুড়ি": 6776, "মূল্যা": 6777, "সঞ্চাল": 6778, "হেন": 6779, "দেশিক": 6780, "লাহ": 6781, "শিবির": 6782, "ences": 6783, "শিগগির": 6784, "সাঈদ": 6785, "ণ্য": 6786, "শট": 6787, "ষ্টে": 6788, "ক্যাম্পা": 6789, "অস্তিত্ব": 6790, "য়াস": 6791, "ড়তে": 6792, "পদের": 6793, "আমিও": 6794, "উজান": 6795, "হিউ": 6796, "অ্যাসোসিয়ে": 6797, "যাওয়ায়": 6798, "বিছ": 6799, "পিছনে": 6800, "up": 6801, "লারি": 6802, "নিচ্ছেন": 6803, "আম্": 6804, "প্রেসক্লাবের": 6805, "ডাল": 6806, "পাঠান": 6807, "ডাই": 6808, "মাং": 6809, "ম্যান্": 6810, "স্ত্রীকে": 6811, "বলছি": 6812, "আল্যা": 6813, "অনুযায়ী": 6814, "ateg": 6815, "িয়ার": 6816, "ধারে": 6817, "lad": 6818, "এসএস": 6819, "বালু": 6820, "লোকে": 6821, "পূর্ণাঙ্গ": 6822, "দৌল": 6823, "ভবিষ্যৎ": 6824, "থ্রি": 6825, "করাই": 6826, "ড়াল": 6827, "অক্টোবর": 6828, "গাড়ি": 6829, "মতো": 6830, "্যারে": 6831, "প্রচারণা": 6832, "প্রকৌশল": 6833, "ary": 6834, "ইলেকট্র": 6835, "ডুবে": 6836, "ইন্টারনে": 6837, "ইউনিয়নে": 6838, "চ্ছন্ন": 6839, "দামে": 6840, "নিয়েও": 6841, "সমকামী": 6842, "বদর": 6843, "ডলারের": 6844, "পরিস্থিতিতে": 6845, "দফায়": 6846, "পেলেন": 6847, "োষ": 6848, "রিন": 6849, "পাধ্যায়": 6850, "ইশ": 6851, "পায়ের": 6852, "লেখকের": 6853, "স্বাদ": 6854, "পুরাতন": 6855, "ছেড়ে": 6856, "বিক্রির": 6857, "আপন": 6858, "মাস্ট": 6859, "কও": 6860, "য়ারা": 6861, "আসাদুজ্জামান": 6862, "এমনি": 6863, "চলচ্চিত্রের": 6864, "তাহার": 6865, "রেজিস্ট্রে": 6866, "ব্যবস্থাপক": 6867, "চলচ্চিত্রে": 6868, "ত্রাণ": 6869, "ard": 6870, "জমে": 6871, "ইঙ্গিত": 6872, "ভট্টা": 6873, "টিও": 6874, "জনপ্রিয়": 6875, "ুকের": 6876, "চারের": 6877, "শিষ": 6878, "দাঁড়িয়েছে": 6879, "স্তরের": 6880, "পরিবহনের": 6881, "য়েট": 6882, "বিপদ": 6883, "তল্লা": 6884, "আং": 6885, "আমাদেরকে": 6886, "ডিগ্রী": 6887, "day": 6888, "one": 6889, "ক্ষয়": 6890, "Pro": 6891, "পালি": 6892, "শুরুতেই": 6893, "cted": 6894, "টালি": 6895, "ঘটনাস্থল": 6896, "কিছুর": 6897, "মেহেদী": 6898, "একেবারেই": 6899, "করপোরেশন": 6900, "মাঠের": 6901, "মাহা": 6902, "পেরিয়ে": 6903, "ওয়ার্": 6904, "নিলেন": 6905, "সাম্রা": 6906, "কখনোই": 6907, "ib": 6908, "খামার": 6909, "আজিজুল": 6910, "গারে": 6911, "করানো": 6912, "দিলাম": 6913, "ছেদ": 6914, "আয়": 6915, "ক্সা": 6916, "সময়ই": 6917, "নিউইয়": 6918, "মালিকানা": 6919, "গ্রন্": 6920, "ংকা": 6921, "দিগ": 6922, "মারধর": 6923, "টেনের": 6924, "বৃহত্তম": 6925, "প্রজন্ম": 6926, "ঐক্যবদ্ধ": 6927, "তারাই": 6928, "শোভা": 6929, "রেফার": 6930, "সুদের": 6931, "সৃজনশীল": 6932, "প্রভাবশালী": 6933, "আশ্": 6934, "পর্যবেক্ষ": 6935, "পছন্দের": 6936, "পাইল": 6937, "পরিকল্পিত": 6938, "ian": 6939, "তাহা": 6940, "পর্তু": 6941, "ভরা": 6942, "লোয়ার": 6943, "এঁ": 6944, "পথের": 6945, "পোষ": 6946, "অপরাধের": 6947, "ল্যাপট": 6948, "রোধে": 6949, "লিমা": 6950, "শাহজালাল": 6951, "পাড়ায়": 6952, "স্যাটেলাইট": 6953, "ইমদাদুল": 6954, "ওয়ার্ল্ড": 6955, "চলার": 6956, "পেয়ে": 6957, "যাত্রীদের": 6958, "পন্": 6959, "চালাতে": 6960, "কারটি": 6961, "প্রতিবন্ধী": 6962, "মুসলমানদের": 6963, "টিত": 6964, "লেস": 6965, "আলফা": 6966, "ভিটামিন": 6967, "দিল্লি": 6968, "ass": 6969, "খালীর": 6970, "জীবিত": 6971, "গোলের": 6972, "রন": 6973, "গান্": 6974, "ঙ্গো": 6975, "job": 6976, "প্রশ্নে": 6977, "জন্মগ্রহণ": 6978, "স্বতন্ত্র": 6979, "চেয়ার": 6980, "শেষের": 6981, "ies": 6982, "পুনঃ": 6983, "সকলকে": 6984, "স্বপ্নের": 6985, "তাহ": 6986, "আধা": 6987, "ওয়াই": 6988, "থেমে": 6989, "মহেশ": 6990, "উদ্দিনের": 6991, "উচ্চার": 6992, "ব্যবসায়ীরা": 6993, "ভেদ": 6994, "দেখাতে": 6995, "মহাসড়কের": 6996, "বাউ": 6997, "অগ্রগতি": 6998, "ত্যাগের": 6999, "বাতা": 7000, "নিন্দা": 7001, "জরুরী": 7002, "বেড়া": 7003, "পমেন্ট": 7004, "মুম্বাই": 7005, "কোরি": 7006, "মেডিক্যাল": 7007, "দ্ধার": 7008, "সন্দেহে": 7009, "মন্দিরে": 7010, "নাকে": 7011, "অদ্ভুত": 7012, "ীত": 7013, "চিন": 7014, "সঞ্চ": 7015, "জেরে": 7016, "সংশোধন": 7017, "পনার": 7018, "সংখ্যাল": 7019, "কমল": 7020, "জগন্": 7021, "হতি": 7022, "prote": 7023, "আজও": 7024, "প্রসঙ্গত": 7025, "ইছলামে": 7026, "বহির্": 7027, "য়ানা": 7028, "জলা": 7029, "যাতা": 7030, "ঘূ": 7031, "সিংহের": 7032, "কাজেই": 7033, "ভরে": 7034, "গবেষক": 7035, "অসহায়": 7036, "জনিত": 7037, "জ্যোতি": 7038, "একথা": 7039, "মাছের": 7040, "আসুন": 7041, "ঘাঁ": 7042, "শেয়ার": 7043, "অহ": 7044, "বাড়ী": 7045, "নার্": 7046, "জায়গা": 7047, "ভাবতে": 7048, "জেট": 7049, "ছহীহ": 7050, "কুপিয়ে": 7051, "হোসেন": 7052, "AR": 7053, "নির্দেশে": 7054, "পরস্": 7055, "বাইরের": 7056, "শাকিব": 7057, "গতির": 7058, "শান্তিপূর্ণ": 7059, "সর্গ": 7060, "সরু": 7061, "সিভ": 7062, "Pr": 7063, "বিস্ফোরক": 7064, "হ্রা": 7065, "তলায়": 7066, "ভিড়": 7067, "খেয়াল": 7068, "কিছুক্ষণ": 7069, "য়াতে": 7070, "কোষ": 7071, "নাটকের": 7072, "মাঝি": 7073, "বিরত": 7074, "ধারী": 7075, "উর্": 7076, "ইনচার্জ": 7077, "এসো": 7078, "ফরাসি": 7079, "বিক্রয়": 7080, "কেনার": 7081, "রোগে": 7082, "স্থিতিতে": 7083, "নিয়ন্ত্র": 7084, "বলিত": 7085, "স্পর্শ": 7086, "হাবিবুর": 7087, "উঠছে": 7088, "বাঙ্গা": 7089, "তোলে": 7090, "রোগী": 7091, "অন্যায়": 7092, "শ্রীলঙ্কা": 7093, "জনসংখ্যা": 7094, "ল্লাহ": 7095, "ভালুকা": 7096, "দেখলে": 7097, "ম্ভ": 7098, "মহিলাদের": 7099, "চার্চ": 7100, "পর্যালোচনা": 7101, "অপারেশন": 7102, "হয়নি": 7103, "জগন্নাথ": 7104, "আকার": 7105, "কংগ্রেসের": 7106, "ong": 7107, "সম্মাননা": 7108, "ডব্লিউ": 7109, "বরাত": 7110, "তত্ত্ব": 7111, "ঈমান": 7112, "রেসিপি": 7113, "ঋণের": 7114, "দফতর": 7115, "নারীরা": 7116, "করেছিলাম": 7117, "পরিবেশন": 7118, "প্লেট": 7119, "choti": 7120, "পশ্চিমবঙ্গের": 7121, "UR": 7122, "ন্ডার": 7123, "বারা": 7124, "দৃষ্ট": 7125, "মুক্তা": 7126, "ফলন": 7127, "যিহোবার": 7128, "প্রজন্মের": 7129, "ডিট": 7130, "করতো": 7131, "পত্রে": 7132, "ফেলেছে": 7133, "চার্চের": 7134, "লাভের": 7135, "নথি": 7136, "আমন্ত্রণ": 7137, "আরিফ": 7138, "সুলতানা": 7139, "চিক": 7140, "শাহরুখ": 7141, "দেখবেন": 7142, "টাস": 7143, "মিশে": 7144, "গলায়": 7145, "খানিক": 7146, "মেট": 7147, "লিঙ্ক": 7148, "নাটোর": 7149, "ন্দী": 7150, "সোসাই": 7151, "সেতুর": 7152, "কান্দা": 7153, "protected": 7154, "মপুর": 7155, "হাইকোর্টের": 7156, "কমিয়ে": 7157, "মুগ্ধ": 7158, "জীবি": 7159, "কথাও": 7160, "দায়িত্বে": 7161, "ডিপি": 7162, "হাঁট": 7163, "ব্যবসায়ীদের": 7164, "বলবে": 7165, "দুজনের": 7166, "কেশন্স": 7167, "মারু": 7168, "রেস্ট": 7169, "স্থলে": 7170, "India": 7171, "এখনই": 7172, "সম্মেলনের": 7173, "ferences": 7174, "Select": 7175, "এমনটা": 7176, "প্রচণ্ড": 7177, "পান্": 7178, "উল্টো": 7179, "বললে": 7180, "জোড়া": 7181, "বক্তারা": 7182, "সনে": 7183, "গাং": 7184, "প্রত্যক্ষদর্শী": 7185, "সংলাপ": 7186, "পেয়েছি": 7187, "স্যুর": 7188, "ক্ষুব্ধ": 7189, "দেখলাম": 7190, "কনফার": 7191, "বিজ": 7192, "ther": 7193, "শর্তাবলী": 7194, "প্রীতি": 7195, "বিন্দু": 7196, "মস্তি": 7197, "ফাউন্ডেশন": 7198, "ঢুক": 7199, "অন্যের": 7200, "অর্থবছরে": 7201, "ঊর্ধ্ব": 7202, "জুড়ে": 7203, "হয়ত": 7204, "রাজার": 7205, "জগতে": 7206, "বিহার": 7207, "ভদ্র": 7208, "ছুটির": 7209, "গেলো": 7210, "এমনই": 7211, "অনন্য": 7212, "মুফ": 7213, "লীয়": 7214, "কোরিয়া": 7215, "কুষ্টিয়া": 7216, "স্থানীয়রা": 7217, "বানী": 7218, "গাল": 7219, "আনইন্সটল": 7220, "স্কর": 7221, "নির্বিঘ্নেই": 7222, "বিজেপির": 7223, "জার্মানিতে": 7224, "ph": 7225, "নিয়ত": 7226, "olpo": 7227, "ব্যতীত": 7228, "পুড়িয়ে": 7229, "তাপমাত্রা": 7230, "উদ্ধৃতি": 7231, "Preferences": 7232, "অনুভূতি": 7233, "স্বরাষ্ট্রমন্ত্রী": 7234, "চেহারা": 7235, "সিবিএন": 7236, "অপরি": 7237, "লিগে": 7238, "স্তির": 7239, "ণ্ডা": 7240, "হোমপেজের": 7241, "আনুষ্ঠানিকভাবে": 7242, "ঐতিহ্যবাহী": 7243, "সারি": 7244, "সীমান্তে": 7245, "খবরগুলি": 7246, "জীবনী": 7247, "ভোটে": 7248, "পর্ষ": 7249, "জানাই": 7250, "ম্যাগা": 7251, "ফস": 7252, "সংখ্যালঘু": 7253, "ব্লকারটি": 7254, "যোগাযোগের": 7255, "প্রোডাক্ট": 7256, "আপাতত": 7257, "পলাশ": 7258, "টিই": 7259, "আইজি": 7260, "িকে": 7261, "েন্ডার": 7262, "পাঞ্জা": 7263, "লক্ষণ": 7264, "বন্ধুরা": 7265, "আরসি": 7266, "পুটি": 7267, "কড়া": 7268, "ফ্যাশন": 7269, "আহমেদের": 7270, "পুষ্টি": 7271, "য়েড": 7272, "গ্রাফি": 7273, "ভীষণ": 7274, "জার্মানির": 7275, "ঢু": 7276, "ভাইরাস": 7277, "য়েল": 7278, "করপোরেশনের": 7279, "জুয়েল": 7280, "লিঙ্গের": 7281, "বিসিবি": 7282, "অর্থবছরের": 7283, "অপেক্ষায়": 7284, "নির্বাচনকে": 7285, "ইঞ্চি": 7286, "র্যাবের": 7287, "সমাধানের": 7288, "বিলম্বে": 7289, "সারাদেশে": 7290, "নিত্য": 7291, "ইন্ডিয়া": 7292, "সাগরে": 7293, "চাপে": 7294, "পরিপ্রেক্ষিতে": 7295, "বিশ্ববিদ্যালয়": 7296, "ওমর": 7297, "সপ্ত": 7298, "সচিবাল": 7299, "পূর্বক": 7300, "ব্লগার": 7301, "যাবার": 7302, "অতঃ": 7303, "রিভিউ": 7304, "ডাটা": 7305, "গণ্য": 7306, "উত্তোলন": 7307, "পরিবারকে": 7308, "বাইক": 7309, "ফোরা": 7310, "ঘাটে": 7311, "পেশ": 7312, "প্রিয়া": 7313, "মুছলিমের": 7314, "ল্ডার": 7315, "গাড়িতে": 7316, "মান্ত": 7317, "অভাবে": 7318, "স্থাপিত": 7319, "আদ": 7320, "বন্দরের": 7321, "চারজন": 7322, "কবে": 7323, "অতঃপর": 7324, "ie": 7325, "হালু": 7326, "ধিতা": 7327, "নারি": 7328, "বান্ধব": 7329, "ডাকাত": 7330, "বোকো": 7331, "অ্যান্টি": 7332, "টুর্নামেন্ট": 7333, "পাবলিকেশন্স": 7334, "ভালো": 7335, "দর্শকদের": 7336, "মক": 7337, "উপযোগী": 7338, "বিটি": 7339, "আখতার": 7340, "ইউনাইটেড": 7341, "বায়ো": 7342, "বন্ধুদের": 7343, "মোশাররফ": 7344, "বত": 7345, "ইয়া": 7346, "লিয়া": 7347, "আইটি": 7348, "লোহা": 7349, "নই": 7350, "াল": 7351, "ধনী": 7352, "ক্যাটা": 7353, "দিবসে": 7354, "গেমস": 7355, "ত্রী": 7356, "কারিগরি": 7357, "ড়ানোর": 7358, "মাহফিল": 7359, "ভট্টাচার্য": 7360, "এনএ": 7361, "ফ্লা": 7362, "গল্পের": 7363, "সার্ভিসের": 7364, "পরিবর্তিত": 7365, "পর্যায়": 7366, "যুগের": 7367, "দৈর্ঘ": 7368, "ধায়ক": 7369, "ip": 7370, "সুদহার": 7371, "পিরোজ": 7372, "সিলের": 7373, "ন্দিন": 7374, "উদ্বেগ": 7375, "ধানমন্ডি": 7376, "পেসো": 7377, "সুরা": 7378, "বক্তৃতা": 7379, "প্রেমিক": 7380, "own": 7381, "সহ্য": 7382, "ঝিনাইদহ": 7383, "পাউন্ড": 7384, "এসেছি": 7385, "জোরদার": 7386, "শাহজাহান": 7387, "টারের": 7388, "হাজারী": 7389, "তোর": 7390, "মেঘনা": 7391, "নাজিম": 7392, "কাকে": 7393, "anglad": 7394, "ইউএনও": 7395, "মেক": 7396, "বিমানবন্দরে": 7397, "কোর্টের": 7398, "বাড়ানোর": 7399, "রিজভী": 7400, "ght": 7401, "ভিজি": 7402, "সিভিল": 7403, "পুস্ত": 7404, "বিজনে": 7405, "প্রভৃতি": 7406, "ক্ষত": 7407, "দিবে": 7408, "অনূ": 7409, "উপকরণ": 7410, "আকারে": 7411, "ভোলা": 7412, "মূল্যায়ন": 7413, "শরণার্থী": 7414, "ওয়েবসাইটে": 7415, "ভাঙচুর": 7416, "ত্বকের": 7417, "দ্বন্দ্": 7418, "angladesh": 7419, "স্টের": 7420, "বন্ধের": 7421, "বস্ত্র": 7422, "ont": 7423, "পরদিন": 7424, "থাইল": 7425, "ওয়াজ": 7426, "বলেছি": 7427, "বহাল": 7428, "ree": 7429, "যুক্তরাজ্য": 7430, "চালিয়েছে": 7431, "হাবিব": 7432, "ধর্মযাজক": 7433, "নেপাল": 7434, "বেক": 7435, "চেপে": 7436, "লুপ্ত": 7437, "অতিক্রম": 7438, "নুরু": 7439, "যুবলীগ": 7440, "তোফা": 7441, "ছড়ি": 7442, "রাঃ": 7443, "এনামুল": 7444, "বৈঠকের": 7445, "বিলে": 7446, "ব্যাংকে": 7447, "সিরাজুল": 7448, "জিয়া": 7449, "এশিয়ার": 7450, "জাপানি": 7451, "আদায়ের": 7452, "জামালপুর": 7453, "খাস্ত": 7454, "লাতক": 7455, "স্লোগান": 7456, "মূল্যের": 7457, "কর্মের": 7458, "সিরাজগঞ্জ": 7459, "তহ": 7460, "জামি": 7461, "আমল": 7462, "ভেজ": 7463, "দ্যা": 7464, "রামপুর": 7465, "পূরণের": 7466, "কমপ্লেক্সে": 7467, "যুদ্ধাপরা": 7468, "মাথার": 7469, "বলিউডের": 7470, "সংবাদের": 7471, "বিধ্ব": 7472, "ব্রিজ": 7473, "ভ্রম": 7474, "কান্দি": 7475, "বিত্ত": 7476, "দুর্ঘটনার": 7477, "শীদ": 7478, "গেলাম": 7479, "পর্বের": 7480, "বিলিয়ন": 7481, "উৎসবে": 7482, "প্রতিবছর": 7483, "চেনা": 7484, "ূন": 7485, "মানবতা": 7486, "পল্টনে": 7487, "সংবাদমাধ্যম": 7488, "দেরি": 7489, "বারক": 7490, "পরিবেশে": 7491, "নন্দিন": 7492, "আহমাদ": 7493, "হাদীস": 7494, "আব্দুল্লাহ": 7495, "IN": 7496, "যাচ্ছিল": 7497, "উখি": 7498, "মায়া": 7499, "অধিকারী": 7500, "সহায়": 7501, "সিমেন্ট": 7502, "রাখবে": 7503, "নীলফা": 7504, "শহীদুল": 7505, "নেতাকর্মীরা": 7506, "দশকের": 7507, "রক্ষার": 7508, "শিক্ষকের": 7509, "ঙ্কের": 7510, "যাবতীয়": 7511, "ive": 7512, "্রী": 7513, "ঠাকুরগাঁও": 7514, "প্রজাতির": 7515, "দশকে": 7516, "নকশা": 7517, "বাড়ির": 7518, "বাড়াতে": 7519, "বেকার": 7520, "অপারেটর": 7521, "এবারও": 7522, "অ্যাট": 7523, "জরিপ": 7524, "শিক্ষার্থীর": 7525, "কই": 7526, "শব্দের": 7527, "মাননীয়": 7528, "সানি": 7529, "দাগ": 7530, "uck": 7531, "য়াম": 7532, "ব্রো": 7533, "line": 7534, "দৃষ্টান্ত": 7535, "বেষ": 7536, "af": 7537, "সাজি": 7538, "ম্বী": 7539, "বাস্তবায়নের": 7540, "সহযোগিতায়": 7541, "আরবি": 7542, "No": 7543, "দন্ড": 7544, "পলাতক": 7545, "ষিত": 7546, "বয়স্ক": 7547, "লন্ডন": 7548, "কার্ট": 7549, "শীলন": 7550, "একসময়": 7551, "সন্তানদের": 7552, "মুভি": 7553, "রোগের": 7554, "জিম্বাবুয়ে": 7555, "কিড": 7556, "বিধ্বস্ত": 7557, "বৃহত্তর": 7558, "ash": 7559, "জিয়াউর": 7560, "ছির": 7561, "প্রেরণা": 7562, "মুছে": 7563, "বেঙ্গল": 7564, "মাদ্রাসার": 7565, "বজ": 7566, "কল্পে": 7567, "ভুগ": 7568, "পিতার": 7569, "ইলের": 7570, "পেসার": 7571, "বিপরীত": 7572, "ইউএস": 7573, "মন্দ": 7574, "গ্রহণে": 7575, "ইন্ডিজ": 7576, "প্রোগ্রাম": 7577, "পারফর": 7578, "গ্রিক": 7579, "নির্ভরশীল": 7580, "বিরাজ": 7581, "পাহাড়": 7582, "ছার": 7583, "হাটের": 7584, "ফাইন": 7585, "ধাপে": 7586, "ত্রিপুরা": 7587, "দিবসের": 7588, "ফলের": 7589, "কিংব": 7590, "পটে": 7591, "মনোভাব": 7592, "প্রতিদ্বন্দ্বী": 7593, "জনসংখ্যার": 7594, "সম্পদের": 7595, "গতিতে": 7596, "ব্যক্তিরা": 7597, "শরীয়": 7598, "প্রবেশের": 7599, "পরিশ্রম": 7600, "একজনের": 7601, "আয়াত": 7602, "সেন্টারে": 7603, "সমর্থক": 7604, "ফন": 7605, "পাকে": 7606, "ছাড়িয়ে": 7607, "হায়দার": 7608, "সহসভাপতি": 7609, "বিএম": 7610, "দুইটি": 7611, "পুলিশে": 7612, "দশম": 7613, "পেঁয়া": 7614, "কিংবদন্ত": 7615, "লাগছে": 7616, "নেতাকর্মী": 7617, "তদার": 7618, "জার্মানি": 7619, "সাড়ে": 7620, "রিটার্": 7621, "জ্জ": 7622, "শিরোনাম": 7623, "ডাঃ": 7624, "ari": 7625, "ষষ্ঠ": 7626, "মোহ": 7627, "প্রতিযোগিতার": 7628, "বেই": 7629, "ফেরদৌ": 7630, "ach": 7631, "এভাবেই": 7632, "কোম্পানী": 7633, "বিবরণ": 7634, "গাজীপুরের": 7635, "পর্যবেক্ষণ": 7636, "পত্রিকায়": 7637, "প্লিকেশন": 7638, "বৈদ্য": 7639, "ওয়েবসাইট": 7640, "কর্পোরে": 7641, "আব্দুস": 7642, "অনুশীলন": 7643, "আবেগ": 7644, "ভুয়া": 7645, "রোগীর": 7646, "সাউথ": 7647, "কামি": 7648, "চিঠ": 7649, "স্টিং": 7650, "পয়েন্টে": 7651, "সিআই": 7652, "মাস্টার্স": 7653, "শফিকুল": 7654, "ক্তির": 7655, "মেহ": 7656, "প্রেমি": 7657, "লিগের": 7658, "নাগরিকদের": 7659, "কথাই": 7660, "দুর্বৃত্তরা": 7661, "বানানো": 7662, "টিউন": 7663, "ছাত্রদলের": 7664, "নালি": 7665, "কুট": 7666, "দিবাগত": 7667, "থাইল্যান্ড": 7668, "বিবেচনায়": 7669, "প্রজে": 7670, "সৌর": 7671, "ব্রিটেনের": 7672, "অজানা": 7673, "অভিভাবক": 7674, "নজ": 7675, "তারে": 7676, "USD": 7677, "কক্সবাজারনিউজ": 7678, "এখানকার": 7679, "প্রজ্ঞা": 7680, "পরীক্ষার্থী": 7681, "হলের": 7682, "পড়লে": 7683, "করলেই": 7684, "কন্ঠ": 7685, "জাতীয়তা": 7686, "সমর্থকদের": 7687, "পেপার": 7688, "সংবর্ধনা": 7689, "তথ্যের": 7690, "বিশ্বাসী": 7691, "অংশের": 7692, "সদরের": 7693, "ক্ষেত্রেই": 7694, "অধীন": 7695, "সেজ": 7696, "প্রদেশ": 7697, "vi": 7698, "কমপ্লেক্স": 7699, "মানুষদের": 7700, "জন্যও": 7701, "আইয়": 7702, "ঘৃ": 7703, "লোক": 7704, "নোবেল": 7705, "মস্তিষ্": 7706, "শ্ছেদ": 7707, "দশক": 7708, "তুর্": 7709, "ছাত্রীর": 7710, "art": 7711, "িতা": 7712, "বিশ্ববিদ্যালয়ের": 7713, "টুল": 7714, "যাওয়া": 7715, "উন্ট": 7716, "অনুসার": 7717, "তদন্তে": 7718, "নিস": 7719, "পো": 7720, "খোঁজ": 7721, "ল্ডিং": 7722, "পুরোনো": 7723, "কাটার": 7724, "আলু": 7725, "আসরে": 7726, "উইন্ডোজ": 7727, "রিত": 7728, "blow": 7729, "ুম": 7730, "পেশাদার": 7731, "ডির": 7732, "এসেছিলেন": 7733, "ছাত্রদের": 7734, "যেকোন": 7735, "গন্তব্য": 7736, "টিউটোরিয়াল": 7737, "শিগগিরই": 7738, "আশ্বাস": 7739, "সাক্ষ্য": 7740, "গুলিবিদ্ধ": 7741, "প্রতিষ্ঠানটি": 7742, "সাম্য": 7743, "কলকাতায়": 7744, "এজেন্": 7745, "তরুণী": 7746, "ক্রমের": 7747, "এজেন্ট": 7748, "যত্ন": 7749, "ইস্": 7750, "শিয়াল": 7751, "মেক্সি": 7752, "ব্ধি": 7753, "গোসল": 7754, "সম্রা": 7755, "info": 7756, "পরিমাণে": 7757, "লেগেছে": 7758, "ব্লু": 7759, "কুতু": 7760, "কাও": 7761, "মন্তব্যের": 7762, "তাহের": 7763, "অনেকটাই": 7764, "প্রভাত": 7765, "কৃত্রি": 7766, "বিতর্কিত": 7767, "হতেই": 7768, "রূপান্তর": 7769, "বন্দুকযুদ্ধে": 7770, "ন্তা": 7771, "বাড়ানো": 7772, "রঞ্জন": 7773, "চমক": 7774, "বিভ্র": 7775, "ক্যাটাগরি": 7776, "আজহার": 7777, "কথিত": 7778, "গুজব": 7779, "মহিউদ্দিন": 7780, "সোহরা": 7781, "blowjob": 7782, "ঠেকাতে": 7783, "প্রান্তে": 7784, "কেটের": 7785, "মাল্টি": 7786, "একজনকে": 7787, "ঞ্চলে": 7788, "বিগ": 7789, "ord": 7790, "বিজ্ঞানের": 7791, "শাহীন": 7792, "সংসদীয়": 7793, "চরা": 7794, "ওয়াত": 7795, "ত্বর": 7796, "যুগান্তর": 7797, "লাঠি": 7798, "ছয়টি": 7799, "Ar": 7800, "ব্রাহ্মণবাড়িয়া": 7801, "ড্রো": 7802, "শুক": 7803, "বলব": 7804, "রাজ্জাক": 7805, "অভিনন্দন": 7806, "বিশ্বাসের": 7807, "মার্কেটিং": 7808, "শিয়ান": 7809, "ব্রাজিলের": 7810, "ছায়া": 7811, "গরী": 7812, "জানুয়ারী": 7813, "শামসুল": 7814, "স্বয়ং": 7815, "কোরান": 7816, "ফিরতে": 7817, "ইসরাই": 7818, "কৃত্রিম": 7819, "দ্দীন": 7820, "পাখ": 7821, "লঞ্চ": 7822, "বিজনেস": 7823, "ফেরি": 7824, "প্রকৃতির": 7825, "নমুনা": 7826, "জঙ্গ": 7827, "সাফ": 7828, "আশরাফ": 7829, "দেয়নি": 7830, "পরমাণ": 7831, "বিভাগচট্টগ্রাম": 7832, "মুহম্মদ": 7833, "চত্ব": 7834, "সমর্": 7835, "পৌঁছা": 7836, "বলেছিল": 7837, "মনোযোগ": 7838, "সীমাবদ্ধ": 7839, "পারফরম্যান্": 7840, "চত্বরে": 7841, "লতি": 7842, "নাগরি": 7843, "কোহলি": 7844, "হত্যাকাণ্ডের": 7845, "iii": 7846, "পারিনি": 7847, "পরিচালনার": 7848, "ডেপুটি": 7849, "UST": 7850, "মেধাবী": 7851, "উঠবে": 7852, "কর্মচারীদের": 7853, "ন্নবী": 7854, "বসা": 7855, "ant": 7856, "হয়েছি": 7857, "চান্": 7858, "ভাং": 7859, "গ্রেফতারের": 7860, "অবহিত": 7861, "ইউনিয়ন": 7862, "বিলের": 7863, "ড়িয়া": 7864, "চেল": 7865, "এসেছিল": 7866, "রাশেদ": 7867, "বন্দ্যোপাধ্যায়": 7868, "চুপ": 7869, "পুড়ে": 7870, "রাখবেন": 7871, "যথাক্রমে": 7872, "েরি": 7873, "নাম্বার": 7874, "জাপানের": 7875, "ভূঁ": 7876, "মণি": 7877, "পালে": 7878, "অপরাজ": 7879, "জোগ": 7880, "পাঠকের": 7881, "প্যানেল": 7882, "চোর": 7883, "লাগাতে": 7884, "কল্পনা": 7885, "স্প্যানিশ": 7886, "টাওয়ার": 7887, "পর্যট": 7888, "জমিন": 7889, "খ্যাতি": 7890, "পাননি": 7891, "মাহফু": 7892, "রকমের": 7893, "হ্যান্ড": 7894, "াজন": 7895, "দুর্য": 7896, "অস্থায়ী": 7897, "তিনিই": 7898, "লান": 7899, "শাক": 7900, "মিডিয়ায়": 7901, "চেতনা": 7902, "চকরিয়া": 7903, "লিটি": 7904, "STU": 7905, "হুমায়ুন": 7906, "do": 7907, "কমার্স": 7908, "আতিক": 7909, "খারি": 7910, "পাঠাতে": 7911, "ge": 7912, "পাঠ্য": 7913, "দখলে": 7914, "ট্রোল": 7915, "অপরাজিত": 7916, "আশপাশের": 7917, "শ্রীলঙ্কার": 7918, "উন্মো": 7919, "চামড়া": 7920, "মণ্ডল": 7921, "হাউস": 7922, "স্থিতিশীল": 7923, "মইন": 7924, "বিদ্যুতের": 7925, "ফুড": 7926, "নাচ": 7927, "গালি": 7928, "পিপি": 7929, "হ্রাস": 7930, "সিডিএ": 7931, "মধ্যপ্রাচ": 7932, "শিত": 7933, "বংশ": 7934, "চট্টো": 7935, "য়াজ্": 7936, "ঘূর্": 7937, "অপরদিকে": 7938, "আশে": 7939, "ust": 7940, "ঘুষ": 7941, "গর্ব": 7942, "সন্তুষ্ট": 7943, "মোদী": 7944, "যুবকের": 7945, "অর্জনের": 7946, "সীতা": 7947, "বটে": 7948, "ংক": 7949, "ব্যুরো": 7950, "বরিশা": 7951, "সেখানকার": 7952, "মিনা": 7953, "শোনার": 7954, "সড়ক": 7955, "মল্": 7956, "ঠিকই": 7957, "ড্রি": 7958, "উপলব্ধি": 7959, "কর্মীর": 7960, "প্রশ্নো": 7961, "দেওয়ান": 7962, "ঈন": 7963, "সীমানা": 7964, "ছো": 7965, "ite": 7966, "ত্রুটি": 7967, "শ্যামা": 7968, "দেখছে": 7969, "সিইসি": 7970, "সাহিত্যিক": 7971, "বিক্রম": 7972, "করণে": 7973, "পতন": 7974, "মিশিয়ে": 7975, "রসা": 7976, "করণীয়": 7977, "সুন্দরী": 7978, "মাদের": 7979, "মোতায়": 7980, "স্যাম": 7981, "স্বস্তি": 7982, "কবিতার": 7983, "ওয়াশিং": 7984, "কোয়ার্": 7985, "ইভি": 7986, "মিশ": 7987, "গাড়": 7988, "চালাচ্ছে": 7989, "লজ্জা": 7990, "গবেষণায়": 7991, "অবাধ": 7992, "ব্যবসার": 7993, "দৈনন্দিন": 7994, "তুলেছেন": 7995, "সিএনজি": 7996, "লব": 7997, "বিরতি": 7998, "টেস্টের": 7999, "বিস্ময়": 8000, "নিপীড়": 8001, "খাই": 8002, "খানি": 8003, "সংঘর্ষের": 8004, "সাক্ষী": 8005, "ইন্ডাস্ট্রি": 8006, "বুলবুল": 8007, "রক্তের": 8008, "দেশগুলোর": 8009, "রিলিজ": 8010, "সমর্থিত": 8011, "দুবাই": 8012, "golpo": 8013, "নাহিদ": 8014, "রিপোর্টিং": 8015, "ক্যাম্পাস": 8016, "কারখানার": 8017, "ost": 8018, "বাসস": 8019, "টিআই": 8020, "ম্যানেজ": 8021, "অর্থের": 8022, "ডেইলি": 8023, "News": 8024, "স্নে": 8025, "হারায়": 8026, "বিভক্ত": 8027, "খোকন": 8028, "আমিনুল": 8029, "হাজারের": 8030, "ডন": 8031, "দেই": 8032, "অস্থির": 8033, "স্পিকার": 8034, "বিআই": 8035, "ল্যাপটপ": 8036, "ওপেনার": 8037, "সম্পাদকীয়": 8038, "দো": 8039, "য়ারে": 8040, "ক্যান্সার": 8041, "টুইট": 8042, "াক্ত": 8043, "ফেসবুকের": 8044, "জোরে": 8045, "রবিউল": 8046, "তহবিল": 8047, "তাজ": 8048, "দিনই": 8049, "আয": 8050, "ফ্লাইট": 8051, "সফরের": 8052, "tic": 8053, "ব্যাপারটা": 8054, "রহমানকে": 8055, "ফুলের": 8056, "বিমানের": 8057, "হানিফ": 8058, "sex": 8059, "ঠিকা": 8060, "ast": 8061, "ফেলার": 8062, "রফতানি": 8063, "যিহোবা": 8064, "শ্রেণিতে": 8065, "হাটে": 8066, "চিন্তার": 8067, "স্পিনার": 8068, "ডেভেলপমেন্ট": 8069, "কিশোরী": 8070, "এইচডি": 8071, "বাহা": 8072, "খ্রিস্টা": 8073, "সমন্বিত": 8074, "গ্রাহকদের": 8075, "দেক": 8076, "বাঁচাতে": 8077, "সোয়া": 8078, "পাতের": 8079, "গৃহবধূ": 8080, "শার্": 8081, "চেয়েও": 8082, "বানের": 8083, "রাহ": 8084, "যাত্রার": 8085, "জগতের": 8086, "ঔষ": 8087, "মীন": 8088, "কাগজপত্র": 8089, "প্রতিনিয়ত": 8090, "ইন্স্যুর": 8091, "পারভেজ": 8092, "বৈষম্য": 8093, "মাগু": 8094, "আইনগত": 8095, "বিনিয়োগকারীদের": 8096, "রাব্": 8097, "অবকাঠামো": 8098, "গোলাপ": 8099, "সতী": 8100, "নীচের": 8101, "উপরের": 8102, "ure": 8103, "মূলের": 8104, "আইসিসি": 8105, "জগৎ": 8106, "উঠল": 8107, "সাপ্তা": 8108, "জানুয়ার": 8109, "বাল্য": 8110, "সাজানো": 8111, "উরু": 8112, "লাগানো": 8113, "ঠিকানায়": 8114, "জড়": 8115, "ব্দে": 8116, "ইউরোপীয়": 8117, "বিরল": 8118, "মামলাটি": 8119, "সেক্রেটারি": 8120, "গুর": 8121, "নানান": 8122, "বিলুপ্ত": 8123, "ঘাটতি": 8124, "সংলাপে": 8125, "বিদ্": 8126, "গাইবান্ধা": 8127, "দাদা": 8128, "কোরআন": 8129, "হতাশ": 8130, "েন্সি": 8131, "বুকের": 8132, "ide": 8133, "প্রতিদিনের": 8134, "বুঝি": 8135, "পাবলিকেশন": 8136, "স্বাগতিক": 8137, "সাতটি": 8138, "তাৎক্ষণিক": 8139, "দিয়েছেন": 8140, "সংস্কৃতির": 8141, "right": 8142, "নতম": 8143, "সূচ": 8144, "বাড়বে": 8145, "দীপি": 8146, "লাইব্র": 8147, "কাশ্মীর": 8148, "Categ": 8149, "হাম্মাদ": 8150, "পাকিস্তানে": 8151, "মোস্তাফিজুর": 8152, "ম্মেল": 8153, "সুবিধার": 8154, "লোকেরা": 8155, "গানটি": 8156, "ডিরে": 8157, "সান্ত": 8158, "বিসিএস": 8159, "aF": 8160, "প্রবাহ": 8161, "ধার্য": 8162, "বর্জন": 8163, "রির": 8164, "লঙ্ঘন": 8165, "পোস্টার": 8166, "প্রবণতা": 8167, "চাক": 8168, "সাধ্য": 8169, "বানানোর": 8170, "এনা": 8171, "শতভাগ": 8172, "ড্যা": 8173, "খস": 8174, "ফুটবলের": 8175, "চাঁপাইনবাবগঞ্জ": 8176, "port": 8177, "হট": 8178, "জেগে": 8179, "হিরো": 8180, "ঘটছে": 8181, "রণবীর": 8182, "বিয়ান": 8183, "ভিশন": 8184, "মেশন": 8185, "পাহাড়ের": 8186, "আইসিটি": 8187, "দেখেছেন": 8188, "নৃত্য": 8189, "কর্মসংস্থান": 8190, "পোর্টাল": 8191, "এন্টার": 8192, "ঘটনাস্থলেই": 8193, "বেদনা": 8194, "সন্তোষ": 8195, "বিশ্বর": 8196, "ভাত": 8197, "Th": 8198, "দফতরের": 8199, "সহিংসতা": 8200, "লালমনির": 8201, "চারী": 8202, "এনজিও": 8203, "এইসব": 8204, "শও": 8205, "সিরিয়ায়": 8206, "এসের": 8207, "প্রত্যাশীদের": 8208, "বিরোধিতা": 8209, "েন্টাল": 8210, "স্বাক্ষরিত": 8211, "ঠান্ড": 8212, "প্রতিমা": 8213, "কৃষ্ট": 8214, "বিস্ফোরণে": 8215, "নেতি": 8216, "ডেলিভার": 8217, "জ্ঞানিক": 8218, "ডায়াবে": 8219, "সম্প্রচার": 8220, "রিচ": 8221, "রেট": 8222, "নবম": 8223, "link": 8224, "গরুর": 8225, "ফার্স্ট": 8226, "ইতালির": 8227, "সোহা": 8228, "মৃত্যুতে": 8229, "ইবন": 8230, "নিয়েছিলেন": 8231, "স্বেচ্ছাসেবক": 8232, "সদা": 8233, "দেশটিতে": 8234, "পায়নি": 8235, "কার্যকরী": 8236, "বিয়া": 8237, "ঘো": 8238, "ত্তার": 8239, "aFX": 8240, "পরমাণু": 8241, "ইউরোপের": 8242, "উপদেশ": 8243, "OctaFX": 8244, "সম্মিলিত": 8245, "আসব": 8246, "রেজিস্ট্রেশন": 8247, "প্রকাশনা": 8248, "জঙ্গিরা": 8249, "বসেছে": 8250, "পৃষ্ঠা": 8251, "প্রভাষ": 8252, "গুজ": 8253, "ানার": 8254, "দলিল": 8255, "যানজট": 8256, "টার্স": 8257, "ue": 8258, "কেত": 8259, "প্রসার": 8260, "ice": 8261, "ধৈ": 8262, "শিক্ষামন্ত্রী": 8263, "প্রণয়ন": 8264, "কুণ্ড": 8265, "স্রা": 8266, "ক্ষতিকর": 8267, "হাবী": 8268, "ফতে": 8269, "ছাপ": 8270, "ক্যাথ": 8271, "নাশক": 8272, "পরপরই": 8273, "অনূর্ধ্ব": 8274, "অবিলম্বে": 8275, "চিৎ": 8276, "এএফপি": 8277, "ট্রফি": 8278, "বাগেরহাট": 8279, "ফ্যাক্ট": 8280, "আলমের": 8281, "লবণ": 8282, "রিং": 8283, "কোনটি": 8284, "সাবধান": 8285, "ভাজন": 8286, "ভাঙা": 8287, "প্রশ্নোত্তর": 8288, "বিন্দ": 8289, "পেজ": 8290, "ফ্লো": 8291, "খুনের": 8292, "ছালাত": 8293, "নিষেধ": 8294, "ome": 8295, "ছেলেদের": 8296, "স্তো": 8297, "দিগন্ত": 8298, "engal": 8299, "আহবায়ক": 8300, "ver": 8301, "সম্প্রসারণ": 8302, "আকাশে": 8303, "সরাই": 8304, "বন্ধুত্ব": 8305, "কেউই": 8306, "রশীদ": 8307, "শিরশ্ছেদ": 8308, "একপর্যায়ে": 8309, "রচিত": 8310, "মেসির": 8311, "ক্ষতির": 8312, "খ্রিস্টান": 8313, "স্বত্": 8314, "ড়ের": 8315, "সিলেক্ট": 8316, "চালের": 8317, "বায়": 8318, "নিজেও": 8319, "টিভির": 8320, "ইঞ্জিন": 8321, "দিয়েছে": 8322, "অভিযানের": 8323, "ইঞ্জিনিয়ারিং": 8324, "ভালোবাসার": 8325, "লোভ": 8326, "সাইবার": 8327, "সাফল্যের": 8328, "সাপ্তাহিক": 8329, "ক্ষেপে": 8330, "নামিয়ে": 8331, "শাস্ত্র": 8332, "মডারে": 8333, "চাচা": 8334, "নেওয়া": 8335, "মর্গে": 8336, "প্রবী": 8337, "নূরুল": 8338, "খিক": 8339, "প্রথা": 8340, "সহায়ক": 8341, "পেক্ষা": 8342, "ইলিয়া": 8343, "অর্ধেক": 8344, "শিবিরের": 8345, "আধি": 8346, "হেঁটে": 8347, "বাড়তে": 8348, "বেলের": 8349, "লতা": 8350, "লন্ডনে": 8351, "দেওয়ার": 8352, "উদ্ভি": 8353, "অনুমোদিত": 8354, "লিঙ্গ": 8355, "যাত্রীবাহী": 8356, "হলো": 8357, "সমঝোতা": 8358, "ক্ষণের": 8359, "সাক্ষাৎকারে": 8360, "ঘরো": 8361, "জমিনে": 8362, "ড্রে": 8363, "সেক্ষেত্রে": 8364, "স্বত্বাধিকার": 8365, "বিদেশের": 8366, "ভ্রাম্যমাণ": 8367, "বেঞ্চ": 8368, "মোনা": 8369, "ঘূর্ণি": 8370, "রওনা": 8371, "নাইট": 8372, "বিপি": 8373, "এনএস": 8374, "ছেলেকে": 8375, "কুক": 8376, "একুশে": 8377, "প্ল্যাট": 8378, "নীরব": 8379, "ইসির": 8380, "Eng": 8381, "মানু": 8382, "ংকর": 8383, "বৈদেশিক": 8384, "সঞ্চয়": 8385, "ছুরিকা": 8386, "স্থানান্তর": 8387, "পরিকল্পনার": 8388, "রেশ": 8389, "অংশী": 8390, "সিদ্ধান্তের": 8391, "বজ্র": 8392, "সরণি": 8393, "দিলেও": 8394, "ঘাটা": 8395, "কমাতে": 8396, "উড়িয়ে": 8397, "ঝিল": 8398, "প্রবৃদ্ধি": 8399, "ুলের": 8400, "বিশ্বব্যাপী": 8401, "অগা": 8402, "আতা": 8403, "জনেই": 8404, "বাড়া": 8405, "ষ্ণু": 8406, "ঙ্গন": 8407, "কাউন্সিলের": 8408, "দুর্যোগ": 8409, "পৌনে": 8410, "আইয়ুব": 8411, "একসাথে": 8412, "য়ারের": 8413, "চ্ছুক": 8414, "ব্যবহারকারী": 8415, "পিছু": 8416, "NO": 8417, "বৈজ্ঞানিক": 8418, "ভুমি": 8419, "আহম্": 8420, "শাসনের": 8421, "অপারেটিং": 8422, "নোয়াখালী": 8423, "অবন": 8424, "তারাও": 8425, "বিস্তৃত": 8426, "ound": 8427, "শিশুটির": 8428, "দেল": 8429, "গণতন্ত্রের": 8430, "পলা": 8431, "বিচারে": 8432, "ug": 8433, "ভাষণ": 8434, "ec": 8435, "চেষ্টার": 8436, "কথার": 8437, "শর্মা": 8438, "ক্যাম্পাসে": 8439, "ভিডিওতে": 8440, "ইজি": 8441, "বলম্বী": 8442, "সাহিত্যের": 8443, "থু": 8444, "ইনের": 8445, "র্নি": 8446, "দোকানের": 8447, "কুমিল্লার": 8448, "কাইভ": 8449, "রাসূলুল্লাহ": 8450, "কার্ত": 8451, "রোনালদো": 8452, "হরতাল": 8453, "এশিয়ান": 8454, "ফজলুল": 8455, "সংঘটিত": 8456, "ওদিকে": 8457, "খানায়": 8458, "ক্লো": 8459, "per": 8460, "সংস্করণ": 8461, "নম": 8462, "চিত্রা": 8463, "ফ্লাই": 8464, "ডেভিড": 8465, "রাজীব": 8466, "ঞ্ছ": 8467, "জাগর": 8468, "স্রো": 8469, "ঙ্গিনী": 8470, "বোনাস": 8471, "দিনা": 8472, "কর্ণফুল": 8473, "নিয়োগের": 8474, "রিজার্": 8475, "পোর্টের": 8476, "বাস্তবতা": 8477, "বাসর": 8478, "গৌরী": 8479, "ভারে": 8480, "উপকার": 8481, "ছাপা": 8482, "সৈকত": 8483, "মোতা": 8484, "ণাস্ত্র": 8485, "নিয়োজিত": 8486, "মেরি": 8487, "আব্বাস": 8488, "সম্ভাব": 8489, "হাওলা": 8490, "মগবাজার": 8491, "সিনহা": 8492, "এক্সচেঞ্জ": 8493, "ত্ত্বিক": 8494, "সর্বাধিক": 8495, "ওখানে": 8496, "আবদুস": 8497, "মোরগ": 8498, "পাঁ": 8499, "প্রোগ্রা": 8500, "ডিএফ": 8501, "অস্বাভাবিক": 8502, "শাহীর": 8503, "চিটা": 8504, "জান্না": 8505, "ফোন": 8506, "গ্লোবাল": 8507, "বেলজিয়া": 8508, "জনগোষ্ঠীর": 8509, "সুপ্রভাত": 8510, "বিশ্বরোড": 8511, "ভাষ্য": 8512, "হিউম্যান": 8513, "চেয়ারম্যান": 8514, "নামি": 8515, "ঝালকাঠি": 8516, "লট": 8517, "য়েদ": 8518, "কিক": 8519, "চুলের": 8520, "গঙ্গা": 8521, "রাঁ": 8522, "bd": 8523, "চিফ": 8524, "ix": 8525, "শতকরা": 8526, "নেটওয়ার্ক": 8527, "মমিন": 8528, "সোজা": 8529, "চুষ": 8530, "অভিনয়": 8531, "মিরাজ": 8532, "ট্র্যা": 8533, "েন্টি": 8534, "কাছেই": 8535, "অন্ধকার": 8536, "ইসলামি": 8537, "সংস্কারের": 8538, "বার্গ": 8539, "এখানেই": 8540, "সকলেই": 8541, "তুই": 8542, "শাহরিয়ার": 8543, "কর্মকান্ড": 8544, "ছয়": 8545, "রাউন্ড": 8546, "সাক্ষাত": 8547, "বন্ধনে": 8548, "উদ্ভা": 8549, "চ্যুত": 8550, "এক্সপ্রেস": 8551, "ইন্ডিজের": 8552, "একদিকে": 8553, "দাঁড়ায়": 8554, "নীচে": 8555, "গবেষণার": 8556, "লেভেল": 8557, "দারা": 8558, "নুস": 8559, "উত্তীর্ণ": 8560, "করিতে": 8561, "চাপায়": 8562, "অষ্টম": 8563, "সহায়তায়": 8564, "sl": 8565, "সেজন্য": 8566, "আনন্দের": 8567, "মেইন": 8568, "নবীর": 8569, "বাচ্চু": 8570, "বেসামরিক": 8571, "মাত্রার": 8572, "ম্যাক": 8573, "নৌকার": 8574, "উনার": 8575, "অভ্যাস": 8576, "কান্তি": 8577, "সাজে": 8578, "জঙ্গিদের": 8579, "নগ্ন": 8580, "কাজটা": 8581, "ফেডারেশন": 8582, "্যক্ত": 8583, "হাফে": 8584, "নিবন্ধিত": 8585, "ম্বুল": 8586, "ষো": 8587, "ক্যাম্পের": 8588, "ফিরোজ": 8589, "no": 8590, "পনি": 8591, "নাইজেরিয়া": 8592, "হার্ট": 8593, "ইতিমধ্যেই": 8594, "ভঙ্গি": 8595, "সঙ্গেই": 8596, "শো": 8597, "ভিয়েত": 8598, "জোন": 8599, "বাদি": 8600, "ঝামেলা": 8601, "ব্লা": 8602, "বিয়ে": 8603, "দণ্ডনীয়": 8604, "কূট": 8605, "ক্যালি": 8606, "অভিবাসীদের": 8607, "মহাসড়কে": 8608, "ভাষায়": 8609, "চারি": 8610, "ফ্রন্ট": 8611, "দূরত্ব": 8612, "কলো": 8613, "যাওয়ার": 8614, "প্রসাদ": 8615, "দেখছেন": 8616, "গোপ": 8617, "irl": 8618, "দর্শনের": 8619, "প্রার্থীরা": 8620, "উচ্ছ": 8621, "নামায": 8622, "হতাশা": 8623, "খ্যান": 8624, "বাস্তবায়নে": 8625, "রেলওয়ে": 8626, "মশ": 8627, "রাজশাহীর": 8628, "আরোপ": 8629, "ইজতে": 8630, "মুর্": 8631, "যেই": 8632, "ত্তরের": 8633, "ক্যালেন": 8634, "আর্জেন্টিনার": 8635, "মামা": 8636, "নেতিবাচক": 8637, "দিনটি": 8638, "ঊর্ধ্বতন": 8639, "ধর্মঘট": 8640, "বৈচিত্র্য": 8641, "পরিপূর্ণ": 8642, "থো": 8643, "ন্দিত": 8644, "এছাড়াও": 8645, "সুরমা": 8646, "কার্টুন": 8647, "আখ্যা": 8648, "প্রাইজ": 8649, "দ্বীপের": 8650, "বিষয়ক": 8651, "রক্ষক": 8652, "কাপুর": 8653, "আইফোন": 8654, "তৎপরতা": 8655, "মুহিত": 8656, "কোম্পানিটির": 8657, "ডেল": 8658, "ডেন্ট": 8659, "ম্যাগাজিন": 8660, "নাটকে": 8661, "মোদি": 8662, "তেমনই": 8663, "শ্বশুর": 8664, "ত্বক": 8665, "য্য": 8666, "সও": 8667, "Mon": 8668, "মওদুদ": 8669, "জ্যের": 8670, "প্রয়াত": 8671, "উপকূল": 8672, "টিকা": 8673, "কতটুকু": 8674, "কার্যক্রমের": 8675, "টুইটার": 8676, "খ্রী": 8677, "কান্ত": 8678, "নাসিম": 8679, "কয়েকদিন": 8680, "অনুমান": 8681, "পাবলিশিং": 8682, "আয়কর": 8683, "তল্লাশি": 8684, "ood": 8685, "ভিতর": 8686, "ডিএমপি": 8687, "সীমিত": 8688, "পর্দা": 8689, "ফ্রাঙ্ক": 8690, "বাঘা": 8691, "দৈর্ঘ্য": 8692, "অধিবেশ": 8693, "প্রভাষক": 8694, "মুটি": 8695, "রেস্টুর": 8696, "নাঈ": 8697, "মাতার": 8698, "যুক্তরাজ্যের": 8699, "কাশি": 8700, "with": 8701, "কমলা": 8702, "ওয়ার্ডে": 8703, "উন্নয়ন": 8704, "অবস্থায়": 8705, "cl": 8706, "জুম্": 8707, "মেয়েটি": 8708, "বাঙালির": 8709, "সম্প্রদায়": 8710, "আশ্চর": 8711, "রাশিয়ায়": 8712, "আধিপত্য": 8713, "হং": 8714, "রাজধানীতে": 8715, "মঠ": 8716, "নিক্স": 8717, "যেটি": 8718, "শতাব্": 8719, "স্পেন": 8720, "ld": 8721, "বিক্রেতা": 8722, "বিশ্রা": 8723, "ওন": 8724, "কোলে": 8725, "ব্লগে": 8726, "জেড": 8727, "you": 8728, "সম্মানিত": 8729, "অবৈধভাবে": 8730, "প্তি": 8731, "টেও": 8732, "আনিসুল": 8733, "সামর্থ": 8734, "আসেনি": 8735, "জাতের": 8736, "জমিদার": 8737, "একইভাবে": 8738, "বরগুনা": 8739, "ব্রু": 8740, "নজরে": 8741, "পনায়": 8742, "টুর্নামেন্টের": 8743, "ইপিএস": 8744, "ঝুল": 8745, "করাতে": 8746, "হলিউ": 8747, "বগুড়ার": 8748, "এলিফ": 8749, "সরল": 8750, "আর্কাইভ": 8751, "ভালোভাবে": 8752, "অনন্ত": 8753, "পুজো": 8754, "শিশুরা": 8755, "সুফি": 8756, "রাউজান": 8757, "দিচ্ছি": 8758, "ফিউ": 8759, "এডভোকেট": 8760, "শয": 8761, "নগরে": 8762, "ছালা": 8763, "আফগানিস্তানের": 8764, "সুরক্ষা": 8765, "মনিরুল": 8766, "ম্ব": 8767, "তরুণদের": 8768, "পেয়েছিলেন": 8769, "fuck": 8770, "জনগণকে": 8771, "রবীন্দ্রনাথের": 8772, "শুনেছি": 8773, "ড়াতে": 8774, "টুর্নামেন্টে": 8775, "বর্বর": 8776, "লড়াইয়ে": 8777, "রিট": 8778, "সমবায়": 8779, "অঙ্গী": 8780, "মানেই": 8781, "গ্র্যান্ড": 8782, "ফেই": 8783, "ভাংচুর": 8784, "ell": 8785, "pp": 8786, "দুদকের": 8787, "সমস্যায়": 8788, "জহি": 8789, "আরিফুল": 8790, "নিয়েছিল": 8791, "অর্থনীতির": 8792, "প্রহ": 8793, "গাধা": 8794, "ভাবা": 8795, "Bangladesh": 8796, "সন্ধ্য": 8797, "প্রতিনিধ": 8798, "প্রাথমিকভাবে": 8799, "হইয়া": 8800, "শীতের": 8801, "হারিয়েছে": 8802, "প্রতিদ্বন্দ্বিতা": 8803, "বিএ": 8804, "রাজনীতিবিদ": 8805, "সাইফ": 8806, "উপায়ে": 8807, "সাপে": 8808, "লিপ্ত": 8809, "আইস": 8810, "জিহাদি": 8811, "কণ্ঠে": 8812, "আঙ্গ": 8813, "ক্ষতিপূরণ": 8814, "পার্শ্ববর্তী": 8815, "জার্সি": 8816, "আক্রমণের": 8817, "ফকির": 8818, "চলাকালে": 8819, "সর্বত্র": 8820, "সাদ্": 8821, "পাইলট": 8822, "rom": 8823, "গভর্নর": 8824, "দুইজন": 8825, "অপমান": 8826, "বড়ুয়া": 8827, "ময়নাল": 8828, "মুখীন": 8829, "সংযো": 8830, "তুক": 8831, "গড়ার": 8832, "সত্যিকার": 8833, "সুজন": 8834, "বইটি": 8835, "কুশ": 8836, "সোনালী": 8837, "দেননি": 8838, "সূত্রের": 8839, "সরের": 8840, "পুনরু": 8841, "সাগরের": 8842, "গলের": 8843, "আপডেট": 8844, "বৃক্ষ": 8845, "লাগল": 8846, "মুমিন": 8847, "ডস": 8848, "য়োগ": 8849, "গণমাধ্যমে": 8850, "ান্ট": 8851, "ওসমানী": 8852, "শ্রমিকের": 8853, "লিয়ায়": 8854, "আঘাতে": 8855, "ফেলেন": 8856, "জিম্বাবুয়ের": 8857, "পর্দায়": 8858, "load": 8859, "বার্তায়": 8860, "পরিমান": 8861, "কফি": 8862, "ফিত": 8863, "বরখাস্ত": 8864, "বাস্তবে": 8865, "সৃষ্ট": 8866, "জ্যাক": 8867, "হিল": 8868, "জরত": 8869, "কর্ণফুলী": 8870, "ানোর": 8871, "স্তন": 8872, "রিয়াল": 8873, "নেপালের": 8874, "বিড়": 8875, "স্বপন": 8876, "লোকদের": 8877, "সুনির্দিষ্ট": 8878, "শাই": 8879, "মিঠ": 8880, "ঠান্ডা": 8881, "ওয়াব": 8882, "চলছিল": 8883, "সূর": 8884, "নিম": 8885, "এড়িয়ে": 8886, "ভক্তদের": 8887, "তুরস্ক": 8888, "আল্লাহ্": 8889, "ফর্মে": 8890, "কুড়িল": 8891, "প্রকল্পে": 8892, "মেয়ের": 8893, "ভাঙ্গা": 8894, "সিঁ": 8895, "ওঠেন": 8896, "সপ্তম": 8897, "জনীন": 8898, "রাতেই": 8899, "চাট": 8900, "রক্ষায়": 8901, "থন": 8902, "বাতিলের": 8903, "বহিষ্কার": 8904, "কুচি": 8905, "দৃষ্টিতে": 8906, "অপরের": 8907, "হিসেবেই": 8908, "হোয়াইট": 8909, "পড়াশোনা": 8910, "ঘন্টার": 8911, "ফেডারেশনের": 8912, "আচর": 8913, "বসতে": 8914, "রেই": 8915, "শ্রো": 8916, "স্টাই": 8917, "অগ্রা": 8918, "নেক": 8919, "কাপের": 8920, "জলের": 8921, "রাউন্ডার": 8922, "চলেছেন": 8923, "লুৎ": 8924, "দেও": 8925, "ফ্র্যা": 8926, "মুশফিকুর": 8927, "থায়": 8928, "মাতে": 8929, "পুর্": 8930, "মধ্যেও": 8931, "বেলার": 8932, "জ্জিত": 8933, "ছাত্রীকে": 8934, "সমন্বয়ে": 8935, "ock": 8936, "মুক": 8937, "নল": 8938, "মালয়েশিয়ার": 8939, "মোতায়েন": 8940, "আটটি": 8941, "ক্যাডার": 8942, "জিজ্ঞাসাবাদ": 8943, "মুস্তাফি": 8944, "করোনা": 8945, "এতদিন": 8946, "বোর্ডে": 8947, "আগ্রা": 8948, "ক্রমা": 8949, "সম্মুখীন": 8950, "স্টেশনে": 8951, "অনিয়ম": 8952, "দিল্লির": 8953, "ফাকিস্তানে": 8954, "জয়ে": 8955, "সেরে": 8956, "ট্রেনের": 8957, "পাড়ি": 8958, "হিং": 8959, "সনা": 8960, "বেনাপোল": 8961, "সর্বনিম্ন": 8962, "কানাই": 8963, "শিখে": 8964, "চেন": 8965, "য়ায়": 8966, "রাজু": 8967, "টেকনিক": 8968, "কর্তব্যরত": 8969, "বিশেষে": 8970, "বলবেন": 8971, "ব্রহ্": 8972, "আত্মসমর্": 8973, "ধর্মা": 8974, "গমন": 8975, "ন্তে": 8976, "য়নে": 8977, "une": 8978, "প্রদত্ত": 8979, "আহতদের": 8980, "খানেক": 8981, "বার্সেলোনা": 8982, "ক্লু": 8983, "জবান": 8984, "পাউ": 8985, "মোটামুটি": 8986, "ফী": 8987, "হিজ": 8988, "শোগ": 8989, "কথাবার্তা": 8990, "বিদ্বেষ": 8991, "ইউটিউব": 8992, "জর্জ": 8993, "ine": 8994, "একেক": 8995, "ফোরামের": 8996, "কাশেম": 8997, "রক্ষাকারী": 8998, "মোজাম্মেল": 8999, "আরাম": 9000, "সম্মতি": 9001, "অরু": 9002, "মেম্বার": 9003, "রিয়": 9004, "গণহত্যা": 9005, "অত্যাচার": 9006, "টেমপ্লেট": 9007, "গ্রেনে": 9008, "শপিং": 9009, "girl": 9010, "ইব্রাহিম": 9011, "উচ্চারণ": 9012, "ড্রাইভার": 9013, "থাই": 9014, "আর্টি": 9015, "উপস্থিতিতে": 9016, "অন্তর": 9017, "সংবিধানের": 9018, "Read": 9019, "ঘটি": 9020, "ঙ্কিত": 9021, "থিয়ে": 9022, "ম্যাচটি": 9023, "মাদ্রিদ": 9024, "রক্ষণ": 9025, "বসত": 9026, "বান্ধ": 9027, "পোস্টে": 9028, "মাদকদ্রব্য": 9029, "সাপ": 9030, "টুইটারে": 9031, "আপলোড": 9032, "এমএ": 9033, "কৃষকদের": 9034, "বর্ণা": 9035, "সাক্ষর": 9036, "বিজ্ঞানীরা": 9037, "বর্ষা": 9038, "ল্যান্": 9039, "প্রতিষ্ঠানটির": 9040, "প্রাঙ্গণে": 9041, "লালন": 9042, "মৌখিক": 9043, "এইচএসসি": 9044, "এমপিও": 9045, "চোরা": 9046, "শিরোনামে": 9047, "BD": 9048, "av": 9049, "লিস্ট": 9050, "অর্থোড": 9051, "কারক": 9052, "কিশোরীকে": 9053, "pm": 9054, "এন্ড্র": 9055, "টাইন": 9056, "কীর্তি": 9057, "কলার": 9058, "টুকরো": 9059, "সাম্রাজ্য": 9060, "প্রতিনিধিত্ব": 9061, "শিবগঞ্জ": 9062, "ক্ষী": 9063, "পাঠকদের": 9064, "অর্থোডক্স": 9065, "ইস্যুতে": 9066, "ট্রেনিং": 9067, "ous": 9068, "কর্মীকে": 9069, "উন্নীত": 9070, "আসিফ": 9071, "যুবরাজ": 9072, "অস্ট্রি": 9073, "উপলক্ষ্যে": 9074, "বোতল": 9075, "ওয়ের": 9076, "ধ্বনি": 9077, "মুনাফা": 9078, "ব্যাটালি": 9079, "পিরোজপুর": 9080, "খেলেছেন": 9081, "মারে": 9082, "গ্যাসের": 9083, "Mo": 9084, "ভাস্কর": 9085, "স্যামসাং": 9086, "আধ্যা": 9087, "এগো": 9088, "সামাদ": 9089, "হতাহত": 9090, "তোলেন": 9091, "we": 9092, "আগাম": 9093, "হিট": 9094, "মাইকেল": 9095, "চলন": 9096, "প্রচারের": 9097, "বাশার": 9098, "আইপিও": 9099, "ne": 9100, "ক্রেডিট": 9101, "দোর": 9102, "উপমহা": 9103, "জালিয়া": 9104, "ফালাহ": 9105, "অধ্যায়": 9106, "জখ": 9107, "অতীতের": 9108, "খালেদ": 9109, "ভ্যাট": 9110, "ইন্স্যুরেন্স": 9111, "মাত": 9112, "ফেরদৌস": 9113, "ইয়": 9114, "কোর্সে": 9115, "সর্বব্যাপী": 9116, "কানাডা": 9117, "বাড়ীর": 9118, "জনতার": 9119, "বিষয়টি": 9120, "বিষয়গুলো": 9121, "লেখায়": 9122, "মেশ": 9123, "আহম্মেদ": 9124, "দেশটি": 9125, "বিষয়টা": 9126, "প্রভাবিত": 9127, "বার্ট": 9128, "শতকের": 9129, "জিততে": 9130, "সাধু": 9131, "শওকত": 9132, "মেনু": 9133, "বিপাকে": 9134, "শাড়ি": 9135, "জানানোর": 9136, "প্রাণের": 9137, "সম্রাট": 9138, "কাপে": 9139, "তুলেছে": 9140, "জঙ্গিবাদ": 9141, "আমিরাত": 9142, "সময়ের": 9143, "ডেমোক্রে": 9144, "ন্ঠ": 9145, "শ্যামাঙ্গিনী": 9146, "বালক": 9147, "যতই": 9148, "লাভজনক": 9149, "চক্রের": 9150, "লুকিয়ে": 9151, "আতঙ্ক": 9152, "অবলম্বন": 9153, "আফগানিস্তান": 9154, "ঘড়ি": 9155, "ফাঁকা": 9156, "শ্চা": 9157, "মাগুরা": 9158, "থাকত": 9159, "জিট": 9160, "উৎপাদনের": 9161, "আজকাল": 9162, "ভূমিকায়": 9163, "ওয়ালা": 9164, "মালের": 9165, "res": 9166, "বাতাস": 9167, "স্কি": 9168, "ক্ষণে": 9169, "উদযা": 9170, "য়েন": 9171, "পাল্টে": 9172, "সংকেত": 9173, "মিডিয়ার": 9174, "আপত্তিকর": 9175, "মোগ": 9176, "ক্রোয়ে": 9177, "লড়াই": 9178, "ূর": 9179, "প্রাধান": 9180, "গান্ধী": 9181, "য়ণ": 9182, "ট্রলার": 9183, "স্থায়": 9184, "কয়েকটি": 9185, "মেট্রিক": 9186, "তিনিও": 9187, "হিজা": 9188, "তুর্কি": 9189, "শাস্তির": 9190, "গুলে": 9191, "বাহের": 9192, "ভাইরাল": 9193, "বিশেষজ্ঞরা": 9194, "শ্বে": 9195, "ভারি": 9196, "ফাঁসি": 9197, "ঘাঁটি": 9198, "হুমায়ূন": 9199, "পাওয়ায়": 9200, "চাইছে": 9201, "রাইড": 9202, "সিঙ্গাপুর": 9203, "ইও": 9204, "চিকিত্": 9205, "প্যাকে": 9206, "দেবার": 9207, "ম্পে": 9208, "কানাডার": 9209, "প্রস্তাবিত": 9210, "বহির্ভূত": 9211, "স্মিথ": 9212, "ফুলবাড়ী": 9213, "শব্দটি": 9214, "সন্ধানে": 9215, "তেলের": 9216, "পরপর": 9217, "চুরির": 9218, "পিটিয়ে": 9219, "জনপ্রিয়তা": 9220, "মাঝারি": 9221, "জব্": 9222, "আয়োজনের": 9223, "হেফাজত": 9224, "লোকজনের": 9225, "জসিম": 9226, "পার্কে": 9227, "সাহসী": 9228, "মুন্সীগঞ্জ": 9229, "কালীগঞ্জ": 9230, "শিল্পকলা": 9231, "য়েত": 9232, "সাইড": 9233, "খেলোয়াড়দের": 9234, "বারী": 9235, "দূরের": 9236, "ট্রিবিউ": 9237, "পরিচর": 9238, "রোগীদের": 9239, "ওয়েস্ট": 9240, "উইকিপি": 9241, "ial": 9242, "মূল্যবান": 9243, "চড়ে": 9244, "জহিরুল": 9245, "ইংরেজ": 9246, "ক্যালেন্ডার": 9247, "ভার্স": 9248, "আকর্ষণীয়": 9249, "খাস": 9250, "সন্তানকে": 9251, "বিপ্লবী": 9252, "চেয়েছেন": 9253, "উচ্চতা": 9254, "পাসপোর্টের": 9255, "ম্যানেজমেন্ট": 9256, "বলুন": 9257, "আকর্ষ": 9258, "চাপের": 9259, "মেটা": 9260, "আগমন": 9261, "সালাহ": 9262, "ার্থে": 9263, "আড্ডা": 9264, "ধরন": 9265, "পৃষ্ঠপোষ": 9266, "গণমাধ্যমের": 9267, "সদের": 9268, "ভাগের": 9269, "oy": 9270, "রও": 9271, "বারো": 9272, "উদার": 9273, "সৌম্য": 9274, "চলুন": 9275, "রাখি": 9276, "আওয়াজ": 9277, "টেক্সটাইল": 9278, "তাজুল": 9279, "মাহমুদুল": 9280, "আল্যার": 9281, "ঝুঁকিপূর্ণ": 9282, "রাঙামাটি": 9283, "নেদার": 9284, "পাঁচজন": 9285, "আধ্যাত্": 9286, "রায়ে": 9287, "থের": 9288, "শ্বিক": 9289, "দেশেই": 9290, "গ্রেনেড": 9291, "দারিদ্র্য": 9292, "সানা": 9293, "পল্টন": 9294, "জলবায়ু": 9295, "জিবি": 9296, "এটাকে": 9297, "ঋতু": 9298, "নিবে": 9299, "ব্যবহারে": 9300, "দেখায়": 9301, "প্যারামিটার": 9302, "নিউজিল্যান্ডের": 9303, "বপুর": 9304, "কোল": 9305, "pd": 9306, "নামার": 9307, "নিহতদের": 9308, "কিবের": 9309, "প্রতিপক্ষের": 9310, "কান্না": 9311, "তীরে": 9312, "জামে": 9313, "আইডিয়া": 9314, "MD": 9315, "pt": 9316, "indow": 9317, "ডিপির": 9318, "ক্যাশ": 9319, "কারাগার": 9320, "ক্ষ্": 9321, "কোয়ার্টার": 9322, "সুরে": 9323, "IS": 9324, "জামাত": 9325, "খানিকটা": 9326, "English": 9327, "হস্তক্ষেপ": 9328, "সাধন": 9329, "edia": 9330, "ার্সের": 9331, "পরিচ্ছন্ন": 9332, "কিয়ে": 9333, "জো": 9334, "দেখছি": 9335, "প্রেমী": 9336, "ইবাদ": 9337, "সেকেন্ড": 9338, "পুষ্": 9339, "মূখ": 9340, "শতাংশের": 9341, "লীগে": 9342, "আমেরিকায়": 9343, "শতাব্দী": 9344, "লিখা": 9345, "একরা": 9346, "মাসু": 9347, "সময়সূচি": 9348, "ঙ্কে": 9349, "ট্যাবলে": 9350, "সবে": 9351, "আশি": 9352, "মুফতি": 9353, "হুমকির": 9354, "মাহমুদউল্লাহ": 9355, "ঁট": 9356, "মফি": 9357, "এনেছে": 9358, "করতাম": 9359, "দালাল": 9360, "পারত": 9361, "মধুর": 9362, "প্রবীণ": 9363, "পশুর": 9364, "পেটে": 9365, "সভাপতির": 9366, "সঠিকভাবে": 9367, "tern": 9368, "য়ানো": 9369, "ট্য": 9370, "দুশ্চি": 9371, "প্রোগ্রামিং": 9372, "ভান্ড": 9373, "প্রান্তিকের": 9374, "মেনি": 9375, "সুইজার": 9376, "ইসলামকে": 9377, "নজির": 9378, "কামার": 9379, "অলরাউন্ডার": 9380, "পাতার": 9381, "নির্ণ": 9382, "য়াত": 9383, "ট্রেনে": 9384, "তাত্ত্বিক": 9385, "অনুরূপ": 9386, "দিবেন": 9387, "নিবেশ": 9388, "বসিয়ে": 9389, "ধৈর্য": 9390, "সেমিফাইনালে": 9391, "তত্ত্বাবধায়ক": 9392, "টনৈতিক": 9393, "চন্দ": 9394, "রেখেই": 9395, "কাঁদ": 9396, "বকর": 9397, "ence": 9398, "স্টল": 9399, "ফত": 9400, "ধারাবাহিকতায়": 9401, "জয়পুর": 9402, "খাশোগ": 9403, "জিপিএ": 9404, "িত্বের": 9405, "গোবিন্দ": 9406, "গৌর": 9407, "ন্তী": 9408, "চৈ": 9409, "বিন্যা": 9410, "ব্রিটেনে": 9411, "ফাতে": 9412, "গণভবনে": 9413, "দামি": 9414, "oun": 9415, "চমকে": 9416, "অপরাধী": 9417, "বিক্র": 9418, "গ্রিন": 9419, "নয়াপল্টনে": 9420, "মুসা": 9421, "প্রাধান্য": 9422, "উগ্র": 9423, "লেখেন": 9424, "হেলাল": 9425, "উপার্": 9426, "তত্": 9427, "ইনভে": 9428, "ঘরোয়া": 9429, "পড়েছে": 9430, "আনুমানিক": 9431, "AD": 9432, "প্রত্যাখ্যান": 9433, "খেলবে": 9434, "প্লাট": 9435, "দিঘ": 9436, "কাটাতে": 9437, "রায়হান": 9438, "Tim": 9439, "রহমত": 9440, "ক্রাইম": 9441, "আন্তঃ": 9442, "য়ার্স": 9443, "মদন": 9444, "লভ্যা": 9445, "চেম্বার": 9446, "বুঝিয়ে": 9447, "সঙ্ক": 9448, "বললো": 9449, "মহারা": 9450, "স্বীকারো": 9451, "তামূলক": 9452, "এলিফেন্ট": 9453, "Ad": 9454, "গ্রুপে": 9455, "দানী": 9456, "form": 9457, "ফ্যান": 9458, "ট্রাইব্যুনাল": 9459, "তৃণমূলের": 9460, "আনের": 9461, "হেফাজতে": 9462, "বাসিন্দ": 9463, "খের": 9464, "ব্যাটারি": 9465, "দায়ক": 9466, "ব্যবস্থায়": 9467, "উঠেছিল": 9468, "ভালবাসা": 9469, "স্বভাব": 9470, "রাখাইন": 9471, "ইডি": 9472, "শুয়ে": 9473, "মালামাল": 9474, "ইলেক্": 9475, "সেফ": 9476, "সাপেক্ষে": 9477, "মঈন": 9478, "শয়তান": 9479, "জং": 9480, "লভ্যাংশ": 9481, "গ্লাস": 9482, "উপেক্ষা": 9483, "ঝর": 9484, "মরে": 9485, "যাত্রীরা": 9486, "ইভিএম": 9487, "বাহু": 9488, "মৃতদেহ": 9489, "হামে": 9490, "জারা": 9491, "হজরত": 9492, "ank": 9493, "ফারা": 9494, "ক্যাপ্": 9495, "পিএবিএক্সঃ": 9496, "বন্যার": 9497, "মোবাইলে": 9498, "চলের": 9499, "ছাগল": 9500, "কয়লা": 9501, "ভৈ": 9502, "হয়রানি": 9503, "যজ্ঞ": 9504, "অ্যাকশন": 9505, "প্রক্রিয়ায়": 9506, "বিবৃতি": 9507, "সঞ্জ": 9508, "রাল": 9509, "হংকং": 9510, "হয়েছেন": 9511, "DU": 9512, "au": 9513, "নির্মাণে": 9514, "মেন্টের": 9515, "অনুদান": 9516, "ঘেরা": 9517, "রাষ্ট্রপতির": 9518, "কল্যাণে": 9519, "বিবিধ": 9520, "ব্যবধান": 9521, "বানাতে": 9522, "ধাওয়া": 9523, "গোপনে": 9524, "মাত্রায়": 9525, "টায়": 9526, "এমআই": 9527, "গ্রহে": 9528, "টেশন": 9529, "SC": 9530, "শুনানির": 9531, "দরে": 9532, "খেলেন": 9533, "Sc": 9534, "সেবী": 9535, "ফিল্ড": 9536, "চৌ": 9537, "ক্রিসমা": 9538, "চিঠিতে": 9539, "উরুগু": 9540, "চেস্টার": 9541, "ফুলে": 9542, "হাফিজ": 9543, "ব্যাবহার": 9544, "উৎসাহিত": 9545, "বাচ্চাদের": 9546, "লিপ": 9547, "নড়া": 9548, "সুন্নত": 9549, "রেখাচিত্র": 9550, "কোচিং": 9551, "কাজল": 9552, "কাফের": 9553, "নালা": 9554, "অবিশ্বাস": 9555, "আশ্চর্য": 9556, "গাঁজা": 9557, "শামসু": 9558, "অংশীদার": 9559, "আধ্যাত্মিক": 9560, "সিয়াল": 9561, "চ্ছেদের": 9562, "নির্মম": 9563, "দীঘি": 9564, "নেয়": 9565, "ভোরের": 9566, "ক্ষেপণাস্ত্র": 9567, "ঘ্র": 9568, "প্রাক্": 9569, "শার্ট": 9570, "মহাকাশ": 9571, "ইউনিয়নের": 9572, "ক্ষেত্রেও": 9573, "Tr": 9574, "হোসেনকে": 9575, "দাফন": 9576, "করিনি": 9577, "পেলাম": 9578, "উজ": 9579, "পুণ": 9580, "সরঞ্জা": 9581, "হাফেজ": 9582, "চায়": 9583, "ছিলে": 9584, "ক্যাথলিক": 9585, "সেটার": 9586, "নোয়া": 9587, "ET": 9588, "আমীর": 9589, "পাখির": 9590, "অ্যান্ড্রয়েড": 9591, "পেশার": 9592, "উচ্ছেদ": 9593, "উপাস": 9594, "নারায়ণগঞ্জের": 9595, "তোফায়েল": 9596, "আফ্রি": 9597, "পূর্ন": 9598, "মালার": 9599, "এমনটাই": 9600, "এখ": 9601, "গুলশ": 9602, "জেমস": 9603, "টেলিযোগাযোগ": 9604, "ok": 9605, "ধাম": 9606, "ON": 9607, "বিবর": 9608, "বর্ধমান": 9609, "আংশিক": 9610, "তঃ": 9611, "হেদ": 9612, "দলগুলোর": 9613, "ভাবের": 9614, "ownload": 9615, "শ্ন": 9616, "হয়েই": 9617, "শাজাহান": 9618, "অমর": 9619, "আগামীতে": 9620, "আঁকা": 9621, "দাদ": 9622, "বাস্তু": 9623, "সমালোচনার": 9624, "শরিক": 9625, "টার্গেট": 9626, "চারপাশে": 9627, "পারমাণ": 9628, "পরীক্ষার্থীদের": 9629, "লক্ষ্যমাত্রা": 9630, "ভোগী": 9631, "নিয়মের": 9632, "বালিকাকে": 9633, "রানার": 9634, "র্কে": 9635, "ওয়্যার": 9636, "জাজ": 9637, "ক্যালকুলে": 9638, "উপজাতি": 9639, "গর্ভব": 9640, "হুঁ": 9641, "ile": 9642, "চিকিৎসকের": 9643, "যেগুলো": 9644, "জীবীর": 9645, "রাক": 9646, "করু": 9647, "রনি": 9648, "ব্ল্যাক": 9649, "আজম": 9650, "বড়ো": 9651, "সন্ত্রাসীদের": 9652, "প্লাস": 9653, "যতটা": 9654, "বিস্ফোরণ": 9655, "তৃতীয়": 9656, "অস্ত্রোপ": 9657, "শ্যাম": 9658, "শপ": 9659, "বাবাকে": 9660, "টেকসই": 9661, "আশায়": 9662, "মং": 9663, "উদ্দী": 9664, "কূটনৈতিক": 9665, "সফলতা": 9666, "ঔষধ": 9667, "যুবককে": 9668, "কিংবদন্তি": 9669, "বর্জ্য": 9670, "হননি": 9671, "বিশেষভাবে": 9672, "আবেদীন": 9673, "উত্থা": 9674, "একাডেমির": 9675, "বর্ণের": 9676, "টানে": 9677, "সঙ্": 9678, "বঙ্গোপ": 9679, "অলিম্পিক": 9680, "দয়": 9681, "সরদার": 9682, "পরিষে": 9683, "খন্ড": 9684, "কেঁ": 9685, "ফরহাদ": 9686, "ঙ্গারা": 9687, "লতিফ": 9688, "জেম": 9689, "মৃত্যুবরণ": 9690, "গ্রেপ্তারের": 9691, "পারমাণবিক": 9692, "মালেক": 9693, "কনসার্": 9694, "পলিটন": 9695, "ঘটতে": 9696, "থ্যে": 9697, "ভাসান": 9698, "পটুয়াখালী": 9699, "কুন": 9700, "কাশন": 9701, "একটাই": 9702, "ওয়ান": 9703, "কূলে": 9704, "জিহাদ": 9705, "বৈদ্যু": 9706, "বলছিলেন": 9707, "সরেজমিনে": 9708, "তুষ": 9709, "গরিব": 9710, "প্রথমেই": 9711, "ব্যতিক্রম": 9712, "সিরিয়ার": 9713, "স্পেশাল": 9714, "ক্ষেপের": 9715, "ফেরেন": 9716, "আল্লামা": 9717, "যাদ": 9718, "সময়সূচী": 9719, "স্বীকারোক্তি": 9720, "জন্মে": 9721, "que": 9722, "লাক": 9723, "AN": 9724, "অভিনীত": 9725, "সহায়তা": 9726, "বর্ষে": 9727, "কোয়া": 9728, "নরম": 9729, "চ্যানেলে": 9730, "ইন্ডিয়ান": 9731, "রতন": 9732, "পয়": 9733, "শ্যক": 9734, "লেনদেনের": 9735, "বানির": 9736, "হইবে": 9737, "শিশ্ন": 9738, "জুনিয়র": 9739, "ডাবল": 9740, "প্রশাসকের": 9741, "মরিচ": 9742, "হিন্দি": 9743, "ওয়ার্ড": 9744, "বতী": 9745, "রাণী": 9746, "উদ্বুদ্ধ": 9747, "অ্যালবাম": 9748, "সক্ষমতা": 9749, "ভারতকে": 9750, "স্তরে": 9751, "ফ্রেন্ড": 9752, "যাও": 9753, "মোড়ে": 9754, "বাড়তি": 9755, "য়নগর": 9756, "টিসি": 9757, "রাজাকার": 9758, "সোমবার": 9759, "wh": 9760, "নেদারল্যান্ড": 9761, "ল্লি": 9762, "পূর্ত": 9763, "দশে": 9764, "ঝে": 9765, "এটিকে": 9766, "মহাসড়ক": 9767, "han": 9768, "স্বৈ": 9769, "Window": 9770, "জিতেছে": 9771, "হাওলাদার": 9772, "অঙ্গীকার": 9773, "রীতিমতো": 9774, "তিত": 9775, "সৈনিক": 9776, "গ্রীষ্": 9777, "কমিউনিস্ট": 9778, "পেনা": 9779, "বসন্ত": 9780, "পাচ্ছি": 9781, "সিনেমায়": 9782, "গার্মেন্ট": 9783, "অনুপ্রবেশ": 9784, "ভূমির": 9785, "ডিসেম্বরে": 9786, "ভূক্ত": 9787, "বাঙালী": 9788, "কারখানায়": 9789, "হারি": 9790, "ইইউ": 9791, "আঃ": 9792, "চুয়াল": 9793, "পর্যায়ে": 9794, "মনসুর": 9795, "রুপ": 9796, "মাদরাসা": 9797, "শেরে": 9798, "নাহার": 9799, "নামাজের": 9800, "এলেন": 9801, "জড়িত": 9802, "প্রতিনিধিঃ": 9803, "ষ্ট্রে": 9804, "দাউ": 9805, "একাউন্ট": 9806, "মিঠা": 9807, "সর্বপ্রথম": 9808, "স্বাস্থ্যের": 9809, "বদলি": 9810, "পেছানোর": 9811, "দিই": 9812, "কথাটা": 9813, "অক্সি": 9814, "গিজ": 9815, "মামু": 9816, "সেটাও": 9817, "প্ল্যান": 9818, "গর্ভবতী": 9819, "জেলের": 9820, "সংশোধিত": 9821, "ডিরেক্টর": 9822, "গিরি": 9823, "অ্যাপল": 9824, "পাইনি": 9825, "হাউজ": 9826, "মাঝা": 9827, "হূ": 9828, "জিএম": 9829, "বাঙ্গালী": 9830, "হুয়া": 9831, "তুলনামূলক": 9832, "হেক্টর": 9833, "লারা": 9834, "রিপাবলিক": 9835, "ঢ্য": 9836, "তাগি": 9837, "বজল": 9838, "লীতে": 9839, "টম": 9840, "দুন্নবী": 9841, "ভ্য": 9842, "ছবিটির": 9843, "খুঁত": 9844, "তিনের": 9845, "কমছে": 9846, "ডিপো": 9847, "ক্যালকুলেটর": 9848, "স্মর": 9849, "আফগানিস্তানে": 9850, "পারবো": 9851, "প্রিন্টার্স": 9852, "নীলফামারী": 9853, "সেক্টর": 9854, "CH": 9855, "বাড়ীতে": 9856, "নবা": 9857, "নিয়ন্ত্রিত": 9858, "কেন্দ্রীয়": 9859, "সমিন": 9860, "শতাব্দ": 9861, "প্রেমে": 9862, "গিয়েছেন": 9863, "ফোরেক্স": 9864, "আসামিদের": 9865, "শিয়া": 9866, "মুক্তিযুদ্ধে": 9867, "টেরি": 9868, "শাহাদাত": 9869, "দাঁড়": 9870, "লিয়ার": 9871, "জাগ": 9872, "ন্যূ": 9873, "অমিত": 9874, "গাড়ী": 9875, "টিভিতে": 9876, "মুক্তিযোদ্ধাদের": 9877, "ক্যাপ": 9878, "দ্বন্দ্ব": 9879, "গড়া": 9880, "নিক্ষেপ": 9881, "শতাব্দীর": 9882, "কর্মসূচী": 9883, "স্টেশনের": 9884, "পেমেন্ট": 9885, "তদারকি": 9886, "নেতাকে": 9887, "রামু": 9888, "মাধব": 9889, "ময়মনসিংহের": 9890, "যাতায়াত": 9891, "এদেশের": 9892, "সন্ধ্যার": 9893, "রাসুল": 9894, "ভীতি": 9895, "অবনতি": 9896, "বিয়ান": 9897, "ংরা": 9898, "এভি": 9899, "তাক": 9900, "মন্ত্রণালয়ে": 9901, "আয়োজন": 9902, "এসএমএস": 9903, "আজীবন": 9904, "যিশু": 9905, "Ex": 9906, "পশ্চিমে": 9907, "এ্যাড": 9908, "মৌসুম": 9909, "সহযোগিতার": 9910, "জখম": 9911, "নিয়েছি": 9912, "কোটি": 9913, "কৃতিতে": 9914, "ভান": 9915, "পেঁয়াজ": 9916, "খুনি": 9917, "আসছিল": 9918, "আসলাম": 9919, "ণ্ডার": 9920, "পুস্তক": 9921, "বাপ্": 9922, "মাদকের": 9923, "রিজার্ভ": 9924, "নামকরণ": 9925, "অন্তর্গত": 9926, "রক্তে": 9927, "আসলেই": 9928, "তালাক": 9929, "As": 9930, "আল্লাহু": 9931, "দামের": 9932, "উইলিয়া": 9933, "বাদশা": 9934, "ited": 9935, "রিপন": 9936, "ধুরী": 9937, "থী": 9938, "ডোর": 9939, "জিরো": 9940, "উদ্ভাব": 9941, "বসানো": 9942, "জনপ্রতিনিধি": 9943, "ফিফা": 9944, "ইলেকট্রনিক": 9945, "জটিলতা": 9946, "পেশায়": 9947, "জোরা": 9948, "হারানো": 9949, "কেড়ে": 9950, "ঘোষ": 9951, "সিগারে": 9952, "স্ট্রাই": 9953, "এমডি": 9954, "শংস": 9955, "অবসান": 9956, "Ph": 9957, "মিনাল": 9958, "বসতি": 9959, "বাথ": 9960, "ওয়াট": 9961, "বেলাল": 9962, "এক্সি": 9963, "সেক্ট": 9964, "আড়া": 9965, "নাইজেরিয়ায়": 9966, "Wh": 9967, "কতৃ": 9968, "বিধানিক": 9969, "স্পেস": 9970, "ার্ধে": 9971, "খসড়া": 9972, "উত্তরাধিকার": 9973, "ক্যের": 9974, "চিল": 9975, "রসূল": 9976, "ডিন": 9977, "কথাগুলো": 9978, "একাংশ": 9979, "স্বীকৃত": 9980, "কানী": 9981, "শিখতে": 9982, "এটাও": 9983, "বিতর": 9984, "কেয়ার": 9985, "পাগল": 9986, "শতাংশে": 9987, "নেত্রকোনা": 9988, "ঙ্কায়": 9989, "ন্যূনতম": 9990, "ভারসাম্য": 9991, "ফোর্ড": 9992, "ড়ের": 9993, "পাতায়": 9994, "পরিচয়": 9995, "ওভারের": 9996, "সবগুলো": 9997, "শারমিন": 9998, "পানা": 9999, "ata": 10000, "তক": 10001, "চেয়েছিলেন": 10002, "কোণ": 10003, "সংগঠিত": 10004, "সরো": 10005, "ওরি": 10006, "ভূমিকম্প": 10007, "ইড": 10008, "দাহ": 10009, "্রু": 10010, "মুসলিমদের": 10011, "ult": 10012, "সাংবিধানিক": 10013, "আসাদ": 10014, "মতিন": 10015, "ক্যাপ্টেন": 10016, "বরাবরই": 10017, "ুলার": 10018, "দাঁত": 10019, "নিদর্শন": 10020, "অনেকগুলো": 10021, "ল্ল": 10022, "পাধ্যায়ের": 10023, "মফ": 10024, "জিন্দা": 10025, "ভালোই": 10026, "মতিঝিল": 10027, "কমন": 10028, "বুদ্ধিজীবী": 10029, "জ্বর": 10030, "সিয়াম": 10031, "চলাচলের": 10032, "পারভী": 10033, "ষ্কৃত": 10034, "পরম": 10035, "back": 10036, "ডাকে": 10037, "বিট": 10038, "ব্যাক্তি": 10039, "আছ": 10040, "ফাঁকে": 10041, "স্টার্": 10042, "বিল্ডিং": 10043, "ফজলে": 10044, "কলম": 10045, "ঘুরতে": 10046, "প্রশ্নবিদ্ধ": 10047, "পোড়া": 10048, "দেলোয়ার": 10049, "ট্রাকের": 10050, "গোত্র": 10051, "অতীত": 10052, "অভিনয়ের": 10053, "অনুমতিতে": 10054, "আর্ট": 10055, "মুজা": 10056, "জনি": 10057, "চং": 10058, "কারীকে": 10059, "সিএসই": 10060, "কার্যকলা": 10061, "কৃষ্": 10062, "শিও": 10063, "থাকতেন": 10064, "রাসায়": 10065, "দিলো": 10066, "সাধারণের": 10067, "অসুবিধা": 10068, "পোষা": 10069, "পড়ি": 10070, "নির্বিশেষে": 10071, "ক্রমশ": 10072, "ইনে": 10073, "বদি": 10074, "দেশগুলো": 10075, "খবরের": 10076, "ঘাতক": 10077, "ধ্যক্ষ": 10078, "uk": 10079, "বেসরকারী": 10080, "কর্তৃপক্ষকে": 10081, "একত্র": 10082, "লিওনেল": 10083, "ওটা": 10084, "মারতে": 10085, "ফিলিস্তিনি": 10086, "লিস": 10087, "জেদ": 10088, "বৎ": 10089, "অভিহিত": 10090, "ইহ": 10091, "ধুয়ে": 10092, "টিউনার": 10093, "মোতাবেক": 10094, "সাথেই": 10095, "স্কাউ": 10096, "পৃষ্ঠার": 10097, "সোহাগ": 10098, "জুতা": 10099, "ছাড়াও": 10100, "পিপা": 10101, "পূর্বের": 10102, "নালের": 10103, "রিয়াদ": 10104, "প্রবাহিত": 10105, "এসোসিয়ে": 10106, "নামতে": 10107, "পেটের": 10108, "পাশেই": 10109, "ভল": 10110, "নবীগঞ্জ": 10111, "সেকেন্": 10112, "নিলাম": 10113, "উদ্ভিদ": 10114, "খানম": 10115, "পুঁজিবাজার": 10116, "সমকাল": 10117, "ভন": 10118, "আকতার": 10119, "সদস্যকে": 10120, "খতিয়ে": 10121, "দ্বীপপু": 10122, "সিদ্ধান্তে": 10123, "সোর্স": 10124, "ঘটনায়": 10125, "ফাস্ট": 10126, "ট্যাবলেট": 10127, "প্রদেশে": 10128, "কিছুতেই": 10129, "জনকন্ঠ": 10130, "শিল্পীদের": 10131, "রোল": 10132, "জানিয়েছেন": 10133, "পৌঁছে": 10134, "দস্যু": 10135, "লাগান": 10136, "জানিয়েছিলেন": 10137, "ইনার": 10138, "ঘোর": 10139, "ইরাকে": 10140, "কর্মশালা": 10141, "খুলনার": 10142, "গন্": 10143, "জেএম": 10144, "পাও": 10145, "সম্পাদকঃ": 10146, "্যকর": 10147, "ইসমাইল": 10148, "তোমাদের": 10149, "গৌরব": 10150, "নিশ্চয়তা": 10151, "বাসিন্দারা": 10152, "ইসরায়ে": 10153, "মোস্তা": 10154, "প্রাপ্তি": 10155, "মজুরি": 10156, "তানভীর": 10157, "অস্ত্রের": 10158, "জামায়াতে": 10159, "নবাব": 10160, "আজবে": 10161, "рз": 10162, "হয়তো": 10163, "হাসানের": 10164, "মেয়াদে": 10165, "সুন্": 10166, "লন্ডনের": 10167, "হাটি": 10168, "বাড়ে": 10169, "মাইন": 10170, "গুঞ্জন": 10171, "সংক্রম": 10172, "বসার": 10173, "ফয়সাল": 10174, "অপসারণ": 10175, "উখিয়া": 10176, "দুষ্ট": 10177, "মোবারক": 10178, "পিই": 10179, "ইন্টারনেটের": 10180, "য়ার্ড": 10181, "that": 10182, "টিক্যাল": 10183, "বাবদ": 10184, "লাফ": 10185, "নাগরিকের": 10186, "ফরো": 10187, "বন্য": 10188, "যৌথভাবে": 10189, "মুকুল": 10190, "নার্স": 10191, "অংশগ্রহণের": 10192, "উদ্ধারের": 10193, "ফেরে": 10194, "কক্সবাজারে": 10195, "কাহিনি": 10196, "ভাগা": 10197, "শব্দে": 10198, "নব্য": 10199, "সিরা": 10200, "জনার": 10201, "উন্মোচন": 10202, "ঘাতের": 10203, "শফিউল": 10204, "কতো": 10205, "স্তে": 10206, "মিয়া": 10207, "মায়": 10208, "করাও": 10209, "শর্তে": 10210, "বাটা": 10211, "দ্বীপে": 10212, "আটককৃত": 10213, "মন্ডল": 10214, "জানাচ্ছি": 10215, "ক্রমাগত": 10216, "igh": 10217, "রুটে": 10218, "গরিষ্ঠ": 10219, "নিয়মিত": 10220, "নেমেছে": 10221, "ছন্দ": 10222, "ear": 10223, "ভূঁইয়া": 10224, "প্রজন": 10225, "প্রিন্স": 10226, "কাসে": 10227, "সুখবর": 10228, "হেসে": 10229, "বৈশাখী": 10230, "আলোকে": 10231, "খুঁজতে": 10232, "এগিয়ে": 10233, "গোনা": 10234, "তাড়": 10235, "এবি": 10236, "মেষ": 10237, "প্রদীপ": 10238, "লারের": 10239, "বুড়ি": 10240, "গেছি": 10241, "ফেইসব": 10242, "হাসিনাকে": 10243, "তলার": 10244, "সোমা": 10245, "মালিকদের": 10246, "আগুনের": 10247, "কর্মসূচিতে": 10248, "মাহি": 10249, "ক্লুসিভ": 10250, "মজিদ": 10251, "হালিম": 10252, "দূতাবাস": 10253, "মার্কেটে": 10254, "আফগান": 10255, "তখনও": 10256, "চোট": 10257, "মাইক্রোসফট": 10258, "ক্যাচ": 10259, "চেয়ারম্যানের": 10260, "বিচারিক": 10261, "ক্রেতাদের": 10262, "উৎপাদিত": 10263, "উচিৎ": 10264, "সুইড": 10265, "প্রথমবার": 10266, "জাই": 10267, "দিলী": 10268, "দেওয়ায়": 10269, "শীলতা": 10270, "ময়নাতদন্তের": 10271, "from": 10272, "ক্কার": 10273, "উপপরিদর্শক": 10274, "পান্থ": 10275, "ফার্মা": 10276, "দুপুরের": 10277, "কাঁঠা": 10278, "অধিবেশনে": 10279, "ভূমিতে": 10280, "সমতা": 10281, "পুতিনের": 10282, "ান্তরের": 10283, "পরিবেশের": 10284, "কমানোর": 10285, "চ্ছদ": 10286, "সোসাইটি": 10287, "প্রশ": 10288, "সিন্ডি": 10289, "টাঙ্গাইলের": 10290, "ফিট": 10291, "লালমনিরহাট": 10292, "পরিত্যক্ত": 10293, "বৈদ্যুতিক": 10294, "আরবে": 10295, "চলাকালীন": 10296, "বিশুদ্ধ": 10297, "টহল": 10298, "আতি": 10299, "দর্শকের": 10300, "নবীজি": 10301, "ক্রিয়": 10302, "প্রাণি": 10303, "সন্ত্রাসের": 10304, "দুলাল": 10305, "পারতেন": 10306, "সংহতি": 10307, "ডেটা": 10308, "বাঙালিদের": 10309, "রেজিস্ট্র": 10310, "ধাক্কায়": 10311, "din": 10312, "বর্ডার": 10313, "Bengal": 10314, "মাহফি": 10315, "যন্ত্রপাতি": 10316, "জারের": 10317, "লাইফস্টাইল": 10318, "লুইস": 10319, "আইপিএ": 10320, "বনাম": 10321, "দুবার": 10322, "লিয়ান": 10323, "চ্যুয়াল": 10324, "ক্যারিয়ারের": 10325, "কক": 10326, "রিটার্নিং": 10327, "প্রযোজনা": 10328, "বাগানের": 10329, "বানিজ্য": 10330, "হেলিক": 10331, "সংবেদন": 10332, "খেলোয়া": 10333, "শিল্পীর": 10334, "মন্দিরের": 10335, "টাইপ": 10336, "ওঁ": 10337, "ঘণ্টায়": 10338, "দূষণ": 10339, "story": 10340, "ঞা": 10341, "কমিটিতে": 10342, "যন্ত্রণা": 10343, "পড়েছিল": 10344, "উড়ে": 10345, "েন্সে": 10346, "প্রয়ে": 10347, "প্রসূ": 10348, "লাইসেন্সের": 10349, "পেলেও": 10350, "মেট্রোপলিটন": 10351, "মেনের": 10352, "কলি": 10353, "অনুগ্রহ": 10354, "অহংকার": 10355, "লগ": 10356, "সিকিউরিটিজ": 10357, "এপ্রিলমে": 10358, "চরিত্রের": 10359, "উক": 10360, "জুনজুলাই": 10361, "রুট": 10362, "করাম": 10363, "ব্রিগে": 10364, "আত্মসা": 10365, "মার্চএপ্রিলমে": 10366, "মার্চএপ্রিলমেজুনজুলাই": 10367, "ছিটকে": 10368, "হেলিকপ্": 10369, "এনবিআর": 10370, "পণ্ড": 10371, "ফেস": 10372, "পদ্ধতির": 10373, "সামগ্রিক": 10374, "মনজুর": 10375, "ধসে": 10376, "ight": 10377, "pl": 10378, "কেক": 10379, "শেয়ারের": 10380, "নিরীক্ষা": 10381, "আসবেন": 10382, "লেখালেখ": 10383, "একাডেমিক": 10384, "সরঞ্জাম": 10385, "এও": 10386, "দপ্তরের": 10387, "অবহে": 10388, "স্পেনের": 10389, "কাপ্তা": 10390, "বাজেটে": 10391, "বিরক্ত": 10392, "দীপিকা": 10393, "থুন": 10394, "বিসিসিআই": 10395, "পড়ার": 10396, "বট": 10397, "ানন্দ": 10398, "মিয়ানমারে": 10399, "হেলথ": 10400, "রাস": 10401, "মুখোপাধ্যায়": 10402, "বিদ্যালয়": 10403, "পড়ল": 10404, "গৌরীপুর": 10405, "আচ্ছা": 10406, "নর্": 10407, "ব্যাটিংয়ে": 10408, "কামো": 10409, "শোভাযাত্রা": 10410, "নভেম্বরডিসেম্বর": 10411, "শরিয়া": 10412, "দাসী": 10413, "প্রজেক্ট": 10414, "প্রত্যেকটি": 10415, "বৈশ্বিক": 10416, "কাটি": 10417, "হাফ": 10418, "গৌতম": 10419, "নকে": 10420, "Mar": 10421, "কর্মশা": 10422, "কুড়িগ্রাম": 10423, "পিঠ": 10424, "ীহ": 10425, "মজুর": 10426, "বয়স": 10427, "লিনাক্স": 10428, "বাকী": 10429,
[...]
