{
  "version": "1.0",
  "truncation": null,
  "padding": null,
  "added_tokens": [
    {
      "id": 0,
      "content": "<unk>",
      "single_word": false,
      "lstrip": false,
      "rstrip": false,
      "normalized": false,
      "special": true
    },
    {
      "id": 1,
      "content": "<|endoftext|>",
      "single_word": false,
      "lstrip": false,
      "rstrip": false,
      "normalized": false,
      "special": true
    },
    {
      "id": 2,
      "content": "<|im_start|>",
      "single_word": false,
      "lstrip": false,
      "rstrip": false,
      "normalized": false,
      "special": true
    },
    {
      "id": 3,
      "content": "<|im_end|>",
      "single_word": false,
      "lstrip": false,
      "rstrip": false,
      "normalized": false,
      "special": true
    }
  ],
  "normalizer": {
    "type": "Sequence",
    "normalizers": [
      {
        "type": "NFC"
      }
    ]
  },
  "pre_tokenizer": {
    "type": "Sequence",
    "pretokenizers": [
      {
        "type": "Split",
        "pattern": {
          "String": "[^\\r\\n\\p{Bengali}\\p{L}\\p{Nd}]?[\\p{Bengali}\\u0981-\\u09C4\\u09C7\\u09C8\\u09CB\\u09CC\\u09CD\\p{L}]*[\\p{Bengali}\\u0981-\\u09C4\\u09C7\\u09C8\\u09CB\\u09CC\\u09CD\\p{L}]+|[^\\r\\n\\p{Bengali}\\p{L}\\p{Nd}]?[\\p{Bengali}\\u0981-\\u09C4\\u09C7\\u09C8\\u09CB\\u09CC\\u09CD\\p{L}]+[\\p{Bengali}\\u0981-\\u09C4\\u09C7\\u09C8\\u09CB\\u09CC\\u09CD\\p{L}]*|[০-৯]{1,4}| ?\\p{N}+| ?[^\\s\\p{Bengali}\\p{L}\\p{Nd}]+[\\r\\n/]*|\\s*[\\r\\n]+|\\s+(?!\\S)|\\s+"
        },
        "behavior": "Isolated",
        "invert": false
      },
      {
        "type": "ByteLevel",
        "add_prefix_space": false,
        "trim_offsets": true,
        "use_regex": false
      }
    ]
  },
  "post_processor": {
    "type": "ByteLevel",
    "add_prefix_space": true,
    "trim_offsets": false,
    "use_regex": true
  },
  "decoder": {
    "type": "ByteLevel",
    "add_prefix_space": true,
    "trim_offsets": true,
    "use_regex": true
  },
  "model": {
    "type": "BPE",
    "dropout": null,
    "unk_token": "<unk>",
    "continuing_subword_prefix": null,
    "end_of_word_suffix": null,
    "fuse_unk": false,
    "byte_fallback": false,
    "ignore_merges": false,
    "vocab": {
      "<unk>": 0,
      "<|endoftext|>": 1,
      "<|im_start|>": 2,
      "<|im_end|>": 3,
      "!": 4,
      "\"": 5,
      "#": 6,
      "%": 7,
      "&": 8,
      "'": 9,
      "(": 10,
      ")": 11,
      "*": 12,
      "+": 13,
      ",": 14,
      "-": 15,
      ".": 16,
      "/": 17,
      "0": 18,
      "1": 19,
      "2": 20,
      "3": 21,
      "4": 22,
      "5": 23,
      "6": 24,
      "7": 25,
      "8": 26,
      "9": 27,
      ":": 28,
      ";": 29,
      "<": 30,
      "=": 31,
      ">": 32,
      "?": 33,
      "@": 34,
      "A": 35,
      "B": 36,
      "C": 37,
      "D": 38,
      "E": 39,
      "F": 40,
      "G": 41,
      "H": 42,
      "I": 43,
      "J": 44,
      "K": 45,
      "L": 46,
      "M": 47,
      "N": 48,
      "O": 49,
      "P": 50,
      "Q": 51,
      "R": 52,
      "S": 53,
      "T": 54,
      "U": 55,
      "V": 56,
      "W": 57,
      "X": 58,
      "Y": 59,
      "Z": 60,
      "[": 61,
      "]": 62,
      "_": 63,
      "`": 64,
      "a": 65,
      "b": 66,
      "c": 67,
      "d": 68,
      "e": 69,
      "f": 70,
      "g": 71,
      "h": 72,
      "i": 73,
      "j": 74,
      "k": 75,
      "l": 76,
      "m": 77,
      "n": 78,
      "o": 79,
      "p": 80,
      "q": 81,
      "r": 82,
      "s": 83,
      "t": 84,
      "u": 85,
      "v": 86,
      "w": 87,
      "x": 88,
      "y": 89,
      "z": 90,
      "|": 91,
      "¡": 92,
      "¢": 93,
      "£": 94,
      "¤": 95,
      "¥": 96,
      "¦": 97,
      "§": 98,
      "¨": 99,
      "©": 100,
      "ª": 101,
      "«": 102,
      "¬": 103,
      "®": 104,
      "¯": 105,
      "°": 106,
      "²": 107,
      "³": 108,
      "¶": 109,
      "·": 110,
      "¸": 111,
      "¹": 112,
      "º": 113,
      "»": 114,
      "¼": 115,
      "½": 116,
      "¾": 117,
      "¿": 118,
      "Â": 119,
      "Ã": 120,
      "Å": 121,
      "à": 122,
      "â": 123,
      "ï": 124,
      "ð": 125,
      "ĉ": 126,
      "Ċ": 127,
      "Ġ": 128,
      "Ģ": 129,
      "ģ": 130,
      "Ĥ": 131,
      "ĥ": 132,
      "Ħ": 133,
      "ħ": 134,
      "Ĩ": 135,
      "ĩ": 136,
      "Ī": 137,
      "ī": 138,
      "Ĭ": 139,
      "ĭ": 140,
      "Į": 141,
      "į": 142,
      "İ": 143,
      "ı": 144,
      "Ĳ": 145,
      "ĳ": 146,
      "Ĵ": 147,
      "ĵ": 148,
      "Ķ": 149,
      "ķ": 150,
      "ĸ": 151,
      "Ĺ": 152,
      "ĺ": 153,
      "Ļ": 154,
      "ļ": 155,
      "Ľ": 156,
      "ľ": 157,
      "Ŀ": 158,
      "ŀ": 159,
      "Ł": 160,
      "ł": 161,
      "Ń": 162,
      "à¦": 163,
      "à§": 164,
      "Ġà¦": 165,
      "à¦¾": 166,
      "à¦¾à¦": 167,
      "à§ĩ": 168,
      "à§į": 169,
      "à§įà¦": 170,
      "à¦¿": 171,
      "à¦°": 172,
      "à¦¿à¦": 173,
      "à§ĩà¦": 174,
      "à§ĩĠà¦": 175,
      "à¦¼": 176,
      "à¦¨": 177,
      "¯à¦¼": 178,
      "à¦°Ġà¦": 179,
      "à¦¾à¦°": 180,
      "à§ģ": 181,
      "à¦ķ": 182,
      "à¦²": 183,
      "à¦¾Ġà¦": 184,
      "à§ĭ": 185,
      "à¦¤": 186,
      "à¦¬": 187,
      "à¦®": 188,
      "à§ĩà¦°Ġà¦": 189,
      "à§įà¦°": 190,
      "à¥": 191,
      "à¥¤": 192,
      "Ġà¦ķ": 193,
      "à§įà¦¯": 194,
      "à§Ģ": 195,
      "à¦¯à¦¼": 196,
      "Ġà¦¸": 197,
      "à¦¾à¦¨": 198,
      "à¦¸": 199,
      "Ġà¦¬": 200,
      "Ġà¦ª": 201,
      "à¦¦": 202,
      "à§įà¦¤": 203,
      "à¦ª": 204,
      "Ġà¦ı": 205,
      "Ġà¦®": 206,
      "à¦Ł": 207,
      "Ġà¦Ĩ": 208,
      "à§ĩà¦¨": 209,
      "Ġà¦¨": 210,
      "à¦°à§įà¦": 211,
      "Ġà¦¦": 212,
      "à¦¾à¦²": 213,
      "à¦¾à¦®": 214,
      "à¦Ĺ": 215,
      "Ġà¦ķà¦°": 216,
      "Ġà§": 217,
      "Ġà¦¹": 218,
      "à¦¿à¦¨": 219,
      "à¦¿à¦ķ": 220,
      "à¦¿à¦¯à¦¼": 221,
      "à¦¾à¦¯à¦¼": 222,
      "à¦¾à¦ķ": 223,
      "à¦¹": 224,
      "à¦¿à¦¤": 225,
      "Ġà¦¤": 226,
      "à¦ĩ": 227,
      "à§įà¦Ł": 228,
      "à¦ľ": 229,
      "Ġà¦ľ": 230,
      "à§ĩà¦Ľ": 231,
      "Ġà¦ħ": 232,
      "¡à¦¼": 233,
      "à§įà¦¬": 234,
      "à§ĩà¥¤": 235,
      "à¦¾à¦ĩ": 236,
      "à¦Ĥ": 237,
      "à¦¾à¦¤": 238,
      "à¦¾à¦¬": 239,
      "à¦¾à¦¦": 240,
      "à¦¾à¦¸": 241,
      "à§ģà¦²": 242,
      "âĢ": 243,
      "à¦¿à¦²": 244,
      "à¦£": 245,
      "à§¦": 246,
      "à§ĩà¦ķ": 247,
      "Ġà¦°": 248,
      "à¦¶": 249,
      "à§ĩà¦¶": 250,
      "Ġà¦ªà§įà¦°": 251,
      "à§ĩĠà¦ª": 252,
      "à¦Ń": 253,
      "à§ĩà¦²": 254,
      "à§įà¦·": 255,
      "à¦§": 256,
      "Ġà¦¶": 257,
      "à¦ļ": 258,
      "à§ĩĠà¦¬": 259,
      "à¦¾à¦ľ": 260,
      "à¦¨à§įà¦": 261,
      "Ġà¦ĵ": 262,
      "§à§": 263,
      "à§ĩĠà¦Ĩ": 264,
      "Ġà¦¬à¦¿à¦": 265,
      "à¦Łà¦¿": 266,
      "à¦¡à¦¼": 267,
      "à§ĩĠà¦¸": 268,
      "Ġà¦Ĺ": 269,
      "à¦Ľ": 270,
      "à§ĥ": 271,
      "Ġà¦¯": 272,
      "à¦¾à¦¹": 273,
      "à¦¾à¦ª": 274,
      "à§Ĥ": 275,
      "Ġà¦ļ": 276,
      "Ġ(": 277,
      "à§įà¦ª": 278,
      "à§ĩà¦ĩ": 279,
      "à¦ĸ": 280,
      "à§ĩà¦°Ġà¦¸": 281,
      "à¦¾à¦Ĺ": 282,
      "à¦°à¦¿à¦": 283,
      "Ġà¦ĩ": 284,
      "à¦ĵ": 285,
      "Ġà¦Ń": 286,
      "à§ģà¦°": 287,
      "Ġà¦«": 288,
      "à¥¤Ċ": 289,
      "à§ĩĠà¦ı": 290,
      "Ġà¦ī": 291,
      "à¦¿à¦°Ġà¦": 292,
      "à§ĭà¦¨": 293,
      "à¦¥": 294,
      "à§ĩĠà¦¨": 295,
      "à¦ķà§įà¦·": 296,
      "Ġà¦¸à¦®": 297,
      "Ġà¦²": 298,
      "Ļà§įà¦": 299,
      "à¦¿à¦¸": 300,
      "à¦¾Ġà¦¹": 301,
      "à¦¾à¦°à§įà¦": 302,
      "à§ĩĠà¦¦": 303,
      "à¦¿à¦°": 304,
      "à§ĩĠà¦ķ": 305,
      "à¦«": 306,
      "à¦·": 307,
      "à¦¾Ġà¦ķ": 308,
      "à¦¨à§įà¦¯": 309,
      "à¦¨à§įà¦¤": 310,
      "à§ĩà¦°": 311,
      "à¦¿à¦¶": 312,
      "à§§à§": 313,
      "Ġà¦ĸ": 314,
      "âĢĻ": 315,
      "à¦¾à¦¡à¦¼": 316,
      "Ġà¦ıà¦ķ": 317,
      "à§ĩà¦ĸ": 318,
      "à§ģà¦¨": 319,
      "Ļà§įà¦Ĺ": 320,
      "à§ĩà¦Ł": 321,
      "à¦¾Ġà¦¬": 322,
      "à§ĩà¦¯à¦¼": 323,
      "Ġà¦¹à¦¯à¦¼": 324,
      "Ġà¦Ľ": 325,
      "à¦¾à¦ļ": 326,
      "à¦¾à¦¶": 327,
      "à§ĭà¦Ĺ": 328,
      "à¦¿à¦¬": 329,
      "Ġà¦¥": 330,
      "Ġà§¨": 331,
      "à§įà¦¥": 332,
      "à¦¦à§įà¦": 333,
      "à§ģà¦ķ": 334,
      "à§įà¦²": 335,
      "à§ĩĠà¦¹": 336,
      "à§ĩà¦°Ġà¦ª": 337,
      "à§ĩà¦°Ġà¦®": 338,
      "à¦Ĩ": 339,
      "à¦¿à¦Ł": 340,
      "à§ĩĠà¦¯": 341,
      "à§ĩĠà¦¤": 342,
      "à§Į": 343,
      "à§ĩĠà¦®": 344,
      "à§ĩà¦¤": 345,
      "à¦ı": 346,
      "à§ĩà¦°Ġà¦¬": 347,
      "à¦°à§įà¦®": 348,
      "à¦¬à¦Ĥ": 349,
      "à§ĩà¦°Ġà¦ķ": 350,
      "à¦¿à¦ľ": 351,
      "à¦¾Ġà¦ª": 352,
      "à¦¾à¦ģ": 353,
      "à¦°à§įà¦¬": 354,
      "Ġà¦Ł": 355,
      "à¦¿à¦®": 356,
      "à¦¿à¦¦": 357,
      "à¦¤à¦¿": 358,
      "à¦Ļà§įà¦Ĺ": 359,
      "à§ģà¦°Ġà¦": 360,
      "Ġà¦Ĩà¦®": 361,
      "à§ĩà¦Ľà§ĩà¦¨": 362,
      "à§ĩà¦Ľà§ĩà¥¤": 363,
      "à¦¾à¦§": 364,
      "à§¨": 365,
      "à¦¾à¦Ł": 366,
      "à¦ķà¦¾à¦°": 367,
      "ĠâĢ": 368,
      "à§ĩà¦®": 369,
      "à¥¤Ġà¦ı": 370,
      "à¦¾Ġà¦¸": 371,
      "à¦¯": 372,
      "Ġà¦¬à§įà¦¯": 373,
      "ŀà§įà¦": 374,
      "à§ĩà¦¬": 375,
      "à§Ģà¦¯à¦¼": 376,
      "Ġà¦¡": 377,
      "à§ĩĠà¦Ĺ": 378,
      "Ġà¦¸à¦Ĥ": 379,
      "à¦¬à¦¾à¦°": 380,
      "Ġà¦¦à§ĩà¦¶": 381,
      "à¦¾à¦ĵ": 382,
      "à¦¾Ġà¦ķà¦°": 383,
      "à¦¡": 384,
      "à§«": 385,
      "à§ĩà¦·": 386,
      "Ġà¦ıà¦¬à¦Ĥ": 387,
      "à§©": 388,
      "Ġà¦¬à¦²": 389,
      "Ġà¦ªà¦°à¦¿à¦": 390,
      "ĠÂ": 391,
      "à§ĩ,": 392,
      "à§ĩà¦ĵ": 393,
      "à§ĩĠà¦ħ": 394,
      "à§įà¦¸": 395,
      "à¦¨à§įà¦¦": 396,
      "à¦¿à¦ª": 397,
      "à§Ģà¦°Ġà¦": 398,
      "à§įà¦¡": 399,
      "à§įà¦Ľ": 400,
      "à§ģà¦®": 401,
      "à¦¯à¦¼à¦¾à¦°": 402,
      "à¦¦à§įà¦§": 403,
      "01": 404,
      "à§ĩà¦¦": 405,
      "Ġà¦¥à§ĩà¦ķ": 406,
      "à¦¾,": 407,
      "Ġà§§à§": 408,
      "à¦ĥ": 409,
      "à¦¾Ġà¦¹à¦¯à¦¼": 410,
      "à§ĩĠà¦ľ": 411,
      "à¦ŀà§įà¦": 412,
      "Ġà¦ħà¦¨": 413,
      "..": 414,
      "Ġ2": 415,
      "à¦¾Ġà¦¨": 416,
      "Ġà¦ªà¦°": 417,
      "à§ĥà¦¤": 418,
      "à¦¾à¥¤": 419,
      "Ńà¦¾à¦Ĺ": 420,
      "à¦¾à¦ĸ": 421,
      "Ġà¦¤à¦¾à¦°": 422,
      "à¦°à§įà¦¤": 423,
      "à¦¸à§įà¦¥": 424,
      "à§ĩĠà¦ªà¦¾à¦°": 425,
      "à§įà¦®": 426,
      "à§ĩà¦¸": 427,
      "à¦¿à¦Ĥ": 428,
      "à¦¨à¦¿": 429,
      "à§ĩà¦¨,": 430,
      "à¦¿à¦·": 431,
      "à§ĩĠà¦°": 432,
      "Ġ201": 433,
      "à¦®à¦¾à¦¨": 434,
      "à§įà¦¨": 435,
      "à§ĩĠà¦ļ": 436,
      "à¦ľà¦¨": 437,
      "à§įà¦°à§Ģ": 438,
      "à§Ī": 439,
      "Ġà¦ķà¦°à¦¤": 440,
      "à§ĩà¦°Ġà¦ľ": 441,
      "à§įà¦¯à¦¾à¦¨": 442,
      "Ġà¦¨à¦¿": 443,
      "à§ĩĠà¦ªà§įà¦°": 444,
      "à¦¾Ġà¦¦": 445,
      "à¦¾Ġà¦Ĩ": 446,
      "Ġà¦®à§ĭ": 447,
      "à¦§à§įà¦¯": 448,
      "Ġà§¨à§¦": 449,
      "à¦¤à§įà¦¯": 450,
      "à¦¾à¦°à¦£": 451,
      "à¦¾à¦®à§Ģ": 452,
      "à¦¾Ġà¦¯": 453,
      "à§ģà¦ķà§įà¦¤": 454,
      "à§ĩà¦ľ": 455,
      "ĠâĢĺ": 456,
      "à§ĩà¦°Ġà¦ħ": 457,
      "à¦ī": 458,
      "à¦¿à¦¨à¦¿": 459,
      "à§ĩĠà¦ıà¦ķ": 460,
      "à§Ģà¦¨": 461,
      "à¦ªà§įà¦°": 462,
      "à§ģà¦·": 463,
      "à§ĭà¦®": 464,
      "Ġà¦ľà¦¾à¦¨": 465,
      "Ġà¦§": 466,
      "à¦ŀà§įà¦ľ": 467,
      "à§įà¦¦": 468,
      "à¦ķà§įà¦¤": 469,
      "à§®": 470,
      "à¦¾Ġà¦®": 471,
      "à§ģà¦¬": 472,
      "à¦ĸà¦¨": 473,
      "à§ĩà¦°Ġà¦¦": 474,
      "à¦¸à§įà¦¤": 475,
      "à§ª": 476,
      "à¦¬à§ĩà¥¤": 477,
      "à¦¾à¦Ľ": 478,
      "à§įà¦°à¦¾à¦®": 479,
      "à¦¾à¦£": 480,
      "à¦¾à¦¨à§įà¦¤": 481,
      "Ġà¦¨à¦¿à¦¯à¦¼": 482,
      "à¦ł": 483,
      "à¦¾à¦°Ġà¦¸": 484,
      "à§ĩà¦¨à¥¤": 485,
      "à¦¤à§įà¦¤": 486,
      "à§ĩà¦°Ġà¦¨": 487,
      "ıà¦ķ": 488,
      "Ġà¦īà¦ª": 489,
      "Ġà¦Ĩà¦²": 490,
      "à§¯": 491,
      "à§įà¦ł": 492,
      "Ġà§§": 493,
      "à§İ": 494,
      "à¦¤à§įà¦°": 495,
      "à¦°à§įà¦¬à¦¾à¦ļ": 496,
      "¢à¦¾à¦ķ": 497,
      "à§¦à§¦": 498,
      "à¦ĵà¦¯à¦¼": 499,
      "Ġà¦ľà¦¨": 500,
      "Ġà¦ĺ": 501,
      "à¦¸à¦²": 502,
      "à§Ń": 503,
      "à§ĭà¦Ł": 504,
      "à¦¿à¦Ľ": 505,
      "à§ĭà¦ķ": 506,
      "Ġà¦¦à§ģ": 507,
      "à¦¾Ġà¦ľ": 508,
      "Ġà¦ªà§įà¦°à¦¤": 509,
      "à¦¨à§įà¦§": 510,
      "à§ĩĠà¦¶": 511,
      "à§ĭà¦°": 512,
      "Ġà¦¸à¦®à¦¯à¦¼": 513,
      "à§įà¦ķ": 514,
      "ĠĠà¦¦à§ĩà¦¶": 515,
      "à¦¾à¦«": 516,
      "à§§": 517,
      "à§įà¦¯à¦¾à¦²": 518,
      "Ġà§¨à§¦à§§à§": 519,
      "à¦°à§įà¦¬à¦¾à¦ļà¦¨": 520,
      "à¦¾à¦¥": 521,
      "à¦¾à¦Ĥ": 522,
      "à¦¾à¦®à¦²": 523,
      "à§¬": 524,
      "à§ĩĠà¦ī": 525,
      "à¦°Ġà¦ª": 526,
      "Ġà¦ıà¦ĩ": 527,
      "à§ĩà¦°Ġà¦ªà§įà¦°": 528,
      "à¦¾Ġà¦ħ": 529,
      "à§ĭà¦²": 530,
      "à¦®à¦¨": 531,
      "à¦¿,": 532,
      "Ġ:": 533,
      "à§ĭâĢĻ": 534,
      "à¦¿à¦ī": 535,
      "à§ģà¦¦": 536,
      "à¦¨à¦¾à¦°": 537,
      "à¦§à¦¾à¦¨": 538,
      "à¦ķà¦¾à¦²": 539,
      "Ġà§©": 540,
      "à§ĭâĢĻà¦Ĩ": 541,
      "Ġà¦Ĩà¦ª": 542,
      "à§įà¦¬à¦°": 543,
      "¥à¦¾à¦ķ": 544,
      "à§Ģà¦¦": 545,
      "Ġà¦¬à¦¿à¦Ńà¦¾à¦Ĺ": 546,
      "Ġà¦¦à¦¿à¦¯à¦¼": 547,
      "à§ĩĠà¦Ĩà¦®": 548,
      "à¦¿à¦¯": 549,
      "à§ĩĠà¦¬à¦²": 550,
      ",Ġà¦¸": 551,
      "à¦¿à¥¤": 552,
      "à¦¿à¦ı": 553,
      "à§įà¦Łà§įà¦°": 554,
      "à¦¾Ġà¦ªà§įà¦°": 555,
      "à§ĩĠà¦Ń": 556,
      "à¦¾Ġà¦ı": 557,
      "à§ĭà¦§": 558,
      "à¦¬à§įà¦¯": 559,
      "à§įà¦¯à¦®": 560,
      "à§Ģà¦Ĺ": 561,
      "Ġà¦Ĩà¦°Ġà¦": 562,
      "Ġà¦Ĩà¦Ĺ": 563,
      "à§ģà¦°à§ģ": 564,
      "Ġà¦¸à¦®à§įà¦ª": 565,
      "à¦¿à¦¹": 566,
      "à¦¾à¦ĩà¦²": 567,
      "Ġà¦ķà§ĭ": 568,
      "à¦ªà§įà¦¤": 569,
      "à§Ģà¦¤": 570,
      "à¦¿à¦¨à§įà¦¤": 571,
      "à§Ĥà¦²": 572,
      "à¦¨à§įà¦¤à§įà¦°": 573,
      "eĠ": 574,
      "à¦°à¦ķà¦¾à¦°": 575,
      "à¦¾à¦ľà¦¾à¦°": 576,
      "Ġ-": 577,
      "à¦¾à¦°Ġà¦ķà¦°": 578,
      "à§ģà¦ĸ": 579,
      "à¦ķà¦¾à¦¶": 580,
      "à¦®à§įà¦ª": 581,
      "à§ĩà¦°Ġà¦ľà¦¨à§įà¦¯": 582,
      "à¦¿à¦§": 583,
      "à¦ªà§ģà¦°Ġà¦": 584,
      "à¦°à§įà¦¥": 585,
      "à¦Ńà¦¾à¦¬": 586,
      "à§ĩà¦°Ġà¦Ĩ": 587,
      "à§įà¦ļ": 588,
      "à¦¿à¦¯à¦¼à¦¾à¦°": 589,
      "à¥¤Ġà¦¤": 590,
      "Ġà¦®à¦¾à¦¨": 591,
      "à§ĭà¦¨à§ĭ": 592,
      "à¦¦à§įà¦¦": 593,
      "à¦¾à¦ī": 594,
      "Ġà¦¬à¦¿à¦¶": 595,
      "Ġà¦Ľà¦¿à¦²": 596,
      "à¦¬à¦¾à¦¦": 597,
      "à§Ģà¦¬": 598,
      "à¦¸à§įà¦¯": 599,
      "à§ĩà¦¶à¦¨": 600,
      "à¦¨à§įà¦¡": 601,
      "à¦¿à¦Ľà§ģ": 602,
      "à§ĭà¦¸": 603,
      "Ġà¦¦à¦²": 604,
      "à¦ľà§ĩà¦²": 605,
      "à¦¬à¦¸à§įà¦¥": 606,
      "Ġà¦ķà¦®": 607,
      "...": 608,
      "à§ĩà¦ª": 609,
      "à¦¬à¦¹": 610,
      "à¦¿Ġà¦¸": 611,
      "à¦°à¦£": 612,
      "à¦¿à¦Ń": 613,
      "à§ĩà¦¡": 614,
      "à¦¤à§ĩĠà¦ªà¦¾à¦°": 615,
      "à¦¾à¦¤à§įà¦°": 616,
      "ĠÂ·": 617,
      "à§įà¦ŀ": 618,
      "à¦¿à¦¡": 619,
      "à¦¨Ġà¦ķà¦°": 620,
      "à¦²à¦¾à¦ķ": 621,
      "à§ĩà¦Ľà¦¿à¦²": 622,
      "à¦ļà§įà¦Ľ": 623,
      "à¦¨à§įà¦¨": 624,
      "Ġ(1": 625,
      "à§ĩà¦°Ġà¦®à¦§à§įà¦¯": 626,
      "in": 627,
      "à¦°Ġà¦¸": 628,
      "à§ģà¦²à¦¿à¦¶": 629,
      "à§ĩà¦¯à¦¼à¦¾à¦°": 630,
      "à¦¾-": 631,
      "à§ĭà¦¬": 632,
      "Ġà§«": 633,
      "¥à§ĩà¦ķ": 634,
      "à¦¾Ġà¦Ĺ": 635,
      "à§ĩà¦°Ġà¦ī": 636,
      "Ġà¦¦à¦¿à¦¨": 637,
      "à¦¿à¦ķà§įà¦·": 638,
      "à¦·à§įà¦Ł": 639,
      "à¦¿à¦¨à§įà¦¤à§ģ": 640,
      "Ġà¦¸à¦¾à¦²": 641,
      "Ġà¦Ĩà¦¸": 642,
      "Ġà¦ıà¦ķà¦Łà¦¿": 643,
      "à¦¾à¦ĵà¦¯à¦¼": 644,
      "à¦¿Ġà¦ķà¦°": 645,
      "à¦¾Ġà¦¤": 646,
      "à§ĩà¦¨à§įà¦Ł": 647,
      "ļà¦¾à¦²": 648,
      "à¦Ĺà§ģà¦²": 649,
      "Ġà¦¹à¦²": 650,
      "à¦¾à¦¦à¦ķ": 651,
      "à¦ģ": 652,
      "à§ĩĠà¦«": 653,
      "à¦°Ġà¦ķ": 654,
      "à¦¾à¦°Ġà¦¦": 655,
      "Ġà¦¬à¦Ľ": 656,
      "à¦°Ġà¦¬": 657,
      "à¦¾Ġà¦ĵ": 658,
      "à§ĭà¦°à§įà¦": 659,
      "à§įà¦°à§ģ": 660,
      "Ġà§¦": 661,
      "Ġà¦ĵà¦¯à¦¼": 662,
      "à¦¿à¦ĵ": 663,
      "à§ģà¦¦à§įà¦§": 664,
      "à¦ķà§įà¦°": 665,
      "à¥¤Ġà¦ķ": 666,
      "à§Ģà¦°": 667,
      "à¦Łà¦¨": 668,
      "à¦°à§įà¦·": 669,
      "Ġà¦ľà¦¨à§įà¦¯": 670,
      "Ġà¦¬à¦²à§ĩà¦¨,": 671,
      "à¦¸à¦²à¦¾à¦®": 672,
      "Ġà¦ķà¦°à§įà¦®": 673,
      "Ġà¦ħà¦Ń": 674,
      "à§ĩà¥¤Ċ": 675,
      "à§ģà¦Ł": 676,
      "à¦¾Ġà¦°": 677,
      "à¥¤Ġà¦¸": 678,
      "Ġà¦¥à¦¾à¦ķ": 679,
      "Ġà¦¨à¦¿à¦°à§įà¦¬à¦¾à¦ļà¦¨": 680,
      "à¦ĺ": 681,
      "à¦®à¦¯à¦¼": 682,
      "Ġà¦¨à¦¾à¦®": 683,
      "à¦¾à¦ĩà¦Ł": 684,
      "à¦°Ġà¦Ĩ": 685,
      "à¦ķà¦²": 686,
      "à¦¯à¦¼à¦¨": 687,
      "à¦¸à¦¬": 688,
      "Ġà§ª": 689,
      "à¦¾à¦§à§įà¦¯à¦®": 690,
      "Ġà¦ªà¦°à¦¿à¦¬": 691,
      "à¦¾à¦°Ġà¦®": 692,
      "à¦¦à¦¾à¦¨": 693,
      "à¦°à§įà¦¶": 694,
      "à¦¾à¦·": 695,
      "à¦¾à¦°à¦¤": 696,
      "à¦¾à¦°Ġà¦ķ": 697,
      ",Ġà¦ķ": 698,
      "Ġ0": 699,
      "à¦¿à¦Ĺ": 700,
      "à¦°Ġà¦®": 701,
      "à¦ªà¦°": 702,
      "Ġà¦¦à§ĩà¦ĸ": 703,
      "à¦¾à¦²à§ĭ": 704,
      "à¦¾à¦ł": 705,
      "à§ĩĠà¦¥à¦¾à¦ķ": 706,
      "à¦¾à¦¨à§ĭ": 707,
      "à¦°à§įà¦£": 708,
      "Ġà¦¹à¦¾à¦¸": 709,
      "à¦¿à¦²à§ĩà¦Ł": 710,
      "à¦¿Ġà¦¨": 711,
      "Ġà¦«à§ĭà¦¨": 712,
      "à¦¿Ġà¦ª": 713,
      "à¦¾Ġà¦¶": 714,
      "Ġà¦ĩà¦¸à¦²à¦¾à¦®": 715,
      "à§ĩà¦®à§įà¦¬à¦°": 716,
      "an": 717,
      "à¦Ĺà¦ŀà§įà¦ľ": 718,
      "à¦¾à¦ļà§įà¦Ľ": 719,
      ",Ġà¦¬": 720,
      "à§ĩĠà¦ĸ": 721,
      "Ġà¦®à§ģ": 722,
      "Ġà¦Ĩà¦¬": 723,
      "à¦¿à¦¨à§įà¦¨": 724,
      "Ġà¦Łà¦¾à¦ķ": 725,
      "à¦¾Ġà¦¯à¦¾à¦¯à¦¼": 726,
      "...Ċ": 727,
      "à§ĩĠà¦²": 728,
      "à§ĩà¦°Ġà¦Ń": 729,
      "à§ĩà¦°Ġà¦ıà¦ķ": 730,
      "Ġà¦Ĩà¦ľ": 731,
      "à§ĩĠà¦Ĩà¦¸": 732,
      "à¦¥à¦®": 733,
      "à¦¨à¦ķ": 734,
      "Ġà¦Ĩà¦¹": 735,
      "Ġà¦¤à¦¿à¦¨à¦¿": 736,
      "à¦¾à¦¸à§įà¦¤": 737,
      "à¦¨à¦ª": 738,
      "Ġà¦ķà¦¾à¦°": 739,
      "Ġà¦¹à¦¿à¦¸": 740,
      "à¦¿à¦¯à§ĭà¦Ĺ": 741,
      "Ġà¦Ĩà¦°": 742,
      "Ġà¦Ĩà¦ĩ": 743,
      "à¦°à§įà¦ľ": 744,
      "à¦¾à¦°à§įà¦Ń": 745,
      "Ġà¦Ľà¦¬": 746,
      "à¦¾à¦¯": 747,
      "à§ĩĠà¦Ľ": 748,
      "à¦¾à¦°Ġà¦ª": 749,
      "à¦¤à§ĭ": 750,
      "à§ĩà¦°Ġà¦¶": 751,
      "à§Ģà¦ķà§įà¦·": 752,
      "à§ĩĠà¦ľà¦¾à¦¨": 753,
      "à¦¨à§įà¦Ł": 754,
      "à¦¾à¦°Ġà¦¬": 755,
      "à¦¾Ġà¦ļ": 756,
      "à¦¸à§įà¦Ł": 757,
      "à§ĩà¦ĩà¦²": 758,
      "er": 759,
      "à¦ħ": 760,
      "à§įà¦§": 761,
      "à§ĩà¦°Ġà¦ļ": 762,
      "à¦°à§įà¦ķ": 763,
      "à¦Ńà¦¾à¦ª": 764,
      "à¦¾à¦°à§įà¦¥": 765,
      "à¦¨à§įà¦¤à§įà¦°à§Ģ": 766,
      ",Ġ": 767,
      "à§ģà¦§": 768,
      "à§ĭà¦¹": 769,
      "à¦¯à§ĭà¦Ĺ": 770,
      "à§įà¦°à¦¹": 771,
      "Ġà¦®à¦¨": 772,
      "Ġà¦®à¦¹": 773,
      "Ġà§¬": 774,
      "à¦¹à¦®à¦¾à¦¨": 775,
      "sĠ": 776,
      "Ġà¦¢à¦¾à¦ķ": 777,
      "à¦¿à¦ĸ": 778,
      "à¦¿à¦ļ": 779,
      "à§ģà¦¯à¦¼": 780,
      "à§ĭà¦ļ": 781,
      "à¦¿à¦ķà¦¾à¦°": 782,
      "à¦¾à¦¤à§Ģà¦¯à¦¼": 783,
      "Ġà§§à§¦": 784,
      "à¦ĵà¦¯à¦¼à¦¾à¦®à§Ģ": 785,
      "à§įà¦¯à¦¾à¦²à¦¯à¦¼": 786,
      "à¦¿Ġà¦¬": 787,
      "à¦¿à¦Ńà¦¾à¦Ĺ": 788,
      "à§ĭà¦¯à¦¼": 789,
      "à§ĭà¦ª": 790,
      "à§ĭà¦·": 791,
      "Ġà¦¸à§įà¦¬": 792,
      "à¦¾Ġà¦¹à¦¯à¦¼à§ĩà¦Ľà§ĩà¥¤": 793,
      "à¦¾à¦Ń": 794,
      "à§ĩà¦Ĺ": 795,
      "Ġà¦¸à§ģ": 796,
      "Ġà¦ıà¦²à¦¾à¦ķ": 797,
      "Ġà§¯": 798,
      "à¦¾à¦ĩà¦¨": 799,
      "à§ģà¦²Ġà¦ĩà¦¸à¦²à¦¾à¦®": 800,
      "à§ĩĠà¦ªà¦¡à¦¼": 801,
      "Ġà¦ļà¦²": 802,
      "à¦¨à¦¦": 803,
      "à¦¾à¦°à¦¿à¦¤": 804,
      "Ġà¦²à§Ģà¦Ĺ": 805,
      "à§ĭà¦°à§įà¦Ł": 806,
      "à§įà¦¯à¦¾à¦ª": 807,
      "Ġà¦ĩà¦ī": 808,
      "à§ĩĠà¦¹à¦¬à§ĩà¥¤": 809,
      "à§įà¦¯à¦¾à¦¨à§įà¦¡": 810,
      "à§įà¦łà¦¾à¦¨": 811,
      "à§ĩà¦¹": 812,
      "à§ģà¦¡à¦¼": 813,
      "à¦¿à¦¤à§įà¦°": 814,
      "Ġà¦īà¦ªà¦ľà§ĩà¦²": 815,
      "Ġà¦¬à¦¿à¦¶à§įà¦¬": 816,
      "à¦¾à¦°à§Ģ": 817,
      "à¦¾à¦°Ġà¦ľà¦¨à§įà¦¯": 818,
      "à§ģà¦ĩ": 819,
      "à¦¤à¦¿à¦ķ": 820,
      "à§įà¦¯à¦¨à§įà¦¤": 821,
      "Ġà¦Ĩà¦¦": 822,
      "Ġà¦ħà¦§": 823,
      "Ġà¦°à¦¾à¦ľ": 824,
      "à¦¾Ġà¦¬à¦²": 825,
      "-à¦¸": 826,
      "à¦ªà¦¾à¦¤": 827,
      "Ġà§Ń": 828,
      "à¦¾à¦¹à§Ģ": 829,
      "Ġà¦Ĩà¦®à¦¾à¦¦": 830,
      "à¦¤à§ģà¦¨": 831,
      "à§įà¦¯à¦¾à¦®": 832,
      "Ġà¦¨à§ĩà¦¤": 833,
      "Ġà¦ľà§ĩà¦²": 834,
      "Ġà¦Ĺà¦¤": 835,
      "à§ĩà¦°Ġà¦¸à¦Ļà§įà¦Ĺ": 836,
      "Ġà¦Ĩà¦®à¦°": 837,
      "Ġà¦§à¦°": 838,
      "-à¦®": 839,
      "co": 840,
      "à§ĩà¦¨à¥¤Ċ": 841,
      "Ġà¦¬à¦¿à¦·": 842,
      "à§ĭâĢĻà¦ĨĠ0": 843,
      "à¦ĵà¦¯à¦¼à¦¾à¦®à§ĢĠà¦²à§Ģà¦Ĺ": 844,
      "à¦®à¦¤": 845,
      "à§įà¦¯à¦¾à¦ķ": 846,
      "à¦°à§įà¦§": 847,
      "à¦Ĺà§įà¦°à¦¾à¦®": 848,
      "Ġà¦ªà§įà¦°à¦ķà¦¾à¦¶": 849,
      "Ġà¦ªà¦°à§Ģà¦ķà§įà¦·": 850,
      "à¦Ńà¦¾à¦ªà¦¤à¦¿": 851,
      "à§ĩĠ": 852,
      "à¦ķà¦°à§įà¦¤": 853,
      "à§ĩà¦°Ġà¦¹": 854,
      "Ġà¦ķà¦¾à¦ľ": 855,
      "à¦¦à¦¿à¦¨": 856,
      "Ġà¦®à¦¾à¦¸": 857,
      "à§ĩà¦¨à§įà¦¦": 858,
      "Ġà¦¹à§ĭà¦¸": 859,
      "à§Ĥà¦°à§įà¦£": 860,
      "à¦¾à¦§à¦¾à¦°à¦£": 861,
      "à§¨à§¦": 862,
      "Ġ2018": 863,
      "à¦¿Ġà¦ĵ": 864,
      "à§ĩĠà¦ĵ": 865,
      "à¦°Ġà¦¦": 866,
      "à¦°Ġà¦¨": 867,
      "Ġà¦¤à¦¾à¦¦": 868,
      "à¦¿à¦°Ġà¦¸": 869,
      "Ġà¦¬à§įà¦¯à¦¬à¦¹": 870,
      "Ġà¦ħà¦¨à§ĩà¦ķ": 871,
      "à§Īà¦°": 872,
      "on": 873,
      "à¦¾Ġà¦ī": 874,
      "à¦°à§įà¦¦": 875,
      "à¦¾à¦¯à¦¼à§Ģ": 876,
      "Ġà¦¤à¦¾à¦ģ": 877,
      "à§ĩĠà¦¦à§ĩà¦ĸ": 878,
      "Ġà¦¬à¦¿à¦·à¦¯à¦¼": 879,
      "à¦Ļà§įà¦": 880,
      "à¦¾à¥¤Ċ": 881,
      "à¦¾à¦¡": 882,
      "à¦¸à¦¹": 883,
      "Ġà¦ħà¦¬": 884,
      "à¦Ĥà¦¶": 885,
      "Ġà¦¹à¦¯à¦¼à§ĩà¦Ľà§ĩà¥¤": 886,
      "à§ĩĠà¦¤à¦¾à¦°": 887,
      "à§İà¦¸": 888,
      "à¦¿à¦¹à¦¤": 889,
      "à¦Ĺà§ģà¦²à§ĭ": 890,
      "à¦¾à¦·à§įà¦Łà§įà¦°": 891,
      "-à¦ı": 892,
      "»ĠÂ": 893,
      "Ġt": 894,
      "à¦¨à§ĩà¦ķ": 895,
      "à¦²à§įà¦ª": 896,
      "à§įà¦°à¦®": 897,
      "Ġà¦¸à¦¬": 898,
      "Ġà¦¸à¦°à¦ķà¦¾à¦°": 899,
      "Ġà¦¨à¦¯à¦¼": 900,
      "à¦¥à§įà¦¯": 901,
      "à§ĩĠà¦¹à¦¯à¦¼": 902,
      "à§Įà¦¨à¦ķ": 903,
      "à§ģà¦°Ġà¦°": 904,
      "à§ĩà¦·à§įà¦Ł": 905,
      "»ĠÂ«": 906,
      "à§Įà¦¨à¦ķà¦°à§įà¦®": 907,
      "à¦°à¦¤": 908,
      "à¦ªà§ģà¦°": 909,
      "Ġà¦®à¦¾à¦°à§įà¦": 910,
      "à¦¿à¦¨à¦¿à¦§": 911,
      "à§Ĥà¦°à§įà¦¬": 912,
      "à¦ĸà¦¾à¦¨": 913,
      "à¦¿à¦°Ġà¦ª": 914,
      "Ġà¦Ĩà¦®à¦¿": 915,
      "à¦¿à¦·à§įà¦Ł": 916,
      "à§ĩĠà¦ļà¦²": 917,
      "à¦¦à§įà¦¦à¦¿à¦¨": 918,
      "à§įà¦ľ": 919,
      "à¦¿à¦«": 920,
      "à§ĩĠà¦ĩ": 921,
      "à§ģà¦¤": 922,
      "Ġà¦ķà¦¿à¦Ľà§ģ": 923,
      "à¦Ľà§ĩà¥¤": 924,
      "à¦¾à¦ªà¦¨": 925,
      "à§ĩĠà¦ıà¦ĩ": 926,
      "à¦¿à¦¶à§įà¦¬": 927,
      "à§ĩà¦ĵà¦¯à¦¼": 928,
      ",Ġà¦ª": 929,
      "es": 930,
      "à§ĩà¦¡à¦¼": 931,
      "à§ĩĠà¦§": 932,
      "à§ĩà¦°Ġà¦Ĺ": 933,
      "à¦¯à¦¼à§ĭ": 934,
      "Ġà¦¸à¦¾à¦°à§įà¦Ń": 935,
      "Ġà¦¬à§ĩà¦¶": 936,
      "à¦¾à¦²à¦¤": 937,
      "Ġà§®": 938,
      "Ġà¦Ľà¦¾à¦¡à¦¼": 939,
      "à§įà¦¥à¦¾à¦¨": 940,
      "en": 941,
      "à§ĩĠà¦Ł": 942,
      "Ġà¦ıà¦¨à§įà¦¡": 943,
      "à¦¿à¦¯à¦¼à§ĩà¦Ľà§ĩà¦¨": 944,
      "à§ĩà¦Ľà§ĩ,": 945,
      "âĢĮ": 946,
      "à¦£à§įà¦¡": 947,
      "à¦¿à¦¸à§įà¦¤": 948,
      "à¦¾Ġà¦¹à¦²": 949,
      "à§ĩà¦¦à¦¨": 950,
      "Ġà¦¸à¦®à§įà¦ªà¦¾à¦¦à¦ķ": 951,
      "Ġà¦¹à¦¿à¦¸à§ĩà¦¬": 952,
      "dĠ": 953,
      "®à¦¾à¦¨": 954,
      "à¦°à¦¾à¦ľ": 955,
      "à¦¾à¦°à§įà¦Ł": 956,
      "à¦¾Ġà¦Ľ": 957,
      "à¦¾Ġà¦¥à§ĩà¦ķ": 958,
      "Ġà¦ķà¦¿à¦¨à§įà¦¤à§ģ": 959,
      "à¦¦à¦¸à§įà¦¯": 960,
      "Ġà¦¤à¦¬": 961,
      "à¦¾à¦°à§įà¦¸": 962,
      "à¦¾à¦ģà¦ļ": 963,
      "Ġà¦ħà¦¨à§ģ": 964,
      "Ġà¦ķà¦°à¦¤à§ĩĠà¦ªà¦¾à¦°": 965,
      "Ġà¦¬à¦Ľà¦°": 966,
      "à§ĩà¦¨à§įà¦¦à§įà¦°": 967,
      "à¦²à§įà¦²": 968,
      "à§ĩà¦°Ġà¦°": 969,
      "Ġà¦¬à¦¾à¦¡à¦¼": 970,
      "à§ĩĠà¦¨à¦¿à¦¯à¦¼": 971,
      "à§ĩĠà¦¯à¦¾à¦¯à¦¼": 972,
      "à§Ģà¦¬à¦¨": 973,
      "com": 974,
      ",Ġà¦®": 975,
      "à§ĩĠĠà¦¦à§ĩà¦¶": 976,
      "à¦°à¦®": 977,
      "à§ĭà¦¡": 978,
      "à§ĩà¦°Ġà¦¤": 979,
      "Ġà¦¸à¦¾à¦®": 980,
      "à¦Łà¦ķ": 981,
      "Ġà¦¨à¦¾à¥¤": 982,
      "Ġà¦¶à§ĩà¦·": 983,
      "à§ĩĠà¦®à¦¨": 984,
      "Ġà¦¸à¦Ĥà¦¸": 985,
      "-à¦®à§ĩà¦ĩà¦²": 986,
      "ov": 987,
      "Ġ1": 988,
      "à¦¿Ġà¦ķ": 989,
      "à§ĩà¦«": 990,
      "à§ĩĠà¦ĺ": 991,
      "à¦ķà§įà¦Ł": 992,
      "à¦¬à¦¿à¦¦": 993,
      "à¦¯à¦¼à§ĩà¦ķ": 994,
      "Ġà¦¸à¦¹": 995,
      "Ġà¦ķà¦°à§ĩà¦Ľà§ĩà¦¨": 996,
      "à¦¨à§įà¦¸": 997,
      "à§ĩĠà¦ķà¦°": 998,
      "à¦¾Ġà¦¬à¦¿à¦Ńà¦¾à¦Ĺ": 999,
      "à¦ŀà§įà¦ļ": 1000,
      "Ġà¦®à§ĭà¦¬": 1001,
      "do": 1002,
      "à¦¢à¦¾à¦ķ": 1003,
      "à¦°à¦¿à¦ķ": 1004,
      "à¦¾Ġà¦Ń": 1005,
      "à¦¤à¦¿à¦¬": 1006,
      "à§įà¦¯à¦¾à¦Ł": 1007,
      "à¦¸à§įà¦¬": 1008,
      "à§ĩà¦ķà§įà¦·": 1009,
      "Ġà¦°à¦¯à¦¼": 1010,
      "à§ĥà¦·à§įà¦Ł": 1011,
      "Ġà¦²à¦¾à¦ĸ": 1012,
      "Ġ2017": 1013,
      "à¦¾Ġà¦ľà¦¾à¦¨": 1014,
      "at": 1015,
      "à¦Ŀ": 1016,
      "à¦¾Ġà¦ĸ": 1017,
      "à§ĩà¦°Ġà¦²": 1018,
      "à§įà¦¤à§ĥ": 1019,
      "à§ĥà¦¹": 1020,
      "à¦°à¦¿à¦ļà¦¾à¦²": 1021,
      "Ġà¦ĩ-à¦®à§ĩà¦ĩà¦²": 1022,
      "Ġà¦¸à¦Ĥà¦¬à¦¾à¦¦": 1023,
      "ĠÂ»ĠÂ«": 1024,
      "Ġ2016": 1025,
      "Ġà¦ķà§ĭà¦Łà¦¿": 1026,
      "à§ģà¦¯à¦¼à¦¾à¦°": 1027,
      "à¦¾Ġà¦ĩ": 1028,
      "à¦¤à¦¿à¦": 1029,
      "à¦¬à¦¨": 1030,
      "à¦¬à§ĩà¦¨": 1031,
      "Ġà¦ķà§ĭà¦¨": 1032,
      "à§Ģà¦ķ": 1033,
      "Ġà¦ıà¦¸": 1034,
      "Ġà¦ıà¦ĸà¦¨": 1035,
      "Ġà¦ķà¦°à§ģà¦¨": 1036,
      "Ġà¦ħà¦¨à§įà¦¯": 1037,
      "à§ģà¦²Ġà¦¹": 1038,
      "Ġà¦ªà§įà¦°à¦§à¦¾à¦¨": 1039,
      "à§ĩĠà¦Ĩà¦ª": 1040,
      "Ġà¦¬à¦¿à¦ľ": 1041,
      "à¦ıà¦¸": 1042,
      "Ġà¦Łà§įà¦°": 1043,
      "à¦°à§įà¦¤à¦®à¦¾à¦¨": 1044,
      ".com": 1045,
      "à§ĩà¦ī": 1046,
      "à¦¨à¦¿à¦¯à¦¼": 1047,
      "Ġà¦ķà§įà¦·": 1048,
      "à§įà¦¯à¦¾à¦ļ": 1049,
      "à¦ªà¦ķà§įà¦·": 1050,
      "à¦ªà¦¤à§įà¦°": 1051,
      "Ġà¦Ĩà¦¨": 1052,
      "à¦¾à¦ĩà¦ķ": 1053,
      "âĢ¦": 1054,
      "à§§à§Ń": 1055,
      "Ġà¦ĸà§ĩà¦²": 1056,
      "à¦Ĩà¦®": 1057,
      "à¦¿à¦·à¦¯à¦¼": 1058,
      "Ġà¦¦à§ģà¦ĩ": 1059,
      "à¦¨à§įà¦¤à§įà¦°à¦£": 1060,
      "Ġà¦ķà¦°à§įà¦®à¦ķà¦°à§įà¦¤": 1061,
      "à¦ķà§įà¦Łà§ĭà¦¬": 1062,
      "à¦¿Ġà¦¹": 1063,
      "à¦¿Ġà¦¯": 1064,
      "à¦°Ġà¦ľ": 1065,
      "à¦¤à¦®": 1066,
      "à¦®à§įà¦¯à¦¾à¦¨": 1067,
      "Ġà¦ķà¦¥": 1068,
      "à§Ģà¦²": 1069,
      "à§ĩà¦¨à§įà¦¸": 1070,
      "Ġà¦¨à¦¿à¦ľ": 1071,
      "à¦¿à¦¯à¦¼à¦¾à¦¨": 1072,
      "à¦¿à¦¤à§įà¦¬": 1073,
      "à§ĩà¦°Ġà¦ķà¦¾à¦Ľ": 1074,
      "à¦¿à¦¦à§įà¦§": 1075,
      "Ġà¦®à§ĭà¦¬à¦¾à¦ĩà¦²": 1076,
      "**": 1077,
      "il": 1078,
      "à¦¤à¦¾à¦°": 1079,
      "à¦¬à¦¾à¦¯à¦¼": 1080,
      "à¦¾à¦¨,": 1081,
      "Ġà¦¬à¦¿à¦ķ": 1082,
      "Ġà¦¨à§Į": 1083,
      "Ġà¦ªà§įà¦°à¦¶": 1084,
      "Ġà¦¶à§ģà¦°à§ģ": 1085,
      "à§ĥà¦·": 1086,
      "à¦°à¦¿à¦¬": 1087,
      "à§ĩĠà¦ıà¦¸": 1088,
      "à¦¿à¦°à§ģà¦¦à§įà¦§": 1089,
      "à¦«à¦¿à¦¸": 1090,
      "Ġà¦Ĩà¦ªà¦¨à¦¿": 1091,
      "Ġà¦«à§ĭà¦¨à¦ĥ": 1092,
      "à§ģà¦°Ġà¦°à¦¹à¦®à¦¾à¦¨": 1093,
      "à¦¯à¦¼à§ĭà¦ľà¦¨": 1094,
      "or": 1095,
      "à¦²à¦¾à¦°": 1096,
      "à¥¤Ġà¦¬": 1097,
      "à¦°à§įà¦ĺ": 1098,
      "Ġà¦ħà¦ª": 1099,
      "à§ĩà¦¤à§įà¦°": 1100,
      "à¦ķà¦¾à¦°à§Ģ": 1101,
      ",Ġà¦ļ": 1102,
      "ma": 1103,
      "à¦¾à¦Ļà§įà¦Ĺ": 1104,
      "à§ĩĠà§§à§": 1105,
      "à¦¤à§įà¦¬": 1106,
      "à¦¬à¦¸": 1107,
      "à§ĩà¦°Ġà¦ı": 1108,
      "Ġà¦ķà¦²": 1109,
      "à¦¦à¦¿": 1110,
      "à¦¦à§įà¦¯": 1111,
      "Ġà¦ıà¦®": 1112,
      "à¦¾à¦²à¦¿à¦ķ": 1113,
      "Ġà¦¤à¦¥à§įà¦¯": 1114,
      "Ġà¦ħà¦°à§įà¦¥": 1115,
      "à¦Ľà§ĩà¦¨": 1116,
      "à¦¾à¦¹à¦¿à¦¨": 1117,
      "Ġà¦īà¦¤à§įà¦¤": 1118,
      "à¦¿à¦¶à¦¨": 1119,
      "Ġà¦¹à¦¯à¦¼à§ĩà¦Ľ": 1120,
      "à¦¿à¦Łà¦¿": 1121,
      "à¥¤Ġà¦ıà¦ĩ": 1122,
      "à¦¯à§ģà¦ķà§įà¦¤": 1123,
      "Ġà¦¬à§įà¦¯à¦ķà§įà¦¤": 1124,
      "à§ĥà¦¤à§įà¦¬": 1125,
      "à§ĩĠà¦ıà¦ķà¦Łà¦¿": 1126,
      "à¦°Ġà¦ªà§įà¦°": 1127,
      "Ġà¦®à¦¾à¦¨à§ģà¦·": 1128,
      "à§ĭà¦ļà¦¨": 1129,
      "Ġà¦¹à§ĭà¦¸à§ĩà¦¨": 1130,
      "à¦¬à¦¿à¦¦à§įà¦¯à¦¾à¦²à¦¯à¦¼": 1131,
      ")Ġà¦ľ": 1132,
      "ou": 1133,
      "à¦¿à¦£": 1134,
      "à¦¨à¦¿à¦ķ": 1135,
      "à§ģà¦£": 1136,
      "à§ĩà¦°Ġà¦Ľ": 1137,
      "Ġà¦¬à¦¾à¦¸": 1138,
      "Ġà¦¨à§ĩà¦ĩ": 1139,
      "à¦°à§įà¦¨": 1140,
      "à§ĩà¥¤Ġà¦ı": 1141,
      "à¦Ĥà¦¸": 1142,
      "Ġà¦°à¦¾à¦¤": 1143,
      "à¦¶à¦¾à¦¹à§Ģ": 1144,
      "Ġà¦ĵĠà¦¸": 1145,
      "Ġà¦¬à¦¿à¦Ń": 1146,
      "à¦°à¦¿à¦¶": 1147,
      "à¦ĵà¦¯à¦¼à¦¾à¦°": 1148,
      "à¦¾à¦°à§įà¦¡": 1149,
      "Ġà¦ıà¦ķà¦Ł": 1150,
      "à§ĩĠà¦¹à¦¤à§įà¦¯": 1151,
      "à§ĩà¦¸à¦¬": 1152,
      "Ġà¦ĺà¦Łà¦¨": 1153,
      "à¦¿à¦¨à¦¿à¦§à¦¿": 1154,
      "à¦¨à§Ģ": 1155,
      "à§ģà¦Ĺ": 1156,
      "à§ĩà¦°Ġà¦¯": 1157,
      "à¦¯à¦¼à¦¸": 1158,
      "à¦¾à¦¨à¦¿": 1159,
      "Ġà¦ªà§įà¦²": 1160,
      "à¦¦à§ĩà¦¶": 1161,
      "Ġà¦¨à¦Ń": 1162,
      "à¦¾à¦²à§Ģ": 1163,
      "Ġà¦¹à¦¾à¦ľà¦¾à¦°": 1164,
      "à¦¹à¦¨": 1165,
      "à¦ľà§įà¦ľ": 1166,
      "Ġà¦ħà¦ķà§įà¦Łà§ĭà¦¬": 1167,
      "à§ĩĠà¦ªà§ģà¦²à¦¿à¦¶": 1168,
      "à¦§à§ģà¦°": 1169,
      "Ġà¦¶à§ĩà¦ĸ": 1170,
      "Ġà¦¶à¦¿à¦ķà§įà¦·": 1171,
      "à§ĥà¦¦à§įà¦§": 1172,
      "Ġà¦ļà¦¾à¦²": 1173,
      "à§ĩĠà¦ıà¦¬à¦Ĥ": 1174,
      "à¦¾à¦ĵà¦¯à¦¼à¦¾à¦°": 1175,
      "à¦¾à¦Ĥà¦ķ": 1176,
      "à¦¨à§įà¦¨à¦¯à¦¼à¦¨": 1177,
      "à¦ªà¦¾à¦¤à¦¾à¦²": 1178,
      "Ġà¦¸à¦Ĥà¦¸à¦¦": 1179,
      ")Ġà¦¸": 1180,
      "à¦¾à¦Ļ": 1181,
      "à§įà¦Ń": 1182,
      "à¦¿à¦°à§įà¦¬à¦¾à¦ļà¦¨": 1183,
      "à¦°Ġà¦ı": 1184,
      "à§ģà¦ģ": 1185,
      "à¦¾Ġà¦«": 1186,
      "à§ĭà¦ľ": 1187,
      "à§ĭà¦Ń": 1188,
      "Ġà¦ķà§ĭà¦¨à§ĭ": 1189,
      "Ġà¦®à¦¾à¦®à¦²": 1190,
      "Ġà¦Ĩà¦¶": 1191,
      "à¦¾à¦®à¦¿à¦¨": 1192,
      "Ġà¦¹à¦ļà§įà¦Ľ": 1193,
      "à¦¾à¦¤à§įà¦°à§Ģ": 1194,
      "à¦¾à¦¬à§ĩà¦ķ": 1195,
      "Ġà¦ªà§įà¦°à¦¥à¦®": 1196,
      "à¦ļà§įà¦ļ": 1197,
      "à¦ĸà§įà¦¯": 1198,
      "Ġà¦¸à¦®à§įà¦®": 1199,
      "à¦¿à¦īà¦ľ": 1200,
      "Ġà¦Ĩà¦ªà¦¨à¦¾à¦°": 1201,
      "à§įà¦°à¦¹à¦£": 1202,
      "Ġà§¯à§«": 1203,
      "à§įà¦¯à¦¾à¦®à§įà¦ª": 1204,
      "à¦Ļà§įà¦ķ": 1205,
      "--": 1206,
      ".g": 1207,
      "?Ċ": 1208,
      "ar": 1209,
      "aĠ": 1210,
      "bd": 1211,
      "Ġà¦Ĳ": 1212,
      "à¦¾Ġ": 1213,
      "à¦²à§Ģà¦Ĺ": 1214,
      "à¦¾Ġà¦¥à¦¾à¦ķ": 1215,
      "à¦¬à¦¾à¦¸": 1216,
      "Ġà¦ķà¦¾à¦°à¦£": 1217,
      "Ġà¦ªà¦¡à¦¼": 1218,
      "à¦Ĺà¦°": 1219,
      "Ġà¦ķà¦°à¦¾Ġà¦¹à¦¯à¦¼": 1220,
      "Ġà¦¹à¦¬": 1221,
      "à¦ĩà¦¨": 1222,
      "Ġà¦°à¦¾à¦ĸ": 1223,
      "Ġà¦ªà§įà¦°à¦¦à¦¾à¦¨": 1224,
      "Ġà¦¬à¦¿à¦¦": 1225,
      "Ġà¦¬à¦¿à¦®à¦¾à¦¨": 1226,
      "à¦Ľà¦²": 1227,
      "à¦¾à¦ªà§įà¦¤": 1228,
      "à¦¾à¦°à§įà¦ķ": 1229,
      "à§ĩĠà¦ķà§ĭà¦¨": 1230,
      "à§§à§¨": 1231,
      "à¦¿à¦Łà¦¾à¦°": 1232,
      "à§Įà¦§à§ģà¦°": 1233,
      "à§ĩà¦¸à§įà¦Ł": 1234,
      "à§¦à§¦à§¦": 1235,
      "à¦¿à§İà¦¸": 1236,
      "à¦°Ġà¦¹": 1237,
      "à¦°Ġà¦ħ": 1238,
      "à§įà¦°à¦¿à¦ķ": 1239,
      "Ġà¦¸à§įà¦Ł": 1240,
      "à¦¸à¦Ĥ": 1241,
      "à¦¦à§įà¦¬": 1242,
      "à¦ªà¦ľà§ĩà¦²": 1243,
      "Ġà¦®à¦¾à¦¹": 1244,
      "à¦Łà§įà¦Ł": 1245,
      "Ġà¦¨à¦¿à¦¹à¦¤": 1246,
      "à¦¿à¦ķà¦¿à§İà¦¸": 1247,
      "Ġà¦¤à§Īà¦°": 1248,
      "à¦¾à¦ĩà¦°": 1249,
      "à¦¾à¦¸à§įà¦¥": 1250,
      "à§ĩĠà¦Ĩà¦²": 1251,
      "Ġà¦Ńà¦¾à¦¬": 1252,
      "Ġà¦«à¦²": 1253,
      "Ġà¦īà¦¦à§įà¦¦à¦¿à¦¨": 1254,
      "à¦¿à¦°Ġà¦®": 1255,
      "à¦¿à¦°Ġà¦ķ": 1256,
      "à¦ķà§įà¦·à¦¿à¦£": 1257,
      "à§ĩĠà¦¦à§ģ": 1258,
      "à¦¿à¦°à§ĭà¦§": 1259,
      "à¦¿à¦¦à¦ªà§įà¦¤": 1260,
      "à§ĩà¦®à¦¨": 1261,
      "à§ĩĠà¦Ĺà§ĩà¦²": 1262,
      "Ġà¦ħà¦¨à§ģà¦·": 1263,
      "à¦ŀà§įà¦ľà¦¿à¦¨": 1264,
      "à¦¿à¦ļà§įà¦Ľ": 1265,
      "à¦¨à¦¿à¦¯à¦¼à¦¨": 1266,
      "à¦¾à¥¤Ġà¦ı": 1267,
      "à¦¨à§ģ": 1268,
      "à¦¬à¦¨à§įà¦§": 1269,
      "à¦®à¦¿à¦¤": 1270,
      "Ġà¦¹à¦¤": 1271,
      "à¦¿à¦¤à§įà¦¤": 1272,
      "Ġà¦¤à¦¾à¦ĩ": 1273,
      "à§ģà¦²à¦¾à¦ĩ": 1274,
      "Ġà¦°à¦¾à¦¨": 1275,
      "à§ĩĠà¦Ĩà¦¬": 1276,
      "Ġà¦¬à¦¿à¦¸": 1277,
      "à¦¡à¦¼à¦ķ": 1278,
      "Ġà¦Ńà¦¾à¦²à§ĭ": 1279,
      "à¦¾à¦ģà¦¦": 1280,
      "Ġà¦ľà¦¾à¦¨à§ģà¦¯à¦¼à¦¾à¦°": 1281,
      "Ġà§¨à§¦à§§à§®": 1282,
      "Ġà¦Ĩà¦¹à¦®": 1283,
      "Ġà¦®à¦¾à¦°à§įà¦ļ": 1284,
      ",Ġà¦ı": 1285,
      "à¦¾à¦Ŀ": 1286,
      "à§ĩĠà§¨": 1287,
      "à¦¬à¦²": 1288,
      "à§įà¦¯à¦¾à¦¸": 1289,
      "à¦¾à¦¨à§įà¦¯": 1290,
      "à¦ªà¦¿": 1291,
      "Ġà¦¨à¦¤à§ģà¦¨": 1292,
      "Ġà¦¦à§įà¦¬": 1293,
      "à¦Ĺà¦¤": 1294,
      "Ġà¦ħà¦¬à¦¸à§įà¦¥": 1295,
      "à¦¾Ġà¦¹à¦¬à§ĩà¥¤": 1296,
      "à¦¿à¦¶à§įà¦ļ": 1297,
      "Ġà¦ĸà§ģà¦¬": 1298,
      "à¦¿à¦·à§įà¦łà¦¾à¦¨": 1299,
      "à§ģà¦¦à§įà¦°": 1300,
      "à¥¤Ġà¦¤à¦¬": 1301,
      "à§ĩà¦ªà§įà¦Ł": 1302,
      "tĠ": 1303,
      "Âł": 1304,
      "à¦¿à¦ĩ": 1305,
      "à¦¾à¦°à¦ķ": 1306,
      "à¦®à¦¨à§įà¦¤à§įà¦°à§Ģ": 1307,
      "à§įà¦¯à¦¾à¦°": 1308,
      "à¦¦à¦¿à¦ķ": 1309,
      "Ġà¦®à¦¿à¦²": 1310,
      "Ġà¦®à§Ĥà¦²": 1311,
      "à¦¾à¦®à¦¨": 1312,
      "Ġà¦ķà¦°à§ĩà¦Ľ": 1313,
      "à¦¿à¦¨à¦¿à¦¯à¦¼": 1314,
      "Ġà¦ľà¦¾à¦¹": 1315,
      "Ġà¦ľà¦¾à¦¤à§Ģà¦¯à¦¼": 1316,
      "à§ģà¦²à¦¨": 1317,
      "Ġà¦Ńà¦¾à¦°à¦¤": 1318,
      "à¦¾à¦°à§įà¦ľ": 1319,
      "à§ĩĠà¦ķà¦¾à¦ľ": 1320,
      "à§ĩà¦ĸà¦¾à¦¨": 1321,
      "à§ĩà¦°Ġà¦®à¦¾à¦§à§įà¦¯à¦®": 1322,
      "à¦Ļà§įà¦Ĺà¦²": 1323,
      "à¦ĥĠ": 1324,
      "à§ĭà¦®à§įà¦ª": 1325,
      "à¦¾Ġà¦ªà§įà¦°à¦¤": 1326,
      "Ġà¦ªà¦°à¦¿à¦¬à¦¾à¦°": 1327,
      "à§ĭà¦·à¦£": 1328,
      "Ġà¦¸à¦¾à¦°à§įà¦Ńà§ĩà¦¯à¦¼à¦¾à¦°": 1329,
      ".gov": 1330,
      "-à¦¬": 1331,
      "-à¦ª": 1332,
      "à¦°Ġà¦¤": 1333,
      "à¦ķà¦®": 1334,
      "à¦²à§ĩà¦ĵ": 1335,
      "à¦¾Ġà¦ıà¦ķ": 1336,
      "à§ĭà¦¦": 1337,
      "à¦¤à¦¿à¦¹": 1338,
      "à¦¬à¦°": 1339,
      "à¥¤âĢĻ": 1340,
      "à§Ģà¦°à§įà¦ĺ": 1341,
      "à¦¸à¦¿": 1342,
      "à¦¸à§įà¦ķ": 1343,
      "Ġà¦ªà¦¾à¦°": 1344,
      "Ġà¦Ĩà¦Ľ": 1345,
      "à¦¾à¦®à§įà¦®": 1346,
      "Ġà¦ķà¦°à§ĩà¦¨": 1347,
      "Ġà¦ķà¦°à§įà¦¤à§ĥ": 1348,
      "Ġà¦ľà¦®": 1349,
      "Ġà¦¶à¦¿à¦¶": 1350,
      "Ġà¦¯à§ĭà¦Ĺ": 1351,
      "Ġà¦¯à§Įà¦¨à¦ķà¦°à§įà¦®": 1352,
      "à§ĩĠà¦¨à¦¿à¦ľ": 1353,
      "Ġà¦ĸà¦¾à¦²": 1354,
      "à¦¿à¦ľà§įà¦ŀ": 1355,
      "à§ĩà¦Ľà§ĩà¥¤Ċ": 1356,
      "Ġà¦¬à§įà¦¯à¦¾à¦Ĥà¦ķ": 1357,
      "à§ĩĠà¦Ĺà§įà¦°": 1358,
      "à§ĩĠà¦ħà¦Ń": 1359,
      "à§Īà¦¤à¦¿à¦ķ": 1360,
      "Ġà¦Ĩà¦ĩà¦¨": 1361,
      "Ġ2016Ġ(1": 1362,
      "Ġà¦«à§ĭà¦¨à¦ĥĠà§¯à§«": 1363,
      ",Ġà¦¤": 1364,
      ".bd": 1365,
      "al": 1366,
      "it": 1367,
      "Ġà¥¤": 1368,
      "à¦°à§įà¦¯": 1369,
      "à¦¾Ġà¦ĺ": 1370,
      "à§ĩà¦°Ġà¦«": 1371,
      "à§ĩà¦°Ġà¦ĺ": 1372,
      "à§Ģà¦ª": 1373,
      "à¦¸à¦¿à¦Ĥ": 1374,
      "Ġà¦ªà§ģà¦²à¦¿à¦¶": 1375,
      "Ġà¦®à¦¿à¦¨": 1376,
      "Ġà¦®à§ĩà¦¯à¦¼": 1377,
      "à¦¾à¦®à¦¾à¦²": 1378,
      "à¦¾à¦ĩà¦¯à¦¼": 1379,
      "à§ĩà¦ķà§įà¦¸": 1380,
      "à¦ļà¦¿à¦¬": 1381,
      "à§ĩĠà¦¬à§įà¦¯": 1382,
      "à§ĩĠà¦¸à¦¬": 1383,
      "à§Ĥà¦ª": 1384,
      "Ġ(à§©": 1385,
      "Ġà¦ĩà¦ŀà§įà¦ľà¦¿à¦¨": 1386,
      "Ġà¦²à§ĩà¦ĸ": 1387,
      "à¦¾à¦¡à¦¼à¦¿": 1388,
      "à§ĩĠà¦¯à¦¾à¦ļà§įà¦Ľ": 1389,
      "à§ĩà¦¤à§ĥà¦¤à§įà¦¬": 1390,
      "à¦¿à¦ªà§ĭà¦°à§įà¦Ł": 1391,
      "à§ģà¦®à¦¤à¦¿": 1392,
      "Ġà¦ªà¦°à§įà¦¯à¦¨à§įà¦¤": 1393,
      "à¦ªà§įà¦°à¦¿à¦²": 1394,
      "à¦¾à¦Ĥà¦¶": 1395,
      "Ġà¦ħà¦Ńà¦¿à¦¯à§ĭà¦Ĺ": 1396,
      "à§ĩà¦°Ġà¦ıà¦ķà¦Łà¦¿": 1397,
      "à§ģà¦§à§ģ": 1398,
      "Ġà¦ħà¦§à¦¿à¦¦à¦ªà§įà¦¤": 1399,
      "à¦¾à¦§à¦¾à¦°à¦£Ġà¦¸à¦®à§įà¦ªà¦¾à¦¦à¦ķ": 1400,
      "à¦°à¦¿à¦ļà¦¾à¦²à¦ķ": 1401,
      "à§ģà¦²Ġà¦¹à¦ķ": 1402,
      "Ġà¦¬à¦¿à¦Ńà¦¿à¦¨à§įà¦¨": 1403,
      "Ġà¦ħà¦ķà§įà¦Łà§ĭà¦¬à¦°": 1404,
      ".gov.bd": 1405,
      ",Ġà¦«": 1406,
      "/-": 1407,
      "s.gov.bd": 1408,
      "à¦¿à¦Ļà§įà¦Ĺ": 1409,
      "à§ĩà¦ģ": 1410,
      "à§ĩĠà¦¡": 1411,
      "à¦¨à¦¾à¦®": 1412,
      "à¦¬à¦¾à¦¬": 1413,
      "à§ĩà¦°Ġà¦ĵ": 1414,
      "à§ĩà¦°Ġà¦ĸ": 1415,
      "à§įà¦¯à¦¾à¦¬": 1416,
      "à§ĢĠà¦¬": 1417,
      "à¦¸à¦®": 1418,
      "à¦¸à§Ĥ": 1419,
      "à¦¸à§įà¦ª": 1420,
      "Ġà¦ªà§ģà¦°": 1421,
      "à¦¿à¦¤Ġà¦¹à¦¯à¦¼": 1422,
      "Ġà¦¶à¦¤": 1423,
      "à§ĩĠà¦¸à§įà¦¬": 1424,
      "Ġà¦ļà§Įà¦§à§ģà¦°": 1425,
      "à§ĩà¦°Ġà¦¸à¦¾à¦¥": 1426,
      "à¦°à¦¿à¦¦": 1427,
      "à¦¨à§įà¦¤à¦¬à§įà¦¯": 1428,
      "à§§à§¯": 1429,
      "Ġà¦ĸà¦¾à¦¨": 1430,
      "Ġà¦ıà¦ķà§įà¦¸": 1431,
      "à§ĩà¦Ľà§ĩà¦¨à¥¤": 1432,
      "à§ĩĠà¦Ĺà¦¿à¦¯à¦¼": 1433,
      "Ġà§§à§¯": 1434,
      "à¦¾Ġà¦Ĩà¦®": 1435,
      "Ġà¦§à¦°à§įà¦®": 1436,
      "à¥¤Ġà¦ķà¦¿à¦¨à§įà¦¤à§ģ": 1437,
      "à¦¨à§įà¦Łà¦¾à¦°": 1438,
      "Ġà¦Ĩà¦¦à¦¾à¦²à¦¤": 1439,
      "à¦¿à¦¸à§įà¦¤à¦¾à¦¨": 1440,
      "dos.gov.bd": 1441,
      "Ġ2017Ġ(1": 1442,
      ")Ġà¦ı": 1443,
      "yĠ": 1444,
      "à¦ķà§įà¦¸": 1445,
      "à¦ķà§ĥà¦¤": 1446,
      "à¦²à¦¾à¦ĩà¦¨": 1447,
      "à¦¤à§įà¦®": 1448,
      "à¦¦à¦¾à¦°": 1449,
      "Ġà¦®à§įà¦¯à¦¾à¦ļ": 1450,
      "Ġà¦ķà¦°à¦¾à¦°": 1451,
      "à¦¿à¦¨à§įà¦¦": 1452,
      "à¦¾à¦¯à¦¼Ġà¦¸": 1453,
      "Ġà¦¤à§ĭà¦®": 1454,
      "Ġà¦ħà¦«à¦¿à¦¸": 1455,
      "à¦¾à¦ĩà¦¸": 1456,
      "âĢĿ": 1457,
      "à§ĩà¦²à¦¨": 1458,
      "à¦¨à§įà¦®": 1459,
      "Ġà¦ĵà¦ĩ": 1460,
      "Ġà¦¯à§ģà¦¬": 1461,
      "Ġà¦ĩà¦®": 1462,
      "à¦¿à¦°Ġà¦¨": 1463,
      "à§ĩĠà¦¨à¦¾à¥¤": 1464,
      "à§ĩĠà¦¦à§ĩà¦¶": 1465,
      "à¦«à¦¿à¦ķ": 1466,
      "à§§à§¬": 1467,
      "à§ĩĠà¦¹à¦¬": 1468,
      "à¦Ĩà¦ĩ": 1469,
      "à¦¾Ġà¦¸à¦®": 1470,
      "à§ĩà¦¬à§įà¦°à§ģ": 1471,
      "Ġà¦ªà¦°à¦¿à¦¶": 1472,
      "Ġ2015": 1473,
      "Ġà§¨à§¦à§§à§Ń": 1474,
      "à¦¿à¦ıà¦¨à¦ª": 1475,
      "à¦¾Ġà¦ıà¦¬à¦Ĥ": 1476,
      "Ġà¦Ĩà¦Ĺà¦¸à§įà¦Ł": 1477,
      "à¦¿à¦Ńà¦¿à¦¨à§įà¦¨": 1478,
      "Ġà¦¬à¦²à§ĩà¦¨,ĠâĢĺ": 1479,
      "Ġà¦¬à¦¿à¦ľà§įà¦ŀ": 1480,
      "à¦Ļà§įà¦Ĺà¦²à¦¬à¦¾à¦°": 1481,
      "@dos.gov.bd": 1482,
      "re": 1483,
      "à¦¿-": 1484,
      "à¦°à¦Ĥ": 1485,
      "à¦¨à§Īà¦¤à¦¿à¦ķ": 1486,
      "à¦°Ġà¦ī": 1487,
      "à¦¾à¦°à¦ª": 1488,
      "à§ģà¦Ŀ": 1489,
      "à¦ķà¦¿": 1490,
      "à¦¬à¦¾à¦¨": 1491,
      "à¦®à¦¿à¦ķ": 1492,
      "Ġà¦ķà¦¿": 1493,
      "Ġà¦ķà¦¬": 1494,
      "Ġà¦ķà¦¯à¦¼à§ĩà¦ķ": 1495,
      "à§įà¦¯à¦¾à¦¡": 1496,
      "à¦¸à§ģ": 1497,
      "Ġà¦Ĩà¦ĵà¦¯à¦¼à¦¾à¦®à§ĢĠà¦²à§Ģà¦Ĺ": 1498,
      "Ġà¦¨à¦¿à¦°": 1499,
      "à¦°à§įà¦Ĺ": 1500,
      "Ġà¦¦à¦¿à¦¤": 1501,
      "à¦¾à¦¸à§įà¦Ł": 1502,
      "à¦¿à¦²à§įà¦ª": 1503,
      "à§ĩĠà¦Ĩà¦°": 1504,
      "Ġà¦Ĺà§įà¦°": 1505,
      "Ġà¦«à§ĩà¦¬à§įà¦°à§ģ": 1506,
      "à¦¿à¦°Ġà¦¬": 1507,
      "à§ĭà¦¨à¦¯à¦¼à¦¨": 1508,
      "à§ĩĠà¦¤à¦¿à¦¨à¦¿": 1509,
      "à§ĩà¦°Ġà¦¬à¦¿à¦°à§ģà¦¦à§įà¦§": 1510,
      "à¦¯à¦¾à¦¯à¦¼à§Ģ": 1511,
      "Ġà¦¸à¦Ĥà¦Ĺ": 1512,
      "à§ĩà¦ĵà¦¯à¦¼à¦¾à¦°": 1513,
      "Ġà§§à§§": 1514,
      "à¦¾Ġà¦¨à¦¿à¦¯à¦¼": 1515,
      "à§ĥà¦¤à§įà¦¯": 1516,
      "Ġà¦®à§ĭà¦ĥ": 1517,
      "Ġà¦¬à¦¿à¦¶à§ĩà¦·": 1518,
      "Ġà¦ĵà¦¯à¦¼à§ĩà¦¬": 1519,
      "à¦°à§įà¦¶à¦ķ": 1520,
      "à¦Łà§įà¦Łà¦Ĺà§įà¦°à¦¾à¦®": 1521,
      "à§ĩà¦ªà§įà¦Łà§ĩà¦®à§įà¦¬à¦°": 1522,
      "se": 1523,
      "Ġà¦ł": 1524,
      "à¦¨à¦¸": 1525,
      "à§ģà¦¶": 1526,
      "à¦¤à§ĩĠà¦ļ": 1527,
      "Ġà¦¸à¦¿à¦²à§ĩà¦Ł": 1528,
      "Ġà¦¸à¦¨à¦¦": 1529,
      "Ġà¦®à§ĩ": 1530,
      "Ġà¦¦à¦¶": 1531,
      "à¦Ĺà¦£": 1532,
      "Ġà¦ķà¦°à¦¬": 1533,
      "Ġà¦ķà¦°à§ĩĠà¦¦": 1534,
      "Ġà¦¹à¦ĵà¦¯à¦¼à¦¾à¦°": 1535,
      "Ġà¦¤à§ĭ": 1536,
      "Ġà¦¤à§ģà¦²": 1537,
      "à§ģà¦²à§ĭ": 1538,
      "à¦£à§įà¦¯": 1539,
      "à¦ļà§ĩà¦¯à¦¼": 1540,
      "Ġà¦¬à¦¿à¦¬": 1541,
      "Ġà¦¬à¦¿à¦ı": 1542,
      "à§ĩĠà¦¸à¦®": 1543,
      "à§Ĥà¦°": 1544,
      "à¦°à¦¿à¦ľ": 1545,
      "Ġà¦Ńà¦¬à¦¨": 1546,
      "Ġà¦«à§ģà¦Ł": 1547,
      "à¦ķà§įà¦·à¦£": 1548,
      "à§įà¦²à¦¾à¦¹": 1549,
      "à¦ıà¦®": 1550,
      "à§ĩà¦°Ġà¦¬à§įà¦¯": 1551,
      "Ġà¦¡à¦¿à¦¸": 1552,
      "ĠÂł": 1553,
      "Ġà¦¥à§ĩà¦ķà§ĩĠà¦¬": 1554,
      "Ġà¦ķà¦°à¦¤à§ĩĠà¦¹à¦¬à§ĩà¥¤": 1555,
      "à¦¾à¦£à§įà¦¡": 1556,
      "Ġà§¨à§¦à§§à§¬": 1557,
      "à§ĩĠà¦īà¦ł": 1558,
      "Ġ-Ġ": 1559,
      "à¦®à§įà¦ªà¦¾à¦¦à¦ķ": 1560,
      "à¦¾à¦¯à§ĭà¦Ĺ": 1561,
      "Ġà¦¬à§įà¦¯à¦¬à¦¹à¦¾à¦°": 1562,
      "Ġà¦ĩà¦ŀà§įà¦ľà¦¿à¦¨à¦¿à¦¯à¦¼à¦¾à¦°": 1563,
      "Ġà¦«à§ĩà¦¬à§įà¦°à§ģà¦¯à¦¼à¦¾à¦°": 1564,
      ",Ġà¦¨": 1565,
      ",Ġà¦°": 1566,
      ",Ġà¦¯": 1567,
      "ti": 1568,
      "·à¦¦": 1569,
      "à§·": 1570,
      "à¦¾à§İ": 1571,
      "à§ĩà¦Ń": 1572,
      "à¦°Ġà¦ļ": 1573,
      "à¦°Ġà¦¥à§ĩà¦ķ": 1574,
      "à§ģà¦ª": 1575,
      "à¦ķà¦°": 1576,
      "à¦²à§ĩà¦¨": 1577,
      "à¦¬à¦¿": 1578,
      "à§įà¦°à¦¯à¦¼": 1579,
      "à¥¤Ġà¦¤à¦¾à¦°": 1580,
      "à§Ģà¦®": 1581,
      "Ġà¦ªà¦¦à§įà¦§": 1582,
      "à¦¾à¦²à¦¯à¦¼": 1583,
      "à¦Ĺà¦¿à¦¯à¦¼": 1584,
      "Ġà¦¹à¦¬à§ĩà¥¤": 1585,
      "à¦¿à¦¯à¦¼à§ĩĠà¦¦": 1586,
      "à¦¾à¦ķà§įà¦·": 1587,
      "à¦¾à¦ķà¦¿à¦¸à§įà¦¤à¦¾à¦¨": 1588,
      "à¦¹à¦°": 1589,
      "à¦¿à¦¤à§ĩĠà¦¬": 1590,
      "Ġà¦¶à§įà¦°": 1591,
      "Ġà¦Ĺà¦¾à¦¨": 1592,
      "Ġà¦Ĺà§įà¦°à¦¾à¦®": 1593,
      "à¦Ľà¦¾à¦¡à¦¼": 1594,
      "Ġà¦¸à¦®à¦¸à§įà¦¯": 1595,
      "Ġà¦²à¦ķà§įà¦·": 1596,
      "à¦¿à¦¸à§įà¦Ł": 1597,
      "à§§à§«": 1598,
      "à§§à§®": 1599,
      "à§¨à§ª": 1600,
      "ĠâĢ¢": 1601,
      "Ġà¦ªà¦°à¦¿à¦ļà¦¾à¦²": 1602,
      "à§ĩĠà¦ħà¦¨": 1603,
      "Ġà¦ľà¦¨à¦¾à¦¬": 1604,
      "à§ĩĠà¦Ĩà¦®à¦°": 1605,
      "à§ĩĠà¦Ĩà¦®à¦¾à¦¦": 1606,
      "à¦¦à§įà¦¦à§ĩà¦¶": 1607,
      "ing": 1608,
      "Ġà¦¹à¦¾à¦¸à¦¿à¦¨": 1609,
      "Ġà¦¬à¦¿à¦¶à§įà¦¬à¦¬à¦¿à¦¦à§įà¦¯à¦¾à¦²à¦¯à¦¼": 1610,
      "Ġà¦ĩ-à¦®à§ĩà¦ĩà¦²à¦ĥĠ": 1611,
      "mail": 1612,
      "à¦°à¦¿à¦¶à¦¾à¦²": 1613,
      "Ġà¦¨à¦Ńà§ĩà¦®à§įà¦¬à¦°": 1614,
      "of": 1615,
      "ľà¦¨à§įà¦¯": 1616,
      "à¦¾Ġ(": 1617,
      "à§ĩĠâĢĺ": 1618,
      "à§ĩĠà§©": 1619,
      "à§ĩĠà¦¢à¦¾à¦ķ": 1620,
      "à¦¾à¦°à¦¾à¦¯à¦¼": 1621,
      "à§įà¦¯à¦¤": 1622,
      "à¦¸à¦¾à¦°": 1623,
      "Ġà¦ªà¦¦": 1624,
      "Ġà¦ªà¦¾à¦ł": 1625,
      "à¦¦à¦¨à§įà¦¤": 1626,
      "Ġà¦ıà¦®à¦¨": 1627,
      "Ġà¦Ĩà¦¬à¦¾à¦°": 1628,
      "à¦Ĺà¦¾à¦®à§Ģ": 1629,
      "à¦¾à¦¯à¦¼à¦ķ": 1630,
      "à¦¾à¦¯à¦¼Ġà¦¬": 1631,
      "Ġà¦¤à¦¿à¦¨": 1632,
      "à¦¾à¦¦à¦¿": 1633,
      "à¦¶à§įà¦¯": 1634,
      "à¦Ńà¦¾à¦°": 1635,
      "à§ĩà¦°Ġà¦¸à¦®à¦¯à¦¼": 1636,
      "Ġà¦ĩà¦¨": 1637,
      "Ġà¦īà¦¨à§įà¦¨à¦¯à¦¼à¦¨": 1638,
      "Ġà¦²à§ĭà¦ķ": 1639,
      "à¦¿à¦¬à¦¾à¦°": 1640,
      "à§ĩà¦°Ġà¦ķà¦¥": 1641,
      "à¦¾à¦§à§Ģà¦¨": 1642,
      "ĠâĢľ": 1643,
      "à¦¨à§įà¦¦à¦°": 1644,
      "à§Ģà¦°Ġà¦ķ": 1645,
      "à¦¸à§įà¦¥à¦¿à¦¤": 1646,
      "à§ĩĠà¦°à¦¾à¦ĸ": 1647,
      "à¦ķà§įà¦¤à¦¬à§įà¦¯": 1648,
      "à¦¸à§įà¦¤à§įà¦°": 1649,
      "à¦łà¦¨": 1650,
      "Ġà¦ªà§įà¦°à¦¤à¦¿à¦·à§įà¦łà¦¾à¦¨": 1651,
      "à§ĩà¦Ľà¦¿à¦²à§ĩà¦¨": 1652,
      "à§ĩĠà¦«à§ĩà¦²": 1653,
      "à§įà¦°à§ģà¦ª": 1654,
      "à¦ķà§įà¦°à¦®": 1655,
      "à¦°Ġà¦Ĩà¦Ĺ": 1656,
      "Ġà¦¹à¦¾à¦¸à¦ªà¦¾à¦¤à¦¾à¦²": 1657,
      "à¦°à¦¾à¦ľà¦¶à¦¾à¦¹à§Ģ": 1658,
      "à¦¾à¦¸à§įà¦¥à§įà¦¯": 1659,
      "Ġà¦¬à¦¿à¦ıà¦¨à¦ª": 1660,
      ",Ġà¦ľ": 1661,
      "à§ģà¦¹": 1662,
      "à§ĭà¦ĸ": 1663,
      "à§ĭà¦¯à¦¼à¦¾à¦°": 1664,
      "à¦¬à¦°à§įà¦¤": 1665,
      "à¦®à§įà¦¬": 1666,
      "Ġà¦¸à§ĩà¦ĩ": 1667,
      "Ġà¦¸à¦Ļà§įà¦Ĺ": 1668,
      "à¦¦à§ģà¦²": 1669,
      "Ġà¦ıà¦°": 1670,
      "Ġà¦®à§ģà¦ĸ": 1671,
      "Ġà¦¦à§ĭâĢĻà¦ĨĠ0": 1672,
      "Ġà¦ķà¦°à¦¾Ġà¦¹à¦¯à¦¼à§ĩà¦Ľà§ĩà¥¤": 1673,
      "Ġà¦¤à¦¾à¦ķ": 1674,
      "Ġà¦ľà§Ģà¦¬à¦¨": 1675,
      "à¦¾à¦ĩà¦®": 1676,
      "à¦¶à¦¨": 1677,
      "Ġà¦¶à¦¾à¦¹": 1678,
      "Ġà¦¶à¦¿à¦ª": 1679,
      "à§ĩĠà¦¬à§ĩà¦¶": 1680,
      "Ġà¦Ĺà§ĭà¦²": 1681,
      "Ġà¦Ńà¦¿à¦¡": 1682,
      "à¦¾Ġà¦¹à¦¬": 1683,
      "à§ĩà¦°à¦ķ": 1684,
      "à¦ıà¦ķ": 1685,
      "ĠâĢ¦": 1686,
      "à§ĩà¦®à§įà¦¬": 1687,
      "Ġà¦¬à§įà¦¯à¦¾à¦ª": 1688,
      "à§«à§¦": 1689,
      "Ġà¦ªà¦°à¦¿à¦¦": 1690,
      "à§ĩà¦¦à¦¾Ġà¦ľ": 1691,
      "Ġà¦¨à¦¿à¦°à§įà¦§": 1692,
      "à¦¾Ġà¦¦à¦¿à¦¯à¦¼": 1693,
      "Ġà¦¸à¦®à§įà¦ªà¦°à§įà¦ķ": 1694,
      "à§ĩà¦°Ġà¦īà¦ª": 1695,
      "Ġà§¦à§§à§Ń": 1696,
      "Ġà¦Ĩà¦°à¦ĵ": 1697,
      "Ġà¦ĩà¦īà¦¨à¦¿à¦¯à¦¼à¦¨": 1698,
      "Ġà¦¬à§įà¦¯à¦¬à¦¹à¦¾à¦°Ġà¦ķà¦°": 1699,
      "à¦¾à¦®à§įà¦®à¦¦": 1700,
      "Ġà¦ªà¦°à¦¿à¦¶à§ĭà¦§": 1701,
      "@g": 1702,
      "am": 1703,
      "th": 1704,
      "Ġ/": 1705,
      "ĠP": 1706,
      "Ġ...Ċ": 1707,
      "à¦°à§ģà¦²": 1708,
      "à¦¨à¦¾Ġà¦ķà¦°": 1709,
      "à¦¾à¦°à¦¿": 1710,
      "à¦¾Ġà¦²": 1711,
      "à¦¬à§ĩà¦¶": 1712,
      "à¥¤Ġà¦®": 1713,
      "Ġà¦¬à¦¿à¦²": 1714,
      "à¦ªà§įà¦²": 1715,
      "Ġà¦¦à§ĩà¦¯à¦¼": 1716,
      "Ġà¦ľà¦Ļà§įà¦Ĺ": 1717,
      "à¦¾à¦¸à¦¨": 1718,
      "à¦¾à¦¸à§Ģ": 1719,
      "Ġà¦°à¦¿à¦ªà§ĭà¦°à§įà¦Ł": 1720,
      "Ġà¦ªà§įà¦°à¦¸à§įà¦¤": 1721,
      "Ġà¦¬à¦¿à¦ļ": 1722,
      "Ġ(à§¨": 1723,
      "à§ĩà¦°Ġà¦¸à¦Ĥ": 1724,
      "à¦¾à¦Ĺà¦°à¦¿à¦ķ": 1725,
      "à¦¿à¦°Ġà¦¦": 1726,
      "à¦¨à§įà¦¤à¦¾à¦¨": 1727,
      "Ġà¦Ľà§ĭà¦Ł": 1728,
      "à§ĩà¦°Ġà¦ªà¦ķà§įà¦·": 1729,
      "à§ĩĠà¦¯à¦¾à¦¬": 1730,
      "à§ĩĠà¦¤à¦¾à¦¦": 1731,
      "à¦Ļà§įà¦Ĺà¦¬à¦¨à§įà¦§": 1732,
      "Ġà¦¬à§įà¦¯à¦¬à¦¸à§įà¦¥": 1733,
      "ŀà§įà¦ļ": 1734,
      "Ġà¦¡à¦²à¦¾à¦°": 1735,
      "Ġà¦¸à¦Ĥà¦¶": 1736,
      "à¦¿à¦ªà¦ķà§įà¦·": 1737,
      "à§ĩĠà¦ªà§įà¦°à¦§à¦¾à¦¨": 1738,
      "à§ĩà¦°Ġà¦¨à¦¾à¦®": 1739,
      "Ġà¦Ĩà¦²à¦®": 1740,
      "Ġà¦ªà§įà¦°à¦¤à¦¿à¦¬": 1741,
      "à¦¿à¦īà¦Ł": 1742,
      "à¦¿à¦ıà¦®": 1743,
      "à¥¤Ġà¦¤à¦¿à¦¨à¦¿": 1744,
      "Ġà¦Ľà¦¿à¦²à§ĩà¦¨": 1745,
      "Ġà¦Ĩà¦¸à¦¨": 1746,
      "à¦¾à¦°Ġà¦¦à¦¿à¦ķ": 1747,
      "Ġà¦ªà¦°à¦¿à¦¬à¦¹à¦¨": 1748,
      "à¦¾à¦°à§įà¦¥à§Ģ": 1749,
      "Ġth": 1750,
      "à§įà¦¥à¦¾à¦¨à§Ģà¦¯à¦¼": 1751,
      "à¦¿à¦¦à§įà¦§à¦¾à¦¨à§įà¦¤": 1752,
      "à¦¿à¦¶à§įà¦ļà¦¿à¦¤": 1753,
      "à¦¤à¦¿à¦¹à¦¾à¦¸": 1754,
      "à¦¸à¦¿à¦Ĥà¦¹": 1755,
      "mail.com": 1756,
      "Ġà¦Ńà¦¿à¦¡à¦¿à¦ĵ": 1757,
      ":Ġ": 1758,
      "ne": 1759,
      "oĠ": 1760,
      "à¦¿Ġà¦ıà¦¬à¦Ĥ": 1761,
      "à¦¿à¦¥": 1762,
      "à§ĩà¦ļ": 1763,
      "à§ĭà¦¶": 1764,
      "à¦¤à¦¿à¦°": 1765,
      "à¦¬à§ĩà¦·": 1766,
      "à¦®à§ģà¦¦": 1767,
      "à§ĩà¦°Ġà¦¡": 1768,
      "à§ĩà¦°Ġà¦ĩ": 1769,
      "Ġà¦¸à§ĩà¦Ł": 1770,
      "à¦¸à¦ľ": 1771,
      "à¦¸à¦¾à¦ĩà¦Ł": 1772,
      "Ġà¦¬à§įà¦°": 1773,
      "Ġà¦ªà¦¾à¦ĵà¦¯à¦¼": 1774,
      "Ġà¦®à¦¿à¦Łà¦¾à¦°": 1775,
      "à¦Łà§įà¦°": 1776,
      "à¦°à§įà¦Ń": 1777,
      "Ġà¦¦à§ĭâĢĻà¦Ĩ": 1778,
      "Ġà¦¹à¦¤à§įà¦¯": 1779,
      "Ġà¦¹à¦¾à¦®à¦²": 1780,
      "à¦¿à¦¤à§Ģà¦¯à¦¼": 1781,
      "à§ĩà¦Ľà§ĩ": 1782,
      "à¦¿à¦²à§ĩà¦¨": 1783,
      "Ġà¦Ĺà¦£": 1784,
      "à§Ĥà¦¹": 1785,
      "Ġà¦ļà¦¿à¦ķà¦¿à§İà¦¸": 1786,
      "Ġà¦īà¦ĩ": 1787,
      "à§ĩà¦°Ġà¦ªà¦°": 1788,
      "à§ĩĠà¦¯à§ĭà¦Ĺ": 1789,
      "à§ĩĠà¦¤à¦¾à¦ģ": 1790,
      "à¦¾Ġà¦ªà¦°": 1791,
      "à¥¤Ġà¦ıà¦¤": 1792,
      "à¦¯à¦¾à¦¨": 1793,
      "Ġà¦¸à¦Ĥà¦¸à§įà¦¥": 1794,
      "à¦¾Ġà¦ķà¦°à¦¤": 1795,
      "à§Ģà¦°Ġà¦ª": 1796,
      "Ġà¦®à§ĭ.": 1797,
      "à¦¾Ġà¦¯à¦¾à¦¬": 1798,
      "à§ĩà¦°Ġà¦ħà¦¨": 1799,
      "à§įà¦łà¦¿à¦¤": 1800,
      "Ġà¦ªà§įà¦°à¦¤à¦¿à¦¨à¦¿à¦§à¦¿": 1801,
      "à¦®à¦¨à¦¸à¦¿à¦Ĥà¦¹": 1802,
      "à¦ķà§įà¦°à¦¾à¦¨à§įà¦¤": 1803,
      "à¦ŀà§įà¦ļà¦²": 1804,
      "Ġà¦®à§ĭà¦¬à¦¾à¦ĩà¦²à¦ĥ": 1805,
      "Ġà¦¸à¦Ĥà¦¸à¦¦Ġà¦¨à¦¿à¦°à§įà¦¬à¦¾à¦ļà¦¨": 1806,
      "Ġà¦¸à¦®à§įà¦®à§ĩà¦²à¦¨": 1807,
      "à§ĭà¦®à§įà¦ªà¦¾à¦¨": 1808,
      "à§ĭà¦¦à¦¨": 1809,
      "Ġà¦ļà§Įà¦§à§ģà¦°à§Ģ": 1810,
      "à¦°à¦¿à¦¶à¦¾à¦²Ġà¦¬à¦¿à¦Ńà¦¾à¦Ĺ": 1811,
      "@gmail.com": 1812,
      ";ĠÂ·": 1813,
      "à¦¾Ċ": 1814,
      "à¦¿Ġà¦¹à¦¯à¦¼": 1815,
      "à¦¿à¦°à¦¿à¦ľ": 1816,
      "à¦°à¦¾à¦«": 1817,
      "à¦°Ġà¦Ĺ": 1818,
      "à¦ķà§ĩĠà¦¬": 1819,
      "à¦²à§Ģ": 1820,
      "à¦²à¦ķà§įà¦·": 1821,
      "à§ĭà¦¤": 1822,
      "à¦®à¦¾à¦£": 1823,
      "à§ĩà¦°Ġà¦§": 1824,
      "à¥¤Ġà¦¯": 1825,
      "Ġà¦¸à§įà¦ķ": 1826,
      "Ġà¦ªà§Į": 1827,
      "à§įà¦¤à§įà¦°à§Ģ": 1828,
      "à¦ľà¦¿à¦¬": 1829,
      "âĢĺ": 1830,
      "à¦£à¦Ĺà¦ŀà§įà¦ľ": 1831,
      "Ġà¦°à§ĩà¦ľ": 1832,
      "à¦ļà¦¿à¦¤à§įà¦°": 1833,
      "à¦¡à¦¼à¦¿à¦¯à¦¼": 1834,
      "à§Ĥà¦¤": 1835,
      "à§ĩà¦°Ġà¦¸à¦®": 1836,
      "Ġà¦²à¦¾à¦Ĺ": 1837,
      "Ġà¦ıà¦ķà¦ĩ": 1838,
      "Ġà¦¥à¦¾à¦¨": 1839,
      "Ġà¦Ĩà¦®à¦¾à¦°": 1840,
      "à§ĩĠà¦Ĺà¦¤": 1841,
      "à¦¨à§įà¦¦à§įà¦°": 1842,
      "à¦¨à§įà¦¦à¦¿à¦°": 1843,
      "à§Ģà¦°Ġà¦¬": 1844,
      "à§ĩĠà¦°à¦¾à¦ľ": 1845,
      "à§ĩĠà¦ªà§įà¦°à¦ķà¦¾à¦¶": 1846,
      "à¦¾Ġà¦¦à§ĩà¦ĸ": 1847,
      "à¦łà¦¿à¦¤": 1848,
      "Ġà¦ĺà§ĭà¦·à¦£": 1849,
      "à¦¾à¦«à¦²": 1850,
      "à¦ķà¦¾à¦²à§Ģà¦¨": 1851,
      "Ġà¦Ĩà¦ªà¦¨": 1852,
      "à¦¿à¦¯à¦¾à¦¨": 1853,
      "à¦¾Ġà¦ıà¦ĩ": 1854,
      "à§ĩà¦¯à¦¼à¦¾à¦°à¦®à§įà¦¯à¦¾à¦¨": 1855,
      "à¦ķà¦²à§įà¦ª": 1856,
      "à¦°à§įà¦¶à¦¨": 1857,
      "Ġà¦¹à¦¿à¦¸à¦¾à¦¬": 1858,
      "Ġ2018Ġ(1": 1859,
      "Ġà¦ķà¦²à§ĩà¦ľ": 1860,
      "Ġà¦¡à¦¿à¦¸à§ĩà¦®à§įà¦¬à¦°": 1861,
      "à¦¦à§įà¦¦à§ĩà¦¶à§įà¦¯": 1862,
      "à¦°à¦¾à¦ľà¦¶à¦¾à¦¹à§ĢĠà¦¬à¦¿à¦Ńà¦¾à¦Ĺ": 1863,
      "à¦¬à¦°à§įà¦¤à§Ģ": 1864,
      ")Ġà¦ħà¦ķà§įà¦Łà§ĭà¦¬à¦°": 1865,
      "ad": 1866,
      "id": 1867,
      "is": 1868,
      "Ġ'": 1869,
      "ĠĊ": 1870,
      "à¦¾)": 1871,
      "à¦¾:": 1872,
      "à¦°à¦¸": 1873,
      "à¦¾à¦°à§įà¦¯": 1874,
      "à¦¾à¦°à§ĩà¦¶à¦¨": 1875,
      "à¦ķà¦¬": 1876,
      "à¦ķà§ĩĠà¦¸": 1877,
      "à¦¬à¦Ľ": 1878,
      "à¦¬à¦°à¦¿à¦¶à¦¾à¦²Ġà¦¬à¦¿à¦Ńà¦¾à¦Ĺ": 1879,
      "à§ĩà¦°Ġà¦Ł": 1880,
      "Ġà¦ķà§įà¦²": 1881,
      "à§Ģà¦ķà¦¾à¦°": 1882,
      "à¦¾à¦¨à§įà¦¡": 1883,
      "à¦¾à¦¨à§ģà¦·": 1884,
      "à¦¦à¦¾à¦²à¦¤": 1885,
      "Ġà¦ıà¦°Ġà¦": 1886,
      "à¦¾à¦®à¦¾à¦¨": 1887,
      "Ġà¦ķà¦°à§ĩà¥¤": 1888,
      "à¦ľà¦¾à¦¨": 1889,
      "à¦¾à¦¬à¦¾à¦°": 1890,
      "à¦¾à¦¬à¦¾à¦¦": 1891,
      "Ġà¦ªà§įà¦°à¦ļ": 1892,
      "Ġà¦¶à¦¿à¦²à§įà¦ª": 1893,
      "Ġà¦ĵĠà¦ª": 1894,
      "Ġà¦Ĺà§įà¦°à¦¹à¦£": 1895,
      "à¦¾à¦¹à¦²": 1896,
      "à¦¾à¦ªà¦¤à§įà¦¤": 1897,
      "à¦ĸà§ģà¦²à¦¨": 1898,
      "à§ĩà¦°Ġà¦¸à¦¬": 1899,
      "à§ĩĠà¦¨à¦¿à¦°à§įà¦¬à¦¾à¦ļà¦¨": 1900,
      "à¦ıà¦ĩ": 1901,
      "Ġà§§à§¨": 1902,
      "à§Īà¦¨à¦¿à¦ķ": 1903,
      "Ġà¦¨à¦¿à¦°à§įà¦®": 1904,
      "à¦ĸà¦¨à§ĭ": 1905,
      "Ġà¦ĺà¦Ł": 1906,
      "à§ĩĠà¦Ĩà¦®à¦¿": 1907,
      "à¦ªà§įà¦¤à¦¾à¦¹": 1908,
      "à§Ĥà¦²à¦ķ": 1909,
      "Ġà¦ķà¦®à¦¿à¦¶à¦¨": 1910,
      "à¦¿à¦²à§ĩà¦ŁĠà¦¬à¦¿à¦Ńà¦¾à¦Ĺ": 1911,
      "Ġà¦®à¦¹à¦¾à¦¨": 1912,
      "à§ĩà¦Ĺà¦®": 1913,
      "Ġà¦ªà§įà¦°à¦ķà¦¾à¦¶Ġà¦ķà¦°": 1914,
      "à¦°à§įà¦¦à§ĩà¦¶": 1915,
      "à¦²à§įà¦²à§ĩà¦ĸ": 1916,
      "à¦¢à¦¾à¦ķà¦¾Ġà¦¬à¦¿à¦Ńà¦¾à¦Ĺ": 1917,
      "à§ĥà¦¹à¦¸à§įà¦ª": 1918,
      "à¦¤à¦¿à¦ĥ": 1919,
      "***": 1920,
      "Ġà¦ľà¦¾à¦¹à¦¾à¦ľ": 1921,
      "Ġà¦®à¦¿à¦¨à¦¿à¦Ł": 1922,
      "à¦¸à§Ĥà¦ļ": 1923,
      "Ġ2015Ġ(": 1924,
      "à¦¸à¦ľà¦¿à¦¦": 1925,
      "à§ĥà¦¹à¦¸à§įà¦ªà¦¤à¦¿à¦¬": 1926,
      "ag": 1927,
      "ch": 1928,
      "el": 1929,
      "ww": 1930,
      "à§ĩ-": 1931,
      "à§ĩĠà§ª": 1932,
      "à¦¾à¦°Ġà¦¨": 1933,
      "à§ģà¦Łà¦¿": 1934,
      "à¦ķà§ĩĠà¦Ĩ": 1935,
      "à¥¤Ġà¦Ĩà¦°Ġà¦": 1936,
      "à§įà¦¯à¦¾à¦¯à¦¼": 1937,
      "Ġà¦¸à¦¦": 1938,
      "Ġà¦¸à§Ĥ": 1939,
      "Ġà¦ªà¦¾à¦¯à¦¼": 1940,
      "Ġà¦ªà¦£à§įà¦¯": 1941,
      "Ġà¦ıà¦¤": 1942,
      "à¦Łà¦¾Ġà¦¬": 1943,
      "Ġà¦¦à§ĩà¦ĵà¦¯à¦¼": 1944,
      "à¦¾à¦¯à¦¼à¦Ĺ": 1945,
      "à¦¾à¦¯à¦¼à¦¿à¦¤à§įà¦¬": 1946,
      "à¦¾à¦ķà¦¾à¦°": 1947,
      "à¦¾à¦ķà§įà¦¸": 1948,
      "à¦ľà§įà¦ŀ": 1949,
      "à¦¾à¦ĩà¦¡": 1950,
      "à¦¾à¦¤à¦¿à¦ķ": 1951,
      "Ġà¦°à§ĩà¦ĸ": 1952,
      "Ġà¦°à¦¾à¦¸à§įà¦¤": 1953,
      "Ġà¦°à¦¾à¦·à§įà¦Łà§įà¦°": 1954,
      "Ġà¦ªà§įà¦°à¦¿à¦¯à¦¼": 1955,
      "à¦¾à¦ľà¦®": 1956,
      "Ġà¦ĵĠà¦®": 1957,
      "à§ĩĠà¦Ĩà¦¨": 1958,
      "à¦¡à¦¼à¦¿": 1959,
      "à¦¡à¦¼à¦¿à¦¤": 1960,
      "Ġà¦ļà§ģà¦ķà§įà¦¤": 1961,
      "Ġ(à¦¬": 1962,
      "Ġà¦«à§įà¦²": 1963,
      "à§ĩĠà¦¦à¦¿à¦¯à¦¼": 1964,
      "à§ĩĠà¦ķà§ĭà¦¨à§ĭ": 1965,
      "à§§à§§": 1966,
      "à§§à§©": 1967,
      "Ġà¦Ľà§ĩà¦²": 1968,
      "à¦Ĩà¦ª": 1969,
      "à¦¬à¦¾à¦°Ġà¦¸": 1970,
      "à§©à§¦": 1971,
      "à§Ģà¦°Ġà¦®": 1972,
      "à§Ģà¦°Ġà¦¸": 1973,
      "à¦¦à§įà¦§à¦¾à¦°Ġà¦ķà¦°": 1974,
      "à§ĥà¦¤à§įà¦¤": 1975,
      "à¦¨à¦¿à¥¤": 1976,
      "Ġà¦ľà¦¾à¦¨à¦¾à¦¨": 1977,
      "à§ĩĠà¦Ńà¦¾à¦°à¦¤": 1978,
      "à¦ªà§ģà¦°Ġà¦¬": 1979,
      "à¦¿à¦¡à¦¿à¦¯à¦¼": 1980,
      "à¦°Ġà¦ķà¦°": 1981,
      "à§įà¦°à§ģà¦¤": 1982,
      "ang": 1983,
      "Ġà¦ıà¦²à¦¾à¦ķà¦¾à¦¯à¦¼": 1984,
      "Ġà¦ħà¦¨à§ģà¦¯à¦¾à¦¯à¦¼à§Ģ": 1985,
      "Ġà¦°à¦¯à¦¼à§ĩà¦Ľà§ĩà¥¤": 1986,
      "Ġà¦²à¦¾à¦ĸĠà¦Łà¦¾à¦ķ": 1987,
      "à¦¦à§įà¦¯à§ĭà¦Ĺ": 1988,
      ")Ġà¦ľà§ģà¦²à¦¾à¦ĩ": 1989,
      "à§ĩà¦¸à¦¬à§ģà¦ķ": 1990,
      "Ġà¦®à¦¾à¦¹à¦®à§ģà¦¦": 1991,
      "ÂłĊ": 1992,
      ")Ġà¦Ĩà¦Ĺà¦¸à§įà¦Ł": 1993,
      ",Ġà¦ħ": 1994,
      ".Ġà¦ķ": 1995,
      "50": 1996,
      "em": 1997,
      "un": 1998,
      "ĠA": 1999,
      "ĠC": 2000,
      "ĠS": 2001,
      "Ĩà¦ĩ": 2002,
      "à¦°à§ģà¦²Ġà¦ĩà¦¸à¦²à¦¾à¦®": 2003,
      "à¦¾à¦°à§ĩà¦²": 2004,
      "à¦¾à¦°Ġà¦ļ": 2005,
      "à§ģà¦ľ": 2006,
      "à¦ķà§įà¦¯": 2007,
      "à¦ķà§ĩĠà¦¨": 2008,
      "à¦ķà§ĩà¦Ł": 2009,
      "à¦¾Ġà¦¡": 2010,
      "à¦¬à¦¾à¦ľà¦¾à¦°": 2011,
      "Ġà¦¸à§įà¦ª": 2012,
      "Ġà¦¸à¦¦à¦¸à§įà¦¯": 2013,
      "Ġà¦¬à¦¾à¦°": 2014,
      "Ġà¦¬à¦¡à¦¼": 2015,
      "Ġà¦¬à¦¨à§įà¦§": 2016,
      "Ġà¦ªà¦¾à¦¬": 2017,
      "Ġà¦ªà¦¤à§įà¦°": 2018,
      "Ġà¦¨à¦¾Ġà¦ķà¦°": 2019,
      "Ġà¦¦à§ĩà¦¬": 2020,
      "Ġà¦¦à§Ģà¦°à§įà¦ĺ": 2021,
      "Ġà¦ķà¦°à¦Ľ": 2022,
      "Ġà¦¹à¦ĵà¦¯à¦¼": 2023,
      "Ġà¦ľà§ĩà¦¨": 2024,
      "à§ĩà¦Ľà§ĩĠà¦¬à¦²": 2025,
      "à¦¾à¦ĩà¦ľ": 2026,
      "Ġà¦°à¦¾à¦¶": 2027,
      "Ġà¦°à§ĭà¦Ĺ": 2028,
      "Ġà¦ªà§įà¦°à¦¤à§įà¦¯": 2029,
      "à§įà¦·à¦®à¦¤": 2030,
      "à§ĩĠà¦¬à¦¸": 2031,
      "Ġ(à¦¸": 2032,
      "à§ĩà¦°Ġà¦¸à¦¹": 2033,
      "à¦¾à¦Ĺà¦ľ": 2034,
      "Ġà¦Ńà¦¾à¦²": 2035,
      "Ġà¦«à§įà¦°": 2036,
      "Ġà¦²à¦¿à¦ĸ": 2037,
      "à¦¾Ġà¦¹à¦ļà§įà¦Ľ": 2038,
      "à§ĩĠà¦¦à§ĭâĢĻà¦Ĩ": 2039,
      "à¦«à¦²": 2040,
      "à§ģà¦ķà§įà¦°": 2041,
      "à§įà¦²à¦¿à¦·à§įà¦Ł": 2042,
      "à§ĩà¦°Ġà¦®à¦¨": 2043,
      "à§ĩĠà¦¤à¦¾à¦ķ": 2044,
      "à§ĩà¦°Ġà¦ķà¦°": 2045,
      "à¦¾à¦§à¦¿à¦ķ": 2046,
      "ŀà§įà¦ľ": 2047,
      "Ġà§§à§«": 2048,
      "Ġà§§à§®": 2049,
      "à¦¿à¦Ĥà¦¬": 2050,
      "à§ĩĠà¦°à¦¯à¦¼": 2051,
      "à§ĩĠà¦¶à§ģà¦°à§ģ": 2052,
      "Ġà§¨à§¦à§§à§«": 2053,
      "à§ĩĠà¦īà¦ª": 2054,
      "à§ĭà¦²à¦¨": 2055,
      "à§ģà¦°à§ģà¦¤à§įà¦¬": 2056,
      "à¦¤à§ĩĠà¦ªà¦¾à¦°à§ĩà¦¨": 2057,
      "à¦ģà¦Ľ": 2058,
      "à¦ĺà¦°à§įà¦·": 2059,
      "à¦®à¦¯à¦¼à¦®à¦¨à¦¸à¦¿à¦Ĥà¦¹": 2060,
      "à¦¿à¦Ĺà¦ŀà§įà¦ľ": 2061,
      "à¦°Ġà¦®à¦§à§įà¦¯": 2062,
      "à¦ªà¦°à¦¾à¦§": 2063,
      "à§ĭà¦¹à¦¿à¦Ļà§įà¦Ĺ": 2064,
      "Ġà¦¢à¦¾à¦ķà¦¾-": 2065,
      "Ġà¦Ĺà¦¤à¦ķà¦¾à¦²": 2066,
      "Ġà¦§à¦°à¦¨": 2067,
      "à§ĩĠà¦§à¦°": 2068,
      "Ġà¦ıà¦¨à§įà¦¡Ġà¦¶à¦¿à¦ª": 2069,
      "à§ĩà¦°Ġà¦ıà¦ĩ": 2070,
      ")Ġà¦¸à§ĩà¦ªà§įà¦Łà§ĩà¦®à§įà¦¬à¦°": 2071,
      "à§įà¦Ńà¦¬": 2072,
      "Ġà¦ħà¦¨à§ģà¦·à§įà¦łà¦¾à¦¨": 2073,
      "à§ĩà¦°Ġà¦ĺà¦Łà¦¨": 2074,
      "Ġà¦ĵà¦¯à¦¼à§ĩà¦¬à¦¸à¦¾à¦ĩà¦Ł": 2075,
      "à¦ĸà§ģà¦²à¦¨à¦¾Ġà¦¬à¦¿à¦Ńà¦¾à¦Ĺ": 2076,
      "Ġà¦ıà¦¨à§įà¦¡Ġà¦¶à¦¿à¦ªĠà¦¸à¦¾à¦°à§įà¦Ńà§ĩà¦¯à¦¼à¦¾à¦°": 2077,
      ",Ġà¦¤à¦¾à¦°": 2078,
      "ĉĊ": 2079,
      "Ġh": 2080,
      "Īà¦¦": 2081,
      "à§ĩĠà§«": 2082,
      "à§ĩà¦£": 2083,
      "à¦¨à¦¿à¦ľ": 2084,
      "à¦°Ġà¦°": 2085,
      "à¦ķ-": 2086,
      "à¦¾Ġà¦Ł": 2087,
      "à§ĭà¦ķà§įà¦¤": 2088,
      "à¦¤à¦¬": 2089,
      "à¦¬à§ĭ": 2090,
      "à¦¬à§Ģ": 2091,
      "à¦¬à§įà¦¬": 2092,
      "à¦¬à§įà¦¦": 2093,
      "à§įà¦°à¦¤à¦¿": 2094,
      "Ġà¦ķà§Ģ": 2095,
      "Ġà¦ķà¦¾à¦¦": 2096,
      "à§Ģà¦ªà§ģà¦°Ġà¦": 2097,
      "à§Ģà¦°à§įà¦·": 2098,
      "Ġà¦¸à¦°": 2099,
      "Ġà¦¸à¦¿à¦Ł": 2100,
      "à¦¾à¦¨à§įà¦¦": 2101,
      "Ġà¦ªà§Ĥà¦°à§įà¦¬": 2102,
      "à¦¦à¦¾à¦¯à¦¼": 2103,
      "Ġà¦®à§ģà¦ķà§įà¦¤": 2104,
      "Ġà¦¦à¦¿à¦ķ": 2105,
      "à¦¾à¦²à¦ķ": 2106,
      "à¦¾à¦²à¦¿à¦¯à¦¼": 2107,
      "à¦Ĺà¦¾à¦ģ": 2108,
      "à¦Ĺà§ģà¦¡à¦¼": 2109,
      "à¦¿à¦¨à§ĩà¦¤": 2110,
      "à¦¾à¦¯à¦¼Ġà¦¯": 2111,
      "à¦¾à¦ķà§įà¦¤": 2112,
      "Ġà¦ľà§ģà¦¨": 2113,
      "à¦¶à§įà¦ļ": 2114,
      "Ġà¦ªà§įà¦°à¦¾à¦¯à¦¼": 2115,
      "à¦Ńà¦¾à¦°à¦¤": 2116,
      "Ġà¦ĵĠà¦ķ": 2117,
      "à¦¾à¦¹à¦¾à¦°": 2118,
      "à§Ĥà¦°à§įà¦¤": 2119,
      "Ġà¦ĩà¦Ĥ": 2120,
      "Ġà¦Ńà§Ĥ": 2121,
      "Ġà¦Ńà§ĭà¦Ł": 2122,
      "Ġà¦Ńà¦¾à¦Ļ": 2123,
      "Ļà§įà¦ķ": 2124,
      "à¦¿à¦¸à§įà¦Łà§įà¦°": 2125,
      "à§ĩĠà¦¦à§ģà¦ĩ": 2126,
      "à¦«à§ĭà¦¨": 2127,
      "à¦¨à§įà¦¤à¦°à§įà¦ľ": 2128,
      "Ġà¦¹à¦¯à¦¼à¥¤": 2129,
      "à§ĩà¦°Ġà¦¬à¦¿à¦ªà¦ķà§įà¦·": 2130,
      "à§ĩà¦°Ġà¦ķà§ĭà¦¨à§ĭ": 2131,
      "à§ĩà¦Ľà§ĩà¦¨,": 2132,
      "à¦¾à¦§à¦¾à¦¨": 2133,
      "Ġà§§à§ª": 2134,
      "à§ĩĠà¦°à§ĩà¦ĸ": 2135,
      "à§ģà¦¬à¦¿à¦§": 2136,
      "à§ĩà¦°Ġà¦¦à§ĭâĢĻà¦ĨĠ0": 2137,
      "à¦¾à¦£à¦¿à¦ľ": 2138,
      "à§ĭà¦ķà¦¾à¦¨": 2139,
      "à§ĩà¦°Ġà¦ªà§įà¦°à¦¤": 2140,
      "à¦¾Ġà¦ħà¦¨": 2141,
      "à¦¿à¦ıà¦¸": 2142,
      "à¦¾Ġà¦ªà§įà¦°à¦¦à¦¾à¦¨": 2143,
      "Ġà¦ķà§ĭà¦°à§įà¦": 2144,
      "Ġà¦ķà§ĭà¦¥": 2145,
      "à¦¿à¦ķà§įà¦·à§ĭà¦Ń": 2146,
      "à§ĩĠà¦ĸà§ĩà¦²": 2147,
      "Ġà¦Ĩà¦¬à§ĩà¦¦à¦¨": 2148,
      "à¦¾à¦¯à§įà¦¯": 2149,
      "à¦¾à¦°à§įà¦¥à§Ģà¦¦": 2150,
      "à§įà¦¯à¦¾à¦ķà§įà¦¸": 2151,
      "Ġ2018Ġ(": 2152,
      "à¦¨à§įà¦¤à§įà¦°à¦£à¦¾à¦²à¦¯à¦¼": 2153,
      "Ġà¦ªà§įà¦°à¦¶à§įà¦¨": 2154,
      "à§ĩĠà¦¹à¦¤à§įà¦¯à¦¾Ġà¦ķà¦°": 2155,
      "Ġà¦Ĩà¦¹à¦®à§ĩà¦¦": 2156,
      "Ġà¦ĸà¦¾à¦²à§ĩà¦¦à¦¾Ġà¦ľ": 2157,
      "à¦¾Ġà¦ĺà¦Ł": 2158,
      "Ġà¦ĩà¦ŀà§įà¦ľà¦¿à¦¨à¦¿à¦¯à¦¼à¦¾à¦°Ġà¦ıà¦¨à§įà¦¡Ġà¦¶à¦¿à¦ªĠà¦¸à¦¾à¦°à§įà¦Ńà§ĩà¦¯à¦¼à¦¾à¦°": 2159,
      "Ġà¦¨à¦¿à¦°à§įà¦§à¦¾à¦°à¦¿à¦¤": 2160,
      "à¦¬à¦Ľà¦°": 2161,
      "à¦ªà§ģà¦°Ġà¦¬à¦¿à¦Ńà¦¾à¦Ĺ": 2162,
      "à¦¨à§įà¦¤à¦°à§įà¦ľà¦¾à¦¤à¦¿à¦ķ": 2163,
      ")Ġà¦®à¦¾à¦°à§įà¦ļ": 2164,
      ")Ġà¦®à§ĩ": 2165,
      ">>": 2166,
      "ed": 2167,
      "¸à§įà¦¥": 2168,
      "à¦°à¦ª": 2169,
      "à¦°à¦¾à¦·à§įà¦Łà§įà¦°": 2170,
      "à¦°à§ģà¦£": 2171,
      "à¦¿à¦ĥ": 2172,
      "à§ĩà¦§": 2173,
      "à¦ķà¦¾à¦¤": 2174,
      "à¦ķà¦°à§įà¦®": 2175,
      "à§ĭà¦¡à¦¼": 2176,
      "à¦¤à¦¿à¦¨à¦¿": 2177,
      "à¦¬à§ĩà¦¨à¥¤": 2178,
      "à¦®à§įà¦¬à¦°": 2179,
      "à¥¤Ġà¦ıà¦ķ": 2180,
      "Ġà¦ķà¦¾à¦²": 2181,
      "Ġà¦¸à¦¿à¦²": 2182,
      "Ġà¦¸à¦°à§įà¦¬": 2183,
      "à¦¾à¦¨à¦¬": 2184,
      "Ġà¦¬à¦¹": 2185,
      "Ġà¦ªà§ĩà¦¯à¦¼": 2186,
      "Ġà¦ıà¦¸à¦¬": 2187,
      "Ġà¦®à¦¾à¦°": 2188,
      "Ġà¦®à¦¤": 2189,
      "Ġà¦®à¦Ļà§įà¦Ĺà¦²à¦¬à¦¾à¦°": 2190,
      "à¦Łà¦¿à¦ķ": 2191,
      "Ġà¦¨à¦Ĥ": 2192,
      "Ġà¦¨à¦¾à¦°à§Ģ": 2193,
      "à¦¾à¦®à¦°à§įà¦¶": 2194,
      "à¦Ĺà§įà¦°": 2195,
      "Ġà¦¹à¦¾à¦¤": 2196,
      "à¦¿à¦ķà§ĩà¦²": 2197,
      "à¦¿à¦¯à¦¼à§ĩà¦¤": 2198,
      "à¦¾à¦ĩà¦Ń": 2199,
      "Ġà¦ªà§įà¦°à¦¤à¦¿": 2200,
      "à¦ļà¦¨": 2201,
      "à¦¾à¦ľà¦¿à¦ķ": 2202,
      "Ġà¦Ĺà¦¬à§ĩà¦·": 2203,
      "à¦¾à¦¹à¦¿à¦¤": 2204,
      "Ġà¦ĩà¦¯à¦¼": 2205,
      "Ġà¦«à¦¿à¦°": 2206,
      "à§ĩĠà¦¨à¦¾à¦®": 2207,
      "à¦¾à¦°à§įà¦²": 2208,
      "à¦¿à¦¶à§ĩà¦·": 2209,
      "Ġà¦Ľà¦¾à¦¤à§įà¦°": 2210,
      "à§ĩà¦°Ġà¦®à¦¤à§ĭ": 2211,
      "à§ĩà¦°Ġà¦¬à¦¿à¦·à¦¯à¦¼": 2212,
      "Ġà¦¬à§įà¦¯à¦¬à¦¸": 2213,
      "Ġà¦ªà¦°à¦¿à¦·à¦¦": 2214,
      "à§ĩĠà¦ħà¦¨à§ĩà¦ķ": 2215,
      "à¦¨à§įà¦¦à§ĭà¦²à¦¨": 2216,
      "Ġà§¨à§¦à§¦": 2217,
      "Ġà¦ľà¦¾à¦¨à¦¿à¦¯à¦¼à§ĩà¦Ľà§ĩà¦¨": 2218,
      "Ġà¦ľà¦¾à¦¨à¦¾à¦¨,": 2219,
      "Ġà¦§à¦¾à¦°": 2220,
      "à§®à§Ń": 2221,
      "à¦ĸà¦¨à¦ĵ": 2222,
      "à§ªà§©": 2223,
      "Ġà¦Ĩà¦²à§ĭà¦ķ": 2224,
      "à§ĭà¦°à§ĩà¦¶à¦¨": 2225,
      "à¦¾à¦Ĥà¦¬à¦¾à¦¦": 2226,
      "Ġà¦¬à¦¿à¦Ńà¦¾à¦Ĺà¦°à¦Ĥ": 2227,
      "Ġà¦Ĩà¦Ĺà¦¾à¦®à§Ģ": 2228,
      "à§Ĥà¦²à§įà¦¯": 2229,
      "à¦°à¦ķà¦¾à¦°à¦¿": 2230,
      "à§ĩà¦ªà§įà¦¤": 2231,
      "Ġà¦Ľà¦¬à¦¿": 2232,
      "à§ĩĠà¦ĵà¦ĩ": 2233,
      "à§ĩà¦·à§įà¦Łà¦¾Ġà¦ķà¦°": 2234,
      "à§ĩĠà¦ĺà¦°": 2235,
      "Ġà¦ħà¦¨à§įà¦¯à¦¾à¦¨à§įà¦¯": 2236,
      "à§ĩĠà¦Ĺà§įà¦°à§ĩà¦«": 2237,
      "Ġà¦«à§ĭà¦¨à¦ĥĠà§¯à§«à§«": 2238,
      "à§ģà¦®à¦¤à¦¿Ġà¦Ľà¦¾à¦¡à¦¼": 2239,
      "Ġà¦ħà¦§à¦¿à¦¦à¦ªà§įà¦¤à¦°": 2240,
      ")Ġà¦ıà¦ªà§įà¦°à¦¿à¦²": 2241,
      "à¦¾à¦°à¦¾à¦¯à¦¼à¦£à¦Ĺà¦ŀà§įà¦ľ": 2242,
      "ĠâĢ¦Ċ": 2243,
      "à¦®à¦¯à¦¼à¦®à¦¨à¦¸à¦¿à¦Ĥà¦¹Ġà¦¬à¦¿à¦Ńà¦¾à¦Ĺà¦°à¦Ĥ": 2244,
      "¸à§įà¦¥à¦¿à¦¤": 2245,
      "à¦¾à¦Ĥà¦¬à¦¾à¦¦à¦¿à¦ķ": 2246,
      "à¦®à¦¯à¦¼à¦®à¦¨à¦¸à¦¿à¦Ĥà¦¹Ġà¦¬à¦¿à¦Ńà¦¾à¦Ĺà¦°à¦Ĥà¦ªà§ģà¦°Ġà¦¬à¦¿à¦Ńà¦¾à¦Ĺ": 2247,
      "!Ċ": 2248,
      ")Ġà¦ľà¦¾à¦¨à§ģà¦¯à¦¼à¦¾à¦°": 2249,
      ")Ġà¦«à§ĩà¦¬à§įà¦°à§ģà¦¯à¦¼à¦¾à¦°": 2250,
      ")Ġà¦¨à¦Ńà§ĩà¦®à§įà¦¬à¦°": 2251,
      ")Ġà¦¡à¦¿à¦¸à§ĩà¦®à§įà¦¬à¦°": 2252,
      ",Ġà¦¶": 2253,
      "-à§©": 2254,
      "ac": 2255,
      "ap": 2256,
      "ĠĠ": 2257,
      "à¦¾Ġ:": 2258,
      "à¦¾à¦ĺ": 2259,
      "à§ĩ?": 2260,
      "à§ĩĠ(": 2261,
      "à¦¿Ġà¦Ĩ": 2262,
      "à¦°à¦ķà§įà¦·": 2263,
      "à¦°Ġà¦¶": 2264,
      "à¦°Ġà¦ıà¦ķ": 2265,
      "à¦¾à¦°Ġà¦ĵ": 2266,
      "à¦®à¦¾à¦°": 2267,
      "Ġà¦¸à§ĩà¦¬": 2268,
      "à¦¾à¦¨à§Ģ": 2269,
      "Ġà¦¬à§Ī": 2270,
      "Ġà¦¬à¦°à§įà¦¤à¦®à¦¾à¦¨": 2271,
      "Ġà¦ªà§Ĥ": 2272,
      "à¦ªà§Ĥà¦°à§įà¦£": 2273,
      "Ġà¦®à¦¾à¦§à§įà¦¯à¦®": 2274,
      "à¦Łà¦¾à¦°Ġà¦¦à¦¿à¦ķ": 2275,
      "à§ĩà¦¨à¦¾à¦¬": 2276,
      "Ġà¦¨à¦¾à¦Ĺà¦°à¦¿à¦ķ": 2277,
      "à¦°à§įà¦¡": 2278,
      "Ġà¦¦à¦¾à¦¬": 2279,
      "à¦¾à¦®à§ģà¦¨": 2280,
      "à¦Ĺà§įà¦¨": 2281,
      "Ġà¦ķà¦°à¦²": 2282,
      "Ġà¦¹à¦¨": 2283,
      "à¦¿à¦¯à¦¼à¦¾à¦®": 2284,
      "à¦¾à¦ķà¦°à§įà¦®": 2285,
      "à¦¹à¦¾à¦®à§įà¦®à¦¦": 2286,
      "Ġà¦ľà¦¯à¦¼": 2287,
      "à§ĩà¦Ľà§ĩĠà¦¸": 2288,
      "à¦¿à¦²à¦¾à¦®": 2289,
      "à¦¶à§ĩà¦·": 2290,
      "à¦Ńà¦¾à¦¯à¦¼": 2291,
      "à¦Ńà¦¿à¦¯à§ĭà¦Ĺ": 2292,
      "à§įà¦·à§ĩà¦¤à§įà¦°": 2293,
      "Ġà¦¶à§ģà¦ķà§įà¦°": 2294,
      "à§ĩĠà¦Ĩà¦Ľ": 2295,
      "Ġà¦¬à¦¿à¦ª": 2296,
      "à§ĩĠà¦¸à¦®à§įà¦ª": 2297,
      "à§ĥà¦¥": 2298,
      "à§ĥà¦¤à¦¿": 2299,
      "Ġà¦¯à¦¦à¦¿": 2300,
      "Ġà¦ļà¦¾à¦ķ": 2301,
      "à§ĩà¦°Ġà¦¸à¦Ńà¦¾à¦ªà¦¤à¦¿": 2302,
      "à¦¿à¦°Ġà¦Ĩ": 2303,
      "à¦¿à¦°Ġà¦ľà¦¨à§įà¦¯": 2304,
      "Ġà¦¸à¦®à§Ĥà¦¹": 2305,
      "à§ĩĠà¦ķà¦¥": 2306,
      "Ġà¦ĸà§įà¦°": 2307,
      "âĢĻĊ": 2308,
      "à¦¾à¦¡à¦¼à¦¿à¦¤": 2309,
      "à¦¾Ġà¦¬à§įà¦¯": 2310,
      "à§ĩĠà¦¹à¦ļà§įà¦Ľ": 2311,
      "à§Įà¦²": 2312,
      "à¦¾Ġà¦¸à¦Ĥ": 2313,
      "Ġà¦ªà¦°à¦¿à¦ļ": 2314,
      "à§ģà¦®à§ĭà¦¦à¦¨": 2315,
      "à§ĩà¦¸à§įà¦ķ": 2316,
      "Ġà¦Ĩà¦²à§ĭà¦ļà¦¨": 2317,
      "à§¯à§¯": 2318,
      "à¦¸à¦²à¦¿à¦®": 2319,
      "à§§à§¦": 2320,
      "à§ĩà¦°Ġà¦ªà§įà¦°à¦¤à¦¿": 2321,
      "à§ĩà¦°Ġà¦ªà§įà¦°à¦¥à¦®": 2322,
      "Ġà¦¦à¦¿à¦¯à¦¼à§ĩà¦Ľà§ĩà¦¨": 2323,
      "Ġà¦®à¦¾à¦¨à¦¬": 2324,
      "Ġà¦¹à¦²à§ĭ": 2325,
      "à§ĩĠà¦«à¦¿à¦°": 2326,
      "à¦ĺà¦¾à¦¤": 2327,
      "Ġà¦¹à¦¾à¦¸à¦¾à¦¨": 2328,
      "Ġà¦Ĩà¦¹à¦¤": 2329,
      "-à¦¸à¦¿à¦²à§ĩà¦ŁĠà¦¬à¦¿à¦Ńà¦¾à¦Ĺ": 2330,
      "à¦¿à¦°Ġà¦ªà§įà¦°": 2331,
      "à¦¤à¦¿à¦¥": 2332,
      "à¦¬à¦¾à¦¯à¦¼à¦¨": 2333,
      "Ġà¦¬à¦¿à¦ķà§įà¦°": 2334,
      "Ġà¦¨à§Įà¦¯à¦¾à¦¨": 2335,
      ")Ġà¦ľà§ģà¦¨": 2336,
      "Ġà¦¶à§ĩà¦ĸĠà¦¹à¦¾à¦¸à¦¿à¦¨": 2337,
      "---à¦¸à¦¿à¦²à§ĩà¦ŁĠà¦¬à¦¿à¦Ńà¦¾à¦Ĺ": 2338,
      "à§¦à§¦à§¦/-": 2339,
      "à¦¦à§įà¦¬à§ĭà¦§": 2340,
      "à§ĩĠà¦Ĩà¦¬à§ĩà¦¦": 2341,
      "Ġà¦ħà¦¬à¦¸à§įà¦¥à¦¾à¦¯à¦¼": 2342,
      "Ġà¦ľà¦¾à¦¤à§Ģà¦¯à¦¼Ġà¦¸à¦Ĥà¦¸à¦¦Ġà¦¨à¦¿à¦°à§įà¦¬à¦¾à¦ļà¦¨": 2343,
      "Ġà¦ķà¦°à§įà¦¤à§ĥà¦ªà¦ķà§įà¦·": 2344,
      "à§ĩà¦°Ġà¦ĵà¦ª": 2345,
      "@dos.gov.bdĊ": 2346,
      "Ġà¦ªà¦¦à§įà¦§à¦¤à¦¿à¦ĥ": 2347,
      "Ġà¦¶à§įà¦°à§ĩà¦£": 2348,
      "Ġà¦¬à§įà¦¯à¦¾à¦ªà¦¾à¦°": 2349,
      "Ġà¦ªà¦°à¦¿à¦¶à§ĭà¦§Ġà¦ªà¦¦à§įà¦§à¦¤à¦¿à¦ĥ": 2350,
      "à¦Łà§įà¦°à¦Ĺà§įà¦°à¦¾à¦®": 2351,
      "à¦®à¦¯à¦¼à¦®à¦¨à¦¸à¦¿à¦Ĥà¦¹Ġà¦¬à¦¿à¦Ńà¦¾à¦Ĺà¦°à¦Ĥà¦ªà§ģà¦°Ġà¦¬à¦¿à¦Ńà¦¾à¦Ĺà¦¬à¦°à¦¿à¦¶à¦¾à¦²Ġà¦¬à¦¿à¦Ńà¦¾à¦Ĺ": 2352,
      ",Ġà¦¹": 2353,
      "as": 2354,
      "ic": 2355,
      "ion": 2356,
      "lo": 2357,
      "ur": 2358,
      "ĠE": 2359,
      "Ġà¦Ŀ": 2360,
      "à§ĩĠà§¬": 2361,
      "à¦°à§ĭ": 2362,
      "à¦°à§Ģ": 2363,
      "à¦¨à¦¾à¦²": 2364,
      "à¦°Ġà¦¯": 2365,
      "à¦°Ġà¦ĵ": 2366,
      "à¦¾à¦°Ġà¦°": 2367,
      "à¦¾à¦°Ġà¦Ń": 2368,
      "à¦¾à¦°Ġà¦¸à¦®à¦¯à¦¼": 2369,
      "à§ģà¦¸": 2370,
      "à§ģĠà¦®": 2371,
      "à¦ķà¦Ł": 2372,
      "à¦¾Ġà¦§": 2373,
      "à¦¤à¦¾à¦¯à¦¼": 2374,
      "Ġà¦ķà¦ª": 2375,
      "à§ĢĠà¦¨": 2376,
      "Ġà¦¸à¦¿à¦°à¦¿à¦ľ": 2377,
      "à¦¸à¦Ļà§įà¦Ĺ": 2378,
      "Ġà¦¬à§ĩà¦": 2379,
      "Ġà¦¬à¦¾à¦ľà¦¾à¦°": 2380,
      "Ġà¦ªà¦¾à¦¨": 2381,
      "Ġà¦ªà¦¾à¦²": 2382,
      "à¦¦à§Ģ": 2383,
      "Ġà¦®à¦¨à§įà¦¤à¦¬à§įà¦¯": 2384,
      "à¦Łà¦¿à¦¤": 2385,
      "Ġà¦¨à¦¾à¦ľà¦®": 2386,
      "Ġà¦ķà¦°à§ĩà¦Ľà§ĩà¥¤": 2387,
      "Ġà¦ķà¦°à¦¾à¦°Ġà¦ľà¦¨à§įà¦¯": 2388,
      "Ġà¦¹à¦¾à¦°": 2389,
      "à¦¿à¦ķà§įà¦¤": 2390,
      "à¦¾à¦¯à¦¼Ġà¦¨": 2391,
      "à¦¹à¦¾à¦°": 2392,
      "à¦¿à¦¤à§ĩĠà¦¸": 2393,
      "Ġà¦¤à¦ĸà¦¨": 2394,
      "à§įà¦Łà§ĩà¦¨": 2395,
      "Ġà¦ľà¦¾à¦¤": 2396,
      "à§ĩà¦Ľà¦¿à¥¤": 2397,
      "Ġà¦ħà¦¥": 2398,
      "Ġà¦ħà¦Ĥà¦¶": 2399,
      "à¦¾à¦¬à¦¿à¦ķ": 2400,
      "à¦¾à¦¦à¦¶": 2401,
      "Ġà¦°à¦¹à¦®à¦¾à¦¨": 2402,
      "Ġà¦°à§ĭà¦¡": 2403,
      "Ġà¦ªà§įà¦°à¦¯à§ģà¦ķà§įà¦¤": 2404,
      "Ġà¦¶à¦¨": 2405,
      "Ġà¦¶à§ģà¦¨": 2406,
      "à¦ļà¦Łà§įà¦°à¦Ĺà§įà¦°à¦¾à¦®": 2407,
      "à§ĩĠà¦Ĩà¦¦à¦¾à¦²à¦¤": 2408,
      "Ġà¦Ĺà§ĭà¦ª": 2409,
      "Ġà¦¯à§ģà¦ķà§įà¦¤": 2410,
      "à¦¾à¦¹à¦¾à¦¯à§įà¦¯": 2411,
      "à§ĩà¦°Ġà¦¸à¦¦à¦¸à§įà¦¯": 2412,
      "à§ģà¦°à¦¿": 2413,
      "à¦¿à¦°Ġà¦ļ": 2414,
      "à¦¾à¦°à§įà¦ļ": 2415,
      "à§ĩĠà¦¦à¦²": 2416,
      "à¦¿à¦°à¦¾à¦ľ": 2417,
      "Ġà¦ĸà¦¬": 2418,
      "Ġà¦ĸà§ģà¦²": 2419,
      "Ġà¦ıà¦ķà¦ľà¦¨": 2420,
      "à¦¾Ġà¦¬à¦¿à¦¶à§įà¦¬": 2421,
      "à¦¿à¦Łà§ĩà¦¡": 2422,
      "à§ĩĠà¦¯à¦¾à¦ĵà¦¯à¦¼": 2423,
      "à§ĩĠà¦¤à¦¿à¦¨": 2424,
      "à§Įà¦¸": 2425,
      "à§ĩĠà¦®à¦¾à¦®à¦²": 2426,
      "à§ĩà¦°Ġà¦ķà¦°à§įà¦®": 2427,
      "à¦¾à¦ģà¦ķ": 2428,
      "à¦¿à¦®à¦¿à¦Łà§ĩà¦¡": 2429,
      "Ġà¦Ĩà¦®à¦¾à¦ķ": 2430,
      "à¦¾à¦Łà¦¿": 2431,
      "à§ĩà¦¬à¦²": 2432,
      "à¦¿à¦ªà¦¿": 2433,
      "Ġà§§à§©": 2434,
      "à¦¾Ġà¦¹à¦¯à¦¼à¥¤": 2435,
      "Ġà¦ħà¦¨à¦²à¦¾à¦ĩà¦¨": 2436,
      "à§ĩĠà¦ªà§įà¦°à¦¤": 2437,
      "à§ĩà¦°Ġà¦ħà¦¨à§ĩà¦ķ": 2438,
      "à¦īà¦Ł": 2439,
      "à¦ªà§įà¦°à¦¾à¦ªà§įà¦¤": 2440,
      "à¦¾Ġà¦®à¦¾à¦®à¦²": 2441,
      "à§ĩà¦°Ġà¦¦à¦¿à¦ķ": 2442,
      "Ġà§©à§¦": 2443,
      "Ġà¦ķà¦®à¦¿à¦Ł": 2444,
      "à¦Ĺà§ģà¦²à¦¿": 2445,
      "à¦°à§įà¦·à¦£": 2446,
      "Ġà¦Ĩà¦¬à§įà¦¦": 2447,
      "à¦¨à¦ªà¦¤à§įà¦°": 2448,
      "Ġà¦ķà¦¾à¦°à§įà¦¯": 2449,
      "Ġà¦ķà¦¾à¦°à§įà¦¯à¦¾à¦²à¦¯à¦¼": 2450,
      "à¦¾Ġà¦ļà¦²": 2451,
      "à§ģà¦§à¦¬à¦¾à¦°": 2452,
      "à¦¯à§ĭà¦Ĺà§įà¦¯": 2453,
      "à§įà¦¯à¦¾à¦ªà§įà¦Łà§ĩà¦¨": 2454,
      "Ġà¦°à¦¾à¦ľà¦¨à§Īà¦¤à¦¿à¦ķ": 2455,
      "à§įà¦°à¦®à¦¿à¦ķ": 2456,
      "Ġà¦¬à§ĩà¦¶à¦¿": 2457,
      "Ġà¦ıà¦¨à§įà¦¡Ġà¦ıà¦ķà§įà¦¸": 2458,
      "à¦¾Ġà¦¹à¦²à§ĭ": 2459,
      "à§ĩĠà¦Ĩà¦ªà¦¨à¦¾à¦°": 2460,
      "Ġà¦ıà¦ķà¦Łà§ģ": 2461,
      "Ġà¦ĺà¦Łà¦¨à¦¾à¦¯à¦¼": 2462,
      "à¦¾à¦®à¦¿à¦¨à¦¾à¦°": 2463,
      "à¦ļà§įà¦ļà¦¿à¦¤à§įà¦°": 2464,
      "à¦Ľà¦²à¦¿à¦®": 2465,
      "à¦¿à¦°à§ĭà¦§à§Ģ": 2466,
      "Ġà¦¬à¦¿à¦¸à§įà¦¤": 2467,
      "Ġà¦ķà¦°à§įà¦¤à§ĥà¦ķ": 2468,
      "ĠtheĠ": 2469,
      "Ġà¦«à§įà¦²à¦¾à¦ĩà¦Ł": 2470,
      "à¦¾à¦£à¦¿à¦ľà§įà¦¯": 2471,
      "à§ĩà¦¨à¦¾à¦¬à¦¾à¦¹à¦¿à¦¨": 2472,
      "à¦ļà¦Łà§įà¦°à¦Ĺà§įà¦°à¦¾à¦®Ġà¦¬à¦¿à¦Ńà¦¾à¦Ĺ": 2473,
      "Ġà¦ıà¦¨à§įà¦¡Ġà¦ıà¦ķà§įà¦¸à¦¾à¦®à¦¿à¦¨à¦¾à¦°": 2474,
      ",ĠâĢĺ": 2475,
      "19": 2476,
      "ah": 2477,
      "edĠ": 2478,
      "ws": 2479,
      "à¦¾.": 2480,
      "à¦¾âĢĻ": 2481,
      "à¦¾à¦ŀà§įà¦ļ": 2482,
      "à§ĩĠà§§à§¦": 2483,
      "à¦¨à¦¬": 2484,
      "à¦¨à¦¾à¦¯à¦¼": 2485,
      "à¦²à¦¾à¦®": 2486,
      "à¦²à§ĭà¦¡": 2487,
      "à¦¾Ġà¦ļà¦¾à¦²": 2488,
      "à§ĭà¦ģ": 2489,
      "à¦¤à¦¨à§įà¦¤à§įà¦°": 2490,
      "à¦¤à§ĩĠà¦¹à¦¬à§ĩà¥¤": 2491,
      "à¦¬à¦¨à§įà¦¦": 2492,
      "Ġà¦ķà¦¾à¦Ľ": 2493,
      "Ġà¦ķà§ĥà¦·": 2494,
      "Ġà¦ķà§ĭà¦®à§įà¦ªà¦¾à¦¨": 2495,
      "Ġà¦ķà¦¾à¦Ĺà¦ľ": 2496,
      "à§Ģà¦¤à¦¿": 2497,
      "Ġà¦¸à¦ķà¦²": 2498,
      "à¦¾à¦¨à§įà¦¸": 2499,
      "Ġà¦¬à§įà¦²": 2500,
      "Ġà¦ªà¦¥": 2501,
      "Ġà¦®à¦§à§įà¦¯": 2502,
      "Ġà¦®à¦¾à¦²à¦¿à¦ķ": 2503,
      "Ġà¦®à¦¨à§įà¦¦à¦¿à¦°": 2504,
      "Ġà¦®à¦¿à¦¡à¦¿à¦¯à¦¼": 2505,
      "Ġà¦Ĩà¦Łà¦ķ": 2506,
      "à§ĩà¦¨à§įà¦¡": 2507,
      "Ġà¦¦à§ĩà¦¨": 2508,
      "Ġà¦¹à¦¤à§ĩĠà¦ªà¦¾à¦°": 2509,
      "à¦¾à¦ķà¦¿": 2510,
      "à¦¹à¦¤": 2511,
      "à¦ĩà¦ı": 2512,
      "Ġà¦ħà§įà¦¯à¦¾à¦ª": 2513,
      "Ġà¦ħà¦¤à¦¿à¦¥": 2514,
      "à¦¾à¦¤à¦ķ": 2515,
      "à¦¾à¦¬à¦¨": 2516,
      "à§ĩà¦ķà§įà¦Ł": 2517,
      "à¦¶à§Ģà¦²": 2518,
      "Ġà¦ªà§įà¦°à¦¦": 2519,
      "à§ĩĠà¦ªà¦°à¦¿à¦": 2520,
      "à¦Ńà¦¾à¦Ĺ": 2521,
      "Ġà¦¶à§ģà¦§à§ģ": 2522,
      "à§ĩĠà¦Ĩà¦Ĺ": 2523,
      "à§ĩĠà¦Ĩà¦¶": 2524,
      "à§ĩĠà¦Ĩà¦ĵà¦¯à¦¼à¦¾à¦®à§ĢĠà¦²à§Ģà¦Ĺ": 2525,
      "à¦Łà¦¿Ġà¦ķ": 2526,
      "à¦¾à¦¹à¦¤": 2527,
      "à¦¾à¦ªà¦ķ": 2528,
      "à§ĩà¦ĩà¥¤": 2529,
      "à§ĩà¦°Ġà¦¸à§įà¦¬": 2530,
      "à§ĩĠà¦ıà¦®à¦¨": 2531,
      "Ġà¦īà¦¦à§įà¦§à¦¾à¦°Ġà¦ķà¦°": 2532,
      "à¦¿à¦°Ġà¦ħ": 2533,
      "à§ĩĠà¦¨à¦¤à§ģà¦¨": 2534,
      "Ġà¦¸à¦®à§ģà¦¦à§įà¦°": 2535,
      "à¦¿à¦¸à¦¿": 2536,
      "à§ĩĠà¦ķà¦¿à¦Ľà§ģ": 2537,
      "à¦«à¦°": 2538,
      "à¦«à§įà¦°": 2539,
      "à§ĩà¦°à¦ĵ": 2540,
      "à§ģà¦¨à¦¿à¦ķ": 2541,
      "à¦¿à¦¬à¦¸": 2542,
      "à§įà¦²à¦¾à¦¬": 2543,
      "à§ĩĠà¦¹à¦¾à¦¤": 2544,
      "à§ĩĠà¦¯à¦¾à¦ĵà¦¯à¦¼à¦¾à¦°": 2545,
      "à§Įà¦¨": 2546,
      "à§Įà¦¶": 2547,
      "à§ĩà¦¤à¦¨": 2548,
      "à§ĩà¦¤à§ĩĠà¦ªà¦¾à¦°": 2549,
      "à¦°à§įà¦¬à¦¾à¦¹à§Ģ": 2550,
      "à§ĩĠà¦Ĺà§įà¦°à¦¾à¦®": 2551,
      "à§Ģà¦°Ġà¦¨": 2552,
      "Ġà¦¥à§ĩà¦ķà§ĩĠà¦®": 2553,
      "Ġà§§à§¬": 2554,
      "à¦°à§įà¦¤à¦¨": 2555,
      "à¦ľà¦¨à¦ķ": 2556,
      "à¦ªà§įà¦°à¦¿à¦¯à¦¼": 2557,
      "à¦¾à¦¨à§įà¦¤à¦°": 2558,
      "à¦¾à¦°Ġà¦¸à¦Ļà§įà¦Ĺ": 2559,
      "à¦¾Ġà¦ħà¦¨à§įà¦¯": 2560,
      "à¦¾Ġà¦ħà¦¨à§ĩà¦ķ": 2561,
      "à§ĩĠà¦¬à¦²à§ĩà¦¨,": 2562,
      "à§ĩà¦°Ġà¦Ĩà¦Ĺ": 2563,
      "à¦¾à¦īà¦¨à§įà¦Ł": 2564,
      "à§ĭà¦°à§įà¦¡": 2565,
      "à¦¾à¦°Ġà¦ķà¦¾à¦°à¦£": 2566,
      "à¦¿à¦Ĺà¦¤": 2567,
      "Ġà¦¦à§ĩà¦ĸà¦¤": 2568,
      "à§ĩĠà¦²à¦¾à¦Ĺ": 2569,
      "à§ĩà¦°Ġà¦¶à§ĩà¦·": 2570,
      "Ġà¦®à¦¨à§ĩĠà¦ķà¦°": 2571,
      "Ġà¦¤à¦¾à¦ģà¦¦": 2572,
      "Ġà¦®à¦¾à¦°à§įà¦ķ": 2573,
      "à¦¬à¦¾à¦¯à¦¼à¦¦à§ģà¦²": 2574,
      "à¦°à¦¿à¦¬à¦¾à¦°": 2575,
      "à¦ľà§įà¦ľà¦¾à¦®à¦¾à¦¨": 2576,
      "à§įà¦°à¦¿à¦ķà§ĩà¦Ł": 2577,
      "à¥¤âĢĻĊ": 2578,
      "Ġà¦¯à§ĭà¦Ĺà¦¾à¦¯à§ĭà¦Ĺ": 2579,
      "Ġà¦¶à¦¤à¦¾à¦Ĥà¦¶": 2580,
      "Ġà¦«à§ģà¦Łà¦¬à¦²": 2581,
      "Ġà¦ľà¦¨à¦¾à¦¬Ġà¦®à§ĭà¦ĥ": 2582,
      "à¦¿à¦¥à§įà¦¯": 2583,
      "Ġà¦¸à§įà¦ķà§ģà¦²": 2584,
      "à§ĩĠà¦ªà§įà¦°à¦ķà¦¾à¦¶à¦¿à¦¤": 2585,
      "Ġà¦¨à¦¿à¦°à§įà¦®à¦¾à¦£": 2586,
      "à¦ĸà§ģà¦²à¦¨à¦¾Ġà¦¬à¦¿à¦Ńà¦¾à¦Ĺà¦®à¦¯à¦¼à¦®à¦¨à¦¸à¦¿à¦Ĥà¦¹Ġà¦¬à¦¿à¦Ńà¦¾à¦Ĺà¦°à¦Ĥà¦ªà§ģà¦°Ġà¦¬à¦¿à¦Ńà¦¾à¦Ĺà¦¬à¦°à¦¿à¦¶à¦¾à¦²Ġà¦¬à¦¿à¦Ńà¦¾à¦Ĺ": 2587,
      "à¦¿à¦¯à¦¼à§ĩà¦¤à¦¨à¦¾à¦®": 2588,
      "à¦¬à¦¾à¦¯à¦¼à¦¦à§ģà¦²Ġà¦ķà¦¾à¦¦": 2589,
      ")Ċ": 2590,
      ")Ġà¦¨à¦¾à¦®": 2591,
      ",Ġà¦¦": 2592,
      "-à§¨à§¦": 2593,
      ".Ġà¦®": 2594,
      "/à¦ı": 2595,
      "22": 2596,
      "3.": 2597,
      "<<": 2598,
      "im": 2599,
      "¥à¦¾à¦¨": 2600,
      "ĠI": 2601,
      "Ĳ-": 2602,
      "à¦Ĳ-": 2603,
      "à¦¿à¦°à§įà¦ľ": 2604,
      "à¦°à¦¿": 2605,
      "à§ĩĠà¦¥à§ĩà¦ķ": 2606,
      "à¦°Ġà¦«": 2607,
      "à¦¾à¦°à¦¸": 2608,
      "à¦¾à¦°Ġà¦ī": 2609,
      "à¦¾à¦°Ġà¦ªà¦°": 2610,
      "à§ģà¦¤à¦¿": 2611,
      "à¦ķà§ĩ,": 2612,
      "à¦¤à¦¨": 2613,
      "à¦¤à¦¾à¦°Ġà¦ķà¦°": 2614,
      "à¦¬à¦¾à¦¡à¦¼": 2615,
      "à§įà¦¯à¦¾à¦Ĺ": 2616,
      "à§įà¦¯à¦¾à¦£": 2617,
      "Ġà¦¸à§įà¦¥": 2618,
      "Ġà¦¸à¦Ńà¦¾à¦ªà¦¤à¦¿": 2619,
      "Ġà¦¸à§ĩà¦ĸà¦¾à¦¨": 2620,
      "Ġà¦¸à¦ªà§įà¦¤à¦¾à¦¹": 2621,
      "à¦¾à¦¨à§įà¦¨": 2622,
      "Ġà¦¬à§ĥà¦¦à§įà¦§": 2623,
      "Ġà¦¬à§ģà¦Ŀ": 2624,
      "Ġà¦ªà¦¾à¦ķà¦¿à¦¸à§įà¦¤à¦¾à¦¨": 2625,
      "à¦ªà§ĭà¦°à§ĩà¦¶à¦¨": 2626,
      "Ġà¦ıà¦Ł": 2627,
      "Ġà¦ıà¦ĸà¦¾à¦¨": 2628,
      "Ġà¦ıà¦Ĺà¦¿à¦¯à¦¼": 2629,
      "Ġà¦®à¦¨à§įà¦¤à§įà¦°à¦£à¦¾à¦²à¦¯à¦¼": 2630,
      "Ġà¦Ĩà¦¯à¦¼": 2631,
      "Ġà¦¨à¦¿à¦īà¦ľ": 2632,
      "à¦¾à¦²à¦¾à¦¤": 2633,
      "à¦Ĺà¦¾à¦°": 2634,
      "à¦¿à¦ķà§įà¦°": 2635,
      "à¦¾à¦¯à¦¼à¥¤": 2636,
      "à¦¹à¦®": 2637,
      "à¦ľà¦²": 2638,
      "à¦ľà§Ģà¦¬": 2639,
      "Ġà¦ľà¦¾à¦¯à¦¼à¦Ĺ": 2640,
      "Ġà¦ħà¦¸": 2641,
      "Ġà¦ħà¦ŀà§įà¦ļà¦²": 2642,
      "à§įà¦¬à¦¿à¦¤à§Ģà¦¯à¦¼": 2643,
      "à¦¾à¦ĩà¦«": 2644,
      "à¦¾à¦¬à§įà¦¯": 2645,
      "à¦¾à¦¸Ġà¦ķà¦°": 2646,
      "à§ĩĠà¦ªà¦¾à¦ł": 2647,
      "à§ĩĠà¦¬à¦¿à¦Ńà¦¿à¦¨à§įà¦¨": 2648,
      "à¦¡à¦¼à¦¾à¦ĩ": 2649,
      "à§ĩĠà¦¸à¦Ĥ": 2650,
      "à¦Ľà¦¨à§įà¦¦": 2651,
      "à¦¾à¦ªà¦¡à¦¼": 2652,
      "à§įà¦ªà§įà¦°": 2653,
      "Ġà¦Ńà¦¯à¦¼": 2654,
      "Ġà¦«à¦°à¦®": 2655,
      "à§ĩĠà¦ıà¦¸à¦¬": 2656,
      "à¦¿à¦°Ġà¦¹": 2657,
      "à§ĩĠà¦¨à¦¿à¦¤": 2658,
      "à¦¨à§įà¦¤à¦¤": 2659,
      "à§ĩà¦°Ġ(": 2660,
      "à¦¿à¦¶à§ĭà¦°": 2661,
      "à§§à§§à§": 2662,
      "à¦¾à¦ļà¦¾à¦ĩ": 2663,
      "à§ĩà¦°Ġà¦®à¦¾à¦¨à§ģà¦·": 2664,
      "à§ĩĠà¦¯à¦¾à¦¨": 2665,
      "à§ĩà¦¤à§ģ": 2666,
      "à¦¾à¦ģà¦¡à¦¼": 2667,
      "Ġà¦Łà¦¿": 2668,
      "à¦¡à§ĩà¦²": 2669,
      "à§©à§«": 2670,
      "Ġà¦ªà¦°à¦¿à¦¸à§įà¦¥à¦¿à¦¤": 2671,
      "à§ĩĠà¦ħà¦¬à¦¸à§įà¦¥": 2672,
      "Ġà¦¤à¦¾à¦°à¦¿à¦ĸ": 2673,
      "à¦¿à¦·à§įà¦ł": 2674,
      "à¦¾Ġà¦¦à§ĩà¦¯à¦¼": 2675,
      "à¦¤à§įà¦¯à¦¾à¦¦à¦¿": 2676,
      "à§ĩà¦°Ġà¦ħà¦¨à§įà¦¯": 2677,
      "à¦łà¦¿à¦ķ": 2678,
      "à§ĩà¦°Ġà¦¨à¦¿": 2679,
      "Ġà¦ľà¦¨à¦ķ": 2680,
      "Ġà¦ĺà¦°": 2681,
      "à¦¾Ġà¦ľà§ĩà¦²": 2682,
      "à¦¨à§įà¦§à§įà¦¯": 2683,
      "à¦¾à¦īà¦¨": 2684,
      "Ġà¦¦à¦²à§Ģà¦¯à¦¼": 2685,
      "Ġà§«à§¦": 2686,
      "Ġà¦Ĩà¦¸à¦¾à¦®": 2687,
      "Ġà¦ħà¦Ńà¦¿à¦¨à§ĩà¦¤": 2688,
      "Ġà§ªà§¦": 2689,
      "à§ĩĠà¦Ĩà¦¸à¦Ľ": 2690,
      "à¦¾Ġà¦Ľà¦¿à¦²": 2691,
      "Ġ2017Ġ(": 2692,
      "à§ĩà¦°Ġà¦²à¦ķà§įà¦·": 2693,
      "à§ĩĠà¦Ĩà¦ªà¦¨à¦¿": 2694,
      "Ġà¦ķà§įà¦·à¦®à¦¤": 2695,
      "âĢ¦Ċ": 2696,
      "à¦°Ġà¦ľà¦¨à§įà¦¯": 2697,
      "à§ĩà¦°Ġà¦Ľà§ĩà¦²": 2698,
      "Ġà¦¬à¦¿à¦¦à§ĩà¦¶": 2699,
      "à§ĩĠà¦Ĩà¦²à§ĭà¦ļà¦¨": 2700,
      "à¦¿à¦¨à¦¿à¦¯à¦¼à§ĭà¦Ĺ": 2701,
      "à¦¾Ġà¦ªà§įà¦°à¦¤à¦¿à¦¨à¦¿à¦§à¦¿": 2702,
      "à§ĩĠà¦ħà¦Ńà¦¿à¦¯à§ĭà¦Ĺ": 2703,
      "à§ĩĠà¦¬à§įà¦¯à¦¬à¦¹": 2704,
      "Ġà¦¬à¦¿à¦ļà¦¾à¦°à¦ª": 2705,
      "à¦Ļà§įà¦Ĺà¦¬à¦¨à§įà¦§à§ģ": 2706,
      "Ġà¦¸à¦Ĥà¦¶à§ĭà¦§": 2707,
      "à¦¿à¦ıà¦®à¦ĩà¦ı": 2708,
      "Ġà¦¸à§Ĥà¦¤à§įà¦°": 2709,
      "Ġà¦¬à¦¿à¦¸à§įà¦¤à¦¾à¦°à¦¿à¦¤": 2710,
      "<<>>": 2711,
      ",Ġà¦Ń": 2712,
      "-0": 2713,
      "-à¦¦": 2714,
      "-à¦Ń": 2715,
      "4.": 2716,
      "tt": 2717,
      "Ġb": 2718,
      "Ġ01": 2719,
      "à¦Ļ": 2720,
      "à¦¾!": 2721,
      "à¦¾Ġà§§": 2722,
      "à¦¾à¦ĥ": 2723,
      "à§įà¦«": 2724,
      "à¦°à¦¾à¦¬": 2725,
      "à¦°à¦ĵ": 2726,
      "à¦°à§ĩà¦ľ": 2727,
      "à¦¨à§ĩà¦°Ġà¦ķ": 2728,
      "à¦¾à¦°Ġà¦¶": 2729,
      "à¦¾à¦°à¦Łà¦¿": 2730,
      "à¦ķ,": 2731,
      "à¦ķà§ĩà¥¤": 2732,
      "à¦ķà¦¾à¦ª": 2733,
      "à¦²à§įà¦¯à¦¾à¦¨à§įà¦¡": 2734,
      "à¦¤à¦¿à¦¤": 2735,
      "à¦®à¦¿à¦¨": 2736,
      "à¦®à§ģà¦ĸ": 2737,
      "à§įà¦°à¦¾à¦ľ": 2738,
      "à¥¤Ġà¦ª": 2739,
      "Ġà¦ķà¦¨": 2740,
      "Ġà¦ķà§ĩà¦¨": 2741,
      "Ġà¦ķà¦¿à¦²": 2742,
      "Ġà¦ķà§ģà¦®": 2743,
      "Ġà¦ķà§ĩà¦¨à§įà¦¦à§įà¦°": 2744,
      "Ġà¦ķà§ĩà¦ī": 2745,
      "Ġà¦ķà¦¿à¦Ĥà¦¬": 2746,
      "à§įà¦¯à¦¾à¦¤": 2747,
      "à§įà¦¯à¦¾à¦ľ": 2748,
      "à§ĢĠà¦ĵ": 2749,
      "à§Ģà¦«": 2750,
      "à¦¯à¦¼à§ĩà¦¨": 2751,
      "Ġà¦¸à§ģà¦°": 2752,
      "Ġà¦¸à§Ī": 2753,
      "Ġà¦¸à¦¾à¦ĩà¦Ł": 2754,
      "à¦¸à¦¤": 2755,
      "à¦¸à¦®à§įà¦ªà¦¾à¦¦à¦ķ": 2756,
      "Ġà¦¬à¦¾à¦¨": 2757,
      "Ġà¦¬à¦¿à¦¤": 2758,
      "Ġà¦¬à¦¾à¦¸à§įà¦¤": 2759,
      "Ġà¦ªà¦¾à¦¶": 2760,
      "à¦ªà¦¾à¦¡à¦¼": 2761,
      "à¦Łà¦¾à¦¯à¦¼": 2762,
      "Ġà¦¨à¦¥": 2763,
      "Ġà¦¦à¦¿à¦²": 2764,
      "à¦¿à¦ķà¦²à§įà¦ª": 2765,
      "à¦¿à¦¯à¦¼à¦¾à¦¯à¦¼": 2766,
      "à¦¾à¦¯à¦¼à¦¨": 2767,
      "à¦¾à¦ķà¦¾à¦¤": 2768,
      "à¦¹à¦¾à¦¨": 2769,
      "Ġà¦¤à§įà¦°": 2770,
      "Ġà¦¤à¦¾à¦²": 2771,
      "Ġà¦¤à¦¾à¦¹à¦²": 2772,
      "à¦ľà¦¾à¦°": 2773,
      "à¦ľà¦¨à§įà¦¯": 2774,
      "Ġà¦ħà¦ªà¦°à¦¾à¦§": 2775,
      "à¦¾à¦¸à¦ªà¦¾à¦¤à¦¾à¦²": 2776,
      "à§ģà¦²à§įà¦²à¦¾à¦¹": 2777,
      "âĢĶ": 2778,
      "à¦£à§įà¦Ł": 2779,
      "Ġà¦°à§ĭà¦¬": 2780,
      "à¦¶à§įà¦¨": 2781,
      "Ġà¦ªà§įà¦°à§ĩà¦¸": 2782,
      "Ġà¦ªà§įà¦°à¦¾à¦ªà§įà¦¤": 2783,
      "Ġà¦ªà§įà¦°à¦ķà¦²à§įà¦ª": 2784,
      "à¦ļà§ģà¦°Ġà¦": 2785,
      "à§ĩĠà¦¬à¦¿à¦ıà¦¨à¦ª": 2786,
      "Ġà¦Ĺà¦¾à¦Ľ": 2787,
      "Ġà¦Ĺà§įà¦¯à¦¾à¦¸": 2788,
      "à§ĥà¦¦": 2789,
      "Ġà¦¯à¦¾à¦¤à§įà¦°à§Ģ": 2790,
      "à¦¾à¦¹à¦¿à¦¦": 2791,
      "à¦¾à¦ªà¦¨Ġà¦ķà¦°": 2792,
      "à¦¾à¦ªà§ĩà¦ķà§įà¦·": 2793,
      "à¦ĸà¦²": 2794,
      "à§ĩà¦°Ġà¦¸à¦¾à¦¬à§ĩà¦ķ": 2795,
      "à§ĩà¦°Ġà¦¸à¦¾à¦®à¦¨": 2796,
      "à§ĩà¦°Ġà¦¸à¦¾à¦§à¦¾à¦°à¦£Ġà¦¸à¦®à§įà¦ªà¦¾à¦¦à¦ķ": 2797,
      "à¦¾à¦Ĺà¦¾à¦°": 2798,
      "Ġà¦Ńà¦¾à¦ĩ": 2799,
      "Ġà¦Ńà¦¿à¦¤à§įà¦¤": 2800,
      "Ġà¦«à§ĩà¦¸à¦¬à§ģà¦ķ": 2801,
      "Ġà¦īà¦¦": 2802,
      "Ġà¦īà§İ": 2803,
      "Ġà¦²à¦¿à¦®à¦¿à¦Łà§ĩà¦¡": 2804,
      "à§§à§ª": 2805,
      "à¦¾à¦¶à¦°à¦¾à¦«": 2806,
      "Ġà§¨à§«": 2807,
      "Ġà§¨à§ª": 2808,
      "à§ĩĠà¦¹à¦²": 2809,
      "à§ĩà¦°Ġà¦¬à§ĩà¦¶": 2810,
      "à§ĩà¦°Ġà¦¬à¦¾à¦¡à¦¼": 2811,
      "à§ĩà¦°Ġà¦ķà¦¾à¦°": 2812,
      "à¦¾Ġà¦ªà¦¡à¦¼": 2813,
      "à¦¿à¦¦à§įà¦°": 2814,
      "à¦¾Ġà¦¸à¦®à§įà¦ª": 2815,
      "Ġà¦¡à¦¿à¦ľ": 2816,
      "Ġà¦¡à§ĩà¦¸à§įà¦ķ": 2817,
      "à§ĩ,Ġà¦¯": 2818,
      "à§ģà¦®à¦¿": 2819,
      "à¦¿à¦Ĥà¦¯à¦¼": 2820,
      "à§ĩĠà¦ªà§įà¦°à¦¾à¦¯à¦¼": 2821,
      "Ġà¦®à§ĭà¦Ł": 2822,
      "à§ĭà¦®à¦¬à¦¾à¦°": 2823,
      "à§ªà§¦": 2824,
      "Ġà¦¨à¦¿à¦¯à¦¼à¦¨à§įà¦¤à§įà¦°à¦£": 2825,
      "Ġà¦¦à§ģà¦Łà¦¿": 2826,
      "à§ĭà¦°à¦¿à¦¯à¦¼à¦¾à¦°": 2827,
      "à§ĩĠà¦Ĩà¦®à¦¾à¦°": 2828,
      "Ġà¦Ĩà¦°Ġà¦ķ": 2829,
      "à¦ªà§įà¦¤à¦¿": 2830,
      "Ġ---": 2831,
      "Ġ-à¦Ĳ-": 2832,
      "à¦ªà§ģà¦°Ġà¦Ĺ": 2833,
      "à¦¾à¦īà¦¨à§įà¦¡": 2834,
      "à§ĩà¦¡à¦¿à¦ķà§ĩà¦²": 2835,
      "à¦¨à§įà¦¨à¦¤": 2836,
      "à¦¾Ġà¦Ĺà§ĩà¦Ľà§ĩ,": 2837,
      "Ġà¦¸à¦¾à¦²à§ĩà¦°": 2838,
      "à¦¿Ġà¦ķà¦°à¦ªà§ĭà¦°à§ĩà¦¶à¦¨": 2839,
      "à¦¾Ġà¦¤à¦¾à¦¦": 2840,
      "Ġà¦ķà¦°à§įà¦®à¦ķ": 2841,
      "à¦¾Ġà¦°à¦¯à¦¼": 2842,
      "andĠ": 2843,
      "à¦¯à§ĭà¦Ĺà¦¿à¦¤": 2844,
      "Ġà¦¸à§įà¦¬à¦¾à¦¸à§įà¦¥à§įà¦¯": 2845,
      "à¦°à§įà¦§à§įà¦¬": 2846,
      "Ġà¦ªà¦°à§Ģà¦ķà§įà¦·à¦¾à¦°": 2847,
      "à¦£à§įà¦¡à§ĭà¦®": 2848,
      "à¦¿à¦¸à§įà¦¤à¦¾à¦°à¦¿à¦¤": 2849,
      "Ġ10": 2850,
      "à¦¨à§įà¦¸à¦Ł": 2851,
      "Ġà¦°à¦¯à¦¼à§ĩà¦Ľ": 2852,
      "Ġà¦ķà§ĭà¦¨à¦ĵ": 2853,
      "Ġà¦ķà§įà¦·à§ĩà¦¤à§įà¦°": 2854,
      "à¦ªà¦ľà§ĩà¦²à¦¾à¦°": 2855,
      "Ġà¦¯à§Įà¦¨à¦ķà¦°à§įà¦®à§Ģà¦¦": 2856,
      "à¦¾à¦ĩà¦¸à§ĩà¦¨à§įà¦¸": 2857,
      "Ġà¦ķà¦¯à¦¼à§ĩà¦ķà¦Łà¦¿": 2858,
      "Ġà¦¸à¦Ĥà¦Ĺà§įà¦°à¦¹": 2859,
      "Ġà¦ªà¦°à¦¿à¦¦à¦°à§įà¦¶à¦¨": 2860,
      "news": 2861,
      "à¦¤à¦¿à¦°à¦¿à¦ķà§įà¦¤": 2862,
      "@gmail.comĊ": 2863,
      "Ġà¦ĺà§ĭà¦·à¦£à¦¾Ġà¦ķà¦°": 2864,
      "Ġà¦®à¦¹à¦¾à¦¨à¦Ĺ": 2865,
      "à§ĥà¦¹à¦¸à§įà¦ªà¦¤à¦¿à¦¬à¦¾à¦°": 2866,
      "Ĩà¦ĩà¦¨à¦¿": 2867,
      "Ġà¦¢à¦¾à¦ķà¦¾-à§§à§¨": 2868,
      "à¦¶à§įà¦ļà¦¿à¦®": 2869,
      "Ġà¦ķà§ĭà¦¥à¦¾à¦ĵ": 2870,
      "à¦¾à¦¹à¦¿à¦¤à§įà¦¯": 2871,
      "à§ĩĠà¦Ĺà§įà¦°à§ĩà¦«à¦¤à¦¾à¦°Ġà¦ķà¦°": 2872,
      ")Ġà¦ľà¦¾à¦¨à§ģà¦¯à¦¼à¦¾à¦°à§Ģ": 2873,
      "à¦°à¦ķà§įà¦·à¦¿à¦¤": 2874,
      "---à¦¸à¦¿à¦²à§ĩà¦ŁĠà¦¬à¦¿à¦Ńà¦¾à¦Ĺà¦¢à¦¾à¦ķà¦¾Ġà¦¬à¦¿à¦Ńà¦¾à¦Ĺ": 2875,
      ",Ġà¦Ĩ": 2876,
      "-1": 2877,
      "esĠ": 2878,
      "ro": 2879,
      "Ġ5": 2880,
      "Ġ?Ċ": 2881,
      "Ġ<<>>": 2882,
      "à¦¾;": 2883,
      "à¦¿Ġà¦¦": 2884,
      "à¦°à¦¨": 2885,
      "à¦°à¦¾à¦¨": 2886,
      "à¦°à¦«": 2887,
      "à¦°à¦¾,": 2888,
      "à§ĩà¦ŀà§įà¦ľ": 2889,
      "à§ĩĠà¦Ŀ": 2890,
      "à¦°Ġà¦¡": 2891,
      "à¦°Ġà¦Ń": 2892,
      "à¦¾à¦°à§įà¦¤": 2893,
      "à¦¾à¦°à¦¾à¦ª": 2894,
      "à¦¾à¦°à§Ģà¦¦": 2895,
      "à§ģà¦Ń": 2896,
      "à§ģà¦«": 2897,
      "à§ģà¦ľà§įà¦ľà¦¾à¦®à¦¾à¦¨": 2898,
      "à¦ķà§ģà¦®": 2899,
      "à¦¤à§Ģ": 2900,
      "à¦¤à§ĩà¦ĩ": 2901,
      "à¦¬à¦¦à§įà¦§": 2902,
      "à¦®à¦¨à§įà¦¤à§įà¦°": 2903,
      "à¦®à¦¾à¦¤à§įà¦°": 2904,
      "à¦®à§ĩà¦¨à§įà¦Ł": 2905,
      "à§įà¦°à§ĩà¦Ł": 2906,
      "Ġà¦¸à¦¾à¦¥": 2907,
      "Ġà¦¸à§įà¦¥à¦¾à¦¨": 2908,
      "Ġà¦¸à¦¡à¦¼à¦ķ": 2909,
      "Ġà¦¸à¦¨à§įà¦¤à¦¾à¦¨": 2910,
      "à¦¸à¦®à¦¯à¦¼": 2911,
      "Ġà¦¬à¦¦": 2912,
      "Ġà¦¬à¦¿à¦¨": 2913,
      "Ġà¦¬à¦¾à¦ľ": 2914,
      "Ġà¦¬à¦ķà§įà¦¸": 2915,
      "à¦ªà§įà¦¨": 2916,
      "Ġà¦ıà¦¡": 2917,
      "Ġà¦®à¦¾à¦¤à§įà¦°": 2918,
      "Ġà¦®à¦¾à¦®à§ģà¦¨": 2919,
      "à¦Łà¦¾à¦ĩ": 2920,
      "Ġà¦Ĩà¦¨à§įà¦¤à¦°à§įà¦ľà¦¾à¦¤à¦¿à¦ķ": 2921,
      "à§ĩà¦¨Ġà¦¨": 2922,
      "Ġà¦¨à¦¾à¦Ł": 2923,
      "Ġà¦¨à¦¾,": 2924,
      "Ġà¦¨à¦®à§įà¦¬à¦°": 2925,
      "à¦°à§įà¦ª": 2926,
      "Ġà¦¦à¦«": 2927,
      "à¦¾à¦²à¦¾à¦²": 2928,
      "à¦¾à¦®à¦ļ": 2929,
      "à¦¿à¦¯à¦¼à¦¾à¦¸": 2930,
      "Ġà¦¤à¦²": 2931,
      "à§įà¦Łà¦¾à¦°": 2932,
      "Ġà¦ľà§ĭà¦Ł": 2933,
      "Ġà¦ħà¦°à§įà¦ľ": 2934,
      "à§įà¦¬à¦¾à¦°": 2935,
      "à§įà¦¬à¦ķ": 2936,
      "à§įà¦¬à¦¯à¦¼": 2937,
      "à§įà¦¬à¦¾à¦¨": 2938,
      "à¦¾à¦¬à§Ģ": 2939,
      "à¦¾à¦¦à¦¾à¦°": 2940,
      "à¦¾à¦¦à§įà¦¦": 2941,
      "Ġà¦°à¦¾à¦¸": 2942,
      "Ġà¦°à§Ĥà¦ª": 2943,
      "Ġà¦ªà§įà¦°à¦¾à¦£": 2944,
      "Ġà¦ªà§įà¦°à¦¯à¦¼à§ĭà¦ľà¦¨": 2945,
      "Ġà¦ªà§įà¦°à¦®à¦¾à¦£": 2946,
      "à§ĩĠà¦ªà¦°": 2947,
      "à§ĩĠà¦ªà§Į": 2948,
      "à§ĩà¦²à¦¿à¦Ń": 2949,
      "Ġà¦¶à¦¾à¦®": 2950,
      "Ġà¦¶à¦«à¦¿à¦ķ": 2951,
      "Ġà¦¶à¦¹à¦°": 2952,
      "à§ĩĠà¦¬à¦¿à¦¶à§įà¦¬": 2953,
      "à¦¾à¦ľà§įà¦ŀ": 2954,
      "Ġà¦ĵĠà¦¬": 2955,
      "Ġà¦ĵà¦¬à¦¾à¦¯à¦¼à¦¦à§ģà¦²Ġà¦ķà¦¾à¦¦": 2956,
      "à¦¡à¦¼à¦¾à¦ĩà¦²": 2957,
      "à§ĩĠà¦¸à¦°à¦ķà¦¾à¦°": 2958,
      "Ġà¦Ĺà¦¡à¦¼": 2959,
      "Ġà¦Ĺà§ĥà¦¹": 2960,
      "Ġà¦Ĺà§įà¦°à§ģà¦ª": 2961,
      "Ġà¦¯à§ĩà¦¨": 2962,
      "Ġà¦¯à§ģà¦Ĺ": 2963,
      "à¦¾à¦ªà¦¾à¦¶": 2964,
      "Ġà¦ļà§Ģà¦¨": 2965,
      "à¦¾à¦Ĺà¦°": 2966,
      "à¦°à¦¿à¦Ł": 2967,
      "Ġà¦ĩà¦²": 2968,
      "Ġà¦ĩà¦Ľà¦²": 2969,
      "Ġà¦ĩà¦¨à§įà¦Łà¦¾à¦°": 2970,
      "Ġà¦Ńà§ĩà¦": 2971,
      "Ġà¦Ńà¦¾à¦Ĺ": 2972,
      "à§ģà¦°à¦¸à§įà¦ķ": 2973,
      "à¦¿à¦°Ġà¦ı": 2974,
      "à§ĩĠà¦¨à¦¿à¦¹à¦¤": 2975,
      "à¦ķà§įà¦·à§ĩà¦ª": 2976,
      "Ġà¦²à§ĩà¦Ĺ": 2977,
      "à§ĩĠà¦¦à§ĩà¦¯à¦¼": 2978,
      "à§ĩĠà¦ķà¦²": 2979,
      "à¦¾Ġà¦¬à¦¾à¦¹à¦¿à¦¨": 2980,
      "Ġà¦¹à¦¯à¦¼à§ĩà¦Ľà§ĩà¦¨": 2981,
      "à§ĩĠà¦¹à¦¾à¦°": 2982,
      "à¦Ĩà¦°": 2983,
      "à§ĩĠà¦¯à§Įà¦¨à¦ķà¦°à§įà¦®": 2984,
      "à¦¾à¦ģà¦§": 2985,
      "à¦¿à¦®à§įà¦¬": 2986,
      "à¦¿à¦¦à¦¿à¦¨": 2987,
      "à¦¿à¦¦à§ĩà¦¶": 2988,
      "à§ģà¦°Ġà¦ª": 2989,
      "à§¨à§Ń": 2990,
      "à¦¾Ġà¦¸à¦¬": 2991,
      "à¦¾Ġà¦¸à¦¨à¦¦": 2992,
      "à¦¯à¦¾à¦ªà¦¨": 2993,
      "Ġà¦¬à§įà¦¯à¦¾à¦²": 2994,
      "Ġà¦¬à§įà¦¯à¦¾à¦Ł": 2995,
      "à§ĩà¦¬à¦¿à¦²": 2996,
      "Ġà¦¸à¦Ĥà¦ĺà¦°à§įà¦·": 2997,
      "à¦¾à¦ĵà¦²": 2998,
      "à¦¡à¦¿à¦ĵ": 2999,
      "à§ĩĠà¦ħà¦¬": 3000,
      "à§ĩĠà¦ħà¦¨à§įà¦¯": 3001,
      "à¦¨à§įà¦¦à§ĩà¦¹": 3002,
      "à¦¾Ġà¦¨à¦¿": 3003,
      "à¦¾Ġà¦¨à¦¾à¦®": 3004,
      "à¦¾Ġà¦¨à¦¿à¦ľ": 3005,
      "à§ĥà¦¤à¦¿à¦ķ": 3006,
      "à¦¸à§įà¦¥à¦¾à¦¨": 3007,
      "à¦¿à¦·à§ĩà¦§": 3008,
      "à¦¾Ġà¦¦à¦¿à¦¤": 3009,
      "Ġà¦®à§ĭà¦¹à¦¾à¦®à§įà¦®à¦¦": 3010,
      "à¦¾à¦®à§Ģà¦®": 3011,
      "à§ģà¦·à§įà¦łà¦¾à¦¨": 3012,
      "Ġà¦§à¦¾à¦°à¦£": 3013,
      "à§įà¦°à¦¾à¦®à§įà¦ª": 3014,
      "à§ĩà¦°Ġà¦¨à§ĩà¦¤": 3015,
      "à§ĩà¦°Ġà¦¨à§ĩà¦¤à§ĥà¦¤à§įà¦¬": 3016,
      "à¦°à§įà¦¬à¦¾à¦ļà¦¿à¦¤": 3017,
      "à§ĭà¦°à¦¾à¦®": 3018,
      "à§įà¦ķà¦¾à¦°": 3019,
      "à¦®à§įà¦ªà¦°à§įà¦ķ": 3020,
      "à¦®à§įà¦ªà¦¿à¦īà¦Ł": 3021,
      "à§Ģà¦¬à¦¾à¦ľà¦¾à¦°": 3022,
      "à§ĭà¦¬à¦¾à¦¸": 3023,
      "Ġà¦ĵà¦¯à¦¼à§ĩà¦¸à§įà¦Ł": 3024,
      "Ġà¦ħà¦Ńà§įà¦¯à¦¨à§įà¦¤": 3025,
      "Ġà¦Ĩà¦°à¦¬": 3026,
      "Ġà¦Ľà¦¬à¦¿à¦¤": 3027,
      "à§ĩĠà¦ľà¦¾à¦¨à¦¿à¦¯à¦¼à§ĩà¦Ľà§ĩà¦¨": 3028,
      "à¦Ńà¦¾à¦ªà¦¤": 3029,
      "à§ĭà¦¯à¦¼à¦¾à¦ĸ": 3030,
      "Ġà¦ıà¦²à¦¾à¦ķà¦¾à¦°": 3031,
      "Ġà¦ĩà¦īà¦¨": 3032,
      "à¦¾Ġà¦¬à¦²à§ĩà¦¨,": 3033,
      "Ġà¦¨à§ĩà¦¤à¦¾à¦ķà¦°à§įà¦®": 3034,
      "à§ĩà¦°Ġà¦¹à¦¾à¦¤": 3035,
      "à¦Ļà§įà¦ĸ": 3036,
      "ess": 3037,
      "âĢĮà§įà¦¯à¦¾à¦¬": 3038,
      "Ġà¦¸à¦¹à¦ľ": 3039,
      "Ġà¦²à¦¾à¦ĸĠà¦¡à¦²à¦¾à¦°": 3040,
      "Ġ2016Ġ(": 3041,
      "Ġà¦Ĩà¦¨à¦¨à§įà¦¦": 3042,
      "à¦¾à¦ĩà¦ķà§ĭà¦°à§įà¦Ł": 3043,
      ",Ġà¦ļà§Ģà¦«": 3044,
      "Ġà¦¨à¦Ńà§ĩà¦®à§įà¦¬": 3045,
      "Ġà¦®à¦¾à¦®à¦²à¦¾à¦¯à¦¼": 3046,
      "Ġà¦Ĳà¦ķà§įà¦¯": 3047,
      "à¦¾Ġà¦¹à¦¬à§ĩà¥¤Ċ": 3048,
      "Ġà¦łà¦¿à¦ķ": 3049,
      "ĠâĢ¢ĠâĢ¢": 3050,
      "Ġà¦ªà¦°à¦¿à¦ļà¦¾à¦²à¦ķ": 3051,
      "Ġà§¦à§§à§Ńà§§à§§à§": 3052,
      "à§ĭà¦¶à¦¾à¦ķ": 3053,
      "Ġà¦ļà¦¿à¦ķà¦¿à§İà¦¸à¦ķ": 3054,
      "à¦¾Ġà¦ªà¦°à§įà¦¯à¦¨à§įà¦¤": 3055,
      "angl": 3056,
      "Ġà¦ķà§ĭà¦°à§įà¦¸": 3057,
      "à§ĩĠà¦ĺà¦°à§ĩĠà¦¬": 3058,
      "Ġà¦¶à§ģà¦ķà§įà¦°à¦¬à¦¾à¦°": 3059,
      "à§Įà¦¸à§ģà¦®": 3060,
      "Ġà¦ķà¦¿à¦²à§ĭà¦®": 3061,
      ",Ġà¦²": 3062,
      ",Ġà¦¢à¦¾à¦ķ": 3063,
      "-à¦ªà§įà¦°": 3064,
      "-à§Ń": 3065,
      "-à§§": 3066,
      ".Ċ": 3067,
      "2.": 3068,
      "5.": 3069,
      "6.": 3070,
      "60": 3071,
      "ct": 3072,
      "gh": 3073,
      "ir": 3074,
      "ĠM": 3075,
      "Ġc": 3076,
      "Ġà¦¢": 3077,
      "Ġà¦·": 3078,
      "à¦¾Ġà§¬": 3079,
      "à¦¾à¦Ļà§įà¦ķ": 3080,
      "à§ĩâĢĻ": 3081,
      "à§ĩĠà§§": 3082,
      "à¦¿à¥¤Ċ": 3083,
      "à¦°à¦¿à¦¯à¦¼": 3084,
      "à¦°à¦ļ": 3085,
      "à¦°à¦¾à¥¤": 3086,
      "à¦°à§Ģà¦°": 3087,
      "à¦¿à¦ł": 3088,
      "à¦¨à§ĩà¦Ł": 3089,
      "à¦¨à¦¾à¦¥": 3090,
      "à¦°Ġà¦§": 3091,
      "à¦¾à¦°à§įà¦¬": 3092,
      "à¦¾à¦°à§Ģà¦°": 3093,
      "à§ģà¦ªà§įà¦¤": 3094,
      "à¦ķà§ĩĠà¦¦": 3095,
      "à¦²à¦¿à¦ķ": 3096,
      "à¦²à§ĩà¦Ł": 3097,
      "à§ĭà¦¤à§įà¦¤": 3098,
      "à¦®à¦²": 3099,
      "Ġà¦ķà¦¾à¦Ł": 3100,
      "Ġà¦ķà¦¿à¦Ľ": 3101,
      "Ġà¦ķà§įà¦¯à¦¾à¦ªà§įà¦Łà§ĩà¦¨": 3102,
      "à§įà¦¯à¦¾à¦¶": 3103,
      "à§įà¦¯à¦¾à¦Ĥ": 3104,
      "Ġà¦¸à¦¾à¦§à¦¾à¦°à¦£": 3105,
      "Ġà¦¸à§įà¦¤à§įà¦°à§Ģ": 3106,
      "à¦¾à¦¨à¥¤Ċ": 3107,
      "à¦¸à¦¿à¦²": 3108,
      "à¦¸à§Ģà¦®": 3109,
      "Ġà¦¬à¦¯à¦¼à¦¸": 3110,
      "Ġà¦ıà¦¨": 3111,
      "Ġà¦ıà¦ªà§įà¦°à¦¿à¦²": 3112,
      "Ġà¦Ĩà¦¸à¦²": 3113,
      "Ġà¦Ĩà¦Ľà§ĩà¥¤": 3114,
      "Ġà¦¨à¦¬": 3115,
      "Ġà¦¨à¦ľ": 3116,
      "Ġà¦¦à§įà¦°à§ģà¦¤": 3117,
      "à¦¾à¦²à¦Ĺà¦ŀà§įà¦ľ": 3118,
      "Ġà¦ķà¦°à§ĩà¦¨à¥¤": 3119,
      "Ġà¦¹à¦¾à¦¦": 3120,
      "Ġà¦¹à¦¸à§įà¦¤": 3121,
      "Ġà¦¹à§ĭà¦ķ": 3122,
      "à¦¿à¦¨à¦¯à¦¼": 3123,
      "à¦¿à¦¯à¦¼à¦¾à¦²": 3124,
      "à¦¹à¦¾à¦ľ": 3125,
      "à¦¹à¦¾à¦Ł": 3126,
      "à¦ĩà¦¯à¦¼": 3127,
      "Ġà¦ľà¦¾à¦®": 3128,
      "à§ĩà¦Ľà¦¨": 3129,
      "Ġà¦ħà§įà¦¯à¦¾à¦¨à§įà¦¡": 3130,
      "à§įà¦¬à¦²": 3131,
      "à§įà¦¬à¦Ĥà¦¸": 3132,
      "à§ĩà¥¤Ġà¦ķà¦¿à¦¨à§įà¦¤à§ģ": 3133,
      "à¦¾à¦¤à§ĩĠà¦¸": 3134,
      "à¦¾à¦¬à§ĩà¦¶": 3135,
      "à¦¾à¦¸à¦ļà¦¿à¦¬": 3136,
      "à§ĩà¦ķà¦¨": 3137,
      "Ġà¦°à¦¾à¦¯à¦¼": 3138,
      "Ġà¦°à§ĭà¦¹à¦¿à¦Ļà§įà¦Ĺ": 3139,
      "à¦Ńà¦¯à¦¼": 3140,
      "à§ĩĠà¦Ĩà¦¬à¦¾à¦°": 3141,
      "à§ĩĠà¦¸à§ĩà¦ĩ": 3142,
      "à§ĩĠà¦¸à§ĩà¦Ł": 3143,
      "Ġà¦Ĺà¦¾à¦¡à¦¼": 3144,
      "Ġà¦¯à¦ĸà¦¨": 3145,
      "Ġà¦¯à§ģà¦¦à§įà¦§": 3146,
      "Ġà¦¯à§ĩĠà¦ķà§ĭà¦¨": 3147,
      "à¦¾à¦¹à¦¿à¦ķ": 3148,
      "Ġà¦ļà¦Łà§įà¦Łà¦Ĺà§įà¦°à¦¾à¦®": 3149,
      "Ġà¦ĩà¦¨à§įà¦¡": 3150,
      "Ġà¦ĩà¦¤à§įà¦¯à¦¾à¦¦à¦¿": 3151,
      "Ġà¦¸à¦®à¦¾à¦ľ": 3152,
      "Ġà¦¸à¦®à¦¾à¦§à¦¾à¦¨": 3153,
      "Ġà¦²à¦¾à¦¶": 3154,
      "Ġà¦²à¦¾à¦Ń": 3155,
      "à¦¿à¦°à¦¾à¦ªà¦¤à§įà¦¤": 3156,
      "à§ĩà¦°à¥¤": 3157,
      "à§ĩà¦°à¦¿à¦ķ": 3158,
      "Ġà¦ĸà¦¾à¦ģ": 3159,
      "à¦¿à¦¬à¦¾à¦°Ġà¦¸": 3160,
      "à§ģà¦ķà§Ĥà¦²": 3161,
      "à§įà¦²à¦¿à¦ķ": 3162,
      "à§ĩà¦°Ġà¦®à§ģà¦ĸ": 3163,
      "à§ĩà¦°Ġà¦®à¦¾à¦Ŀ": 3164,
      "à¦Ĩà¦¨": 3165,
      "à¦¿à¦Łà¦ķ": 3166,
      "à¦¿à¦Łà¦¾à¦²": 3167,
      "à¦¿à¦Łà¦¾à¦®à¦¿à¦¨": 3168,
      "à§ĩĠà¦¯à¦¾à¦°": 3169,
      "à§ĩĠà¦¤à§ģà¦²": 3170,
      "à§ĩĠà¦¤à¦¾à¦ģà¦¦": 3171,
      "à§Įà¦¦à¦¿": 3172,
      "à§ĩĠà¦®à§ģ": 3173,
      "à¦ıà¦¨": 3174,
      "à¦ıà¦«": 3175,
      "à¦¾Ġà¦ªà¦°à¦¿à¦": 3176,
      "à¦¾à¦§à¦¿à¦ķà¦¾à¦°": 3177,
      "à§¨à§©": 3178,
      "à§¨à§¯": 3179,
      "à¥¤Ġà¦ıĠà¦¸à¦®à¦¯à¦¼": 3180,
      "à¥¤Ġà¦ıà¦°à¦ª": 3181,
      "Ġà¦¸à¦Ĥà¦ķà§įà¦°à¦¾à¦¨à§įà¦¤": 3182,
      "à§ĩà¦·à§įà¦ł": 3183,
      "à§Ģà¦°Ġà¦Ĩ": 3184,
      "Ġà§§à§Ń": 3185,
      "à§ĩĠà¦ľà¦¾à¦¤à§Ģà¦¯à¦¼": 3186,
      "Ġà¦ªà¦°à§įà¦¯": 3187,
      "à§ĩĠà¦°à¦¾à¦¤": 3188,
      "Ġ2014": 3189,
      "à¦¾Ġà¦¯à¦¾à¦ļà§įà¦Ľ": 3190,
      "ĠâĢĺà¦¸": 3191,
      "à§ĩà¦°Ġà¦ħà¦§": 3192,
      "à¦īà¦¨à¦¿à¦¯à¦¼à¦¨": 3193,
      "à§ĩà¦°Ġà¦¦à§ģà¦ĩ": 3194,
      "Ġà¦¨à¦¿à¦¯à¦¼à§ĩĠà¦¬": 3195,
      "à¦¾à¦°Ġà¦¸à¦¾à¦¥": 3196,
      "ıà¦ķà¦Łà¦¿": 3197,
      "Ġà¦ĺà¦£à§įà¦Ł": 3198,
      "à¦¿à¦Ľà¦¿à¦²": 3199,
      "Ġà¦¦à§ģâĢĻ": 3200,
      "à§ĩĠà¦¶à§ĩà¦·": 3201,
      "à§ĩà¦°Ġà¦ªà§įà¦°à¦§à¦¾à¦¨": 3202,
      "à¦®à¦¨à¦ķà¦¿": 3203,
      "à§ĩĠà¦¬à¦²à¦¾Ġà¦¹à¦¯à¦¼": 3204,
      "à¥¤Ġà¦¤à¦¾à¦ĩ": 3205,
      "à§ĭà¦¸à§ĩà¦¨": 3206,
      "à¦°à¦£Ġà¦ķà¦°": 3207,
      "à¦¿à¦Ńà¦¾à¦¬": 3208,
      "à¦²à¦¾à¦ķà¦¾à¦¯à¦¼": 3209,
      "à§ĩà¦°Ġà¦®à¦§à§įà¦¯à§ĩà¦ĩ": 3210,
      "à¦¾Ġà¦Ĺà§ĩà¦Ľà§ĩà¥¤": 3211,
      "à§ĩà¦°Ġà¦īà¦¦à§įà¦¯à§ĭà¦Ĺ": 3212,
      "Ġà¦¬à¦Ľà¦°Ġà¦¬": 3213,
      "Ġà¦¥à¦¾à¦ķà¦²": 3214,
      "à¦ĺà¦¾à¦Ł": 3215,
      "à¦¾à¦°Ġà¦®à¦§à§įà¦¯": 3216,
      "à¦¾à¦°Ġà¦ķà¦¥": 3217,
      "à¦°Ġà¦®à¦¾à¦§à§įà¦¯à¦®": 3218,
      "à§ĩĠà¦¥à¦¾à¦ķà§ĩà¥¤": 3219,
      "à¦¿Ġà¦¨à¦¾à¥¤": 3220,
      "Ġà¦®à§ģà¦ľà¦¿à¦¬": 3221,
      "à¦¾Ġà¦¯à¦¾à¦¯à¦¼à¥¤": 3222,
      "Ġà¦ļà¦²à¦ļà§įà¦ļà¦¿à¦¤à§įà¦°": 3223,
      "Ġà¦°à¦¾à¦ľà¦¶à¦¾à¦¹à§Ģ": 3224,
      "à¦¾Ġà¦īà¦ª": 3225,
      "Ġà¦¤à¦¾à¦ģà¦°": 3226,
      "Ġà¦ħà¦¬à¦¶à§įà¦¯": 3227,
      "à¦Ĥà¦¶à§įà¦²à¦¿à¦·à§įà¦Ł": 3228,
      "à¦Ĺà§ģà¦²à§ĭà¦¤": 3229,
      "Ġà¦¸à¦¬à¦ļà§ĩà¦¯à¦¼": 3230,
      "Ġà¦ħà¦¨à§ģà¦¸": 3231,
      "à§ĩĠà¦®à¦¨à§ĩĠà¦ķà¦°": 3232,
      "dow": 3233,
      "à§ĥà¦·à§įà¦Łà¦¿": 3234,
      "Ġà¦ĩ-à¦®à§ĩà¦ĩà¦²Ġ-Ġ": 3235,
      "à¦Ĩà¦®à¦°": 3236,
      "Ġà¦¨à§ĮĠà¦ªà¦°à¦¿à¦¬à¦¹à¦¨": 3237,
      "Ġà¦īà¦¤à§įà¦¤à¦°Ġà¦ķ": 3238,
      "Ġà¦«à¦²à¦¾à¦«à¦²": 3239,
      "à¦¿à¦°Ġà¦®à¦¾à¦§à§įà¦¯à¦®": 3240,
      "Ġà¦ħà¦¨à§ģà¦·à§įà¦łà¦¿à¦¤": 3241,
      "Ġà¦Ĩà¦¹à¦®à¦¦": 3242,
      "à¦®à¦¨à§įà¦¤à§įà¦°à§ĢĠà¦¶à§ĩà¦ĸĠà¦¹à¦¾à¦¸à¦¿à¦¨": 3243,
      "à§ĩĠà¦Ĺà§įà¦°à§ĩà¦ªà§įà¦¤": 3244,
      "Ġ2016Ġ(12": 3245,
      "Ġà¦¯à§ģà¦¬à¦ķ": 3246,
      "à¦¸à§ģà¦¨à§įà¦§": 3247,
      "à¦ķà§įà¦°à¦®à¦£": 3248,
      "à¦ķà§ĩĠà¦Ĩà¦Łà¦ķ": 3249,
      "à§ģà¦°à§ģà¦¤à§įà¦¬à¦ªà§Ĥà¦°à§įà¦£": 3250,
      "Ġà¦ĸà¦¾à¦²à§ĩà¦¦à¦¾Ġà¦ľà¦¿à¦¯à¦¼": 3251,
      "Ġà¦Ĺà¦¬à§ĩà¦·à¦£": 3252,
      "à§ĩĠà¦ķà¦¥à¦¾Ġà¦¬à¦²": 3253,
      "à§Įà¦²à¦Ń": 3254,
      "à¦ļà¦Łà§įà¦°à¦Ĺà§įà¦°à¦¾à¦®Ġà¦¬à¦¿à¦Ńà¦¾à¦Ĺà¦°à¦¾à¦ľà¦¶à¦¾à¦¹à§ĢĠà¦¬à¦¿à¦Ńà¦¾à¦Ĺ": 3255,
      "à§ĩà¦°Ġà¦²à¦ķà§įà¦·à§įà¦¯": 3256,
      "à§įà¦«à§ĭà¦°": 3257,
      "Ġà¦ķà¦°à§įà¦®à¦ķà¦¾à¦£à§įà¦¡": 3258,
      "à¦¿à¦·à§ĩà¦§à¦¾à¦ľà§įà¦ŀ": 3259,
      "à¦®à§įà¦ªà¦¿à¦īà¦Łà¦¾à¦°": 3260,
      "Ġà¦ĩ-à¦®à§ĩà¦ĩà¦²Ġ-Ġc": 3261,
      ",Ġà¦Ĺ": 3262,
      "//": 3263,
      "00": 3264,
      "1.": 3265,
      "7.": 3266,
      "://": 3267,
      "ON": 3268,
      "UR": 3269,
      "di": 3270,
      "ea": 3271,
      "eg": 3272,
      "ns": 3273,
      "oo": 3274,
      "pp": 3275,
      "ter": 3276,
      "w.": 3277,
      "Ġp": 3278,
      "Ġ***": 3279,
      "ĭà¦£": 3280,
      "łà¦¿à¦ķ": 3281,
      "Ġà¦Ī": 3282,
      "à¦¾ĠĠà¦¦à§ĩà¦¶": 3283,
      "à§ĩĠà§Ń": 3284,
      "à¦¿.": 3285,
      "à¦¿Ġà¦®": 3286,
      "à¦°à§ģ": 3287,
      "à¦°à¦¾à¦¸": 3288,
      "à¦°à§ĭà¦ª": 3289,
      "à¦¨,": 3290,
      "à¦¨à§Ģà¦¯à¦¼": 3291,
      "à¦¨à§Ģà¦¤": 3292,
      "à¦¾à¦°à¦ªà§įà¦°à¦¾à¦ªà§įà¦¤": 3293,
      "à§ģà¦ļ": 3294,
      "à§ģà¦¯à§ĭà¦Ĺ": 3295,
      "à¦ķà§ĩĠà¦ķ": 3296,
      "à¦²à§ĩà¦ĩ": 3297,
      "à¦¬à¦¿à¦¶à§įà¦¬": 3298,
      "à¦®à¦¹": 3299,
      "à¦®à¦¾à¦§à§įà¦¯à¦®": 3300,
      "à¥¤Ġà¦Ĩà¦®à¦°": 3301,
      "Ġà¦ķà¦¿à¦¨": 3302,
      "Ġà¦ķà§įà¦°à¦¿à¦ķà§ĩà¦Ł": 3303,
      "à§įà¦¯à¦¾à¦Ń": 3304,
      "à§Ģà¥¤": 3305,
      "à§ĢĠà¦®": 3306,
      "à§Ģà¦ľ": 3307,
      "à¦¯à¦¼à¦¦": 3308,
      "Ġà¦¸à¦¿à¦¨": 3309,
      "Ġà¦¸à¦¾à¦¡à¦¼": 3310,
      "Ġà¦¸à¦ķà¦¾à¦²": 3311,
      "Ġà¦¸à§įà¦¥à¦¾à¦¨à§Ģà¦¯à¦¼": 3312,
      "Ġà¦¸à¦¿à¦¦à§įà¦§à¦¾à¦¨à§įà¦¤": 3313,
      "Ġà¦¸à¦¾à¦Ĥà¦¬à¦¾à¦¦à¦¿à¦ķ": 3314,
      "à¦¾à¦¨à§įà¦Ł": 3315,
      "à¦¾à¦¨à§įà¦§": 3316,
      "à¦¸à¦¿à¦¸": 3317,
      "à¦¸à¦®à¦¾à¦¨": 3318,
      "Ġà¦ªà§ĩà¦¶": 3319,
      "Ġà¦ªà§ģà¦¨": 3320,
      "Ġà¦ªà¦¾à¦ĵà¦¯à¦¼à¦¾à¦°": 3321,
      "à¦ªà¦¨": 3322,
      "à¦ªà¦¾à¦°": 3323,
      "Ġà¦ıà¦Łà¦¿": 3324,
      "Ġà¦®à§įà¦¯à¦¾à¦¨": 3325,
      "à¦Łà§ĭ": 3326,
      "Ġà¦¨à¦¿à¦¤": 3327,
      "Ġà¦¨à¦Ĺà¦°": 3328,
      "Ġà¦¨à¦¿à¦¶à§įà¦ļà¦¿à¦¤": 3329,
      "Ġà¦¦à¦¿à¦ļà§įà¦Ľ": 3330,
      "Ġà¦ķà¦°à§ĩà¥¤Ċ": 3331,
      "à¦¿à¦¨à¦¾à¦¯à¦¼à¦ķ": 3332,
      "à¦¿à¦ķà¦Ł": 3333,
      "à¦¾à¦ķà¦¿à¦¬": 3334,
      "à¦¹à§Ģà¦¨": 3335,
      "à¦ľà¦¾à¦¤à§Ģà¦¯à¦¼": 3336,
      "Ġà¦ľà§ģà¦²à¦¾à¦ĩ": 3337,
      "à¦¾à¦¤à¦¿": 3338,
      "à¦¾à¦¬à¦¿à¦¤": 3339,
      "à¦¾à¦¬à¦¾à¦¸": 3340,
      "à§ģà¦²à¦¤": 3341,
      "Ġà¦°à¦¬": 3342,
      "Ġà¦¶à¦¾à¦¨à§įà¦¤": 3343,
      "Ġà¦¶à¦¾à¦¸à§įà¦¤": 3344,
      "Ġà¦¶à§Ģà¦°à§įà¦·": 3345,
      "à§ĩĠà¦¬à¦¾à¦¸": 3346,
      "à§ĩĠà¦Ĩà¦¤à§įà¦®": 3347,
      "à§ĥà¦Ļà§įà¦ĸ": 3348,
      "Ġà¦¯à§ĩà¦®à¦¨": 3349,
      "à¦¾à¦ªà¦°à¦¿à¦ļà¦¾à¦²à¦ķ": 3350,
      "Ġ(2": 3351,
      "Ġà¦ĩà¦ļà§įà¦Ľ": 3352,
      "à§ģà¦°à§ĩĠà¦ĺà¦°à§ĩĠà¦¬": 3353,
      "Ġà¦«à¦¿": 3354,
      "Ġà¦«à§ĩà¦¡": 3355,
      "Ġà¦īà¦²": 3356,
      "Ġà¦īà¦ļà§įà¦ļ": 3357,
      "à§ĩĠà¦¨à¦¾,": 3358,
      "à¦ķà§įà¦·à§ĩà¦¤à§įà¦°": 3359,
      "à¦¾à¦°à§įà¦Ĺ": 3360,
      "à¦«à§ģà¦²": 3361,
      "à§ĩà¦°à¦¿à¦¯à¦¼": 3362,
      "Ġà¦ĸà¦¾à¦¦": 3363,
      "à¦¾Ġà¦¬à¦¿à¦·à¦¯à¦¼": 3364,
      "Ġà¦¹à¦¯à¦¼à§ĩĠà¦ªà¦¡à¦¼": 3365,
      "à¦¾à¦ļà¦²": 3366,
      "Ġà§¨à§¬": 3367,
      "à§ĩà¦°Ġà¦ªà¦°à¦¿à¦": 3368,
      "à§ĩà¦°Ġà¦ªà§Ĥà¦°à§įà¦¬": 3369,
      "à§ĩà¦°Ġà¦®à§ĩà¦¯à¦¼": 3370,
      "à§ĩĠà¦¯à§ģà¦ķà§įà¦¤": 3371,
      "à§ĩĠà¦¤à§ĭ": 3372,
      "à§ĩĠà¦®à¦¹": 3373,
      "à§ĩĠà¦®à§įà¦¯à¦¾à¦ļ": 3374,
      "à¦¾à¦ģà¦¸": 3375,
      "Ġà¦Łà§ĩà¦¬à¦¿à¦²": 3376,
      "ĠâĢĵ": 3377,
      "à¦¾Ġà¦¸à¦¹": 3378,
      "à§ĩĠà¦Ĺà§ĩà¦Ľà§ĩà¥¤": 3379,
      "à§©à§©": 3380,
      "à§ĩĠà¦ħà¦Ĥà¦¶": 3381,
      "à¦¦à§įà¦§à¦¾à¦°": 3382,
      "à§ĩĠà¦ľà§ĩà¦²": 3383,
      "Ġà¦ħà¦¨à§ģà¦®à¦¤à¦¿Ġà¦Ľà¦¾à¦¡à¦¼": 3384,
      "à¦¾à¦ĸà¦¿à¦²": 3385,
      "à¦¿à¦Ĥà¦ķ": 3386,
      "à§ĩĠà¦ªà§įà¦°à¦¬à§ĩà¦¶": 3387,
      "Ġà¦®à§ĭà¦¤": 3388,
      "à§ĩà¦°Ġà¦ħà¦ª": 3389,
      "à§ĩĠà¦ıà¦ķà¦ľà¦¨": 3390,
      "à§ĭà¦®à§ģà¦ĸ": 3391,
      "Ġà¦ľà¦¾à¦¨à¦¿à¦¯à¦¼": 3392,
      "Ġà¦ľà¦¾à¦¨à¦¾à¦¯à¦¼": 3393,
      "à§®à§¬": 3394,
      "à§ªà§¨à§¦": 3395,
      "Ġà¦īà¦ªà¦²à¦ķà§įà¦·": 3396,
      "à§¯à§©": 3397,
      "à§¯à§®": 3398,
      "à§¯à§¬": 3399,
      "Ġà¦ľà¦¨à¦Ĺà¦£": 3400,
      "à¦¾Ġà¦ľà¦®": 3401,
      "Ġà§¨à§¦à§§à§ª": 3402,
      "à¦¾Ġà¦ħà¦¨à§ģ": 3403,
      "à¦¿à¦īà¦²": 3404,
      "Ġà¦Ĩà¦ªà¦¿à¦²": 3405,
      "à¦¿à¦¯à§ģà¦ķà§įà¦¤": 3406,
      "à§įà¦Łà§įà¦°à§ĩà¦²": 3407,
      "à¦¬à§įà¦¯à¦¾à¦ª": 3408,
      "à§įà¦¯à¦®à¦¨à§įà¦¤à§įà¦°à§Ģ": 3409,
      "Ġà¦Ĩà¦°Ġà¦ı": 3410,
      "à¦°à¦ķà¦¾à¦°à§Ģ": 3411,
      "à§ģà¦ĸà§Ģ": 3412,
      "à¦¿à¦¡à§ĩà¦¨à§įà¦Ł": 3413,
      "Ġà¦¹à¦²à§ĩà¦ĵ": 3414,
      "à¦°Ġà¦¬à§įà¦¯": 3415,
      "à§ĭà¦°à§įà¦¸": 3416,
      "Ġà§¦à§¨": 3417,
      "Ġà¦ħà¦Ńà¦¿à¦¯à¦¾à¦¨": 3418,
      "Ġà¦ªà¦°à¦¿à¦¬à§ĩà¦¶": 3419,
      ",Ġà¦¬à§įà¦²": 3420,
      "à§ĩĠà¦²à§ĩà¦ĸ": 3421,
      "à§ĩà¦°Ġà¦Ńà¦¿à¦¤à§įà¦¤": 3422,
      "Ġà¦Ĩà¦¹à§įà¦¬à¦¾à¦¨": 3423,
      "Ġà¦¤à¦¿à¦¨à¦¿à¥¤Ċ": 3424,
      "Ġà¦Ĩà¦°à§ĭ": 3425,
      "à§ĩà¦°Ġà¦ļà¦¾à¦ª": 3426,
      "Ġà¦®à¦¹à¦¿à¦²": 3427,
      "à§ģà¦¯à¦¼à§ĩà¦²": 3428,
      "à§įà¦¯à¦¾à¦¨à§įà¦¡Ġà¦Ĺà¦¾à¦¨": 3429,
      "Ġà¦Ĩà¦¦à¦¾à¦¯à¦¼": 3430,
      "Ġà¦ľà§ĩà¦²à¦¾à¦°": 3431,
      "Ġà¦¹à§ĭà¦¸à§ĩà¦¨,": 3432,
      "à§ĩĠà¦ĵà¦ł": 3433,
      "Ġà¦¹à¦¯à¦¼à§ĩà¦Ľà§ĩà¥¤Ċ": 3434,
      "à¦°à¦¤à¦¾à¦²": 3435,
      "Ġà¦¸à¦¾à¦°à§įà¦Ńà¦¿à¦¸": 3436,
      "à¦¾Ġà¦Ľà¦¾à¦¡à¦¼": 3437,
      "à¦²à§įà¦²à¦¾à¦¹": 3438,
      "Ġà¦¸à¦¾à¦®à¦¾à¦ľà¦¿à¦ķ": 3439,
      "Ġà¦ķà¦°à§ģà¦¨à¥¤": 3440,
      "à¦¾à¦ĩà¦ķà§ĩà¦²": 3441,
      "Ġà¦¬à¦¿à¦ķà§ĩà¦²": 3442,
      "Ġà¦ħà¦°à§įà¦¥à¦¬à¦Ľà¦°": 3443,
      "Ġà¦¹à¦ļà§įà¦Ľà§ĩà¥¤": 3444,
      "à§įà¦¯à¦¾à¦®à§įà¦ªà¦¿à¦¯à¦¼": 3445,
      "à¦¾Ġà¦¥à¦¾à¦ķà¦²à§ĩà¦ĵ": 3446,
      "Ġà¦ķà¦°à¦¾Ġà¦¹à¦¯à¦¼à¥¤": 3447,
      "à¦¸à¦Ĥà¦ĸà§įà¦¯": 3448,
      "Ġà¦®à§Ĥà¦²à¦¤": 3449,
      "à¦ķà§įà¦¸à¦¬à¦¾à¦ľà¦¾à¦°": 3450,
      "Ġà¦¯à§ģà¦¬à¦²à§Ģà¦Ĺ": 3451,
      "Ġà¦¬à¦¿à¦ľà§įà¦ŀà¦¾à¦ªà¦¨": 3452,
      "Ġà¦ķà¦¬à¦¿à¦¤": 3453,
      "Ġà¦¨à¦¿à¦°à¦¾à¦ªà¦¤à§įà¦¤": 3454,
      "Ġà¦Ĺà§įà¦°à§ĩà¦«": 3455,
      "Ġà¦²à¦ķà§įà¦·à§įà¦®": 3456,
      "à§ĩà¦ļà§įà¦Ľ": 3457,
      "à§ĩà¦°Ġà¦ħà¦¨à§ģà¦ķà§Ĥà¦²": 3458,
      "à¦Ĩà¦ªà¦¨à¦¾à¦°": 3459,
      "Ġà¦ľà§ĩà¦¨à¦¾à¦°à§ĩà¦²": 3460,
      "à§ĩĠà¦Ĩà¦¬à§ĩà¦¦à¦¨à¦ªà¦¤à§įà¦°": 3461,
      "à¦¾Ġà¦¬à¦¿à¦¶à§įà¦¬à¦¬à¦¿à¦¦à§įà¦¯à¦¾à¦²à¦¯à¦¼": 3462,
      "Ġà¦Ĩà¦¬à§įà¦¦à§ģà¦²": 3463,
      "ahm": 3464,
      "à¦¾à¦ŀà§įà¦ļà¦²": 3465,
      "Ġà¦¸à¦®à§ģà¦¦à§įà¦°à¦Ĺà¦¾à¦®à§Ģ": 3466,
      "à§Įà¦¶à¦²": 3467,
      "Ġà¦®à¦¾à¦°à§įà¦ķà¦¿à¦¨": 3468,
      "à§įà¦ªà§įà¦°à¦¤à¦¿à¦ķ": 3469,
      "à¦¿à¦¶à§ĭà¦°à¦Ĺà¦ŀà§įà¦ľ": 3470,
      "ttp": 3471,
      "à¦£à§įà¦¡à§ĭà¦®Ġà¦¬à§įà¦¯à¦¬à¦¹à¦¾à¦°": 3472,
      "à§ĩĠà¦ªà§Įà¦ģà¦Ľ": 3473,
      "à¦Ńà¦¾à¦ªà¦¤à¦¿à¦¤à§įà¦¬": 3474,
      "à§ĩà¦ķà¦¨à¦¾à¦«": 3475,
      "à§Įà¦²à¦Ńà§Ģà¦¬à¦¾à¦ľà¦¾à¦°": 3476,
      "Ġ***Ċ": 3477,
      "à§ĥà¦Ļà§įà¦ĸà¦²": 3478,
      "à§ģà¦°à§ĩĠà¦ĺà¦°à§ĩĠà¦¬à§įà¦¯à¦¾à¦¨à§įà¦¡Ġà¦Ĺà¦¾à¦¨": 3479,
      ",Ġ2018": 3480,
      ",50": 3481,
      "-à¦¤": 3482,
      "-à§¯": 3483,
      "33": 3484,
      "40": 3485,
      "70": 3486,
      "9.": 3487,
      "ber": 3488,
      "ha": 3489,
      "sh": 3490,
      "tr": 3491,
      "Â»ĠÂ«": 3492,
      "âĤ": 3493,
      "ĠB": 3494,
      "ĠL": 3495,
      "Ġà¥¤Ċ": 3496,
      "Ġin": 3497,
      "Ġof": 3498,
      "Ĩà¦°": 3499,
      "à¦Ī": 3500,
      "à¦¿)": 3501,
      "à¦¿Ġà¦ķà¦°à¦¤": 3502,
      "à¦¿à§İ": 3503,
      "à¦°à¦ķà§įà¦·à¦£": 3504,
      "à¦¿à¦ģ": 3505,
      "à¦¿à¦ıà¦ķ": 3506,
      "à§ĩà¦ı": 3507,
      "à¦°Ġà¦ĸ": 3508,
      "à¦¾à¦°Ġà¦¨à¦¾à¦®": 3509,
      "à§ģĠà¦ļ": 3510,
      "à¦ķà¦¤": 3511,
      "à¦ķà¦°à¦£": 3512,
      "à¦²à¦¬": 3513,
      "à¦²à¦¾à¦ĩ": 3514,
      "à¦²à§ĩà¦¨,": 3515,
      "à¦¤à¦°à§įà¦ķ": 3516,
      "à¦¬à¦§à¦¾à¦¨": 3517,
      "à¦®à¦¸": 3518,
      "à¦®à¦¾à¦®à¦²": 3519,
      "à§įà¦°à¦¿à¦®": 3520,
      "à§įà¦°à§ĩà¦¸": 3521,
      "Ġà¦ķà¦¾à¦¨": 3522,
      "Ġà¦ķà¦¾à¦ª": 3523,
      "Ġà¦ķà§įà¦¯à¦¾à¦®à§įà¦ª": 3524,
      "à§įà¦¯à¦¬à¦¾à¦¦": 3525,
      "à§ĢĠà¦ıà¦¬à¦Ĥ": 3526,
      "à§Ģà¦®à¦¾à¦¨": 3527,
      "à¦¯à¦¼Ġà¦¬": 3528,
      "à¦¯à¦¼à¦¾à¦¤": 3529,
      "Ġà¦¸à¦¾à¦°": 3530,
      "Ġà¦¸à¦ļà¦¿à¦¬": 3531,
      "Ġà¦¸à§ĭà¦®à¦¬à¦¾à¦°": 3532,
      "à¦¾à¦¨à¦¡": 3533,
      "à¦¸à¦¿à¦ķ": 3534,
      "Ġà¦¬à§ĩà¦¡à¦¼": 3535,
      "Ġà¦¬à¦ķà§įà¦¤à¦¬à§įà¦¯": 3536,
      "Ġà¦¬à¦¾à¦ķà§įà¦¸": 3537,
      "Ġà¦¬à¦¸à§ģà¦¨à§įà¦§": 3538,
      "Ġà¦ªà¦ķà§įà¦·": 3539,
      "Ġà¦ªà¦°à§įà¦¬": 3540,
      "à¦¦à§ĩà¦°Ġà¦®à¦§à§įà¦¯": 3541,
      "à¦¦à¦¿à¦ĵ": 3542,
      "à¦ªà¦¥": 3543,
      "Ġà¦ı,": 3544,
      "Ġà¦ıà¦ľ": 3545,
      "Ġà¦ıà¦¯à¦¼à¦¾à¦°": 3546,
      "Ġà¦®à¦¾à¦ĩ": 3547,
      "Ġà¦®à§ģà¦°": 3548,
      "Ġà¦®à¦¾à¦ł": 3549,
      "Ġà¦®à¦¾à¦Ŀ": 3550,
      "Ġà¦®à¦¡à§ĩà¦²": 3551,
      "Ġà¦Ĩà¦ķ": 3552,
      "Ġà¦Ĩà¦¨à§įà¦¦à§ĭà¦²à¦¨": 3553,
      "Ġà¦Ĩà¦īà¦Ł": 3554,
      "à§ĩà¦¨à¦¦": 3555,
      "à§ĩà¦¨à¦¿à¥¤": 3556,
      "Ġà¦¨à¦¿à¦¬": 3557,
      "Ġà¦¨à¦¾à¦°à¦¾à¦¯à¦¼à¦£à¦Ĺà¦ŀà§įà¦ľ": 3558,
      "Ġà¦¦à¦¾à¦¯à¦¼": 3559,
      "Ġà¦¦à§ĭà¦ķà¦¾à¦¨": 3560,
      "à¦¾à¦²à¦¿": 3561,
      "à¦¾à¦®à¦¾à¦°": 3562,
      "à¦¾à¦®à¦¤": 3563,
      "à¦¾à¦®à§įà¦¯": 3564,
      "à¦¾à¦®à¦Ĺ": 3565,
      "à¦Ĺà¦¿à¦°": 3566,
      "Ġà¦ķà¦°à¦¾à¦°Ġà¦ª": 3567,
      "Ġà¦ķà¦°à¦¬à§ĩà¦¨": 3568,
      "Ġà¦¹à¦ķ": 3569,
      "Ġà¦¹à§ģà¦®": 3570,
      "à¦¿à¦¨à¦¾à¦°": 3571,
      "à¦¿à¦¯à¦¼à¦¾Ġà¦®": 3572,
      "à¦¾à¦¯à¦¼Ġà¦ħ": 3573,
      "Ġà¦ľà¦¿à¦¯à¦¼": 3574,
      "à§ĩà¦Ľà¦¿": 3575,
      "à§ĩà¦Ľà§ĩĠà¦¬": 3576,
      "à§ĩà¦Ľà¦¿,": 3577,
      "Ġà¦ħà§įà¦¯à¦¾à¦ķ": 3578,
      "à¦¾à¦¬à§ģà¦²": 3579,
      "à¦¾à¦¬à¦¾à¦¹à¦¿à¦ķ": 3580,
      "à¦¾à¦¦à¦¨": 3581,
      "à¦¾à¦¸à¦¹": 3582,
      "âĢľ": 3583,
      "à¦¿à¦²à§ĭ": 3584,
      "à¦¿à¦²à§įà¦²": 3585,
      "à§¦à§®": 3586,
      "à§¦à§§à§Ń": 3587,
      "Ġà¦°à¦Ĥ": 3588,
      "Ġà¦°à¦ķà§įà¦·": 3589,
      "à¦¶à¦¾à¦¯à¦¼": 3590,
      "à¦¶à¦¿à¦¦": 3591,
      "Ġà¦ªà§įà¦°à§ĩà¦®": 3592,
      "à§ĩĠà¦ªà¦¾à¦ģà¦ļ": 3593,
      "Ġà¦¶à¦¹": 3594,
      "Ġà¦¶à¦¾à¦®à§Ģà¦®": 3595,
      "à¦ļ-": 3596,
      "à¦ļà¦¿à¦¤": 3597,
      "à¦¾à¦ľà¦¤": 3598,
      "à§ĩĠà¦Ĩà¦ķ": 3599,
      "à§ĩĠà¦Ĩà¦ľ": 3600,
      "à§ĩĠà¦¸à¦¿à¦²à§ĩà¦Ł": 3601,
      "Ġà¦Ĺà¦¾à¦ľ": 3602,
      "Ġà¦Ĺà¦²à§įà¦ª": 3603,
      "à¦Ľà¦¡à¦¼à¦¿": 3604,
      "à§ĥà¦£": 3605,
      "Ġà¦¯à§ĩ,": 3606,
      "à¦¾à¦¹à¦¸": 3607,
      "Ġà¦ļà§ĭà¦ĸ": 3608,
      "Ġà¦ļà§ĩà¦·à§įà¦Łà¦¾Ġà¦ķà¦°": 3609,
      "à¦ĸà¦°à§ģà¦²Ġà¦ĩà¦¸à¦²à¦¾à¦®": 3610,
      "à§ĩà¦°Ġà¦¸à¦ķà¦²": 3611,
      "Ġà¦ĩà¦¤à¦¿à¦¹à¦¾à¦¸": 3612,
      "Ġà¦ĩà¦¨à§įà¦¸à¦Ł": 3613,
      "Ġà¦«à§ģà¦²": 3614,
      "à§ĩĠà¦ıà¦ĸà¦¨": 3615,
      "Ġà¦īà¦²à§įà¦²à§ĩà¦ĸ": 3616,
      "à¦¿à¦°Ġà¦¯": 3617,
      "à¦¿à¦°Ġà¦°": 3618,
      "à§ĭà¦¨à¦¾à¦°": 3619,
      "à¦¥à¦¾à¦¯": 3620,
      "à¦¿à¦¸à¦Ĥ": 3621,
      "à¦¾Ġà¦¹à¦¤": 3622,
      "à§ĩĠà¦¦à¦¿à¦¨": 3623,
      "à¦«à¦¤": 3624,
      "à¦«à¦Ł": 3625,
      "à¦«à¦¾Ġà¦¨": 3626,
      "à¦«à¦¸à¦¿à¦²": 3627,
      "à§ĩà¦°Ċ": 3628,
      "Ġà¦ıà¦ķà¦¾à¦¦à¦¶": 3629,
      "à§ĩà¦ĸĠà¦¹à¦¾à¦¸à¦¿à¦¨": 3630,
      "à¦¾Ġà¦¬à§ĩà¦Ĺà¦®": 3631,
      "Ġà¦¹à¦¯à¦¼à¥¤Ċ": 3632,
      "à¦¾à¦ļà¦¾à¦ĩà¦¯à¦¼": 3633,
      "à§ģà¦ķà¦¦à¦¾à¦°": 3634,
      "à§ĩĠà¦¹à¦¾à¦®à¦²": 3635,
      "à§ĩà¦°Ġà¦ªà¦¾à¦¶": 3636,
      "à§ĩà¦°Ġà¦®à¦¤": 3637,
      "à¦¿à¦Łà¦¿à¦īà¦Ł": 3638,
      "à§ĩĠà¦®à§ģà¦ķà§įà¦¤": 3639,
      "à§ĩà¦°Ġà¦ķà¦¾à¦°à¦£": 3640,
      "à§ĩà¦°Ġà¦ķà¦¿à¦Ľà§ģ": 3641,
      "à¦¿à¦ľà¦¿à¦ıà¦®à¦ĩà¦ı": 3642,
      "à¦¾à¦ģà¦ª": 3643,
      "Ġà¦Łà§ģ": 3644,
      "à¦¿à¦®à¦¾à¦¨": 3645,
      "à¦¿à¦¦à¦¾à¦°": 3646,
      "à§ģà¦°Ġà¦¬": 3647,
      "à§ģà¦°Ġà¦®": 3648,
      "à¦¾à¦Łà¦¤à¦¿": 3649,
      "à¦¾Ġà¦¸à§įà¦¬": 3650,
      "à¦¾Ġà¦¸à¦®à§įà¦ªà¦¾à¦¦à¦ķ": 3651,
      "à¦¯à§ģà¦¦à§įà¦§": 3652,
      "à§Ģà¦¯à¦¼à¦¤": 3653,
      "Ġà¦¸à¦Ĥà¦°à¦ķà§įà¦·à¦¿à¦¤": 3654,
      "Ġà¦¦à§ĩà¦¶à§ĩà¦°Ġà¦®à¦¾à¦¨à§ģà¦·": 3655,
      "à¦¾Ġà¦ķà¦°à¦Ľ": 3656,
      "à§ĩĠà¦ħà¦§": 3657,
      "à§Ģà¦°Ġà¦¤": 3658,
      "à§ģà¦®à¦¾à¦¤à§įà¦°": 3659,
      "à¦¾Ġà¦¹à¦¯à¦¼à¥¤Ċ": 3660,
      "à¦¾à¦ĸà¦¨à§įà¦¦": 3661,
      "à§ĩĠà¦ļà§Ģà¦¨": 3662,
      "à§ĩà¦°Ġà¦ľà¦¨": 3663,
      "à§ĩà¦°Ġà¦ľà§ĩà¦²": 3664,
      "à§ĩà¦°Ġà¦ľà¦¬à¦¾à¦¬": 3665,
      "Ġà¦¨à¦¿à¦°à§įà¦¦à§ĩà¦¶": 3666,
      "à§ĩà¦°Ġà¦ħà¦°à§įà¦¥": 3667,
      "à§ĩà¦°Ġà¦ħà¦¨à§ģ": 3668,
      "à§ģà¦·à§įà¦Ł": 3669,
      "à§ģà¦·à§įà¦łà¦¿à¦¤": 3670,
      "à§ĩà¦°Ġà¦¦à§ĭâĢĻà¦Ĩ": 3671,
      "à¦łà¦ķ": 3672,
      "à¦¾à¦°Ġà¦¸à¦¾à¦°à§įà¦Ń": 3673,
      "à§¦à§¦/-": 3674,
      "à¦¿à¦īà¦¨": 3675,
      "à¦¿à¦ıà¦¨": 3676,
      "à§ĩĠà¦Ńà¦¾à¦²": 3677,
      "à§ĩĠà¦Ńà¦°à§įà¦¤": 3678,
      "à§Ģà¦Ĺà¦ŀà§įà¦ľ": 3679,
      "Ġà¦Ĩà¦°Ġà¦¤": 3680,
      "à¦¦à§įà¦¦à§ĩà¦°": 3681,
      "à¦¦à§įà¦¦à§Ģà¦¨": 3682,
      "à§ĭà¦¬à¦¾à¦ĩà¦²": 3683,
      "à§ĩà¦°Ġà¦īà¦¨à§įà¦¨à¦¯à¦¼à¦¨": 3684,
      "à¦¾à¦°Ġà¦¦à§ĭâĢĻà¦ĨĠ0": 3685,
      "Ġà§¦à§§à§®": 3686,
      "Ġà¦ķà¦°à§įà¦®à¦¸à§Ĥà¦ļ": 3687,
      ",Ġà¦ķà§ģà¦°à§ĩĠà¦ĺà¦°à§ĩĠà¦¬à§įà¦¯à¦¾à¦¨à§įà¦¡Ġà¦Ĺà¦¾à¦¨": 3688,
      "à¦¾Ġà¦¶à§ģà¦°à§ģ": 3689,
      "Ġà¦®à§ģà¦¹": 3690,
      "Ġà¦Ĩà¦¬à§ĩà¦¦": 3691,
      "Ġà¦Ľà¦¬à¦¿,": 3692,
      "à§ĩĠà¦ľà¦¾à¦¨à¦¾à¦¨": 3693,
      "Ġà¦ļà¦²à¦Ľ": 3694,
      "Ġà¦ļà¦²à¦¤à¦¿": 3695,
      "à§įà¦¯à¦¾à¦ªà¦¾à¦°": 3696,
      "à§įà¦¯à¦¾à¦®à§ĩà¦°": 3697,
      "Ġà¦¨à§ĩà¦¤à§ĥà¦¤à§įà¦¬": 3698,
      "Ġà¦¬à¦¿à¦·à¦¯à¦¼à¦Łà¦¿": 3699,
      "à§įà¦°à¦®à¦£": 3700,
      "Ġà§®à§ªà§©": 3701,
      "enc": 3702,
      "entĠ": 3703,
      "Ġà¦ķà¦°à¦¤à§ĩĠà¦ªà¦¾à¦°à§ĩà¦¨": 3704,
      "à§ĩĠà¦®à¦¨à§ĭà¦¨à¦¯à¦¼à¦¨": 3705,
      "ation": 3706,
      "Ġà¦¸à¦Ĥà¦¬à¦¾à¦¦,": 3707,
      "Ġà¦ķà§ĭà¦Łà¦¿Ġà¦Łà¦¾à¦ķ": 3708,
      "Ġà¦ªà§įà¦°à¦§à¦¾à¦¨à¦®à¦¨à§įà¦¤à§įà¦°": 3709,
      "Ġà¦ķà¦¥à¦¾Ġà¦¬à¦²": 3710,
      "Ġà¦īà¦¤à§įà¦¤à¦°": 3711,
      "Ġà¦¬à§įà¦¯à¦ķà§įà¦¤à¦¿à¦ķ": 3712,
      "Ġà¦ªà§įà¦²à¦Ł": 3713,
      "à§ģà¦ģà¦ľ": 3714,
      "Ġà¦¬à¦¿à¦¦à§įà¦¯": 3715,
      "Ġà¦¦à§įà¦¬à§Ģà¦ª": 3716,
      "Ġà¦®à¦¿à¦²à¦¿à¦¯à¦¼": 3717,
      "Ġà¦®à§Ĥà¦²à§įà¦¯": 3718,
      "à§ĭà¦®à§įà¦ªà¦¾à¦¨à¦¿": 3719,
      "à¦¾Ġà¦ıà¦ķà¦Łà¦¿": 3720,
      "à§ģà¦²Ġà¦¹à¦ķ,": 3721,
      "à¦°à¦¿à¦¦à§įà¦°": 3722,
      "Ġà¦ĩà¦®à§ĩà¦ĩà¦²": 3723,
      "à§§à§¬à§¦": 3724,
      "à§ĩĠà¦¹à¦¬à§ĩ": 3725,
      "à¦¾Ġà¦¸à¦®à§įà¦Ńà¦¬": 3726,
      "Ġà¦¸à¦Ĥà¦Ĺà¦łà¦¨": 3727,
      "Ġ-ĠâĤ": 3728,
      "Ġà¦²à§ĭà¦ķà¦ľà¦¨": 3729,
      "Ġà¦°à¦¿à¦ªà§ĭà¦°à§įà¦Łà¦¾à¦°": 3730,
      "Ġà¦īà¦ĩà¦ķà§ĩà¦Ł": 3731,
      "à¦¾Ġà¦¯à¦¾à¦¬à§ĩĠà¦¨": 3732,
      "Ġà¦®à§ĭà¦¬à¦¾à¦ĩà¦²à¦ĥĠà§¦à§§à§Ń": 3733,
      "à¦łà¦¿à¦¤à¦¬à§įà¦¯": 3734,
      "à¦¾à¦«à¦²à§įà¦¯": 3735,
      "Ġà¦Ĩà¦ªà¦¨à¦¾à¦ķ": 3736,
      "www.": 3737,
      "à§ĩĠà¦īà¦ªà¦¸à§įà¦¥à¦¿à¦¤": 3738,
      "Ġà¦Ĩà¦²à§ĭà¦ķà¦ļà¦¿à¦¤à§įà¦°": 3739,
      "à§ĥà¦¥à¦¿à¦¬": 3740,
      "Ġà¦ĸà§įà¦°à¦¿à¦¸à§įà¦Ł": 3741,
      "à¦¾Ġà¦¬à§įà¦¯à¦¬à¦¹": 3742,
      "ĠEUR": 3743,
      "à¦°à§Ģà¦£": 3744,
      "Ġà¦¬à§ĩà¦Ĩà¦ĩà¦¨à¦¿": 3745,
      "Ġà¦ħà¦¥à¦¬": 3746,
      "Ġà¦¶à¦¨à¦¿à¦¬à¦¾à¦°": 3747,
      ")Ġà¦¨à¦¾à¦®à§ĩĠà¦ıà¦ķ": 3748,
      "Ġà¦ľà¦¾à¦¯à¦¼à¦Ĺà¦¾à¦¯à¦¼": 3749,
      "Ġà¦¨à¦¥à¦¿Ġà¦¯": 3750,
      "Ġà¦°à§ĭà¦¬à¦¬à¦¾à¦°": 3751,
      "à¦¾Ġà¦¸à¦®à§įà¦ªà§Ĥà¦°à§įà¦£": 3752,
      "à¦ªà§ģà¦°Ġà¦Ĺà§įà¦°à¦¾à¦®": 3753,
      "à¦¾à¦ªà¦¾à¦¶à¦¿": 3754,
      "Ġà¦¬à§įà¦¯à¦¾à¦²à¦Ł": 3755,
      "Ġà¦¹à¦¾à¦¦à¦¿à¦¸": 3756,
      "Ġà¦«à§ĩà¦¡à¦¾à¦°à§ĩà¦¶à¦¨": 3757,
      ",Ġà¦¬à§įà¦²à¦ķ-": 3758,
      ",50ĠEUR": 3759,
      "à¦¿à¦ıà¦ķà§įà¦¸": 3760,
      "à¦¥à¦¾à¦¯à¦¥": 3761,
      "à¦«à¦¾Ġà¦¨à§ĩà¦Ł": 3762,
      "Ġ-ĠâĤ¬": 3763,
      ")à¥¤": 3764,
      "-à¦ħ": 3765,
      ".à¦ıà¦®": 3766,
      "35": 3767,
      "38": 3768,
      "62": 3769,
      "SI": 3770,
      "TE": 3771,
      "]Ċ": 3772,
      "eb": 3773,
      "le": 3774,
      "leĠ": 3775,
      "nse": 3776,
      "ol": 3777,
      "son": 3778,
      "you": 3779,
      "£à¦¤": 3780,
      "»Ċ": 3781,
      "Ġ.": 3782,
      "ĠD": 3783,
      "ĠH": 3784,
      "Ġv": 3785,
      "Ġâ": 3786,
      "Ġ...": 3787,
      "Ġà¦Īà¦¦": 3788,
      "à¦¾Ġà§«": 3789,
      "à§ĩà§·": 3790,
      "à¦¿à¦°à§įà¦Ń": 3791,
      "à¦°à¦¿à¦¤": 3792,
      "à§ĩĠà¦¢": 3793,
      "à§ĩĠà¦Ĳ": 3794,
      "à¦¨à¦¿à¦°": 3795,
      "à¦°Ġà¦Ľ": 3796,
      "à§ģ,": 3797,
      "à§ģâĢĻ": 3798,
      "à¦ķà¦¿à¦Ľà§ģ": 3799,
      "à¦ķà§ĩĠà¦¦à§ĩà¦ĸ": 3800,
      "à¦ķà§įà¦²à¦¾à¦¬": 3801,
      "à¦²à¦¿à¦¤": 3802,
      "à¦¤à¦ĩ": 3803,
      "à¦¤à¦¾à¦¦": 3804,
      "à¦¬à§ģà¦¬": 3805,
      "à¦¬à¦¿à¦§": 3806,
      "à¦¬à§ĩà¦ķà§įà¦·": 3807,
      "à¦¬à¦¿à¦¸à§įà¦¤à¦¾à¦°à¦¿à¦¤": 3808,
      "à¦®à§ģà¦¨": 3809,
      "à¦®à§ĭà¦¹": 3810,
      "à§įà¦°à¦¿à¦ľ": 3811,
      "Ġà¦ķà§įà¦°": 3812,
      "Ġà¦ķà¦ĸà¦¨à§ĭ": 3813,
      "à§Ģà¦ļ": 3814,
      "Ġà¦¸à§ĩà¦ķ": 3815,
      "Ġà¦¸à¦Ń": 3816,
      "Ġà¦¸à§ĩà¦²": 3817,
      "Ġà¦¸à¦¿à¦®": 3818,
      "Ġà¦¸à¦«à¦°": 3819,
      "à¦¸à¦¿à¦²à§ĩà¦Ł": 3820,
      "Ġà¦¬à¦¿à¦°": 3821,
      "Ġà¦¬à§ĩà¦¸": 3822,
      "Ġà¦¬à¦¾à¦£à¦¿à¦ľà§įà¦¯": 3823,
      "Ġà¦¬à§ĭà¦°à§įà¦¡": 3824,
      "Ġà¦ªà¦¾à¦°à§įà¦Ł": 3825,
      "à¦¦à§įà¦°": 3826,
      "à¦¦à§Īà¦¨à¦¿à¦ķ": 3827,
      "à¦ªà¦¾à¦¶": 3828,
      "Ġà¦ıà¦°Ġà¦ª": 3829,
      "Ġà¦ıà¦°Ġà¦¸": 3830,
      "Ġà¦®à¦¾à¦²": 3831,
      "Ġà¦®à¦¾à¦¯à¦¼": 3832,
      "Ġà¦®à§ĩà¦¸": 3833,
      "Ġà¦®à¦¨à§įà¦¤à§įà¦°à§Ģ": 3834,
      "Ġà¦®à¦¸à¦ľà¦¿à¦¦": 3835,
      "Ġà¦®à§ĩà¦¡à¦¿à¦ķà§ĩà¦²": 3836,
      "Ġà¦Ĩà¦«": 3837,
      "Ġà¦Ĩà¦¯à¦¼à§ĭà¦ľà¦¨": 3838,
      "Ġà¦¨à§ĩà¦¯à¦¼": 3839,
      "Ġà¦¨à¦¾à¥¤Ġà¦ı": 3840,
      "Ġà¦¨à¦¬à¦¾à¦¯à¦¼à¦¨": 3841,
      "Ġà¦¨à¦¾à¦¬à¦¿à¦ķ": 3842,
      "Ġà¦¦à¦®à¦¨": 3843,
      "Ġà¦¦à§ĩà¦¯à¦¼à¦¾à¦°": 3844,
      "Ġà¦¦à§ĩà¦ĵà¦¯à¦¼à¦¾à¦°": 3845,
      "à¦Ĺà§įà¦°à¦¹à¦£": 3846,
      "Ġà¦ķà¦°à§ĩĠà¦¨": 3847,
      "Ġà¦ķà¦°à§ĩĠà¦ķ": 3848,
      "à¦¿à¦ķà§ĩà¦Ł": 3849,
      "à¦¿à¦¯à¦¼à¦¾": 3850,
      "à¦¾à¦¯à¦¼à§ĩà¦²": 3851,
      "à¦¾à¦¯à¦¼Ġà¦ªà¦¡à¦¼": 3852,
      "à¦¾à¦ķà§įà¦Ł": 3853,
      "à¦¹à¦¿à¦°": 3854,
      "Ġà¦¤à¦¾à¦¤": 3855,
      "à¦ĩĠà¦¸à¦®à¦¯à¦¼": 3856,
      "à¦ľà¦¯à¦¼": 3857,
      "à¦ľà§ģà¦¡à¦¼": 3858,
      "Ġà¦ľà¦¿à¦¤": 3859,
      "Ġà¦ħà§įà¦¯": 3860,
      "Ġà¦ħà¦Ļà§įà¦Ĺ": 3861,
      "Ġà¦ħà¦¸à§įà¦¤à§įà¦°": 3862,
      "à§ĩà¥¤Ġà¦ªà¦°": 3863,
      "à¦¾à¦ĩà¦ª": 3864,
      "à¦¾à¦¤à§įà¦®": 3865,
      "à¦¾à¦¤à¦¬à§įà¦¬": 3866,
      "à¦¾à¦¦à§ģ": 3867,
      "à¦¾à¦¸à§Ģà¦¨": 3868,
      "à¦¾à¦¸à¦¿à¦¨à§įà¦¦": 3869,
      "à§ģà¦²à§ģ": 3870,
      "à§ĩà¦ķà¦Łà¦¿": 3871,
      "à¦¶à¦¿à¦ķà§įà¦·": 3872,
      "à¦¶à¦¾à¦¸à¦¨": 3873,
      "à¦¶à§ĥà¦Ļà§įà¦ĸà¦²": 3874,
      "à§ĩà¦¶à§Ģ": 3875,
      "Ġà¦ªà§įà¦°à¦ķà§ĥà¦¤": 3876,
      "Ġà¦ªà§įà¦°à¦®à§ģà¦ĸ": 3877,
      "à¦Ńà§Ģ": 3878,
      "Ġà¦¶à¦¾à¦ĸ": 3879,
      "Ġà¦¶à¦¬à§įà¦¦": 3880,
      "Ġà¦¶à§įà¦°à¦®à¦¿à¦ķ": 3881,
      "à§ĩĠà¦¬à§ĩà¦¡à¦¼": 3882,
      "à§ĩĠà¦¬à¦¿à¦ķà§įà¦·à§ĭà¦Ń": 3883,
      "à§ĩĠà¦Ĩà¦ĩà¦¨": 3884,
      "à§ĩĠà¦¸à¦¹": 3885,
      "Ġà¦Ĺà§ģà¦²": 3886,
      "Ġà¦Ĺà§ģà¦²à§ĭ": 3887,
      "Ġà¦Ĺà¦łà¦¨": 3888,
      "Ġà¦Ĺà¦¿à¦¯à¦¼à¦¾à¦¸": 3889,
      "à§ĥà¦ķ": 3890,
      "Ġà¦¯à¦¦": 3891,
      "Ġà¦¯à¦¾à¦¬": 3892,
      "Ġà¦¯à§ĩà¦Ł": 3893,
      "à¦¾à¦¹à¦ķ": 3894,
      "à¦¾à¦¹à¦¾à¦¡à¦¼": 3895,
      "Ġà¦ļà§ĩà¦¯à¦¼": 3896,
      "Ġà¦ļà¦¾à¦®à¦ļ": 3897,
      "Ġ(à¦®": 3898,
      "Ġ(à¦ª": 3899,
      "à§ĩà¦ĩà¦¨": 3900,
      "à¦¾à¦Ĺà¦¤": 3901,
      "à¦¾à¦Ĺà¦¡à¦¼": 3902,
      "Ġà¦ĩà¦¸": 3903,
      "Ġà¦Ńà¦¾à¦·": 3904,
      "Ġà¦«à§ĩà¦°": 3905,
      "Ġà¦«à¦°à§įà¦®": 3906,
      "à§ĩĠà¦ıà¦Ĺà¦¿à¦¯à¦¼": 3907,
      "Ġà¦īà¦¦à§įà¦¦à§ĩà¦¶à§įà¦¯": 3908,
      "à¦¿à¦°Ġà¦¤": 3909,
      "à¦¿à¦°Ġà¦¶": 3910,
      "à¦¿à¦°Ġà¦ī": 3911,
      "à§ĭà¦¨à¦ĵ": 3912,
      "Ġà¦¸à¦®à¦°à§įà¦¥": 3913,
      "Ġà¦¸à¦®à§įà¦Ń": 3914,
      "Ġà¦¸à¦®à¦¾à¦¬à§ĩà¦¶": 3915,
      "à¦¿à¦¸à§ĩà¦¬": 3916,
      "à¦¾Ġà¦¹à¦ĵà¦¯à¦¼": 3917,
      "à§ĩĠà¦¦à¦¿à¦¤": 3918,
      "à§ĩĠà¦ķà¦®": 3919,
      "à§ĩà¦°à¦£": 3920,
      "Ġà¦ĸà¦¾à¦ĵà¦¯à¦¼": 3921,
      "Ġà¦ĸà¦¾à¦¬à¦¾à¦°": 3922,
      "Ġà¦ĸà¦¾à¦°à¦¾à¦ª": 3923,
      "Ġà¦ĸà¦°à¦ļ": 3924,
      "à§ģà¦¨à¦¾à¦¨": 3925,
      "Ġà¦¹à¦¯à¦¼à§ĩà¦Ľà¦¿à¦²": 3926,
      "Ġà§¨à§¨": 3927,
      "Ġà§¨à§©": 3928,
      "Ġà§¨à§§": 3929,
      "à¦¦à§įà¦Ń": 3930,
      "à§ĩà¦°Ġà¦ªà¦¥": 3931,
      "à§ĩà¦°Ġà¦®à¦¹": 3932,
      "à§ĩà¦°Ġà¦®à§ĥà¦¤à§įà¦¯": 3933,
      "à¦¿à¦Łà¦¨": 3934,
      "à¦¿à¦Łà¦¿à¦¶": 3935,
      "à§ĩĠà¦¯à§ĩà¦¤": 3936,
      "à§ĩĠà¦®à¦¿à¦¥à§įà¦¯": 3937,
      "à§ĩà¦¤à§ģà¦®": 3938,
      "à§ĩà¦°Ġà¦¬à¦¿à¦Ńà¦¿à¦¨à§įà¦¨": 3939,
      "à§ĩà¦°Ġà¦ķà§įà¦·à§ĩà¦¤à§įà¦°": 3940,
      "à¦¾à¦ģà¦¡à¦¼à¦¿à¦¯à¦¼": 3941,
      "Ġà¦Łà¦¿à¦¨": 3942,
      "à§ģà¦°Ġà¦¸": 3943,
      "à§ģà¦°Ġà¦Ĩ": 3944,
      "à¦ķà¦¾à¦°à§Ģà¦¦": 3945,
      "à¥¤Ġà¦ıà¦Ľà¦¾à¦¡à¦¼": 3946,
      "à¦¾Ġà¦¸à¦®à¦¯à¦¼": 3947,
      "à§ĩĠà¦Ĺà§ĩà¦Ľà§ĩà¦¨": 3948,
      "Ġà¦¸à¦Ĥà¦ĸà§įà¦¯": 3949,
      "à¦¬à¦¾à¦°à§įà¦¤": 3950,
      "à¦¡à§įà¦°": 3951,
      "à§«à§¨": 3952,
      "à§«à§«": 3953,
      "Ġà¦¬à¦²à§ĩà¦Ľà§ĩà¦¨": 3954,
      "à¦¨à§įà¦¦à§ģà¦ķ": 3955,
      "à¦¿à¦ªà§ģà¦°": 3956,
      "à¦¿à¦ªà¦¤à§įà¦°": 3957,
      "à§Ģà¦°Ġà¦¦": 3958,
      "à§ĩà¦¦à¦¿à¦¨": 3959,
      "Ġà¦¥à§ĩà¦ķà§ĩà¦ĩ": 3960,
      "Ġà¦¥à§ĩà¦ķà§ĩĠà¦ıà¦ķ": 3961,
      "à§ĩĠà¦ľà¦®": 3962,
      "à§ĩĠà¦ľà¦¯à¦¼": 3963,
      "à¦¾Ġà¦¨à§ĩà¦ĩ": 3964,
      "à¦¾Ġà¦¨à§ĩà¦¯à¦¼": 3965,
      "à¦¾Ġà¦¨à¦¿à¦°à§įà¦¬à¦¾à¦ļà¦¨": 3966,
      "Ġà¦ªà¦°à¦¿à¦ķà¦²à§įà¦ª": 3967,
      "à¦¨à¦¿à¦°à§įà¦¬à¦¾à¦ļà¦¨": 3968,
      "à¦¿à¦·à§įà¦Łà§įà¦°": 3969,
      "à§ĩà¦°Ġà¦ľà§Ģà¦¬à¦¨": 3970,
      "à§įà¦¯à¦¾à¦¨à§ĩà¦²": 3971,
      "à¦¾Ġà¦¦à¦¾à¦¯à¦¼": 3972,
      "à¦§à§įà¦¯à¦¾à¦ªà¦ķ": 3973,
      "à¦¤à§įà¦¯à¦¾à¦Ĺ": 3974,
      "à§ĩĠà¦ıà¦ķà¦Ł": 3975,
      "à§ģà¦·à§įà¦ł": 3976,
      "à§®à§®": 3977,
      "à¦¾à¦¨à§įà¦¤à§ĩĠà¦ħà¦¨": 3978,
      "Ġà¦¨à¦¿à¦¯à¦¼à¦®": 3979,
      "Ġà¦¨à¦¿à¦¯à¦¼à¦®à¦¿à¦¤": 3980,
      "à¦¾à¦°Ġà¦¸à§įà¦¬": 3981,
      "à¦¤à§įà¦¤à§įà¦¬": 3982,
      "Ġà¦īà¦ªà¦¸à§įà¦¥à¦¿à¦¤": 3983,
      "Ġà¦Ĩà¦²à§įà¦²à¦¾à¦¹": 3984,
      "à§¦à§¦à§©": 3985,
      "à§¦à§¦Ġà¦Łà¦¾à¦ķ": 3986,
      "à§ĭà¦ķà¦ľà¦¨": 3987,
      "Ġà¦¦à§ģà¦ĥ": 3988,
      "Ġà¦¦à§ģà¦ľà¦¨": 3989,
      "Ġà¦¦à§ģà¦ªà§ģà¦°": 3990,
      "Ġà¦ªà§įà¦°à¦¤à¦¿à¦¯à§ĭà¦Ĺ": 3991,
      "à§ĩĠà¦¶à§ģà¦§à§ģ": 3992,
      "à§įà¦¯à¦¾à¦²à¦Ł": 3993,
      "à§įà¦¯à¦¾à¦²Ġà¦¸à¦¾à¦°à§įà¦Ńà§ĩà¦¯à¦¼à¦¾à¦°": 3994,
      "à¦¾à¦¥à¦®à¦¿à¦ķ": 3995,
      "à§¬à§¦": 3996,
      "à§¬Ġà¦®à§ĭà¦¬à¦¾à¦ĩà¦²à¦ĥĠà§¦à§§à§Ń": 3997,
      "à¦¾Ġà¦ħà¦«à¦¿à¦¸": 3998,
      "à¦¿à¦īà¦¡": 3999,
      "Ġà§©à§§": 4000,
      "à¦¬à§įà¦¯à¦¾à¦¹à¦¤": 4001,
      "à§ģà¦°à§ģà¦¤": 4002,
      "Ġà¦¸à¦®à§įà¦ªà§Ĥà¦°à§įà¦£": 4003,
      "à¦¨à§įà¦¤à§įà¦°à¦¾à¦¸à§Ģ": 4004,
      "Ġà¦Ĩà¦¸à¦¾à¦®à§Ģ": 4005,
      "à¦ģà¦ļ": 4006,
      "à¦ķà§įà¦°à¦¿à¦¯à¦¼": 4007,
      "à¦¾Ġà¦°à¦¾à¦ĸ": 4008,
      "Ġà¦¥à¦¾à¦ķà¦¬": 4009,
      "à¦¸à¦¬à¦¾à¦¸": 4010,
      "à¦¿à¦Ĺà§įà¦°": 4011,
      "à¦Ĺà¦ŀà§įà¦ľĠà¦īà¦ªà¦ľà§ĩà¦²": 4012,
      "Ġà¦®à§ģà¦¸": 4013,
      "Ġà¦®à§ģà¦¸à¦²à¦¿à¦®": 4014,
      "Ġà¦Ĩà¦¬à¦¦": 4015,
      "à§ĩà¦°Ġà¦ļà§ĩà¦¯à¦¼à¦¾à¦°à¦®à§įà¦¯à¦¾à¦¨": 4016,
      "Ġà¦®à¦¨à§ĭà¦¨à¦¯à¦¼à¦¨": 4017,
      "à¦¿à¦ļà¦¾à¦°": 4018,
      "à§ĭà¦ļà§įà¦ļ": 4019,
      "à¦ĵà¦¯à¦¼à¦¾à¦®à§Ģà¦²à§Ģà¦Ĺ": 4020,
      "à§ĭà¦·à§įà¦ł": 4021,
      "Ġà¦¸à§ģà¦¯à§ĭà¦Ĺ": 4022,
      "Ġà¦¸à§ģà¦¨à§įà¦¦à¦°": 4023,
      "Ġà¦ıà¦²à¦¾à¦ķà¦¾,": 4024,
      "à¦¾à¦ĩà¦¨à¦¾à¦²": 4025,
      "Ġà¦ļà¦²à¦¾à¦ļà¦²": 4026,
      "Ġà¦ħà¦§à¦¿à¦ķ": 4027,
      "Ġà¦°à¦¾à¦ľà¦§à¦¾à¦¨": 4028,
      "Ġ2018-0": 4029,
      "Ġà¦¤à¦¾à¦¦à§ĩà¦°Ġà¦¸": 4030,
      "à¦¿à¦°Ġà¦¸à¦Ļà§įà¦Ĺ": 4031,
      "à¦¾Ġà¦īà¦ļà¦¿à¦¤": 4032,
      "à¦¾à¦¡à§ĩà¦®": 4033,
      "-à¦ıà¦°Ġà¦®": 4034,
      "ĠtoĠ": 4035,
      "Ġà¦¨à¦¯à¦¼à¥¤": 4036,
      "à§ĩĠà¦§à¦°à§įà¦·à¦£": 4037,
      "à§ĩà¦¨à§įà¦¦à§įà¦°à§Ģà¦¯à¦¼": 4038,
      "Ġà¦¬à¦¾à¦¡à¦¼à¦¾à¦¨à§ĭ": 4039,
      "Ġà¦¸à¦¾à¦®à§įà¦°à¦¾à¦ľ": 4040,
      "Ġ11": 4041,
      "à¦¾Ġà¦Ńà¦¾à¦²à§ĭ": 4042,
      "à§įà¦¤à§ĥà¦ªà¦ķà§įà¦·": 4043,
      "Ġà¦ıà¦¸.à¦ıà¦®": 4044,
      "Ġà¦Łà§įà¦°à¦«": 4045,
      "âĢ¦âĢ¦": 4046,
      "Ġà¦ªà§įà¦°à¦¶à¦¿à¦ķà§įà¦·": 4047,
      "à§ĥà¦·à¦¿": 4048,
      "à¦°à¦¿à¦¬à¦¹à¦¨": 4049,
      "à§ĩĠà§§à§«": 4050,
      "à§ĩĠà§§à§®": 4051,
      "Ġà¦¨à§ĩà¦ĩà¥¤": 4052,
      "à¦°à§įà¦¨à§Ģà¦¤": 4053,
      "Ġà¦ĺà¦Łà¦¨à¦¾Ġà¦ĺà¦Ł": 4054,
      "Ġà¦¶à§ĩà¦ĸĠà¦®à§ģà¦ľà¦¿à¦¬": 4055,
      "à§ģà¦ģà¦¡à¦¼": 4056,
      "à¦¬à¦¾à¦¸à§Ģ": 4057,
      "Ġà¦®à¦¾à¦¹à¦¬à§ģà¦¬": 4058,
      "à§ĩĠà¦Ĩà¦¬à§ĩà¦¦à¦¨": 4059,
      "Ġà¦¬à¦¿à¦¸à§įà¦«à§ĭà¦°": 4060,
      "Ġà¦ľà¦¾à¦¨à§ģà¦¯à¦¼à¦¾à¦°à¦¿": 4061,
      "Ġà¦¦à§įà¦¬à¦¾à¦°": 4062,
      "Ġà¦¦à§įà¦¬à¦¿à¦¤à§Ģà¦¯à¦¼": 4063,
      "à¦¿à¦¶à§įà¦ļà¦¯à¦¼": 4064,
      "Ġà¦¶à¦¿à¦¶à§ģ": 4065,
      "à¦¿à¦ľà§įà¦ŀà¦¤": 4066,
      "à¦¸à§Ĥà¦¤à§įà¦°": 4067,
      "à¦¾Ġà¦Ĩà¦®à¦¾à¦¦": 4068,
      "à¦¿à¦°Ġà¦¨à¦¾à¦®": 4069,
      "à¦«à¦¿à¦ķà§ģà¦²Ġà¦ĩà¦¸à¦²à¦¾à¦®": 4070,
      "à¦Ĩà¦ĩ-à¦Ń": 4071,
      "Ġà§¨à§¦à§§à§ŃĠ(": 4072,
      "Ġà¦¬à¦¿à¦ľà§įà¦ŀà¦¾à¦¨": 4073,
      "@dos.gov.bdĠà¦ķà§įà¦¯à¦¾à¦ªà§įà¦Łà§ĩà¦¨": 4074,
      "Ġà¦¦à¦¿à¦¤à§ĩĠà¦ªà¦¾à¦°": 4075,
      "à§ĩĠà¦Ĩà¦°à¦ĵ": 4076,
      "Ġà¦®à§ĭà¦ĥĠà¦Ĺà¦¿à¦¯à¦¼à¦¾à¦¸": 4077,
      "tion": 4078,
      "Ġà¦ªà¦°à¦¿à¦ļà¦¾à¦²à¦¨à¦¾Ġà¦ķà¦°": 4079,
      "à§įà¦¯à¦¤à¦¾Ġà¦¸à¦¨à¦¦": 4080,
      "à§«à§¦à§®à§¬": 4081,
      "à¦ªà§įà¦²à§ĩà¦ķà§įà¦¸": 4082,
      "Ġà¦ľà¦Ļà§įà¦Ĺà¦¿à¦¬": 4083,
      "Ġà¦ªà§įà¦°à¦¸à§įà¦¤à§ģà¦¤à¦¿": 4084,
      "Ġà¦¬à§įà¦¯à¦¬à¦¸à§įà¦¥à¦¾à¦ªà¦¨": 4085,
      "Ġà¦¸à¦Ĥà¦¶à§įà¦²à¦¿à¦·à§įà¦Ł": 4086,
      "Ġà¦ªà§įà¦°à¦¤à¦¿à¦¬à§ĩà¦¦à¦¨": 4087,
      "Ġà¦ªà§Įà¦°à¦¸": 4088,
      "Ġà¦ªà§Įà¦ģà¦Ľ": 4089,
      "ide": 4090,
      "à§Ģà¦ķà¦¾à¦°à§ĭà¦ķà§įà¦¤": 4091,
      "***Ġ2018-0": 4092,
      "à¦¾à¦ĩà¦¡à¦¾à¦°": 4093,
      "à¦¬à¦¾à¦°Ġà¦¸à¦ķà¦¾à¦²": 4094,
      "à§ĩà¦°Ġà¦®à¦¨à§ĭà¦¨à¦¯à¦¼à¦¨": 4095,
      "à§ĩà¦°Ġà¦ĺà¦Łà¦¨à¦¾à¦¯à¦¼": 4096,
      "à¦Ĺà¦¾à¦ģà¦ĵ": 4097,
      "à¦¾à¦ķà§įà¦¤à¦¾à¦°": 4098,
      "Ġà¦Ńà§Ĥà¦®à¦¿à¦ķ": 4099,
      "à¦¿à¦¸à§įà¦Łà§įà¦°à§ĩà¦¶à¦¨": 4100,
      "à¦¤à¦¿à¦¨à¦¿Ġà¦¬à¦²à§ĩà¦¨,": 4101,
      "à¦Łà¦¿à¦ķà§įà¦¯à¦¾à¦²Ġà¦¸à¦¾à¦°à§įà¦Ńà§ĩà¦¯à¦¼à¦¾à¦°": 4102,
      "à§ĩà¦°Ġà¦¬à¦¿à¦·à¦¯à¦¼à¦Łà¦¿": 4103,
      "Ġà¦¬à§įà¦¯à¦¬à¦¸à¦¾à¦¯à¦¼à§Ģ": 4104,
      "Ġà¦«à§ĭà¦¨à¦ĥĠà§¯à§«à§«à§ªà§¨à§¦": 4105,
      ")Ġà¦«à§ĩà¦¬à§įà¦°à§ģà¦¯à¦¼à¦¾à¦°à¦¿": 4106,
      ")Ġà¦«à§ĩà¦¬à§įà¦°à§ģà¦¯à¦¼à¦¾à¦°à§Ģ": 4107,
      "Ġà¦ªà¦°à¦¿à¦ļà¦¿à¦¤": 4108,
      "à§¯à§¯à§¦à§¦à§©": 4109,
      "Ġà¦¯à§ģà¦ķà§įà¦¤à¦°à¦¾à¦·à§įà¦Łà§įà¦°": 4110,
      "Ġà¦ķà¦®à¦¿à¦Łà¦¿à¦°Ġà¦¸": 4111,
      "à¦¾Ġà¦ļà¦²à¦Ľ": 4112,
      "Ġà¦ıà¦¨à§įà¦¡Ġà¦ıà¦ķà§įà¦¸à¦¾à¦®à¦¿à¦¨à¦¾à¦°Ġà¦«à§ĭà¦¨à¦ĥĠà§¯à§«à§«à§ªà§¨à§¦": 4113,
      "à§ĩĠà¦Ĩà¦Ĺà§ģà¦¨": 4114,
      "à¦¾à¦īà¦¨à¦²à§ĭà¦¡": 4115,
      "à§ĥà¦¦à¦¯à¦¼": 4116,
      "Ġà¦¤à¦²à¦¾)": 4117,
      "Ġà¦ĩà¦Ľà¦²à¦¾à¦®à§Ģ": 4118,
      "Ġà¦Ńà§ĩà¦Ļ": 4119,
      "à¦ļà¦Łà§įà¦°à¦Ĺà§įà¦°à¦¾à¦®Ġà¦¬à¦¿à¦Ńà¦¾à¦Ĺà¦°à¦¾à¦ľà¦¶à¦¾à¦¹à§ĢĠà¦¬à¦¿à¦Ńà¦¾à¦Ĺà¦ĸà§ģà¦²à¦¨à¦¾Ġà¦¬à¦¿à¦Ńà¦¾à¦Ĺà¦®à¦¯à¦¼à¦®à¦¨à¦¸à¦¿à¦Ĥà¦¹Ġà¦¬à¦¿à¦Ńà¦¾à¦Ĺà¦°à¦Ĥà¦ªà§ģà¦°Ġà¦¬à¦¿à¦Ńà¦¾à¦Ĺà¦¬à¦°à¦¿à¦¶à¦¾à¦²Ġà¦¬à¦¿à¦Ńà¦¾à¦Ĺ": 4120,
      "à§įà¦¯à¦¾à¦®à§įà¦ªà¦¿à¦¯à¦¼à¦¨à§įà¦¸": 4121,
      "à§Ģà¦®à¦¾à¦¨à§įà¦¤": 4122,
      "à§ĩà¦¨à¦¦à§ĩà¦¨": 4123,
      "à¦ļ-à¦Ĩà¦ĩ-à¦Ń": 4124,
      "à§§à§¬à§¦à§¯à§¯à§¦à§¦à§©": 4125,
      "nse@dos.gov.bdĊ": 4126,
      "à§ĩà¦¤à§ģà¦®à¦¨à§įà¦¤à§įà¦°à§Ģ": 4127,
      "à§ģà¦·à§įà¦łà§ģ": 4128,
      "à§¬Ġà¦®à§ĭà¦¬à¦¾à¦ĩà¦²à¦ĥĠà§¦à§§à§Ńà§§à§¬à§¦à§¯à§¯à§¦à§¦à§©": 4129,
      "Ġà¦®à§ĭà¦ĥĠà¦Ĺà¦¿à¦¯à¦¼à¦¾à¦¸Ġà¦īà¦¦à§įà¦¦à¦¿à¦¨": 4130,
      "Ġà¦ıà¦¨à§įà¦¡Ġà¦ıà¦ķà§įà¦¸à¦¾à¦®à¦¿à¦¨à¦¾à¦°Ġà¦«à§ĭà¦¨à¦ĥĠà§¯à§«à§«à§ªà§¨à§¦à§¬Ġà¦®à§ĭà¦¬à¦¾à¦ĩà¦²à¦ĥĠà§¦à§§à§Ńà§§à§¬à§¦à§¯à§¯à§¦à§¦à§©": 4131,
      ")Ġà¦°": 4132,
      ",Ġà¦¡": 4133,
      "-à¦ķ": 4134,
      ".Ġà¦¨à¦¾à¦ľà¦®": 4135,
      "/à¦ªà§įà¦°": 4136,
      "41": 4137,
      "76": 4138,
      "78": 4139,
      "Bangl": 4140,
      "OR": 4141,
      "You": 4142,
      "ain": 4143,
      "fer": 4144,
      "lin": 4145,
      "nlo": 4146,
      "pl": 4147,
      "tar": 4148,
      "us": 4149,
      "¢à¦¼": 4150,
      "Ġ!": 4151,
      "Ġ#": 4152,
      "Ġ*": 4153,
      "ĠN": 4154,
      "ĠW": 4155,
      "ĺà¦¨": 4156,
      "Łà¦¾à¦ķ": 4157,
      "à¦¾Ġà§¨": 4158,
      "à¦¾Ġà§Ń": 4159,
      "à§ĩ)": 4160,
      "à§ĩĠà§¯": 4161,
      "à¦¿Ġà¦¹à¦²": 4162,
      "à¦°à¦¾à¦¯à¦¼": 4163,
      "à¦°à¦¾Ġà¦¯": 4164,
      "à¦°à¦¾à¦¦à§įà¦¦": 4165,
      "à¦¿à¦ĺ": 4166,
      "à¦°Ġà¦²": 4167,
      "à¦¾à¦°à¦¿à¦¦à§įà¦°": 4168,
      "à§ģà§İ": 4169,
      "à¦ķà§ĩĠà¦ª": 4170,
      "à¦²à§ĭ": 4171,
      "à§ĭà¦¥": 4172,
      "à§ĭà¦°Ġà¦ª": 4173,
      "à§ĭà¦°Ġà¦¸": 4174,
      "à¦¬à§įà¦°": 4175,
      "à¦¬à¦¿à¦¤": 4176,
      "à¦¬à§ĥ": 4177,
      "à¦¬à¦¿à¦·": 4178,
      "à¦¬à¦¿à¦¤à§įà¦°": 4179,
      "à¦¬à¦¾à¦¹à§Ģ": 4180,
      "à¦¬à§ĩĠà¦¨à¦¾à¥¤": 4181,
      "à¦®à§ģà¦ķà§įà¦¤": 4182,
      "à§įà¦°à¦¿à¦¨": 4183,
      "à¥¤Ġà¦Ĺà¦¤": 4184,
      "Ġà¦ķà¦¤": 4185,
      "Ġà¦ķà¦¾à¦ī": 4186,
      "Ġà¦ķà¦¾à¦®à¦¾à¦²": 4187,
      "Ġà¦ķà§ĭà¦®à§įà¦ªà¦¾à¦¨à¦¿": 4188,
      "à§Ģà¦¡à¦¼": 4189,
      "à§Ģà¦°à§įà¦£": 4190,
      "à§Ģà¦ªà§ģà¦°": 4191,
      "à¦¯à¦¼à§ĩà¦¬": 4192,
      "Ġà¦¸à¦¤à§įà¦¯": 4193,
      "à¦¾à¦¨Ġà¦ķà¦°": 4194,
      "à¦¾à¦¨à¦¿à¦ķ": 4195,
      "Ġà¦¬à¦ĩ": 4196,
      "Ġà¦¬à§ĩà¦²": 4197,
      "Ġà¦¬à§ĭà¦²": 4198,
      "Ġà¦¬à§ģà¦¦à§įà¦§": 4199,
      "Ġà¦¬à§ĩà¦ģ": 4200,
      "Ġà¦¬à§ĩà¦Ĺà¦®": 4201,
      "Ġà¦ªà¦¾à¦ĸ": 4202,
      "Ġà¦ªà¦¾à¦ģà¦ļ": 4203,
      "Ġà¦ªà§ĭà¦¶à¦¾à¦ķ": 4204,
      "à¦¦à¦¾à¦¤": 4205,
      "à¦¦à§ĩà¦°Ġà¦¸": 4206,
      "à¦¦à§ĩà¦°Ġà¦¬": 4207,
      "à¦¦à§ĩà¦°Ġà¦¦": 4208,
      "à¦ªà¦¦": 4209,
      "Ġà¦®à§ĩà¦Ĺ": 4210,
      "Ġà¦®à¦¾à¦¶à¦°à¦¾à¦«": 4211,
      "à§ĩà¦¨à¦¨à¦¿": 4212,
      "à§ĩà¦¨Ġ/": 4213,
      "Ġà¦¨à¦¾à¦°": 4214,
      "Ġà¦¨à¦¾Ġà¦ķ": 4215,
      "Ġà¦¨à¦Łà¦¿à¦ķà§įà¦¯à¦¾à¦²Ġà¦¸à¦¾à¦°à§įà¦Ńà§ĩà¦¯à¦¼à¦¾à¦°": 4216,
      "Ġà¦¦à¦¾à¦¸": 4217,
      "Ġà¦¦à§Ĥ": 4218,
      "Ġà¦¦à¦¾à¦¶": 4219,
      "Ġà¦¦à§ĩà¦¨à¥¤": 4220,
      "Ġà¦¦à§ĩà¦¹": 4221,
      "Ġà¦¦à¦ķà§įà¦·à¦¿à¦£": 4222,
      "Ġà¦¦à§Īà¦¨à¦¿à¦ķ": 4223,
      "à¦¾à¦²à§įà¦Ł": 4224,
      "à¦Ĺà¦¾à¦¨": 4225,
      "à¦Ĺà¦¿à¦¤": 4226,
      "Ġà¦ķà¦°à¦¾": 4227,
      "Ġà¦ķà¦°à§ĩĠà¦Ĩ": 4228,
      "Ġà¦ķà¦°à§ĩà¦¨à¥¤Ċ": 4229,
      "Ġà¦ķà¦°à¦²à§ĩà¦¨": 4230,
      "Ġà§·": 4231,
      "Ġà¦¹à§ĩà¦°": 4232,
      "Ġà¦¹à¦¾à¦ĩà¦ķà§ĭà¦°à§įà¦Ł": 4233,
      "à¦¿à¦ķà§ĩà¦¶à¦¨": 4234,
      "à¦¾à¦¯à¦¼à¦¾à¦¤": 4235,
      "à¦¾à¦ķà§įà¦ķ": 4236,
      "à¦¾à¦ķà§ĥà¦¤à¦¿à¦ķ": 4237,
      "à¦¿à¦¤à¥¤Ċ": 4238,
      "à¦¿à¦¤à¦¾-": 4239,
      "Ġà¦¤à¦¦à¦¨à§įà¦¤": 4240,
      "Ġà¦¤à¦°à§ģà¦£": 4241,
      "Ġà¦¤à§ģà¦®à¦¿": 4242,
      "à¦ĩà¦²": 4243,
      "à¦ĩà¦ī": 4244,
      "à¦ľà§Ģà¦¬à¦¨": 4245,
      "Ġà¦ľà§ĭà¦¨": 4246,
      "Ġà¦ľà¦¾à¦®à¦¾à¦²": 4247,
      "Ġà¦ħà§įà¦¯à¦¾à¦²": 4248,
      "Ġà¦ħà¦²à§įà¦ª": 4249,
      "Ġà¦ħà§įà¦¯à¦¾à¦¡": 4250,
      "Ġà¦ħà¦¤à¦¿à¦°à¦¿à¦ķà§įà¦¤": 4251,
      "à§ĩà¥¤Ġà¦¸": 4252,
      "à¦¾à¦ĩà¦Ńà¦¾à¦°": 4253,
      "à¦¾à¦¬à¦°à§įà¦·": 4254,
      "à¦¾à¦¦à¦¾à¦¨": 4255,
      "à§ģà¦²à¦¿à¦¯à¦¼": 4256,
      "Ġà¦°à¦ªà§įà¦¤": 4257,
      "Ġà¦°à¦ķà¦®": 4258,
      "à¦¶à¦¤": 4259,
      "à¦¶à¦¾à¦²": 4260,
      "à¦¶à§įà¦¬à¦°": 4261,
      "à¦¶à§Ģà¦¦": 4262,
      "à¦¶à¦Ĥà¦¸": 4263,
      "Ġà¦ªà§įà¦°à¦ķ": 4264,
      "à¦Ńà§Ĥ": 4265,
      "à¦Ńà¦¿à¦¯à¦¾à¦¨": 4266,
      "à§įà¦·à¦¿à¦ķ": 4267,
      "à¦§à§ģà¦¨à¦¿à¦ķ": 4268,
      "Ġà¦¶à¦¿à¦¬": 4269,
      "à¦ļà§ģà¦°": 4270,
      "à¦ļà¦¾à¦°à¦¿à¦¤": 4271,
      "à¦ļà§ĩà¦·à§įà¦Ł": 4272,
      "à¦¾à¦ľà§įà¦ľ": 4273,
      "à§ĩĠà¦Ĩà¦Łà¦ķ": 4274,
      "Ġà¦¬à¦¿à¦Ĺ": 4275,
      "à§ĩĠà¦¸à§įà¦ª": 4276,
      "à§ĩĠà¦¸à¦¨à¦¦": 4277,
      "à§ĩĠà¦¸à¦¾à¦¹à¦¾à¦¯à§įà¦¯": 4278,
      "Ġà¦Ĺà¦Ļà§įà¦Ĺ": 4279,
      "Ġà¦Ĺà§ĩà¦®": 4280,
      "Ġà¦Ĺà¦°à¦®": 4281,
      "Ġà¦Ĺà§ģà¦°à§ģà¦¤à§įà¦¬à¦ªà§Ĥà¦°à§įà¦£": 4282,
      "à¦Ľà§ĩ,": 4283,
      "à¦Ľà§ĩà¦¨,": 4284,
      "à¦¾à¦ªà¦¦": 4285,
      "à§Ĥà¦¡à¦¼": 4286,
      "à§Ĥà¦¨à§įà¦¯": 4287,
      "Ġà¦ļà§ĩà¦¯à¦¼à¦¾à¦°à¦®à§įà¦¯à¦¾à¦¨": 4288,
      "à¦¾à¦Ĺà§ģà¦°": 4289,
      "à¦¾à¦Ĺà¦¾à¦Ľ": 4290,
      "à¦°à¦¿à¦«": 4291,
      "Ġà¦ĩà¦¹": 4292,
      "Ġà¦Ńà¦ķà§įà¦¤": 4293,
      "Ġà¦Ńà¦¿à¦¨à§įà¦¨": 4294,
      "Ġà¦Ńà¦¾à¦°à§įà¦ľ": 4295,
      "à§ģà¦°à¦¿à¦ķ": 4296,
      "Ġà¦«à¦¾à¦°": 4297,
      "à¦¿à¦°Ġà¦ĸ": 4298,
      "à¦¿à¦°Ġà¦ľ": 4299,
      "à§ĭà¦¨à¦®": 4300,
      "à§ĩĠà¦¨à§ĩà¦¯à¦¼": 4301,
      "Ġà¦¸à¦®à§įà¦Ńà¦¬": 4302,
      "Ġà¦²à¦¾à¦²": 4303,
      "à¦¾à¦°à§įà¦¨": 4304,
      "à¦¾à¦°à§įà¦®à¦¾à¦¨": 4305,
      "à§ĩĠà¦¦à¦¾à¦¬": 4306,
      "à¦¿à¦°à¦¾à¦ĩà¦Ł": 4307,
      "à§ĩĠà¦ķà¦¿": 4308,
      "à§ĩĠà¦ķà¦¾à¦°": 4309,
      "à§ĩĠà¦ķà§Ģ": 4310,
      "à§ĩĠà¦ķà¦¯à¦¼à§ĩà¦ķ": 4311,
      "à¦¾Ġà¦ķà¦®": 4312,
      "à¦¨à§įà¦¯à¦¾à¦¶": 4313,
      "à¦¨à§įà¦¯à¦¬à¦¾à¦¦": 4314,
      "à¦¨à§įà¦¤à§ĭà¦·": 4315,
      "à§ĩà¦°à¦ĩ": 4316,
      "à§ĩà¦°Ġà§§": 4317,
      "Ġà¦ĸà¦¾à¦¤": 4318,
      "Ġà¦ĸà§ģà¦²à¦¨": 4319,
      "Ġà¦ĸà¦¨à¦¿à¦ľ": 4320,
      "à¦¿à¦¬à¦¿à¦ıà¦ķà§įà¦¸": 4321,
      "à¦¦à§įà¦®": 4322,
      "à§ģà¦ķà¦°à§ĭ": 4323,
      "à§įà¦²à¦¾à¦¶": 4324,
      "à§ĩĠà¦¹à¦¾à¦ľ": 4325,
      "à¦Ĩà¦ľ": 4326,
      "à¦¿à¦Łà¦¿Ġà¦ķà¦°à¦ªà§ĭà¦°à§ĩà¦¶à¦¨": 4327,
      "à§ĩĠà¦¤à§ĭà¦®": 4328,
      "à§ĩĠà¦®à¦¯à¦¼à¦¨": 4329,
      "à§ĩà¦¤à¦°": 4330,
      "à¦ıà¦°Ġà¦Ĩà¦Ĺ": 4331,
      "à§ĩà¦°Ġà¦ķà¦¾à¦ľ": 4332,
      "à§ĩà¦°Ġà¦ķà§ĭà¦¨": 4333,
      "à¦¾Ġà¦ªà§ģà¦°": 4334,
      "à¦¾Ġà¦ªà§ģà¦²à¦¿à¦¶": 4335,
      "à¦¾Ġà¦ªà¦¾à¦ĵà¦¯à¦¼": 4336,
      "Ġà¦Łà§įà¦°à¦¾à¦®à§įà¦ª": 4337,
      "Ġà¦Łà§ĩà¦ķà¦¨à¦¾à¦«": 4338,
      "à¦¿à¦®à§Ĥà¦²à¦ķ": 4339,
      "à§ģà¦°Ġà¦ľà¦¨à§įà¦¯": 4340,
      "à¦¾à¦§à§ģà¦¨à¦¿à¦ķ": 4341,
      "à§¨à§¨": 4342,
      "à§¨Ġà¦ĩ-à¦®à§ĩà¦ĩà¦²à¦ĥĠ": 4343,
      "à¦¯à¦¾à¦¤à§įà¦°": 4344,
      "à§ĩà¦¬à¦¾à¦°": 4345,
      "Ġà¦¡à¦¾à¦¯à¦¼": 4346,
      "Ġà¦¡à¦ĥ": 4347,
      "à§ĩĠà¦Ĺà¦¾à¦¨": 4348,
      "à§ĩĠà¦Ĺà§ĭà¦²": 4349,
      "à§«à§Ń": 4350,
      "à§«à§¬": 4351,
      "à§«Ġà¦¦à¦¿à¦¨": 4352,
      "à§ĩĠà¦ħà¦°à§įà¦¥": 4353,
      "à§ĩĠà¦ħà¦¨à§ģ": 4354,
      "à¦¿à¦ªà§Ĥà¦°à§įà¦£": 4355,
      "à§Ģà¦°Ġà¦ļ": 4356,
      "à§ģà¦®à§įà¦¬": 4357,
      "Ġà¦¥à§ĩà¦ķà§ĩĠà¦¸": 4358,
      "à¦¾Ġà¦¹à¦¯à¦¼à§ĩà¦Ľ": 4359,
      "à§ĩĠà¦ľà¦¨": 4360,
      "à§ĩĠà¦ľà¦¡à¦¼à¦¿à¦¤": 4361,
      "Ġà¦ħà¦¨à§ģà¦®à§ĭà¦¦à¦¨": 4362,
      "à¦¨à¦¿à¥¤Ċ": 4363,
      "à¦¿à¦·à¦¿à¦¦à§įà¦§": 4364,
      "Ġ2013": 4365,
      "à§ĩĠà¦ļà¦¾à¦²": 4366,
      "Ġà¦ķà¦°à¦¤à§ĩĠà¦¹à¦¯à¦¼": 4367,
      "Ġà¦¨à¦¿à¦°à§įà¦¬à¦¾à¦ļà¦¿à¦¤": 4368,
      "à§ĩĠà¦ªà§įà¦°à¦¤à§įà¦¯": 4369,
      "à§ĩĠà¦ªà§įà¦°à¦¥à¦®": 4370,
      "à§ĩĠà¦ªà§įà¦°à¦¤à¦¿à¦¬": 4371,
      "à¦¾Ġà¦¦à¦¿à¦²": 4372,
      "à¦¾Ġà¦Ĩà¦ĵà¦¯à¦¼à¦¾à¦®à§ĢĠà¦²à§Ģà¦Ĺ": 4373,
      "à¦ªà§įà¦°à¦¤": 4374,
      "à§®à§¯": 4375,
      "à§ĩà¦°Ġà¦¦à¦¿à¦¨": 4376,
      "à§ĩà¦°Ġà¦¦à§ĩà¦¶": 4377,
      "à§ªà§¯à§©": 4378,
      "à¦¾à¦Ľà¦¾à¦¡à¦¼": 4379,
      "à¦¾à¦¨à§įà¦¤à§įà¦°à¦¿à¦ķ": 4380,
      "Ġà¦¨à¦¿à¦¯à¦¼à§ĭà¦Ĺ": 4381,
      "Ġà¦Ĩà¦²à¦¹à¦¾à¦ľ": 4382,
      "Ġà¦ľà¦¨à¦ªà§įà¦°à¦¿à¦¯à¦¼": 4383,
      "Ġà¦ĺà¦¨à§įà¦Łà¦¾à¦°": 4384,
      "à§ŃĠà¦®à§ĭà¦¬à¦¾à¦ĩà¦²à¦ĥ": 4385,
      "à§įà¦ķà§ģà¦²": 4386,
      "à¦¾à¦«Ġà¦°à¦¿à¦ªà§ĭà¦°à§įà¦Łà¦¾à¦°": 4387,
      "à§§)": 4388,
      "à§ĩĠà¦īà¦¤à§įà¦¤": 4389,
      "à§ĩĠà¦īà¦¦à§įà¦¬": 4390,
      "à§ĩĠà¦īà¦ªà¦ľà§ĩà¦²": 4391,
      "à¦°Ġà¦ªà¦°": 4392,
      "à¦®à¦¨à§įà¦¬à¦¯à¦¼": 4393,
      "Ġ:Ġà§®à§ªà§©": 4394,
      "à¦¿à¦ıà¦«": 4395,
      "à¦¾Ġà¦ıà¦ĸà¦¨": 4396,
      "Ġà¦Ĩà¦°Ġà¦¸": 4397,
      "Ġà¦Ĩà¦Ĺà§įà¦°à¦¹": 4398,
      "à¦®à§įà¦ªà¦¦": 4399,
      "à¦ªà§ģà¦°Ġà¦¸": 4400,
      "à¦ªà§ģà¦°Ġà¦ī": 4401,
      "Ġà¦®à¦¾à¦¨à¦¿à¦ķ": 4402,
      "à¦¾à¦īà¦²": 4403,
      "Ġà¦Ľà¦¿à¦²à§ĭ": 4404,
      "Ġà¦Ľà¦¿à¦²à¥¤": 4405,
      "à§ĭà¦¸à§įà¦Ł": 4406,
      "à¦¤à§ĩĠà¦ªà¦¾à¦°à¦¬à§ĩà¦¨": 4407,
      "à§ĩà¦Ľà¦¿à¦²à¦¾à¦®": 4408,
      "à§ĩà¦Ľà¦¿à¦²à§ĩà¦¨à¥¤": 4409,
      "à§ĩà¦°Ġà¦®à¦§à§įà¦¯à§ĩĠà¦¬": 4410,
      "à¦°Ġà¦¸à¦Ļà§įà¦Ĺ": 4411,
      "à¦¾Ġà¦Ĺà§įà¦°à¦¾à¦®": 4412,
      "à¦¾Ġà¦Ĺà§įà¦°à§ģà¦ª": 4413,
      "à§ĩà¦°Ġà¦īà¦¤à§įà¦¤": 4414,
      "à§ĩà¦°Ġà¦īà¦¦à§įà¦¦à§ĩà¦¶à§įà¦¯": 4415,
      "à¦¿à¦ķà§įà¦·à§ĩà¦ª": 4416,
      "à§ĩĠà¦«à§ĩà¦°": 4417,
      "Ġà¦¬à¦Ľà¦°Ġà¦§": 4418,
      "Ġà§¦à§©": 4419,
      "Ġà¦ĵà¦¯à¦¼à¦¾à¦¨à¦¡": 4420,
      "à¦ķà§įà¦°à§ĭ": 4421,
      "Ġà¦ķà¦°à§įà¦®à§Ģ": 4422,
      "Ġà¦¥à¦¾à¦ķà¦²à§ĩà¦ĵ": 4423,
      "Ġà¦ªà¦°à¦¿à¦¬à¦°à§įà¦¤à¦¨": 4424,
      "à¦¿à¦Ĺà¦Ĺà¦¿à¦°": 4425,
      "Ġà¦¦à§ĩà¦ĸà¦¾Ġà¦¯à¦¾à¦¯à¦¼": 4426,
      "à§ĩĠà¦ĸà¦¬": 4427,
      "Ġà¦®à§ģà¦Ľà¦²à¦¿à¦®": 4428,
      "Ġà¦Ĩà¦¬à§ģà¦²": 4429,
      "à§ĩà¦°Ġà¦ıà¦ķà¦ľà¦¨": 4430,
      "Ġà¦Ĩà¦ľà¦¿à¦ľ": 4431,
      "Ġà¦ķà¦¾à¦°à§ĭ": 4432,
      "Ġà¦Ľà¦¬à¦¿à¦Łà¦¿": 4433,
      "à§ĩĠà¦Ľà¦¯à¦¼": 4434,
      "à¦¾à¦°Ġà¦¬à¦¾à¦¹": 4435,
      "à§ģà¦§à§ģà¦®à¦¾à¦¤à§įà¦°": 4436,
      "Ġà¦®à¦¹à¦¾à¦¸à¦ļà¦¿à¦¬": 4437,
      "Ġà¦®à¦¹à¦¾à¦ªà¦°à¦¿à¦ļà¦¾à¦²à¦ķ": 4438,
      "Ġà¦¢à¦¾à¦ķà¦¾à¦¯à¦¼": 4439,
      "à§ĭà¦ļà¦¿à¦¤": 4440,
      "à§ĭà¦¯à¦¼à¦¾à¦¡à¦¼": 4441,
      "à§ĭà¦ªà¦¾à¦²à¦Ĺà¦ŀà§įà¦ľ": 4442,
      "Ġà¦¸à§įà¦¬à¦ªà§įà¦¨": 4443,
      "Ġà¦¬à¦¿à¦¶à§įà¦¬à¦¾à¦¸": 4444,
      "Ġà¦¬à¦¿à¦¶à§įà¦¬à¦ķà¦¾à¦ª": 4445,
      "à¦¤à¦¿à¦ķà§įà¦°à¦®": 4446,
      "Ġà¦ħà¦§à¦¿à¦ķà¦¾à¦°": 4447,
      "Ġà§Ńà§¦": 4448,
      "Ġà¦ľà§ĩà¦²à¦¾Ġà¦ªà§įà¦°à¦¤à¦¿à¦¨à¦¿à¦§à¦¿": 4449,
      "à§ĩà¦°Ġà¦¸à¦Ļà§įà¦Ĺà§ĩĠà¦¸": 4450,
      "Ġà¦ªà§įà¦°à¦ķà¦¾à¦¶à¦¿à¦¤": 4451,
      "Ġà¦ªà¦°à§Ģà¦ķà§įà¦·à¦¾à¦¯à¦¼": 4452,
      "esse": 4453,
      "à¦¯à¦¼à§ĭà¦ľ": 4454,
      "à¦¾Ġà¦Ľà¦¬à¦¿": 4455,
      "à§ĩà¦°Ġà¦°à¦¾à¦ľ": 4456,
      "à§ĩà¦°Ġà¦°à¦¾à¦·à§įà¦Łà§įà¦°": 4457,
      "à§ĩĠà¦®à¦¨à§ĩĠà¦¹à¦ļà§įà¦Ľ": 4458,
      "ovem": 4459,
      "à¦¿Ġà¦ķà¦²": 4460,
      "Ġà¦ķà¦°à§ĩà¦Ľà§ĩà¦¨à¥¤Ċ": 4461,
      "à¦¸à§įà¦¬à¦¤à§įà¦¬": 4462,
      "à¦¾Ġà¦ĸà§ģà¦¬": 4463,
      "à¦°à¦¿à¦ļà¦¾à¦²à¦¨": 4464,
      "Ġà¦ıà¦ĸà¦¨à¦ĵ": 4465,
      "à§ģà¦²Ġà¦¹à§ģà¦¦": 4466,
      "Ġà¦¨à¦¿à¦ľà§ĩà¦ķ": 4467,
      "Ġà¦¨à¦¿à¦ľà¦¸à§įà¦¬": 4468,
      "à¦¿à¦¯à¦¼à¦¾à¦¨à¦®à¦¾à¦°": 4469,
      "à¦¿à¦¯à¦¼à¦¾à¦¨Ġà¦«à§ĩà¦¡à¦¾à¦°à§ĩà¦¶à¦¨": 4470,
      "Ġà¦®à§ĭà¦¬à¦¾à¦ĩà¦²Ġà¦«à§ĭà¦¨": 4471,
      "à§ĥà¦·à§įà¦ł": 4472,
      "our": 4473,
      "à§ĩà¦°Ġà¦¯à§Įà¦¨à¦ķà¦°à§įà¦®": 4474,
      "Ġà¦ļà¦¾à¦²à¦¿à¦¯à¦¼": 4475,
      "à§ģà¦ģà¦ķ": 4476,
      "Ġà¦¸à¦®à§įà¦®à¦¾à¦¨": 4477,
      "à¦¿à¦īà¦ľà¦¿à¦ķ": 4478,
      "à§ĩĠà¦ķà§ĭà¦¨à¦ĵ": 4479,
      "à¦°Ġà¦¹à¦¾à¦¸à¦ªà¦¾à¦¤à¦¾à¦²": 4480,
      "Ġà¦¤à§Īà¦°à¦¿Ġà¦ķà¦°": 4481,
      "Ġà¦¤à§Īà¦°à¦¿Ġà¦ıà¦¬à¦Ĥ": 4482,
      "à§ĩĠà¦Ĩà¦²à¦«à¦¾Ġà¦¨à§ĩà¦Ł": 4483,
      "à§ĩĠà¦ķà¦¾à¦ľĠà¦ķà¦°": 4484,
      "Ġà¦¶à¦¿à¦¶à§ģà¦ķ": 4485,
      "Ġà¦¯à§Įà¦¨à¦ķà¦°à§įà¦®à§Ģ": 4486,
      "à§ĩĠà¦¨à¦¿à¦ľà§ĩà¦¦": 4487,
      "Ġà¦«à§ĭà¦¨à¦ĥĠà§¯à§«à§®à§Ń": 4488,
      "Ġà¦«à§ĭà¦¨à¦ĥĠà§¯à§«à§«à§¦à§®à§¬": 4489,
      "Ġà¦²à§ĩà¦ĸà¦ķ": 4490,
      ",Ġà¦«à¦ĸà¦°à§ģà¦²Ġà¦ĩà¦¸à¦²à¦¾à¦®": 4491,
      "à¦¬à¦¾à¦¬à¦Ĺà¦ŀà§įà¦ľ": 4492,
      "Ġà¦ªà§ģà¦°à§ģà¦·": 4493,
      "à§§à§¯à§¬": 4494,
      "à¦¾Ġà¦Ĩà¦®à¦°": 4495,
      "à¦¿à¦¨à§įà¦¦à§ģ": 4496,
      "Ġà¦ħà¦«à¦¿à¦¸à¦¾à¦°": 4497,
      "Ġà¦¬à¦¿à¦ľà§įà¦ŀà¦ªà§įà¦¤à¦¿": 4498,
      "à¦¾à¦¸à§įà¦Łà¦¿à¦ķ": 4499,
      "Ġà¦¬à¦¿à¦¶à§ĩà¦·Ġà¦ķà¦°": 4500,
      "Ġà¦¦à¦¶à¦®à¦¿à¦ķ": 4501,
      "Ġà¦¹à¦ĵà¦¯à¦¼à¦¾à¦°Ġà¦ª": 4502,
      "Ġà¦¤à§ģà¦²à§ĩĠà¦¦à§ĭâĢĻà¦Ĩ": 4503,
      "à¦ıà¦®,Ġà¦«à¦ĸà¦°à§ģà¦²Ġà¦ĩà¦¸à¦²à¦¾à¦®": 4504,
      "à§ĩà¦Ńà¦¾à¦¬": 4505,
      "Ġà¦¹à¦¬à§ĩà¥¤Ċ": 4506,
      "Ġà¦ľà¦¨à¦¾à¦¬Ġà¦ı,": 4507,
      "Ġà¦ĩ-à¦®à§ĩà¦ĩà¦²à¦ĥĠnse@dos.gov.bdĊ": 4508,
      "à§ĩĠà¦¢à¦¾à¦ķà¦¾à¦¯à¦¼": 4509,
      "Ġà¦ķà¦°à¦¾Ġà¦¹à¦¯à¦¼à§ĩà¦Ľà§ĩà¥¤Ċ": 4510,
      "Ġà¦ªà¦°à¦¿à¦¦à¦°à§įà¦¶à¦ķ": 4511,
      "ĠPr": 4512,
      "à§ĩà¦°Ġà¦¸à¦Ĥà¦ĸà§įà¦¯": 4513,
      "à§ĩĠà¦¯à§ĭà¦Ĺà¦¾à¦¯à§ĭà¦Ĺ": 4514,
      "Ġà¦ªà§įà¦°à¦¤à¦¿à¦¨à¦¿à¦§à¦¿:": 4515,
      "à¦¡à¦¼à¦¿à¦¯à¦¼à§ĩĠà¦ªà¦¡à¦¼": 4516,
      "à¦ķà¦¬à¦¾à¦²": 4517,
      "Ġ2015Ġ(4": 4518,
      "à§§à§§-à§¯": 4519,
      "à¦Ĩà¦ªà¦¨à¦¿": 4520,
      "à§©à§¦à§¨Ġà¦ĩ-à¦®à§ĩà¦ĩà¦²à¦ĥĠ": 4521,
      "à§ĩĠà¦°à¦¯à¦¼à§ĩà¦Ľ": 4522,
      "Ġhttp": 4523,
      "à¦°Ġà¦°à¦¹à¦®à¦¾à¦¨": 4524,
      "à¦«à§ĭà¦¨Ġà¦ıà¦ķà§įà¦¸": 4525,
      "Ġà¦ĸà¦¾à¦²à§ĩà¦¦à¦¾Ġà¦ľà¦¿à¦¯à¦¼à¦¾à¦°": 4526,
      "Ġà¦ĩà¦ŀà§įà¦ľà¦¿à¦¨à¦¿à¦¯à¦¼à¦¾à¦°Ġà¦ıà¦¨à§įà¦¡Ġà¦¶à¦¿à¦ªĠà¦¸à¦¾à¦°à§įà¦Ńà§ĩà¦¯à¦¼à¦¾à¦°Ġà¦ıà¦¨à§įà¦¡Ġà¦ıà¦ķà§įà¦¸à¦¾à¦®à¦¿à¦¨à¦¾à¦°": 4527,
      "Ġà¦ĩà¦ŀà§įà¦ľà¦¿à¦¨à¦¿à¦¯à¦¼à¦¾à¦°Ġà¦ıà¦¨à§įà¦¡Ġà¦¶à¦¿à¦ªĠà¦¸à¦¾à¦°à§įà¦Ńà§ĩà¦¯à¦¼à¦¾à¦°Ġà¦«à§ĭà¦¨à¦ĥĠà§¯à§«à§«à§¦à§®à§¬": 4528,
      "à¦¾à¦ĺà¦¾à¦¤": 4529,
      "Ġà¦ªà§Ĥà¦°à¦£": 4530,
      "Ġà¦ļà¦¾à¦ķà¦®": 4531,
      "Ġà¦¸à¦®à§Ĥà¦¹Ġ0": 4532,
      "Ġà¦ªà¦°à¦¿à¦ļà¦¯à¦¼": 4533,
      "Ġà¦ªà¦°à¦¿à¦¶à§ĭà¦§Ġà¦ªà¦¦à§įà¦§à¦¤à¦¿à¦ĥĠ-à¦Ĳ-": 4534,
      "à¦¾Ġà¦®à¦¾à¦®à¦²à¦¾à¦°": 4535,
      "Ġà¦ķà¦¾à¦°à§įà¦¯à¦ķà§įà¦°à¦®": 4536,
      "à§ĭà¦ģà¦ľ": 4537,
      "Ġà¦ħà¦¤à¦¿à¦¥à¦¿": 4538,
      "à§ĩĠà¦ªà¦°à¦¿à¦ļ": 4539,
      "à¦«à§įà¦°à¦¨à§įà¦Ł": 4540,
      "à¦¾à¦°à¦¸à¦¾à¦®à§įà¦¯": 4541,
      "à¦ķà§ĩ,à¦ıà¦®,Ġà¦«à¦ĸà¦°à§ģà¦²Ġà¦ĩà¦¸à¦²à¦¾à¦®": 4542,
      "à§ĩĠà¦ªà¦¾à¦łà¦¾à¦¨à§ĭ": 4543,
      "à§ĩà¦°Ġà¦ħà¦¨à§įà¦¯à¦¤à¦®": 4544,
      "à§ĩà¦°Ġà¦¨à¦¿à¦°à§įà¦¦à§ĩà¦¶": 4545,
      "à§ĩĠà¦¬à§įà¦¯à¦¬à¦¹à¦¾à¦°Ġà¦ķà¦°": 4546,
      "Ġà¦¬à¦¿à¦ļà¦¾à¦°à¦ªà¦¤à¦¿": 4547,
      "Ġà¦¸à§Īà¦¯à¦¼à¦¦": 4548,
      "Ġà¦¤à¦¾à¦²à§ģà¦ķà¦¦à¦¾à¦°": 4549,
      "Ġà¦ªà§įà¦°à§ĩà¦¸à¦¿à¦¡à§ĩà¦¨à§įà¦Ł": 4550,
      "Ġà¦īà§İà¦ª": 4551,
      "Ġà¦°à¦¾à¦¸à§ĩà¦²": 4552,
      "à§ĩà¦²à¦¿à¦Ńà¦¿à¦¶à¦¨": 4553,
      "Ġà¦ĵà¦¬à¦¾à¦¯à¦¼à¦¦à§ģà¦²Ġà¦ķà¦¾à¦¦à§ĩà¦°": 4554,
      "à§ģà¦°à¦¸à§įà¦ķà¦¾à¦°": 4555,
      ",Ġà¦ļà§Ģà¦«Ġà¦ĩà¦ŀà§įà¦ľà¦¿à¦¨à¦¿à¦¯à¦¼à¦¾à¦°Ġà¦ıà¦¨à§įà¦¡Ġà¦¶à¦¿à¦ªĠà¦¸à¦¾à¦°à§įà¦Ńà§ĩà¦¯à¦¼à¦¾à¦°Ġà¦«à§ĭà¦¨à¦ĥĠà§¯à§«à§«à§¦à§®à§¬": 4556,
      "à¦¾à¦°à§Ģà¦°à¦¿à¦ķ": 4557,
      "Ġà¦¹à¦¸à§įà¦¤à¦¾à¦¨à§įà¦¤à¦°": 4558,
      "à¦¿à¦¬à¦¾à¦°Ġà¦¸à¦ķà¦¾à¦²": 4559,
      "à§Įà¦¦à¦¿Ġà¦Ĩà¦°à¦¬": 4560,
      "à¦¾Ġà¦ªà¦°à¦¿à¦·à¦¦": 4561,
      "downlo": 4562,
      "Ġà¦¨à§ĮĠà¦ªà¦°à¦¿à¦¬à¦¹à¦¨Ġà¦ħà¦§à¦¿à¦¦à¦ªà§įà¦¤à¦°": 4563,
      "Ġà¦īà¦¤à§įà¦¤à¦°Ġà¦ķà§ĭà¦°à¦¿à¦¯à¦¼à¦¾à¦°": 4564,
      "Ġà¦¸à¦¿à¦¨à§ĩà¦®": 4565,
      "Ġà¦Łà§ĩà¦¬à¦¿à¦²Ġà¦ļà¦¾à¦®à¦ļ": 4566,
      "Ġà¦®à§ĭà¦¤à¦¾à¦¬à§ĩà¦ķ": 4567,
      "à¦¬à§įà¦¯à¦¾à¦ªà§Ģ": 4568,
      "Ġà¦Ĺà§įà¦°à§ĩà¦«à¦¤à¦¾à¦°": 4569,
      "Ġà¦²à¦ķà§įà¦·à§įà¦®à§Ģà¦ªà§ģà¦°Ġà¦": 4570,
      "à§¦à§§à§Ńà§§à§§-à§¯": 4571,
      "à§ģà¦²Ġà¦¹à¦ķ,Ġà¦ĩà¦ŀà§įà¦ľà¦¿à¦¨à¦¿à¦¯à¦¼à¦¾à¦°Ġà¦ıà¦¨à§įà¦¡Ġà¦¶à¦¿à¦ªĠà¦¸à¦¾à¦°à§įà¦Ńà§ĩà¦¯à¦¼à¦¾à¦°Ġà¦ıà¦¨à§įà¦¡Ġà¦ıà¦ķà§įà¦¸à¦¾à¦®à¦¿à¦¨à¦¾à¦°": 4572,
      "Ġà¦¨à¦¥à¦¿Ġà¦¯à¦¾à¦ļà¦¾à¦ĩà¦¯à¦¼": 4573,
      "Ġ-ĠâĤ¬Ġ5": 4574,
      "Ġà¦¸à¦¾à¦®à§įà¦°à¦¾à¦ľà§įà¦¯à¦¬à¦¾à¦¦": 4575,
      "Ġà¦ıà¦¸.à¦ıà¦®.Ġà¦¨à¦¾à¦ľà¦®": 4576,
      "à¦¾à¦ĩà¦¡à¦¾à¦°à¦®à§įà¦¯à¦¾à¦¨": 4577,
      "à§įà¦¯à¦¾à¦®à§įà¦ªà¦¿à¦¯à¦¼à¦¨à§įà¦¸Ġà¦Łà§įà¦°à¦«": 4578,
      "Ġà¦ıà¦¨à§įà¦¡Ġà¦ıà¦ķà§įà¦¸à¦¾à¦®à¦¿à¦¨à¦¾à¦°Ġà¦«à§ĭà¦¨à¦ĥĠà§¯à§«à§«à§ªà§¨à§¦à§¬Ġà¦®à§ĭà¦¬à¦¾à¦ĩà¦²à¦ĥĠà§¦à§§à§Ńà§§à§¬à§¦à§¯à§¯à§¦à§¦à§©Ġà¦ĩ-à¦®à§ĩà¦ĩà¦²à¦ĥĠnse@dos.gov.bdĊ": 4579,
      "Ġà¦Ńà¦¾à¦°à§įà¦ľà¦¿à¦¨à¦¿à¦¯à¦¼": 4580,
      "à¦¨à§įà¦¯à¦¾à¦¶à¦¨à¦¾à¦²": 4581,
      "à§ªà§¯à§©à§¨à§ª": 4582,
      "à§ŃĠà¦®à§ĭà¦¬à¦¾à¦ĩà¦²à¦ĥà§¦à§§à§Ńà§§à§§-à§¯": 4583,
      "à¦¿à¦Ĺà¦Ĺà¦¿à¦°à¦ĩ": 4584,
      "à¦¿à¦¯à¦¼à¦¾à¦¨Ġà¦«à§ĩà¦¡à¦¾à¦°à§ĩà¦¶à¦¨Ġ/": 4585,
      "Ġà¦«à§ĭà¦¨à¦ĥĠà§¯à§«à§®à§Ńà§©à§¦à§¨Ġà¦ĩ-à¦®à§ĩà¦ĩà¦²à¦ĥĠ": 4586,
      "Ġà¦ľà¦¨à¦¾à¦¬Ġà¦ı,à¦ķà§ĩ,à¦ıà¦®,Ġà¦«à¦ĸà¦°à§ģà¦²Ġà¦ĩà¦¸à¦²à¦¾à¦®": 4587,
      ",Ġà¦ļà§Ģà¦«Ġà¦ĩà¦ŀà§įà¦ľà¦¿à¦¨à¦¿à¦¯à¦¼à¦¾à¦°Ġà¦ıà¦¨à§įà¦¡Ġà¦¶à¦¿à¦ªĠà¦¸à¦¾à¦°à§įà¦Ńà§ĩà¦¯à¦¼à¦¾à¦°Ġà¦«à§ĭà¦¨à¦ĥĠà§¯à§«à§«à§¦à§®à§¬à§ŃĠà¦®à§ĭà¦¬à¦¾à¦ĩà¦²à¦ĥà§¦à§§à§Ńà§§à§§-à§¯": 4588,
      "à§ģà¦²Ġà¦¹à¦ķ,Ġà¦ĩà¦ŀà§įà¦ľà¦¿à¦¨à¦¿à¦¯à¦¼à¦¾à¦°Ġà¦ıà¦¨à§įà¦¡Ġà¦¶à¦¿à¦ªĠà¦¸à¦¾à¦°à§įà¦Ńà§ĩà¦¯à¦¼à¦¾à¦°Ġà¦ıà¦¨à§įà¦¡Ġà¦ıà¦ķà§įà¦¸à¦¾à¦®à¦¿à¦¨à¦¾à¦°Ġà¦«à§ĭà¦¨à¦ĥĠà§¯à§«à§®à§Ńà§©à§¦à§¨Ġà¦ĩ-à¦®à§ĩà¦ĩà¦²à¦ĥĠ": 4589,
      "Ġà¦ıà¦¸.à¦ıà¦®.Ġà¦¨à¦¾à¦ľà¦®à§ģà¦²Ġà¦¹à¦ķ,Ġà¦ĩà¦ŀà§įà¦ľà¦¿à¦¨à¦¿à¦¯à¦¼à¦¾à¦°Ġà¦ıà¦¨à§įà¦¡Ġà¦¶à¦¿à¦ªĠà¦¸à¦¾à¦°à§įà¦Ńà§ĩà¦¯à¦¼à¦¾à¦°Ġà¦ıà¦¨à§įà¦¡Ġà¦ıà¦ķà§įà¦¸à¦¾à¦®à¦¿à¦¨à¦¾à¦°Ġà¦«à§ĭà¦¨à¦ĥĠà§¯à§«à§®à§Ńà§©à§¦à§¨Ġà¦ĩ-à¦®à§ĩà¦ĩà¦²à¦ĥĠ": 4590,
      "Ġà¦ľà¦¨à¦¾à¦¬Ġà¦ı,à¦ķà§ĩ,à¦ıà¦®,Ġà¦«à¦ĸà¦°à§ģà¦²Ġà¦ĩà¦¸à¦²à¦¾à¦®,Ġà¦ļà§Ģà¦«Ġà¦ĩà¦ŀà§įà¦ľà¦¿à¦¨à¦¿à¦¯à¦¼à¦¾à¦°Ġà¦ıà¦¨à§įà¦¡Ġà¦¶à¦¿à¦ªĠà¦¸à¦¾à¦°à§įà¦Ńà§ĩà¦¯à¦¼à¦¾à¦°Ġà¦«à§ĭà¦¨à¦ĥĠà§¯à§«à§«à§¦à§®à§¬à§ŃĠà¦®à§ĭà¦¬à¦¾à¦ĩà¦²à¦ĥà§¦à§§à§Ńà§§à§§-à§¯": 4591,
      "Ġà¦ıà¦¸.à¦ıà¦®.Ġà¦¨à¦¾à¦ľà¦®à§ģà¦²Ġà¦¹à¦ķ,Ġà¦ĩà¦ŀà§įà¦ľà¦¿à¦¨à¦¿à¦¯à¦¼à¦¾à¦°Ġà¦ıà¦¨à§įà¦¡Ġà¦¶à¦¿à¦ªĠà¦¸à¦¾à¦°à§įà¦Ńà§ĩà¦¯à¦¼à¦¾à¦°Ġà¦ıà¦¨à§įà¦¡Ġà¦ıà¦ķà§įà¦¸à¦¾à¦®à¦¿à¦¨à¦¾à¦°Ġà¦«à§ĭà¦¨à¦ĥĠà§¯à§«à§®à§Ńà§©à§¦à§¨Ġà¦ĩ-à¦®à§ĩà¦ĩà¦²à¦ĥĠesse": 4592,
      "Ġà¦ľà¦¨à¦¾à¦¬Ġà¦ı,à¦ķà§ĩ,à¦ıà¦®,Ġà¦«à¦ĸà¦°à§ģà¦²Ġà¦ĩà¦¸à¦²à¦¾à¦®,Ġà¦ļà§Ģà¦«Ġà¦ĩà¦ŀà§įà¦ľà¦¿à¦¨à¦¿à¦¯à¦¼à¦¾à¦°Ġà¦ıà¦¨à§įà¦¡Ġà¦¶à¦¿à¦ªĠà¦¸à¦¾à¦°à§įà¦Ńà§ĩà¦¯à¦¼à¦¾à¦°Ġà¦«à§ĭà¦¨à¦ĥĠà§¯à§«à§«à§¦à§®à§¬à§ŃĠà¦®à§ĭà¦¬à¦¾à¦ĩà¦²à¦ĥà§¦à§§à§Ńà§§à§§-à§¯à§ªà§¯à§©à§¨à§ª": 4593,
      "&F": 4594,
      ")à¥¤Ċ": 4595,
      "+à§®à§®": 4596,
      ",ĠĠà¦¦à§ĩà¦¶": 4597,
      ",Ġà¦Ńà¦¿à¦¡à¦¿à¦ĵ": 4598,
      ",Ġà¦Ľà¦¬à¦¿,": 4599,
      ",Ġà¦²à¦ķà§įà¦·à§įà¦®à§Ģà¦ªà§ģà¦°Ġà¦": 4600,
      "-à¦ļ": 4601,
      "-à¦Ĩ": 4602,
      ".à¦ķà¦®": 4603,
      "/à§¨à§¦": 4604,
      "24": 4605,
      "55": 4606,
      "71": 4607,
      "F&F": 4608,
      "ay": 4609,
      "ck": 4610,
      "deĠ": 4611,
      "fre": 4612,
      "ms": 4613,
      "om": 4614,
      "su": 4615,
      "te": 4616,
      "«à¦²": 4617,
      "Ġ3": 4618,
      "ĠR": 4619,
      "Ġf": 4620,
      "Ġm": 4621,
      "Ġw": 4622,
      "ĠYou": 4623,
      "ĩà¦īà¦¨à¦¿à¦¯à¦¼à¦¨": 4624,
      "Ŀà¦¿à¦²": 4625,
      "à¦¾ĠâĢĺ": 4626,
      "à¦¾Ġà§§à§¦": 4627,
      "à¦¾ĠÂ»ĠÂ«": 4628,
      "à¦¾à¦ŀà§įà¦ľ": 4629,
      "à§ĩ!": 4630,
      "à§ĩ:": 4631,
      "à§ĩĊ": 4632,
      "à¦¿Ġà¦ı": 4633,
      "à¦¿Ġà¦«": 4634,
      "à¦¿à¦°à§įà¦®": 4635,
      "à¦¿Ġà¦¨à¦¿à¦¯à¦¼": 4636,
      "à¦¿Ġà¦¦à¦¿à¦¯à¦¼": 4637,
      "à¦¿Ġà¦¹à¦¯à¦¼à§ĩà¦Ľà§ĩà¥¤": 4638,
      "à¦°à¦¾à¦¤": 4639,
      "à¦°à§Ģà¦¤": 4640,
      "à¦°à¦¾Ġà¦¹à¦²": 4641,
      "à¦°à§Ģà¦¯à¦¼à¦¤": 4642,
      "à¦¿à¦¡à¦¼": 4643,
      "à¦¿à¦Ĩà¦°": 4644,
      "à§ĩĠà¦¥": 4645,
      "à§ĩĠà¦¥à¦¾à¦¨": 4646,
      "à¦¨à¦¨à§įà¦¦": 4647,
      "à¦¨à¦¿à¦īà¦ľ": 4648,
      "à¦¾à¦°à¦¨": 4649,
      "à¦¾à¦°à¦¿Ġà¦ķà¦°": 4650,
      "à¦¾à¦°Ġà¦Ĩà¦¶": 4651,
      "à¦ķà¦¾à¦¨": 4652,
      "à¦ķà¦¶": 4653,
      "à¦ķà¦¾à¦®à§Ģ": 4654,
      "à¦ķà¦¿à¦¨à§įà¦¤à§ģ": 4655,
      "à¦ķà§ĩĠà¦¹à¦¤à§įà¦¯": 4656,
      "à¦²à§įà¦Ł": 4657,
      "à¦²à§ĩĠà¦¬": 4658,
      "à¦²à¦Ļà§įà¦ķ": 4659,
      "à§ĭ.": 4660,
      "à§ĭà¥¤": 4661,
      "à§ĭà¦ķà¦¾à¦°": 4662,
      "à§ĭà¦Ŀ": 4663,
      "à¦¤à§ģ": 4664,
      "à¦¤à§ĩĠà¦ª": 4665,
      "à¦¤à¦¾Ġà¦¬": 4666,
      "à¦¤à§ĩĠà¦¥à¦¾à¦ķ": 4667,
      "à¦¤à§ĩĠà¦¹à¦¯à¦¼": 4668,
      "à¦¬à¦¿à¦ķ": 4669,
      "à¦¬à§ĩà¦¦à¦¨": 4670,
      "à¦®à§ģ": 4671,
      "à¦®à§įà¦¯": 4672,
      "à¦®à§Ĥà¦²": 4673,
      "à§įà¦°à¦¤": 4674,
      "à§įà¦°à¦¾à¦¸": 4675,
      "à¥¤Ġà¦¨": 4676,
      "à¥¤Ġà¦ľ": 4677,
      "à¥¤Ġà¦ªà¦°": 4678,
      "à¥¤Ġà¦Ĩà¦ľ": 4679,
      "Ġà¦ķà§ģ": 4680,
      "Ġà¦ķà¦¾à¦®": 4681,
      "Ġà¦ķà¦¾à¦¯à¦¼": 4682,
      "Ġà¦ķà¦ķà§įà¦¸à¦¬à¦¾à¦ľà¦¾à¦°": 4683,
      "à§Ģà¦·": 4684,
      "à§ĢĠà¦¹à¦¯à¦¼": 4685,
      "à¦¯à¦¼à¦¾à¦²": 4686,
      "Ġà¦¸à§ĩà¦¨": 4687,
      "Ġà¦¸à¦¾à¦¬à§ĩà¦ķ": 4688,
      "Ġà¦¸à¦¾à¦§à¦¾à¦°à¦£Ġà¦¸à¦®à§įà¦ªà¦¾à¦¦à¦ķ": 4689,
      "Ġà¦¸à§ĩà¦ªà§įà¦Łà§ĩà¦®à§įà¦¬à¦°": 4690,
      "à¦¸à¦¨": 4691,
      "Ġà¦¬à¦¯à¦¼": 4692,
      "Ġà¦¬à¦¾à¦¤": 4693,
      "Ġà¦¬à¦¾à¦¦": 4694,
      "Ġà¦¬à¦¾à¦¹": 4695,
      "Ġà¦¬à¦¾Ġà¦®": 4696,
      "Ġà¦¬à¦°à§įà¦Ĺ": 4697,
      "Ġà¦¬à§ģà¦§à¦¬à¦¾à¦°": 4698,
      "Ġà¦¬à§ĥà¦¹à¦¸à§įà¦ªà¦¤à¦¿à¦¬à¦¾à¦°": 4699,
      "Ġà¦ªà§ĩà¦¤": 4700,
      "à¦¦à§ģ": 4701,
      "à¦¦à¦¾à¦¦": 4702,
      "à¦¦à§ĩà¦°Ġà¦Ń": 4703,
      "à¦¦à§ĩà¦°Ġà¦¸à¦Ļà§įà¦Ĺ": 4704,
      "à¦¦à§Ĥà¦¤": 4705,
      "à¦ªà§ģà¦²à¦¿à¦¶": 4706,
      "à¦ªà§ĭà¦°à§įà¦Ł": 4707,
      "à¦ªà§ĩà¦ķà§įà¦·": 4708,
      "Ġà¦ıà¦°Ġà¦®": 4709,
      "Ġà¦ıà¦Ľà¦¾à¦¡à¦¼": 4710,
      "Ġà¦®à¦¿à¦¸": 4711,
      "Ġà¦®à§ĩà¦Ł": 4712,
      "Ġà¦®à¦¿à¦Ľà¦¿à¦²": 4713,
      "à¦Łà¦¨à¦¾à¦°": 4714,
      "à¦Łà¦¾Ġà¦¤": 4715,
      "Ġà¦Ĩà¦ķà¦¾à¦¶": 4716,
      "Ġà¦Ĩà¦¤à§įà¦®": 4717,
      "à§ĩà¦¨à¥¤Ġà¦ı": 4718,
      "à§ĩà¦¨Ġà¦ıà¦¬à¦Ĥ": 4719,
      "Ġà¦¨à¦¾à¦¨": 4720,
      "Ġà¦¨à¦¾à¥¤Ċ": 4721,
      "Ġà¦¨à¦¿à¦ļà§įà¦Ľ": 4722,
      "Ġà¦¨à¦®à§įà¦¬": 4723,
      "à¦°à§įà¦Ł": 4724,
      "Ġà¦¦à§ĭà¦¯à¦¼": 4725,
      "Ġà¦¦à¦¾à¦ĸà¦¿à¦²": 4726,
      "à¦¾à¦²à¦¨": 4727,
      "à¦¾à¦²à§įà¦²": 4728,
      "à¦¾à¦²à§ĩà¦¦à¦¾Ġà¦ľ": 4729,
      "à¦¾à¦®à¦¡à¦¼": 4730,
      "à¦¾à¦®à¦¾à¦ľà¦¿à¦ķ": 4731,
      "à¦¾à¦®à§Ĥà¦²à§įà¦¯": 4732,
      "Ġà¦ķà¦°à¦¿à¦®": 4733,
      "Ġà¦ķà¦°à¦¾Ġà¦¯à¦¾à¦¯à¦¼": 4734,
      "Ġà¦ķà¦°à¦Ľà§ĩà¦¨": 4735,
      "Ġà¦¹à¦¾à¦¨": 4736,
      "Ġà¦¹à¦¾à¦¬": 4737,
      "Ġà¦¹à§įà¦¯à¦¾à¦ľ": 4738,
      "Ġà¦¹à¦¾à¦ĵà¦²": 4739,
      "à¦¿à¦¨à¦¤": 4740,
      "à¦¿à¦¯à¦¼à¦¾Ġà¦¹": 4741,
      "à¦¿à¦¯à¦¼à¦¾Ġà¦ķ": 4742,
      "à¦¿à¦¯à¦¼à¦¾Ġà¦Ĩ": 4743,
      "à¦¿à¦¯à¦¼à§ĩà¦¶à¦¨": 4744,
      "à¦¾à¦¯à¦¼Ġà¦ıà¦ķ": 4745,
      "à¦¾à¦¯à¦¼Ġà¦¤à¦¾à¦°": 4746,
      "à¦¾à¦ķ/": 4747,
      "à¦¾à¦ķà§ĩĠà¦¸": 4748,
      "à¦¾à¦ķà¦¾à¦°à§Ģ": 4749,
      "à¦¹à¦¤à§įà¦¯": 4750,
      "à¦¹à¦¸à§įà¦¯": 4751,
      "à¦¿à¦¤à§ĩĠà¦ļ": 4752,
      "Ġà¦¤à¦¾à¦¨": 4753,
      "Ġà¦¤à§ĩà¦²": 4754,
      "Ġà¦¤à§ĭà¦²": 4755,
      "à¦ĩĠà¦¬": 4756,
      "à¦ĩà¦ķà§ĩà¦Ł": 4757,
      "à¦ľà¦¾à¦¯à¦¼": 4758,
      "à¦ľà¦¾à¦¤": 4759,
      "Ġà¦ľà¦¾à¦°à§Ģ": 4760,
      "Ġà¦ľà¦¹à¦¿à¦°": 4761,
      "Ġà¦ħà¦«": 4762,
      "Ġà¦ħà¦¨à§įà¦¤": 4763,
      "à¦¾à¦ĩà¦¤": 4764,
      "à¦¾à¦ĩà¦¦": 4765,
      "à¦¾à¦ĩà¦ķà¦¾à¦°": 4766,
      "à¦¾à¦¤à§ĩĠà¦ªà¦¾à¦°": 4767,
      "à¦¾à¦¬à¦¹": 4768,
      "à¦¾à¦¬à§ģà¦¯à¦¼": 4769,
      "à§ģà¦²Ġà¦Ĩà¦²à¦®": 4770,
      "à¦¿à¦²à¦¾à¦°": 4771,
      "à§¦.": 4772,
      "Ġà¦°à¦¾à¦¹": 4773,
      "Ġà¦°à§ģà¦Ł": 4774,
      "Ġà¦°à§ĭà¦ľ": 4775,
      "Ġà¦°à¦ļà¦¨": 4776,
      "à¦¶à§įà¦°": 4777,
      "à¦¶à¦¿à¦·à§įà¦Ł": 4778,
      "à§ĩà¦¶à¦¾à¦¦": 4779,
      "Ġà¦ªà§įà¦°à¦Ńà¦¾à¦¬": 4780,
      "Ġà¦ªà§įà¦°à¦¾à¦°à§įà¦¥à§Ģ": 4781,
      "à§ĩĠà¦ªà§ģà¦°": 4782,
      "à§ĩĠà¦ªà¦¾à¦²à¦¿à¦¯à¦¼": 4783,
      "à¦Ńà§Ģà¦°": 4784,
      "Ġà¦¶à¦ķà§įà¦¤": 4785,
      "Ġà¦¶à§Ģà¦¤": 4786,
      "Ġà¦¶à¦°à§Ģà¦°": 4787,
      "Ġà¦¶à¦¿à¦Ĺà¦Ĺà¦¿à¦°à¦ĩ": 4788,
      "à¦ļà¦°à¦£": 4789,
      "à¦ļà¦Łà§įà¦Łà¦Ĺà§įà¦°à¦¾à¦®": 4790,
      "à§ĩĠà¦¬à¦¡à¦¼": 4791,
      "à§ĩĠà¦¬à¦¿à¦¬": 4792,
      "à§ĩĠà¦¬à¦¿à¦ª": 4793,
      "à§ĩĠà¦¬à§Ī": 4794,
      "à§ĩĠà¦¬à§įà¦¯à¦¾à¦Ł": 4795,
      "à§ĩĠà¦¬à¦¿à¦·à¦¯à¦¼": 4796,
      "à§ĩĠà¦¬à§ģà¦Ŀ": 4797,
      "à¦¨à§įà¦ł": 4798,
      "Ġà¦ĵà¦Ńà¦¾à¦°": 4799,
      "à§ĩĠà¦Ĩà¦ĩ": 4800,
      "à§ĩĠà¦Ĩà¦Ľà§ĩà¥¤": 4801,
      "à§ĩĠà¦Ĩà¦Ĺà¦¾à¦®à§Ģ": 4802,
      "Ġà¦¬à¦¿à¦§": 4803,
      "à¦¡à¦¼à¦¤": 4804,
      "à§ĩĠà¦¸à¦¾à¦¤": 4805,
      "à§ĩĠà¦¸à¦ķà¦²": 4806,
      "à¦Ľà¦¾à¦¤à§įà¦°à§Ģ": 4807,
      "à§ĥà¦¶à§įà¦¯": 4808,
      "Ġà¦¯à¦¾à¦°": 4809,
      "Ġà¦¯à¦¾à¦¤": 4810,
      "Ġà¦¯à§Įà¦¨": 4811,
      "à¦¾à¦¹à§Ģà¦¨": 4812,
      "à§Ĥà¦¨": 4813,
      "à§Ĥà¦ľ": 4814,
      "à§Ĥà¦°à¦£": 4815,
      "Ġà¦ļà¦¾à¦°": 4816,
      "Ġà¦ļà§ģà¦²": 4817,
      "Ġà¦ļà¦¾à¦°à§įà¦ľ": 4818,
      "Ġà¦ļà¦¨à§įà¦¦à§įà¦°": 4819,
      "Ġ(à¦Ĺ": 4820,
      "à¦ĸà¦¿à¦ķ": 4821,
      "à§ĩà¦°Ġà¦¸à§Ĥ": 4822,
      "à§ĩà¦°Ġà¦¸à§įà¦¤à§įà¦°à§Ģ": 4823,
      "Ġà¦ĩà¦ķà¦¬à¦¾à¦²": 4824,
      "à¦ĵà¦Ĺà¦¾à¦ģ": 4825,
      "Ġà¦Ńà§ĭà¦°": 4826,
      "Ġà¦Ńà¦¾à¦ĩà¦°": 4827,
      "Ġà¦Ńà¦¿à¦¯à¦¼à§ĩà¦¤à¦¨à¦¾à¦®": 4828,
      "à§ģà¦°à¦Ĩà¦¨": 4829,
      "Ġà¦«à¦°à¦¿à¦¦": 4830,
      "Ġà¦«à§įà¦¯à¦¾à¦ķà§įà¦¸": 4831,
      "Ġà¦«à§ĭà¦°à¦¾à¦®": 4832,
      "à§ĩĠà¦ıà¦Ł": 4833,
      "à§ĩĠà¦ıà¦Łà¦¿": 4834,
      "à§ĩĠà¦ıà¦ĸà¦¾à¦¨": 4835,
      "Ġà¦īà¦¨à¦¿": 4836,
      "Ġà¦īà¦ł": 4837,
      "Ġà¦īà¦¦à§įà¦¬à§ĭà¦§": 4838,
      "Ġà¦īà¦Ńà¦¯à¦¼": 4839,
      "à§ĩĠà¦¨à¦¿à¦¨": 4840,
      "à¦ķà§įà¦·à§ģ": 4841,
      "à¦ķà§įà¦·à¦®": 4842,
      "Ġà¦²à§ģà¦ķ": 4843,
      "Ġà¦²à¦¿à¦Ĥà¦ķ": 4844,
      "à¦¿à¦¸à¦¹": 4845,
      "à§ĩĠà¦¦à§ĩà¦¬": 4846,
      "à§ĩĠà¦¦à§ĩà¦ĵà¦¯à¦¼": 4847,
      "à§ĩĠà¦¦à§Ģà¦°à§įà¦ĺ": 4848,
      "à¦¿à¦°à§ĭ": 4849,
      "à§ĩĠà¦ķà¦¤": 4850,
      "à§ĩĠà¦ķà§įà¦·": 4851,
      "à§ĩĠà¦ķà§įà¦²à¦¿à¦ķ": 4852,
      "à¦«à¦°à§įà¦®": 4853,
      "à¦«à¦°à¦®": 4854,
      "à¦¾Ġà¦ķà¦¾à¦°": 4855,
      "à¦¾Ġà¦ķà¦°à§įà¦®": 4856,
      "à§ĩà¦°ĠâĢĺ": 4857,
      "à§ĩà¦°Ġà§§à§§": 4858,
      "à¦¿à¦¶à¦¿à¦Ĥ": 4859,
      "Ġà¦ĸà§ĩà¦¯à¦¼": 4860,
      "Ġà¦ĸà§ĭà¦²": 4861,
      "Ġà¦ĸà§ģà¦ģà¦ľ": 4862,
      "âĢĻĠà¦¬à¦²": 4863,
      "Ġà¦ıà¦ķà¦¬à¦¾à¦°": 4864,
      "Ġà¦ıà¦ķà¦®à¦¤": 4865,
      "à§ĩà¦Łà¦°": 4866,
      "à§ĩà¦Łà¦¿à¦Ĥ": 4867,
      "à§ĩà¦Łà¦¿à¦Ń": 4868,
      "Ġà¦¹à¦¯à¦¼à§ĩĠà¦Ĺà§ĩà¦²": 4869,
      "Ġà¦¹à¦¯à¦¼à§ĩà¦Ľà§ĩà¦¨à¥¤": 4870,
      "à¦¿à¦¬à¦¿à¦¦": 4871,
      "à¦¿à¦¬à¦¾à¦¸à§Ģ": 4872,
      "Ġà¦¥à¦¿à¦®": 4873,
      "à¦Ĩà¦ĵà¦¯à¦¼à¦¾à¦®à§ĢĠà¦²à§Ģà¦Ĺ": 4874,
      "à¦Ĩà¦Ĺà¦¾à¦®à§Ģ": 4875,
      "à§Įà¦¥": 4876,
      "à§ĩĠà¦®à¦¿à¦²": 4877,
      "à§ĩĠà¦®à§ģà¦ĸ": 4878,
      "à§ĩĠà¦®à¦¾à¦¨à§ģà¦·": 4879,
      "à¦ıà¦²": 4880,
      "à§ĩà¦°Ġà¦¬à¦¾à¦ĩà¦°": 4881,
      "à§ĩà¦°Ġà¦¬à¦ķà§įà¦¤à¦¬à§įà¦¯": 4882,
      "à§ĩà¦°Ġà¦ķà¦ªà¦¿": 4883,
      "à§ĩà¦°Ġà¦ķà¦¾à¦°à§įà¦¯": 4884,
      "à¦¿à¦ľà¦¿à¦Łà¦¾à¦²": 4885,
      "à¦¾Ġà¦ªà¦¾à¦°": 4886,
      "à¦¾à¦ģà¦Ł": 4887,
      "Ġà¦Łà§ĩà¦²": 4888,
      "à¦¿à¦®à¦¤": 4889,
      "à¦¿à¦®à¦¯à¦¼": 4890,
      "à¦¿à¦®à¦¾à¦²": 4891,
      "à§ģà¦°Ġà¦¨": 4892,
      "à§ģà¦°Ġà¦¹": 4893,
      "à§ģà¦°Ġà¦ļ": 4894,
      "Ġà¦Ĩà¦®à¦²": 4895,
      "Ġà¦Ĩà¦®à¦¿à¦°": 4896,
      "Ġà¦Ĩà¦®à¦¾à¦°Ġà¦¬": 4897,
      "Ġà¦Ĩà¦®à§ĩà¦°à¦¿à¦ķ": 4898,
      "à§ĩà¦Ľà§ĩà¦¨à¥¤Ġà¦ı": 4899,
      "à¦¾à¦§à§įà¦¯": 4900,
      "à§¨à§¬": 4901,
      "à¥¤Ġà¦ıà¦¬à¦¾à¦°": 4902,
      "à¥¤Ġà¦ıà¦ĸà¦¾à¦¨": 4903,
      "à§Ģà¦¯à¦¼ĠÂ·": 4904,
      "Ġà¦¡.": 4905,
      "Ġà¦¡à§įà¦°": 4906,
      "Ġà¦¡à¦¾à¦ķ": 4907,
      "Ġà¦¡à¦¾.": 4908,
      "Ġà¦¡à¦¾à¦ķà§įà¦¤à¦¾à¦°": 4909,
      "Ġà¦¡à¦¾à¦īà¦¨à¦²à§ĭà¦¡": 4910,
      "Ġà¦¸à¦Ĥà¦ķà¦Ł": 4911,
      "à¦¡à§įà¦¸": 4912,
      "à¦¡à§įà¦¡": 4913,
      "à§©à§®": 4914,
      "Ġà¦¬à¦²à§ĩà¦Ľà§ĩà¦¨,": 4915,
      "à§Ģà¦°Ġà¦ħ": 4916,
      "à§Ģà¦°Ġà¦ī": 4917,
      "à§įà¦¡à¦¾à¦°": 4918,
      "à¦¾,Ġà¦ª": 4919,
      "à¦¾Ġà¦¨à¦ķà¦²": 4920,
      "à§įà¦®à§ĩà¦²à¦¨": 4921,
      "à¦¿à¦Ĥà¦¸": 4922,
      "à§ĩĠà¦°à¦¾à¦¸à§įà¦¤": 4923,
      "à§ĩĠà¦°âĢĮà§įà¦¯à¦¾à¦¬": 4924,
      "à§ĩĠà¦ļà¦¾à¦¨": 4925,
      "à§ĩĠà¦ļà¦¿à¦ķà¦¿à§İà¦¸": 4926,
      "à§įà¦¯à¦¾à¦¨à¦¾à¦°": 4927,
      "à§ĩĠà¦ªà§įà¦°à¦¦": 4928,
      "à¦¾Ġà¦¦à§ĩà¦¶": 4929,
      "à¦¾Ġà¦Ĩà¦ĩà¦¨": 4930,
      "Ġà¦®à§ĭà¦²à§įà¦²": 4931,
      "à¦¾Ġà¦¯à§ĩà¦¤à§ĩĠà¦ªà¦¾à¦°": 4932,
      "à§ģà¦ķà§įà¦¤à¦¿à¦¯": 4933,
      "à¦ªà§įà¦°à¦§à¦¾à¦¨": 4934,
      "à¦ªà§įà¦°à¦¥à¦®": 4935,
      "Ġà¦§à¦°à¦£": 4936,
      "à¦¾Ġà¦®à¦¨": 4937,
      "à§ĩà¦°Ġà¦¦à¦¾à¦¬": 4938,
      "à¦¾à¦£à§Ģ": 4939,
      "à¦łà¦¿à¦¨": 4940,
      "à¦¾à¦°Ġà¦¸à§ģà¦¯à§ĭà¦Ĺ": 4941,
      "à¦¤à§įà¦¤à§ĩà¦«": 4942,
      "à§ĩà¦°Ġà¦¨à¦¿à¦ľ": 4943,
      "Ġà¦īà¦ªà¦¾à¦¯à¦¼": 4944,
      "Ġà§§à¥¤": 4945,
      "à§İà¦ķà¦¾à¦²à§Ģà¦¨": 4946,
      "à¦ĵà¦¯à¦¼à¦¾à¦ľ": 4947,
      "à§Ńà§§": 4948,
      "Ġà¦ªà§įà¦°à¦¤à¦¿à¦°à§ĭà¦§": 4949,
      "à§įà¦ķà§ĥà¦¤": 4950,
      "à§ĩĠà¦īà¦²à§įà¦²à§ĩà¦ĸ": 4951,
      "à§ĩà¦°Ġà¦ªà§įà¦°à¦¤à§įà¦¯": 4952,
      "à§ĩà¦°Ġà¦ªà§įà¦°à¦¯à¦¼à§ĭà¦ľà¦¨": 4953,
      "à¦¾Ġà¦ħà¦¬à¦¸à§įà¦¥": 4954,
      "Ġ::": 4955,
      "à¦¿à¦īà¦°à¦¿à¦Ł": 4956,
      "Ġà§©à§©": 4957,
      "à¦¿à¦ıà¦ĩ": 4958,
      "à¦¾Ġà¦ªà§įà¦°à¦ķà¦¾à¦¶": 4959,
      "à§ĩĠà¦Ńà§ĭà¦Ł": 4960,
      "à§ĩĠà¦Ńà¦¾à¦²à§ĭ": 4961,
      "Ġà¦Ĩà¦°Ġà¦¨": 4962,
      "à¦¿à¦§à¦¾à¦°": 4963,
      "à¦ªà§ģà¦°Ġà¦¨": 4964,
      "Ġà¦Ľà¦¿à¦²à§ĩà¦¨à¥¤": 4965,
      "Ġà¦ķà¦®à¦ªà§įà¦²à§ĩà¦ķà§įà¦¸": 4966,
      "à¦¬à¦¹à§ĩà¦²": 4967,
      "à¦¤à§ĩĠà¦ªà¦¾à¦°à¦¬à§ĩà¦¨à¥¤": 4968,
      "à¦²à¦¾à¦ķà¦¾à¦°": 4969,
      "à§ĩà¦Ľà¦¿à¦²à§ĩà¦¨,": 4970,
      "à¦¾Ġà¦Ĺà§įà¦°à¦¹à¦£": 4971,
      "à§įà¦°à§ģà¦ĩà¦¨": 4972,
      "Ġà§¦à§Ń": 4973,
      "à¥¤Ġà¦ķà¦¾à¦°à¦£": 4974,
      "à¥¤Ġà¦¸à§ĩà¦ĩ": 4975,
      "à¦ĺà¦°": 4976,
      "à¦¾à¦°Ġà¦®à¦¨": 4977,
      "à¦¾à¦°Ġà¦®à¦¤à§ĭ": 4978,
      ",Ġà¦ķà¦¾à¦°": 4979,
      ",Ġà¦ķà¦¿à¦¨à§įà¦¤à§ģ": 4980,
      "à¦¿à¦Ĺà§ģà¦²à§ĭ": 4981,
      "à¦¿Ġà¦ªà§ĩà¦¯à¦¼": 4982,
      "à¦¾Ġà¦¶à§ģà¦¨": 4983,
      "à¦¾Ġà¦¶à§ĩà¦·": 4984,
      "à§ĩà¦°Ġà¦Ńà¦¾à¦°à¦¸à¦¾à¦®à§įà¦¯": 4985,
      "à§ĩà¦°Ġà¦ıà¦ķà¦ĩĠà¦¸à¦®à¦¯à¦¼": 4986,
      "Ġà¦¤à¦¿à¦¨à¦¿à¥¤": 4987,
      "Ġà¦Ĩà¦°à§ĩà¦ķ": 4988,
      "à¦°à§įà¦ľà§ĩà¦¨à§įà¦Ł": 4989,
      "à§ĩĠà¦Ľà¦¿à¦²": 4990,
      "à§ĩĠà¦Ľà§ĩà¦¡à¦¼": 4991,
      "à§ĩĠà¦ľà¦¾à¦¨à¦¾Ġà¦Ĺà§ĩà¦Ľà§ĩ,": 4992,
      "à¦¸à§įà¦Łà¦¾à¦«Ġà¦°à¦¿à¦ªà§ĭà¦°à§įà¦Łà¦¾à¦°": 4993,
      "à¦ħà¦¬": 4994,
      "sĠin": 4995,
      "à¦¿à¦ļà¦¾à¦°à¦ķ": 4996,
      "Ġà¦¸à§įà¦¬à¦¤à§įà¦¬": 4997,
      "à¦¾Ġà¦¹à¦¯à¦¼à§ĩà¦Ľà§ĩà¥¤Ċ": 4998,
      "à§ĩà¦Ĺà§ģà¦²à§ĭ": 4999,
      "Ġà¦¸à§ģà¦¨à§įà¦¦": 5000,
      "Ġà¦ĩà¦īà¦ıà¦¸": 5001,
      "à§ģà¦¡à¦¼à§ĭ": 5002,
      "Ġà¦Ĩà¦¦à§ĩà¦¶": 5003,
      "Ġà¦ħà¦§à¦¿à¦¨à¦¾à¦¯à¦¼à¦ķ": 5004,
      "-à¦¸à¦Ńà¦¾à¦ªà¦¤à¦¿": 5005,
      "Ġà¦ľà§ĩà¦²à¦¾Ġà¦ªà§įà¦°": 5006,
      "à§ĩĠ...Ċ": 5007,
      "Ġà¦ħà¦¨à§ĩà¦ķà§ĩà¦ĩ": 5008,
      "à¦¾Ġà¦īà¦ªà¦ľà§ĩà¦²": 5009,
      "à§ĩĠà¦¦à§ĩà¦ĸà¦¾Ġà¦¯à¦¾à¦¯à¦¼": 5010,
      "à¦¾à¦¡à§įà¦¡": 5011,
      "Ġtit": 5012,
      "à§ĩĠà¦ĩà¦Ľà¦²": 5013,
      "ent": 5014,
      "à§ĩĠà¦Łà§įà¦°": 5015,
      "à§ĩĠà¦Łà¦¾à¦ķ": 5016,
      "âĢĮà§įà¦¯à¦¾à¦²": 5017,
      "à¦¾à¦°à§įà¦Łà¦¿à¦¨": 5018,
      "Ġà¦ķà¦°à¦¤à§ĩĠà¦ªà¦¾à¦°à¦¬à§ĩà¦¨": 5019,
      "Ġà¦¬à¦¾à¦¡à¦¼à¦¿à¦¤": 5020,
      "à§ĩĠà¦¯à¦¾à¦¯à¦¼à¥¤": 5021,
      "à§ĩĠà¦¯à¦¾à¦¯à¦¼à¥¤Ċ": 5022,
      "à§ĭà¦¡à¦¾à¦ķà§įà¦Ł": 5023,
      "Ġà¦¸à¦¾à¦®à¦¨": 5024,
      "à¦¢à¦¾à¦ķà¦¾Ġà¦ħà¦«à¦¿à¦¸": 5025,
      "à¦¾Ġà¦ľà¦¾à¦¨à¦¾à¦¨": 5026,
      "à§ĩà¦°Ġà¦²à§ĭà¦ķà¦ľà¦¨": 5027,
      "Ġà¦¸à¦Ĥà¦¬à¦¾à¦¦Ġà¦¸à¦®à§įà¦®à§ĩà¦²à¦¨": 5028,
      "Ġà¦ķà§ĭà¦Łà¦¿Ġà¦¡à¦²à¦¾à¦°": 5029,
      "à¦¤à¦¿à¦Ŀà¦¿à¦²": 5030,
      "Ġà¦ķà¦°à§ģà¦¨à¥¤Ċ": 5031,
      "à§ĩĠà¦Ĩà¦ªà¦¨": 5032,
      "Ġà¦Łà§įà¦°à¦¾à¦ķ": 5033,
      ".com/": 5034,
      "Ġà¦ĸà§ĩà¦²à§ĭà¦¯à¦¼à¦¾à¦¡à¦¼": 5035,
      "à¦Ĩà¦®à¦¾à¦¦": 5036,
      "ore": 5037,
      "Ġà¦ħà¦ªà§ĩà¦ķà§įà¦·": 5038,
      "à¦¾à¦Ļà§įà¦Ĺà¦¾à¦ĩà¦²": 5039,
      "Ġà¦ıà¦®à¦ª": 5040,
      "Ġà¦¤à¦¥à§įà¦¯,Ġà¦Ľà¦¬à¦¿,": 5041,
      "à¦°à§įà¦¨à§Ģà¦¤à¦¿": 5042,
      "à¦¨à§Ģà¦¤à¦¿": 5043,
      "à¦¯à¦¼à¦¸à§Ģ": 5044,
      "Ġà¦ªà§įà¦²à¦¾à¦¸à§įà¦Łà¦¿à¦ķ": 5045,
      "à¦ľà§įà¦ľà¦¿à¦¤": 5046,
      "Ġà¦¶à¦¿à¦ķà§įà¦·à¦¾à¦°à§įà¦¥à§Ģ": 5047,
      "Ġà¦ļà¦¾à¦²à§ģ": 5048,
      "à¦°Ġà¦ıà¦¬à¦Ĥ": 5049,
      "à§ģà¦ģà¦ľà¦¿à¦¬": 5050,
      "à§įà¦¯à¦¾à¦®à§įà¦ªà¦¶à¦¾à¦¯à¦¼": 5051,
      "Ġà¦°à¦¾à¦ĸà¦¤": 5052,
      "Ġà¦¬à¦¿à¦¦à§įà¦¯à¦¾à¦²à¦¯à¦¼": 5053,
      "Ġà§¨à§¦à§§à§®Ġ(": 5054,
      "Ġà¦ªà¦°à¦¿à¦¬à¦¾à¦°à§ĩà¦°Ġà¦ľà¦¨à§įà¦¯": 5055,
      "-à¦ªà¦°à¦¿à¦ļà¦¾à¦²à¦ķ": 5056,
      "à¦¬à¦°à¦¾à¦¹": 5057,
      "à¦¸à¦¿Ġà¦ªà¦°à§Ģà¦ķà§įà¦·": 5058,
      "Ġà¦¶à¦¿à¦¶à§ģà¦¦": 5059,
      "à¦°à§įà¦¯à¦¾à¦¦": 5060,
      "à§ĩà¦ķà§įà¦¸à¦¿à¦ķ": 5061,
      "à§ĩĠà¦¸à¦¬à¦ļà§ĩà¦¯à¦¼": 5062,
      "à§ĩà¦¤à§ĥà¦¤à§įà¦¬à¦¾à¦§à§Ģà¦¨": 5063,
      "à§ģà¦®à¦¤à¦¿Ġà¦ªà§įà¦°à¦¦à¦¾à¦¨": 5064,
      "à§ĩà¦ģà¦Ł": 5065,
      "à§ĩĠà¦¡à¦¾à¦ķ": 5066,
      "Ġà¦ªà§ģà¦°à¦¸à§įà¦ķ": 5067,
      "Ġà¦§à¦°à§įà¦®à§Ģà¦¯à¦¼": 5068,
      "Ġà¦¤à§ĭà¦®à¦¾à¦¦": 5069,
      "âĢĿĊ": 5070,
      "Ġ2015Ġ(1": 5071,
      "à§ĩĠà¦Ĩà¦°à§ĭ": 5072,
      "à¦¤à§ĩĠà¦ļà¦¾à¦ĩà¦²": 5073,
      "à§ĩĠà¦¸à¦®à¦°à§įà¦¥": 5074,
      "Ġà¦Ńà¦¬à¦¨Ġà¦Ńà¦¾à¦Ļ": 5075,
      "à§ĩà¦°Ġà¦¬à§įà¦¯à¦¬à¦§à¦¾à¦¨": 5076,
      "à¥¤Ġà¦¤à¦¾à¦°à¦ª": 5077,
      "à¦¾à¦ķà§įà¦·à¦¾à§İ": 5078,
      "à¦¿à¦¤à§ĩĠà¦¬à§įà¦¯à¦¾à¦²à¦Ł": 5079,
      "Ġà¦¸à¦®à¦¸à§įà¦¯à¦¾à¦°": 5080,
      "Ġà¦²à¦ķà§įà¦·à§įà¦¯": 5081,
      "à¦¿à¦¸à§įà¦Łà§ĩà¦®": 5082,
      "à§ĩĠà§©à§¦": 5083,
      "Ġà¦ªà¦¾à¦łà¦ķ": 5084,
      "à¦¿à¦¬à¦¾à¦°à¦¿à¦ķ": 5085,
      "Ġà¦¶à¦¾à¦¹à¦°": 5086,
      "Ġà¦Ĺà§ĭà¦²à¦¾à¦ª": 5087,
      "Ġà¦¬à§įà¦¯à¦¾à¦ªà¦ķ": 5088,
      "Ġà¦ĩà¦īà¦¨à¦¿à¦¯à¦¼à¦¨Ġà¦ªà¦°à¦¿à¦·à¦¦": 5089,
      "à¦ªà§įà¦²à§ĩà¦Ł": 5090,
      "Ġà¦ªà§įà¦°à¦¸à§įà¦¤à§ģà¦¤": 5091,
      "à§ĩĠà¦¯à¦¾à¦¬à§ĩà¥¤": 5092,
      "à¦¿à¦¦à§įà¦§à¦¾à¦¨à§įà¦¤Ġà¦¨à¦¿à¦¯à¦¼": 5093,
      "à¦¤à¦¿à¦¹à¦¾à¦¸à¦¿à¦ķ": 5094,
      "à§ĩà¦°Ġà¦¡à¦¾à¦ķ": 5095,
      "à¦ŀà§įà¦ļà¦²à¦¿à¦ķ": 5096,
      "à¦ļà¦¿à¦¤à§įà¦°,Ġà¦ħ": 5097,
      "ist": 5098,
      "à§ĩà¦°Ġà¦¸à¦¬à¦ļà§ĩà¦¯à¦¼": 5099,
      "à¥¤Ġà¦Ĩà¦°Ġà¦ı": 5100,
      "à¦ľà§įà¦ŀà¦¾à¦¤": 5101,
      "Ġà¦ªà§įà¦°à¦¿à¦¯à¦¼à¦¤à¦®": 5102,
      "Ġà¦ªà¦¾à¦¬à¦²à¦¿à¦ķ": 5103,
      "Ġà¦¦à§Ģà¦°à§įà¦ĺà¦¦à¦¿à¦¨": 5104,
      "Ġà¦°à¦¾à¦¶à¦¿à¦¯à¦¼à¦¾à¦¨Ġà¦«à§ĩà¦¡à¦¾à¦°à§ĩà¦¶à¦¨Ġ/": 5105,
      "Ġà¦ªà§įà¦°à¦¤à§įà¦¯à¦¾à¦¶": 5106,
      "à§ĩà¦°Ġà¦¸à¦¹à¦ķà¦¾à¦°à§Ģ": 5107,
      "Ġà§¨à§¦à§§à§«Ġ(": 5108,
      "Ġà¦ĵà¦¯à¦¼à§ĩà¦¬à¦¸à¦¾à¦ĩà¦Łà§ĩà¦°Ġà¦ķà§ĭà¦¨à§ĭ": 5109,
      "à§ĩà¦°Ġà¦ªà§įà¦°à¦¤à¦¿à¦¨à¦¿à¦§": 5110,
      "Ġà¦ķà§ĭà¦°à§įà¦Ł": 5111,
      "Ġ2018Ġ(8": 5112,
      "à¦°à§įà¦¡à¦¾à¦°": 5113,
      "Ġà¦ķà¦ªà¦¿à¦°à¦¾à¦ĩà¦Ł": 5114,
      "Ġà¦ħà¦¥à¦ļ": 5115,
      "Ġà¦Ĺà§ĭà¦ªà¦¨": 5116,
      "Ġà¦ĸà¦¬à¦°Ġà¦ª": 5117,
      "à§ĩà¦°Ġà¦ķà¦°à§įà¦®à¦ķà¦°à§įà¦¤": 5118,
      "Ġà¦°à¦¾à¦ľà¦¨à§Īà¦¤à¦¿à¦ķĠà¦¦à¦²": 5119,
      "edĠnews": 5120,
      "à¦¨à¦¬à¦¿à¦²": 5121,
      "à¦¾Ġà¦ļà¦¾à¦²à¦¿à¦¯à¦¼": 5122,
      "à§ĩà¦ķà§įà¦Łà¦°": 5123,
      "Ġà¦ªà§įà¦°à¦¦à¦¤à§įà¦¤": 5124,
      "Ġà¦¥à§ĩà¦ķà§ĩĠà¦®à§ģà¦¦à§įà¦°": 5125,
      "Ġà¦ľà¦¨à¦¾à¦¬Ġà¦®à§ĭà¦ĥĠà¦¶à¦«à¦¿à¦ķ": 5126,
      "Ġà¦¸à§įà¦¥à¦¾à¦ªà¦¨": 5127,
      "à§ĩĠà¦¨à¦¿à¦¤à§ĩĠà¦ªà¦¾à¦°": 5128,
      "à§ĩĠà¦ħà¦¬à¦¸à§įà¦¥à¦¿à¦¤": 5129,
      "Ġà¦ħà¦Ńà¦¿à¦¨à§ĩà¦¤à§įà¦°à§Ģ": 5130,
      "Ġà¦¬à¦¿à¦ļà¦¾à¦°à¦ªà¦¤": 5131,
      "Ġà¦¬à¦¿à¦¸à§įà¦¤à¦¾à¦°à¦¿à¦¤Ċ": 5132,
      "à¦°à¦¾à¦¬à¦°": 5133,
      "Ġà¦¡à§ĩà¦¸à§įà¦ķ:": 5134,
      "Ġà¦ķà§ĭà¦¥à¦¾à¦ĵĠà¦ªà§įà¦°à¦ķà¦¾à¦¶Ġà¦ķà¦°": 5135,
      "à¦ķà§ģà¦®à§ĩà¦¨à§įà¦Ł": 5136,
      "à¦°à§įà¦ªà¦£": 5137,
      "Ġà¦ħà¦°à§įà¦ľà¦¨": 5138,
      "à¦¿à¦®à§įà¦¬à¦¾à¦¬à§ģà¦¯à¦¼": 5139,
      "à¦¾Ġà¦¨à¦¿à¦°à§įà¦¬à¦¾à¦¹à§Ģ": 5140,
      "Ġà¦ĵà¦¯à¦¼à§ĩà¦¸à§įà¦ŁĠà¦Ńà¦¾à¦°à§įà¦ľà¦¿à¦¨à¦¿à¦¯à¦¼": 5141,
      "Ġà¦ħà¦Ńà§įà¦¯à¦¨à§įà¦¤à¦°à§Ģà¦£": 5142,
      "à§ĭà¦¯à¦¼à¦¾à¦ĸà¦¾à¦²à§Ģ": 5143,
      "Ġà¦ĩà¦īà¦¨à¦¿à¦Ł": 5144,
      "Ġà¦ķà¦¿à¦²à§ĭà¦®à¦¿à¦Ł": 5145,
      "à§ĩà¦°Ġà¦®à§ģà¦ĸà§ĭà¦®à§ģà¦ĸ": 5146,
      "Ġà¦ħà¦¨à§ģà¦¸à¦°à¦£Ġà¦ķà¦°": 5147,
      "Ġà¦ĩ-à¦®à§ĩà¦ĩà¦²Ġ-Ġcess": 5148,
      "eadĠ": 5149,
      "pping": 5150,
      "à¦¾à¦°à¦ªà§įà¦°à¦¾à¦ªà§įà¦¤Ġà¦ķà¦°à§įà¦®à¦ķà¦°à§įà¦¤": 5151,
      "à§ģà¦²à¦¤à¦¾à¦¨": 5152,
      "berĠ1": 5153,
      "à¦¿à§İà¦ķà¦¾à¦°": 5154,
      "à¦²à¦¾à¦ĩà¦¨à§įà¦¸": 5155,
      "à¦¯à¦¼Ġà¦¬à¦°à§įà¦·": 5156,
      "Ġà¦¬à¦¸à§ģà¦¨à§įà¦§à¦°à¦¾,": 5157,
      "Ġà¦ıà¦¯à¦¼à¦¾à¦°à¦²à¦¾à¦ĩà¦¨à§įà¦¸": 5158,
      "à§ĩĠà¦Ĩà¦ķà¦¸": 5159,
      "à§ĥà¦£à¦®à§Ĥà¦²": 5160,
      "à¦¾Ġà¦¸à§įà¦¬à¦¾à¦¸à§įà¦¥à§įà¦¯": 5161,
      "à§ĩĠà¦Ńà¦¾à¦²à§ĭà¦¬à¦¾à¦¸": 5162,
      "à¦łà¦¿à¦¤à¦¬à§įà¦¯Ġà¦¦à§ĭâĢĻà¦ĨĠ0": 5163,
      "Ġà¦ĸà§įà¦°à¦¿à¦¸à§įà¦Łà¦¾à¦¨": 5164,
      "à¦¾Ġà¦¸à¦®à§įà¦ªà§Ĥà¦°à§įà¦£Ġà¦¬à§ĩà¦Ĩà¦ĩà¦¨à¦¿": 5165,
      "song": 5166,
      "à§ĩĠà¦¢à§ģà¦ķ": 5167,
      "à¦¾à¦Ĺà¦¡à¦¼à¦¾à¦Ľ": 5168,
      "à¦¬à¦¾à¦°à§įà¦¤à¦¾Ġà¦¸à¦®à§įà¦ªà¦¾à¦¦à¦ķ": 5169,
      "à¦¡à§įà¦°à¦¾à¦ĩà¦Ńà¦¾à¦°": 5170,
      "à¦¾Ġà¦¦à¦¾à¦¯à¦¼à§ĩà¦°Ġà¦ķà¦°": 5171,
      "Ġà¦ªà§įà¦°à¦¶à¦¿à¦ķà§įà¦·à¦£": 5172,
      "@dos.gov.bdĠà¦ķà§įà¦¯à¦¾à¦ªà§įà¦Łà§ĩà¦¨Ġà¦®à§ĭà¦ĥĠà¦Ĺà¦¿à¦¯à¦¼à¦¾à¦¸Ġà¦īà¦¦à§įà¦¦à¦¿à¦¨": 5173,
      "à¦¬à¦¿à¦·à§įà¦¯à¦¤": 5174,
      "à§ĩĠà¦¹à¦¾à¦ľà¦¿à¦°Ġà¦¹": 5175,
      "Ġà¦¡à¦ĥĠà¦ıà¦¸.à¦ıà¦®.Ġà¦¨à¦¾à¦ľà¦®à§ģà¦²Ġà¦¹à¦ķ,Ġà¦ĩà¦ŀà§įà¦ľà¦¿à¦¨à¦¿à¦¯à¦¼à¦¾à¦°Ġà¦ıà¦¨à§įà¦¡Ġà¦¶à¦¿à¦ªĠà¦¸à¦¾à¦°à§įà¦Ńà§ĩà¦¯à¦¼à¦¾à¦°Ġà¦ıà¦¨à§įà¦¡Ġà¦ıà¦ķà§įà¦¸à¦¾à¦®à¦¿à¦¨à¦¾à¦°Ġà¦«à§ĭà¦¨à¦ĥĠà§¯à§«à§®à§Ńà§©à§¦à§¨Ġà¦ĩ-à¦®à§ĩà¦ĩà¦²à¦ĥĠesse": 5176,
      "Ġà¦¬à¦Ľà¦°Ġà¦§à¦°": 5177,
      "ovemberĠ1": 5178,
      "Ġà¦ªà¦°à¦¿à¦¦à¦°à§įà¦¶à¦ķĠà¦«à§ĭà¦¨à¦ĥ": 5179,
      "download": 5180,
      "à§įà¦¯à¦¾à¦®à§įà¦ªà¦¿à¦¯à¦¼à¦¨à§įà¦¸Ġà¦Łà§įà¦°à¦«à¦¿à¦¤": 5181,
      "Ġà¦ľà¦¨à¦¾à¦¬Ġà¦ı,à¦ķà§ĩ,à¦ıà¦®,Ġà¦«à¦ĸà¦°à§ģà¦²Ġà¦ĩà¦¸à¦²à¦¾à¦®,Ġà¦ļà§Ģà¦«Ġà¦ĩà¦ŀà§įà¦ľà¦¿à¦¨à¦¿à¦¯à¦¼à¦¾à¦°Ġà¦ıà¦¨à§įà¦¡Ġà¦¶à¦¿à¦ªĠà¦¸à¦¾à¦°à§įà¦Ńà§ĩà¦¯à¦¼à¦¾à¦°Ġà¦«à§ĭà¦¨à¦ĥĠà§¯à§«à§«à§¦à§®à§¬à§ŃĠà¦®à§ĭà¦¬à¦¾à¦ĩà¦²à¦ĥà§¦à§§à§Ńà§§à§§-à§¯à§ªà§¯à§©à§¨à§ªĠà¦ĩ-à¦®à§ĩà¦ĩà¦²Ġ-Ġcess": 5182,
      ",Ġà¦Ńà¦¿à¦¡à¦¿à¦ĵà¦ļà¦¿à¦¤à§įà¦°,Ġà¦ħ": 5183,
      "Ġà¦ıà¦ķà¦®à¦¤Ġ?Ċ": 5184,
      "à¦¾Ġà¦¨à¦ķà¦²Ġà¦ķà¦°": 5185,
      "à¦¤à§įà¦¤à§ĩà¦«à¦¾à¦ķ/": 5186,
      "à§įà¦¯à¦¾à¦®à§įà¦ªà¦¶à¦¾à¦¯à¦¼à¦¾à¦°": 5187,
      "Ġà¦ĵà¦¯à¦¼à§ĩà¦¬à¦¸à¦¾à¦ĩà¦Łà§ĩà¦°Ġà¦ķà§ĭà¦¨à§ĭĠà¦²à§ĩà¦ĸ": 5188,
      "Ġà¦ķà¦ªà¦¿à¦°à¦¾à¦ĩà¦ŁĠà¦Ĩà¦ĩà¦¨": 5189,
      "Ġà¦¡à¦ĥĠà¦ıà¦¸.à¦ıà¦®.Ġà¦¨à¦¾à¦ľà¦®à§ģà¦²Ġà¦¹à¦ķ,Ġà¦ĩà¦ŀà§įà¦ľà¦¿à¦¨à¦¿à¦¯à¦¼à¦¾à¦°Ġà¦ıà¦¨à§įà¦¡Ġà¦¶à¦¿à¦ªĠà¦¸à¦¾à¦°à§įà¦Ńà§ĩà¦¯à¦¼à¦¾à¦°Ġà¦ıà¦¨à§įà¦¡Ġà¦ıà¦ķà§įà¦¸à¦¾à¦®à¦¿à¦¨à¦¾à¦°Ġà¦«à§ĭà¦¨à¦ĥĠà§¯à§«à§®à§Ńà§©à§¦à§¨Ġà¦ĩ-à¦®à§ĩà¦ĩà¦²à¦ĥĠesse@dos.gov.bdĠà¦ķà§įà¦¯à¦¾à¦ªà§įà¦Łà§ĩà¦¨Ġà¦®à§ĭà¦ĥĠà¦Ĺà¦¿à¦¯à¦¼à¦¾à¦¸Ġà¦īà¦¦à§įà¦¦à¦¿à¦¨": 5190,
      ",Ġà¦Ńà¦¿à¦¡à¦¿à¦ĵà¦ļà¦¿à¦¤à§įà¦°,Ġà¦ħà¦¡à¦¿à¦ĵ": 5191,
      "),Ġà¦¬": 5192,
      ",Ġà¦ıà¦ķà¦Łà¦¿": 5193,
      ",Ġà¦īà¦ªà¦ľà§ĩà¦²": 5194,
      ",à§¦à§¦à§¦/-": 5195,
      ",Ġà¦¬à¦¿à¦ľà§įà¦ŀà¦¾à¦ªà¦¨": 5196,
      ",à¦¬à¦¾à¦°à§įà¦¤à¦¾Ġà¦¸à¦®à§įà¦ªà¦¾à¦¦à¦ķ": 5197,
      "-à§ª": 5198,
      "-à§§à§ª": 5199,
      "0.": 5200,
      "34": 5201,
      "3,50ĠEUR": 5202,
      "64": 5203,
      "8.": 5204,
      "AT": 5205,
      "Ch": 5206,
      "HON": 5207,
      "ReadĠ": 5208,
      "ab": 5209,
      "fi": 5210,
      "gin": 5211,
      "ia": 5212,
      "iv": 5213,
      "igh": 5214,
      "jo": 5215,
      "mentĠ": 5216,
      "os": 5217,
      "qu": 5218,
      "rou": 5219,
      "rahm": 5220,
      "s://": 5221,
      "tu": 5222,
      "um": 5223,
      "¯à§©à§«": 5224,
      "ĠT": 5225,
      "Ġà¥": 5226,
      "ľà§ĩà¦²": 5227,
      "Ġà¦ĭà¦£": 5228,
      "à¦¾'": 5229,
      "à¦¾Ġà§©": 5230,
      "à¦¾...Ċ": 5231,
      "à¦¾/à¦ı": 5232,
      "à§ĩĠà§¨à§¦": 5233,
      "à¦¿/": 5234,
      "à¦¿Ġà¦¶": 5235,
      "à¦¿Ġà¦Ĺ": 5236,
      "à¦¿Ġà¦ıà¦ĩ": 5237,
      "à¦¿à¦°à§įà¦¦": 5238,
      "à¦¿Ġà¦¸à¦Ĥà¦ĺà¦°à§įà¦·": 5239,
      "à¦°,": 5240,
      "à¦°à¦¿à¦¨": 5241,
      "à¦°à¦¾Ġà¦ķ": 5242,
      "à¦°à¦¾Ġà¦¸": 5243,
      "à¦°à¦¾à¦ĵ": 5244,
      "à¦°à¦¾Ġà¦Ĩ": 5245,
      "à¦°à§Ģà¦¨": 5246,
      "à¦°à¦¿à¦¤à§įà¦°": 5247,
      "à¦°à¦¾à¥¤Ċ": 5248,
      "à¦°à¦ķà¦®": 5249,
      "à¦¿à¦Ļà§įà¦ķ": 5250,
      "à§ĩà¦ĺ": 5251,
      "à§ĩà¦Ļà§įà¦Ĺ": 5252,
      "à§ĩĠà¦ł": 5253,
      "à§ĩĠà¦Ńà¦¾à¦Ĺ": 5254,
      "à¦¨à§ĩà¦¤": 5255,
      "à¦¨à¦Ĺà¦°": 5256,
      "à¦¾à¦°/": 5257,
      "à¦¾à¦°à¥¤Ċ": 5258,
      "à¦ķà¦¦": 5259,
      "à¦ķà¦¿à¦¤": 5260,
      "à¦ķà§ĩĠà¦¬à¦²": 5261,
      "à¦ķà§ĩĠà¦¨à¦¿à¦¯à¦¼": 5262,
      "à¦ķà§ĥà¦·": 5263,
      "à¦¾Ġà¦łà¦¿à¦ķ": 5264,
      "à§ĭà¦ľà¦¨": 5265,
      "à¦¤à§ĩĠà¦¨": 5266,
      "à¦¤à¦¿à¦®": 5267,
      "à¦¤à¦ĥ": 5268,
      "à¦¤à§ĭà¦®": 5269,
      "à¦¤à§ĩĠà¦Ĺà¦¿à¦¯à¦¼": 5270,
      "à¦¤à§ĩĠà¦¹à¦¬": 5271,
      "à¦¬à§ĩ": 5272,
      "à¦¬à§ģ": 5273,
      "à¦¬à¦¿à¦¨": 5274,
      "à¦¬à¦¾à¦ĩ": 5275,
      "à¦¬à§ģà¦²": 5276,
      "à¦¬à¦£": 5277,
      "à¦¬à§ĩĠà¦¸": 5278,
      "à¦¬à§ĩà¦¨,": 5279,
      "à¦¬à¦¾à¦¡à¦¼à¦¿": 5280,
      "à¦¬à¦¿à¦ıà¦¨à¦ª": 5281,
      "à¦®à¦¾à¦¤": 5282,
      "à¦®à§ĩà¦¯à¦¼": 5283,
      "à¦®à§Ĥà¦²à¦ķ": 5284,
      "à¦®à¦¸à¦ľà¦¿à¦¦": 5285,
      "à§įà¦°à¦¾à¦Ł": 5286,
      "à§įà¦°à¦¾à¦¨à§įà¦¤": 5287,
      "à¥¤Ġà¦ĵ": 5288,
      "Ġà¦ķà¦¨à§įà¦¯": 5289,
      "Ġà¦ķà§ĩà¦ľ": 5290,
      "Ġà¦ķà§ĭà¦°": 5291,
      "Ġà¦ķà¦¾à¦²à§ĭ": 5292,
      "Ġà¦ķà¦ĸà¦¨à¦ĵ": 5293,
      "Ġà¦ķà¦®à§įà¦ªà¦¿à¦īà¦Łà¦¾à¦°": 5294,
      "Ġà¦ķà§įà¦¯à¦¾à¦®à§ĩà¦°": 5295,
      "à§įà¦¯Ġà¦ªà¦°à¦¿à¦¦à¦°à§įà¦¶à¦ķĠà¦«à§ĭà¦¨à¦ĥ": 5296,
      "à§Ģ,": 5297,
      "à§Ģà¦¹": 5298,
      "à§ĢĠà¦ķà§ĭà¦°à§įà¦¸": 5299,
      "à¦¯à¦¼à§ĩà¦¨à§įà¦Ł": 5300,
      "Ġà¦¸à¦¾à¦¤": 5301,
      "Ġà¦¸à§ĩà¦°": 5302,
      "Ġà¦¸à§ģà¦ĸ": 5303,
      "Ġà¦¸à¦¿à¦¡": 5304,
      "Ġà¦¸à§ĭà¦¹": 5305,
      "Ġà¦¸à§ĥà¦·à§įà¦Ł": 5306,
      "Ġà¦¸à¦¾à¦ĩà¦ľ": 5307,
      "Ġà¦¸à§ģà¦¬à¦¿à¦§": 5308,
      "Ġà¦¸à¦łà¦¿à¦ķ": 5309,
      "Ġà¦¸à¦¾à¦ªà§ĩà¦ķà§įà¦·": 5310,
      "Ġà¦¸à¦¨à§įà¦¦à§ĩà¦¹": 5311,
      "Ġà¦¸à§ĭà¦¨à¦®": 5312,
      "à¦¾à¦¨à¦¾à¦¯à¦¼": 5313,
      "à¦¾à¦¨à§ģà¦®à¦¤à¦¿Ġà¦Ľà¦¾à¦¡à¦¼": 5314,
      "Ġà¦¬à§ģ": 5315,
      "Ġà¦¬à¦¾à¦ķ": 5316,
      "Ġà¦¬à¦¾à¦¬": 5317,
      "Ġà¦¬à§ĭà¦¨": 5318,
      "Ġà¦¬à¦¾à¦§": 5319,
      "Ġà¦¬à¦¾Ġà¦¸": 5320,
      "Ġà¦¬à¦¾à¦°à§įà¦¸": 5321,
      "Ġà¦¬à§ĥà¦·à§įà¦Ł": 5322,
      "Ġà¦¬à¦¿à¦¨à¦¿à¦¯à¦¼à§ĭà¦Ĺ": 5323,
      "Ġà¦ªà¦¾à¦¥": 5324,
      "Ġà¦ªà¦¾à¦°à§įà¦ķ": 5325,
      "à¦¦à¦¿à¦¤": 5326,
      "à¦¦à§ĩà¦°": 5327,
      "à¦¦à§ĩà¦°Ġà¦ķ": 5328,
      "à¦¦à¦°à§ģà¦²": 5329,
      "à¦ªà¦¤à¦¿": 5330,
      "Ġà¦ıà¦²": 5331,
      "Ġà¦ıà¦¶": 5332,
      "Ġà¦ıà¦¬à¦¾à¦°": 5333,
      "Ġà¦ıà¦°Ġà¦ķ": 5334,
      "Ġà¦®à¦¾à¦¤": 5335,
      "Ġà¦®à¦¨à§įà¦¤à§įà¦°": 5336,
      "Ġà¦®à¦¿à¦°à§įà¦ľ": 5337,
      "Ġà¦®à§Įà¦¸à§ģà¦®": 5338,
      "Ġà¦®à¦¿à¦īà¦ľà¦¿à¦ķ": 5339,
      "Ġà¦®à¦¤à¦¿à¦Ŀà¦¿à¦²": 5340,
      "à¦Łà¦¾à¦°": 5341,
      "à¦Łà¦¾Ġà¦¸": 5342,
      "à¦Łà¦¿à¦ı": 5343,
      "à¦Łà¦¾Ġà¦¥à§ĩà¦ķ": 5344,
      "à¦Łà¦¿à¦ĩ": 5345,
      "Ġà¦Ĩà¦°à§įà¦¨": 5346,
      "à§ĩà¦¨à¦¿": 5347,
      "à§ĩà¦¨?Ċ": 5348,
      "Ġà¦¨à¦¾Ġà¦¤": 5349,
      "Ġà¦¨à§ĩà¦ĵà¦¯à¦¼": 5350,
      "à¦°à§įà¦ļ": 5351,
      "Ġà¦¦à§įà¦¯": 5352,
      "Ġà¦¦à¦¾à¦®": 5353,
      "Ġà¦¦à§ģà¦°": 5354,
      "Ġà¦¦à§ģà¦¬": 5355,
      "Ġà¦¦à§ĩà¦¨à¥¤Ċ": 5356,
      "Ġà¦¦à§Ĥà¦°": 5357,
      "Ġà¦¦à¦°à¦¿à¦¦à§įà¦°": 5358,
      "Ġà¦¦à¦¾à¦ģà¦¡à¦¼à¦¿à¦¯à¦¼": 5359,
      "à¦¾à¦²à¦Ľà¦¡à¦¼à¦¿": 5360,
      "à¦¾à¦®à§Ĥà¦²à¦ķ": 5361,
      "à¦¾à¦®à¦¾à¦¯à¦¼à¦¾à¦¤": 5362,
      "à¦Ĺà§įà¦¯à¦¾à¦¸": 5363,
      "à¦Ĺà¦łà¦¨": 5364,
      "à¦Ĺà§ĭà¦·à§įà¦ł": 5365,
      "Ġà¦ķà¦°à§ĩà¦ĩ": 5366,
      "Ġà¦ķà¦°à§ĩ,": 5367,
      "Ġà¦ķà¦°à¦¬à§ĩà¥¤": 5368,
      "Ġà¦ķà¦°à¦¾Ġà¦ıà¦¬à¦Ĥ": 5369,
      "Ġà¦¹à¦¾à¦ĩ": 5370,
      "Ġà¦¹à¦°à¦¤à¦¾à¦²": 5371,
      "Ġà¦¹à§ĥà¦¦à¦¯à¦¼": 5372,
      "à¦¿à¦¨à§įà¦Ł": 5373,
      "à¦¿à¦¨à¦¿à¦®à¦¯à¦¼": 5374,
      "à¦¿à¦ķĠà¦ıà¦²à¦¾à¦ķà¦¾,": 5375,
      "à¦¿à¦ķà¦¿à¦īà¦°à¦¿à¦Ł": 5376,
      "à¦¿à¦¯à¦¼à¦¾-": 5377,
      "à¦¿à¦¯à¦¼à¦¾Ġà¦ĩ": 5378,
      "à¦¾à¦¯à¦¼à¦¤": 5379,
      "à¦¾à¦¯à¦¼Ġà¦Ĩ": 5380,
      "à¦¾à¦¯à¦¼Ġà¦°": 5381,
      "à¦¾à¦¯à¦¼Ġà¦¦à§ģà¦ĩ": 5382,
      "à¦¾à¦¯à¦¼à¦¾à¦°Ġà¦¸à¦¾à¦°à§įà¦Ń": 5383,
      "à¦¾à¦ķà§ĩĠà¦¯": 5384,
      "à¦¾à¦ķà¦¿à¦®": 5385,
      "à¦¹à¦¿": 5386,
      "à¦¿à¦¤à¦¾Ġà¦¬": 5387,
      "à¦¿à¦¤à§ĩĠà¦¤": 5388,
      "Ġà¦¤à¦¾à¦¹": 5389,
      "Ġà¦¤à¦¾à¦²à¦¿à¦ķ": 5390,
      "Ġà¦¤à§ĩà¦®à¦¨": 5391,
      "Ġà¦¤à§įà¦¬à¦ķ": 5392,
      "Ġà¦¤à¦«à¦¸à¦¿à¦²": 5393,
      "à¦ĩà¦¸à§įà¦Ł": 5394,
      "à¦ľà¦¾à¦²à¦¾à¦²": 5395,
      "Ġà¦ľà¦¿à¦¨": 5396,
      "Ġà¦ľà¦¾à¦®à¦¿à¦¨": 5397,
      "Ġà¦ľà¦¨à§įà¦®": 5398,
      "Ġà¦ľà¦¬à¦¾à¦¨": 5399,
      "Ġà¦ľà¦¡à¦¼à¦¿à¦¤": 5400,
      "à§ĩà¦Ľà§ĩĠĠà¦¦à§ĩà¦¶": 5401,
      "Ġà¦ħà¦¸à§įà¦¤": 5402,
      "Ġà¦ħà¦¸à¦Ĥà¦ĸà§įà¦¯": 5403,
      "à§įà¦¬à¦¿à¦ķ": 5404,
      "à§įà¦¬à¦¨à§įà¦§": 5405,
      "à¦¾à¦ĩ,": 5406,
      "à¦¾à¦ĩà¦Ĺà¦¾à¦°": 5407,
      "à¦¾à¦¤à¦¨": 5408,
      "à¦¾à¦¬à¦²": 5409,
      "à¦¾à¦¬à§ĩà¦¨": 5410,
      "à¦¾à¦¦à¦¾à¦°à§Ģ": 5411,
      "à¦¾à¦¸à¦ķ": 5412,
      "à¦¾à¦¸à¦¿à¦¨": 5413,
      "à¦¾à¦¸à¦¾à¦¯à¦¼": 5414,
      "à¦¾à¦¸à¦¿à¦®": 5415,
      "à¦¾à¦¸à¦ªà§ĭà¦°à§įà¦Ł": 5416,
      "âĢį": 5417,
      "à¦¿à¦²à¦¿à¦¯à¦¼à¦¾à¦°": 5418,
      "à¦¿à¦²à§įà¦¯à¦¾à¦¨à§įà¦¡": 5419,
      "à¦£à¦¿à¦ķ": 5420,
      "à¦£à§įà¦ł": 5421,
      "à¦£à¦¤à¦¨à§įà¦¤à§įà¦°": 5422,
      "à§¦à¦Łà¦¿": 5423,
      "à§ĩà¦ķà§ĭà¦¨à§ĭ": 5424,
      "Ġà¦°à¦¿à¦¯à¦¼": 5425,
      "Ġà¦°à¦¾à¦īà¦¨à§įà¦¡": 5426,
      "à¦¶à§įà¦°à¦¯à¦¼": 5427,
      "à¦¶à§ĭà¦°Ġà¦ª": 5428,
      "Ġà¦ªà§įà¦°à¦¸": 5429,
      "Ġà¦ªà§įà¦°à¦¾à¦°à§įà¦¥": 5430,
      "Ġà¦ªà§įà¦°à¦¾à¦ķà§ĥà¦¤à¦¿à¦ķ": 5431,
      "à§ĩĠà¦ªà§Ĥà¦°à§įà¦¬": 5432,
      "à§ĩĠà¦ªà¦¾à¦ķà¦¿à¦¸à§įà¦¤à¦¾à¦¨": 5433,
      "à¦Ńà¦¬": 5434,
      "à¦Ńà¦¿à¦¨": 5435,
      "à¦Ńà§Ĥà¦¤": 5436,
      "Ġà¦¶à§įà¦°à§Ģ": 5437,
      "Ġà¦¶à§ģà¦§à§ģà¦®à¦¾à¦¤à§įà¦°": 5438,
      "à§ĩĠà¦¬à§įà¦°": 5439,
      "à§ĩĠà¦¬à¦¿à¦¶à§ĩà¦·": 5440,
      "à§ĩĠà¦¬à¦¿à¦¦à§ĩà¦¶": 5441,
      "Ġà¦ĵĠà¦ľ": 5442,
      "Ġà¦ĵà¦°à¦«": 5443,
      "Ġà¦¬à¦¿à¦Ł": 5444,
      "à¦¡à¦¼à¦¾à¦²": 5445,
      "à¦¡à¦¼à¦¾à¦¤": 5446,
      "à§ĩĠà¦¸à§Į": 5447,
      "à§ĩĠà¦¸à¦°à§įà¦¬": 5448,
      "à§ĩĠà¦¸à¦®à¦¯à¦¼": 5449,
      "à§ĩĠà¦¸à§įà¦¥à¦¾à¦¨à§Ģà¦¯à¦¼": 5450,
      "à§ĩĠà¦¸à¦«à¦²": 5451,
      "à§ĩĠà¦¸à¦ľà§įà¦ľà¦¿à¦¤": 5452,
      "Ġà¦Ĺà§ģà¦£": 5453,
      "à¦Ľà§ĩà¦¨à¥¤": 5454,
      "à¦Ľà¦¿à¦²à¦¾à¦®": 5455,
      "à§ĥà¦¬à§ĥ": 5456,
      "Ġà¦¯à¦¾à¦¤à§įà¦°": 5457,
      "Ġà¦¯à¦¾à¦ļà¦¾à¦ĩ": 5458,
      "Ġà¦¯à¦¶à§ĭà¦°Ġà¦ª": 5459,
      "à¦¾à¦¹à¦¾à¦ľ": 5460,
      "à¦¾à¦¹à§įà¦®": 5461,
      "à¦¾à¦ªà¦¾à¦¡à¦¼": 5462,
      "à§Ĥà¦ĸ": 5463,
      "Ġà¦ļà¦¾à¦¯à¦¼": 5464,
      "Ġà¦ļà¦¾à¦ĩ": 5465,
      "Ġà¦ļà¦¾à¦°à§įà¦Ł": 5466,
      "Ġà¦ļà§įà¦¯à¦¾à¦¨à§ĩà¦²": 5467,
      "à§ĩà¦ĩà¦ľ": 5468,
      "à§ĩà¦ĩà¥¤Ċ": 5469,
      "à¦ĸà¦°à§ģà¦²": 5470,
      "à§ĩà¦°Ġà¦¸à§įà¦¥": 5471,
      "à§ĩà¦°Ġà¦¸à¦Ńà¦¾à¦ªà¦¤à¦¿à¦¤à§įà¦¬": 5472,
      "à¦¾à¦Ĺà¦¾à¦¨": 5473,
      "à¦¾à¦Ĺà§ģà¦²à§ĭ": 5474,
      "Ġà¦ĩà¦¨à¦ķ": 5475,
      "Ġà¦ĩà¦¤à§įà¦¤à§ĩà¦«à¦¾à¦ķ/": 5476,
      "à¦ĵà¦ĩ": 5477,
      "Ġà¦Ńà§įà¦°à¦¾à¦®": 5478,
      "Ġà¦«à¦¾à¦īà¦¨à§įà¦¡": 5479,
      "Ġà¦«à¦¿à¦ļà¦¾à¦°": 5480,
      "Ġà¦īà§İà¦¸": 5481,
      "à§ĭà¦¨à¦¾à¦Ĺà¦¾à¦Ľ": 5482,
      "à¦¥à§ĩà¦·à§įà¦Ł": 5483,
      "à§ĩĠà¦¨à¦¯à¦¼": 5484,
      "à¦ķà§įà¦·à¦¯à¦¼": 5485,
      "Ġà¦²à¦¾à¦ĩà¦¸à§ĩà¦¨à§įà¦¸": 5486,
      "à¦¿à¦¸à¦¾à¦¬": 5487,
      "à¦¿à¦¸Ġà¦ıà¦°Ġà¦": 5488,
      "à¦¾Ġà¦¹à¦¿à¦¸à§ĩà¦¬": 5489,
      "à¦¾à¦°à§įà¦®": 5490,
      "à§ĩĠà¦¦à§ĭâĢĻà¦ĨĠ0": 5491,
      "à§ĩĠà¦¦à¦¾à¦¯à¦¼à¦¿à¦¤à§įà¦¬": 5492,
      "à§ĩĠà¦ķà§įà¦·à¦®à¦¤": 5493,
      "à¦«à§ĭà¦°à¦¾à¦®": 5494,
      "à¦¾Ġà¦ķà§ĭà¦¨à§ĭ": 5495,
      "à§ĩà¦°Ġ(à¦¬": 5496,
      "à¦¿à¦¶à¦¨à¦¾à¦°": 5497,
      "Ġà¦ĸà§ĩà¦¤": 5498,
      "Ġà¦ĸà¦¨à§įà¦¦": 5499,
      "âĢĻĠà¦¨à¦¾à¦®": 5500,
      "à¦¾à¦¡à¦¼à¦¿à¦¯à¦¼": 5501,
      "Ġà¦ıà¦ķà¦¾à¦īà¦¨à§įà¦Ł": 5502,
      "Ġà¦ıà¦ķà¦¾à¦¡à§ĩà¦®": 5503,
      "à§ģà¦¨à¥¤": 5504,
      "à§ĩà¦Łà¦¿à¦ķ": 5505,
      "à¦¾Ġà¦¬à¦¨à§įà¦§": 5506,
      "à¦¾Ġà¦¬à¦¾Ġà¦ħà¦¨à§įà¦¯": 5507,
      "à¦¾Ġà¦¬à¦¾Ġà¦Ľà¦¬à¦¿": 5508,
      "à§ĩà¦¯à¦¼à¦¾à¦°Ġà¦ķà¦°": 5509,
      "Ġà¦¹à¦¯à¦¼à§ĩĠà¦Ĺ": 5510,
      "Ġà¦¹à¦¯à¦¼à¦¤à§ĭ": 5511,
      "Ġà¦Ľà¦¯à¦¼": 5512,
      "à¦¾à¦ļà§įà¦ļ": 5513,
      "à¦¾à¦¶à§įà¦®": 5514,
      "Ġà§¨.": 5515,
      "Ġà§¨à§®": 5516,
      "à§įà¦²à¦¬": 5517,
      "à§ĩĠà¦¹à¦¿à¦®": 5518,
      "à§ĩà¦°Ġà¦®à§ĭà¦Ł": 5519,
      "à§ĩà¦°Ġà¦®à¦¾à¦²à¦¿à¦ķ": 5520,
      "à¦Ĩà¦²": 5521,
      "à§ĩĠà¦¤à¦¾à¦ĩ": 5522,
      "à§ĩĠà¦¤à§ĭà¦²": 5523,
      "à§Įà¦°": 5524,
      "à§Įà¦¡à¦¼": 5525,
      "à§ĩĠà¦®à¦¾à¦¸": 5526,
      "à§ĩĠà¦®à§ĥà¦¤": 5527,
      "à§ĩĠà¦®à¦¨à§įà¦¤à¦¬à§įà¦¯": 5528,
      "à§ĩĠà¦®à¦¨à§įà¦¦à¦¿à¦°": 5529,
      "à¦ıà¦¦à¦¿à¦ķ": 5530,
      "à§ĩà¦°Ġà¦¬à¦¿à¦¶à§įà¦¬": 5531,
      "à§ĩà¦°Ġà¦¬à¦¿à¦ľà§įà¦ŀ": 5532,
      "à§ĩà¦°Ġà¦ķà¦¾à¦ī": 5533,
      "à§ĩà¦°Ġà¦ķà§įà¦·à¦®à¦¤": 5534,
      "à¦¿à¦ľà§ĩà¦¨": 5535,
      "à¦¾Ġà¦ªà¦°à¦¿à¦ļà¦¾à¦²à¦ķ": 5536,
      "Ġà¦Łà§ĩà¦¸à§įà¦Ł": 5537,
      "Ġà¦Łà§ĩà¦²à¦¿à¦Ńà¦¿à¦¶à¦¨": 5538,
      "à¦¿à¦®à§įà¦¨": 5539,
      "à¦¿à¦®à¦¾Ġà¦Ń": 5540,
      "à§ĩà¦Ľà§ĩà¦¨Ġà¦¬à¦²": 5541,
      "à¦¾à¦Łà¦®à§ĭà¦¹": 5542,
      "ĠâĢĿ": 5543,
      "à§ĩà¦®à§ĭà¦ķ": 5544,
      "à§ĩà¦®à¦ªà§įà¦²à§ĩà¦Ł": 5545,
      "à¥¤Ġà¦ıà¦Łà¦¿": 5546,
      "à¥¤Ġà¦ıà¦®à¦¨à¦ķà¦¿": 5547,
      "Ġà¦¡à¦¿Ġà¦¬": 5548,
      "Ġà¦¡à¦¾à¦ĥ": 5549,
      "Ġà¦¡à¦ķà§ģà¦®à§ĩà¦¨à§įà¦Ł": 5550,
      "Ġà¦¡à§ĩà¦®à§ĭà¦ķ": 5551,
      "à§ĩĠà¦Ĺà¦¡à¦¼": 5552,
      "Ġà¦¸à¦Ĥà¦°à¦ķà§įà¦·à¦£": 5553,
      "à¦¬à¦¾à¦°à§ĩà¦°Ġà¦®à¦¤à§ĭ": 5554,
      "à§«à§©": 5555,
      "à§ĩ,Ġà¦ıà¦®": 5556,
      "à§Ģà¦°Ġà¦¹": 5557,
      "à§Ģà¦°Ġà¦ľ": 5558,
      "à§ĩà¦¦à¦ķ": 5559,
      "à¦¾,Ġà¦¢à¦¾à¦ķà¦¾-à§§à§¨": 5560,
      "à¦¾,à¦®à¦¾à¦®à¦²": 5561,
      "à§ĩĠà¦ľà¦Ļà§įà¦Ĺ": 5562,
      "à¦¾Ġà¦¨à¦¿à¦¶à§įà¦ļà¦¿à¦¤": 5563,
      "Ġà¦ªà¦°à¦¾à¦ľ": 5564,
      "Ġà¦¤à¦¾à¦°à¦ķ": 5565,
      "Ġà¦¤à¦¾à¦°à§ĩà¦ķ": 5566,
      "Ġà¦¤à¦¾à¦°à¦ªà¦°": 5567,
      "à¦°à§įà¦¤à¦¿": 5568,
      "à¦°à§įà¦¤à§ĥà¦ķ": 5569,
      "à§įà¦®à§ĥà¦¤": 5570,
      "à§ĩĠà¦°à¦ķà§įà¦·": 5571,
      "à§įà¦¨à¦¾à¦¤": 5572,
      "à§ĩĠà¦ļà¦¾à¦ĩ": 5573,
      "à§įà¦°à§Ģà¦¡à¦¼": 5574,
      "à§ĩà¦°Ġà¦ľà¦¾à¦¨": 5575,
      "à§įà¦¯à¦¾à¦¨à§įà¦Ł": 5576,
      "à§įà¦¯à¦¾à¦¨à§įà¦¸": 5577,
      "Ġà¦¨à¦¿à¦°à§įà¦¦": 5578,
      "à§ĩĠà¦ªà§įà¦°à¦¸à§įà¦¤": 5579,
      "à¦¾Ġà¦¦à¦²": 5580,
      "à¦¾Ġà¦¦à¦¿à¦¨": 5581,
      "à¦¾Ġà¦¦à§ĩà¦¬": 5582,
      "à¦¾Ġà¦Ĩà¦ª": 5583,
      "à¦¾Ġà¦Ĩà¦ķà§įà¦¤": 5584,
      "à¦¾Ġà¦Ĩà¦¦à¦¾à¦¯à¦¼": 5585,
      "à¦¤à§įà¦¯à¦¾Ġà¦®à¦¾à¦®à¦²à¦¾à¦°": 5586,
      "à§ĩà¦°Ġà¦ħà¦Ńà¦¾à¦¬": 5587,
      "à§ĩà¦°Ġà¦ħà¦Ńà¦¿à¦¯à§ĭà¦Ĺ": 5588,
      "à¦īà¦¦à§įà¦¦à§Ģà¦¨": 5589,
      "à¦¿à¦¨à¦¿à¥¤": 5590,
      "à§ĩĠà¦ıà¦ķà¦ĩ": 5591,
      "à§ĩĠà¦ıà¦ķà¦¾à¦§à¦¿à¦ķ": 5592,
      "Ġà¦ľà¦¾à¦¨à¦¾à¦²": 5593,
      "à¦ķà§įà¦¤à¦¿à¦Ĺà¦¤": 5594,
      "à§®à§«": 5595,
      "à§®à§ª": 5596,
      "à¦¾Ġà¦®à§ģ": 5597,
      "à§ĩà¦°Ġà¦¦à§įà¦¬à¦¿à¦¤à§Ģà¦¯à¦¼": 5598,
      "à§ĩà¦°Ġà¦¨à¦¿à¦¯à¦¼": 5599,
      "à§ĩà¦°Ġà¦¨à¦¤à§ģà¦¨": 5600,
      "Ġà¦Ĩà¦²à§Ģ": 5601,
      "à§¯à§¦": 5602,
      "à¦¤à§įà¦°à¦¿à¦ķà¦¾à¦°": 5603,
      "Ġà¦ľà¦¨à¦Ĺà§ĭà¦·à§įà¦ł": 5604,
      "à¦¸à¦²à¦¾à¦®à§Ģ": 5605,
      "à§ĭà¦Łà§ĩà¦²": 5606,
      "Ġà¦¦à§ģà¦°à§įà¦¦": 5607,
      "à¦¾Ġà¦ľà¦¾à¦¤à§Ģà¦¯à¦¼": 5608,
      "Ġà¦ªà§įà¦°à¦¤à¦¿à¦°": 5609,
      "Ġà¦ªà§įà¦°à¦¤à¦¿à¦¦à¦¿à¦¨": 5610,
      "à§ĩĠà¦¶à§įà¦°": 5611,
      "à§ĩĠà¦¶à§ģà¦¨": 5612,
      "à§ĩĠà¦¶à¦¹à¦°": 5613,
      "à§ĩĠà¦¶à§ĩà¦ĸĠà¦¹à¦¾à¦¸à¦¿à¦¨": 5614,
      "à¦¾à¦«à¦¨à§ĩà¦°Ġà¦ķ": 5615,
      "à¦¾à¦«à§ģà¦«": 5616,
      "à§§Ġà¦¸à¦¾à¦²": 5617,
      "Ġà§¨à§¦à§§à§¨": 5618,
      "à¦¾à¦Ĥà¦ļà§ģà¦°Ġà¦": 5619,
      "à¦°Ġà¦ªà§ģà¦²à¦¿à¦¶": 5620,
      "à¦¾Ġà¦ħà¦¬à§įà¦¯à¦¾à¦¹à¦¤": 5621,
      "à§ģà¦¦à¦¿à¦¨": 5622,
      "à§ĩĠà¦Ĩà¦®à¦¾à¦ķ": 5623,
      "Ġà¦Ĩà¦°Ġà¦¯": 5624,
      "Ġà¦¸à¦®à§įà¦ªà§įà¦°": 5625,
      "Ġà¦¸à¦®à§įà¦ªà¦¦": 5626,
      "Ġà¦¸à¦®à§įà¦ªà§įà¦°à¦¤à¦¿": 5627,
      "Ġà¦ķà§ĭà¦ļ": 5628,
      "Ġà¦ķà§ĭà¦·à§įà¦Ł": 5629,
      "à¦¨à§įà¦¤à§įà¦°à¦¾à¦¸": 5630,
      "à¦ªà§ģà¦°Ġà¦®": 5631,
      "à¦ªà§ģà¦°Ġà¦ĩà¦īà¦¨à¦¿à¦¯à¦¼à¦¨": 5632,
      "à§ĩà¦°Ġà¦Ĩà¦²": 5633,
      "à§ĩà¦°Ġà¦Ĩà¦®": 5634,
      "à¥¤Ġà¦¤à¦¾à¦¦": 5635,
      "Ġà¦®à¦¾à¦¨à¦¸à¦¿à¦ķ": 5636,
      "à¦¾à¦īà¦¦à§įà¦¦à¦¿à¦¨": 5637,
      "à¦¬à¦¹à¦¾à¦°": 5638,
      "à¦¤à§ĩĠà¦ªà¦¾à¦°à§ĩà¥¤": 5639,
      "à¦¤à§ĩĠà¦ªà¦¾à¦°à§ĩà¥¤Ċ": 5640,
      "à¦¾à¦¤à§įà¦°à¦²à§Ģà¦Ĺ": 5641,
      "à§įà¦ŀà¦¾à¦¨": 5642,
      "à¦¨Ġà¦ķà¦°à§ĩà¦¨": 5643,
      "à¦²à¦¾à¦ķà¦¾à¦²": 5644,
      "à§ĩà¦Ľà¦¿à¦²à¥¤": 5645,
      "à§ĩà¦°Ġà¦®à¦§à§įà¦¯Ġà¦¦à¦¿à¦¯à¦¼": 5646,
      "à¦°Ġà¦¸à¦¹": 5647,
      "à¦°Ġà¦¸à¦®à¦¯à¦¼": 5648,
      "à¦¾-à¦ķà¦°à§įà¦®": 5649,
      "à¦¾Ġà¦Ĺà§ĩà¦²": 5650,
      "à¦¾Ġà¦Ĺà§ĭà¦²": 5651,
      "à¦¾Ġà¦¤à¦¾à¦°": 5652,
      "à¦¾Ġà¦¤à§Īà¦°": 5653,
      "à¦°Ġà¦ķà¦°à§įà¦¤à§ĥà¦ķ": 5654,
      "Ġà¦¬à¦Ľà¦°Ġà¦ª": 5655,
      "à¦¾Ġà¦ĵĠà¦¸": 5656,
      "Ġà§¦.": 5657,
      "Ġà§¦à§§à§¯": 5658,
      "Ġà¦ĵà¦¯à¦¼à¦¾à¦²": 5659,
      "Ġà¦ĵà¦¯à¦¼à¦¾à¦°à§įà¦²": 5660,
      "Ġà¦ħà¦Ńà¦¿à¦ľà§įà¦ŀà¦¤": 5661,
      "à§ģà¦Łà¦¾à¦¨": 5662,
      "à¦¾Ġà¦°à¦¾à¦ľ": 5663,
      "à¦¾Ġà¦°à¦¾à¦¸à§įà¦¤": 5664,
      "Ġà¦¨à¦¿à¦°à§įà¦¬à¦¾à¦ļà¦¨Ġà¦ķà¦®à¦¿à¦¶à¦¨": 5665,
      "à¦°Ġà¦Ĩà¦²": 5666,
      "à¦ªà¦°à§įà¦¯à¦¾à¦¯à¦¼": 5667,
      "à¦¾à¦¨à§ĭà¦°Ġà¦ľà¦¨à§įà¦¯": 5668,
      "à¦¿Ġà¦¨à§ĩà¦¤": 5669,
      "à¦¿Ġà¦¨à¦¿à¦§": 5670,
      "à¦¾Ġà¦¶à§ģà¦°": 5671,
      "à¦¾Ġà¦¶à¦¾à¦ĸ": 5672,
      "à¦¾Ġà¦¶à§ģà¦§à§ģ": 5673,
      "an70": 5674,
      "Ġà¦Łà¦¾à¦ķà¦¾à¥¤": 5675,
      "à§ĩà¦°Ġà¦Ńà§Ĥ": 5676,
      "à¦°à§įà¦ľà¦¨Ġà¦ķà¦°": 5677,
      "à§ĩĠà¦Ľà§ĭà¦Ł": 5678,
      "à§ĩĠà¦Ľà¦¿à¦²à§ĩà¦¨": 5679,
      "à§ĩĠà¦Ľà§ģà¦°à¦¿à¦ķ": 5680,
      "à§ĩà¦°Ġà¦¶à¦¿à¦°": 5681,
      "à§ĩà¦°Ġà¦¶à§ģà¦°à§ģ": 5682,
      "à§ĩĠà¦ľà¦¾à¦¨à¦¾Ġà¦¯à¦¾à¦¯à¦¼": 5683,
      "ers": 5684,
      "à§ĭà¦¹à¦¾à¦®à§įà¦®à¦¦": 5685,
      "Ġà¦®à¦¨à¦¿à¦°": 5686,
      "Ġà§¬à§¦": 5687,
      "à§ģà¦¯à¦¼à¦¾à¦²": 5688,
      "à§ĭà¦¯à¦¼à§ĩà¦¨à§įà¦¦": 5689,
      "à¦¾à¦Ńà¦¾à¦¬à¦¿à¦ķ": 5690,
      "Ġà¦ĩà¦īà¦ª": 5691,
      "à§ĩà¦¹à§ĩà¦¤à§ģ": 5692,
      "Ġà¦Ĩà¦®à¦¾à¦¦à§ĩà¦°à¦ķ": 5693,
      "Ġà¦¨à§ĩà¦¤à¦¾à¦¦": 5694,
      "à§ĩà¦°Ġà¦¸à¦Ļà§įà¦Ĺà§ĩĠà¦¬": 5695,
      "Ġà¦Ĩà¦®à¦°à¦¾Ġà¦ķ": 5696,
      "à§įà¦¯à¦¾à¦ķà§ĩà¦ľ": 5697,
      "Ġà¦ªà§įà¦°à¦ķà¦¾à¦¶à¦ķ,": 5698,
      "à§ĩà¦°Ġà¦¹à¦¯à¦¼": 5699,
      "Ġà¦¤à¦¾à¦ģà¦°Ġà¦ª": 5700,
      "Ġà¦¬à¦¿à¦·à¦¯à¦¼à¦ķ": 5701,
      "Ġà¦¸à¦¬à¦¾à¦ĩ": 5702,
      "Ġà¦¨à¦¯à¦¼,": 5703,
      "à§ĩĠà¦¹à¦¯à¦¼à§ĩà¦Ľ": 5704,
      "à¦¿à¦·à§įà¦Łà¦¾à¦¨": 5705,
      "Ġà¦ķà¦¿à¦Ľà§ģà¦ĩ": 5706,
      "à§ĩĠà¦ıà¦ĩà¦ļ-à¦Ĩà¦ĩ-à¦Ń": 5707,
      "âĢĮà¦ļà¦¿à¦¬": 5708,
      "Ġà¦¸à¦¾à¦®à§įà¦ªà§įà¦°à¦¤à¦¿à¦ķ": 5709,
      "à¦Łà¦ķà¦®": 5710,
      "à§ĩà¦«à¦¾à¦ľà¦¤": 5711,
      "à¦¨à§įà¦¸à¦¿à¦²": 5712,
      "à¦ŀà§įà¦ļà¦®": 5713,
      "à¦¤à¦¿à¦¬à¦¾à¦¦": 5714,
      "à¦¤à¦¿à¦¬à§ĩà¦¦à¦¨": 5715,
      "à§ĩà¦°Ġà¦²à¦¾à¦¶": 5716,
      "à§įà¦¤à§ĥà¦ķ": 5717,
      "Ġà¦ıà¦¸Ġà¦ıà¦®": 5718,
      "Ġà¦ªà§įà¦°à¦§à¦¾à¦¨à¦®à¦¨à§įà¦¤à§įà¦°à§Ģ": 5719,
      ".comĊ": 5720,
      "à¦ªà¦¤à§įà¦°Ġà¦ľà¦®": 5721,
      "Ġà¦ķà¦°à§įà¦®à¦ķà¦°à§įà¦¤à¦¾à¦¦": 5722,
      "à¦¿Ġà¦¹à¦¬": 5723,
      "à¦¿Ġà¦¯à§ĭà¦Ĺ": 5724,
      "à¦°à¦¿à¦¬à§ĩà¦¶": 5725,
      "à§ģà¦°Ġà¦°à¦¹à¦®à¦¾à¦¨Ġà¦®à§ģà¦ĸ": 5726,
      ",Ġà¦ļà¦Łà§įà¦Łà¦Ĺà§įà¦°à¦¾à¦®": 5727,
      "à§ĩĠà§§à§¨": 5728,
      "à¦¬à¦¸à¦¾à¦¯à¦¼": 5729,
      "à¦¾à¦¹à¦¿à¦¨à§Ģ": 5730,
      "Ġà¦¹à¦¯à¦¼à§ĩà¦Ľà§ĩĠà¦¬à¦²": 5731,
      "Ġà¦¹à§ĭà¦¸à§ĩà¦¨Ġà¦ļà§Įà¦§à§ģà¦°à§Ģ": 5732,
      "à§ĩà¦°Ġà¦Ľà§ĭà¦Ł": 5733,
      "Ġà¦¬à¦¾à¦¸à§ĩà¦°Ġà¦ļà¦¾à¦ª": 5734,
      "à¦°à§įà¦¨à¦¿": 5735,
      "à§ĩà¥¤Ġà¦ıĠà¦¸à¦®à¦¯à¦¼": 5736,
      "Ġà¦ĵĠà¦¸à§ĩà¦¤à§ģà¦®à¦¨à§įà¦¤à§įà¦°à§Ģ": 5737,
      "à¦°à¦¿à¦¶à§ĭà¦§": 5738,
      "à§ģà¦Ĺà¦²": 5739,
      "à§ģà¦Ĺà§įà¦®": 5740,
      "Ġà¦ªà§įà¦²à¦¾à¦¸": 5741,
      "à¦ľà§įà¦ľà§įà¦¬à¦²": 5742,
      "à§ĩĠà¦ªà§ģà¦²à¦¿à¦¶à¥¤": 5743,
      "Ġà¦¶à¦¿à¦ķà§įà¦·à¦¾à¦¬à¦°à§įà¦·": 5744,
      "à¦¾Ġà¦«à§ĭà¦¨": 5745,
      "à¦¾ĠS": 5746,
      "Ġà¦ķà¦°à¦¾Ġà¦¹à¦¯à¦¼à¥¤Ċ": 5747,
      "Ġà¦¬à¦¿à¦®à¦¾à¦¨à¦¬à¦¨à§įà¦¦": 5748,
      "à¦°Ġà¦ħà¦°à§įà¦¥": 5749,
      "Ġà¦Ńà¦¾à¦¬à§ĩà¦ĩ": 5750,
      "à§ĩĠà¦¦à§ģâĢĻ": 5751,
      "à§ĩĠà¦¦à§ģà¦°à§įà¦¬": 5752,
      "Ġà¦Ńà¦¾à¦²à§ĭĠà¦®à¦¾à¦¨": 5753,
      "Ġà¦ħà¦¬à¦¸à§įà¦¥à¦¾à¦¨": 5754,
      "Ġà¦Ńà¦¾à¦°à¦¤à§Ģà¦¯à¦¼": 5755,
      "à¦ĥĠms": 5756,
      "Ġà¦ķà¦°à§ĩà¦¨à¦¨à¦¿": 5757,
      "Ġà¦ľà¦®à¦¿à¦¦à¦¾à¦°": 5758,
      "à§ĩà¦°Ġà¦«à¦²": 5759,
      "Ġà¦®à§ĩà¦¯à¦¼à§ĩà¦¦": 5760,
      "Ġ(à§©à§¨": 5761,
      "Ġà¦ħà¦§à¦¿à¦¦à¦ªà§įà¦¤à¦°Ġà¦ķà¦°à§įà¦¤à§ĥà¦ķ": 5762,
      "à§ĩà¦°Ġà¦ĸà§ĩà¦²": 5763,
      "à§įà¦¯à¦¾à¦¬à¦²à§ĩà¦Ł": 5764,
      "Ġà§§à§¯à§Ń": 5765,
      "Ġ2017Ġ(11": 5766,
      "Ġà¦ĩà¦®à¦¾à¦®": 5767,
      "refer": 5768,
      "à¦°Ġà¦īà¦ª": 5769,
      "à¦¾à¦°à¦ªà¦¾à¦¶": 5770,
      "à¦¸à§ģà¦¸à§įà¦¥": 5771,
      "à§ĩà¦°Ġà¦¬à¦¿à¦°à§ģà¦¦à§įà¦§à§ĩĠà¦®à¦¿à¦¥à§įà¦¯": 5772,
      "à§ĥà¦¤à§įà¦¯à§ģ": 5773,
      "à¦¨à¦¸à¦¿à¦²à¦¿à¦¯à¦¼à¦¾à¦°": 5774,
      "Ġà¦¸à¦¨à¦¦ĠÂ·": 5775,
      "Ġà¦¦à¦¶à¦ķ": 5776,
      "Ġà¦¬à¦¿à¦¬à¦°à¦£": 5777,
      "à§ĩà¦°Ġà¦¬à§įà¦¯à¦¬à¦¸à§įà¦¥": 5778,
      "ĠÂłĠà¦ĩà¦¤à§įà¦¤à§ĩà¦«à¦¾à¦ķ/": 5779,
      "à§ĩà¦Ńà¦¾à¦°": 5780,
      "à¦ķà¦°à¦¨": 5781,
      "Ġà¦ªà¦¦à§įà¦§à¦¤à¦¿": 5782,
      "à¦¿à¦¯à¦¼à§ĩĠà¦¦à§ĩà¦¯à¦¼": 5783,
      "à§¨à§ª.à¦ķà¦®": 5784,
      "à§Ģà¦°Ġà¦ķà¦¾à¦Ľ": 5785,
      "à¦¾Ġà¦¹à¦¬à§ĩĠà¦¬à¦²": 5786,
      "Ġà¦¨à¦¿à¦°à§įà¦§à¦¾à¦°à¦£": 5787,
      "theĠ": 5788,
      "Ġà¦ªà§įà¦°à¦¸à§įà¦¤à¦¾à¦¬": 5789,
      "à§ĩà¦°Ġà¦ªà¦ķà§įà¦·Ġà¦¥à§ĩà¦ķ": 5790,
      "Ġà¦ªà¦¾à¦ĵà¦¯à¦¼à¦¾Ġà¦Ĺà§ĩà¦Ľà§ĩà¥¤": 5791,
      "Ġà¦¹à¦¤à§įà¦¯à¦¾Ġà¦ķà¦°": 5792,
      "Ġà¦ªà§įà¦°à¦¤à¦¿à¦¨à¦¿à¦§à¦¿Ġ:": 5793,
      "à§ĩà¦°Ġà¦§à¦°à§įà¦®": 5794,
      "Ġà¦°à§ĩà¦ľà¦¿à¦¸à§įà¦Łà§įà¦°à§ĩà¦¶à¦¨": 5795,
      "à§ĩĠà¦Ĺà¦¤à¦ķà¦¾à¦²": 5796,
      "à§Ģà¦°Ġà¦¬à¦¿à¦°à§ģà¦¦à§įà¦§": 5797,
      "à§ĩĠà¦°à¦¾à¦ľà¦§à¦¾à¦¨": 5798,
      "Ġà¦Ĩà¦ªà¦¨à¦¿à¦ĵ": 5799,
      "Ġ2018Ġ(15": 5800,
      "Ġ2018Ġ(162": 5801,
      "Ġà¦ķà§įà¦²à¦¿à¦ķ": 5802,
      "à¦¾à¦¬à¦¾à¦¦à§Ģ": 5803,
      "à§ĩĠà¦¨à¦¿à¦°à§įà¦¬à¦¾à¦ļà¦¨Ġà¦ķà¦®à¦¿à¦¶à¦¨": 5804,
      "à¦¸à§Ĥà¦ļà¦¿": 5805,
      "ele": 5806,
      "Ġà¦°à¦¾à¦¸à§įà¦¤à¦¾à¦¯à¦¼": 5807,
      "à§ĩĠà¦Ĩà¦¨à¦¨à§įà¦¦": 5808,
      "à§Ģà¦°Ġà¦®à¦§à§įà¦¯": 5809,
      "Ġà¦¸à§įà¦ªà§ĩà¦¨Ġ/": 5810,
      "Ġà¦ªà¦¤à§įà¦°à¦¿à¦ķà¦¾à¦°": 5811,
      "Ġ(à¦¸à¦¾.": 5812,
      "à§ĩà¦°Ġà¦ĺà¦Łà¦¨à¦¾Ġà¦ĺà¦Ł": 5813,
      "Ġà¦¸à¦¿à¦Łà¦¿Ġà¦ķà¦°à¦ªà§ĭà¦°à§ĩà¦¶à¦¨": 5814,
      "Ġà¦ĩà¦Ĥà¦°à§ĩà¦ľ": 5815,
      "Ġà¦Ńà§Ĥà¦®": 5816,
      "à¦¾Ġà¦ħà¦¨à§ģà¦·à§įà¦łà¦¾à¦¨": 5817,
      "à¦¿à¦ıà¦¸à¦ĩ": 5818,
      "à¦¾Ġà¦ªà§įà¦°à¦¦à¦¾à¦¨Ġà¦ķà¦°à¦¤à§ĩĠà¦¹à¦¬à§ĩà¥¤": 5819,
      "Ġ2018Ġ(9": 5820,
      "Ġà¦ªà§įà¦°à¦¶à§įà¦¨à§ĩà¦°Ġà¦ľà¦¬à¦¾à¦¬": 5821,
      "Ġà¦¸à¦°à§įà¦¬à¦¸à§įà¦¬à¦¤à§įà¦¬": 5822,
      "Ġà¦®à¦¤à¦¾à¦®à¦¤": 5823,
      "ack": 5824,
      "aper": 5825,
      "Ġà¦¸à§ĩà¦¬à¦¾Ġà¦ªà§įà¦°à¦¦à¦¾à¦¨": 5826,
      "Ġà¦¦à¦¾à¦¬à¦¿Ġà¦ķà¦°": 5827,
      "à¦¾Ġà¦¸à¦Ĥà¦¸à§įà¦¥": 5828,
      "à¦¾à¦°Ġà¦Ńà¦¾à¦°à¦ªà§įà¦°à¦¾à¦ªà§įà¦¤Ġà¦ķà¦°à§įà¦®à¦ķà¦°à§įà¦¤": 5829,
      "à¦¸à¦Ļà§įà¦Ĺà¦¤": 5830,
      "Ġà¦ªà¦¾à¦²à¦¨": 5831,
      "Ġà¦ªà§įà¦°à¦¯à§ģà¦ķà§įà¦¤à¦¿": 5832,
      "Ġà¦ķà§ĥà¦·à¦¿": 5833,
      "à§ĩĠà¦ªà§įà¦°à¦ķà¦¾à¦¶à¦¿à¦¤Ġà¦ıà¦¬à¦Ĥ": 5834,
      "-à§¨à§¦à§§à§®": 5835,
      "Ġà¦ħà¦¸à§įà¦Łà§įà¦°à§ĩà¦²": 5836,
      "Ġà¦Łà¦¿Ġà¦ªà¦°à¦¿à¦¬à¦¾à¦°à§ĩà¦°Ġà¦ľà¦¨à§įà¦¯": 5837,
      "à§ĩà¦°Ġà¦ħà¦¨à§įà¦¯à¦¾à¦¨à§įà¦¯": 5838,
      "à§ĩĠà¦ħà¦Ńà¦¿à¦¯à§ĭà¦Ĺà¦ªà¦¤à§įà¦°": 5839,
      "à¦Ļà§įà¦Ĺà¦¬à¦¨à§įà¦§à§ģĠà¦¶à§ĩà¦ĸĠà¦®à§ģà¦ľà¦¿à¦¬": 5840,
      "Ġà¦¸à¦Ĥà¦¶à§ĭà¦§à¦¨": 5841,
      "Ġà¦¸à¦Ĥà¦¶à§ĭà¦§à¦¨à§Ģ": 5842,
      "à§įà¦¯à¦¾à¦¤à¦¨": 5843,
      "à¦¸à¦®à§įà¦ªà¦¾à¦¦à¦ķ,à¦¬à¦¾à¦°à§įà¦¤à¦¾Ġà¦¸à¦®à§įà¦ªà¦¾à¦¦à¦ķ": 5844,
      "Ġà¦¤à§įà¦°à¦¿à¦ªà§ģà¦°": 5845,
      "Ġà¦Ńà¦¿à¦¤à§įà¦¤à¦¿à¦¤à§ĩĠà¦¬à§įà¦¯à¦¾à¦²à¦Ł": 5846,
      "Ġà¦īà¦¦à¦¯à¦¾à¦ªà¦¨": 5847,
      "à§ĩà¦°Ġà¦¬à§ĩà¦¶à¦¿": 5848,
      "à¦¾Ġà¦°à¦¯à¦¼à§ĩà¦Ľà§ĩà¥¤": 5849,
      "à§ģà¦Ńà§ĩà¦ļà§įà¦Ľ": 5850,
      "à¦¬à¦¦à§įà¦§Ġà¦¹à¦¯à¦¼": 5851,
      "Ġà¦¬à¦¦à¦²": 5852,
      "Ġà¦¬à¦ķà§įà¦¸Ġà¦ĸà¦¾à¦ģ": 5853,
      "Ġà¦¨à¦¾à¦Łà¦ķ": 5854,
      "Ġà¦ĩà¦¨à§įà¦Łà¦¾à¦°à¦¨à§ĩà¦Ł": 5855,
      "à§ĩĠà¦¯à§Įà¦¨à¦ķà¦°à§įà¦®à§Ģà¦¦": 5856,
      "à¦¾Ġà¦¸à¦¬à¦¾à¦ĩ": 5857,
      "à¦¾Ġà¦¨à¦¿à¦ľà§ĩà¦¦": 5858,
      "Ġà¦ħà¦Ńà§įà¦¯à¦¨à§įà¦¤à¦°à§Ģà¦¨": 5859,
      "à§ĭà¦¯à¦¼à¦¾à¦ĸà¦¾à¦²": 5860,
      "Ġà¦¨à§ĩà¦¤à¦¾à¦ķà¦°à§įà¦®à§Ģà¦¦": 5861,
      "Ġà§¦à§§à§Ńà§§à§§à§¯à§©à§«": 5862,
      "Ġà¦ķà¦¿à¦²à§ĭà¦®à¦¿à¦Łà¦¾à¦°": 5863,
      "Ġcan": 5864,
      "à¦¾à¦°à§įà¦¬à¦¿à¦ķ": 5865,
      "à¦¿à¦Łà¦ķà¦¯à¦¼à§ĩà¦¨": 5866,
      "à¦¾à¦§à¦¿à¦ķà¦¾à¦°Ġà¦¸à¦Ĥà¦°à¦ķà§įà¦·à¦¿à¦¤": 5867,
      "Ġà¦ªà¦°à§įà¦¯à¦¬à§ĩà¦ķà§įà¦·": 5868,
      "Ġà¦ħà¦¬à¦¶à§įà¦¯à¦ĩ": 5869,
      "à§ĩĠà¦Ĺà§įà¦°à§ĩà¦ªà§įà¦¤à¦¾à¦°": 5870,
      "Ġ2016Ġ(129": 5871,
      "Ġà¦ĸà¦¾à¦¦à§įà¦¯": 5872,
      "Ġà¦ħà¦¨à§ģà¦®à¦¤à¦¿Ġà¦Ľà¦¾à¦¡à¦¼à¦¾Ġà¦¨à¦ķà¦²Ġà¦ķà¦°": 5873,
      "Ġà¦ľà¦¾à¦¨à¦¾à¦¯à¦¼,": 5874,
      "à¦¾Ġà¦ħà¦¨à§ģà¦¯à¦¾à¦¯à¦¼à§Ģ": 5875,
      "Ġà¦Ĩà¦ªà¦¿à¦²Ġà¦¬à¦¿à¦Ńà¦¾à¦Ĺ": 5876,
      "à¦°Ġà¦¬à§įà¦¯à¦¬à¦¸à§įà¦¥": 5877,
      "Ġà¦Ĩà¦¹à§įà¦¬à¦¾à¦¨Ġà¦ľà¦¾à¦¨à¦¿à¦¯à¦¼à§ĩà¦Ľà§ĩà¦¨": 5878,
      "Ġà¦¸à¦®à§ģà¦¦à§įà¦°à¦Ĺà¦¾à¦®à§ĢĠà¦ľà¦¾à¦¹à¦¾à¦ľ": 5879,
      "à¦£à§įà¦¡à§ĭà¦®Ġà¦¬à§įà¦¯à¦¬à¦¹à¦¾à¦°Ġà¦ķà¦°à¦¤": 5880,
      "à§ĩà¦ıà¦®": 5881,
      "Ġà¦ıà¦ľà§ĩà¦¨à§įà¦Ł": 5882,
      "Ġà¦®à¦¾à¦ĩà¦ķà§įà¦°à§ĭ": 5883,
      "Ġà¦ħà§įà¦¯à¦¾à¦ķà¦¾à¦īà¦¨à§įà¦Ł": 5884,
      "Ġà¦ĩà¦¨à§įà¦¸à¦Łà¦¿à¦Łà¦¿à¦īà¦Ł": 5885,
      "Ġà¦ıà¦ķà¦¾à¦¦à¦¶Ġà¦ľà¦¾à¦¤à§Ģà¦¯à¦¼Ġà¦¸à¦Ĥà¦¸à¦¦Ġà¦¨à¦¿à¦°à§įà¦¬à¦¾à¦ļà¦¨": 5886,
      "à§ĩà¦°Ġà¦¦à§ĭâĢĻà¦ĨĠ01": 5887,
      "Ġà¦Ĩà¦¬à§ĩà¦¦à¦¨à¦ªà¦¤à§įà¦°": 5888,
      "Ġà¦ªà§įà¦²à¦ŁĠà¦¨à¦Ĥ": 5889,
      "Ġà¦ĩà¦®à§ĩà¦ĩà¦²à¦ĥĠms": 5890,
      "Ġà¦¬à§įà¦¯à¦¾à¦²à¦ŁĠà¦¬à¦¾à¦ķà§įà¦¸": 5891,
      "à¦¬à¦¿à¦¸à§įà¦¤à¦¾à¦°à¦¿à¦¤Ċ": 5892,
      "Ġà¦ķà¦ĸà¦¨à§ĭà¦ĩ": 5893,
      "Ġà¦¸à§ĩà¦ķà§ĩà¦¨à§įà¦¡": 5894,
      "à¦¦à§Īà¦¨à¦¿à¦ķĠà¦¯à¦¶à§ĭà¦°Ġà¦ª": 5895,
      "à¦¾à¦¤à§įà¦®à¦ķ": 5896,
      "à¦¶à§ĥà¦Ļà§įà¦ĸà¦²à¦¾Ġà¦¬à¦¾à¦¹à¦¿à¦¨": 5897,
      "à¦¿à¦Łà¦¨à§ĩà¦¸": 5898,
      "Ġà¦ªà¦°à¦¿à¦ķà¦²à§įà¦ªà¦¨": 5899,
      "à¦¿à¦¶à§įà¦ļà¦¯à¦¼à¦ĩ": 5900,
      "Ġà¦ľà¦Ļà§įà¦Ĺà¦¿à¦¬à¦¾à¦¦": 5901,
      "Ġà¦ªà§Įà¦°à¦¸à¦Ń": 5902,
      "à§Ģà¦ķà¦¾à¦°à§ĭà¦ķà§įà¦¤à¦¿à¦®à§Ĥà¦²à¦ķ": 5903,
      "Ġà¦Ńà§Ĥà¦®à¦¿à¦ķà¦®à§įà¦ª": 5904,
      "/à¦ªà§įà¦°à¦ļà¦¾à¦°à¦¿à¦¤": 5905,
      "BanglaĠ": 5906,
      "Łà¦¾à¦ķà¦¾Ġà¦ľà¦®": 5907,
      "à§Ĥà¦¡à¦¼à¦¾à¦¨à§įà¦¤": 5908,
      "à§ĩĠà¦¦à¦¾à¦¬à¦¿Ġà¦ķà¦°": 5909,
      "Ġà¦Ĩà¦²à¦¹à¦¾à¦ľà§įà¦¬": 5910,
      "Ġà¦®à¦¹à¦¾à¦ªà¦°à¦¿à¦ļà¦¾à¦²à¦ķ,": 5911,
      "Ġà¦¤à§Īà¦°à¦¿Ġà¦ıà¦¬à¦ĤĠà¦¹à¦¸à§įà¦¤à¦¾à¦¨à§įà¦¤à¦°": 5912,
      "à§§à§¯à§¬Ġà¦ĩà¦®à§ĩà¦ĩà¦²à¦ĥĠms": 5913,
      "Ġhttps://": 5914,
      "Ġ-ĠâĤ¬Ġ53,50ĠEUR": 5915,
      "à¦¤à§ģà¦°à§įà¦¥": 5916,
      "à¦¾à¦²à§ĩà¦¦à¦¾Ġà¦ľà¦¿à¦¯à¦¼à¦¾à¦°": 5917,
      "Ġà¦¹à¦¾à¦ĵà¦²à¦¾à¦¦à¦¾à¦°": 5918,
      "à§ĩĠà¦ªà§įà¦°à¦¦à¦¤à§įà¦¤": 5919,
      "Ġà¦¸à§įà¦¬à¦¤à§įà¦¬à¦¾à¦§à¦¿à¦ķà¦¾à¦°Ġà¦¸à¦Ĥà¦°à¦ķà§įà¦·à¦¿à¦¤": 5920,
      "Ġà¦ĩà¦īà¦ıà¦¸ĠĠ": 5921,
      "Ġà¦ľà¦¨à¦¾à¦¬Ġà¦®à§ĭà¦ĥĠà¦¶à¦«à¦¿à¦ķà§ģà¦°Ġà¦°à¦¹à¦®à¦¾à¦¨Ġà¦®à§ģà¦ĸ": 5922,
      "Ġà¦ķà§ĭà¦¥à¦¾à¦ĵĠà¦ªà§įà¦°à¦ķà¦¾à¦¶Ġà¦ķà¦°à¦¾Ġà¦¸à¦®à§įà¦ªà§Ĥà¦°à§įà¦£Ġà¦¬à§ĩà¦Ĩà¦ĩà¦¨à¦¿": 5923,
      "à§ĩà¦°Ġà¦®à§ģà¦ĸà§ĭà¦®à§ģà¦ĸà¦¿Ġà¦¸à¦Ĥà¦ĺà¦°à§įà¦·": 5924,
      "à¦¾à¦Ĺà¦¡à¦¼à¦¾à¦Ľà¦¡à¦¼à¦¿": 5925,
      "Ġà¦ĵà¦¯à¦¼à§ĩà¦¬à¦¸à¦¾à¦ĩà¦Łà§ĩà¦°Ġà¦ķà§ĭà¦¨à§ĭĠà¦²à§ĩà¦ĸà¦¾Ġà¦¬à¦¾Ġà¦Ľà¦¬à¦¿": 5926,
      "Ġà¦ķà¦ªà¦¿à¦°à¦¾à¦ĩà¦ŁĠà¦Ĩà¦ĩà¦¨à§ĩĠà¦ªà§Ĥà¦°à§įà¦¬": 5927,
      "HONE": 5928,
      "rahman70": 5929,
      "Ġà¥¥": 5930,
      "à§įà¦¯Ġà¦ªà¦°à¦¿à¦¦à¦°à§įà¦¶à¦ķĠà¦«à§ĭà¦¨à¦ĥĠà§¦à§§à§Ńà§§à§§à§¯à§©à§«": 5931,
      "à¦¾à¦¯à¦¼à¦¾à¦°Ġà¦¸à¦¾à¦°à§įà¦Ńà¦¿à¦¸": 5932,
      "Ġà¦ľà¦¬à¦¾à¦¨à¦¬à¦¨à§įà¦¦": 5933,
      "à§ĥà¦¬à§ĥà¦¨à§įà¦¦": 5934,
      "Ġà¦«à¦¾à¦īà¦¨à§įà¦¡à§ĩà¦¶à¦¨": 5935,
      "à¦¿à¦¸Ġà¦ıà¦°Ġà¦Łà¦¾à¦ķà¦¾Ġà¦ľà¦®": 5936,
      "Ġà¦ĸà¦¨à§įà¦¦à¦ķà¦¾à¦°": 5937,
      "à¦¾Ġà¦¬à¦¾Ġà¦ħà¦¨à§įà¦¯Ġà¦ķà§ĭà¦¥à¦¾à¦ĵĠà¦ªà§įà¦°à¦ķà¦¾à¦¶Ġà¦ķà¦°à¦¾Ġà¦¸à¦®à§įà¦ªà§Ĥà¦°à§įà¦£Ġà¦¬à§ĩà¦Ĩà¦ĩà¦¨à¦¿": 5938,
      "à¦¾,Ġà¦¢à¦¾à¦ķà¦¾-à§§à§¨à§¨à§¯": 5939,
      "à¦¾,à¦®à¦¾à¦®à¦²à¦¾Ġà¦ªà§įà¦°à¦¤": 5940,
      "à¦¤à§įà¦°à¦¿à¦ķà¦¾à¦°Ġà¦ªà§įà¦°à¦ķà¦¾à¦¶à¦ķ,": 5941,
      "à¦¾à¦«à¦¨à§ĩà¦°Ġà¦ķà¦¾à¦ªà¦¡à¦¼": 5942,
      "Ġà¦ķà§ĭà¦·à§įà¦Łà¦¾à¦²": 5943,
      "Ġà¦ĵà¦¯à¦¼à¦¾à¦°à§įà¦²à§įà¦¡": 5944,
      "referenc": 5945,
      "à§ĩà¦°Ġà¦¬à¦¿à¦°à§ģà¦¦à§įà¦§à§ĩĠà¦®à¦¿à¦¥à§įà¦¯à¦¾,à¦®à¦¾à¦®à¦²à¦¾Ġà¦ªà§įà¦°à¦¤": 5946,
      "à¦¨à¦¸à¦¿à¦²à¦¿à¦¯à¦¼à¦¾à¦°à§ĢĠà¦ķà§ĭà¦°à§įà¦¸": 5947,
      "à¦¸à¦®à§įà¦ªà¦¾à¦¦à¦ķ,à¦¬à¦¾à¦°à§įà¦¤à¦¾Ġà¦¸à¦®à§įà¦ªà¦¾à¦¦à¦ķà§ĩà¦°Ġà¦¬à¦¿à¦°à§ģà¦¦à§įà¦§à§ĩĠà¦®à¦¿à¦¥à§įà¦¯à¦¾,à¦®à¦¾à¦®à¦²à¦¾Ġà¦ªà§įà¦°à¦¤": 5948,
      "Ġà¦ħà¦¨à§ģà¦®à¦¤à¦¿Ġà¦Ľà¦¾à¦¡à¦¼à¦¾Ġà¦¨à¦ķà¦²Ġà¦ķà¦°à¦¾Ġà¦¬à¦¾Ġà¦ħà¦¨à§įà¦¯Ġà¦ķà§ĭà¦¥à¦¾à¦ĵĠà¦ªà§įà¦°à¦ķà¦¾à¦¶Ġà¦ķà¦°à¦¾Ġà¦¸à¦®à§įà¦ªà§Ĥà¦°à§įà¦£Ġà¦¬à§ĩà¦Ĩà¦ĩà¦¨à¦¿": 5949,
      "à¦¦à§Īà¦¨à¦¿à¦ķĠà¦¯à¦¶à§ĭà¦°Ġà¦ªà¦¤à§įà¦°à¦¿à¦ķà¦¾à¦°Ġà¦ªà§įà¦°à¦ķà¦¾à¦¶à¦ķ,": 5950,
      "à§Ģà¦ķà¦¾à¦°à§ĭà¦ķà§įà¦¤à¦¿à¦®à§Ĥà¦²à¦ķĠà¦ľà¦¬à¦¾à¦¨à¦¬à¦¨à§įà¦¦": 5951,
      "à§§à§¯à§¬Ġà¦ĩà¦®à§ĩà¦ĩà¦²à¦ĥĠmsrahman70": 5952,
      "Ġà¦ľà¦¨à¦¾à¦¬Ġà¦®à§ĭà¦ĥĠà¦¶à¦«à¦¿à¦ķà§ģà¦°Ġà¦°à¦¹à¦®à¦¾à¦¨Ġà¦®à§ģà¦ĸà§įà¦¯Ġà¦ªà¦°à¦¿à¦¦à¦°à§įà¦¶à¦ķĠà¦«à§ĭà¦¨à¦ĥĠà§¦à§§à§Ńà§§à§§à§¯à§©à§«": 5953,
      "Ġà¦ĵà¦¯à¦¼à§ĩà¦¬à¦¸à¦¾à¦ĩà¦Łà§ĩà¦°Ġà¦ķà§ĭà¦¨à§ĭĠà¦²à§ĩà¦ĸà¦¾Ġà¦¬à¦¾Ġà¦Ľà¦¬à¦¿Ġà¦ħà¦¨à§ģà¦®à¦¤à¦¿Ġà¦Ľà¦¾à¦¡à¦¼à¦¾Ġà¦¨à¦ķà¦²Ġà¦ķà¦°à¦¾Ġà¦¬à¦¾Ġà¦ħà¦¨à§įà¦¯Ġà¦ķà§ĭà¦¥à¦¾à¦ĵĠà¦ªà§įà¦°à¦ķà¦¾à¦¶Ġà¦ķà¦°à¦¾Ġà¦¸à¦®à§įà¦ªà§Ĥà¦°à§įà¦£Ġà¦¬à§ĩà¦Ĩà¦ĩà¦¨à¦¿": 5954,
      "à¦¦à§Īà¦¨à¦¿à¦ķĠà¦¯à¦¶à§ĭà¦°Ġà¦ªà¦¤à§įà¦°à¦¿à¦ķà¦¾à¦°Ġà¦ªà§įà¦°à¦ķà¦¾à¦¶à¦ķ,à¦¸à¦®à§įà¦ªà¦¾à¦¦à¦ķ,à¦¬à¦¾à¦°à§įà¦¤à¦¾Ġà¦¸à¦®à§įà¦ªà¦¾à¦¦à¦ķà§ĩà¦°Ġà¦¬à¦¿à¦°à§ģà¦¦à§įà¦§à§ĩĠà¦®à¦¿à¦¥à§įà¦¯à¦¾,à¦®à¦¾à¦®à¦²à¦¾Ġà¦ªà§įà¦°à¦¤": 5955,
      "à§§à§¯à§¬Ġà¦ĩà¦®à§ĩà¦ĩà¦²à¦ĥĠmsrahman70@gmail.comĊ": 5956,
      "Ġà¦ľà¦¨à¦¾à¦¬Ġà¦®à§ĭà¦ĥĠà¦¶à¦«à¦¿à¦ķà§ģà¦°Ġà¦°à¦¹à¦®à¦¾à¦¨Ġà¦®à§ģà¦ĸà§įà¦¯Ġà¦ªà¦°à¦¿à¦¦à¦°à§įà¦¶à¦ķĠà¦«à§ĭà¦¨à¦ĥĠà§¦à§§à§Ńà§§à§§à§¯à§©à§«à§§à§¯à§¬Ġà¦ĩà¦®à§ĩà¦ĩà¦²à¦ĥĠmsrahman70@gmail.comĊ": 5957,
      "),": 5958,
      ")Ġ": 5959,
      ")Ġà¦¬": 5960,
      ")Ġà¦ĵ": 5961,
      ")Ġà¦¯": 5962,
      ")Ġà¦«à§ĭà¦¨à¦ĥĠà§¯à§«à§«": 5963,
      ",Ġà§«": 5964,
      ",Ġà§ª": 5965,
      ",Ġà¦Ĩà¦ĩ": 5966,
      ",Ġà¦«à§ĭà¦¨à¦ĥĠà§¯à§«à§«": 5967,
      "-Ġà¦ı": 5968,
      "-à§¦": 5969,
      "-à¦¶": 5970,
      "-à§«": 5971,
      "-à¦ī": 5972,
      "-à§®": 5973,
      ".C": 5974,
      ".Ġà¦¦à§ĭâĢĻà¦Ĩ": 5975,
      "31": 5976,
      "3)Ġà¦®à§ĩ": 5977,
      "89": 5978,
      "90": 5979,
      "An": 5980,
      "KY": 5981,
      "MS": 5982,
      "More": 5983,
      "OM": 5984,
      "SS": 5985,
      "Un": 5986,
      "af": 5987,
      "be": 5988,
      "beĠ": 5989,
      "du": 5990,
      "for": 5991,
      "ow": 5992,
      "por": 5993,
      "raĠ": 5994,
      "so": 5995,
      "ut": 5996,
      "veĠ": 5997,
      "vir": 5998,
      "©à§©à§©": 5999,
      "©Ġà¦¸à¦°à§įà¦¬à¦¸à§įà¦¬à¦¤à§įà¦¬": 6000,
      "®à¦¾à¦£": 6001,
      "Â»Ċ": 6002,
      "Â©Ġà¦¸à¦°à§įà¦¬à¦¸à§įà¦¬à¦¤à§įà¦¬": 6003,
      "Ġ\"": 6004,
      "ĠX": 6005,
      "Ġs": 6006,
      "Ġx": 6007,
      "ĠĠà¦°": 6008,
      "ķà¦°": 6009,
      "à¦¢à¦¼": 6010,
      "Ġà¦§à§": 6011,
      "à¦¾/": 6012,
      "à¦¾à¦Ī": 6013,
      "à§ĩĠà§®": 6014,
      "à§įà¦Ĺ": 6015,
      "à¦¿Ġà¦Ĩà¦²": 6016,
      "à¦¿Ġà¦Ĩà¦ĩà¦¨": 6017,
      "à¦°à¦¬": 6018,
      "à¦°à¦ĩ": 6019,
      "à¦°à§ĩà¦°Ġà¦¸": 6020,
      "à¦°à§ĭà¦Ĺ": 6021,
      "à¦°à¦¾Ġà¦ª": 6022,
      "à¦°à§ĭà¦§": 6023,
      "à¦°à¦¸à¦¿à¦Ĥ": 6024,
      "à¦°à§ģà¦°à¦¿": 6025,
      "à¦¿à¦Ĩà¦ĩ": 6026,
      "à§ĩà¦¥": 6027,
      "à§ĩà¦ŀà§įà¦ļ": 6028,
      "à§ĩĠà¦Ī": 6029,
      "à¦¨à¦Ĺ": 6030,
      "à¦¨à¦Ĥ": 6031,
      "à¦¨à¦¾à¦Ł": 6032,
      "à¦°Ġà¦ĩ": 6033,
      "à¦¾à¦°à¦®": 6034,
      "à¦¾à¦°à¦¿à¦¶": 6035,
      "à¦¾à¦°à¦¿à¦ĸ": 6036,
      "à¦¾à¦°Ġà¦ªà§įà¦°à¦§à¦¾à¦¨": 6037,
      "à¦¾à¦°à¦¾à¦¬à¦¾à¦¹à¦¿à¦ķ": 6038,
      "à¦¾à¦°Ġà¦¨à§ĩà¦¤à§ĥà¦¤à§įà¦¬": 6039,
      "à§ģĠà¦¬": 6040,
      "à§ģà¦ľà¦¨": 6041,
      "à¦ķà§ĭ": 6042,
      "à¦ķĠà¦®": 6043,
      "à¦ķà§ĩà¦ĩ": 6044,
      "à¦ķà§ĩĠà¦ı": 6045,
      "à¦ķà§ĩà¦°": 6046,
      "à¦ķà¦¾à¦Ł": 6047,
      "à¦ķà§ĩĠà¦ıà¦ķ": 6048,
      "à¦ķĠà¦¦à¦²": 6049,
      "à¦ķà¦¿à¦Ĺà¦ŀà§įà¦ľ": 6050,
      "à¦ķà§ĩĠà¦¹à¦¤à§įà¦¯à¦¾Ġà¦ķà¦°": 6051,
      "à¦ķà§ĩĠ(": 6052,
      "à¦ķà¦¯à¦¼à§ĩà¦¨": 6053,
      "à¦²à¦¿": 6054,
      "à¦²à§ĩĠà¦ķ": 6055,
      "à¦²à¦¿à¦¶": 6056,
      "à¦²Ġà¦ıà¦¬à¦Ĥ": 6057,
      "à¦¾Ġà¦¢": 6058,
      "à¦¾Ġà¦¥": 6059,
      "à§ĭà¦¤à§įà¦°": 6060,
      "à§ĭà¦¯à§ĭà¦Ĺ": 6061,
      "à¦¤Ġà¦ķà¦°": 6062,
      "à¦¤à¦¾à¦¬": 6063,
      "à¦¤à§ĩ,": 6064,
      "à¦¤à¦¿à¦ª": 6065,
      "à¦¤à¦¾à¥¤": 6066,
      "à¦¤à¦¾Ġà¦Ĩ": 6067,
      "à¦¤à¦¾à¦°Ġà¦¸": 6068,
      "à¦¤à§Ģà¦¤": 6069,
      "à¦¤à¦¾Ġà¦ĵ": 6070,
      "à¦¤à¦¾à¦¨à§įà¦¤à§įà¦°à¦¿à¦ķ": 6071,
      "à¦¬à¦¤": 6072,
      "à¦¬à¦¿à¦²": 6073,
      "à¦¬à¦¾à¦¹": 6074,
      "à¦¬à§įà¦²": 6075,
      "à¦¬à§Ī": 6076,
      "à¦¬à¦¸à§įà¦¤": 6077,
      "à¦¬à¦°à§įà¦·": 6078,
      "à¦¬à§ĩĠà¦ıà¦ĩ": 6079,
      "à¦¬à¦¨à§įà¦¦à¦°": 6080,
      "à¦¬à¦¿à¦¶à§ĩà¦·": 6081,
      "à¦¬à¦¾à¦¤à¦¿": 6082,
      "à¦®à¦ķ": 6083,
      "à¦®à¦¿à¦²": 6084,
      "à¦®à¦¿à¦Ł": 6085,
      "à¦®Ġà¦ıà¦¬à¦Ĥ": 6086,
      "à¦®à¦¾à¦°à§įà¦ķ": 6087,
      "à¦®à¦Ļà§įà¦Ĺà¦²à¦¬à¦¾à¦°": 6088,
      "à¦®à¦ľà¦¾à¦¨": 6089,
      "à¦®Ġà¦ľà¦¾à¦¤à§Ģà¦¯à¦¼Ġà¦¸à¦Ĥà¦¸à¦¦Ġà¦¨à¦¿à¦°à§įà¦¬à¦¾à¦ļà¦¨": 6090,
      "à¦®Ġà¦¤à¦²à¦¾)": 6091,
      "à¦®à¦¾à¦°à§įà¦Łà¦¿à¦¨": 6092,
      "à§įà¦°à¦¬à§įà¦¯": 6093,
      "à¥¤Ġà¦Ĩà¦®à¦¾à¦¦": 6094,
      "à¥¤Ġà¦ħà¦¨à§ĩà¦ķ": 6095,
      "Ġà¦ķà¦¿à¦ī": 6096,
      "Ġà¦ķà¦·à§įà¦Ł": 6097,
      "Ġà¦ķà§įà¦°à¦®": 6098,
      "Ġà¦ķà§įà¦¯à¦¾à¦°": 6099,
      "Ġà¦ķà§įà¦°à¦¯à¦¼": 6100,
      "Ġà¦ķà¦¿à¦¶à§ĭà¦°à¦Ĺà¦ŀà§įà¦ľ": 6101,
      "Ġà¦ķà§ĩ,Ġà¦ıà¦®": 6102,
      "à§įà¦¯,": 6103,
      "à§įà¦¯à¦¾à¦ģ": 6104,
      "à§įà¦¯à¦¤à¦¾à¦°": 6105,
      "à§įà¦¯à¦ķà¦¾à¦²à§Ģà¦¨": 6106,
      "à§ĢĠà¦ķà¦°": 6107,
      "à¦¯à¦¼à§ĩà¦²": 6108,
      "à¦¯à¦¼à§ĭà¦Ĺ": 6109,
      "Ġà¦¸à¦¾à¦¬": 6110,
      "Ġà¦¸à¦¾à¦¹": 6111,
      "Ġà¦¸à§ĩà¦®": 6112,
      "Ġà¦¸à§įà¦Łà§įà¦°": 6113,
      "Ġà¦¸à¦¿à¦¨à¦¿à¦¯à¦¼": 6114,
      "Ġà¦¸à¦Ńà¦¾à¦¯à¦¼": 6115,
      "Ġà¦¸à§ĩà¦¨à¦¾à¦¬à¦¾à¦¹à¦¿à¦¨": 6116,
      "Ġà¦¸à§ĩà¦¤à§ģ": 6117,
      "Ġà¦¸à¦¾à¦¹à¦¿à¦¤à§įà¦¯": 6118,
      "Ġà¦¸à¦¾à¦Ĺà¦°": 6119,
      "Ġà¦¸à¦¤à¦°à§įà¦ķ": 6120,
      "Ġà¦¸à¦¨à§įà¦¤à§įà¦°à¦¾à¦¸à§Ģ": 6121,
      "Ġà¦¸à¦¿à¦¸à§įà¦Łà§ĩà¦®": 6122,
      "à¦¾à¦¨à¦¨à§įà¦¦": 6123,
      "à¦¾à¦¨à§ĩà¦°Ġà¦®à¦¾à¦§à§įà¦¯à¦®": 6124,
      "à¦¾à¦¨à¦¾à¦ĸà¦¨à§įà¦¦": 6125,
      "à¦¸à¦¾à¦¨": 6126,
      "à¦¸à¦¾à¦¥": 6127,
      "à¦¸à¦®à§įà¦ª": 6128,
      "à¦¸à¦Ńà¦¾à¦ªà¦¤à¦¿": 6129,
      "à¦¸à¦®à§įà¦¯à¦¾à¦¨": 6130,
      "à¦¸à§įà¦Łà§įà¦°à§ĩà¦²": 6131,
      "Ġà¦¬à¦¿à¦°à§ĭà¦§": 6132,
      "Ġà¦¬à§ĥà¦¹à¦¸à§įà¦ªà¦¤à¦¿à¦¬": 6133,
      "Ġà¦¬à¦Ĺà§ģà¦¡à¦¼": 6134,
      "Ġà¦¬à¦¿à¦ķà§įà¦·à§ĭà¦Ń": 6135,
      "Ġà¦ªà§ĭ": 6136,
      "Ġà¦ªà§ĩà¦²": 6137,
      "Ġà¦ªà¦¿à¦¸": 6138,
      "Ġà¦ªà§ĩà¦ľ": 6139,
      "Ġà¦ªà§ĭà¦°à§įà¦Ł": 6140,
      "Ġà¦ªà§įà¦¯à¦¾à¦¡": 6141,
      "à¦¦à§ĩà¦°Ġà¦ľà¦¨à§įà¦¯": 6142,
      "à¦¦à¦°à§įà¦¶": 6143,
      "à¦¦à§ĩà¦°Ġà¦ķà¦¾à¦Ľ": 6144,
      "à¦¦à§ĩà¦°Ġà¦¯": 6145,
      "à¦¦à¦¿à¦¬à¦¸": 6146,
      "à¦¦à¦¯à¦¾à¦ªà¦¨": 6147,
      "à§įà¦¤à§įà¦°": 6148,
      "à¦ªà¦¾à¦¨": 6149,
      "à¦ªà¦°à¦¿à¦": 6150,
      "à¦ªà¦°à§įà¦¬": 6151,
      "à¦ªà¦¦à§įà¦§": 6152,
      "à¦ªà¦¾à¦°à§ĩà¦¶à¦¨": 6153,
      "Ġà¦ıà¦°Ġà¦¨": 6154,
      "Ġà¦ıà¦Ĺà§ģà¦²à§ĭ": 6155,
      "Ġà¦ıà¦ªà§įà¦²": 6156,
      "Ġà¦ıà¦°Ġà¦®à¦§à§įà¦¯": 6157,
      "Ġà¦®à§ĩà¦¨": 6158,
      "Ġà¦®à¦¾à¦¦": 6159,
      "Ġà¦®à§ĩà¦¶": 6160,
      "Ġà¦®à¦§": 6161,
      "Ġà¦®à¦¿à¦¶": 6162,
      "Ġà¦®à§ĩà¦®": 6163,
      "Ġà¦®à§ĥà¦¤": 6164,
      "Ġà¦®à¦ŀà§įà¦ľ": 6165,
      "Ġà¦®à¦¾à¦Ľ": 6166,
      "Ġà¦®à¦¾à¦¥": 6167,
      "Ġà¦®à¦¤à§ĭ": 6168,
      "Ġà¦®à§ĩà¦¹": 6169,
      "Ġà¦®à¦¿à¦¥à§įà¦¯": 6170,
      "Ġà¦®à§įà¦¯à¦¾à¦ľ": 6171,
      "Ġà¦®à§ĩà¦ĺ": 6172,
      "à¦Łà§ģ": 6173,
      "à¦Łà¦¿à¦¸": 6174,
      "à¦Łà¦¿à¦¶": 6175,
      "à¦ŁĠà¦ķà¦®": 6176,
      "à¦Łà§įà¦¯à¦¾à¦ķà§įà¦¸": 6177,
      "à¦Łà¦¾Ġà¦ªà¦°à§įà¦¯à¦¨à§įà¦¤": 6178,
      "Ġà¦ĨĠà¦Ĩ": 6179,
      "Ġà¦Ĩà¦ķà§įà¦¤": 6180,
      "Ġà¦Ĩà¦¯à¦¾à¦¨": 6181,
      "Ġà¦Ĩà¦°à¦¿à¦«": 6182,
      "à§ĩà¦¨Ġà¦ı": 6183,
      "Ġà¦¨à¦¾": 6184,
      "Ġà¦¨à§įà¦¯": 6185,
      "Ġà¦¨à¦¾à¦¦": 6186,
      "Ġà¦¨à¦¾Ġà¦¹à¦²": 6187,
      "Ġà¦¨à¦¾Ġà¦¥à¦¾à¦ķ": 6188,
      "Ġà¦¨à¦ķà¦¶": 6189,
      "Ġà¦¦à¦¾à¦¨": 6190,
      "Ġà¦¦à¦¿à¦¬à¦¸": 6191,
      "à¦¾à¦²à¦®": 6192,
      "à¦¾à¦²à¦¾à¦®": 6193,
      "à¦¾à¦²Ġà¦°à¦¾à¦ĸ": 6194,
      "à¦¾à¦²Ġà¦¹à§ĭà¦¸à§ĩà¦¨Ġà¦ļà§Įà¦§à§ģà¦°à§Ģ": 6195,
      "à¦¾à¦®à¦¿à¦¦": 6196,
      "à¦¾à¦®à§įà¦ªà§įà¦°à¦¤à¦¿à¦ķ": 6197,
      "à¦Ĺà¦¡à¦¼": 6198,
      "à¦Ĺà¦¾à¦¹": 6199,
      "Ġà¦ķà¦°à§ĩà¦¨,": 6200,
      "Ġà¦ķà¦°à§ĩĠà¦°": 6201,
      "Ġà¦ķà¦°à§ĩĠ": 6202,
      "Ġà¦ķà¦°à§ĩĠà¦¦à§ĩà¦ĸ": 6203,
      "Ġà¦ķà¦°à¦¾Ġà¦¹à¦¬à§ĩà¥¤Ċ": 6204,
      "Ġà¦¹à¦ĩ": 6205,
      "Ġà¦¹à¦ľ": 6206,
      "Ġà¦¹à¦¾à¦ľ": 6207,
      "Ġà¦¹à¦¯": 6208,
      "Ġà¦¹à§ĭà¦Łà§ĩà¦²": 6209,
      "à¦¿à¦¨à§Ģ": 6210,
      "à¦¿à¦¨à¦¹": 6211,
      "à¦¿à¦ķà§įà¦¯à¦¾à¦²": 6212,
      "à¦¿à¦¯à¦¼à¦®": 6213,
      "à¦¿à¦¯à¦¼à§ĩĠà¦°à¦¾à¦ĸ": 6214,
      "à¦¾à¦¯à¦¼Ġà¦Ĺ": 6215,
      "à¦¾à¦¯à¦¼Ġà¦Ĩà¦¸": 6216,
      "à¦¾à¦¯à¦¼Ġà¦ħà¦¨à§ĩà¦ķ": 6217,
      "à¦¾à¦¯à¦¼à¦£à¦Ĺà¦ŀà§įà¦ľ": 6218,
      "à¦¾à¦ķà¦ļ": 6219,
      "à¦¾à¦ķà§ĩĠà¦¬": 6220,
      "à¦¾à¦ķà§ģà¦°": 6221,
      "à¦¾à¦ķà§ĩĠà¦¨": 6222,
      "à¦¾à¦ķà¦¾à¦Ł": 6223,
      "à¦¿à¦¤à§ĩà¥¤": 6224,
      "à¦¿à¦¤à§ĩĠà¦¯": 6225,
      "à¦¿à¦¤Ġà¦¹à¦¯à¦¼à§ĩà¦Ľà§ĩà¥¤": 6226,
      "Ġà¦¤à¦°": 6227,
      "Ġà¦¤à¦¤": 6228,
      "Ġà¦¤à¦¾à¦Ľà¦¾à¦¡à¦¼": 6229,
      "à¦ĩà¦¿à¦²": 6230,
      "à§įà¦Łà¦¿à¦Ĥ": 6231,
      "à¦ľà¦¾à¦®": 6232,
      "à¦ľà§ģà¦®": 6233,
      "à¦ľà¦°à§ģà¦²Ġà¦ĩà¦¸à¦²à¦¾à¦®": 6234,
      "Ġà¦ľà¦²": 6235,
      "Ġà¦ľà¦¾à¦ķ": 6236,
      "Ġà¦ľà§Ģà¦¬": 6237,
      "Ġà¦ľà§įà¦¯à¦¾à¦ķ": 6238,
      "Ġà¦ľà§įà¦ŀà¦¾à¦¨": 6239,
      "à§ĩà¦Ľà§ĩĠà¦¤à¦¾à¦°": 6240,
      "Ġà¦ħà¦Ł": 6241,
      "Ġà¦ħà¦Ĺà§įà¦¨": 6242,
      "Ġà¦ħà¦¦à¦¿à¦¤": 6243,
      "à§įà¦¬à¦¤à§įà¦¯": 6244,
      "à§įà¦¬à¦¸à§įà¦¤": 6245,
      "à§ĩà¥¤Ġà¦ª": 6246,
      "à§ĩà¥¤Ġà¦ıà¦ĩ": 6247,
      "à§ĩà¥¤Ġà¦Ĩà¦®à¦¿": 6248,
      "à¦¾à¦¤à§ĩà¦ĵ": 6249,
      "à¦¾à¦¤à¦¦à¦¨à§įà¦¤": 6250,
      "à¦¾à¦¬à¦¿à¦²": 6251,
      "à¦¾à¦¬à§ĩĠà¦¨": 6252,
      "à¦¾à¦¬à§įà¦¦": 6253,
      "à¦¾à¦¬à¦²à§Ģ": 6254,
      "à¦¾à¦¦à§ĩà¦¶": 6255,
      "à¦¾à¦¦à¦£à§įà¦¡": 6256,
      "à¦¾à¦¦Ġà¦ªà¦¡à¦¼": 6257,
      "à¦¿à¦²à¦ķà§įà¦·": 6258,
      "à¦£à¦¬à¦¾à¦¡à¦¼": 6259,
      "à§¦à§«": 6260,
      "à§ĩà¦ķà§ĭà¦¨": 6261,
      "à§ĩà¦ķà§įà¦°à§ĩà¦Ł": 6262,
      "Ġà¦°à¦¾à¦®": 6263,
      "Ġà¦°à¦¿à¦ľ": 6264,
      "Ġà¦°à¦¨à¦¿": 6265,
      "Ġà¦°à§ģà¦¹": 6266,
      "Ġà¦°âĢĮà§įà¦¯à¦¾à¦²": 6267,
      "à¦¶à§ģ": 6268,
      "à¦¶à¦¾à¦¹": 6269,
      "à¦¶à¦¿à¦ª": 6270,
      "à¦¶à¦¾à¦¨à§įà¦¤": 6271,
      "à¦¶à¦¾à¦²à§Ģ": 6272,
      "à§ĩà¦¶à§įà¦¬à¦°": 6273,
      "Ġà¦ªà§įà¦°à¦¸à¦Ļà§įà¦Ĺ": 6274,
      "Ġà¦ªà§įà¦°à¦¾à¦¥à¦®à¦¿à¦ķ": 6275,
      "à§ĩĠà¦ªà¦¾à¦¨": 6276,
      "à§ĩĠà¦ªà¦¾à¦¤": 6277,
      "à§ĩĠà¦ªà¦¾à¦ĵà¦¯à¦¼": 6278,
      "à¦Ńà§ĭà¦Ĺ": 6279,
      "à¦Ńà¦¾à¦°Ġà¦¸": 6280,
      "à¦Ńà§ĭà¦ķ": 6281,
      "à¦§à¦¨": 6282,
      "à¦§à¦¾à¦°": 6283,
      "à¦§à§Ĥ": 6284,
      "Ġà¦¶à§ĭà¦¨": 6285,
      "Ġà¦¶à¦¿à¦°": 6286,
      "Ġà¦¶à¦¤à§įà¦°": 6287,
      "Ġà¦¶à§ĩà¦¯à¦¼à¦¾à¦°": 6288,
      "Ġà¦¶à¦¿à¦ĸ": 6289,
      "Ġà¦¶à¦®à¦¸": 6290,
      "à¦ļà¦¾à¦°": 6291,
      "à¦ļà¦²": 6292,
      "à¦ļà§ĩà¦¤à¦¨": 6293,
      "à§ĩĠà¦¬à¦¿à¦¸": 6294,
      "à§ĩĠà¦¬à¦°à§įà¦¤à¦®à¦¾à¦¨": 6295,
      "à§ĩĠà¦¬à¦¿à¦ľà§įà¦ŀ": 6296,
      "à§ĩĠà¦¬à¦¿à¦¨à¦¿à¦¯à¦¼à§ĭà¦Ĺ": 6297,
      "à§ĩĠà¦¬à¦¿à¦ľà¦¿à¦ıà¦®à¦ĩà¦ı": 6298,
      "à¦¾à¦ľà¦¨": 6299,
      "à¦¾à¦ľà¦ķ": 6300,
      "Ġà¦ĵĠà¦¸à¦®": 6301,
      "à§ĩĠà¦Ĩà¦¨à§įà¦¦à§ĭà¦²à¦¨": 6302,
      "à¦Łà¦¿à¦°Ġà¦¸": 6303,
      "à¦¡à¦¼à¦¯": 6304,
      "à§ĩĠà¦¸à§įà¦Ł": 6305,
      "à§ĩĠà¦¸à¦¿à¦°à¦¿à¦ľ": 6306,
      "à§ĩĠà¦¸à¦°à¦ķà¦¾à¦°à¦¿": 6307,
      "à§ĩĠà¦¸à§ĩà¦¨à¦¾à¦¬à¦¾à¦¹à¦¿à¦¨": 6308,
      "Ġà¦Ĺà§ģà¦¨": 6309,
      "Ġà¦Ĺà¦¾à¦¡à¦¼à¦¿": 6310,
      "Ġà¦Ĺà¦¾à¦ĩà¦¡": 6311,
      "Ġà¦Ĺà§ģà¦ªà§įà¦¤": 6312,
      "Ġà¦Ĺà§ģà¦Ĺà¦²": 6313,
      "à¦Ľà§ĩĠà¦¤": 6314,
      "à§ĥà¦ķà§įà¦¤": 6315,
      "Ġà¦¯à¦¤": 6316,
      "Ġà¦¯à¦¾à¦¦": 6317,
      "à¦¾à¦¹à¦¾à¦¨": 6318,
      "à¦¾à¦ªà§ģà¦°": 6319,
      "Ġà¦ļà¦¾à¦ª": 6320,
      "Ġà¦ļà¦ķà§įà¦°": 6321,
      "Ġà¦ļà¦¬à§įà¦¬": 6322,
      "Ġà¦ļà¦¾à¦°à§įà¦ļ": 6323,
      "Ġà¦ļà¦°à§įà¦ļ": 6324,
      "Ġà¦ļà¦²à¦¾à¦ķà¦¾à¦²": 6325,
      "Ġ(à§ª": 6326,
      "à§įà¦ªà¦·à§įà¦Ł": 6327,
      "à§ĩà¦°Ġà¦¸à¦Ĥà¦¸": 6328,
      "à§ĩà¦°Ġà¦¸à§ģà¦¬à¦¿à¦§": 6329,
      "à¦¾à¦Ĺà¦¾à¦¦": 6330,
      "à¦°à¦¿à¦ª": 6331,
      "à¦ĵà¦ľ": 6332,
      "à¦ĵà¦¸à¦¿": 6333,
      "à¦ĵà¦¤à¦¾à¦¯à¦¼": 6334,
      "à§ģà¦°à¦¿à¦¯à¦¼": 6335,
      "à§ģà¦°à¦¹à¦¾à¦¨": 6336,
      "Ġà¦«à¦¿à¦¨": 6337,
      "Ġà¦«à§ĩà¦²": 6338,
      "Ġà¦«à¦ľà¦²": 6339,
      "Ġà¦«à¦¾à¦ģà¦¸": 6340,
      "à§ĩĠà¦ıà¦¤": 6341,
      "Ġà¦īà¦ķà§įà¦¤": 6342,
      "à¦¿à¦°Ġà¦Ń": 6343,
      "à¦¿à¦°Ġà¦ıà¦ķ": 6344,
      "à¦¿à¦°Ġà¦ıà¦ķà¦Łà¦¿": 6345,
      "à§ĭà¦¨à¦¾à¦²": 6346,
      "à¦¥à¦ļ": 6347,
      "à§ĩĠà¦¨à¦¿à¦²": 6348,
      "à§ĩĠà¦¨à§ĩà¦ĩ": 6349,
      "à§ĩĠà¦¨à§Į": 6350,
      "à§ĩĠà¦¨à§ĩà¦®": 6351,
      "à§ĩĠà¦¨à§ĩà¦¤à§ĥà¦¤à§įà¦¬": 6352,
      "à§ĩĠà¦¨à§ĩà¦ĵà¦¯à¦¼à¦¾à¦°": 6353,
      "à§ĩĠà¦¨à¦¿à¦°à¦¾à¦ªà¦¤à§įà¦¤": 6354,
      "à§ĩĠà¦¨à¦¿à¦¯à§ģà¦ķà§įà¦¤": 6355,
      "à¦ķà§įà¦·à§Ģà¦°": 6356,
      "Ġà¦¸à¦®à¦¸à§įà¦¤": 6357,
      "Ġà¦²à§ĭà¦¹": 6358,
      "Ġà¦²à¦¾à¦ĩà¦«": 6359,
      "Ġà¦²à§ĩà¦¨à¦¦à§ĩà¦¨": 6360,
      "à¦¿à¦¸à§įà¦¥à¦¾à¦¨": 6361,
      "à¦¾Ġà¦¹à¦¾à¦®à¦²": 6362,
      "à¦¾Ġà¦¹à¦ĵà¦¯à¦¼à¦¾à¦°": 6363,
      "à¦¾à¦°à§įà¦¶": 6364,
      "à§ĩĠà¦¦à§ĩà¦¡à¦¼": 6365,
      "à§ĩĠà¦¦à¦¾à¦ģà¦¡à¦¼": 6366,
      "à¦¿à¦°à¦¤": 6367,
      "à¦¿à¦°à¦¬": 6368,
      "à§ĩĠà¦ķà¦°à§įà¦®": 6369,
      "à§ĩĠà¦ķà¦¾à¦°à¦£": 6370,
      "à¦«à¦¿à¦²": 6371,
      "à¦·à§įà¦ł": 6372,
      "à¦·à§ģà¦§": 6373,
      "à¦¾Ġà¦ķà§Ģ": 6374,
      "à¦¾Ġà¦ķà§įà¦·": 6375,
      "à§ĩà¦°à¦¿à¦¨": 6376,
      "à§ĩà¦°Ġà§§à§¦": 6377,
      "à¦¿à¦¶à¦¿à¦¯à¦¼": 6378,
      "Ġà¦ĸà¦¦à§įà¦¦à§ĩà¦°": 6379,
      "Ġà¦ĸà§ĭà¦ģà¦ľ": 6380,
      "Ġà¦ĸà¦¿à¦²à¦ķà§įà¦·": 6381,
      "âĢĻ-à¦ı": 6382,
      "âĢĻà¦²à§Ģà¦Ĺ": 6383,
      "à¦¾à¦¡à¦¼à¦¾à¦¹": 6384,
      "Ġà¦ıà¦ķĠà¦°": 6385,
      "à¦¾Ġà¦¬à§ĩà¦¶": 6386,
      "à¦¾Ġà¦¬à¦¡à¦¼": 6387,
      "à¦¾Ġà¦¬à¦¿à¦ıà¦¨à¦ª": 6388,
      "Ġà¦¹à¦¯à¦¼à§ĩĠà¦īà¦ł": 6389,
      "Ġà¦Ľà¦¾à¦«": 6390,
      "Ġà¦Ľà¦¾à¦¤à§įà¦°à§Ģ": 6391,
      "Ġà¦Ľà¦¾à¦²à¦¾à¦¤": 6392,
      "à§ĭà¦Ĺà§įà¦¯à¦¤à¦¾Ġà¦¸à¦¨à¦¦": 6393,
      "à¦¿à¦¬à§ĩà¦¶à¦¨": 6394,
      "à¦¿à¦¬à§ģà¦°Ġà¦°à¦¹à¦®à¦¾à¦¨": 6395,
      "Ġà§¨à§Ń": 6396,
      "à§įà¦¥à¦¾à¦ªà¦¨Ġà¦ķà¦°": 6397,
      "à§įà¦²à¦ķ": 6398,
      "à§įà¦²à§Ģà¦²": 6399,
      "à§ĩà¦°Ġà¦ªà¦¦": 6400,
      "à§ĩà¦°Ġà¦®à§ģà¦¤": 6401,
      "à§ĩà¦°Ġà¦®à¦¨à§įà¦¤à¦¬à§įà¦¯": 6402,
      "à¦Ĩà¦¬à¦¾à¦°": 6403,
      "à§ĩĠà¦¯à¦¾à¦¤à§įà¦°à§Ģ": 6404,
      "à§ĩĠà¦®à¦¾à¦¤à§įà¦°": 6405,
      "à§ĩĠà¦®à¦¾à¦Ŀ": 6406,
      "à§ĩà¦¤,Ġà¦¬": 6407,
      "à¦ıà¦Ľà¦¾à¦¡à¦¼": 6408,
      "à§ĩà¦°Ġà¦¬à¦²": 6409,
      "à§ĩà¦°Ġà¦¬à¦°à§įà¦¤à¦®à¦¾à¦¨": 6410,
      "à§ĩà¦°Ġà¦ķà¦¯à¦¼à§ĩà¦ķ": 6411,
      "à§ĩà¦°Ġà¦ķà§ĩà¦ī": 6412,
      "à¦¿à¦ľà§ĩà¦ª": 6413,
      "à¦¾Ġà¦ªà§ĩà¦¯à¦¼": 6414,
      "à¦¾Ġà¦ªà¦¾à¦¹à¦¾à¦¡à¦¼": 6415,
      "à¦¾à¦ģà¦¶": 6416,
      "à¦°à§įà¦¬à§ĭà¦ļà§įà¦ļ": 6417,
      "Ġà¦Łà¦¾à¦¨": 6418,
      "Ġà¦Łà¦¿à¦Ń": 6419,
      "Ġà¦Łà¦¾à¦ĩà¦®": 6420,
      "Ġà¦Łà¦¾à¦ĩà¦ª": 6421,
      "Ġà¦Łà§ģà¦ķà¦°à§ĭ": 6422,
      "Ġà¦Łà¦¾à¦Ļà§įà¦Ĺà¦¾à¦ĩà¦²": 6423,
      "à¦¿à¦®à¦¾à¦¨à¦¬": 6424,
      "à¦¿à¦®Ġà¦ķà§ĭà¦°à§įà¦Ł": 6425,
      "à¦¿à¦¦à¦«à¦¤": 6426,
      "Ġà¦Ĩà¦®à¦¿à¦¨": 6427,
      "Ġà¦Ĩà¦®à¦¾à¦°Ġà¦¸": 6428,
      "Ġà¦Ĩà¦®à¦¾à¦°Ġà¦ķ": 6429,
      "à§¨à§«": 6430,
      "à¦¾à¦Łà¦¨": 6431,
      "à¥¤Ġà¦ıà¦Ł": 6432,
      "à¥¤Ġà¦ıà¦¸à¦¬": 6433,
      "à¥¤Ġà¦ıĠà¦Ľà¦¾à¦¡à¦¼": 6434,
      "à¥¤Ġà¦ıà¦°Ġà¦Ĩà¦Ĺ": 6435,
      "à¥¤Ġà¦ıà¦¸à¦®à¦¯à¦¼": 6436,
      "à¦¾Ġà¦¸à¦¦": 6437,
      "à¦¯à§ģà¦¬": 6438,
      "Ġà¦¡à¦¾à¦ķà¦¾à¦¤": 6439,
      "Ġà¦¡à§ĩà¦²à¦¿à¦Ń": 6440,
      "à§ĩĠà¦Ĺà§ģà¦²": 6441,
      "à¦¾Ġà¦ķà¦°à¦²": 6442,
      "à¦¡à¦¿,": 6443,
      "à§«Ġà¦®à¦¿à¦¨à¦¿à¦Ł": 6444,
      "Ġà¦ıà¦¬à¦ĤĠà¦ªà¦°": 6445,
      "Ġà¦ıà¦¬à¦ĤĠà¦īà¦ĩ": 6446,
      "Ġà¦ªà¦°à¦¿à¦§": 6447,
      "à§ĩ,ĠâĢĺ": 6448,
      "à§ĩĠà¦ħà§įà¦¯à¦¾à¦ª": 6449,
      "à§ĩĠà¦ħà¦¸à§įà¦¤à§įà¦°": 6450,
      "à¦¿à¦ªà¦°à§Ģà¦¤": 6451,
      "à§Ģà¦°Ġà¦°": 6452,
      "à§Ģà¦°Ġà¦ĵ": 6453,
      "Ġà¦¥à§ĩà¦ķà§ĩà¥¤": 6454,
      "Ġà¦¥à§ĩà¦ķà§ĩĠà¦ħ": 6455,
      "Ġà¦¥à§ĩà¦ķà§ĩĠà¦¶à§ģà¦°à§ģ": 6456,
      "à¦¾,Ġà¦ļ": 6457,
      "à¦ĥĠà§¦à§§à§Ńà§§à§§à§": 6458,
      "à¦¾Ġà¦¹à¦¯à¦¼à¥¤Ġà¦¸": 6459,
      "à¦¾Ġà¦¹à¦¯à¦¼à§ĩà¦Ľà§ĩĠà¦¬à¦²": 6460,
      "à§ĩĠà¦ľà¦¾à¦¤": 6461,
      "à§ĩĠà¦ľà¦¨à§įà¦¯": 6462,
      "à§ĩĠà¦ľà§Ģà¦¬à¦¨": 6463,
      "Ġà¦ħà¦¨à§ģà¦®": 6464,
      "à¦¾Ġà¦¨à¦¿à¦¬": 6465,
      "à¦¾Ġà¦¨à§ĩà¦ĵà¦¯à¦¼": 6466,
      "Ġà¦ªà¦°à§įà¦¯à¦¾à¦²": 6467,
      "Ġà¦ªà¦°à§įà¦¯à¦¾à¦¯à¦¼": 6468,
      "Ġà¦ªà¦°à¦¾à¦®à¦°à§įà¦¶": 6469,
      "à§ĥà¦¤à¦¿à¦¤": 6470,
      "à§ĥà¦¤à§Ģà¦¯à¦¼": 6471,
      "à§ĥà¦¤à¦ľà§įà¦ŀ": 6472,
      "à§ĥà¦¤à§įà¦°à¦¿à¦®": 6473,
      "Ġà¦¤à¦¾à¦°à¦ª": 6474,
      "à¦°à§įà¦¤à¦¬à§įà¦¯": 6475,
      "à¦¸à§įà¦¥à¦²": 6476,
      "à¦¸à§įà¦¥à¦¾à¦ªà¦¨Ġà¦ķà¦°": 6477,
      "à¦¿à¦Ĥà¦¸à¦¤": 6478,
      "à§ĩĠà¦°à¦¾à¦·à§įà¦Łà§įà¦°": 6479,
      "à§ĩĠà¦°à§ĭà¦¹à¦¿à¦Ļà§įà¦Ĺ": 6480,
      "à¦®à¦¾à¦¨à§įà¦¡": 6481,
      "à§ĩĠà¦ļà§ĩà¦¯à¦¼": 6482,
      "à§Īà¦§": 6483,
      "Ġà¦ķà¦°à¦¤à§ĩĠà¦¹à¦¬à§ĩ": 6484,
      "à§ĩà¦°Ġà¦ľà¦¨à§įà¦®": 6485,
      "Ġà¦¨à¦¿à¦°à§įà¦¬": 6486,
      "Ġà¦¨à¦¿à¦°à§įà¦Ń": 6487,
      "Ġà¦¨à¦¿à¦°à§įà¦¬à¦¾à¦¹à§Ģ": 6488,
      "à§ĩĠà¦ªà§įà¦°à¦ļ": 6489,
      "à§ĩĠà¦ªà§įà¦°à¦¤à¦¿": 6490,
      "à¦¾Ġà¦¦à§Ĥ": 6491,
      "à¦¾Ġà¦¦à¦¿à¦¬à¦¸": 6492,
      "à¦¾Ġà¦Ĩà¦Ĺ": 6493,
      "à¦¾Ġà¦Ĩà¦¬à¦¾à¦°": 6494,
      "Ġà¦®à§ĭà¦¸à§įà¦¤": 6495,
      "à¦¤à§įà¦¯à¦¾à¦¦": 6496,
      "à¦¾Ġà¦¯à§ĩà¦¨": 6497,
      "ĠâĢĺà¦¦": 6498,
      "à§ĩà¦°Ġà¦ħà¦Ń": 6499,
      "à§ĩà¦°Ġà¦ħà¦Ĥà¦¶": 6500,
      "à§ĩà¦°Ġà¦ħà¦§à§įà¦¯à¦¾à¦ªà¦ķ": 6501,
      "à¦īà¦¦à§įà¦¦à¦¿à¦¨": 6502,
      "à¦īà¦ľà§įà¦ľà§įà¦¬à¦²": 6503,
      "à¦ªà§įà¦°à¦ķà¦¾à¦¶": 6504,
      "à¦ªà§įà¦°à¦¿à¦®Ġà¦ķà§ĭà¦°à§įà¦Ł": 6505,
      "à§ĭà¦®à§ĩà¦ĩà¦¨": 6506,
      "à§ĭà¦®à¦¾Ġà¦¹à¦¾à¦®à¦²": 6507,
      "Ġà¦ľà¦¾à¦¨à¦¾Ġà¦¯à¦¾à¦¯à¦¼": 6508,
      "à¦ķà§įà¦¤à¦¿": 6509,
      "à¦ķà§įà¦¤à¦¿à¦ķ": 6510,
      "à¦¾Ġà¦®à¦¿à¦²": 6511,
      "à¦¾Ġà¦®à¦¾à¦°à§įà¦ķ": 6512,
      "à¦¾Ġà¦®à§Ĥà¦²à§įà¦¯": 6513,
      "à¦ĸà¦¨à¦ĩ": 6514,
      "à§ªà§§à§«": 6515,
      "à¦¾à¦Ľà¦¿": 6516,
      "à¦¾à¦Ľà¦¾à¦ĩ": 6517,
      "à¦łà§ĭ": 6518,
      "à¦łà¦¾à§İ": 6519,
      "à§ĩà¦¨à¥¤Ġà¦¤à¦¿à¦¨à¦¿": 6520,
      "à¦¤à§įà¦¤à¦¿": 6521,
      "à§ĩà¦°Ġà¦¨à¦¾à¦¨": 6522,
      "à§ĩà¦°Ġà¦¨à¦¦à§Ģ": 6523,
      "à§ĩà¦°Ġà¦¨à¦¿à¦°à¦¾à¦ªà¦¤à§įà¦¤": 6524,
      "à§ĩà¦°Ġà¦¨à¦¿à¦ķà¦Ł": 6525,
      "Ġà¦īà¦ªà¦¯à§ģà¦ķà§įà¦¤": 6526,
      "Ġà¦īà¦ªà¦¾à¦¦à¦¾à¦¨": 6527,
      "Ġà¦īà¦ª-à¦ªà¦°à¦¿à¦ļà¦¾à¦²à¦ķ": 6528,
      "Ġà¦Ĩà¦²à§ĭ": 6529,
      "Ġà¦Ĩà¦²Ġà¦®à¦¾à¦®à§ģà¦¨": 6530,
      "à§įà¦łà¦¿à¦¤Ġà¦¹à¦¯à¦¼": 6531,
      "Ġà§§à§¦à§¦": 6532,
      "à§İà¦¸à§įà¦¯": 6533,
      "à§İà¦ªà¦°": 6534,
      "à¦ĵà¦¯à¦¼à¦¾à¦¨": 6535,
      "à¦ĵà¦¯à¦¼à¦¾à¦°à§įà¦ķ": 6536,
      "à¦ĵà¦¯à¦¼à§įà¦¯à¦¾à¦°": 6537,
      "à¦ĵà¦¯à¦¼à¦¾Ġà¦ªà¦¾à¦¹à¦¾à¦¡à¦¼": 6538,
      "Ġà¦ĺà§ĭà¦·": 6539,
      "à§Ńà§®": 6540,
      "à§ĭà¦Łà¦¿à¦¶": 6541,
      "Ġà¦¦à§ģà¦°à§įà¦ĺ": 6542,
      "Ġà¦ªà§įà¦°à¦¤à¦¿à¦Ł": 6543,
      "Ġà¦ªà§įà¦°à¦¤à¦¿à¦¨à¦¿à¦§": 6544,
      "Ġà¦ªà§įà¦°à¦¤à¦¿à¦·à§įà¦ł": 6545,
      "à¦¨à§įà¦§à¦¾à¦¨": 6546,
      "à§ĩĠà¦¶à¦¾à¦¨à§įà¦¤": 6547,
      "à§ĩĠà¦¶à¦¿à¦ķà§įà¦·": 6548,
      "à§ĩĠà¦¶à§įà¦°à¦®à¦¿à¦ķ": 6549,
      "Ġà¦¸à¦®à¦¯à¦¼à§ĩà¦°Ġà¦ľà¦¨à§įà¦¯": 6550,
      "Ġà¦¸à¦®à¦¯à¦¼Ġà¦§à¦°": 6551,
      "à§įà¦ķà¦¾à¦°Ġà¦ķà¦°": 6552,
      "à§įà¦ķà§įà¦°à¦¿à¦¨": 6553,
      "à¦¾à¦«à¦¿à¦ľ": 6554,
      "à§§.": 6555,
      "à§§Ġà¦ĩ-à¦®à§ĩà¦ĩà¦²Ġ-Ġc": 6556,
      "à§¬à§®": 6557,
      "à¦°Ġà¦ªà¦¦": 6558,
      "Ġà¦ıà¦ĩĠà¦ķ": 6559,
      "Ġà¦ıà¦ĩà¦ļ": 6560,
      "à¦¿,Ġà¦¶": 6561,
      "à§ģà¦¦à¦£à§įà¦¡": 6562,
      "à¦¨à¦¾à¦°à¦¾à¦¯à¦¼à¦£à¦Ĺà¦ŀà§įà¦ľ": 6563,
      "Ġà§©à¥¤": 6564,
      "à§Ģà¦¦à§ĩà¦°Ġà¦®à¦§à§įà¦¯": 6565,
      "Ġà¦¦à¦¿à¦¯à¦¼à§ĩà¦Ľ": 6566,
      "Ġà¦¦à¦¿à¦¯à¦¼à§ĩĠà¦¬": 6567,
      "à§ĩĠà¦Ĩà¦®à¦²": 6568,
      ",Ġà¦¸à¦¹": 6569,
      ",Ġà¦¸à§ĩà¦ĩ": 6570,
      "à¦¿à¥¤Ġà¦ķà¦¿à¦¨à§įà¦¤à§ģ": 6571,
      "à¦¿à¦ıà¦²": 6572,
      "à§ĩĠà¦Ńà¦¾à¦¬": 6573,
      "à§ĩĠà¦Ńà§įà¦°à¦®à¦£": 6574,
      "à§įà¦¯à¦®à§ģà¦ĸà§Ģ": 6575,
      "Ġà¦Ĩà¦°Ġà¦¶": 6576,
      "Ġà¦Ĩà¦°Ġà¦Ĩ": 6577,
      "Ġà¦Ĩà¦Ĺà¦¾à¦®": 6578,
      "Ġà¦Ĩà¦Ĺà§ģà¦¨": 6579,
      "Ġà¦Ĩà¦Ĺà¦·à§įà¦Ł": 6580,
      "Ġà¦Ĩà¦Ĺà§ĩà¦°Ġà¦ħà¦°à§įà¦¥": 6581,
      "Ġà¦¸à¦®à§įà¦ªà¦¨à§įà¦¨": 6582,
      "à¦¿à¦¹à§įà¦¨": 6583,
      "à¦ªà§įà¦¤à¦°": 6584,
      "à¦ªà§ģà¦°Ġà¦ª": 6585,
      "à¦ªà§ģà¦°Ġà¦¶": 6586,
      "à¦°à§įà¦¥à¦¿à¦ķ": 6587,
      "à¦Ńà¦¾à¦¬à§ĩĠà¦¸": 6588,
      "à¦Ńà¦¾à¦¬à§ĩà¦ĩ": 6589,
      "à§ĩà¦°Ġà¦Ĩà¦¦à§ĩà¦¶": 6590,
      "à¥¤Ġà¦¤à¦¾à¦ģ": 6591,
      "à¦¾à¦īà¦ľ": 6592,
      "à¦¾à¦īà¦ľà¦¾à¦°": 6593,
      "Ġà¦¬à¦¿à¦¶à¦¾à¦²": 6594,
      "Ġà¦Ľà¦¿à¦²à§ĩà¦¨,": 6595,
      "à¦¬à¦¾à¦¦Ġà¦¸à¦®à§įà¦®à§ĩà¦²à¦¨": 6596,
      "à§Ģà¦¬à¦¾à¦Ĺ": 6597,
      "à¦¸à§įà¦¯à§ģà¦¤": 6598,
      "à§ĭà¦¸à¦¿à¦¯à¦¼à§ĩà¦¶à¦¨": 6599,
      "Ġà¦¦à¦²à§ĩà¦°Ġà¦¸": 6600,
      "à¦¬à¦¸à§įà¦¥à¦¾à¦¨": 6601,
      "Ġà¦ķà¦®à¦¿à¦Łà¦¿": 6602,
      "Ġà¦ķà¦®à¦¿à¦¶à¦¨à¦¾à¦°": 6603,
      "...ĉ": 6604,
      "...Ġà¦¬à¦¿à¦¸à§įà¦¤à¦¾à¦°à¦¿à¦¤Ċ": 6605,
      "à§ĩà¦ªà¦¾à¦°": 6606,
      "à§ĩà¦ªà¦¾à¦¶": 6607,
      "à¦¿Ġà¦¸à¦¦à¦¸à§įà¦¯": 6608,
      "à¦¿à¦Ńà¦¿à¦²": 6609,
      "à§ĩà¦¡à¦¿à¦ĵ": 6610,
      "à§ĩà¦¡à¦¿à¦¯à¦¼à¦¾à¦®": 6611,
      "à¦¤à§ĩĠà¦ªà¦¾à¦°à¦²": 6612,
      "ĠÂ·Ġà¦¨à¦¿à¦°à§įà¦§à¦¾à¦°à¦¿à¦¤": 6613,
      "à¦¿à¦¡à¦¿à¦ıà¦«": 6614,
      "à¦¨Ġà¦ķà¦°à§įà¦¤à§ĥà¦ªà¦ķà§įà¦·": 6615,
      "à§ĩà¦°Ġà¦®à¦§à§įà¦¯à§ĩĠà¦ķ": 6616,
      "à§ĭà¦¬à¦¿à¦ľ": 6617,
      "à¦¾Ġà¦Ĺà§ĩà¦Ľà§ĩà¥¤Ċ": 6618,
      "à§ĩà¦°Ġà¦īà§İ": 6619,
      "Ġà¦¸à¦¾à¦²à¦¾à¦īà¦¦à§įà¦¦à¦¿à¦¨": 6620,
      "Ġà¦Ĩà¦¸à¦¨à§įà¦¨": 6621,
      "à¦¾à¦ĵà¦¯à¦¼à¦¾à¦¤": 6622,
      "à¦¾Ġà¦¤à¦¿à¦¨": 6623,
      "à§ĩà¦¨à§įà¦Łà¦®à¦¾à¦°à§įà¦Łà¦¿à¦¨": 6624,
      "à¦Ĺà§ģà¦²à§ĭà¦ķ": 6625,
      "Ġà¦¹à¦²à§ĩà¦¨": 6626,
      "à¦¾à¦°Ġà¦¦à¦¤à§įà¦¤": 6627,
      "à¦¾Ġà¦ĵĠà¦īà¦¨à§įà¦¨à¦¯à¦¼à¦¨": 6628,
      "Ġà¦ĵà¦¯à¦¼à¦¾à¦°à§įà¦ķ": 6629,
      "à¦¾Ġà¦°à§ĩà¦ĸ": 6630,
      "à¦¾Ġà¦°à§ģà¦Ł": 6631,
      "à¦°Ġà¦Ĩà¦¹à¦¤": 6632,
      "à¦ķà¦²à§įà¦¯à¦¾à¦£": 6633,
      "Ġà¦ªà¦°à¦¿à¦¬à§ĩà¦¶à¦¨": 6634,
      "à¦¾à¦°Ġà¦®à¦¾à¦¸": 6635,
      "à¦¾à¦·à§įà¦Ł": 6636,
      "à¦¾à¦°Ġà¦ķà§įà¦²à¦¾à¦¶": 6637,
      ",Ġà¦ķà§ĩà¦ī": 6638,
      "à¦¾à¦²à§ĭà¦ļ": 6639,
      "à¦¾à¦²à§ĭà¦ļà¦¨": 6640,
      "Ġà¦«à§ĭà¦¨:": 6641,
      "à¦¿Ġà¦ªà¦¡à¦¼": 6642,
      "à¦¿Ġà¦ªà§ĩà¦¤": 6643,
      "à¦¿Ġà¦ªà¦¾à¦ĵà¦¯à¦¼": 6644,
      "à¦¾à¦ļà§įà¦Ľà§ĩà¥¤": 6645,
      "Ġà¦®à§ģà¦¹à¦¾à¦®à§įà¦®à¦¦": 6646,
      "Ġà¦Ĩà¦¬à¦¦à§ģà¦²": 6647,
      "à§ĩĠà¦²à¦¾à¦¶": 6648,
      "à§ĩĠà¦²à¦¿à¦ĸ": 6649,
      "à§ĩà¦°Ġà¦Ńà§ĭà¦Ł": 6650,
      "à§ĩà¦°Ġà¦Ńà§ĩà¦¤à¦°": 6651,
      "Ġà¦Ĩà¦ľà¦®à¦²": 6652,
      "à§ĩĠà¦Ĩà¦¸à§ĩà¦¨": 6653,
      "à¦°à§įà¦ľà¦¨": 6654,
      "à§ĩĠà¦Ľà¦¾à¦¡à¦¼": 6655,
      "à§ĩĠà¦Ľà§ģà¦Ł": 6656,
      "à¦¾à¦°Ġà¦ªà¦¥": 6657,
      "à¦¾à¦°Ġà¦ªà¦¾à¦¶": 6658,
      "à¦¾à¦°Ġà¦ªà¦°Ġà¦ª": 6659,
      "à¦¾à¦°Ġà¦¬à¦¾à¦¬": 6660,
      "à¦¾à¦°Ġà¦¬à¦¾à¦¸à¦¿à¦¨à§įà¦¦": 6661,
      "à§ĩà¦°Ġà¦ļà§ĩà¦¯à¦¼": 6662,
      "à§ĩà¦°Ġà¦ļà§ĩà¦·à§įà¦Ł": 6663,
      ",Ġb": 6664,
      "à§ĭà¦¹à¦¨": 6665,
      "Ġà¦®à¦¨à§ĩĠà¦¹à¦ļà§įà¦Ľ": 6666,
      "Ġà¦¢à¦¾à¦ķà¦¾Ġà¦¥à§ĩà¦ķ": 6667,
      "à¦¿à¦ļà¦¾à¦°à¦ª": 6668,
      "à§ĭà¦ªà§ģà¦°à¦¿": 6669,
      "Ġà¦¸à§įà¦¬à¦¾à¦Ńà¦¾à¦¬à¦¿à¦ķ": 6670,
      "à¦¾à¦ĩà¦¨à¦¬à¦¾à¦¬à¦Ĺà¦ŀà§įà¦ľ": 6671,
      "Ġà¦ĩà¦īà¦°à§ĭà¦ª": 6672,
      "à§įà¦¯à¦¾à¦¨à§įà¦¡à¦¾à¦°à§įà¦¡": 6673,
      "à§ĩà¦¹à§ĩà¦Ļà§įà¦Ĺ": 6674,
      "Ġà¦īà¦ªà¦ľà§ĩà¦²à¦¾à¦°": 6675,
      "-à¦¸à¦®": 6676,
      "-à¦¸à¦¿/": 6677,
      "Ġà¦ªà¦°à§Ģà¦ķà§įà¦·à¦¾Ġà¦ħà¦¨à§ģà¦·à§įà¦łà¦¾à¦¨": 6678,
[...]
