{
  "version": "1.0",
  "truncation": null,
  "padding": null,
  "added_tokens": [
    {
      "id": 0,
      "content": "<unk>",
      "single_word": false,
      "lstrip": false,
      "rstrip": false,
      "normalized": false,
      "special": true
    },
    {
      "id": 4,
      "content": "<mask>",
      "single_word": false,
      "lstrip": false,
      "rstrip": false,
      "normalized": false,
      "special": true
    },
    {
      "id": 151643,
      "content": "<|endoftext|>",
      "single_word": false,
      "lstrip": false,
      "rstrip": false,
      "normalized": false,
      "special": true
    },
    {
      "id": 151644,
      "content": "<|im_start|>",
      "single_word": false,
      "lstrip": false,
      "rstrip": false,
      "normalized": false,
      "special": true
    },
    {
      "id": 151645,
      "content": "<|im_end|>",
      "single_word": false,
      "lstrip": false,
      "rstrip": false,
      "normalized": false,
      "special": true
    }
  ],
  "normalizer": {
    "type": "Sequence",
    "normalizers": [
      {
        "type": "NFC"
      }
    ]
  },
  "pre_tokenizer": {
    "type": "Sequence",
    "pretokenizers": [
      {
        "type": "Split",
        "pattern": {
          "String": "[^\\r\\n\\p{Bengali}\\p{L}\\p{Nd}]?[\\p{Bengali}\\u0981-\\u09C4\\u09C7\\u09C8\\u09CB\\u09CC\\u09CD\\p{L}]*[\\p{Bengali}\\u0981-\\u09C4\\u09C7\\u09C8\\u09CB\\u09CC\\u09CD\\p{L}]+|[^\\r\\n\\p{Bengali}\\p{L}\\p{Nd}]?[\\p{Bengali}\\u0981-\\u09C4\\u09C7\\u09C8\\u09CB\\u09CC\\u09CD\\p{L}]+[\\p{Bengali}\\u0981-\\u09C4\\u09C7\\u09C8\\u09CB\\u09CC\\u09CD\\p{L}]*|[০-৯]{1,4}| ?\\p{N}+| ?[^\\s\\p{Bengali}\\p{L}\\p{Nd}]+[\\r\\n/]*|\\s*[\\r\\n]+|\\s+(?!\\S)|\\s+"
        },
        "behavior": "Isolated",
        "invert": false
      }
    ]
  },
  "post_processor": {
    "type": "ByteLevel",
    "add_prefix_space": false,
    "trim_offsets": false,
    "use_regex": false
  },
  "decoder": {
    "type": "ByteLevel",
    "add_prefix_space": false,
    "trim_offsets": false,
    "use_regex": false
  },
  "model": {
    "type": "BPE",
    "dropout": null,
    "unk_token": null,
    "continuing_subword_prefix": null,
    "end_of_word_suffix": null,
    "fuse_unk": false,
    "byte_fallback": false,
    "ignore_merges": false,
    "vocab": {
      "<unk>": 0,
      "<|endoftext|>": 1,
      "<|im_start|>": 2,
      "<|im_end|>": 3,
      "<mask>": 4,
      "\t": 5,
      "\n": 6,
      " ": 7,
      "!": 8,
      "\"": 9,
      "#": 10,
      "%": 11,
      "&": 12,
      "'": 13,
      "(": 14,
      ")": 15,
      "*": 16,
      "+": 17,
      ",": 18,
      "-": 19,
      ".": 20,
      "/": 21,
      "0": 22,
      "1": 23,
      "2": 24,
      "3": 25,
      "4": 26,
      "5": 27,
      "6": 28,
      "7": 29,
      "8": 30,
      "9": 31,
      ":": 32,
      ";": 33,
      "<": 34,
      "=": 35,
      ">": 36,
      "?": 37,
      "@": 38,
      "A": 39,
      "B": 40,
      "C": 41,
      "D": 42,
      "E": 43,
      "F": 44,
      "G": 45,
      "H": 46,
      "I": 47,
      "J": 48,
      "K": 49,
      "L": 50,
      "M": 51,
      "N": 52,
      "O": 53,
      "P": 54,
      "Q": 55,
      "R": 56,
      "S": 57,
      "T": 58,
      "U": 59,
      "V": 60,
      "W": 61,
      "X": 62,
      "Y": 63,
      "Z": 64,
      "[": 65,
      "]": 66,
      "_": 67,
      "`": 68,
      "a": 69,
      "b": 70,
      "c": 71,
      "d": 72,
      "e": 73,
      "f": 74,
      "g": 75,
      "h": 76,
      "i": 77,
      "j": 78,
      "k": 79,
      "l": 80,
      "m": 81,
      "n": 82,
      "o": 83,
      "p": 84,
      "q": 85,
      "r": 86,
      "s": 87,
      "t": 88,
      "u": 89,
      "v": 90,
      "w": 91,
      "x": 92,
      "y": 93,
      "z": 94,
      "|": 95,
      "": 96,
      " ": 97,
      "¦": 98,
      "©": 99,
      "«": 100,
      "·": 101,
      "»": 102,
      "¿": 103,
      "Ñ": 104,
      "í": 105,
      "ó": 106,
      "ú": 107,
      "œ": 108,
      "Ÿ": 109,
      "।": 110,
      "॥": 111,
      "ঁ": 112,
      "ং": 113,
      "ঃ": 114,
      "অ": 115,
      "আ": 116,
      "ই": 117,
      "ঈ": 118,
      "উ": 119,
      "ঊ": 120,
      "ঋ": 121,
      "এ": 122,
      "ঐ": 123,
      "ও": 124,
      "ঔ": 125,
      "ক": 126,
      "খ": 127,
      "গ": 128,
      "ঘ": 129,
      "ঙ": 130,
      "চ": 131,
      "ছ": 132,
      "জ": 133,
      "ঝ": 134,
      "ঞ": 135,
      "ট": 136,
      "ঠ": 137,
      "ড": 138,
      "ঢ": 139,
      "ণ": 140,
      "ত": 141,
      "থ": 142,
      "দ": 143,
      "ধ": 144,
      "ন": 145,
      "প": 146,
      "ফ": 147,
      "ব": 148,
      "ভ": 149,
      "ম": 150,
      "য": 151,
      "র": 152,
      "ল": 153,
      "শ": 154,
      "ষ": 155,
      "স": 156,
      "হ": 157,
      "়": 158,
      "া": 159,
      "ি": 160,
      "ী": 161,
      "ু": 162,
      "ূ": 163,
      "ৃ": 164,
      "ে": 165,
      "ৈ": 166,
      "ো": 167,
      "ৌ": 168,
      "্": 169,
      "ৎ": 170,
      "০": 171,
      "১": 172,
      "২": 173,
      "৩": 174,
      "৪": 175,
      "৫": 176,
      "৬": 177,
      "৭": 178,
      "৮": 179,
      "৯": 180,
      "৷": 181,
      "​": 182,
      "‌": 183,
      "‍": 184,
      "–": 185,
      "—": 186,
      "‘": 187,
      "’": 188,
      "“": 189,
      "”": 190,
      "•": 191,
      "…": 192,
      "›": 193,
      "€": 194,
      "℃": 195,
      "→": 196,
      "Ⓕ": 197,
      "☎": 198,
      "☑": 199,
      "☯": 200,
      "♣": 201,
      "✅": 202,
      "➤": 203,
      "": 204,
      "️": 205,
      "�": 206,
      "💬": 207,
      "র ": 208,
      "ে ": 209,
      "য়": 210,
      "া ": 211,
      "ের ": 212,
      "ন ": 213,
      "্র": 214,
      "্য": 215,
      "ার": 216,
      "ি ": 217,
      "ার ": 218,
      "। ": 219,
      " ক": 220,
      "ান": 221,
      "্ত": 222,
      ", ": 223,
      "বি": 224,
      " স": 225,
      "নি": 226,
      "র্": 227,
      "বা": 228,
      "প্র": 229,
      "াল": 230,
      "াম": 231,
      "ায়": 232,
      " ম": 233,
      "াক": 234,
      "তে ": 235,
      "িক": 236,
      "ন্": 237,
      "েছ": 238,
      " দ": 239,
      "ড়": 240,
      " হ": 241,
      "কর": 242,
      " আ": 243,
      " ব": 244,
      " এ": 245,
      "িয়": 246,
      " কর": 247,
      "স্": 248,
      " প": 249,
      "ুল": 250,
      "কে ": 251,
      "েন": 252,
      "ক্": 253,
      "তি": 254,
      "রা": 255,
      "েশ": 256,
      "াই": 257,
      "িত": 258,
      "েল": 259,
      "িল": 260,
      "টি ": 261,
      "দের ": 262,
      "মা": 263,
      "ে। ": 264,
      " ন": 265,
      "।\n": 266,
      " জ": 267,
      "্যা": 268,
      " অ": 269,
      "রি": 270,
      "ভা": 271,
      "্ব": 272,
      "েন ": 273,
      "ক্ষ": 274,
      "াত": 275,
      "েই": 276,
      "ে আ": 277,
      "্ট": 278,
      "ন্ত": 279,
      "ওয়": 280,
      " বি": 281,
      "ান ": 282,
      "দ্": 283,
      "এক": 284,
      "জন": 285,
      " ত": 286,
      "ুর": 287,
      "ার্": 288,
      " শ": 289,
      "ঙ্": 290,
      " প্র": 291,
      "্প": 292,
      "বে ": 293,
      "া হ": 294,
      "য়ে ": 295,
      "কা": 296,
      "সম": 297,
      "বল": 298,
      "াস": 299,
      "ির ": 300,
      "াহ": 301,
      " (": 302,
      "বে": 303,
      "য়েছ": 304,
      "েখ": 305,
      "ঙ্গ": 306,
      "িন": 307,
      "ী ": 308,
      "োগ": 309,
      " ই": 310,
      "কার": 311,
      "েট": 312,
      "ক্ত": 313,
      "থে": 314,
      " নি": 315,
      "গ্র": 316,
      "োন": 317,
      "ের স": 318,
      "বং": 319,
      "িস": 320,
      "স্থ": 321,
      "না ": 322,
      "াজ": 323,
      "ে দ": 324,
      "্ল": 325,
      " ও": 326,
      "াপ": 327,
      "াদ": 328,
      "ে স": 329,
      " র": 330,
      "অন": 331,
      " সম": 332,
      "ুর ": 333,
      "র্ম": 334,
      " য": 335,
      "ধ্য": 336,
      "পার": 337,
      "তা": 338,
      "ন্দ": 339,
      "থেকে ": 340,
      "চ্": 341,
      "তি ": 342,
      "িন ": 343,
      "উপ": 344,
      "বার ": 345,
      " চ": 346,
      "েক": 347,
      "েয়": 348,
      " ফ": 349,
      "ভি": 350,
      "ব্য": 351,
      "দ্ধ": 352,
      "েম": 353,
      "। এ": 354,
      "স্ত": 355,
      "ঞ্": 356,
      "ষ্ট": 357,
      "িশ": 358,
      "ীয়": 359,
      "২০": 360,
      "মু": 361,
      "ে প": 362,
      "রা ": 363,
      " গ": 364,
      "না": 365,
      "জন্য": 366,
      "নি ": 367,
      "লে ": 368,
      "েত": 369,
      "স্ট": 370,
      " ল": 371,
      "নে ": 372,
      "রে ": 373,
      "াব": 374,
      "নের ": 375,
      "ীর ": 376,
      "ভাগ": 377,
      "েন, ": 378,
      "াড়": 379,
      "িম": 380,
      "চ্ছ": 381,
      "িয়ে ": 382,
      " খ": 383,
      "01": 384,
      "ের": 385,
      "যোগ": 386,
      "..": 387,
      "জান": 388,
      "থাক": 389,
      "আম": 390,
      "মান": 391,
      "্ড": 392,
      " দেশ": 393,
      " ভ": 394,
      "পরি": 395,
      "জি": 396,
      "সি": 397,
      "ুম": 398,
      "201": 399,
      "টা ": 400,
      "এই": 401,
      " ছ": 402,
      "ে, ": 403,
      "ৃত": 404,
      "কি": 405,
      "তে পার": 406,
      "তার ": 407,
      " ট": 408,
      "ষ্": 409,
      "পর": 410,
      "াঁ": 411,
      "েন। ": 412,
      "দেশ": 413,
      "া কর": 414,
      " উ": 415,
      "কো": 416,
      "সং": 417,
      "তা ": 418,
      "িট": 419,
      "র্বা": 420,
      " এক": 421,
      "ক্র": 422,
      "্র ": 423,
      "ন্ট": 424,
      "ন কর": 425,
      "জেল": 426,
      "নিয়": 427,
      "বাস": 428,
      " ড": 429,
      "ের ম": 430,
      "ন্ত্র": 431,
      "বাদ": 432,
      "লো": 433,
      "এস": 434,
      "এবং": 435,
      "বহ": 436,
      "িতে ": 437,
      " সং": 438,
      "পা": 439,
      "২০১": 440,
      "ুন": 441,
      "হত": 442,
      "পর ": 443,
      "যায়": 444,
      "াগ": 445,
      "্ম": 446,
      "রের ": 447,
      "ান্ত": 448,
      "কাল": 449,
      "্যান": 450,
      "াকা ": 451,
      "ুন ": 452,
      "েষ": 453,
      "ত্ত": 454,
      "েব": 455,
      "প্রতি": 456,
      "ঞ্জ": 457,
      "ধার": 458,
      "েও": 459,
      "র্বাচ": 460,
      "চল": 461,
      "নাম": 462,
      "রো": 463,
      " এবং": 464,
      " রা": 465,
      "লাম": 466,
      "োট": 467,
      " করে ": 468,
      " পরি": 469,
      " অন": 470,
      "ষ্ঠ": 471,
      "সা": 472,
      " ১": 473,
      "তো": 474,
      "বার": 475,
      " বা": 476,
      "দু": 477,
      "যা": 478,
      "িয়েছ": 479,
      " থেকে ": 480,
      "০০": 481,
      "প্ত": 482,
      "র্ত": 483,
      "ে ম": 484,
      " কো": 485,
      "বিশ": 486,
      "কল": 487,
      "ুয়": 488,
      "েজ": 489,
      "ে।\n": 490,
      "চাল": 491,
      "মান ": 492,
      "বেশ": 493,
      "্যাল": 494,
      "কর্ম": 495,
      "ারা ": 496,
      "একটি ": 497,
      "া, ": 498,
      "তে হ": 499,
      "ামল": 500,
      "জ্": 501,
      "ুরু": 502,
      "গত": 503,
      "ঘট": 504,
      "ো’": 505,
      "ার কর": 506,
      "যু": 507,
      "সব": 508,
      "্ষ": 509,
      "াট": 510,
      "গ্রাম": 511,
      "ঃ ": 512,
      "ছু": 513,
      " মো": 514,
      "ন্ড": 515,
      "য়েছে। ": 516,
      "ো’আ": 517,
      "ন্ধ": 518,
      "তিনি ": 519,
      "এম": 520,
      "গুল": 521,
      "া দ": 522,
      " ব্য": 523,
      "কাশ": 524,
      "িং": 525,
      "ক্স": 526,
      "দিন ": 527,
      " বিভাগ": 528,
      "পুর ": 529,
      "ূর্": 530,
      "বাই": 531,
      "ীগ": 532,
      ", ক": 533,
      "ভার": 534,
      "স্য": 535,
      " বল": 536,
      "e ": 537,
      "ডি": 538,
      "নার ": 539,
      "সু": 540,
      "্বর ": 541,
      "আগ": 542,
      "আর ": 543,
      "াখ": 544,
      "রাজ": 545,
      "া হয়": 546,
      "কম": 547,
      "চিত": 548,
      "ত্র": 549,
      "োল": 550,
      "বে। ": 551,
      "সহ": 552,
      "ে নি": 553,
      "াশ": 554,
      "র্থ": 555,
      "োনো": 556,
      "পক্ষ": 557,
      "বা ": 558,
      "িদ": 559,
      "ীদের ": 560,
      "োর ": 561,
      "ানের ": 562,
      "সম্প": 563,
      "া। ": 564,
      "ুক": 565,
      "ছিল": 566,
      "জন ": 567,
      "ীন ": 568,
      " হয়": 569,
      "াকে ": 570,
      " জান": 571,
      "অব": 572,
      "ছে ": 573,
      "রু": 574,
      "ূল": 575,
      " করেছ": 576,
      "...": 577,
      "আপ": 578,
      "কার ": 579,
      "ত্র ": 580,
      "ওয়ার ": 581,
      "সময়": 582,
      " (1": 583,
      "উপজেল": 584,
      "in": 585,
      "আই": 586,
      "এর ": 587,
      "খন ": 588,
      "গঞ্জ": 589,
      "মো": 590,
      "িপ": 591,
      "ুলিশ": 592,
      "ন্তু": 593,
      "মাদের ": 594,
      "শ্": 595,
      "ি। ": 596,
      " দু": 597,
      "সলাম": 598,
      "ির": 599,
      " আম": 600,
      " পর": 601,
      "চে": 602,
      "মধ্য": 603,
      "ালো": 604,
      "িয়া ": 605,
      "েড": 606,
      "েদ": 607,
      "ারের ": 608,
      "ভাবে ": 609,
      "ওয়া ": 610,
      "েন্ট": 611,
      "য়ের ": 612,
      "ার দ": 613,
      "বু": 614,
      " সাল": 615,
      "বাড়": 616,
      "ন্ন ": 617,
      "ি হ": 618,
      "ি কর": 619,
      "বস": 620,
      "রণ": 621,
      "লীগ": 622,
      "সাম": 623,
      "ানে ": 624,
      "র্ষ": 625,
      "ো’আ ": 626,
      "এন": 627,
      "বেদ": 628,
      "ঙ্গে ": 629,
      "েম্বর ": 630,
      "পুর": 631,
      "চার": 632,
      "থম": 633,
      "থা ": 634,
      "বর ": 635,
      "োম": 636,
      " এর ": 637,
      "ধ্যম": 638,
      "তার": 639,
      "নী": 640,
      "িজ": 641,
      "র্শ": 642,
      "ড়ে ": 643,
      "লাক": 644,
      "োস": 645,
      "ন্স": 646,
      "ছাড়": 647,
      "াত্র": 648,
      "মুখ": 649,
      "োর": 650,
      "য়েছে ": 651,
      "াদক": 652,
      "জ্ঞ": 653,
      "রকার": 654,
      "োয়": 655,
      "িলেট": 656,
      "তাদের ": 657,
      "ণ্ড": 658,
      "ি, ": 659,
      "ুব": 660,
      "বাহ": 661,
      "্যাপ": 662,
      "ভাব": 663,
      "ে আম": 664,
      " ধ": 665,
      "কে": 666,
      "দি ": 667,
      "মন্ত্র": 668,
      " প্রতি": 669,
      "an": 670,
      "ফল": 671,
      "াও": 672,
      "িকে ": 673,
      "ংশ": 674,
      "তবে ": 675,
      "ীব": 676,
      ", স": 677,
      "বিষ": 678,
      "র্ট": 679,
      "অনু": 680,
      "ধারণ": 681,
      "অভি": 682,
      "ধান ": 683,
      "বর্ত": 684,
      "ুষ": 685,
      "েস": 686,
      " হয়ে ": 687,
      "াইট": 688,
      "...\n": 689,
      "শ্র": 690,
      "শেষ": 691,
      "াতে ": 692,
      "িউ": 693,
      "েন।\n": 694,
      "কি ": 695,
      "ঢাকা ": 696,
      "ধান": 697,
      " বছ": 698,
      " ইসলাম": 699,
      "কিন্তু": 700,
      "জাত": 701,
      "নেত": 702,
      "ুট": 703,
      "োধ": 704,
      "ামী ": 705,
      "s ": 706,
      "যে ": 707,
      "ের দ": 708,
      "ন্ন": 709,
      " সময়": 710,
      " সম্প": 711,
      "গেছ": 712,
      "মন": 713,
      "সদ": 714,
      "াউ": 715,
      "িব": 716,
      "ীক্ষ": 717,
      "ারী": 718,
      " মু": 719,
      "স্ব": 720,
      "তাঁ": 721,
      " 201": 722,
      "ঢাক": 723,
      "নদ": 724,
      "রহ": 725,
      "া-": 726,
      "। স": 727,
      "নির্": 728,
      " ২": 729,
      "er": 730,
      "কের ": 731,
      "মত": 732,
      " কম": 733,
      "ান্": 734,
      "বিভাগ": 735,
      " স্": 736,
      "নিজ": 737,
      " হাস": 738,
      "মাধ্যম": 739,
      "ভাপ": 740,
      "ার্থ": 741,
      "অনেক": 742,
      "পাত": 743,
      "েপ": 744,
      "োক": 745,
      "কর্ত": 746,
      " আল": 747,
      "ার্ভ": 748,
      "ুয়ার": 749,
      ": ": 750,
      "ত্য": 751,
      "নায়": 752,
      "াদের ": 753,
      "ে প্র": 754,
      "বাজ": 755,
      "িক্ষ": 756,
      " নির্বাচ": 757,
      " থাক": 758,
      "কোনো": 759,
      "নিক": 760,
      "েইল": 761,
      " ছিল": 762,
      "--": 763,
      "আল": 764,
      "বন্ধ": 765,
      "হাস": 766,
      "া প্র": 767,
      "তির ": 768,
      "যুক্ত": 769,
      " ·": 770,
      "বি ": 771,
      "শাহ": 772,
      "ৌন": 773,
      "০১": 774,
      "া ম": 775,
      "নিয়ে ": 776,
      " আপ": 777,
      " এই": 778,
      "ুল ইসলাম": 779,
      "গ্রহ": 780,
      "ধু": 781,
      "শু": 782,
      " কার": 783,
      " মি": 784,
      " করা ": 785,
      " জন": 786,
      "ভিন্ন ": 787,
      "গুলো": 788,
      "উদ": 789,
      "তের ": 790,
      "তিক": 791,
      "পূর্": 792,
      "বস্থ": 793,
      "রিক": 794,
      " দল": 795,
      "কাজ": 796,
      "বলেন, ": 797,
      "কিছু": 798,
      "ের মধ্য": 799,
      "ট্র": 800,
      "িখ": 801,
      " কি": 802,
      "নির্বাচ": 803,
      " দেখ": 804,
      "বৃ": 805,
      "্যাক": 806,
      "্যন্ত": 807,
      "বিদ": 808,
      " সু": 809,
      "।’": 810,
      "আর": 811,
      "খন": 812,
      "ক্ট": 813,
      "ে আস": 814,
      "থ্য": 815,
      "দেখ": 816,
      "লক্ষ": 817,
      "া ন": 818,
      " সি": 819,
      "কারণ": 820,
      "co": 821,
      "া আ": 822,
      "নিধ": 823,
      " পা": 824,
      "ওয়ামী ": 825,
      "আমরা ": 826,
      " অনু": 827,
      "ো’আ 0": 828,
      "ওয়ামী লীগ": 829,
      "অধ": 830,
      "লাই": 831,
      "ে এক": 832,
      "া প": 833,
      " আস": 834,
      "িয়ার ": 835,
      " ওয়": 836,
      "আজ": 837,
      "ত্ব": 838,
      "দান ": 839,
      "পো": 840,
      "পি ": 841,
      "মেইল": 842,
      "ের বি": 843,
      " কর্ম": 844,
      "নি। ": 845,
      "্যাট": 846,
      "বিশ্ব": 847,
      "দায়": 848,
      "শুরু": 849,
      "য়ো": 850,
      "ের জন্য": 851,
      "্যাম": 852,
      "ামী": 853,
      "on": 854,
      "দ্র": 855,
      "াছ": 856,
      "১০": 857,
      "ে বি": 858,
      "ার জন্য": 859,
      " আগ": 860,
      " নাম": 861,
      "কোন ": 862,
      " একটি ": 863,
      "d ": 864,
      "েহ": 865,
      "েবে ": 866,
      "ার স": 867,
      " মান": 868,
      " «": 869,
      " ঘ": 870,
      "» «": 871,
      "ত্যা": 872,
      "শী": 873,
      "া যায়": 874,
      "ের প্র": 875,
      "র্ব": 876,
      "ৌনকর্ম": 877,
      "টির ": 878,
      "তুন ": 879,
      "রম": 880,
      "া ও": 881,
      "া স": 882,
      "েছে ": 883,
      "স্ক": 884,
      "অন্য": 885,
      "আমি ": 886,
      "্যান্ড": 887,
      "কথা ": 888,
      "ছে। ": 889,
      "জীব": 890,
      "তাই": 891,
      "দাল": 892,
      "ুক্ত": 893,
      "োষ": 894,
      "ান, ": 895,
      "মাণ": 896,
      "বলে ": 897,
      " নিয়ে ": 898,
      "চ্ছে ": 899,
      " :": 900,
      "থে ": 901,
      "দর্শ": 902,
      "পড়": 903,
      "ম্যা": 904,
      "বিত": 905,
      "স্বা": 906,
      "ুল হ": 907,
      "েয়ার ": 908,
      "েত্র": 909,
      " বলেন, ": 910,
      "মধ্যে ": 911,
      "ভাপতি ": 912,
      "en": 913,
      "es": 914,
      "গণ": 915,
      "চাই": 916,
      "টক": 917,
      "ার ম": 918,
      "ার হ": 919,
      "স্প": 920,
      "দ্দ": 921,
      "ষ্ট্র": 922,
      " দেশের ": 923,
      "বহার কর": 924,
      "th": 925,
      "পি": 926,
      "ফিস": 927,
      "ব্": 928,
      "েছেন ": 929,
      "িত হ": 930,
      "সম্": 931,
      "চালক": 932,
      "জাম": 933,
      "পত্র ": 934,
      "ফোন": 935,
      "াফ": 936,
      "ৎস": 937,
      "৯৫": 938,
      " দিন ": 939,
      " বা ": 940,
      "ের সা": 941,
      "মুক্ত": 942,
      "না। ": 943,
      "বাইল": 944,
      "com": 945,
      "- ": 946,
      "-মেইল": 947,
      "ti": 948,
      "গু": 949,
      "দল": 950,
      "ন, ": 951,
      "পে": 952,
      "শ্ব": 953,
      "সে": 954,
      "ানি ": 955,
      "বায়": 956,
      " নয়": 957,
      "ার্চ": 958,
      "া হয়েছে। ": 959,
      "িসেবে ": 960,
      "ov": 961,
      "ইউ": 962,
      "ওই": 963,
      "বছ": 964,
      "ব্র": 965,
      "রক্ষ": 966,
      "লেও": 967,
      "সিলেট": 968,
      "ুত": 969,
      "েফ": 970,
      "ৈর": 971,
      "োন ": 972,
      "ে য": 973,
      "য়েক": 974,
      "া জ": 975,
      "িকার ": 976,
      " আই": 977,
      "্যাং": 978,
      "ার্স": 979,
      " উপ": 980,
      ") ম": 981,
      "do": 982,
      "খেল": 983,
      "দি": 984,
      "ম্প": 985,
      "শোধ": 986,
      "্স": 987,
      " সা": 988,
      "র্ক": 989,
      "াইল": 990,
      "না কর": 991,
      " লাখ": 992,
      "পাশ": 993,
      "ma": 994,
      "আস": 995,
      "গো": 996,
      "েওয়": 997,
      "১১": 998,
      "৩০": 999,
      "্তৃ": 1000,
      "বিক": 1001,
      "মন্ত্রী": 1002,
      "অভিযোগ": 1003,
      "t ": 1004,
      "থান": 1005,
      "ল্ল": 1006,
      "শাল": 1007,
      "হম": 1008,
      "ে অ": 1009,
      " কাজ": 1010,
      "ানো": 1011,
      "েম্বর 201": 1012,
      " ২০১": 1013,
      ".com": 1014,
      "গেল": 1015,
      "দুল": 1016,
      " সার্ভ": 1017,
      "প্রতি ": 1018,
      "েশন ": 1019,
      "দ্র ": 1020,
      "দ্দিন ": 1021,
      "বেক": 1022,
      " ই-মেইল": 1023,
      "ন্দ্র": 1024,
      "রোধ": 1025,
      "জাতীয়": 1026,
      "ক্টো": 1027,
      "জম": 1028,
      "ধর": 1029,
      "মহ": 1030,
      "ী হ": 1031,
      "১২": 1032,
      " বেশ": 1033,
      "ঙ্ক": 1034,
      " প্রকাশ": 1035,
      "স্থিত": 1036,
      "ুর রহ": 1037,
      "মানুষ": 1038,
      "দুই": 1039,
      "রুদ্ধ": 1040,
      " সম্পাদক": 1041,
      "**": 1042,
      "il": 1043,
      "ল্প": 1044,
      "লিম": 1045,
      "ী, ": 1046,
      "ড়া ": 1047,
      " করতে ": 1048,
      "রাখ": 1049,
      "ঞ্চ": 1050,
      "বিষয়": 1051,
      "or": 1052,
      "এলাক": 1053,
      "খান": 1054,
      "তাল": 1055,
      "ানোর ": 1056,
      "ার্ক": 1057,
      "ে দু": 1058,
      "স্ট্র": 1059,
      "িয়েছেন ": 1060,
      "তে হবে। ": 1061,
      "ন্নয়": 1062,
      " কিছু": 1063,
      "উত্ত": 1064,
      "মা ": 1065,
      "মূল": 1066,
      "লা": 1067,
      "সঙ্গে ": 1068,
      "বিল": 1069,
      "র্জ": 1070,
      "ালে ": 1071,
      "েছিল": 1072,
      " করার ": 1073,
      " তার ": 1074,
      "েয়ার": 1075,
      "। এই": 1076,
      " কোটি ": 1077,
      "ডিও": 1078,
      "বিদ্যাল": 1079,
      "পোর্ট": 1080,
      ") জ": 1081,
      "a ": 1082,
      "ou": 1083,
      "কৃত": 1084,
      "তুল": 1085,
      "ন্য": 1086,
      "প্ল": 1087,
      "ফিক": 1088,
      "বেন ": 1089,
      "শিক্ষ": 1090,
      "সের ": 1091,
      "িষ্ট": 1092,
      "ীন": 1093,
      "ীর্": 1094,
      "ুপ": 1095,
      "১৯": 1096,
      "৫০": 1097,
      " সহ": 1098,
      " মহ": 1099,
      "েছে। ": 1100,
      " দিয়ে ": 1101,
      " এলাক": 1102,
      "ার্ড": 1103,
      "ী ও": 1104,
      " ইউ": 1105,
      " বছর ": 1106,
      "অর্থ": 1107,
      "গিয়ে ": 1108,
      "চি": 1109,
      "ধুর": 1110,
      "নতুন ": 1111,
      "বয়": 1112,
      "ভালো": 1113,
      "োহ": 1114,
      "্বা": 1115,
      "া ক": 1116,
      "প্রকাশ": 1117,
      "প্রথম": 1118,
      " জেল": 1119,
      "বে।\n": 1120,
      "অনুম": 1121,
      "বার স": 1122,
      "লোচ": 1123,
      "হত্য": 1124,
      "া হয়। ": 1125,
      "নেতৃত": 1126,
      ") স": 1127,
      "-এর ": 1128,
      "টি": 1129,
      "টাই": 1130,
      "তম": 1131,
      "বড়": 1132,
      "মি": 1133,
      "েকে ": 1134,
      "েসব": 1135,
      "ে এ": 1136,
      "ে ক": 1137,
      "ে ফ": 1138,
      "ে হ": 1139,
      ", প": 1140,
      " হয়েছ": 1141,
      " হোস": 1142,
      " আর ": 1143,
      "তিন ": 1144,
      " জন ": 1145,
      " অধ": 1146,
      " বিষ": 1147,
      "সিং": 1148,
      "শাহী": 1149,
      "গ্রহণ": 1150,
      "্যাম্প": 1151,
      " ‘": 1152,
      " ঘট": 1153,
      ".g": 1154,
      "?\n": 1155,
      "ar": 1156,
      "bd": 1157,
      "এন্ড": 1158,
      "খুব": 1159,
      "ছবি": 1160,
      "ছেন ": 1161,
      "দের": 1162,
      "পরে ": 1163,
      "মিক": 1164,
      "মামল": 1165,
      "রং": 1166,
      "রস": 1167,
      "রী": 1168,
      "সার": 1169,
      "িণ": 1170,
      "ৌধুর": 1171,
      "্যে ": 1172,
      "ি ও": 1173,
      "বিধ": 1174,
      " মা": 1175,
      " মাস": 1176,
      " এম": 1177,
      "ে। এ": 1178,
      " অক্টো": 1179,
      "জিনিয়": 1180,
      "লোক": 1181,
      "বিশেষ": 1182,
      " ব্যক্ত": 1183,
      "চিত্র": 1184,
      " ৩": 1185,
      "আমাদের ": 1186,
      "টু": 1187,
      "ঠিক": 1188,
      "ফ্র": 1189,
      "বো": 1190,
      "বন্দ": 1191,
      "সূ": 1192,
      "হয়": 1193,
      "ি দ": 1194,
      "ি স": 1195,
      "বিএন": 1196,
      " সদ": 1197,
      "িকি": 1198,
      " হাজ": 1199,
      " অভি": 1200,
      "ক্ষিণ": 1201,
      "ে আপ": 1202,
      " বিশ্ব": 1203,
      "কারী": 1204,
      "িস্ত": 1205,
      "আমার ": 1206,
      "াঁচ": 1207,
      "০০০": 1208,
      "িদপ্ত": 1209,
      "সম্পাদক": 1210,
      "জের ": 1211,
      "ট্ট": 1212,
      "তারা ": 1213,
      "পুলিশ": 1214,
      "বান": 1215,
      "ভব": 1216,
      "রে": 1217,
      "াণ": 1218,
      "২৪": 1219,
      "নিট": 1220,
      " বে": 1221,
      " করা হ": 1222,
      "ুলাই": 1223,
      "ক্ল": 1224,
      "রাত": 1225,
      " নভ": 1226,
      " তাঁ": 1227,
      "কাছ": 1228,
      "াপ্ত": 1229,
      "চ্চ": 1230,
      "স্ত্র": 1231,
      "্মেল": 1232,
      " বাড়": 1233,
      "উপজেলা ": 1234,
      " পরীক্ষ": 1235,
      "০১৭": 1236,
      " ৪": 1237,
      "উঠ": 1238,
      "গঠ": 1239,
      "তাহ": 1240,
      "নার": 1241,
      "যান ": 1242,
      "োভ": 1243,
      "১৫": 1244,
      "১৬": 1245,
      " ক্ষ": 1246,
      "ানা ": 1247,
      " স্ট": 1248,
      " দিন": 1249,
      "িয়ে দ": 1250,
      "িত্ব": 1251,
      " নেত": 1252,
      "থেক": 1253,
      "স্থান": 1254,
      "ে পড়": 1255,
      " মোবাইল": 1256,
      "এমন ": 1257,
      " জানুয়ার": 1258,
      "চেয়ে ": 1259,
      "চেষ্ট": 1260,
      "বাহিন": 1261,
      "েপ্ট": 1262,
      "y ": 1263,
      "ভী": 1264,
      "ভূ": 1265,
      "ময়": 1266,
      "রেখ": 1267,
      "লেন ": 1268,
      "সঙ্গ": 1269,
      "া।\n": 1270,
      "েদের ": 1271,
      ", ব": 1272,
      " স্ব": 1273,
      "প্রিয়": 1274,
      "েই। ": 1275,
      " তার": 1276,
      " নির্": 1277,
      "ে পুলিশ": 1278,
      " টাকা ": 1279,
      "২০১৮": 1280,
      "প্রতিষ্ঠ": 1281,
      "প্রতিনিধ": 1282,
      "যাচ্ছ": 1283,
      "ঃ ৯৫": 1284,
      "ূর্ণ": 1285,
      "ছাড়া ": 1286,
      ".gov": 1287,
      " অক্টোবর ": 1288,
      "6 (1": 1289,
      "নগ": 1290,
      "পির ": 1291,
      "মে": 1292,
      "ায": 1293,
      "াঙ্গ": 1294,
      "েস্ট": 1295,
      "ৈতিক": 1296,
      "ের আ": 1297,
      " কল": 1298,
      "প্রধান ": 1299,
      "েছেন, ": 1300,
      " করতে পার": 1301,
      " প্ল": 1302,
      "ুলের ": 1303,
      "েন। এ": 1304,
      "রাষ্ট্র": 1305,
      "রিপোর্ট": 1306,
      "কাছে ": 1307,
      "িশু": 1308,
      "রাজশাহী": 1309,
      "আপনি ": 1310,
      "আপনার ": 1311,
      "োষণ": 1312,
      "ুর রহমান ": 1313,
      "ীর্ঘ": 1314,
      "িকিৎস": 1315,
      ". ": 1316,
      ".bd": 1317,
      "al": 1318,
      "ঁচ": 1319,
      "কৃ": 1320,
      "খুল": 1321,
      "ত্ম": 1322,
      "বী": 1323,
      "শহ": 1324,
      "সী": 1325,
      "হাম": 1326,
      "ীপ": 1327,
      "ীকে ": 1328,
      "ূপ": 1329,
      "…\n": 1330,
      "ের হ": 1331,
      ", আ": 1332,
      ", ফ": 1333,
      "বিভিন্ন ": 1334,
      "র্ড": 1335,
      "প্রিল": 1336,
      " বৃ": 1337,
      "ক্ষেত্র": 1338,
      "একটা ": 1339,
      " শেষ": 1340,
      "ঙ্গল": 1341,
      " নিয়": 1342,
      "এসব": 1343,
      "বেদন ": 1344,
      "ধারণ সম্পাদক": 1345,
      ".gov.bd": 1346,
      "7 (1": 1347,
      "s.gov.bd": 1348,
      "চিব": 1349,
      "ণ্য": 1350,
      "নয়": 1351,
      "পদ": 1352,
      "পত্র": 1353,
      "ভিন": 1354,
      "লা ": 1355,
      "সি ": 1356,
      "ীতে ": 1357,
      "ীরা ": 1358,
      "ুদ": 1359,
      "ে।": 1360,
      "১৮": 1361,
      "’র ": 1362,
      "ের অ": 1363,
      "ন হ": 1364,
      "ার্ট": 1365,
      "ার আ": 1366,
      " ক্র": 1367,
      ", চ": 1368,
      ", ম": 1369,
      "র্ধ": 1370,
      "ালেদ": 1371,
      "ায় ": 1372,
      "িত্ত": 1373,
      "টি কর": 1374,
      " না ": 1375,
      "্যাস": 1376,
      "ন্তব্য": 1377,
      "োনও": 1378,
      "পরিবার": 1379,
      " ট্র": 1380,
      "ন্ত্রণ": 1381,
      "বহন ": 1382,
      " রাখ": 1383,
      "শুধু": 1384,
      "dos.gov.bd": 1385,
      "ডাক": 1386,
      "নাল": 1387,
      "বদ": 1388,
      "যদি ": 1389,
      "রকার ": 1390,
      "সরকার": 1391,
      "াবি": 1392,
      "োদ": 1393,
      "ের ক": 1394,
      " কোনো": 1395,
      "ান্ড": 1396,
      " সব": 1397,
      " সাম": 1398,
      " বু": 1399,
      " করে দ": 1400,
      "টি ক": 1401,
      " না। ": 1402,
      "রিজ": 1403,
      "গ্রেফ": 1404,
      "্লাহ": 1405,
      " চল": 1406,
      "ঞ্জিনিয়": 1407,
      "পরীক্ষ": 1408,
      "ক্রম": 1409,
      " সংসদ": 1410,
      "েব্র": 1411,
      "কল্প": 1412,
      "ভারত": 1413,
      "---": 1414,
      "।’\n": 1415,
      "@dos.gov.bd": 1416,
      "re": 1417,
      "খ্য": 1418,
      "ছেল": 1419,
      "ছোট": 1420,
      "ছবি ": 1421,
      "নৌ": 1422,
      "ন। ": 1423,
      "যাব": 1424,
      "িফ": 1425,
      "িঙ্গ": 1426,
      "ুঁ": 1427,
      "েন্স": 1428,
      "ে গ": 1429,
      "ের প": 1430,
      "ারিত": 1431,
      "ালিক": 1432,
      "াকিস্ত": 1433,
      "ন্দ্র ": 1434,
      " আজ": 1435,
      " আমাদের ": 1436,
      " এপ্রিল": 1437,
      " কর্তৃ": 1438,
      "রাস": 1439,
      "িল্প": 1440,
      "্যাড": 1441,
      " শেখ": 1442,
      "োনয়": 1443,
      "স্থ্য": 1444,
      "নে কর": 1445,
      "2018": 1446,
      "ৃত্য": 1447,
      " সংবাদ": 1448,
      "আগে ": 1449,
      " দুই": 1450,
      "অনুষ্ঠ": 1451,
      "তাঁর ": 1452,
      "মাধ্যমে ": 1453,
      " আগস্ট": 1454,
      "ুল হক": 1455,
      "ফোনঃ ৯৫": 1456,
      "নেতৃত্ব": 1457,
      "ট্টগ্রাম": 1458,
      "/-": 1459,
      "at": 1460,
      "se": 1461,
      "উজ": 1462,
      "এখন ": 1463,
      "জয়": 1464,
      "ধর্ম": 1465,
      "পাল": 1466,
      "মিত": 1467,
      "যৌনকর্ম": 1468,
      "সাইট": 1469,
      "হার": 1470,
      "াযোগ": 1471,
      "ীত": 1472,
      "৩৫": 1473,
      "। কিন্তু": 1474,
      " কে": 1475,
      "নিহত": 1476,
      " মিট": 1477,
      " বলে ": 1478,
      "মাস": 1479,
      "্যাচ": 1480,
      " অর্থ": 1481,
      " শিক্ষ": 1482,
      "াহাজ": 1483,
      "ের সঙ্গে ": 1484,
      " ফেব্র": 1485,
      "ঞ্চল": 1486,
      " খেল": 1487,
      " উদ্দিন ": 1488,
      " ১০": 1489,
      " হয়। ": 1490,
      "উপজেলার ": 1491,
      " কর্মকর্ত": 1492,
      "য়োজন": 1493,
      " 1": 1494,
      "o ": 1495,
      "ংস": 1496,
      "খবর ": 1497,
      "গম": 1498,
      "জু": 1499,
      "জার": 1500,
      "তথ্য": 1501,
      "দিন": 1502,
      "দিকে ": 1503,
      "বর": 1504,
      "রুল ইসলাম": 1505,
      "শ্য": 1506,
      "ে র": 1507,
      "ে শ": 1508,
      "ারি ": 1509,
      "প্রধান": 1510,
      "ায় প": 1511,
      "ায় য": 1512,
      " মিল": 1513,
      " হয়েছে। ": 1514,
      " আর": 1515,
      " ব্যাং": 1516,
      " এস": 1517,
      "কে আ": 1518,
      "রাফ": 1519,
      "মাঝ": 1520,
      "রিশাল": 1521,
      "াতের ": 1522,
      "দ্দেশ": 1523,
      " তাদের ": 1524,
      " তথ্য": 1525,
      "য়েছে।\n": 1526,
      "িনার ": 1527,
      "দ্ধতি": 1528,
      "স্তারিত": 1529,
      "যোগ্য": 1530,
      " অনেক": 1531,
      "কর্মকর্ত": 1532,
      "ing": 1533,
      " সালের ": 1534,
      "উদ্ব": 1535,
      "mail": 1536,
      "সিংহ": 1537,
      " হাজার ": 1538,
      " ফেব্রুয়ার": 1539,
      " ৫": 1540,
      " ভা": 1541,
      "of": 1542,
      "আওয়ামী লীগ": 1543,
      "ঘরে ": 1544,
      "ছে": 1545,
      "ভয়": 1546,
      "ভোট": 1547,
      "ম্ব": 1548,
      "হাজ": 1549,
      "েওয়ার ": 1550,
      "ের চ": 1551,
      "ার ও": 1552,
      "ান। ": 1553,
      "বিরুদ্ধ": 1554,
      "প্রাপ্ত": 1555,
      "ামাল": 1556,
      " মাহ": 1557,
      " দশ": 1558,
      "ড়ক": 1559,
      " হল": 1560,
      "রাধ": 1561,
      " শ্র": 1562,
      "ক্তব্য": 1563,
      " ফোন": 1564,
      "েমন ": 1565,
      " ভালো": 1566,
      " টাক": 1567,
      "জেলা ": 1568,
      "্মদ": 1569,
      "্যান্য": 1570,
      "জ্জ": 1571,
      " ব্যবহার কর": 1572,
      " করেছেন ": 1573,
      " পর্যন্ত": 1574,
      "বন্ধু": 1575,
      "পূর্ণ": 1576,
      "দালতে ": 1577,
      " ই-মেইলঃ ": 1578,
      "ঞ্জিনিয়ার ": 1579,
      " ৭": 1580,
      "অফিস": 1581,
      "আন": 1582,
      "ইক": 1583,
      "খ্যা": 1584,
      "নেই": 1585,
      "পত্ত": 1586,
      "ব্যা": 1587,
      "যাত্র": 1588,
      "রত": 1589,
      "লাগ": 1590,
      "শাস": 1591,
      "োখ": 1592,
      "ে চ": 1593,
      "ার, ": 1594,
      " কয়েক": 1595,
      ", এ": 1596,
      "বির ": 1597,
      "র্গ": 1598,
      "মাত্র ": 1599,
      " নৌ": 1600,
      " জাত": 1601,
      " অবস্থ": 1602,
      "গ্রুপ": 1603,
      " যু": 1604,
      "ভিডিও": 1605,
      "চ্ছে। ": 1606,
      "িটির ": 1607,
      " ডিস": 1608,
      "িতে হ": 1609,
      "তে হয়": 1610,
      "অবস্থ": 1611,
      "শ্চ": 1612,
      "শ্চিত": 1613,
      " আমি ": 1614,
      " বছরের ": 1615,
      "পূর্ব": 1616,
      "বলেন, ‘": 1617,
      "ম্যান ": 1618,
      "ালেদা জ": 1619,
      " » «": 1620,
      " - ": 1621,
      "@g": 1622,
      "অপ": 1623,
      "ঘাট": 1624,
      "টাকা ": 1625,
      "থায়": 1626,
      "বৈ": 1627,
      "যে": 1628,
      "রুল": 1629,
      "লেখ": 1630,
      "হী": 1631,
      "ী। ": 1632,
      "েগ": 1633,
      "ের উ": 1634,
      "বিজ্ঞ": 1635,
      " সে": 1636,
      "বাল": 1637,
      " দিয়েছ": 1638,
      " করুন": 1639,
      "তিহাস": 1640,
      " না": 1641,
      "ক্ষণ": 1642,
      "ন্তর্": 1643,
      " তো": 1644,
      " শুরু": 1645,
      " যোগ": 1646,
      "ব্যবস্থ": 1647,
      "ব্যবহার কর": 1648,
      "দ্ধান্ত": 1649,
      " উত্ত": 1650,
      "সংবাদ": 1651,
      "নিয়োগ": 1652,
      "ভারতের ": 1653,
      "বেদন": 1654,
      "িউট": 1655,
      "তাঁদের ": 1656,
      " 2018": 1657,
      "উদ্য": 1658,
      "খনো": 1659,
      "দান কর": 1660,
      "বলে জান": 1661,
      "ঙ্গলবার ": 1662,
      "mail.com": 1663,
      " জাতীয়": 1664,
      " । ": 1665,
      "-১": 1666,
      "ne": 1667,
      "ইন": 1668,
      "ক্য": 1669,
      "গাড়": 1670,
      "তাক": 1671,
      "ধরে ": 1672,
      "ফোন ": 1673,
      "ভাই": 1674,
      "সাহ": 1675,
      "সভাপতি ": 1676,
      "াবে ": 1677,
      "ূহ": 1678,
      "েক্ষ": 1679,
      "্ন ": 1680,
      "ের এক": 1681,
      "ন প্র": 1682,
      "ার। ": 1683,
      ", জ": 1684,
      "ায়ণ": 1685,
      " মূল": 1686,
      "াক্ষ": 1687,
      "তে চ": 1688,
      " আন": 1689,
      "রাই": 1690,
      "রাস্ত": 1691,
      "ে আর ": 1692,
      "ে আমাদের ": 1693,
      "জনৈতিক": 1694,
      " তৈর": 1695,
      " শু": 1696,
      " শিপ": 1697,
      "বেষ": 1698,
      "ের সং": 1699,
      "ে দেখ": 1700,
      " লেখ": 1701,
      " ভব": 1702,
      "ক্রান্ত": 1703,
      "পাওয়া ": 1704,
      "েবসাইট": 1705,
      "ছিলেন ": 1706,
      "ে আমি ": 1707,
      "মনসিংহ": 1708,
      "খনও": 1709,
      " অনুষ্ঠ": 1710,
      "অধিদপ্ত": 1711,
      " মানুষ": 1712,
      "বিতীয়": 1713,
      "ম্পান": 1714,
      "হত্যা কর": 1715,
      "রাজশাহী বিভাগ": 1716,
      "খুলনা ": 1717,
      " সংসদ নির্বাচ": 1718,
      "রিশাল বিভাগ": 1719,
      "@gmail.com": 1720,
      "; ·": 1721,
      "ra": 1722,
      "উল": 1723,
      "এফ": 1724,
      "ওপর ": 1725,
      "কী": 1726,
      "গুরু": 1727,
      "গোল": 1728,
      "চৌধুর": 1729,
      "তাকে ": 1730,
      "বরিশাল বিভাগ": 1731,
      "মেয়": 1732,
      "সিল": 1733,
      "সেই": 1734,
      "াৎ": 1735,
      "াতির ": 1736,
      "৩৩": 1737,
      "ে থাক": 1738,
      "া র": 1739,
      "া গেছ": 1740,
      "ন ও": 1741,
      "্রম": 1742,
      "ি আ": 1743,
      "ি এবং": 1744,
      " সূ": 1745,
      " সমা": 1746,
      " সরকার": 1747,
      "নি।\n": 1748,
      "ায়ের ": 1749,
      "ায়। ": 1750,
      "ায়, ": 1751,
      " এক্স": 1752,
      " পার": 1753,
      "একই": 1754,
      "য়েছিল": 1755,
      "না, ": 1756,
      "নে হ": 1757,
      " ভার": 1758,
      "পরিষ": 1759,
      "পর্যন্ত": 1760,
      "ন্টার": 1761,
      " সংস্থ": 1762,
      "কালে ": 1763,
      "ধারিত": 1764,
      " রাজ": 1765,
      "সাথ": 1766,
      "ঘটনা ": 1767,
      "যুদ্ধ": 1768,
      "ঢাকা বিভাগ": 1769,
      " স্বা": 1770,
      "পাতাল": 1771,
      " আপনি ": 1772,
      "বিশ্ববিদ্যাল": 1773,
      " বিষয়": 1774,
      "স্থানীয়": 1775,
      "হাম্মদ": 1776,
      "ায়ণগঞ্জ": 1777,
      "  দেশ": 1778,
      " তিনি ": 1779,
      ") অক্টোবর ": 1780,
      "5 (": 1781,
      "ha": 1782,
      "is": 1783,
      "আশ": 1784,
      "ইয়": 1785,
      "উল্ল": 1786,
      "এক্স": 1787,
      "চুর ": 1788,
      "ছলাম": 1789,
      "ছাত্র": 1790,
      "থি ": 1791,
      "দ্য": 1792,
      "দ্ব": 1793,
      "বঙ্গ": 1794,
      "ব্যাট": 1795,
      "ভিত্ত": 1796,
      "লাশ": 1797,
      "সজি": 1798,
      "হস্প": 1799,
      "িরে ": 1800,
      "ী ম": 1801,
      "ূর ": 1802,
      "৬০": 1803,
      "া শ": 1804,
      "ার প": 1805,
      "ার প্র": 1806,
      " সনদ": 1807,
      " মামল": 1808,
      " হিসেবে ": 1809,
      " পড়": 1810,
      "তিন": 1811,
      "রা। ": 1812,
      "রাপত্ত": 1813,
      "েশন": 1814,
      " অপ": 1815,
      "ক্ষোভ": 1816,
      "জনাব": 1817,
      "া হল": 1818,
      " সম্মেল": 1819,
      "উপর ": 1820,
      "২০০": 1821,
      "পরিচালক": 1822,
      "২০১৬": 1823,
      "যায়। ": 1824,
      "কালীন ": 1825,
      "প্তাহ": 1826,
      "গতকাল": 1827,
      "গ্রামের ": 1828,
      "ঃ ০১৭": 1829,
      "ে আমরা ": 1830,
      " ধর": 1831,
      "কেউ": 1832,
      " প্রতিনিধ": 1833,
      "বর্তমান ": 1834,
      "নির্দেশ": 1835,
      " আলম": 1836,
      "বাজার": 1837,
      "বাজার ": 1838,
      " মিনিট": 1839,
      "ের মধ্যে ": 1840,
      "আরও": 1841,
      "শীল": 1842,
      "the ": 1843,
      "হমেদ": 1844,
      "***": 1845,
      " ইউনিয়": 1846,
      "অনুমতি ": 1847,
      "থেকেই": 1848,
      "গ্রেফতার ": 1849,
      "হস্পতি": 1850,
      " -": 1851,
      "), ": 1852,
      "ag": 1853,
      "el": 1854,
      "id": 1855,
      "te": 1856,
      "ww": 1857,
      " \n": 1858,
      "ংবাদ": 1859,
      "ইল": 1860,
      "ইসলাম": 1861,
      "ক-": 1862,
      "কাত": 1863,
      "কুম": 1864,
      "খানে ": 1865,
      "গর ": 1866,
      "চাক": 1867,
      "ছড়": 1868,
      "দন্ত": 1869,
      "ধীন ": 1870,
      "পাড়": 1871,
      "পোর": 1872,
      "বরা": 1873,
      "ভে": 1874,
      "র্য": 1875,
      "শন ": 1876,
      "শিয়": 1877,
      "শুন": 1878,
      "সভ": 1879,
      "সে ": 1880,
      "াচ": 1881,
      "ীল": 1882,
      "ী ন": 1883,
      "ৌঁ": 1884,
      "্বাস": 1885,
      "১৩": 1886,
      "২২": 1887,
      "৪০": 1888,
      "্যায়": 1889,
      "ি প": 1890,
      ", অ": 1891,
      "বাব": 1892,
      "প্রায়": 1893,
      "ায়গ": 1894,
      "িকা": 1895,
      " দো’আ 0": 1896,
      "স্ম": 1897,
      " পদ্ধতি": 1898,
      "েন।": 1899,
      " জঙ্গ": 1900,
      "েখানে ": 1901,
      "ে দেশ": 1902,
      " সমস্য": 1903,
      "ব্যবহ": 1904,
      "দ্ধার কর": 1905,
      "ে পা": 1906,
      "ে পরি": 1907,
      "পরিচাল": 1908,
      " ছাড়": 1909,
      "দেশের ": 1910,
      "পাঠ": 1911,
      "২০১৫": 1912,
      "সাধারণ": 1913,
      "তোম": 1914,
      " কোন ": 1915,
      "বিশ্বাস": 1916,
      "ang": 1917,
      "বিষয়ে ": 1918,
      "ুটবল": 1919,
      "ঢাকা-": 1920,
      " হাসিন": 1921,
      " পাঠ": 1922,
      " সার্ভেয়ার ": 1923,
      "বিষয়টি ": 1924,
      ") জুলাই": 1925,
      "রংপুর ": 1926,
      "সূচ": 1927,
      "ময়মনসিংহ": 1928,
      " কলেজ": 1929,
      "খুলনা বিভাগ": 1930,
      " ০": 1931,
      " •": 1932,
      " টি ": 1933,
      " রিপোর্ট": 1934,
      ") ": 1935,
      ") আগস্ট": 1936,
      ". ক": 1937,
      "50": 1938,
      "ad": 1939,
      "em": 1940,
      "un": 1941,
      "অতি": 1942,
      "আবার ": 1943,
      "এল": 1944,
      "ঘর্ষ": 1945,
      "চার ": 1946,
      "তব": 1947,
      "দক্ষিণ": 1948,
      "ফুল": 1949,
      "বক্তব্য": 1950,
      "যা ": 1951,
      "রূপ": 1952,
      "শ্ল": 1953,
      "সনদ": 1954,
      "িদের ": 1955,
      "ুশ": 1956,
      "ৃষ": 1957,
      "ৈনিক": 1958,
      "োজ": 1959,
      "২৩": 1960,
      "৪৩": 1961,
      "৯৯": 1962,
      "ে জ": 1963,
      "ন দ": 1964,
      "ারেল": 1965,
      " কথা ": 1966,
      "বাঁ": 1967,
      "িকেট": 1968,
      " দি": 1969,
      " ব্যা": 1970,
      " পদ": 1971,
      "তিতে ": 1972,
      "ক্ষেপ": 1973,
      " বিক্র": 1974,
      " বিভিন্ন ": 1975,
      "ান কর": 1976,
      "একজন ": 1977,
      "েটা ": 1978,
      "াজম": 1979,
      "। এর ": 1980,
      "স্তু": 1981,
      "যোগিত": 1982,
      "মানে ": 1983,
      "ৃত্ত": 1984,
      "ষ্টি ": 1985,
      " পরিবহন ": 1986,
      "সাথে ": 1987,
      "বার্ত": 1988,
      " মোঃ": 1989,
      "কমিশ": 1990,
      "জাতিক": 1991,
      " আপনার ": 1992,
      " কারণ": 1993,
      "নির্বাচন ": 1994,
      "ব্দ": 1995,
      ") সেপ্ট": 1996,
      "এন্ড শিপ": 1997,
      " নভেম্বর ": 1998,
      "of ": 1999,
      "ঞ্জিনিয়ার এন্ড শিপ": 2000,
      "\t\n": 2001,
      " ৮": 2002,
      "উট": 2003,
      "উদ্দেশ": 2004,
      "কয়েক": 2005,
      "গাঁ": 2006,
      "জল": 2007,
      "টায়": 2008,
      "ণিজ": 2009,
      "তু": 2010,
      "থাও": 2011,
      "দিক": 2012,
      "ধিক": 2013,
      "পু": 2014,
      "বুল": 2015,
      "যারা ": 2016,
      "র, ": 2017,
      "রায়": 2018,
      "রপর ": 2019,
      "লি": 2020,
      "াবার ": 2021,
      "ি-": 2022,
      "ূর্ত": 2023,
      "েণ": 2024,
      "৮৭": 2025,
      "ে ন": 2026,
      "ন জান": 2027,
      "ান।\n": 2028,
      " সিলেট": 2029,
      "নিবার ": 2030,
      "র্দ": 2031,
      "ালী": 2032,
      "ামর্শ": 2033,
      " মেয়": 2034,
      "ন্ম": 2035,
      "ড়িত": 2036,
      " হওয়ার ": 2037,
      " একা": 2038,
      "িয়াম": 2039,
      " পো": 2040,
      " পুলিশ": 2041,
      "েনা": 2042,
      "রাতে ": 2043,
      "াইন": 2044,
      "মাহ": 2045,
      " জাহাজ": 2046,
      "ওয়ায়": 2047,
      " বিএন": 2048,
      "দ্বিতীয়": 2049,
      " তুল": 2050,
      " প্রথম": 2051,
      " (৩": 2052,
      "কার্য": 2053,
      " গত": 2054,
      "নাগ": 2055,
      "এইচ": 2056,
      " উন্নয়": 2057,
      "কোর": 2058,
      "২০১৭": 2059,
      "যায়ী": 2060,
      "যাবে ": 2061,
      "যাচাই": 2062,
      "্যালয়": 2063,
      " ব্যবহ": 2064,
      "সম্পূর্ণ": 2065,
      "গঞ্জ ": 2066,
      "বুঝ": 2067,
      "বাড়ি ": 2068,
      "চারপ": 2069,
      "্যাপক": 2070,
      "কেন্দ্র": 2071,
      " স্থ": 2072,
      "ার্থীদের ": 2073,
      "on ": 2074,
      "স্বাস্থ্য": 2075,
      "বছর ": 2076,
      "সিলেট বিভাগ": 2077,
      "েয়ারম্যান ": 2078,
      "দেরকে ": 2079,
      " বিশ্ববিদ্যাল": 2080,
      "বাহিনীর ": 2081,
      "ন্তর্জাতিক": 2082,
      " 0": 2083,
      ") এপ্রিল": 2084,
      ". ন": 2085,
      ">>": 2086,
      "ইম": 2087,
      "উচ্চ": 2088,
      "ঐক্য": 2089,
      "গল": 2090,
      "টাক": 2091,
      "তৈর": 2092,
      "দার": 2093,
      "দাব": 2094,
      "দিয়ে ": 2095,
      "ফেল": 2096,
      "ব্ল": 2097,
      "বেন। ": 2098,
      "রি ": 2099,
      "রিয়": 2100,
      "শেখ": 2101,
      "সাল": 2102,
      "সিস": 2103,
      "ৃহ": 2104,
      "ে-": 2105,
      "েপ্ত": 2106,
      "েক্স": 2107,
      "োপ": 2108,
      "২৭": 2109,
      "ের একটি ": 2110,
      " ক্ল": 2111,
      "নির": 2112,
      "নিষ": 2113,
      "র্স": 2114,
      "প্রশ্": 2115,
      "ালট": 2116,
      " ম্যাচ": 2117,
      "িকা ": 2118,
      "েছেন। ": 2119,
      " হয়েছে ": 2120,
      "করণ": 2121,
      " আওয়ামী লীগ": 2122,
      " ব্র": 2123,
      " পে": 2124,
      "েলি": 2125,
      " অব": 2126,
      "ক্ষমত": 2127,
      "ুরা ": 2128,
      " শতা": 2129,
      "বেগম": 2130,
      "য়েছেন ": 2131,
      " ইন": 2132,
      " নিজ": 2133,
      "গ্রেপ্ত": 2134,
      "ের সঙ্গ": 2135,
      "স্থাপ": 2136,
      "াজিক": 2137,
      "্লাইট": 2138,
      "াদের": 2139,
      " যে ": 2140,
      "ন্দোল": 2141,
      "উপস্থিত": 2142,
      "েয়া হ": 2143,
      "ব্যক্ত": 2144,
      "ব্যবস": 2145,
      "াঁড়": 2146,
      " পরিদর্শ": 2147,
      " পরিশোধ": 2148,
      "বেশি ": 2149,
      " বিভাগরংপুর ": 2150,
      " আমরা ": 2151,
      " ধর্ম": 2152,
      "সদস্য": 2153,
      "ভাপতি": 2154,
      "পাতালে ": 2155,
      "বৃদ্ধ": 2156,
      "্যাক্স": 2157,
      "লক্ষ্য": 2158,
      "দালত": 2159,
      "স্বাম": 2160,
      ") মে ": 2161,
      ") মার্চ": 2162,
      "রেজি": 2163,
      " তাঁর ": 2164,
      "উদ্যোগ": 2165,
      "ংবাদিক": 2166,
      "ময়মনসিংহ বিভাগরংপুর ": 2167,
      "ময়মনসিংহ বিভাগরংপুর বিভাগ": 2168,
      "!\n": 2169,
      ") জানুয়ার": 2170,
      ") ফেব্রুয়ার": 2171,
      ") ডিস": 2172,
      "-৩": 2173,
      "19": 2174,
      "ac": 2175,
      "আহত": 2176,
      "উৎ": 2177,
      "কর ": 2178,
      "জার ": 2179,
      "টার দ": 2180,
      "তৃ": 2181,
      "তেই": 2182,
      "দূ": 2183,
      "দস্য": 2184,
      "নো": 2185,
      "বই": 2186,
      "মার": 2187,
      "লিখ": 2188,
      "সুম": 2189,
      "সলিম": 2190,
      "হাত": 2191,
      "াওয়": 2192,
      "িবি": 2193,
      "িস্ট": 2194,
      "ীপুর ": 2195,
      "ুই": 2196,
      "েস্ক": 2197,
      "ৌল": 2198,
      "্ঞ": 2199,
      "্প্র": 2200,
      "১৭": 2201,
      "২৫": 2202,
      "া খ": 2203,
      "া থেকে ": 2204,
      "া জান": 2205,
      "ের ন": 2206,
      "ের পর ": 2207,
      "্যার": 2208,
      "ার সময়": 2209,
      "। আর ": 2210,
      " কাল": 2211,
      "ানী": 2212,
      ", হ": 2213,
      " সেই": 2214,
      "নিউজ": 2215,
      " মার্চ": 2216,
      "াকর্ম": 2217,
      "ন্ধ্য": 2218,
      " এখন ": 2219,
      "িয়ে আ": 2220,
      "িয়েত": 2221,
      " করেন ": 2222,
      "রা, ": 2223,
      "াইড": 2224,
      "মাদ": 2225,
      "াস্ত": 2226,
      " নিহত": 2227,
      "ের সহ": 2228,
      "িসাব": 2229,
      "ে সব": 2230,
      " রেখ": 2231,
      " যৌনকর্ম": 2232,
      "েম্ব": 2233,
      "। এতে ": 2234,
      " লাই": 2235,
      " লাগ": 2236,
      "জানান, ": 2237,
      " ভাই": 2238,
      "সিড": 2239,
      " ছবি": 2240,
      "ের মতো": 2241,
      "লোড": 2242,
      "রোড": 2243,
      "ঘটনায়": 2244,
      " ব্যবস্থ": 2245,
      "ে নির্বাচ": 2246,
      "অবশ্য": 2247,
      "রুণ": 2248,
      "োসেন ": 2249,
      " স্ক": 2250,
      "রিক্ত": 2251,
      "ট্রগ্রাম": 2252,
      "ের বিরুদ্ধ": 2253,
      " ঘোষণ": 2254,
      "কথা বল": 2255,
      "ম্যাচ": 2256,
      "এলাকায়": 2257,
      "উত্তর ": 2258,
      ") জুন ": 2259,
      "লোচনা ": 2260,
      " সদস্য": 2261,
      "---সিলেট বিভাগ": 2262,
      "@dos.gov.bd\n": 2263,
      "প্রধানমন্ত্রী": 2264,
      " মাহমু": 2265,
      "ঞ্জিনিয়ার এন্ড শিপ সার্ভেয়ার ": 2266,
      "ময়মনসিংহ বিভাগরংপুর বিভাগবরিশাল বিভাগ": 2267,
      " ৬": 2268,
      " বাস": 2269,
      "-এ": 2270,
      "am": 2271,
      "ap": 2272,
      "ic": 2273,
      "lo": 2274,
      "tt": 2275,
      "ur": 2276,
      "অংশ": 2277,
      "ও দ": 2278,
      "কট": 2279,
      "কেল": 2280,
      "কোনও": 2281,
      "গড়": 2282,
      "গবেষ": 2283,
      "চট্রগ্রাম": 2284,
      "ছলিম": 2285,
      "জাহ": 2286,
      "ডি ": 2287,
      "তাম": 2288,
      "ধবার ": 2289,
      "ন-": 2290,
      "নট": 2291,
      "নের স": 2292,
      "ফু": 2293,
      "বেল": 2294,
      "মাল": 2295,
      "মিল": 2296,
      "রের স": 2297,
      "হাল": 2298,
      "াতি": 2299,
      "ুড়": 2300,
      "২৮": 2301,
      "ে ভ": 2302,
      "ারে ": 2303,
      "বিস্তারিত": 2304,
      " সিল": 2305,
      " সর্ব": 2306,
      "নির্বা": 2307,
      "নিশ্চিত": 2308,
      "র্কে ": 2309,
      "ামিনার ": 2310,
      "ায়ী": 2311,
      "িকেল": 2312,
      " দীর্ঘ": 2313,
      " আছ": 2314,
      " করে। ": 2315,
      "কে স": 2316,
      "েশনের ": 2317,
      " নং": 2318,
      " নেই": 2319,
      " জম": 2320,
      "্যাব": 2321,
      " অফিস": 2322,
      "রিদ": 2323,
      "ভাঙ": 2324,
      "্টেন ": 2325,
      " বিল": 2326,
      "ার্ল": 2327,
      "কাপ": 2328,
      "ের সদস্য": 2329,
      "াপন ": 2330,
      " রোগ": 2331,
      " সমু": 2332,
      " সময়ে ": 2333,
      " সমূহ": 2334,
      " চিকিৎস": 2335,
      "েতু": 2336,
      "াড়ে ": 2337,
      " খ্র": 2338,
      " খুল": 2339,
      "জিএম": 2340,
      "কিং": 2341,
      "তে পারেন ": 2342,
      "পরামর্শ": 2343,
      "িটেড": 2344,
      " ডল": 2345,
      "পাখ": 2346,
      "ান্তর ": 2347,
      "যাওয়ার ": 2348,
      "জ্জাম": 2349,
      "তিনি বলেন, ": 2350,
      "in ": 2351,
      " সালে ": 2352,
      "র্ষণ": 2353,
      "্যাপ্টেন ": 2354,
      "া মামল": 2355,
      " বলেন, ‘": 2356,
      "সম্ভব": 2357,
      "বছরের ": 2358,
      "েওয়া হ": 2359,
      " বেশি ": 2360,
      "লাভ": 2361,
      " জেলা ": 2362,
      " হোসেন ": 2363,
      "এন্ড এক্স": 2364,
      "বিএনপির ": 2365,
      " অভিযোগ": 2366,
      "নারায়ণগঞ্জ": 2367,
      "প্রতিনিধি ": 2368,
      "ইকেট": 2369,
      "উল্লেখ": 2370,
      "সজিদ": 2371,
      "হস্পতিবার ": 2372,
      "ৌঁছ": 2373,
      ") সেপ্টেম্বর 201": 2374,
      "ণিজ্য": 2375,
      "চট্রগ্রাম বিভাগ": 2376,
      "ামিনার ফোনঃ ৯৫": 2377,
      "এন্ড এক্সামিনার ফোনঃ ৯৫": 2378,
      ")\n": 2379,
      ". ম": 2380,
      "10": 2381,
      "22": 2382,
      "24": 2383,
      "as": 2384,
      "অথ": 2385,
      "ঈদ": 2386,
      "ও স": 2387,
      "কথ": 2388,
      "কৌ": 2389,
      "কদের ": 2390,
      "কে। ": 2391,
      "গ্": 2392,
      "ঘাত": 2393,
      "চুক্ত": 2394,
      "ছি": 2395,
      "ঠিত": 2396,
      "ড্র": 2397,
      "ডেল": 2398,
      "তায়": 2399,
      "তখন ": 2400,
      "দান": 2401,
      "ন্যা": 2402,
      "নাকে ": 2403,
      "ফরম": 2404,
      "ভার ": 2405,
      "ভাল": 2406,
      "ভ্যন্ত": 2407,
      "ম্যান": 2408,
      "যান": 2409,
      "শাক": 2410,
      "াচ্ছ": 2411,
      "ি:": 2412,
      "িও": 2413,
      "িটি ": 2414,
      "ী ব": 2415,
      "ূরণ": 2416,
      "েষ্ট": 2417,
      "েরা ": 2418,
      "েন্ড": 2419,
      "২৯": 2420,
      "৮৮": 2421,
      "া ই": 2422,
      "া এবং": 2423,
      "ের জ": 2424,
      "ের শ": 2425,
      "ন সং": 2426,
      "ার পর ": 2427,
      " কি ": 2428,
      "ানা": 2429,
      "ানগর ": 2430,
      "বিয়": 2431,
      " সর": 2432,
      " স্প": 2433,
      "নির ": 2434,
      "র্ণ": 2435,
      "র্নী": 2436,
      " হলে ": 2437,
      " হত্য": 2438,
      "করা ": 2439,
      " বন্ধ": 2440,
      " এন্ড": 2441,
      " করুন ": 2442,
      " পাল": 2443,
      "কে দেখ": 2444,
      "রাজনৈতিক": 2445,
      "িলেন ": 2446,
      " নার": 2447,
      " না কর": 2448,
      "ক্ষম": 2449,
      "ে আন": 2450,
      " বিজ্ঞ": 2451,
      " তোম": 2452,
      "ুরে ": 2453,
      " শাহ": 2454,
      " শিল্প": 2455,
      "সমস্য": 2456,
      "ী 201": 2457,
      "ের সাম": 2458,
      " রহ": 2459,
      " চৌধুর": 2460,
      "স্ত্র ": 2461,
      " গান ": 2462,
      " লোক": 2463,
      "মানবন্দ": 2464,
      "জিব": 2465,
      "হত্যা": 2466,
      "রোহ": 2467,
      " অন্যান্য": 2468,
      "যুব": 2469,
      "রাজধান": 2470,
      "া হয়।\n": 2471,
      "পক্ষে ": 2472,
      " করেছে। ": 2473,
      " আমার ": 2474,
      "পুরো": 2475,
      "মনোনয়": 2476,
      "ঢাকায়": 2477,
      " নির্বাচন ": 2478,
      " ছিলেন ": 2479,
      "ধুনিক": 2480,
      " সুন্দ": 2481,
      " পাওয়া ": 2482,
      "য়োজ": 2483,
      "ের সাথে ": 2484,
      "বায়দুল": 2485,
      "ইউনিয়": 2486,
      "ে দুই": 2487,
      "বয়স": 2488,
      "প্রকাশিত": 2489,
      " বিষয়ে ": 2490,
      " সদর ": 2491,
      "ায্য": 2492,
      "োদন ": 2493,
      " কর্তৃপক্ষ": 2494,
      " মিটার ": 2495,
      " জাতীয় সংসদ নির্বাচ": 2496,
      "গ্রেফতার কর": 2497,
      "খুলনা বিভাগময়মনসিংহ বিভাগরংপুর বিভাগবরিশাল বিভাগ": 2498,
      " শতাংশ": 2499,
      "িয়েতনাম": 2500,
      "বায়দুল ক": 2501,
      " A": 2502,
      " ভাব": 2503,
      " : ": 2504,
      ")। ": 2505,
      ") নাম": 2506,
      ". আ": 2507,
      "/এ": 2508,
      "7 (": 2509,
      "<<": 2510,
      "ed": 2511,
      "আহ": 2512,
      "আরো": 2513,
      "ইএ": 2514,
      "ইন্টার": 2515,
      "উন্নয়": 2516,
      "কেন": 2517,
      "কার কর": 2518,
      "খাদ": 2519,
      "গিয়": 2520,
      "গাজ": 2521,
      "চিকিৎস": 2522,
      "টো": 2523,
      "টে ": 2524,
      "টাল": 2525,
      "ড্ড": 2526,
      "ণাল": 2527,
      "ণ্ট": 2528,
      "তী": 2529,
      "নজ": 2530,
      "নোনয়": 2531,
      "পথ": 2532,
      "ফায়": 2533,
      "ফোর": 2534,
      "ফেসব": 2535,
      "ভুল": 2536,
      "ম্": 2537,
      "মতো": 2538,
      "রবি": 2539,
      "রীর ": 2540,
      "শল": 2541,
      "শৃ": 2542,
      "শিশু": 2543,
      "হয়ে ": 2544,
      "হীন ": 2545,
      "াবাদ": 2546,
      "িই": 2547,
      "িগ": 2548,
      "িভ": 2549,
      "ৃথ": 2550,
      "োঁ": 2551,
      "োক্ত": 2552,
      "ৌদি ": 2553,
      "১৪": 2554,
      "২৬": 2555,
      "ে না ": 2556,
      "া (": 2557,
      "া ব": 2558,
      "ের সম": 2559,
      "্রুত": 2560,
      "ান্ট": 2561,
      ", য": 2562,
      ", ‘": 2563,
      "বিরোধ": 2564,
      "বাদের ": 2565,
      "াম্প": 2566,
      "াক্ত": 2567,
      "তে প": 2568,
      "তে চাই": 2569,
      "িক্যাল": 2570,
      "েছে, ": 2571,
      "স্কার ": 2572,
      " নারী": 2573,
      " জীব": 2574,
      "ন্তত": 2575,
      "জনক": 2576,
      " শিশু": 2577,
      " প্রযুক্ত": 2578,
      "বলে ম": 2579,
      " ও প": 2580,
      " সম্": 2581,
      "ব্যান্ড": 2582,
      "িশোর": 2583,
      "যোগ দ": 2584,
      "যোগাযোগ": 2585,
      "ুমি ": 2586,
      "তে পারেন": 2587,
      "সংরক্ষ": 2588,
      " একই": 2589,
      "ক্রবার ": 2590,
      "ন্ত্রাস": 2591,
      "গুলি ": 2592,
      ", কার": 2593,
      "আগামী": 2594,
      "ে নিয়ে ": 2595,
      "বাড়িতে ": 2596,
      "মন্ত্রণাল": 2597,
      "শেষে ": 2598,
      "স্বী": 2599,
      "নিজস্ব": 2600,
      "নিজেদের ": 2601,
      " কার্য": 2602,
      "কাজ কর": 2603,
      "লাইন ": 2604,
      "ব্দুল": 2605,
      "মুক্তি ": 2606,
      "গুড়": 2607,
      "পেক্ষ": 2608,
      "হমদ": 2609,
      "ার্কিন ": 2610,
      " মাধ্যম": 2611,
      "০০০/-": 2612,
      "ক্লাব": 2613,
      "চেষ্টা কর": 2614,
      " কর্তৃক": 2615,
      "যৌনকর্মীদের ": 2616,
      " আরও": 2617,
      "উদ্বোধ": 2618,
      "ব্যাপার": 2619,
      " অবস্থায়": 2620,
      " যোগাযোগ": 2621,
      "new": 2622,
      "গুরুত্ব": 2623,
      "জিএমইএ": 2624,
      "<<>>": 2625,
      "  ": 2626,
      " c": 2627,
      " গ্রাম": 2628,
      " ...\n": 2629,
      ") নভ": 2630,
      "-0": 2631,
      "es ": 2632,
      "ঁধ": 2633,
      "ইছলাম": 2634,
      "ও আ": 2635,
      "কাম": 2636,
      "খলা ": 2637,
      "খালেদা জ": 2638,
      "চয়": 2639,
      "চলে ": 2640,
      "চট্টগ্রাম": 2641,
      "চেয়ারম্যান ": 2642,
      "তর ": 2643,
      "তাস": 2644,
      "তর্ক": 2645,
      "দয়": 2646,
      "না হ": 2647,
      "নেট": 2648,
      "পণ্য": 2649,
      "ফলে ": 2650,
      "মৃত্য": 2651,
      "রফ": 2652,
      "র‌": 2653,
      "রকম": 2654,
      "লেই": 2655,
      "ল্যান্ড": 2656,
      "শান্ত": 2657,
      "সিম": 2658,
      "া\n": 2659,
      "াটি ": 2660,
      "াস্ট": 2661,
      "াটা ": 2662,
      "িরের ": 2663,
      "ীফ": 2664,
      "ী আ": 2665,
      "ৃষ্ট": 2666,
      "েধ": 2667,
      "৯৮": 2668,
      "ে ট": 2669,
      "ে জান": 2670,
      "া এ": 2671,
      "া বা ": 2672,
      "ের সময়": 2673,
      "ারাপ": 2674,
      "। তার ": 2675,
      "। তবে ": 2676,
      " সাইট": 2677,
      " সরকার ": 2678,
      " সপ্তাহ": 2679,
      "প্রবেশ": 2680,
      "প্রার্থ": 2681,
      "ায়ক": 2682,
      "ায় স": 2683,
      "ায় অ": 2684,
      "িকল্প": 2685,
      " দ্ব": 2686,
      " দো’আ": 2687,
      "ড়াই": 2688,
      " হবে ": 2689,
      " বড়": 2690,
      " এন": 2691,
      "িয়ান": 2692,
      " করা হয়। ": 2693,
      "রাও": 2694,
      "রাষ্ট": 2695,
      "িত্য": 2696,
      " নাগ": 2697,
      " নেই। ": 2698,
      " জুন ": 2699,
      "্যাণ": 2700,
      " অভিন": 2701,
      "াত্র ": 2702,
      "ে আর": 2703,
      "ন্ত্র ": 2704,
      "ার্জ": 2705,
      "কাণ্ড": 2706,
      "বলীগ": 2707,
      "বলেছেন, ": 2708,
      " ওই": 2709,
      " ও ম": 2710,
      "াপেক্ষ": 2711,
      " চাল": 2712,
      " ফ্র": 2713,
      " ফির": 2714,
      " ফুটবল": 2715,
      "। এরপর ": 2716,
      " গণ": 2717,
      " গোল": 2718,
      "থাকলেও": 2719,
      "সিদ্ধান্ত": 2720,
      "কোর্ট": 2721,
      "ন করতে ": 2722,
      " ১১": 2723,
      "বারের ": 2724,
      "বেশী": 2725,
      "তে হবে": 2726,
      "যুগ": 2727,
      "গুলোর ": 2728,
      "সম্পর্ক": 2729,
      "মোবাইল": 2730,
      "েডিকেল": 2731,
      "ন্সট": 2732,
      "ণ্ডোম": 2733,
      " ধরে ": 2734,
      "মন্ত্রীর ": 2735,
      "and ": 2736,
      "বর্তী": 2737,
      "শ্রমিক": 2738,
      "ের দো’আ 0": 2739,
      " মিড": 2740,
      "ত্যাদি ": 2741,
      "ের সাধারণ সম্পাদক": 2742,
      " আইন": 2743,
      "এলাকার ": 2744,
      "চিন্ত": 2745,
      " অধিদপ্ত": 2746,
      "র্ধ্ব": 2747,
      "টি করপোর": 2748,
      "াবিতে ": 2749,
      " কেউ": 2750,
      " শ্রেণ": 2751,
      "@gmail.com\n": 2752,
      "চৌধুরী": 2753,
      "পরিষদ": 2754,
      ") অক্টোবর 201": 2755,
      ") জুলাই 201": 2756,
      "বার্তা ": 2757,
      "রেজিস্ট্র": 2758,
      ") ডিসেম্বর 201": 2759,
      "---সিলেট বিভাগঢাকা বিভাগ": 2760,
      " মাহমুদ": 2761,
      ") নভেম্বর 201": 2762,
      "রাষ্ট্র ": 2763,
      " \n": 2764,
      " 5": 2765,
      " S": 2766,
      " ধার": 2767,
      "-1": 2768,
      "-ঐ": 2769,
      ".\n": 2770,
      ". স": 2771,
      "2.": 2772,
      "6 (": 2773,
      "ch": 2774,
      "ro": 2775,
      "অ্যাপ": 2776,
      "আটক": 2777,
      "আত্ম": 2778,
      "ইং": 2779,
      "এটা ": 2780,
      "কত": 2781,
      "ক, ": 2782,
      "খল": 2783,
      "খাল": 2784,
      "গামী": 2785,
      "চুর": 2786,
      "চাপ": 2787,
      "ছে, ": 2788,
      "টিতে ": 2789,
      "ঠে ": 2790,
      "ডল": 2791,
      "ত্": 2792,
      "থিম": 2793,
      "দশ": 2794,
      "দার ": 2795,
      "দত্ত": 2796,
      "দো’আ 0": 2797,
      "নাত": 2798,
      "নে আ": 2799,
      "পিত": 2800,
      "বধ": 2801,
      "বদ্ধ": 2802,
      "বীর ": 2803,
      "ভুক্ত": 2804,
      "মিন": 2805,
      "শিল্প": 2806,
      "শংস": 2807,
      "সল": 2808,
      "সিক": 2809,
      "সুল": 2810,
      "হামল": 2811,
      "া:": 2812,
      "াভ": 2813,
      "িন্দ": 2814,
      "ুকে ": 2815,
      "েঁ": 2816,
      "েরি": 2817,
      "ৌসুম": 2818,
      "১০০": 2819,
      "৪৫": 2820,
      "ে ত": 2821,
      "ে একটি ": 2822,
      "য়ার": 2823,
      "য়েন ": 2824,
      "া ফ": 2825,
      "ের খ": 2826,
      "্রাম": 2827,
      " কিল": 2828,
      " কৃষ": 2829,
      "ানকে ": 2830,
      "বিজ": 2831,
      "বিস্": 2832,
      "বিদেশ": 2833,
      "বিমান ": 2834,
      "বাগ": 2835,
      "প্রদান ": 2836,
      "প্রমাণ": 2837,
      "ামচ": 2838,
      " মঙ্গলবার ": 2839,
      " দেন ": 2840,
      " দেয়": 2841,
      "ড়াইল": 2842,
      " বৈ": 2843,
      " বয়": 2844,
      " ব্ল": 2845,
      " বক্স": 2846,
      "িয়ায়": 2847,
      "িয়াস": 2848,
      " করেন। ": 2849,
      "ুলো": 2850,
      "েনের ": 2851,
      "াইকোর্ট": 2852,
      " নতুন ": 2853,
      "জনী": 2854,
      "জনগণ": 2855,
      " শী": 2856,
      "্পিউট": 2857,
      "সমর্থ": 2858,
      " ইং": 2859,
      " ইয়": 2860,
      "াজ্ঞ": 2861,
      "াপাশ": 2862,
      "ে সং": 2863,
      "ে সা": 2864,
      " যাত্র": 2865,
      "তা-": 2866,
      "ন্দেহ": 2867,
      " চুক্ত": 2868,
      "ব্যালট": 2869,
      "স্তান্তর ": 2870,
      "নাথ": 2871,
      "নাফ": 2872,
      " খুব": 2873,
      " খালেদা জ": 2874,
      "থাকলে ": 2875,
      " ভূ": 2876,
      "পরিবেশ": 2877,
      " ছেল": 2878,
      " ছবি ": 2879,
      "ৃতিক": 2880,
      "তে পারে। ": 2881,
      "া করে ": 2882,
      "কোম্পান": 2883,
      "সংখ্য": 2884,
      "নিয়মিত": 2885,
      "রোপ": 2886,
      " রাস্ত": 2887,
      " অনুম": 2888,
      "সাবেক": 2889,
      " ১৪": 2890,
      "কলেজ": 2891,
      "ুরুষ": 2892,
      ", কি": 2893,
      "চিত্র ": 2894,
      "ি হয়": 2895,
      "বেদন কর": 2896,
      "পুরের ": 2897,
      "োমিট": 2898,
      "োয়াখ": 2899,
      "ে আমার ": 2900,
      "অনুস": 2901,
      "ন্নত": 2902,
      "গেছে। ": 2903,
      "ঢাকার ": 2904,
      "er ": 2905,
      " কমিটির ": 2906,
      "অনেকেই": 2907,
      "ে প্রকাশ": 2908,
      "া প্রদান কর": 2909,
      "লক্ষ্ম": 2910,
      " ওয়েবসাইট": 2911,
      "া যায়, ": 2912,
      "ের প্রথম": 2913,
      "জীবন": 2914,
      "ess": 2915,
      "দ্দের": 2916,
      "সেন্স": 2917,
      " লাখ ডল": 2918,
      "থানার ": 2919,
      " ২০১৭": 2920,
      " এলাকার ": 2921,
      "ে ফেল": 2922,
      "ে আপনি ": 2923,
      "তাহলে ": 2924,
      " তারিখ": 2925,
      " নির্ধারিত": 2926,
      "কৃষ": 2927,
      " বৃদ্ধ": 2928,
      ", চীফ": 2929,
      " ব্যাংকের ": 2930,
      " কয়েকটি ": 2931,
      " ভবন ": 2932,
      "া গেছে, ": 2933,
      "ঘটনা ঘট": 2934,
      "বঙ্গবন্ধু": 2935,
      "শিয়ান ": 2936,
      "angl": 2937,
      ") আগস্ট 201": 2938,
      "শ্লিষ্ট": 2939,
      " পরিবহন অধিদপ্ত": 2940,
      " মোঃ শ": 2941,
      "নির্বাহী": 2942,
      " সমুদ্র": 2943,
      "জ্জামান ": 2944,
      "কৌশল": 2945,
      " নাগরিক": 2946,
      " কিলোমিট": 2947,
      " C": 2948,
      " b": 2949,
      " গ্র": 2950,
      " ২০": 2951,
      " গ্রহণ": 2952,
      ") এর ": 2953,
      "-৭": 2954,
      "3.": 2955,
      "60": 2956,
      "di": 2957,
      "gh": 2958,
      "hm": 2959,
      "im": 2960,
      "ir": 2961,
      "pp": 2962,
      "to ": 2963,
      "ইচ্ছ": 2964,
      "ইন্ড": 2965,
      "ইতিহাস": 2966,
      "ক জ": 2967,
      "ঘোষণ": 2968,
      "চোখ": 2969,
      "ছন্দ": 2970,
      "তান": 2971,
      "তদন্ত": 2972,
      "দম": 2973,
      "দিল": 2974,
      "দৈনিক": 2975,
      "ধর্ষণ": 2976,
      "নাক": 2977,
      "ন।\n": 2978,
      "নীয়": 2979,
      "নড়াইল": 2980,
      "ফো": 2981,
      "ফের": 2982,
      "ফির": 2983,
      "ববার ": 2984,
      "ব্যাপ": 2985,
      "মন্দ": 2986,
      "ম্বর ": 2987,
      "মালিক": 2988,
      "মনে কর": 2989,
      "মঙ্গলবার ": 2990,
      "যখন ": 2991,
      "রচ": 2992,
      "রেজ": 2993,
      "শায়": 2994,
      "শরাফ": 2995,
      "সকল": 2996,
      "সবাই": 2997,
      "হু": 2998,
      "হাট": 2999,
      "াং": 3000,
      "াণ্ড": 3001,
      "ি।\n": 3002,
      "িগত": 3003,
      "ীনের ": 3004,
      "ু ম": 3005,
      "ৃষ্টি ": 3006,
      "ে?": 3007,
      "েতে ": 3008,
      "েটি ": 3009,
      "েষ্ঠ": 3010,
      "েবিল": 3011,
      "ৈয়": 3012,
      "৫৪": 3013,
      "৫৫": 3014,
      "৫০০": 3015,
      "৯৩": 3016,
      "র কর": 3017,
      "ে এবং": 3018,
      "া চল": 3019,
      "ের গ": 3020,
      "ের পক্ষ": 3021,
      "ন থেকে ": 3022,
      "ি বি": 3023,
      "ি সং": 3024,
      "ার অ": 3025,
      "ার ক": 3026,
      "। তিনি ": 3027,
      " কিং": 3028,
      ", ই": 3029,
      "বিগঞ্জ": 3030,
      "বিচারপ": 3031,
      "নিম": 3032,
      "নিস": 3033,
      "নি, ": 3034,
      "প্রেম": 3035,
      "প্রত্য": 3036,
      "ালাল": 3037,
      "ায়িত্ব": 3038,
      "তে থাক": 3039,
      " দিয়": 3040,
      " হচ্ছ": 3041,
      " হবে। ": 3042,
      " আয়": 3043,
      " আন্তর্জাতিক": 3044,
      " বস": 3045,
      " করা হয়েছে। ": 3046,
      " পায়": 3047,
      " পরে ": 3048,
      " পূর্": 3049,
      "েনারেল": 3050,
      "তিনি।\n": 3051,
      "িলা ": 3052,
      "মাজ": 3053,
      "মাদেরকে ": 3054,
      " জাম": 3055,
      " জনের ": 3056,
      " জোট": 3057,
      " অতি": 3058,
      " অঞ্চল": 3059,
      " অভ্যন্ত": 3060,
      "রিচালক": 3061,
      "ভাষ": 3062,
      "্বল": 3063,
      "ক্ষু": 3064,
      "ে আবেদন": 3065,
      "ওয়েবসাইট": 3066,
      " বিস্তারিত": 3067,
      "একা": 3068,
      "একটু": 3069,
      " প্রধান ": 3070,
      "া হয়েছে ": 3071,
      "কাউ": 3072,
      "াহিদ": 3073,
      " নির": 3074,
      "িসাবে ": 3075,
      "স্থল": 3076,
      "ে সরকার": 3077,
      " রো": 3078,
      "অনুক": 3079,
      "অন্যান্য": 3080,
      " যুব": 3081,
      " যুক্ত": 3082,
      "তি হ": 3083,
      " ফোন ": 3084,
      "ভিট": 3085,
      "মুসলিম": 3086,
      " গু": 3087,
      "না।\n": 3088,
      "পরিদর্শ": 3089,
      "পরিবহন ": 3090,
      "জিটাল": 3091,
      "সিন্দ": 3092,
      " ছোট": 3093,
      " ছাত্র": 3094,
      "তে পারেন। ": 3095,
      " টু": 3096,
      "াঁদ": 3097,
      "াঁস": 3098,
      " একটু": 3099,
      "জেলার ": 3100,
      "ান্তে ": 3101,
      "রোজ": 3102,
      " ১৫": 3103,
      " কোম্পান": 3104,
      " কোথাও": 3105,
      "কল্যাণ": 3106,
      "চালিয়ে ": 3107,
      "তে হবে।\n": 3108,
      "ঘটনা": 3109,
      "া দেখ": 3110,
      "ভারপ্রাপ্ত": 3111,
      "সুন্ধ": 3112,
      "আগের ": 3113,
      "ে নিজ": 3114,
      " জানান, ": 3115,
      "মোঃ": 3116,
      "বুধবার ": 3117,
      "োমবার ": 3118,
      "তারপর ": 3119,
      "াওল": 3120,
      " মুজিব": 3121,
      "রহমান": 3122,
      "নির্মাণ": 3123,
      "ান্দ": 3124,
      "হাসচিব": 3125,
      "হাসপাতাল": 3126,
      "পূর্বে ": 3127,
      "ের মধ্যেই": 3128,
      "নির্বাচন": 3129,
      " সিরিজ": 3130,
      " ঘণ্ট": 3131,
      "শীর্ষ": 3132,
      "অন্যতম": 3133,
      "dow": 3134,
      "পাশাপাশ": 3135,
      "গোপাল": 3136,
      " ২০১৮": 3137,
      "গেলে ": 3138,
      " ই-মেইল - ": 3139,
      "স্থিতি ": 3140,
      "মূলক": 3141,
      "ফিকুল ইসলাম": 3142,
      " সহজ": 3143,
      "টাইম": 3144,
      " ঘটনায়": 3145,
      "বিএনপি ": 3146,
      "6 (12": 3147,
      "ক্রমণ": 3148,
      " শেখ হাসিন": 3149,
      "2018 (1": 3150,
      "য়োজনীয়": 3151,
      " অপরাধ": 3152,
      " ধরনের ": 3153,
      " প্রতিনিধি ": 3154,
      " ইউনিয়ন ": 3155,
      " পদ্ধতিঃ ": 3156,
      " জঙ্গি": 3157,
      "নাগরিক": 3158,
      " স্কুল": 3159,
      "গবেষণ": 3160,
      "চট্রগ্রাম বিভাগরাজশাহী বিভাগ": 3161,
      "েধাজ্ঞ": 3162,
      " মিডিয়া ": 3163,
      " ই-মেইল - c": 3164,
      " E": 3165,
      " I": 3166,
      "  ": 3167,
      " ঠ": 3168,
      " ৯": 3169,
      " উপজেলা ": 3170,
      " ভিডিও": 3171,
      "-প": 3172,
      "//": 3173,
      "00": 3174,
      "6.": 3175,
      "://": 3176,
      "ON": 3177,
      "UR": 3178,
      "eg": 3179,
      "ed ": 3180,
      "htt": 3181,
      "ns": 3182,
      "oo": 3183,
      "ই ম": 3184,
      "উদ্ধার কর": 3185,
      "ঋণ": 3186,
      "ওঠ": 3187,
      "কন": 3188,
      "কে, ": 3189,
      "চেত": 3190,
      "ছেন, ": 3191,
      "টেক": 3192,
      "ত, ": 3193,
      "থ্যা": 3194,
      "দো’আ ": 3195,
      "নেয়": 3196,
      "বরণ": 3197,
      "ভিয়েতনাম": 3198,
      "যত": 3199,
      "যথ": 3200,
      "যৌ": 3201,
      "রিত": 3202,
      "রয়েছে। ": 3203,
      "রয়েছে ": 3204,
      "রতাল": 3205,
      "লে স": 3206,
      "শক্ত": 3207,
      "শাখ": 3208,
      "শিদ": 3209,
      "শনাল": 3210,
      "সন": 3211,
      "সন্ত": 3212,
      "সির ": 3213,
      "াবাহ": 3214,
      "ী-": 3215,
      "ীর": 3216,
      "ী প": 3217,
      "ী হয়ে ": 3218,
      "ুড়ে ": 3219,
      "ূলে ": 3220,
      "ে৷": 3221,
      "েড়": 3222,
      "েয়ে ": 3223,
      "েক্ট": 3224,
      "েসিড": 3225,
      "োমুখ": 3226,
      "১২০": 3227,
      "২১": 3228,
      "৩১": 3229,
      "৫৭": 3230,
      "৬৭": 3231,
      "৭১": 3232,
      "৯৬": 3233,
      "ে বল": 3234,
      "ে এই": 3235,
      "ে এস": 3236,
      "ে ধর": 3237,
      "ে লাগ": 3238,
      "া যাবে ": 3239,
      "ের ড": 3240,
      "ের মুখ": 3241,
      "ের মাধ্যম": 3242,
      "ের কাছে ": 3243,
      "ন কমিশ": 3244,
      "্রিক": 3245,
      "ারক": 3246,
      "ার খ": 3247,
      " কন": 3248,
      " কাপ": 3249,
      " কাগ": 3250,
      " ক্যাপ্টেন ": 3251,
      "ানু": 3252,
      ", বা": 3253,
      "বিক্ষোভ": 3254,
      " সভ": 3255,
      " সন্ত": 3256,
      " সকল": 3257,
      " সভাপতি ": 3258,
      " সেপ্ট": 3259,
      "নিত": 3260,
      "ায় র": 3261,
      " মার": 3262,
      " মাম": 3263,
      " মন্ত্র": 3264,
      " মন্তব্য": 3265,
      "তে গিয়ে ": 3266,
      "েছে।\n": 3267,
      "েছি। ": 3268,
      "ড়াল": 3269,
      " হার": 3270,
      " হলো": 3271,
      " হওয়া ": 3272,
      " হচ্ছে ": 3273,
      " হস্তান্তর ": 3274,
      " এল": 3275,
      " করবে ": 3276,
      " করার জন্য": 3277,
      " পৌ": 3278,
      " পেশ": 3279,
      " পুর": 3280,
      "তিনি": 3281,
      "রাগ": 3282,
      "াইজ": 3283,
      "াইম": 3284,
      "াইকেল": 3285,
      "িতে। ": 3286,
      "িত হয়": 3287,
      "মাস্ট": 3288,
      "মাত্র": 3289,
      "মাধান ": 3290,
      " নে": 3291,
      " নম্ব": 3292,
      "্যান ": 3293,
      "রির ": 3294,
      "াতা ": 3295,
      "ে আই": 3296,
      "ে আল": 3297,
      "ে আশ": 3298,
      "ান ও": 3299,
      "ান থেকে ": 3300,
      "জনের ": 3301,
      " ত্র": 3302,
      " তাক": 3303,
      " তাই": 3304,
      " তারা ": 3305,
      " প্রস্ত": 3306,
      " প্রদান ": 3307,
      "া হলো": 3308,
      " ইম": 3309,
      "ের সব": 3310,
      "ের সু": 3311,
      "ের সভাপতি ": 3312,
      "াপনা ": 3313,
      "াদু": 3314,
      "াদিস": 3315,
      "ে সিলেট": 3316,
      " রে": 3317,
      " যদি ": 3318,
      "তাবেক": 3319,
      " ফি": 3320,
      " ফ্লাইট": 3321,
      "মুদ্র": 3322,
      "মুছলিম": 3323,
      "ে পাল": 3324,
      "ে পড়ে ": 3325,
      " গাড়": 3326,
      " গাছ": 3327,
      "নাব": 3328,
      "নাদের ": 3329,
      " লিখ": 3330,
      "াবি কর": 3331,
      "জানিয়েছ": 3332,
      " ভোট": 3333,
      "পরিশোধ": 3334,
      "জিজ": 3335,
      "তে পারে।\n": 3336,
      "তে পারবেন ": 3337,
      "পর্যায়": 3338,
      " উদ্ধার কর": 3339,
      "ক্রো": 3340,
      "নিয়র ": 3341,
      " ডা": 3342,
      "বহু": 3343,
      "সাধারণ সম্পাদক": 3344,
      " ১৩": 3345,
      "যাচ্ছে ": 3346,
      "িয়েছে। ": 3347,
      "ুয়েল": 3348,
      "কর্মসূচ": 3349,
      "তে হবে ": 3350,
      "ঘটনার ": 3351,
      "ো’আ করা ": 3352,
      " ব্যবস": 3353,
      "সুদ": 3354,
      "সুযোগ": 3355,
      "আর এ": 3356,
      "াখিল": 3357,
      "ে নিহত": 3358,
      "আইন": 3359,
      "মোহ": 3360,
      "ার দো’আ 0": 3361,
      "সামনে ": 3362,
      "সামাজিক": 3363,
      "তারিখ": 3364,
      " প্রতিষ্ঠ": 3365,
      "শ্রয়": 3366,
      "যে কোন ": 3367,
      "সদর ": 3368,
      "তাঁকে ": 3369,
      " ২৫": 3370,
      "ান্ধ": 3371,
      "ান্স": 3372,
      " হাসান ": 3373,
      " হাসপাতালে ": 3374,
      " জন্য": 3375,
      "গুলোতে ": 3376,
      " দলের ": 3377,
      " কিন্তু": 3378,
      "নির্বাচনে ": 3379,
      "আরেক": 3380,
      "ের বিপক্ষ": 3381,
      "ামীম": 3382,
      "স্কুল": 3383,
      "গণত": 3384,
      "দ্দিন": 3385,
      "িত হয়েছে। ": 3386,
      "ের সাবেক": 3387,
      "tion": 3388,
      " নয়। ": 3389,
      " নয়, ": 3390,
      " লাখ টাকা ": 3391,
      " লাখ টাক": 3392,
      "্তৃপক্ষ": 3393,
      " ২০১৬": 3394,
      " সার্ভিস": 3395,
      "জমা দ": 3396,
      "ুর রহমান": 3397,
      "স্ট্রেল": 3398,
      " এলাকায়": 3399,
      "ভালোবাস": 3400,
      "্বাধীন ": 3401,
      "বার সকাল": 3402,
      "বার সন্ধ্য": 3403,
      "নেতৃত্বাধীন ": 3404,
      "্যাম্পিয়": 3405,
      "ে আপনার ": 3406,
      " পরীক্ষা ": 3407,
      " নেতাকর্ম": 3408,
      ", ব্ল": 3409,
      " নিয়ন্ত্রণ": 3410,
      " বুঝ": 3411,
      " ব্যাংকে ": 3412,
      "ঘরে ব্যান্ড": 3413,
      " যুগ": 3414,
      " যুদ্ধ": 3415,
      "শ্চিম": 3416,
      " স্বাস্থ্য": 3417,
      "বিশ্ববিদ্যালয়ের ": 3418,
      "থি যাচাই": 3419,
      "ভিত্তিতে ": 3420,
      "রাপত্তা ": 3421,
      "ঃ ০১৭১১": 3422,
      "***\n": 3423,
      "www": 3424,
      "ে পাঠ": 3425,
      " বিএনপির ": 3426,
      " তুলে দ": 3427,
      "কোরিয়ার ": 3428,
      " বিশ্ববিদ্যালয়": 3429,
      ") এপ্রিল 201": 3430,
      "ভাপতিত্ব": 3431,
      ") মে 201": 3432,
      ") মার্চ 201": 3433,
      "টার দিকে ": 3434,
      "ৌলভী": 3435,
      "্প্রতিক": 3436,
      " ঘোষণা কর": 3437,
      "ুরে ঘরে ব্যান্ড": 3438,
      "রোহিঙ্গ": 3439,
      "শৃঙ্": 3440,
      "-ঐ-": 3441,
      ", কিন্তু": 3442,
      "ৈয়দ": 3443,
      "ভিটাম": 3444,
      "http": 3445,
      "েসিডেন্ট": 3446,
      " কাগজ": 3447,
      "ুরে ঘরে ব্যান্ড গান ": 3448,
      " ভাবে ": 3449,
      " গ্রুপ": 3450,
      " ঐক্য": 3451,
      ",50": 3452,
      "-আই": 3453,
      ".এম": 3454,
      "35": 3455,
      "70": 3456,
      "ad ": 3457,
      "ct": 3458,
      "it": 3459,
      "pl": 3460,
      "অভিন": 3461,
      "আদায়": 3462,
      "আবেদন ": 3463,
      "আহমেদ": 3464,
      "উচিত": 3465,
      "উদ্দিন ": 3466,
      "এড": 3467,
      "এখান": 3468,
      "এখানে ": 3469,
      "কবি": 3470,
      "ক হ": 3471,
      "ক প্র": 3472,
      "কের ম": 3473,
      "কপি ": 3474,
      "কামাল": 3475,
      "কণ্ডোম": 3476,
      "খরুল ইসলাম": 3477,
      "গজ": 3478,
      "গেট": 3479,
      "গল্প": 3480,
      "চুল": 3481,
      "ছয়": 3482,
      "জায়গ": 3483,
      "জন্ম": 3484,
      "ঝুঁ": 3485,
      "ডেম": 3486,
      "দেয়": 3487,
      "দানের ": 3488,
      "দীপ": 3489,
      "নারা ": 3490,
      "নোয়াখ": 3491,
      "ফট": 3492,
      "ফি ": 3493,
      "ফিল": 3494,
      "ফুট": 3495,
      "ফা ন": 3496,
      "ফসিল": 3497,
      "ব্যাং": 3498,
      "ভি ": 3499,
      "ভোগ": 3500,
      "ভক্ত": 3501,
      "ভীর ": 3502,
      "ভ্রম": 3503,
      "মেন": 3504,
      "মনে ": 3505,
      "মোট": 3506,
      "মেন্ট": 3507,
      "মসজিদ": 3508,
      "যো": 3509,
      "যানের ": 3510,
      "যেসব": 3511,
      "রয়েছ": 3512,
      "রোগ": 3513,
      "লাল": 3514,
      "শনিবার ": 3515,
      "সেটা ": 3516,
      "হোসেন ": 3517,
      "িহ": 3518,
      "ীদ": 3519,
      "ী ক": 3520,
      "ী শ": 3521,
      "ৃদ্ধ": 3522,
      "েবল": 3523,
      "েনি। ": 3524,
      "োচ": 3525,
      "০২": 3526,
      "১। ": 3527,
      "৩৭": 3528,
      "৮৪": 3529,
      "৮৪৩": 3530,
      "া চ": 3531,
      "া নি": 3532,
      "ের (": 3533,
      "ের কর": 3534,
      "ারেশন ": 3535,
      "ি প্র": 3536,
      "ার নাম": 3537,
      " কাট": 3538,
      " কপি ": 3539,
      "ানড": 3540,
      "্ত্র": 3541,
      ", 2018": 3542,
      "বিয়ের ": 3543,
      " সঙ্গে ": 3544,
      " সাড়ে ": 3545,
      "নিং": 3546,
      "নিচ্ছ": 3547,
      "বাবে ": 3548,
      "বাস্ত": 3549,
      "বাসিন্দ": 3550,
      " মে ": 3551,
      " মন্দ": 3552,
      "তে চল": 3553,
      " দিক": 3554,
      " দিয়েছেন ": 3555,
      "ড়াতে ": 3556,
      " হোক": 3557,
      " আশ": 3558,
      " আলো": 3559,
      " আহমেদ": 3560,
      " বো": 3561,
      " এত": 3562,
      " এসব": 3563,
      " করে।\n": 3564,
      " করবেন ": 3565,
      " পণ্য": 3566,
      " পাকিস্ত": 3567,
      "িত। ": 3568,
      "িলে ": 3569,
      "মাঠ": 3570,
      " জুলাই": 3571,
      " জায়গ": 3572,
      " অ্যাপ": 3573,
      "্বংস": 3574,
      "ে আদালতে ": 3575,
      " বিদেশ": 3576,
      " বিশেষ": 3577,
      " তা ": 3578,
      " তাহ": 3579,
      "ুরুর ": 3580,
      " শাম": 3581,
      " শাস্ত": 3582,
      " প্রশ্": 3583,
      " প্রধান": 3584,
      " প্রাণ": 3585,
      "া হয়েছ": 3586,
      "বলেও": 3587,
      "ির জন্য": 3588,
      "াহাড়": 3589,
      "াহিত্য": 3590,
      "েখান": 3591,
      "েটিক": 3592,
      "স্থান ": 3593,
      "ে দল": 3594,
      " ও স": 3595,
      "াপরিচালক": 3596,
      " রয়েছে। ": 3597,
      " রোহ": 3598,
      " সময়ের ": 3599,
      "ুর র": 3600,
      " চন্দ্র ": 3601,
      " চট্টগ্রাম": 3602,
      "। এমন": 3603,
      " লিম": 3604,
      " খান": 3605,
      "থাকে ": 3606,
      "থাকা ": 3607,
      "আমাকে ": 3608,
      " ভাল": 3609,
      "তার জন্য": 3610,
      "পর্য": 3611,
      "পরিকল্প": 3612,
      "কোয়": 3613,
      "সংসদ": 3614,
      "িটিশ": 3615,
      "িটিউট": 3616,
      " একটা ": 3617,
      "ন করে ": 3618,
      "বাসী": 3619,
      " ডেস্ক": 3620,
      " সংশোধ": 3621,
      "২০১৪": 3622,
      "ুন। ": 3623,
      " রাষ্ট্র": 3624,
      " পরিবেশ": 3625,
      " পরিবর্ত": 3626,
      " পরিচালক": 3627,
      " ১৯": 3628,
      " বাস্ত": 3629,
      " বাণিজ্য": 3630,
      "যাতে ": 3631,
      "প্তি ": 3632,
      "ে মি": 3633,
      "সবচেয়ে ": 3634,
      " মো.": 3635,
      "া দি": 3636,
      "া দেয়": 3637,
      "িংক": 3638,
      "বাইরে ": 3639,
      "ীগঞ্জ": 3640,
      ", কুরে ঘরে ব্যান্ড গান ": 3641,
      " বলেছেন, ": 3642,
      "আগামী ": 3643,
      "াখন্দ": 3644,
      "ে নিজের ": 3645,
      "সম্পর্কে ": 3646,
      "অবস": 3647,
      "অব্যা": 3648,
      " দু’": 3649,
      "ালোচ": 3650,
      "ি হিসেবে ": 3651,
      "চারিত": 3652,
      "ছাড়াও": 3653,
      "মুখ্য": 3654,
      "ভাবেই": 3655,
      "অনুযায়ী": 3656,
      "িউজ": 3657,
      "নির্ভ": 3658,
      "নির্ধারিত": 3659,
      "নিজের ": 3660,
      " হাসপাতাল": 3661,
      "কর্তৃ": 3662,
      " নির্বাচন": 3663,
      "নিকট": 3664,
      " দলীয়": 3665,
      "বৃহস্পতিবার ": 3666,
      "খনই": 3667,
      "কারণে ": 3668,
      "দায়িত্ব": 3669,
      "য়োজন ": 3670,
      "ার সার্ভ": 3671,
      " ঘন্ট": 3672,
      "enc": 3673,
      "ent ": 3674,
      "টকয়েন ": 3675,
      "দ্দীন ": 3676,
      "সম্প্রতি ": 3677,
      "দলীয়": 3678,
      "ম্পানি ": 3679,
      "র্জন কর": 3680,
      " মহানগর ": 3681,
      "্বান জান": 3682,
      "প্রকাশক": 3683,
      "ar ": 3684,
      "রীণ": 3685,
      "চিত্র, ": 3686,
      "স্ত্রী": 3687,
      "০১৭১১": 3688,
      " ক্ষেত্র": 3689,
      " মোবাইলঃ ০১৭": 3690,
      "ভূমিক": 3691,
      " স্বী": 3692,
      "প্রতিষ্ঠান": 3693,
      "াযথ": 3694,
      " প্লট": 3695,
      "বীজ": 3696,
      "শহরের ": 3697,
      "পত্রিকার ": 3698,
      " ক্রিকেট": 3699,
      "যাবে। ": 3700,
      "ুঁজ": 3701,
      "কে আটক": 3702,
      " ভাঙ": 3703,
      "আনন্দ": 3704,
      "খ্যাত": 3705,
      "িতে হবে। ": 3706,
      " করুন। ": 3707,
      " উত্তর ": 3708,
      "সাহায্য": 3709,
      "রাইট": 3710,
      " সূত্র": 3711,
      " ভারত": 3712,
      "পরিষদের ": 3713,
      "ছড়ি ": 3714,
      "তোমার ": 3715,
      "ঢাকা-১২": 3716,
      " ব্যাপার": 3717,
      "স্তুতি ": 3718,
      "উদ্দেশ্য": 3719,
      "সম্পূর্ণ বে": 3720,
      "কেন্দ্রীয়": 3721,
      "স্থাপন কর": 3722,
      ") জানুয়ারী 201": 3723,
      "েম্বর": 3724,
      ") জুন 201": 3725,
      "প্রধানমন্ত্রী শেখ হাসিন": 3726,
      "ঠিতব্য": 3727,
      "ন্যাশনাল": 3728,
      "রাজধানীর ": 3729,
      ") নামে এক": 3730,
      "ফেসবুক": 3731,
      "ৃথিব": 3732,
      "news": 3733,
      "াপেক্ষে ": 3734,
      " সমুদ্রগামী": 3735,
      "অনুকূলে ": 3736,
      "গোপালগঞ্জ": 3737,
      " EUR": 3738,
      "াবাহিক": 3739,
      ", ব্লক-": 3740,
      "www.": 3741,
      "শৃঙ্খলা ": 3742,
      ",50 EUR": 3743,
      "ফা নেট": 3744,
      " '": 3745,
      " /": 3746,
      " P": 3747,
      ",এম": 3748,
      "-৯": 3749,
      ". হ": 3750,
      "28": 3751,
      "33": 3752,
      "38": 3753,
      "41": 3754,
      "4 (": 3755,
      "62": 3756,
      "7.": 3757,
      "Bangl": 3758,
      "SI": 3759,
      "TE": 3760,
      "]\n": 3761,
      "ber": 3762,
      "eb": 3763,
      "le": 3764,
      "ni": 3765,
      "nse": 3766,
      "ol": 3767,
      "you": 3768,
      "»\n": 3769,
      "আসাম": 3770,
      "আদালতে ": 3771,
      "আদালত": 3772,
      "উদ্ধ": 3773,
      "এটি ": 3774,
      "ক ": 3775,
      "কা ": 3776,
      "কেই": 3777,
      "কিন": 3778,
      "গান ": 3779,
      "গির": 3780,
      "ছি ": 3781,
      "ছাই": 3782,
      "ছে।\n": 3783,
      "জুম": 3784,
      "জাতির ": 3785,
      "জবাবে ": 3786,
      "ডা": 3787,
      "ণের ": 3788,
      "তে, ": 3789,
      "তপুর ": 3790,
      "তরুণ": 3791,
      "দাম": 3792,
      "দেহ": 3793,
      "দীর্ঘ": 3794,
      "ধিকার ": 3795,
      "নং": 3796,
      "নেম": 3797,
      "নলোড": 3798,
      "পান": 3799,
      "পুল": 3800,
      "পাঁচ": 3801,
      "পাকিস্ত": 3802,
      "ফেড": 3803,
      "ভেত": 3804,
      "ভর্ত": 3805,
      "মল": 3806,
      "মৃত": 3807,
      "মার্কিন ": 3808,
      "যাক": 3809,
      "যেন ": 3810,
      "যাপন ": 3811,
      "রাম": 3812,
      "লে": 3813,
      "শা ": 3814,
      "শাম": 3815,
      "সর্ব": 3816,
      "সরকার ": 3817,
      "হেল": 3818,
      "া। এ": 3819,
      "াথম": 3820,
      "াফল": 3821,
      "ি)": 3822,
      "িঃ": 3823,
      "িদ্ধ": 3824,
      "ী জ": 3825,
      "ু, ": 3826,
      "ূজ": 3827,
      "ৃদয়": 3828,
      "েন্দ": 3829,
      "ো। ": 3830,
      "োর্ট": 3831,
      "োচ্চ": 3832,
      "০৯৯": 3833,
      "৩ ই-মেইলঃ ": 3834,
      "৬ মোবাইলঃ ০১৭": 3835,
      "”\n": 3836,
      "……": 3837,
      "ে বস": 3838,
      "ে খেল": 3839,
      "ে রাখ": 3840,
      "ে উঠ": 3841,
      "য় ব": 3842,
      "া অ": 3843,
      "ের কোনো": 3844,
      "ের উপর ": 3845,
      "্রেট": 3846,
      "্রাজ": 3847,
      "্রিম": 3848,
      "্যের ": 3849,
      "ারী ": 3850,
      "ি শ": 3851,
      "ার (": 3852,
      " কথ": 3853,
      " কুম": 3854,
      " ক্যাম্প": 3855,
      ", ছবি": 3856,
      "বিজিএমইএ": 3857,
      " সফ": 3858,
      " সে ": 3859,
      " সাই": 3860,
      " সেল": 3861,
      " সেক": 3862,
      " সবাই": 3863,
      "নিচ": 3864,
      "প্রের": 3865,
      "প্রাণ": 3866,
      "ামু": 3867,
      "াম। ": 3868,
      "ায় আ": 3869,
      " মডেল": 3870,
      "তে শুরু": 3871,
      "েছি, ": 3872,
      " দফ": 3873,
      " দ্রুত": 3874,
      " হামল": 3875,
      "করো": 3876,
      "করে ": 3877,
      " আছে। ": 3878,
      " আলোচ": 3879,
      " আহমদ": 3880,
      " বর্ত": 3881,
      " ব্যাল": 3882,
      " এগিয়ে ": 3883,
      "িয়াল": 3884,
      "স্কার": 3885,
      " পথ": 3886,
      "কে দ": 3887,
      "কে হত্যা": 3888,
      "েনদ": 3889,
      "েনে ": 3890,
      "তিনি। ": 3891,
      "রাশ": 3892,
      "রান ": 3893,
      "রাতের ": 3894,
      "াইক্রো": 3895,
      "ে। কিন্তু": 3896,
      " নেয়": 3897,
      " নাট": 3898,
      " নম্বর ": 3899,
      " অ্যা": 3900,
      "্বন্ধ": 3901,
      "ওয়েব": 3902,
      "ওয়ামী": 3903,
      " বিদ": 3904,
      " বিমানবন্দ": 3905,
      "জনপ্রিয়": 3906,
      " তলা": 3907,
      " শত": 3908,
      " প্রায়": 3909,
      "বে না। ": 3910,
      "া হয়ে ": 3911,
      "া হবে। ": 3912,
      "কাঠ": 3913,
      "কাপড়": 3914,
      "বলিক": 3915,
      "বেড়ে ": 3916,
      "বেসরকার": 3917,
      "য়েছেন। ": 3918,
      "িনেম": 3919,
      " ইমেইল": 3920,
      " ইছলাম": 3921,
      "কারীদের ": 3922,
      "কার্যালয়": 3923,
      "কারোক্ত": 3924,
      " নিউজ": 3925,
      "িসেব": 3926,
      "ে দেয়": 3927,
      "াদশ": 3928,
      " রেজ": 3929,
      " যা": 3930,
      " যখন ": 3931,
      "তাড়": 3932,
      "চ্চিত্র": 3933,
      "তি ছাড়া ": 3934,
      " চামচ": 3935,
      " ফর্ম": 3936,
      "েমন": 3937,
      "েমো": 3938,
      "২০৬ মোবাইলঃ ০১৭": 3939,
      " গিয়াস": 3940,
      "নাট": 3941,
      "েতুম": 3942,
      " লক্ষ": 3943,
      "ভাগ্য": 3944,
      "ের\n": 3945,
      "েরিক": 3946,
      "মানব": 3947,
      "মান্ত": 3948,
      " ভে": 3949,
      " ভয়": 3950,
      "জিং": 3951,
      "তে পারব": 3952,
      " টেবিল": 3953,
      " উইকেট": 3954,
      "তা ও": 3955,
      "নিয়ম": 3956,
      "বাসিক": 3957,
      " ডাক": 3958,
      "যায়।\n": 3959,
      "্যানেল": 3960,
      "প্রতিবাদ": 3961,
      "প্রতিদিন ": 3962,
      "ধারাবাহিক": 3963,
      " রাতে ": 3964,
      " রাজনৈতিক": 3965,
      "ষ্ঠু": 3966,
      " বাক্স": 3967,
      "দুঃ": 3968,
      "দু’": 3969,
      "দুর্": 3970,
      "যাদের ": 3971,
      "যাওয়া ": 3972,
      "িয়েছে ": 3973,
      "ে মামল": 3974,
      " কোর্স": 3975,
      "কলকাত": 3976,
      " মোহাম্মদ": 3977,
      "এমন": 3978,
      "া দিয়ে ": 3979,
      "বাইর": 3980,
      "ডিজিটাল": 3981,
      "অবস্থিত": 3982,
      " করেছেন। ": 3983,
      "িপি ": 3984,
      "বাড়ির ": 3985,
      "রণ করে ": 3986,
      "চারটি ": 3987,
      "োসেন": 3988,
      "জ্ঞতা ": 3989,
      "ভাবে আ": 3990,
      "ফল্য": 3991,
      "ফলাফল": 3992,
      "বর্তমানে ": 3993,
      "েসক্লাব": 3994,
      "শ্রম": 3995,
      "িউড": 3996,
      " বছর": 3997,
      "াউনলোড": 3998,
      "স্বপ": 3999,
      " স্থান": 4000,
      "বন্ধুর ": 4001,
      "শুক্রবার ": 4002,
      "আরব": 4003,
      "লাইভ": 4004,
      " কর্মকাণ্ড": 4005,
      "বিশ্বকাপ": 4006,
      " মানব": 4007,
      "ত্যাগ": 4008,
      "ৌনকর্মীদের ": 4009,
      "অন্য কোথাও": 4010,
      "জীবন ": 4011,
      " দিন জনাব": 4012,
      "মুক্তি": 4013,
      "গুণ": 4014,
      "বায়ন ": 4015,
      " উপলক্ষ": 4016,
      "দিও": 4017,
      " সাধারণ সম্পাদক": 4018,
      "আসলে ": 4019,
      "বিকেল": 4020,
      "থানায়": 4021,
      " সার্ভেয়ার": 4022,
      "উত্তর": 4023,
      "মূলত": 4024,
      "প্লেক্স": 4025,
      "১৯৬": 4026,
      "৫০৮": 4027,
      " এলাকা, ": 4028,
      "বার সকালে ": 4029,
      " হয়েছিল": 4030,
      " হয়েছেন। ": 4031,
      " হোসেন": 4032,
      " এমন ": 4033,
      "বিশেষ করে ": 4034,
      "ফ্রন্ট": 4035,
      "সূত্র": 4036,
      " অভিযান ": 4037,
      " তাঁদের ": 4038,
      "কাছ থেকে ": 4039,
      "গঠনের ": 4040,
      "১৬০৯৯": 4041,
      " মোবাইলঃ": 4042,
      " জানুয়ারি ": 4043,
      " নির্মাণ": 4044,
      "প্রতিষ্ঠান ": 4045,
      "প্রতিনিধি:": 4046,
      "নগরের ": 4047,
      "সীম": 4048,
      ", আলোক": 4049,
      "ক্ষেত্রে ": 4050,
      "@dos.gov.bd ক্যাপ্টেন ": 4051,
      "নৌ পরিবহন অধিদপ্ত": 4052,
      "রাসরি ": 4053,
      " শেখ মুজিব": 4054,
      "নেতৃত্বে ": 4055,
      "ধর্মীয়": 4056,
      " কেন্দ্র": 4057,
      "জুড়ে ": 4058,
      "শ্চয়": 4059,
      "ের উন্নয়": 4060,
      " 2018 (1": 4061,
      " 2018-0": 4062,
      " মূল্য": 4063,
      " শুধু": 4064,
      "বিশ্ববিদ্যালয়": 4065,
      "ist": 4066,
      "তিনটি ": 4067,
      " সম্মেলনে ": 4068,
      "পরিচালক (": 4069,
      "*** 2018-0": 4070,
      "ide": 4071,
      " ছাড়া ": 4072,
      " কথা বল": 4073,
      "াজমুল হ": 4074,
      "গাঁও": 4075,
      "েনাবাহিনীর ": 4076,
      " গতকাল": 4077,
      "নিষেধাজ্ঞ": 4078,
      "প্রশ্ন ": 4079,
      " পরিশোধ পদ্ধতিঃ ": 4080,
      ") ফেব্রুয়ারি ": 4081,
      " খ্রিস্ট": 4082,
      "এন্ড এক্সামিনার ফোনঃ ৯৫৫৪": 4083,
      "ড্রাই": 4084,
      "িশোরগঞ্জ": 4085,
      "সংরক্ষিত": 4086,
      "টি করপোরেশনের ": 4087,
      " কিংবা ": 4088,
      "মোঃ গিয়াস": 4089,
      "পাশাপাশি ": 4090,
      "চট্রগ্রাম বিভাগরাজশাহী বিভাগখুলনা বিভাগময়মনসিংহ বিভাগরংপুর বিভাগবরিশাল বিভাগ": 4091,
      "্যাম্পিয়ন্স": 4092,
      "থি যাচাইয়": 4093,
      "-আই-": 4094,
      " রোহিঙ্গ": 4095,
      "। এমনকি ": 4096,
      " লিমিটেড": 4097,
      "সম্পূর্ণ বেআই": 4098,
      "nse@dos.gov.bd\n": 4099,
      "াথমিক": 4100,
      "ওয়ামীলীগ": 4101,
      "২০৬ মোবাইলঃ ০১৭১৬০৯৯": 4102,
      "েতুমন্ত্র": 4103,
      "এন্ড এক্সামিনার ফোনঃ ৯৫৫৪২০৬ মোবাইলঃ ০১৭১৬০৯৯": 4104,
      "এন্ড এক্সামিনার ফোনঃ ৯৫৫৪২০৬ মোবাইলঃ ০১৭১৬০৯৯০০": 4105,
      " B": 4106,
      " s": 4107,
      " ঢ": 4108,
      " রি": 4109,
      " তিন ": 4110,
      " ?\n": 4111,
      " থেক": 4112,
      " থেকেই": 4113,
      ")।\n": 4114,
      ") ও": 4115,
      ",কে": 4116,
      "-৪": 4117,
      "-প্র": 4118,
      ".কম": 4119,
      "/প্র": 4120,
      "34": 4121,
      "55": 4122,
      "76": 4123,
      "78": 4124,
      "Mor": 4125,
      "OR": 4126,
      "PH": 4127,
      "You": 4128,
      "de ": 4129,
      "fer": 4130,
      "h ": 4131,
      "le ": 4132,
      "lin": 4133,
      "me ": 4134,
      "nlo": 4135,
      "ri": 4136,
      "tu": 4137,
      "us": 4138,
      "ঃ এস": 4139,
      "অপার": 4140,
      "আয়": 4141,
      "উন্ড": 4142,
      "উভয়": 4143,
      "ও ম": 4144,
      "ওপরে ": 4145,
      "ককে ": 4146,
      "কখনো": 4147,
      "খোল": 4148,
      "খারাপ": 4149,
      "গার": 4150,
      "গিত": 4151,
      "গাছ": 4152,
      "গ্যাস": 4153,
      "ঙে ": 4154,
      "ঙাল": 4155,
      "চাহিদ": 4156,
      "ছেন। ": 4157,
      "ছেন।\n": 4158,
      "জড়িত": 4159,
      "টম": 4160,
      "ট্যা": 4161,
      "ডেস্ক": 4162,
      "ঢ়": 4163,
      "ত দ": 4164,
      "তুমি ": 4165,
      "দী": 4166,
      "দাদ": 4167,
      "দোক": 4168,
      "দাখিল": 4169,
      "ধ্বংস": 4170,
      "নক": 4171,
      "নব": 4172,
      "নভ": 4173,
      "নী ": 4174,
      "পায়": 4175,
      "পেশ": 4176,
      "প্যাক": 4177,
      "ফি": 4178,
      "ফের ": 4179,
      "ফার": 4180,
      "ফর্ম": 4181,
      "ফ্লাইট": 4182,
      "ব্ব": 4183,
      "বার্": 4184,
      "বোম": 4185,
      "বার্স": 4186,
      "বন্য": 4187,
      "মর": 4188,
      "মিশ": 4189,
      "মন্তব্য": 4190,
      "যে স": 4191,
      "যৌন": 4192,
      "রুর": 4193,
      "রীয়": 4194,
      "রিয়ে ": 4195,
      "লে, ": 4196,
      "শব্দ": 4197,
      "সকাল": 4198,
      "সড়ক": 4199,
      "সক্ষম": 4200,
      "হল": 4201,
      "হিন": 4202,
      "হির": 4203,
      "াবাস": 4204,
      "াচল": 4205,
      "াওয়ার ": 4206,
      "াওয়া ": 4207,
      "িরা ": 4208,
      "িডি": 4209,
      "ীনে ": 4210,
      "ী এবং": 4211,
      "ী করে ": 4212,
      "ুজ": 4213,
      "ুণ": 4214,
      "ুৎ": 4215,
      "ূর": 4216,
      "ূড়": 4217,
      "ূন্য": 4218,
      "ৃষ্": 4219,
      "ৃষ্ঠ": 4220,
      "োস্ট": 4221,
      "১.": 4222,
      "২ ই-মেইলঃ ": 4223,
      "৪৭": 4224,
      "৪৯৩": 4225,
      "৬৯": 4226,
      "€ 5": 4227,
      "ে উ": 4228,
      "ে তাদের ": 4229,
      "া ল": 4230,
      "া অনেক": 4231,
      "া রাখ": 4232,
      "া অনুষ্ঠ": 4233,
      "ের ফ": 4234,
      "ের অধ": 4235,
      "ন (": 4236,
      "ার ন": 4237,
      "ার থেকে ": 4238,
      "। আমরা ": 4239,
      " কে ": 4240,
      " কাউ": 4241,
      "বিসি": 4242,
      " সুর": 4243,
      " সেব": 4244,
      " সোমবার ": 4245,
      "নির্ম": 4246,
      "বাবু": 4247,
      "বাঁচ": 4248,
      "প্রচুর ": 4249,
      " মন": 4250,
      " ম্যান": 4251,
      " মালিক": 4252,
      " মনে কর": 4253,
      "াক্": 4254,
      "াকৃতিক": 4255,
      "ন্দের ": 4256,
      "ন্বয়": 4257,
      "েছি ": 4258,
      " দ্": 4259,
      "ড়ি ": 4260,
      "ড়ার ": 4261,
      " আহ": 4262,
      " আবার ": 4263,
      " আছে ": 4264,
      " আসাম": 4265,
      " আউট": 4266,
      " বরা": 4267,
      " এ,কে": 4268,
      "িয়া": 4269,
      "িয়া, ": 4270,
      "িয়াকে ": 4271,
      " করেন": 4272,
      " করলে ": 4273,
      " করা হয়": 4274,
      " করছেন ": 4275,
      "স্বল": 4276,
      "স্বাদ": 4277,
      " পুন": 4278,
      " পূরণ": 4279,
      "কে খ": 4280,
      "কে বল": 4281,
      "কে হত্যা কর": 4282,
      "েন-": 4283,
      "েনা ": 4284,
      "েন?\n": 4285,
      "রা।\n": 4286,
      "াইয়": 4287,
      "িত।\n": 4288,
      "িল্ল": 4289,
      "মাতব": 4290,
      "মাশরাফ": 4291,
      " নগ": 4292,
      " না, ": 4293,
      " অংশ": 4294,
      "েন /": 4295,
      "ে আগ": 4296,
      "ে আজ": 4297,
      "ওয়াজ": 4298,
      " বিরোধ": 4299,
      " বিদ্য": 4300,
      "দ্বি": 4301,
      "একমত": 4302,
      "একাদশ": 4303,
      " তাল": 4304,
      " তবে ": 4305,
      "ার্জিনিয়": 4306,
      " শাখ": 4307,
      " শরী": 4308,
      " শনিবার ": 4309,
      " প্রমাণ": 4310,
      "কাগজ": 4311,
      "সমান": 4312,
      "সম্মেল": 4313,
      " (সা": 4314,
      "বেত": 4315,
      "িনায়ক": 4316,
      " ইঞ্জিনিয়ার এন্ড শিপ সার্ভেয়ার ": 4317,
      "কারী ": 4318,
      "োনম": 4319,
      "োনা ": 4320,
      "স্থি": 4321,
      "স্থগিত": 4322,
      "ে দিন": 4323,
      "্লিষ্ট": 4324,
      " ও ক": 4325,
      " ও আ": 4326,
      "াদার ": 4327,
      "ে সহ": 4328,
      "ে সনদ": 4329,
      " রং": 4330,
      " রয়েছ": 4331,
      " রয়েছে ": 4332,
      " রূপ": 4333,
      "অনেকে ": 4334,
      " সমর্থ": 4335,
      " যৌ": 4336,
      " যেন ": 4337,
      "তাতে ": 4338,
      "চ্চিত্র ": 4339,
      " চোখ": 4340,
      "ব্যান": 4341,
      "ব্যস্ত": 4342,
      "। এটি ": 4343,
      "। এ সময়": 4344,
      "ীয় ·": 4345,
      "মুন্": 4346,
      "মুনা ": 4347,
      "ে পাকিস্ত": 4348,
      " গঠ": 4349,
      " গুরু": 4350,
      " গবেষ": 4351,
      " গৃহ": 4352,
      " গোপ": 4353,
      " গুলো": 4354,
      "স্টেম": 4355,
      "স্টাফ": 4356,
      "াব্": 4357,
      "াবেন ": 4358,
      "াবর্ষ": 4359,
      "িম্বা": 4360,
      "চ্ছিল": 4361,
      " খবর ": 4362,
      "থাকে। ": 4363,
      "মানিক": 4364,
      " ভিত্ত": 4365,
      " ভার্জিনিয়": 4366,
      "এই অ": 4367,
      " ছবির ": 4368,
      "াঁট": 4369,
      "সংস্থ": 4370,
      "সংযোগ": 4371,
      "সংগ্রহ": 4372,
      "সংক্রান্ত": 4373,
      "সংকট": 4374,
      "নিয়ন্ত্রণ": 4375,
      " ডি": 4376,
      "এসই": 4377,
      " সংগ্রহ": 4378,
      "াগড়": 4379,
      "াগাছ": 4380,
      "ান্ত্রিক": 4381,
      "ত্তর ": 4382,
      "চলতি ": 4383,
      "নামূল": 4384,
      " পরিচিত": 4385,
      " অন্য": 4386,
      " অনলাইন ": 4387,
      "সাংবাদিক": 4388,
      " ১২": 4389,
      " ১৬": 4390,
      "ে মহ": 4391,
      "ে ময়": 4392,
      "যুবলীগ": 4393,
      "ঃ ০১": 4394,
      "িংয়ের ": 4395,
      "ভারসাম": 4396,
      "সুস্থ": 4397,
      "আগেই": 4398,
      "কমিটির ": 4399,
      "সহ-": 4400,
      "িদ্র": 4401,
      "সম্পদ": 4402,
      " হয়।\n": 4403,
      " জানিয়েছ": 4404,
      " করেছে ": 4405,
      "আপিল": 4406,
      "আপনাদের ": 4407,
      "এর আগে ": 4408,
      "মোহাম্মদ": 4409,
      "বুব": 4410,
      "লীগের ": 4411,
      "তারেক": 4412,
      "োয়ার ": 4413,
      "োয়াড়": 4414,
      "কেন্দ্র ": 4415,
      "an ": 4416,
      "ংশ্লিষ্ট": 4417,
      "বিষ্য": 4418,
      "অভিযান ": 4419,
      " হয়ে পড়": 4420,
      "াউল": 4421,
      "াউন্ট": 4422,
      "ারীরিক": 4423,
      " মুখ": 4424,
      " মুহ": 4425,
      "স্বত্ব": 4426,
      "ers": 4427,
      " কমিশ": 4428,
      "া প্রশাস": 4429,
      "উদযাপন ": 4430,
      "তিক্রম": 4431,
      "ট্রাক": 4432,
      "ট্রাম্প": 4433,
      "নির্বাচনী": 4434,
      "্যাকাউন্ট": 4435,
      " পাওয়ার ": 4436,
      " অনুযায়ী": 4437,
      "লাইসেন্স": 4438,
      "া পুলিশ": 4439,
      " ওয়েস্ট": 4440,
      "শীদ": 4441,
      "জীবনের ": 4442,
      "esse": 4443,
      "স্পাইড": 4444,
      "পিরাইট": 4445,
      "tion ": 4446,
      "পেয়ে ": 4447,
      "ovem": 4448,
      "বছরে ": 4449,
      "ব্রিটিশ": 4450,
      "দিবস": 4451,
      " সাংবাদিক": 4452,
      "পাশের ": 4453,
      "েওয়া হয়": 4454,
      "৩০২ ই-মেইলঃ ": 4455,
      "ে অংশ": 4456,
      " প্রকাশ করা ": 4457,
      "লিমিটেড": 4458,
      "ানোর জন্য": 4459,
      "our": 4460,
      "ন্যবাদ": 4461,
      "ীর্ণ": 4462,
      "অর্থাৎ": 4463,
      "অনুমোদ": 4464,
      " ঘটনা ": 4465,
      "খুবই": 4466,
      "লোকজন ": 4467,
      " ব্যক্তির ": 4468,
      "বোঝ": 4469,
      " ক্ষম": 4470,
      "রেখে ": 4471,
      " স্বত": 4472,
      "২০১৮ (": 4473,
      "কৃতি ": 4474,
      ", ফখরুল ইসলাম": 4475,
      " শেষে ": 4476,
      "সি পরীক্ষ": 4477,
      " ট্রফ": 4478,
      "্লাহর ": 4479,
      "2018 (": 4480,
      "ুল হক, ই": 4481,
      "ফোনঃ ৯৫৫০৮": 4482,
      "মাসুম": 4483,
      "মাঝে ": 4484,
      "যোগ্যতা ": 4485,
      " ৫৮": 4486,
      "ছেড়": 4487,
      "বিরুদ্ধে ": 4488,
      " দশমিক": 4489,
      "অপরাধ": 4490,
      "ঘাটতি ": 4491,
      "ব্যবহার করা ": 4492,
      "বলে জানিয়েছেন ": 4493,
      "গাড়ি ": 4494,
      "ফোন এক্স": 4495,
      "পাওয়া যায়": 4496,
      " অনুষ্ঠানে ": 4497,
      "গোলাপ": 4498,
      "ি এবং হস্তান্তর ": 4499,
      " সমাবেশ": 4500,
      "ায়ের কর": 4501,
      "5 (4": 4502,
      "২০১৬ (": 4503,
      "ted ": 4504,
      "পরিচালনা কর": 4505,
      " রিপোর্টার ": 4506,
      "াজমুল হক, ই": 4507,
      "৮৭৩০২ ই-মেইলঃ ": 4508,
      "েনাবাহিন": 4509,
      "এইচ-আই-": 4510,
      "২০১৭ (": 4511,
      " স্থাপ": 4512,
      " বিশ্ববিদ্যালয়ের ": 4513,
      ". নাজমুল হক, ই": 4514,
      "েলিভি": 4515,
      "ক্ষমতায়": 4516,
      "উপস্থিত ছিল": 4517,
      "ব্যক্তিগত": 4518,
      "ব্যবসায়": 4519,
      " পরিদর্শক": 4520,
      "িবিএক্স": 4521,
      " ছবিতে ": 4522,
      " ব্যবস্থাপনা ": 4523,
      "লোচনা সভ": 4524,
      "ঞ্জিনিয়ার এন্ড শিপ সার্ভেয়ার এন্ড এক্সামিনার ফোনঃ ৯৫": 4525,
      " সমূহ 0": 4526,
      " চিকিৎসক": 4527,
      "পাখি ": 4528,
      "অথচ": 4529,
      "অথবা ": 4530,
      " তোমার ": 4531,
      "ের সামনে ": 4532,
      " রহমান ": 4533,
      " সুন্দর ": 4534,
      "ইউনিয়ন ": 4535,
      "বায়দুল কাদের ": 4536,
      "বায়দুল কাদের": 4537,
      "ইন্টারনেট": 4538,
      "িগগির": 4539,
      "ৌদি আরব": 4540,
      "বিরোধী": 4541,
      "তে চাইলে ": 4542,
      " প্রযুক্তির ": 4543,
      "মন্ত্রণালয়": 4544,
      "গুরুত্বপূর্ণ": 4545,
      "র‌্যাব": 4546,
      "াস্টিক": 4547,
      "েডিকেল কলেজ": 4548,
      "ন্সটিটিউট": 4549,
      "বার্তা সম্পাদক": 4550,
      "িন্দু": 4551,
      " বয়স": 4552,
      " শীর্ষ": 4553,
      ", চীফ ইঞ্জিনিয়ার এন্ড শিপ সার্ভেয়ার ": 4554,
      "শিয়ান ফেড": 4555,
      " পূর্ব": 4556,
      "downlo": 4557,
      " জঙ্গিবাদ": 4558,
      "টেকনাফ": 4559,
      "৬৭ মোবাইলঃ": 4560,
      " পৌরস": 4561,
      "কর্মসূচি ": 4562,
      ".এম. নাজমুল হক, ই": 4563,
      "ারেশন /": 4564,
      " বোর্ড": 4565,
      "অব্যাহত": 4566,
      "িউজিক": 4567,
      "০১৭১১-৯": 4568,
      "ৃথিবীর ": 4569,
      ",এম, ফখরুল ইসলাম": 4570,
      "৩ ই-মেইলঃ nse@dos.gov.bd\n": 4571,
      "্রাজ্য": 4572,
      "প্রেরণ": 4573,
      "এমনকি ": 4574,
      "াজমুল হুদ": 4575,
      "ড্রাইভার": 4576,
      "মোঃ গিয়াস উদ্দিন ": 4577,
      "্যাম্পিয়ন্স ট্রফ": 4578,
      "এন্ড এক্সামিনার ফোনঃ ৯৫৫৪২০৬ মোবাইলঃ ০১৭১৬০৯৯০০৩ ই-মেইলঃ nse@dos.gov.bd\n": 4579,
      "ঃ এস.এম. নাজমুল হক, ই": 4580,
      "৪৯৩২৪": 4581,
      " এ,কে,এম, ফখরুল ইসলাম": 4582,
      "ফোনঃ ৯৫৫০৮৬৭ মোবাইলঃ": 4583,
      "৮৭৩০২ ই-মেইলঃ esse": 4584,
      "ঞ্জিনিয়ার এন্ড শিপ সার্ভেয়ার এন্ড এক্সামিনার ফোনঃ ৯৫৮৭৩০২ ই-মেইলঃ esse": 4585,
      "িগগিরই": 4586,
      ", চীফ ইঞ্জিনিয়ার এন্ড শিপ সার্ভেয়ার ফোনঃ ৯৫৫০৮৬৭ মোবাইলঃ": 4587,
      "শিয়ান ফেডারেশন /": 4588,
      "০১৭১১-৯৪৯৩২৪": 4589,
      "ঃ এস.এম. নাজমুল হক, ইঞ্জিনিয়ার এন্ড শিপ সার্ভেয়ার এন্ড এক্সামিনার ফোনঃ ৯৫৮৭৩০২ ই-মেইলঃ esse": 4590,
      " এ,কে,এম, ফখরুল ইসলাম, চীফ ইঞ্জিনিয়ার এন্ড শিপ সার্ভেয়ার ফোনঃ ৯৫৫০৮৬৭ মোবাইলঃ": 4591,
      " এ,কে,এম, ফখরুল ইসলাম, চীফ ইঞ্জিনিয়ার এন্ড শিপ সার্ভেয়ার ফোনঃ ৯৫৫০৮৬৭ মোবাইলঃ০১৭১১-৯৪৯৩২৪": 4592,
      " H": 4593,
      " h": 4594,
      " ঐ": 4595,
      " ভাগ": 4596,
      " উপজেল": 4597,
      " ৩০": 4598,
      " …\n": 4599,
      " থিম": 4600,
      "&F": 4601,
      "+৮৮": 4602,
      "11": 4603,
      "4.": 4604,
      "40": 4605,
      "5 (1": 4606,
      "71": 4607,
      ": হ": 4608,
      "F&F": 4609,
      "Novem": 4610,
      "ay": 4611,
      "ck": 4612,
      "ead ": 4613,
      "fre": 4614,
      "ms": 4615,
      "ob": 4616,
      "om": 4617,
      "ter": 4618,
      "um": 4619,
      "vide": 4620,
      "ংচুর ": 4621,
      "অল্প": 4622,
      "অ্যাড": 4623,
      "অন্তত": 4624,
      "অস্ট্রেল": 4625,
      "আউট": 4626,
      "ই ব": 4627,
      "ইস্ট": 4628,
      "উড়": 4629,
      "উক্ত": 4630,
      "উনি ": 4631,
      "উন্ট": 4632,
      "উজ্জ": 4633,
      "এত": 4634,
      "এতে ": 4635,
      "এগিয়ে ": 4636,
      "ওর ": 4637,
      "ও প্র": 4638,
      "ওগাঁ": 4639,
      "কান": 4640,
      "ক স": 4641,
      "খিক": 4642,
      "খান ": 4643,
      "খদ্দের": 4644,
      "গাহ": 4645,
      "গড়ে ": 4646,
      "গৃহ": 4647,
      "ঘুম": 4648,
      "ঘাতে ": 4649,
      "ঘোষ": 4650,
      "চায়": 4651,
      "চার কর": 4652,
      "চরণ": 4653,
      "চীনের ": 4654,
      "চরিত": 4655,
      "ছুর": 4656,
      "জিত": 4657,
      "জঙ্গ": 4658,
      "জয়ের ": 4659,
      "জালাল": 4660,
      "ঝিল": 4661,
      "টিক": 4662,
      "টা হ": 4663,
      "টিস": 4664,
      "টিকে ": 4665,
      "ডট": 4666,
      "ডিস": 4667,
      "ড্স": 4668,
      "ণত": 4669,
      "ণ্": 4670,
      "ণমূল": 4671,
      "তর": 4672,
      "তারের ": 4673,
      "দৌ": 4674,
      "দা ": 4675,
      "দিত": 4676,
      "দুর": 4677,
      "দেব": 4678,
      "দাঁড়": 4679,
      "ন)": 4680,
      "নে": 4681,
      "নকে ": 4682,
      "ন, ক": 4683,
      "নেস": 4684,
      "নেই। ": 4685,
      "নৈতিক": 4686,
      "পাদ": 4687,
      "পি। ": 4688,
      "পর্ব": 4689,
      "পথে ": 4690,
      "পঞ্চ": 4691,
      "প্যাড": 4692,
      "পদ্ধতি": 4693,
      "পাহাড়": 4694,
      "ফিরে ": 4695,
      "বরে ": 4696,
      "বদুল": 4697,
      "বুলের ": 4698,
      "বের হ": 4699,
      "বর্ধ": 4700,
      "বৃত্ত": 4701,
      "বর্ণ": 4702,
      "ভ্যাট": 4703,
      "মেল": 4704,
      "যার ": 4705,
      "যেক": 4706,
      "যন্ত্র": 4707,
      "রিয়ার ": 4708,
      "ল। ": 4709,
      "শত": 4710,
      "শোর ": 4711,
      "শির": 4712,
      "শিব": 4713,
      "শিষ্ট": 4714,
      "ষিক": 4715,
      "সার্": 4716,
      "সেট": 4717,
      "সার্ভ": 4718,
      "হি ": 4719,
      "হবে ": 4720,
      "হাতে ": 4721,
      "হাইকোর্ট": 4722,
      "াধ": 4723,
      "াবে": 4724,
      "িবার": 4725,
      "ীমান্ত": 4726,
      "ূচ": 4727,
      "েভ": 4728,
      "েনি": 4729,
      "েকা": 4730,
      "েওয়া ": 4731,
      "োরে ": 4732,
      "োডাক": 4733,
      "ৎস্য": 4734,
      "ৎকালীন ": 4735,
      "০.": 4736,
      "৩.": 4737,
      "৩৮": 4738,
      "৪৬": 4739,
      "৫২": 4740,
      "৫৩": 4741,
      "৭০": 4742,
      "৮, ": 4743,
      "৯০": 4744,
      "’ নাম": 4745,
      "র আ": 4746,
      "র থেকে ": 4747,
      "ে ‘": 4748,
      "ে চল": 4749,
      "ে না। ": 4750,
      "য়েড": 4751,
      "য়েন্ট": 4752,
      "া চাল": 4753,
      "া ছিল": 4754,
      "ের অনু": 4755,
      "ের দুই": 4756,
      "ের মাধ্যমে ": 4757,
      "ের ওপর ": 4758,
      "ের ঘটনায়": 4759,
      "ন ম": 4760,
      "ন নিয়ে ": 4761,
      "্যার ": 4762,
      "ার/": 4763,
      "ার।\n": 4764,
      "ি থেকে ": 4765,
      "। জ": 4766,
      "। ম": 4767,
      "। গত": 4768,
      "। আজ": 4769,
      " কী": 4770,
      " কায়": 4771,
      " কিন": 4772,
      " কোনও": 4773,
      "ান্য": 4774,
      "ানির ": 4775,
      ", ন": 4776,
      ", তার ": 4777,
      ", ঢাক": 4778,
      ", তথ্য": 4779,
      "বিত্র ": 4780,
      "বিচার": 4781,
      " সার": 4782,
      " সচিব": 4783,
      " সড়ক": 4784,
      "নিশ্চয়": 4785,
      "র্প": 4786,
      "বাক্স": 4787,
      "বাকি ": 4788,
      "বাণিজ্য": 4789,
      "প্রস্ত": 4790,
      "প্রত্যা": 4791,
      "াল্": 4792,
      " মত": 4793,
      " মতি": 4794,
      " মেট": 4795,
      " মিশ": 4796,
      " মানের ": 4797,
      "াক/": 4798,
      "াকিব": 4799,
      "েছনে ": 4800,
      " দলে ": 4801,
      " দিকে ": 4802,
      "ড়কে ": 4803,
      " হবে": 4804,
      " হতে পার": 4805,
      " হলেও": 4806,
      " হিসাব": 4807,
      " হাদিস": 4808,
      " আদালতে ": 4809,
      " আন্দোল": 4810,
      " আদালত": 4811,
      " আব্দুল": 4812,
      " বদ": 4813,
      " বহ": 4814,
      " বান": 4815,
      " বঙ্গ": 4816,
      " এজ": 4817,
      " এয়ার": 4818,
      "িয়ার": 4819,
      "িয়ে পড়": 4820,
      " করিম": 4821,
      " করেন।\n": 4822,
      " করতে হবে। ": 4823,
      " করলেন ": 4824,
      " পি": 4825,
      " পার্": 4826,
      " পত্র": 4827,
      " পাঁচ": 4828,
      " পার্ট": 4829,
      " পুরুষ": 4830,
      "রাহ": 4831,
      "রাজনী": 4832,
      "াইদ": 4833,
      "াইপ": 4834,
      "াইভ": 4835,
      "মাছ": 4836,
      "মাসের ": 4837,
      "মাথায়": 4838,
      " নট": 4839,
      " নাক": 4840,
      " নবায়ন ": 4841,
      " জনাব": 4842,
      "্যাজ": 4843,
      "্যাত": 4844,
      "রিফ": 4845,
      "রিটি ": 4846,
      "রিদ্র ": 4847,
      "েন হ": 4848,
      "ক্ষয়": 4849,
      "ে আক": 4850,
      "ে আওয়ামী লীগ": 4851,
      "ওয়ার্ক": 4852,
      "ওয়েস্ট": 4853,
      " বিমান ": 4854,
      "এক ক": 4855,
      "একবার ": 4856,
      " তাকে ": 4857,
      " তখন ": 4858,
      "ুরআ": 4859,
      " শিশ": 4860,
      " শান্ত": 4861,
      "ঙ্ঘ": 4862,
      " প্রার্থ": 4863,
      " প্রশিক্ষ": 4864,
      " প্রদান কর": 4865,
      "বে না ": 4866,
      "বে না": 4867,
      "া হত্য": 4868,
      "সময়ে ": 4869,
      "সমৃদ্ধ": 4870,
      "সম্বন্ধ": 4871,
      "বলল": 4872,
      "বলেছিল": 4873,
      "াসীন ": 4874,
      "বেড়": 4875,
      "িনি ": 4876,
      " ইন্ড": 4877,
      " ইত্যাদি ": 4878,
      "কারাগ": 4879,
      "েটিং": 4880,
      "েটিভ": 4881,
      " নিশ্চিত": 4882,
      "গ্রী": 4883,
      "ের সকল": 4884,
      "স্থায়ী": 4885,
      "াজিল": 4886,
      " রচ": 4887,
      " রপ্ত": 4888,
      " রানের ": 4889,
      "পার্ট": 4890,
      "তা। ": 4891,
      "তা, ": 4892,
      "উপলক্ষ": 4893,
      " চাক": 4894,
      " চেষ্ট": 4895,
      "েয়াল": 4896,
      " ফুট": 4897,
      " ফরম": 4898,
      "ভিন্ন": 4899,
      "ব্যয়": 4900,
      "দ্ধতি ": 4901,
      "ষ্টির ": 4902,
      "িশিং": 4903,
      "ে পৌঁছ": 4904,
      " গো": 4905,
      " গ্যাস": 4906,
      " লাল": 4907,
      " লাশ": 4908,
      "নে হয়": 4909,
      "াবহ": 4910,
      "নের জন্য": 4911,
      "ীর ক": 4912,
      "িমূল": 4913,
      "চ্ছি": 4914,
      " খাঁ": 4915,
      " খাবার ": 4916,
      "েরই": 4917,
      "েরও": 4918,
      "পরিচয়": 4919,
      "পরিস্থিতি ": 4920,
      "পরও": 4921,
      "পরবর্ত": 4922,
      "া করতে ": 4923,
      " উল্ল": 4924,
      "সংশোধ": 4925,
      "ক্রাম": 4926,
      "ক্রিকেট": 4927,
      "ন কর্তৃপক্ষ": 4928,
      "নিয়েই": 4929,
      "বাসায়": 4930,
      "বাসের চ": 4931,
      "এস  ": 4932,
      "বহেল": 4933,
      "িতে চ": 4934,
      " সংরক্ষ": 4935,
      "পাট": 4936,
      "পাওয়ার ": 4937,
      "যায়ী ": 4938,
      "্যান্স": 4939,
      "ত্তেফ": 4940,
      "েবার": 4941,
      "চলাচল": 4942,
      "রোববার ": 4943,
      " এবং উ": 4944,
      " পরিবার": 4945,
      " পরিচাল": 4946,
      " বাজার": 4947,
      "যাবে": 4948,
      "িয়েছিল": 4949,
      " থেকে মুদ্র": 4950,
      "ে ম্যাচ": 4951,
      " কোর্ট": 4952,
      "বিশিষ্ট": 4953,
      "কল করা ": 4954,
      "্যালয়ে ": 4955,
      "গ্রামে ": 4956,
      " মোতাবেক": 4957,
      "া দায়ের কর": 4958,
      "ডিজ": 4959,
      "সুবিধ": 4960,
      "সহজ": 4961,
      "সহকারী": 4962,
      "পক্ষ থেকে ": 4963,
      "ানের জন্য": 4964,
      "ছিলাম": 4965,
      "রুট": 4966,
      " করেছিল": 4967,
      " করেছেন।\n": 4968,
      "...\t": 4969,
      "এর আগ": 4970,
      "শ্বাস": 4971,
      " দুটি ": 4972,
      "ি হয়েছে। ": 4973,
      "বসবাস": 4974,
      "পুরস্কার ": 4975,
      "নীতি ": 4976,
      "ছাড়া ন": 4977,
      "জ্ঞাত": 4978,
      "ভাবনা ": 4979,
      " প্রতিবেদ": 4980,
      " প্রতিরোধ": 4981,
      "শ্রদ্ধ": 4982,
      "শ্রেষ্ঠ": 4983,
      "ঢাকা থেকে ": 4984,
      "ঢাকা অফিস": 4985,
      "নেতা ": 4986,
      "নেতাকর্ম": 4987,
      "s in ": 4988,
      " সম্পর্ক": 4989,
      " সম্পর্কে ": 4990,
      "মনো": 4991,
      "তাঁরা ": 4992,
      "রহমান ": 4993,
      "। সেই": 4994,
      " ২১": 4995,
      " ২৪": 4996,
      "মতে, ": 4997,
      " কম্পিউট": 4998,
      " হাসিনার ": 4999,
      "ুয়ারেজ": 5000,
      "বাজারের ": 5001,
      " থাকা ": 5002,
      "আলহাজ": 5003,
      "হাসপাতালে ": 5004,
      " আপনাকে ": 5005,
      " জনগণ": 5006,
      "গুলোকে ": 5007,
      " কিছ": 5008,
      "ে আসা ": 5009,
      " সিদ্ধান্ত": 5010,
      "া আওয়ামী লীগ": 5011,
      "লাইন্স": 5012,
      " আসন": 5013,
      " আসনে ": 5014,
      "ong": 5015,
      "দ্রুত": 5016,
      "া যায়। ": 5017,
      "ের প্রতি ": 5018,
      "অন্যদিকে ": 5019,
      "দালতের ": 5020,
      "en ": 5021,
      "ent": 5022,
      "ার মতো": 5023,
      " দেশের মানুষ": 5024,
      "জামিন ": 5025,
      "ৎসাহ": 5026,
      "শ্বর": 5027,
      "রক্ষা ": 5028,
      "ার্সেল": 5029,
      " উপ-": 5030,
      "গোপ": 5031,
      "গোষ্ঠ": 5032,
      "অভিযোগপত্র ": 5033,
      ".com/": 5034,
      "জাতীয় ঐক্য": 5035,
      "ধরনের ": 5036,
      "ঙ্কা ": 5037,
      " প্রকাশিত": 5038,
      "মানুষকে ": 5039,
      "ঞ্চলে ": 5040,
      "বিষয়ক": 5041,
      "মূল্য": 5042,
      "র্জেন্ট": 5043,
      "েছিলেন ": 5044,
      "প্লব": 5045,
      "প্লেট": 5046,
      "টিএ": 5047,
      "মিড": 5048,
      " হোসেন, ": 5049,
      "্যাম্পশায়": 5050,
      "ছবির ": 5051,
      "মামলায়": 5052,
      "চিত্র, অ": 5053,
      "হয়তো": 5054,
      " করা হয়েছ": 5055,
      " করা হয়েছে।\n": 5056,
      "ক্লিক": 5057,
      "ক্লাশ": 5058,
      " পরীক্ষার ": 5059,
      " ৪০": 5060,
      "গঠিত": 5061,
      " দিনে ": 5062,
      "ভূত": 5063,
      "ভূম": 5064,
      "প্রিয়ত": 5065,
      " বৃহস্পতিবার ": 5066,
      "ন্ত্রণাল": 5067,
      "ুঁজি": 5068,
      "রাসেল": 5069,
      "অনুষ্ঠিত হ": 5070,
      " অর্থবছরের ": 5071,
      " শিক্ষার্থ": 5072,
      "ঞ্চলিক": 5073,
      "কর্মকর্তাদের ": 5074,
      "ing ": 5075,
      "উদ্বৃত্ত": 5076,
      "ভিডিওচিত্র, অ": 5077,
      "বৈঠ": 5078,
      "তিহাসিক": 5079,
      " 2018 (": 5080,
      "াক্ষাৎ": 5081,
      " আনন্দ": 5082,
      " তৈরি কর": 5083,
      "মেয়র ": 5084,
      "একই সময়ে ": 5085,
      " সম্মেলন ": 5086,
      "কুমেন্ট": 5087,
      "বরাহ": 5088,
      "বাবগঞ্জ": 5089,
      "ব্যবহৃত": 5090,
      "২০১৫ (": 5091,
      " • •": 5092,
      "অতিথ": 5093,
      " কারণে ": 5094,
      " জাহাজের ": 5095,
      "কার্যক্রম": 5096,
      "গঞ্জ উপজেল": 5097,
      "ইমাম": 5098,
      "দাবি ": 5099,
      "শেখ হাসিন": 5100,
      "নিষিদ্ধ": 5101,
      "গ্রেপ্তার কর": 5102,
      "গ্রেপ্তার হ": 5103,
      " যে কোন ": 5104,
      "স্বামীর ": 5105,
      "টার দিক": 5106,
      "তৃণমূল": 5107,
      "দূত": 5108,
      "লিখিত": 5109,
      "বিস্তারিত\n": 5110,
      "উল্লেখ্য": 5111,
      " লোকজন": 5112,
      "আহ্বান জান": 5113,
      "খাদিজ": 5114,
      "নোনয়ন ": 5115,
      "ফোরাম": 5116,
      "োঁজ": 5117,
      "মন্ত্রণালয়ের ": 5118,
      "স্বীকার কর": 5119,
      " কার্যক্রম": 5120,
      "মুক্তি পে": 5121,
      "খালেদা জিয়ার ": 5122,
      "ে আরও": 5123,
      " অধিদপ্তর ": 5124,
      " খালেদা জিয়ার ": 5125,
      "কোম্পানির ": 5126,
      "ে প্রকাশিত": 5127,
      "লক্ষ্মীপুর ": 5128,
      " ওয়েবসাইটের কোনো": 5129,
      " ভবন ভাঙ": 5130,
      " মোঃ শফিক": 5131,
      "ে আবেদনপত্র ": 5132,
      "একাধিক": 5133,
      "ভারপ্রাপ্ত কর্মকর্ত": 5134,
      "সুন্ধরা, ": 5135,
      " ই-মেইল - cess": 5136,
      "যথাযথ": 5137,
      "ের মুখোমুখ": 5138,
      " সেপ্টেম্বর ": 5139,
      " মামুন ": 5140,
      " এলাকা ": 5141,
      " প্রস্তাব": 5142,
      "বার সন্ধ্যা ": 5143,
      "ঝুঁকি ": 5144,
      "নোয়াখাল": 5145,
      " জায়গায়": 5146,
      " ঘন্টার ": 5147,
      "চিত্র, ভিডিওচিত্র, অ": 5148,
      "প্রধানমন্ত্রী শেখ হাসিনা ": 5149,
      "ঠিতব্য দো’আ 0": 5150,
      "ber 1": 5151,
      "য় বর্ষ": 5152,
      " টেবিল চামচ": 5153,
      " স্থানীয়": 5154,
      "েতুমন্ত্রী ও": 5155,
      "ৃষ্টি কর": 5156,
      "মাতব্বর ": 5157,
      "একমত ?\n": 5158,
      "একাদশ জাতীয় সংসদ নির্বাচ": 5159,
      "াগড়াছ": 5160,
      "স্পাইডার": 5161,
      "পিরাইট আইন": 5162,
      " পরিদর্শক ফোন": 5163,
      "download": 5164,
      "্যাম্পিয়ন্স ট্রফিতে ": 5165,
      "ঃ এস.এম. নাজমুল হক, ইঞ্জিনিয়ার এন্ড শিপ সার্ভেয়ার এন্ড এক্সামিনার ফোনঃ ৯৫৮৭৩০২ ই-মেইলঃ esse@dos.gov.bd ক্যাপ্টেন ": 5166,
      " এ,কে,এম, ফখরুল ইসলাম, চীফ ইঞ্জিনিয়ার এন্ড শিপ সার্ভেয়ার ফোনঃ ৯৫৫০৮৬৭ মোবাইলঃ০১৭১১-৯৪৯৩২৪ ই-মেইল - cess": 5167,
      "November 1": 5168,
      "িবারিক": 5169,
      "োডাক্ট": 5170,
      ", তথ্য, ছবি": 5171,
      "বাসের চাপ": 5172,
      "ত্তেফাক/": 5173,
      " ওয়েবসাইটের কোনো লেখ": 5174,
      "চিত্র, ভিডিওচিত্র, অডিও": 5175,
      " M": 5176,
      " W": 5177,
      " p": 5178,
      " তি": 5179,
      " ।\n": 5180,
      " থে": 5181,
      " বাদ": 5182,
      " ধারণ": 5183,
      "  দেশের ": 5184,
      " ti": 5185,
      " ঠিক": 5186,
      " <<>>": 5187,
      ") য": 5188,
      ",১": 5189,
      ", কো": 5190,
      ",মামল": 5191,
      ",সম্পাদক": 5192,
      ",০০০/-": 5193,
      ",বার্তা সম্পাদক": 5194,
      "-ক": 5195,
      "-স": 5196,
      "-তে ": 5197,
      "- এ": 5198,
      "-২০১৮": 5199,
      ".)": 5200,
      "1.": 5201,
      "26": 5202,
      "30": 5203,
      "3,50 EUR": 5204,
      "::": 5205,
      ": ম": 5206,
      "AT": 5207,
      "An": 5208,
      "Pre": 5209,
      "Read ": 5210,
      "ab": 5211,
      "fi": 5212,
      "for": 5213,
      "gin": 5214,
      "ia": 5215,
      "ion": 5216,
      "ment ": 5217,
      "qu": 5218,
      "rou": 5219,
      "sh": 5220,
      "s://": 5221,
      "tw": 5222,
      "ut": 5223,
      "ve ": 5224,
      "vir": 5225,
      "অর্": 5226,
      "অঙ্গ": 5227,
      "অতি ": 5228,
      "অপর ": 5229,
      "অ্যান্ড": 5230,
      "আক": 5231,
      "আবার": 5232,
      "আবেদন": 5233,
      "আয়োজ": 5234,
      "ইট": 5235,
      "ইহ": 5236,
      "ইসি": 5237,
      "ইন্সট": 5238,
      "ঈশ্বর": 5239,
      "উদ্দীন ": 5240,
      "ঐতিহাসিক": 5241,
      "ওল": 5242,
      "ও ব": 5243,
      "ওসি": 5244,
      "ক ও": 5245,
      "কামী": 5246,
      "খাঁ": 5247,
      "খনিজ": 5248,
      "খরুল": 5249,
      "গঙ্গ": 5250,
      "গুন": 5251,
      "গন্ধ": 5252,
      "গার্ড": 5253,
      "ঘর": 5254,
      "চেয়": 5255,
      "চাট": 5256,
      "চীন ": 5257,
      "ছাপ": 5258,
      "ছি। ": 5259,
      "জান ": 5260,
      "জোট": 5261,
      "জুলাই": 5262,
      "জরুল ইসলাম": 5263,
      "জাতি": 5264,
      "জেনারেল": 5265,
      "ঝুল": 5266,
      "টি। ": 5267,
      "ডাই": 5268,
      "ডিম": 5269,
      "ণী": 5270,
      "ণ কর": 5271,
      "তল": 5272,
      "তেল": 5273,
      "তে। ": 5274,
      "তেও": 5275,
      "তেজ": 5276,
      "তবু": 5277,
      "তফসিল": 5278,
      "থর ": 5279,
      "দির ": 5280,
      "দী ": 5281,
      "দানি ": 5282,
      "দেষ্ট": 5283,
      "দাবিতে ": 5284,
      "ধরণ": 5285,
      "ধীন": 5286,
      "ধন্যবাদ": 5287,
      "নত": 5288,
      "নর": 5289,
      "নস": 5290,
      "নেশ": 5291,
      "নে স": 5292,
      "নপত্র ": 5293,
      "নবিল": 5294,
      "নানা ": 5295,
      "নোদন ": 5296,
      "পট": 5297,
      "পল": 5298,
      "পার্": 5299,
      "পাস": 5300,
      "পাব": 5301,
      "পের": 5302,
      "পিট": 5303,
      "পছন্দ": 5304,
      "ফ্ল": 5305,
      "বণ": 5306,
      "বন ": 5307,
      "বুল হ": 5308,
      "বগু": 5309,
      "ব্যাপক": 5310,
      "ভেন": 5311,
      "ভিন ": 5312,
      "ভবিষ্য": 5313,
      "মে ": 5314,
      "ম্য": 5315,
      "মার ": 5316,
      "মিন ": 5317,
      "ম এবং": 5318,
      "মেহ": 5319,
      "মার্ট": 5320,
      "মিয়ান": 5321,
      "যেমন ": 5322,
      "যদিও": 5323,
      "র-": 5324,
      "রজ": 5325,
      "রকে ": 5326,
      "র্যা": 5327,
      "রে স": 5328,
      "রুম": 5329,
      "রীন ": 5330,
      "রান্": 5331,
      "রা হল": 5332,
      "লু": 5333,
      "ল, ": 5334,
      "লেন। ": 5335,
      "লেনদ": 5336,
      "শম": 5337,
      "শি": 5338,
      "শাদ": 5339,
      "শিপ": 5340,
      "শফিক": 5341,
      "শরী": 5342,
      "শুরুর ": 5343,
      "ষু": 5344,
      "সর": 5345,
      "সার ": 5346,
      "স হ": 5347,
      "সাত": 5348,
      "সোন": 5349,
      "সাজ": 5350,
      "সাগ": 5351,
      "সত্য": 5352,
      "সন্ত্রাস": 5353,
      "হুম": 5354,
      "হ্যাম্পশায়": 5355,
      "াবা": 5356,
      "াবল": 5357,
      "াংশ": 5358,
      "াঞ্চল": 5359,
      "ি\n": 5360,
      "িন্ট": 5361,
      "িধার": 5362,
      "িরো": 5363,
      "িনি। ": 5364,
      "ীম": 5365,
      "ীড়": 5366,
      "ী ত": 5367,
      "ীনা ": 5368,
      "ীপুরের ": 5369,
      "ুতে ": 5370,
      "ু হ": 5371,
      "ুদের ": 5372,
      "ুদ্ধ": 5373,
      "ৃতি": 5374,
      "ৃতি ": 5375,
      "ৃবৃ": 5376,
      "ৃশ্য": 5377,
      "ে'": 5378,
      "েউ": 5379,
      "ে’": 5380,
      "েঙ্গ": 5381,
      "েরে ": 5382,
      "েএম": 5383,
      "েন্দ্র": 5384,
      "োশ": 5385,
      "ো ম": 5386,
      "০৮": 5387,
      "১)": 5388,
      "২.": 5389,
      "৩২": 5390,
      "৩৬": 5391,
      "৫ (": 5392,
      "৬.": 5393,
      "৭৬": 5394,
      "৯৩৫": 5395,
      "‌চিব": 5396,
      "• •": 5397,
      "য়ার ": 5398,
      "য়েল": 5399,
      "য়াত": 5400,
      "ের ই": 5401,
      "ের ত": 5402,
      "ের মু": 5403,
      "ের শেষ": 5404,
      "ন শুরু": 5405,
      "্রাট": 5406,
      "্যা ": 5407,
      "্যতার ": 5408,
      "ারিস্ট": 5409,
      "ি না। ": 5410,
      "ার বি": 5411,
      "ার এবং": 5412,
      "ার কারণ": 5413,
      "ার কথা ": 5414,
      "ার প্রধান ": 5415,
      "ার পরিবার": 5416,
      "। পর": 5417,
      "। আমার ": 5418,
      " কবি": 5419,
      " কালো": 5420,
      " কখনও": 5421,
      "ান-": 5422,
      "ানায়": 5423,
      "ানিক": 5424,
      "ানদের ": 5425,
      "ান, স": 5426,
      ", গ": 5427,
      ", ল": 5428,
      ", বি": 5429,
      ",  দেশ": 5430,
      ", আর ": 5431,
      "বিএ": 5432,
      "বিয়ে ": 5433,
      "বিবে": 5434,
      "বিমান": 5435,
      "বিপক্ষ": 5436,
      "বিমানবন্দ": 5437,
      " সার্": 5438,
      " সঙ্গ": 5439,
      " সেতু": 5440,
      " সিনেম": 5441,
      "নিও": 5442,
      "নিতে ": 5443,
      "নিটি ": 5444,
      "নিষ্ঠ": 5445,
      "নিরাপত্ত": 5446,
      "র্চ": 5447,
      "বান ": 5448,
      "বাবা": 5449,
      "বাবা ": 5450,
      "প্রশাস": 5451,
      "প্রেসিডেন্ট": 5452,
      "ালক": 5453,
      "ামার": 5454,
      "ামুন": 5455,
      "ায় ন": 5456,
      " মাল": 5457,
      " ম্যা": 5458,
      " মহাসচিব": 5459,
      " মন্ত্রণাল": 5460,
      "াকার": 5461,
      "াকিম": 5462,
      "াক্স": 5463,
      "তে অ": 5464,
      "তে না ": 5465,
      "িকার": 5466,
      " দায়": 5467,
      " দেন। ": 5468,
      " দেব": 5469,
      " দাশ": 5470,
      " দোক": 5471,
      "ড়িয়ে ": 5472,
      " হক": 5473,
      " হাত": 5474,
      " আট": 5475,
      " আফ": 5476,
      " আহত": 5477,
      " আবেদন ": 5478,
      " আবদ": 5479,
      " বন্দ": 5480,
      " বোল": 5481,
      " বক্তব্য": 5482,
      " এটি ": 5483,
      " এটা ": 5484,
      " এখনও": 5485,
      "িয়ান ": 5486,
      "িয়ে প": 5487,
      "িয়ারী": 5488,
      " করব": 5489,
      " করে": 5490,
      " পর্ব": 5491,
      "ুল ক": 5492,
      "কে এক": 5493,
      "কে নিয়ে ": 5494,
      "তিল": 5495,
      "তিহ": 5496,
      "রাট": 5497,
      "রাপদ": 5498,
      "েশাদ": 5499,
      "িল্যান্ড": 5500,
      "দের মধ্য": 5501,
      "মাগ": 5502,
      "মাসুদ": 5503,
      "ে। স": 5504,
      " না হ": 5505,
      " না।\n": 5506,
      " জাহ": 5507,
      "্যাসের ": 5508,
      " অথ": 5509,
      " অ্যাল": 5510,
      " অ্যান্ড": 5511,
      "রিং": 5512,
      "রিব": 5513,
      "রিন ": 5514,
      "রিজের ": 5515,
      "ভাবিক": 5516,
      "্বত্য": 5517,
      "াত্ত": 5518,
      "াত্ম": 5519,
      "াত তুলে দ": 5520,
      "েইজিং": 5521,
      " বিমান": 5522,
      "দ্ভ": 5523,
      " তরুণ": 5524,
      "ার্মান": 5525,
      " শহ": 5526,
      " শুন": 5527,
      " প্রতি ": 5528,
      " প্রাপ্ত": 5529,
      " প্রকল্প": 5530,
      "া হিসেবে ": 5531,
      "া হয়েছে।\n": 5532,
      "কাস্ট": 5533,
      "কাটা ": 5534,
      "সমূহ": 5535,
      "সম্রাট": 5536,
      "বলেট": 5537,
      "াসহ": 5538,
      "াসিম": 5539,
      "াহ্ম": 5540,
      "াহায্য": 5541,
      " (স": 5542,
      "বে, ": 5543,
      "িনের ": 5544,
      "িনতাই": 5545,
      "ী 2018 (1": 5546,
      " ইল": 5547,
      " ইতিহাস": 5548,
      " ইন্টার": 5549,
      " ইন্সটিটিউট": 5550,
      " ইত্তেফাক/": 5551,
      "েটর": 5552,
      "েট্র": 5553,
      "থেষ্ট": 5554,
      " নিজের ": 5555,
      "গ্রাহ": 5556,
      "গ্রস্ত": 5557,
      "ের সি": 5558,
      "ের সভাপতিত্ব": 5559,
      "ে দিয়ে ": 5560,
      "ে দো’আ ": 5561,
      "ে দো’আ 0": 5562,
      "ে দীর্ঘ": 5563,
      " ও জ": 5564,
      "াদি ": 5565,
      "ে সি": 5566,
      "ে সাত": 5567,
      "ে সেই": 5568,
      "ে সকল": 5569,
      " রু": 5570,
      " রান": 5571,
      " রকম": 5572,
      " রানে ": 5573,
      " রুট": 5574,
      "অনলাই": 5575,
      " যে, ": 5576,
      " যশোর ": 5577,
      "ন্দকার ": 5578,
      "উপায়": 5579,
      " চি": 5580,
      " চুল": 5581,
      "েয়া ": 5582,
      "েয়ার কর": 5583,
      " ফোর": 5584,
      " ফাউ": 5585,
      " ফেসব": 5586,
      " ফরিদ": 5587,
      "ভিউ": 5588,
      "। এসব": 5589,
      "। এসময়": 5590,
      "স্তিত্ব": 5591,
      "ষ্টাল": 5592,
      "ীয় স": 5593,
      "মুহ": 5594,
      "ে পর": 5595,
      "ে পূর্": 5596,
      "ে পাঁচ": 5597,
      " গান": 5598,
      " গেম": 5599,
      " গরম": 5600,
      "নাচ": 5601,
      "নের জবাবে ": 5602,
      "নের কাপড়": 5603,
      "চ্ছে।\n": 5604,
      "িয়ে রাখ": 5605,
      " খাল": 5606,
      " খোল": 5607,
      " খদ্দের": 5608,
      " খরচ": 5609,
      "েরপুর ": 5610,
      "জানাল": 5611,
      "জানতে পার": 5612,
      "জানায়, ": 5613,
      "জানা গেছে, ": 5614,
      "জানতে চাইলে ": 5615,
      "আমল": 5616,
      "মান্ড": 5617,
      "মানসিক": 5618,
      " দেশকে ": 5619,
      "পরিবর্ত": 5620,
      "সি/": 5621,
      "সিদ্ধ": 5622,
      "সিনিয়র ": 5623,
      "ুম্ব": 5624,
      "ুমতি ছাড়া ": 5625,
      "টা থেকে ": 5626,
      "টা পর্যন্ত": 5627,
      " ছাল": 5628,
      "ে, ‘": 5629,
      "তে পারি ": 5630,
      "তার ব": 5631,
      " টেস্ট": 5632,
      "দেশে ": 5633,
      "দেশটির ": 5634,
      " উদ্দিন": 5635,
      "কোচ": 5636,
      "কোথাও": 5637,
      "কোর্স": 5638,
      "সংশ্লিষ্ট": 5639,
      "িটনেস": 5640,
      " একজন ": 5641,
      "ন করেছেন ": 5642,
      " ড.": 5643,
      " ডেমো": 5644,
      "ের মেয়": 5645,
      "বাদী": 5646,
      "এসে ": 5647,
      "এসসি পরীক্ষ": 5648,
      " সংস্ক": 5649,
      " সংখ্য": 5650,
      " সংঘর্ষ": 5651,
      " সংশ্লিষ্ট": 5652,
      "পাবলিক": 5653,
      "ুন, ": 5654,
      "ান্তি ": 5655,
      "্যান্ট": 5656,
      "ত্ত্ব": 5657,
      "েবী": 5658,
      "প্রতিবেদন ": 5659,
      " রাশ": 5660,
      " রাস": 5661,
      " রাউন্ড": 5662,
      "োটেল": 5663,
      " ১৭": 5664,
      " ১৮": 5665,
      "বারের মতো": 5666,
      "বারিধার": 5667,
      " বাজ": 5668,
      "দুজন": 5669,
      "০০/-": 5670,
      " কোম্পানি ": 5671,
      "ুয়াল": 5672,
      "চালিত": 5673,
      "বেশ কিছু": 5674,
      "বেশ কয়েকটি ": 5675,
      "্যালোচ": 5676,
      "া, ঢাকা-১২": 5677,
      "তে হলে ": 5678,
      "াটির ": 5679,
      "ঃ ms": 5680,
      "ছুটে ": 5681,
      "গুলির ": 5682,
      "কাশ্ম": 5683,
      "িংস": 5684,
      "ক্সিক": 5685,
      "ক্সবাজার ": 5686,
      "ডিপ": 5687,
      "সুখ": 5688,
      "সুন্দ": 5689,
      "া হয়, ": 5690,
      "কম্পিউট": 5691,
      "সহায়": 5692,
      "বা অন্য কোথাও": 5693,
      "সম্পাদ": 5694,
      "ছিলো": 5695,
      " করেছে।\n": 5696,
      " করেছে পুলিশ": 5697,
      "... বিস্তারিত": 5698,
      "আইড": 5699,
      "আইন ": 5700,
      "িপু": 5701,
      " দুঃ": 5702,
      " দুর্": 5703,
      " দুবাই": 5704,
      " আমাকে ": 5705,
      " পর্য": 5706,
      "িয়া আ": 5707,
      "ি করে ": 5708,
      "ি করতে ": 5709,
      "সাম্প্রতিক": 5710,
      "পুরস্কার": 5711,
      " এর টাকা ": 5712,
      "নীতি": 5713,
      "ন্সিল": 5714,
      "ছাড়াই": 5715,
      "জ্ঞাস": 5716,
      "োয়েন্দ": 5717,
      "বাহিরে ": 5718,
      "কেবল": 5719,
      "মন্ত্রী ": 5720,
      "an70": 5721,
      "বর্তমান": 5722,
      "শ্রেণ": 5723,
      "গেছে।\n": 5724,
      "ারীপুর ": 5725,
      " মুছলিম": 5726,
      "রহস্য": 5727,
      "। সে ": 5728,
      " ২৩": 5729,
      " কমপ্লেক্স": 5730,
      "অনেকটা ": 5731,
      "ে প্রথম": 5732,
      " থাকলেও": 5733,
      " ছিলো": 5734,
      " ছিল। ": 5735,
      "আলম": 5736,
      "া প্রতাহ": 5737,
      " মিছিল": 5738,
      " মির্জ": 5739,
      "কিছুটা ": 5740,
      "কিছুক্ষণ": 5741,
      "া নেই": 5742,
      "া আমাদের ": 5743,
      "অধ্যাপক": 5744,
      "ে একজন ": 5745,
      " ওয়েব": 5746,
      " ওয়ার্ল": 5747,
      "আজকের ": 5748,
      "পোশাক": 5749,
      "্যামের": 5750,
      "দ্রব্য": 5751,
      "ে বিভিন্ন ": 5752,
      "েহেতু": 5753,
      " মানিক": 5754,
      "রম বক্স": 5755,
      "বলে অভিযোগ": 5756,
      "স্পষ্ট": 5757,
      "পিছ": 5758,
      "সম্প্র": 5759,
      "জামায়": 5760,
      "ের সাথ": 5761,
      "ব্রাজিল": 5762,
      "েফাজ": 5763,
      "খেলা ": 5764,
      "দিষ্ট": 5765,
      "পাশে ": 5766,
      ".com\n": 5767,
      "জমিদ": 5768,
      "মহানগর ": 5769,
      "খানায়": 5770,
      "খানাখন্দ": 5771,
      "ে দুর্নী": 5772,
      " কোটি টাক": 5773,
      " কোটি ডল": 5774,
      " মহিলা ": 5775,
      " মহাপরিচালক": 5776,
      " বছর ধরে ": 5777,
      "চিৎ": 5778,
      "্বাধিকার ": 5779,
      " জেলার ": 5780,
      "লোচনা কর": 5781,
      " অধিক": 5782,
      " অধিকার ": 5783,
      "দের। ": 5784,
      " মাঠ": 5785,
      "ে। এ সময়": 5786,
      "বন্দুক": 5787,
      "বন্দি দ": 5788,
      "পুলিশের ": 5789,
      "বানুমতি ছাড়া ": 5790,
      "বানবন্দি দ": 5791,
      "২৪.কম": 5792,
      " বেড়ে ": 5793,
      " মোবাইলঃ ০১": 5794,
      "সঙ্গে স": 5795,
      " স্বপ": 5796,
      "যাচ্ছে। ": 5797,
      "মেঘ": 5798,
      "মেক্সিক": 5799,
      "াঙ্গাইল": 5800,
      "প্রধান বিচারপ": 5801,
      " প্লাস": 5802,
      "রাষ্ট্রপ": 5803,
      "আপনি কি ": 5804,
      "ুর রহমান মুখ্য": 5805,
      ". You": 5806,
      "কৃতির ": 5807,
      "7 (11": 5808,
      "পদত্যাগ": 5809,
      "পত্র; ·": 5810,
      "ার আসাম": 5811,
      "পরিবারের জন্য": 5812,
      "বদন্ত": 5813,
      "বদরুল": 5814,
      " সবচেয়ে ": 5815,
      " সামাজিক": 5816,
      "রিজভী": 5817,
      "খ্যা ": 5818,
      "ছবি অনুমতি ": 5819,
      "নৌ-": 5820,
      "যৌনকর্মী": 5821,
      " মিটার": 5822,
      " শিক্ষাবর্ষ": 5823,
      "প্রধানমন্ত্রীর ": 5824,
      " ফেব্রুয়ারি ": 5825,
      "ছেড়ে ": 5826,
      " টাকা। ": 5827,
      "জ্জিত": 5828,
      "ইকবাল": 5829,
      " ডিসেম্বর ": 5830,
      "বিজ্ঞাপ": 5831,
      "বিজ্ঞাপন ": 5832,
      " করুন।\n": 5833,
      " নাবিক": 5834,
      "বলে জানান ": 5835,
      " । অ": 5836,
      "গাড়িতে ": 5837,
      "ভাইস": 5838,
      "ন প্রত্যা": 5839,
      " তৈরি এবং হস্তান্তর ": 5840,
      " শুক্রবার ": 5841,
      " ভবন": 5842,
      "rahm": 5843,
      "কীভাবে ": 5844,
      "সিলিয়ারী": 5845,
      "ে থাকা ": 5846,
      "নে হচ্ছ": 5847,
      " ভারতের ": 5848,
      " রাজধান": 5849,
      " রাজশাহী": 5850,
      "আশা কর": 5851,
      "ভিত্তিক": 5852,
      "সজিদের ": 5853,
      "অনুমতি প্রদান ": 5854,
      "ele": 5855,
      "চাকমা ": 5856,
      "ভেচ্ছ": 5857,
      "সভায়": 5858,
      " পদ্ধতিঃ": 5859,
      "বিশ্বাস কর": 5860,
      " পাঠক": 5861,
      " ০২": 5862,
      " টি পরিবারের জন্য": 5863,
      "ৃষি ": 5864,
      "বাঁধ": 5865,
      "সাথে যোগাযোগ": 5866,
      "উদ্দেশ্যে ": 5867,
      "কয়েকটি ": 5868,
      "তুর্থ": 5869,
      " একাউন্ট": 5870,
      "মাহমু": 5871,
      " বিএনপি ": 5872,
      " ব্যবহার ": 5873,
      "চারপতি ": 5874,
      " স্থানে ": 5875,
      "উচ্চতা ": 5876,
      " ক্লিক": 5877,
      "ের সঙ্গে স": 5878,
      "উদ্যোগে ": 5879,
      ") ফেব্রুয়ারী 201": 5880,
      "ack": 5881,
      "উৎসব": 5882,
      "উৎপাদ": 5883,
      "নোত্তর ": 5884,
      " ব্যবস্থা ন": 5885,
      "ে নির্বাচন কমিশ": 5886,
      "অবশ্যই": 5887,
      "ের বিরুদ্ধে মি": 5888,
      "aper": 5889,
      "বেলা ": 5890,
      " সর্বস্বত্ব": 5891,
      "গ্ধ": 5892,
      "গ্নি": 5893,
      " স্পেন /": 5894,
      " নারায়ণগঞ্জ": 5895,
      " বিজ্ঞপ্ত": 5896,
      "পুরোপুর": 5897,
      "ইউনিয়নের ": 5898,
      "প্রকাশিত এবং": 5899,
      "ফোরক": 5900,
      "শিশুদের ": 5901,
      " প্রযুক্তি ": 5902,
      "বলে মনে কর": 5903,
      "সংরক্ষণ": 5904,
      ", কারণ": 5905,
      "া বা ছবি অনুমতি ": 5906,
      " দ্বারা ": 5907,
      " দ্বীপ": 5908,
      " অভিনেত": 5909,
      "যুগ্ম": 5910,
      "পিতা ": 5911,
      "বদ্ধ হয়ে ": 5912,
      "্রাম্য": 5913,
      "া প্রদান করতে হবে। ": 5914,
      "ক জবানবন্দি দ": 5915,
      "ঘোষণা কর": 5916,
      "দৈনিক যশোর ": 5917,
      "নাকি ": 5918,
      "মন্দিরের ": 5919,
      "ি সংঘর্ষ": 5920,
      " আন্তর্জাতিক বিমানবন্দ": 5921,
      " অভ্যন্তরীণ": 5922,
      " অভ্যন্তরীন ": 5923,
      " ঘণ্টা ": 5924,
      "6 (129": 5925,
      "ONE": 5926,
      "থ্যা,মামল": 5927,
      "দো’আ 01": 5928,
      "সনদের ": 5929,
      "সন্তোষ": 5930,
      "মাত্রা ": 5931,
      " নেতাদের ": 5932,
      " ব্যবসায়ী": 5933,
      "আইনজীব": 5934,
      "ঃ ০১৭১১৯৩৫": 5935,
      "ৌলভীবাজার ": 5936,
      "ভিটামিন ": 5937,
      "https://": 5938,
      "ভ্রমণ": 5939,
      "৮৪৩২৩": 5940,
      " প্রধানমন্ত্রীর ": 5941,
      "পর্যবে": 5942,
      " সংশোধনী": 5943,
      " বাস্তবায়": 5944,
      "নির্ভর": 5945,
      "ার সার্ভিস": 5946,
      "প্রকাশক,সম্পাদক": 5947,
      " প্লট নং": 5948,
      "পত্রিকার প্রকাশক,সম্পাদক": 5949,
      "Bangla ": 5950,
      "ূজা ": 5951,
      " সেকেন্ড": 5952,
      " বর্তমান ": 5953,
      " ব্যালট": 5954,
      " ইমেইলঃ ms": 5955,
      "কারোক্তিমূল": 5956,
      " সার্ভেয়ার, ": 5957,
      "১৯৬ ইমেইলঃ ms": 5958,
      " খ্রিস্টান ": 5959,
      "/প্রচারিত": 5960,
      "PHONE": 5961,
      "ferenc": 5962,
      "অপারেশন ": 5963,
      "ূড়ান্ত": 5964,
      "€ 53,50 EUR": 5965,
      "াক্ক": 5966,
      "স্বল্প": 5967,
      "স্টাফ রিপোর্টার ": 5968,
      " প্রকাশ করা সম্পূর্ণ বেআই": 5969,
      " ঘটনা ঘট": 5970,
      " স্বত্বাধিকার ": 5971,
      "্রাজ্যবাদের ": 5972,
      "উজ্জ্বল": 5973,
      " মতিঝিল": 5974,
      " এজেন্ট": 5975,
      " এয়ারলাইন্স": 5976,
      " উল্লেখ": 5977,
      "কল করা বা অন্য কোথাও": 5978,
      "ডিজাই": 5979,
      "ছাড়া নকল করা বা অন্য কোথাও": 5980,
      " প্রতিবেদক": 5981,
      " কিছুর ": 5982,
      "প্রিয়তমা": 5983,
      "আহ্বান জানিয়েছেন ": 5984,
      " মোঃ শফিকুর রহমান মুখ্য": 5985,
      "ের মুখোমুখি সংঘর্ষ": 5986,
      " টেবিল চামচ, ": 5987,
      "পিরাইট আইনে পূর্": 5988,
      " পরিদর্শক ফোনঃ ০১৭১১৯৩৫": 5989,
      "ঃ এস.এম. নাজমুল হক, ইঞ্জিনিয়ার এন্ড শিপ সার্ভেয়ার এন্ড এক্সামিনার ফোনঃ ৯৫৮৭৩০২ ই-মেইলঃ esse@dos.gov.bd ক্যাপ্টেন মোঃ গিয়াস উদ্দিন ": 5990,
      " ওয়েবসাইটের কোনো লেখা বা ছবি অনুমতি ": 5991,
      ",বার্তা সম্পাদকের বিরুদ্ধে মি": 5992,
      "Preferenc": 5993,
      "বগুড়া ": 5994,
      " ফোরাম": 5995,
      " ফাউন্ড": 5996,
      " ডেমোক্র": 5997,
      "া, ঢাকা-১২২৯": 5998,
      "... বিস্তারিত\n": 5999,
      " এর টাকা জম": 6000,
      "an70@gmail.com\n": 6001,
      " ওয়ার্ল্ড": 6002,
      "রম বক্স খাঁ": 6003,
      " মহাপরিচালক, ": 6004,
      "rahman70@gmail.com\n": 6005,
      "সিলিয়ারী কোর্স": 6006,
      "দৈনিক যশোর পত্রিকার প্রকাশক,সম্পাদক": 6007,
      "থ্যা,মামলা প্রতাহ": 6008,
      "কারোক্তিমূলক জবানবন্দি দ": 6009,
      "১৯৬ ইমেইলঃ msrahman70@gmail.com\n": 6010,
      " স্বত্বাধিকার সংরক্ষিত": 6011,
      "ছাড়া নকল করা বা অন্য কোথাও প্রকাশ করা সম্পূর্ণ বেআই": 6012,
      " মোঃ শফিকুর রহমান মুখ্য পরিদর্শক ফোনঃ ০১৭১১৯৩৫": 6013,
      " ওয়েবসাইটের কোনো লেখা বা ছবি অনুমতি ছাড়া নকল করা বা অন্য কোথাও প্রকাশ করা সম্পূর্ণ বেআই": 6014,
      ",বার্তা সম্পাদকের বিরুদ্ধে মিথ্যা,মামলা প্রতাহ": 6015,
      "দৈনিক যশোর পত্রিকার প্রকাশক,সম্পাদক,বার্তা সম্পাদকের বিরুদ্ধে মিথ্যা,মামলা প্রতাহ": 6016,
      " মোঃ শফিকুর রহমান মুখ্য পরিদর্শক ফোনঃ ০১৭১১৯৩৫১৯৬ ইমেইলঃ msrahman70@gmail.com\n": 6017,
      " x": 6018,
      " “": 6019,
      " , ": 6020,
      " th": 6021,
      " থান": 6022,
      " উপজেলার ": 6023,
      " তিন": 6024,
      " ২০০": 6025,
      " গ্রামের ": 6026,
      " থানার ": 6027,
      ") শ": 6028,
      ") র": 6029,
      ")। এ": 6030,
      "-অ": 6031,
      "-আ": 6032,
      "-৮": 6033,
      "-র ": 6034,
      "-বা": 6035,
      "-সি/": 6036,
      ".C": 6037,
      ". শ": 6038,
      "04": 6039,
      "25": 6040,
      "31": 6041,
      "49": 6042,
      "5.": 6043,
      "64": 6044,
      "8 (": 6045,
      "90": 6046,
      ": মু": 6047,
      "; (": 6048,
      "Ch": 6049,
      "KY": 6050,
      "MS": 6051,
      "OM": 6052,
      "SS": 6053,
      "af": 6054,
      "aw": 6055,
      "ama": 6056,
      "at ": 6057,
      "ahm": 6058,
      "be": 6059,
      "be ": 6060,
      "du": 6061,
      "mp": 6062,
      "os": 6063,
      "ow": 6064,
      "ra ": 6065,
      "so": 6066,
      "su": 6067,
      "song": 6068,
      "ts": 6069,
      "tam": 6070,
      "   ": 6071,
      "  ইত্তেফাক/": 6072,
      "© সর্বস্বত্ব": 6073,
      "।\"": 6074,
      "অ্যা": 6075,
      "অগ্র": 6076,
      "অাপ": 6077,
      "অক্টো": 6078,
      "আট": 6079,
      "আস্ত": 6080,
      "আছে ": 6081,
      "আগ্রহ": 6082,
      "আন্তর্জাতিক": 6083,
      "ইতি": 6084,
      "ইউপ": 6085,
      "ই-মেইল": 6086,
      "ইসির ": 6087,
      "উইকেট": 6088,
      "উন্নত": 6089,
      "এছাড়া ": 6090,
      "এখনো": 6091,
      "এখনও": 6092,
      "এরপর ": 6093,
      "এছাড়াও": 6094,
      "এ ছাড়া ": 6095,
      "ঐ ·": 6096,
      "ও ক": 6097,
      "কুল": 6098,
      "কষ্ট": 6099,
      "কেও": 6100,
      "কবি ": 6101,
      "ক দল": 6102,
      "কন্য": 6103,
      "কেমন ": 6104,
      "ক্যাপ্টেন ": 6105,
      "ক নির্ধারিত": 6106,
      "খস": 6107,
      "খিল": 6108,
      "খাবার ": 6109,
      "খাওয়": 6110,
      "খেয়াল": 6111,
      "খাগড়াছ": 6112,
      "খন্দকার ": 6113,
      "গর": 6114,
      "গের ": 6115,
      "গান": 6116,
      "গ, ": 6117,
      "গাই": 6118,
      "গোয়েন্দ": 6119,
      "ঘ্র": 6120,
      "ঘরের ": 6121,
      "চম": 6122,
      "চ্য": 6123,
      "চিক": 6124,
      "চাঁ": 6125,
      "চব্": 6126,
      "চ্যাম্পিয়ন্স ট্রফিতে ": 6127,
      "ছায়": 6128,
      "ছাত্র ": 6129,
      "জে": 6130,
      "জি ": 6131,
      "জায়": 6132,
      "জিল": 6133,
      "জাগ": 6134,
      "জোর ": 6135,
      "জাহাজ": 6136,
      "জরুর": 6137,
      "ঝড়": 6138,
      "টন ": 6139,
      "টার ": 6140,
      "টিল": 6141,
      "টিন ": 6142,
      "টিশ": 6143,
      "টিজ": 6144,
      "টাও": 6145,
      "ঠাৎ": 6146,
      "ঠাণ্ড": 6147,
      "ডায়": 6148,
      "ডোম": 6149,
      "ডাউনলোড": 6150,
      "ণবাড়": 6151,
      "তই": 6152,
      "তটা ": 6153,
      "তৃত": 6154,
      "তেন। ": 6155,
      "তরণ": 6156,
      "তীত": 6157,
      "থিত": 6158,
      "থিল": 6159,
      "দক": 6160,
      "দপ্ত": 6161,
      "দেওয়": 6162,
      "দার, ": 6163,
      "ধন ": 6164,
      "ধরম বক্স খাঁ": 6165,
      "নু": 6166,
      "নান ": 6167,
      "নোট": 6168,
      "না হয়": 6169,
      "নাইট": 6170,
      "নরম": 6171,
      "নেওয়ার ": 6172,
      "নথি যাচাইয়": 6173,
      "পৌ": 6174,
      "পের ": 6175,
      "পিস": 6176,
      "পুন": 6177,
      "পিং": 6178,
      "পড়ে ": 6179,
      "পানি ": 6180,
      "পূর্ত": 6181,
      "পাইন": 6182,
      "ফুলের ": 6183,
      "বয়ে ": 6184,
      "বস্ত": 6185,
      "বুয়": 6186,
      "বোল": 6187,
      "বর্ষ": 6188,
      "বধান": 6189,
      "বর্গ": 6190,
      "বসুন্ধরা, ": 6191,
      "ভায়": 6192,
      "ভিত": 6193,
      "ভিল": 6194,
      "ভুট": 6195,
      "ভোক": 6196,
      "ভরস": 6197,
      "ভ্রাম্য": 6198,
      "মৌ": 6199,
      "মের ": 6200,
      "মন ": 6201,
      "মিট": 6202,
      "মির": 6203,
      "মারের ": 6204,
      "মডেল": 6205,
      "ম জাতীয় সংসদ নির্বাচ": 6206,
      "মৌসুম": 6207,
      "মহাসচিব": 6208,
      "ম তলা": 6209,
      "যাই": 6210,
      "যাজ": 6211,
      "যাপ": 6212,
      "যে, ": 6213,
      "রাল": 6214,
      "রেল": 6215,
      "রক্ত": 6216,
      "রতা ": 6217,
      "লগ": 6218,
      "লায়": 6219,
      "লিট": 6220,
      "ল এবং": 6221,
      "লেহ": 6222,
      "শার": 6223,
      "শতা": 6224,
      "শিম": 6225,
      "শিখ": 6226,
      "শরীয়": 6227,
      "শূন্য": 6228,
      "ষড়": 6229,
      "সান ": 6230,
      "সুর": 6231,
      "সমান ": 6232,
      "সঠিক": 6233,
      "সচিব": 6234,
      "সর্গ": 6235,
      "সাক্ষ": 6236,
      "সতর্ক": 6237,
      "সৌদি আরব": 6238,
      "সুয়ারেজ": 6239,
      "হিম": 6240,
      "হওয়ার ": 6241,
      "হিসেবে ": 6242,
      "হোটেল": 6243,
      "া;": 6244,
      "াড": 6245,
      "াথ": 6246,
      "াষ": 6247,
      "ি.": 6248,
      "িড": 6249,
      "িভি": 6250,
      "িবেশ": 6251,
      "িন্ড": 6252,
      "ি, ক": 6253,
      "িফিক": 6254,
      "িস্থান": 6255,
      "ী দ": 6256,
      "ী।\n": 6257,
      "ী সং": 6258,
      "ী বা ": 6259,
      "ুটি ": 6260,
      "ুতি ": 6261,
      "ুষ্ঠ": 6262,
      "ুজ্জামান ": 6263,
      "ূখ": 6264,
      "ূরের ": 6265,
      "ূত্র": 6266,
      "ৃক্ত": 6267,
      "ে:": 6268,
      "েজন": 6269,
      "ে\t\n": 6270,
      "ৈন্য": 6271,
      "ৈরির ": 6272,
      "োবিজ": 6273,
      "্নাত": 6274,
      "ৎপর": 6275,
      "০৫": 6276,
      "০৭": 6277,
      "০৩১": 6278,
      "১০০০": 6279,
      "১ ই-মেইল - c": 6280,
      "২। ": 6281,
      "৩৯৮": 6282,
      "৪.": 6283,
      "৪ ধার": 6284,
      "৫৩৫": 6285,
      "৬৫": 6286,
      "৬৮": 6287,
      "৭.": 6288,
      "৭২": 6289,
      "৭৮": 6290,
      "‌্যাব": 6291,
      "’। ": 6292,
      "’ বল": 6293,
      "র বি": 6294,
      "ে কর": 6295,
      "ে না": 6296,
      "ে  দেশ": 6297,
      "ে তিনি ": 6298,
      "ে গেছ": 6299,
      "য়াল": 6300,
      "য়েশ": 6301,
      "য়োগ": 6302,
      "া না ": 6303,
      "া নাম": 6304,
      "া মো": 6305,
      "া শুরু": 6306,
      "া থাকলেও": 6307,
      "া অব্যাহত": 6308,
      "ের কা": 6309,
      "ের এই": 6310,
      "ের কারণ": 6311,
      "ের কথা ": 6312,
      "ের অভিযোগ": 6313,
      "ের ডাক": 6314,
      "ের নেতৃত্ব": 6315,
      "ের ঘটনা ঘট": 6316,
      "্রান্ত": 6317,
      "্রেস": 6318,
      "্রাফ": 6319,
      "্যতা ": 6320,
      "ার\n": 6321,
      "ারুক": 6322,
      "ারিদ্র": 6323,
      "ি ফ": 6324,
      "ি পা": 6325,
      "ি আই": 6326,
      "ি নিয়ে ": 6327,
      "ি পড়": 6328,
      "ি পরীক্ষ": 6329,
      "ার এ": 6330,
      "ার চ": 6331,
      "ার সাথে ": 6332,
      "ার ক্লাশ": 6333,
      "। অ": 6334,
      "। য": 6335,
      "। এক": 6336,
      "। তাই": 6337,
      "। ছবি ": 6338,
      " কা": 6339,
      " কাম": 6340,
      " ক্যা": 6341,
      " কী ": 6342,
      " কাছ": 6343,
      " কনট": 6344,
      "ানিতে ": 6345,
      ", আই": 6346,
      ", মো": 6347,
      "বিনে ": 6348,
      "বিক্র": 6349,
      "বিএস": 6350,
      "বিগত": 6351,
      "বিপক্ষে ": 6352,
      "বিটকয়েন ": 6353,
      " সাত": 6354,
      " সিট": 6355,
      " সত্য": 6356,
      " সন্ত্রাস": 6357,
      " সন্দেহ": 6358,
      " সৈয়দ": 6359,
      "নি\n": 6360,
      "নিপ": 6361,
      "র্জন": 6362,
      "র্কের ": 6363,
      "র্পোর": 6364,
      "বাধ্য": 6365,
      "বাতি ": 6366,
      "বান জান": 6367,
      "বাতিল": 6368,
      "প্রিম": 6369,
      "প্রক্র": 6370,
      "প্রবাস": 6371,
      "প্রেস": 6372,
      "প্রযুক্ত": 6373,
      "প্রতিক": 6374,
      "প্রকৃত": 6375,
      "প্রয়োজন": 6376,
      "প্রেক্ষ": 6377,
      "প্রকৌশল": 6378,
      "প্রয়োজনীয়": 6379,
      "প্রিন্ট": 6380,
      "ালছড়ি ": 6381,
      "াম, ": 6382,
      "ামড়": 6383,
      "ায়ূ": 6384,
      "ায় দ": 6385,
      "ায়।\n": 6386,
      "ায় থাক": 6387,
      "ায় অনেক": 6388,
      " মেশ": 6389,
      " মাত": 6390,
      " মাশ": 6391,
      " মিয়া ": 6392,
      " মেগ": 6393,
      " মতাম": 6394,
      " মাত্র ": 6395,
      " মাইক্রো": 6396,
      "াকে প": 6397,
      "াকারী": 6398,
      "ন্ঠ": 6399,
      "ন্বয়ে ": 6400,
      "েছেন। এ": 6401,
      " দ্য": 6402,
      " দিল": 6403,
      " দো’আ ": 6404,
      " দোয়": 6405,
      " দেন।\n": 6406,
      " দেওয়ার ": 6407,
      " দাবি কর": 6408,
      "ড়ো": 6409,
      "ড়িয়ে পড়": 6410,
      " হ্যা": 6411,
      " হুম": 6412,
      " হন। ": 6413,
      "করন ": 6414,
      "করতে ": 6415,
      " আ আ": 6416,
      " আলোক": 6417,
      " আফ্র": 6418,
      " আজিজ": 6419,
      " বার": 6420,
      " একর": 6421,
      " এগিয়": 6422,
      "িয়ন ": 6423,
      "িয়াক": 6424,
      "িয়ে। ": 6425,
      " করে স": 6426,
      " করতে হ": 6427,
      "স্ক্র": 6428,
      " পর্": 6429,
      " পক্ষ": 6430,
      " পাস": 6431,
      " পাব": 6432,
      " পাখ": 6433,
      " পাশ": 6434,
      " পদ্ধতি ": 6435,
      "ুল্লাহ": 6436,
      "কে (": 6437,
      "কে জান": 6438,
      "কে গ্রেফতার কর": 6439,
      "েন,": 6440,
      "েন, ক": 6441,
      "েনে নি": 6442,
      "েন। এই": 6443,
      "তিও": 6444,
      "রাদ": 6445,
      "াইন ": 6446,
      "াই, ": 6447,
      "াইনাল": 6448,
      "িতেই": 6449,
      "িলেন। ": 6450,
      "িলঃ ০১৭১১": 6451,
      "টি পণ্য": 6452,
      "দের সঙ্গে ": 6453,
      "মাপ": 6454,
      "মাতৃ": 6455,
      "ে। পরে ": 6456,
      " নব": 6457,
      " জয়": 6458,
      " জাক": 6459,
      " জিত": 6460,
      " জোন": 6461,
      " জন্ম": 6462,
      " জেনারেল": 6463,
      " অঙ্গ": 6464,
      " অপেক্ষ": 6465,
      "রিপ": 6466,
      "রিতে ": 6467,
      "ভাব্য": 6468,
      "ভাংচুর ": 6469,
      "্বরের ": 6470,
      "েন এ": 6471,
      "েন এবং": 6472,
      "ক্ষে ": 6473,
      "ক্ষেত": 6474,
      "াতক": 6475,
      "েইন ": 6476,
      "ে আছে ": 6477,
      "ে আটক": 6478,
      "ে আত্ম": 6479,
      "ে আন্দোল": 6480,
      "্টার ": 6481,
      "ওয়ার": 6482,
      "ওয়ান ": 6483,
      "ওয়ানড": 6484,
      " বিভা": 6485,
      " বিবাহ": 6486,
      " বিনিয়োগ": 6487,
      " বিক্ষোভ": 6488,
      " বিস্ম": 6489,
      " বিবরণ": 6490,
      "ান দ": 6491,
      "ান এবং": 6492,
      "দ্ম": 6493,
      "এক বি": 6494,
      "এক র": 6495,
      " তুমি ": 6496,
      "ুরহ": 6497,
      " শক্ত": 6498,
      " শব্দ": 6499,
      " প্রমুখ": 6500,
      " প্রত্য": 6501,
      " প্রশংস": 6502,
      "বে এই": 6503,
      "া হবে ": 6504,
      "া হামল": 6505,
      "কাট": 6506,
      "কাবিল": 6507,
      "সমস্ত": 6508,
      "সমেন্ট": 6509,
      "সমন্বয়": 6510,
      "সমর্প": 6511,
      "বলম্ব": 6512,
      "াসি": 6513,
      "ির আ": 6514,
      "ির কর": 6515,
      "ির পর ": 6516,
      "ির নাম": 6517,
      "বে।": 6518,
      "বেজ": 6519,
      "বেআই": 6520,
      "বেঁচ": 6521,
      "বেঁধ": 6522,
      "য়েছি। ": 6523,
      "িনে ": 6524,
      "ী » «": 6525,
      "ী নিহত": 6526,
      "ী উন্নয়": 6527,
      " ইউপ": 6528,
      "কারা ": 6529,
      "কারীর ": 6530,
      " নিরাপত্ত": 6531,
      " নিরাপত্তা ": 6532,
      "োনাল": 6533,
      "োনাগাছ": 6534,
      "ের সূচ": 6535,
      "বংশ": 6536,
      "িস ওয়ার্ল্ড": 6537,
      "স্থানে ": 6538,
      "না ও": 6539,
      "না শুধু": 6540,
      "াজ্": 6541,
      "াজার ": 6542,
      "ে দেব": 6543,
      "ে দাঁড়": 6544,
      "ে দায়িত্ব": 6545,
      "ে দাবি কর": 6546,
      "্লিক": 6547,
      " ও অ": 6548,
      " ওভার": 6549,
      " ওরফ": 6550,
      " ওবায়দুল কাদের": 6551,
      "াপুর ": 6552,
      "াপাড়": 6553,
      "াদেশ": 6554,
      "াদিম": 6555,
      "াদণ্ড": 6556,
      "ে সু": 6557,
      "ে সেটি ": 6558,
      " রাম": 6559,
      " রক্ষ": 6560,
      " রায়, ": 6561,
      " যে য": 6562,
      " যেমন ": 6563,
      "পারিবারিক": 6564,
      "তাফ": 6565,
      "তাশ": 6566,
      "ন্দির ": 6567,
      "তি দম": 6568,
      "িন ও": 6569,
      "উপদেষ্ট": 6570,
      " চার": 6571,
      " চার্": 6572,
      " চেয়": 6573,
      " চার্চ": 6574,
      " চেয়ারম্যান ": 6575,
      "েকটি ": 6576,
      "েকট্র": 6577,
      "েক্রেট": 6578,
      " ফেল": 6579,
      " ফের": 6580,
      " ফলা": 6581,
      "। এবার ": 6582,
      "। এছাড়": 6583,
      " গল্প": 6584,
      "না\n": 6585,
      "না।": 6586,
      "স্টার ": 6587,
      " লেগ": 6588,
      "রে ফিস": 6589,
      "াবা ": 6590,
      "ীর প্যাড": 6591,
      "চ্ছাস": 6592,
      "িয়ে রেখ": 6593,
      " খাদ": 6594,
      " খারাপ": 6595,
      "ের। ": 6596,
      "পরিবহ": 6597,
      "পরিচিত": 6598,
      "জিষ্ট্র": 6599,
      "সিটি ": 6600,
      "সিটির ": 6601,
      "সিটি করপোরেশনের ": 6602,
      "তে পারে ": 6603,
      "তে পারে, ": 6604,
      "তে পারবেন। ": 6605,
      " টেক": 6606,
      " টাইম": 6607,
      "ষ্ণ": 6608,
      "পরেও": 6609,
      "পরীতে ": 6610,
      "পরবর্তী": 6611,
      "াঁকে ": 6612,
      "াঁদের ": 6613,
      " উই": 6614,
      " উদ": 6615,
      " উন্": 6616,
      " উদ্দেশ": 6617,
      "সংখ্যা": 6618,
      "সংঘর্ষ": 6619,
      "তা নিয়ে ": 6620,
      "িটকে ": 6621,
      "ন করা হয়েছে। ": 6622,
      "নিয়ন্ত্র": 6623,
      " ডট": 6624,
      " ডায়": 6625,
      " ডেলি": 6626,
      " ডকুমেন্ট": 6627,
      "ের মহ": 6628,
      "ের মোট": 6629,
      "ের মালিক": 6630,
      "বাদ পড়": 6631,
      "এসআই": 6632,
      "এসেছে ": 6633,
      "বহুল": 6634,
      "পাথ": 6635,
      "২০১৩": 6636,
      "ুন।\n": 6637,
      "হত্ত": 6638,
      "হত্যাক": 6639,
      "পর থেকে ": 6640,
      "যায়, ": 6641,
      "্মেদ": 6642,
      "কালিয়াক": 6643,
      "প্রতিমা ": 6644,
      "প্রতিবেশী": 6645,
      "প্রতিরক্ষা ": 6646,
      "ঞ্জুর ": 6647,
      "চলনবিল": 6648,
      " রাহ": 6649,
      " রাশিয়ান ফেডারেশন /": 6650,
      " করে নি": 6651,
      " পরিষ": 6652,
      " পরিবারের ": 6653,
      "বারই": 6654,
      "বারো": 6655,
      " বাই": 6656,
      " বাধ": 6657,
      " বাল": 6658,
      "দুটি ": 6659,
      "দুপুর ": 6660,
      "দুপুর": 6661,
      "দুর্দ": 6662,
      "দুর্নী": 6663,
      "যাওয়": 6664,
      "ে মো": 6665,
      "ে মিল": 6666,
      " কোষ্টাল": 6667,
      "ুয়া ": 6668,
      "েজর ": 6669,
      "চালু": 6670,
      "চালানের ": 6671,
      "কর্মীর ": 6672,
      "কর্মচার": 6673,
      "গত মঙ্গলবার ": 6674,
      "গ্রামে। ": 6675,
      "ঃ ০৩১": 6676,
      " মোবই": 6677,
      "এম, জ": 6678,
      "া দিয়": 6679,
      "া দিয়েছ": 6680,
      "ক্সবাজার": 6681,
      "পুর গ্রামের ": 6682,
      "ভারি ": 6683,
      "ভারতে ": 6684,
      "ডি, ব": 6685,
      "সু চ": 6686,
      "রাজ্য": 6687,
      "কমল": 6688,
      "সহকার": 6689,
      "র্থিক": 6690,
      "িদফ": 6691,
      "সম্পন্ন ": 6692,
      "অবশেষ": 6693,
      "অবরোধ": 6694,
      "অবস্থান": 6695,
      " করেছে, ": 6696,
      "আপলোড": 6697,
      "আপনারা ": 6698,
      "inf": 6699,
      "িপত্র ": 6700,
      "িপূর্ণ": 6701,
      "শ্চিন্ত": 6702,
      " দুর্নী": 6703,
      " আমেরিক": 6704,
      " পর্যায়": 6705,
      "েডিয়াম": 6706,
      "ারের দাব": 6707,
      "ওয়া পাহাড়": 6708,
      "েন্টমার্ট": 6709,
      "ার দত্ত": 6710,
      "বাড়ী ": 6711,
      "ি হয়ে ": 6712,
      "ি হয়েছিল": 6713,
      "লীগ কাপ": 6714,
      "চার্য": 6715,
      "তারক": 6716,
      "নীচ": 6717,
      "োসিয়": 6718,
      "োসেন, ": 6719,
      "মুখী ": 6720,
      "বাহী ": 6721,
      " প্রতিবেদন ": 6722,
      "any ": 6723,
      ", সিলেট": 6724,
      "শ্রীল": 6725,
      "িউরিটি ": 6726,
      "ুটিং": 6727,
      "ের দিক": 6728,
      " সম্পাদ": 6729,
      "গেছে ": 6730,
      "মনু ম": 6731,
      "াউজ": 6732,
      "াউন ": 6733,
      "াউজার": 6734,
      "ারীবাগ": 6735,
      " মুহাম্মদ": 6736,
      " মুসলিম": 6737,
      "নির্ধারণ": 6738,
      "নির্দিষ্ট": 6739,
      " ২৬": 6740,
      "ান্ধ্য": 6741,
      ": ০১": 6742,
      ": +৮৮": 6743,
      "ে প্রায়": 6744,
      "ে প্রধান ": 6745,
      " নির্বাচিত": 6746,
      " নির্বাচন কর": 6747,
      "যুক্তরাষ্ট্র": 6748,
      "া মার": 6749,
      " আপিল": 6750,
      "শুভেচ্ছ": 6751,
      " কারো": 6752,
      " কার্যালয়": 6753,
      " করা এবং": 6754,
      "কাজ করে ": 6755,
      "কিছুই": 6756,
      " দেখে ": 6757,
      " দেখতে ": 6758,
      " দেখা যায়": 6759,
      "বিদ্য": 6760,
      " সুযোগ": 6761,
      " সুবিধ": 6762,
      "লক্ষ্যে ": 6763,
      " সিরাজ": 6764,
      "া আক্ত": 6765,
      "া পে": 6766,
      " ওয়ানড": 6767,
      "আজও": 6768,
      "পোষ": 6769,
      "ের বিভিন্ন ": 6770,
      " কর্মসূচ": 6771,
      "নি। তবে ": 6772,
      "দায়ী": 6773,
      "াছি ": 6774,
      "ে বিএন": 6775,
      "ে বিনিয়োগ": 6776,
      " আগষ্ট": 6777,
      " নাম্ব": 6778,
      "ার সঙ্গে ": 6779,
      "ার সমাধান ": 6780,
      "ের প্রধান ": 6781,
      "র্বৃত্ত": 6782,
      "া ও উন্নয়": 6783,
      "্যান্ডার্ড": 6784,
      "বিতর্ক": 6785,
      "স্বাধীন": 6786,
      "েয়ার এন্ড এক্সামিনার ফোনঃ ৯৫৫৪২০৬ মোবাইলঃ ০১৭১৬০৯৯০০৩ ই-মেইলঃ nse@dos.gov.bd\n": 6787,
      "েত্রী": 6788,
      "গণফোরাম": 6789,
      "িত হয়েছ": 6790,
      "সম্মুখ": 6791,
      "সম্ভাব্য": 6792,
      "জামাল": 6793,
      "পত্র জমা দ": 6794,
      " দিন পর ": 6795,
      "- € 53,50 EUR": 6796,
      "time ": 6797,
      "সেটি ": 6798,
      "ovi": 6799,
      "বছর": 6800,
      "ব্রাউজার": 6801,
      "রক্ষা কর": 6802,
      "সিলেটে ": 6803,
      "ে যাত্র": 6804,
      " আইন ": 6805,
      " উপস্থিত": 6806,
      " সাধারণ": 6807,
      " সাথে ": 6808,
      " সাবেক": 6809,
      "আসন্ন ": 6810,
      "েওয়া হয়। ": 6811,
      "ানো হয়। ": 6812,
      "গেল। ": 6813,
      "প্রতি আহ্বান জানিয়েছেন ": 6814,
      "ী হামল": 6815,
      "ী হিসেবে ": 6816,
      " প্রকাশ কর": 6817,
      "ori": 6818,
      "তালুক": 6819,
      " করার পর ": 6820,
      " করার সময়": 6821,
      "তুলনায়": 6822,
      "তুলে ধর": 6823,
      "প্লিক": 6824,
      "সের নগ": 6825,
      "১৯৯০": 6826,
      " সহযোগিত": 6827,
      " ইউনিট": 6828,
      "চিঠ": 6829,
      "বয়সী": 6830,
      "বয়কট": 6831,
      "োহেল": 6832,
      "অনুমোদন ": 6833,
      "টিই": 6834,
      "মিথ্য": 6835,
      "ে ফের": 6836,
      "ে ফির": 6837,
      "ে হামল": 6838,
      " হয়েছেন ": 6839,
      " হয়েছে।\n": 6840,
      "ছবিতে ": 6841,
      "ছবিটি ": 6842,
      "রসাইকেল": 6843,
      "সার্ট": 6844,
      " মাঝ": 6845,
      " মাসে ": 6846,
      " ব্যক্তি ": 6847,
      " ব্যক্তিক": 6848,
      " ব্যক্তিদের ": 6849,
      " ৩১": 6850,
      "বোর্ড": 6851,
      "ি দিয়ে ": 6852,
      " বিশ্বকাপ": 6853,
      "ভবন": 6854,
      " বেঞ্চ": 6855,
      " করা হবে।\n": 6856,
      "রাতন ": 6857,
      " তাঁরা ": 6858,
      " বাড়ির ": 6859,
      "উপজেলা নির্বাহী": 6860,
      " পরীক্ষায়": 6861,
      "গঠন": 6862,
      "নারীদের ": 6863,
      "চেষ্টার ": 6864,
      "চেষ্টা চল": 6865,
      " নির্দেশ": 6866,
      "যাচ্ছে, ": 6867,
      "নগর ": 6868,
      "প্রধান অতিথ": 6869,
      " করতে পারবেন ": 6870,
      " প্লাস্টিক": 6871,
      "রাষ্ট্রীয়": 6872,
      "রাষ্ট্রদূত": 6873,
      "রাজশাহী মহানগর ": 6874,
      "বীন্দ্র": 6875,
      "শহর ": 6876,
      "ক্ষেত্রে অ": 6877,
      " নিয়ম": 6878,
      " নিয়মিত": 6879,
      "ুদণ্ড": 6880,
      ", চট্টগ্রাম": 6881,
      "ায় তিনি ": 6882,
      " ট্রাম্প": 6883,
      " রাখতে ": 6884,
      " রাখেন ": 6885,
      "ডাকাত": 6886,
      "নাল হোসেন ": 6887,
      "সরকার, চীফ": 6888,
      "াবিব": 6889,
      "ের কু": 6890,
      " বুদ্ধ": 6891,
      " বুধবার ": 6892,
      " করে দেখ": 6893,
      "গ্রেফতারের ": 6894,
      " চলচ্চিত্র ": 6895,
      "ভারতের স": 6896,
      "ে গোল": 6897,
      "ের পথ": 6898,
      " শেখ হাসিনার ": 6899,
      "ফোনঃ ৯৫৫৩৫": 6900,
      "att": 6901,
      "ate ": 6902,
      " শিক্ষার্থীদের ": 6903,
      "o song": 6904,
      "ায় পড়": 6905,
      "ায় পড়ে ": 6906,
      " মিলিয়ে ": 6907,
      " আরব": 6908,
      " তথ্য জান": 6909,
      " ভাষ": 6910,
      "আওয়ামী লীগের ": 6911,
      "ম্বর": 6912,
      "হাজির ": 6913,
      " দশম জাতীয় সংসদ নির্বাচ": 6914,
      " ফোনঃ ৯৫": 6915,
      "জ্জাক": 6916,
      " নৌযান ": 6917,
      "গ্রুপ লিমিটেড": 6918,
      " যুবলীগ": 6919,
      "অবস্থায়": 6920,
      "বিজ্ঞপ্তি ": 6921,
      " সেবা": 6922,
      "ব্যবস্থাপ": 6923,
      "উদ্যোক্ত": 6924,
      "খনোই": 6925,
      "বলে জানা গেছ": 6926,
      "গাড়ির ": 6927,
      " মূলত": 6928,
      " অনুষ্ঠান": 6929,
      "অধিদপ্তরের স": 6930,
      "রাজশাহী বিভাগ\n": 6931,
      "রাজশাহী বিভাগ---সিলেট বিভাগঢাকা বিভাগ": 6932,
      "উল্ট": 6933,
      "গুরুতর ": 6934,
      "বরিশাল বিভাগ---সিলেট বিভাগঢাকা বিভাগ": 6935,
      "৩৩৩৯৮": 6936,
      " সূর্য": 6937,
      " সমাজ": 6938,
      " সমাধান ": 6939,
      " সংস্থা ": 6940,
      "সাথে স": 6941,
      " বিষয়টি ": 6942,
      "উল্লাহ": 6943,
      "ছাত্রী ": 6944,
      "দ্বীপ": 6945,
      "বঙ্গবন্ধুর ": 6946,
      "ব্যাটিং": 6947,
      "লাশ উদ্ধার কর": 6948,
      "ার পথ": 6949,
      " পড়ুন": 6950,
      "জনাব মোঃ শফিকুর রহমান মুখ্য পরিদর্শক ফোনঃ ০১৭১১৯৩৫১৯৬ ইমেইলঃ msrahman70@gmail.com\n": 6951,
      "কেউ কেউ": 6952,
      " প্রতিনিধি:": 6953,
      " ইউনিয়নের ": 6954,
      "বরাদ্দ": 6955,
      "িকাংশ": 6956,
      " সমস্যা ": 6957,
      "ব্যবহার ": 6958,
      "ে পাওয়া ": 6959,
      "পরিচালনা ": 6960,
      "সাধারণত": 6961,
      "und": 6962,
      "অতিরিক্ত": 6963,
      "শ্লীল": 6964,
      "বাঁশ": 6965,
      " দিচ্ছ": 6966,
      " পদে ": 6967,
      " বিক্রি ": 6968,
      "নির্বাচন কমিশ": 6969,
      "of the ": 6970,
      "কয়েকজন ": 6971,
      " হওয়ার পর ": 6972,
      " একাদশ": 6973,
      " একাডেম": 6974,
      " পোর্ট": 6975,
      " পোশাক": 6976,
      " (৩২": 6977,
      " উন্নয়ন ": 6978,
      "সাল্ল": 6979,
      " পেয়ে ": 6980,
      "ক্ষমতায় য": 6981,
      " নিজেকে ": 6982,
      "েয়া হবে। ": 6983,
      "্যাক্স : ": 6984,
      "স্বামী": 6985,
      "-৩৭১": 6986,
      "্প্রদায়": 6987,
      "ের সহকারী": 6988,
      "ে সবচেয়ে ": 6989,
      " লাইসেন্স": 6990,
      "ে নির্বাচন ": 6991,
      "ডি ব্র": 6992,
      "ে ভর্ত": 6993,
      " সিলভার ": 6994,
      " সিলেক্ট": 6995,
      " দীর্ঘদিন ": 6996,
      " নেই। এ": 6997,
      " জমিদ": 6998,
      " খ্রিষ্ট": 6999,
      "কিংবা ": 7000,
      "ৌঁছে দ": 7001,
      "চট্রগ্রাম বিভাগখুলনা বিভাগময়মনসিংহ বিভাগরংপুর বিভাগবরিশাল বিভাগ": 7002,
      "চুক্তি ": 7003,
      " সরবরাহ": 7004,
      " করুন -": 7005,
      "ক্ষমতা ": 7006,
      "ে আনন্দ": 7007,
      " চৌধুরী, ": 7008,
      "মনোনয়ন ": 7009,
      "মনোনয়নপত্র ": 7010,
      " সুন্দরী": 7011,
      "য়োজিত": 7012,
      " সদর হাসপাতাল": 7013,
      " ভাবেই": 7014,
      "/এ, ব্লক-": 7015,
      "ইন্টারন্যাশনাল": 7016,
      "চিকিৎসা ": 7017,
      "ড্ডা, ঢাকা-১২২৯": 7018,
      "ফায়েল": 7019,
      "ফেসবুকে ": 7020,
      "ৃথক": 7021,
      "িক্যাল সার্ভেয়ার, ": 7022,
      " জীবন ": 7023,
      "যোগ দেব": 7024,
      "গুড়ায়": 7025,
      " মাধ্যমে ": 7026,
      "উদ্বোধন কর": 7027,
      "উদ্বোধনী": 7028,
      "ব্যাপারে ": 7029,
      "খালেদা জিয়া ": 7030,
      "চট্টগ্রাম বিভাগ": 7031,
      "মৃত্যু": 7032,
      "মৃত্যুর ": 7033,
      "র‌্যাল": 7034,
      "সিমের ": 7035,
      "ৃষ্টান্ত": 7036,
      "ে জানা গেছে, ": 7037,
      " গণত": 7038,
      " গোলাপ": 7039,
      "সিদ্ধান্ত নি": 7040,
      " আইনশৃঙ্খলা ": 7041,
      " অধিদপ্তরের ": 7042,
      " শ্রেণির ": 7043,
      " শ্রেণীর ": 7044,
      "চৌধুরী কর্তৃক": 7045,
      "ইংল্যান্ড": 7046,
      "নাতদন্ত": 7047,
      "নে আওয়ামী লীগ": 7048,
      "েরিটাইম": 7049,
      " কৃষি ": 7050,
      "বিজেপ": 7051,
      "সমর্থন দ": 7052,
      " অনুমোদন ": 7053,
      "অনুসরণ করে ": 7054,
      " কমিটির সদস্য": 7055,
      "বঙ্গবন্ধু শেখ মুজিব": 7056,
      "ght ": 7057,
      "pping": 7058,
      "নড়াইল জেলা ": 7059,
      "ফোরণ": 7060,
      "ফেরত": 7061,
      "ব্যাপী ": 7062,
      "৫০০/-": 7063,
      "ের পক্ষে ময়": 7064,
      "বিচারপতি ": 7065,
      "প্রত্যেক": 7066,
      " অতিরিক্ত": 7067,
      " অঞ্চলের ": 7068,
      "কাউন্সিল": 7069,
      " রোববার ": 7070,
      " যুবক": 7071,
      " গুপ্ত": 7072,
      "পরিদর্শন": 7073,
      " কোম্পানীর প্যাড": 7074,
      "সুন্ধরা ": 7075,
      "আগের অর্থ": 7076,
      " প্রতিনিধি :": 7077,
      " ইউনিয়ন পরিষদ": 7078,
      " মিডিয়া গ্রুপ লিমিটেড": 7079,
      " In": 7080,
      " ঠান্ড": 7081,
      "কে, বসুন্ধরা, ": 7082,
      "কে, এম, জ": 7083,
      ", বাড্ডা, ঢাকা-১২২৯": 7084,
      " সভায়": 7085,
      " নম্বরে ফিস": 7086,
      "ের সবচেয়ে ": 7087,
      " ফিচার": 7088,
      " প্রতিষ্ঠানের ": 7089,
      "গণতন্ত্র ": 7090,
      " ব্যাংকে অধিদপ্তরের স": 7091,
      "http://": 7092,
      "কণ্ডোম ব্যবহার কর": 7093,
      "মসজিদে আক": 7094,
      "যোদ্ধ": 7095,
      "৮৪ মোবই": 7096,
      "নিচ্ছুক": 7097,
      "বাস্তব": 7098,
      "া হয়েছে, ": 7099,
      " সময়ের জন্য": 7100,
      " বাণিজ্যিক": 7101,
      "কর্তৃক নির্ধারিত": 7102,
      " দলীয় জোট": 7103,
      "ভূমিকম্প": 7104,
      " উত্তর কোরিয়ার ": 7105,
      ", ব্লক-কে, বসুন্ধরা, ": 7106,
      "youtu": 7107,
      "উদ্ধার": 7108,
      "ডাঃ": 7109,
      " সাইজের ": 7110,
      " নাটক": 7111,
      " বিদ্যালয়": 7112,
      "বেসরকারি ": 7113,
      " রেজাউল": 7114,
      " যাচাই": 7115,
      "তাড়াহ": 7116,
      " উইকেটে ": 7117,
      "মুক্তিযোদ্ধ": 7118,
      "সীমউদ্দীন ": 7119,
      "নৌ পরিবহন অধিদপ্তরের ": 7120,
      " পরিশোধ পদ্ধতিঃ -ঐ-": 7121,
      "চট্রগ্রাম বিভাগরাজশাহী বিভাগখুলনা বিভাগময়মনসিংহ বিভাগরংপুর বিভাগবরিশাল বিভাগ\n": 7122,
      "More ": 7123,
      "link": 7124,
      "ঙালি ": 7125,
      "ট্যাবলেট": 7126,
      "িডিএফ": 7127,
      "ৃষ্ঠা ": 7128,
      "োস্টিং": 7129,
      "া অনুষ্ঠিত": 7130,
      " কাউকে ": 7131,
      " সেবা প্রদান কর": 7132,
      " দ্বিতীয়": 7133,
      "ে আগুন ": 7134,
      " তালুক": 7135,
      "সম্মেলনে ": 7136,
      "স্থিতিতে ": 7137,
      " গুরুত্ব": 7138,
      " গবেষণ": 7139,
      "িম্বাবুয়": 7140,
      " ভিত্তিতে ": 7141,
      "সহ-সভাপতি ": 7142,
      "আপিল বিভাগ": 7143,
      "ংশ্লিষ্ট একাউন্ট": 7144,
      " ওয়েস্ট মিডিয়া গ্রুপ লিমিটেড": 7145,
      " ক্ষমতা ": 7146,
      "ফোন এক্সএস": 7147,
      " স্থাপন কর": 7148,
      "েলিভিশ": 7149,
      "র‌্যাব-৭": 7150,
      "video song": 7151,
      "অস্ট্রেলিয়া ": 7152,
      "চরিত্র": 7153,
      "ছুরিকা": 7154,
      "ডটকম": 7155,
      "ণ্ঠ": 7156,
      "শিষ্ট্য": 7157,
      "সার্ভেয়ার এন্ড এক্সামিনার ফোনঃ ৯৫৫৪২০৬ মোবাইলঃ ০১৭১৬০৯৯০০৩ ই-মেইলঃ nse@dos.gov.bd\n": 7158,
      "৫২, ব্লক-কে, বসুন্ধরা, ": 7159,
      "বিচারক": 7160,
      " পার্টির ": 7161,
      " নটিক্যাল সার্ভেয়ার, ": 7162,
      "ওয়েস্ট ভার্জিনিয়": 7163,
      "ুরআন ": 7164,
      "া হত্যা মামল": 7165,
      "বললেন, ": 7166,
      " 2018 (8": 7167,
      "গ্রেপ্তার হয়েছে ": 7168,
      " অধিদপ্তর কর্তৃক নির্ধারিত": 7169,
      ", তথ্য, ছবি, আলোক": 7170,
      " থেকে": 7171,
      "চাটমোহ": 7172,
      "পাসপোর্ট": 7173,
      "ৃবৃন্দ": 7174,
      "োশ্যাল": 7175,
      "তিহ্য": 7176,
      " অথবা ": 7177,
      "্বত্য চট্টগ্রাম": 7178,
      "দ্ভুত": 7179,
      "ার্মানির ": 7180,
      "াহ্মণবাড়": 7181,
      " ফেসবুক": 7182,
      " রাসেল": 7183,
      "িংসতা ": 7184,
      " কোটি ডলারের ": 7185,
      " মোবাইলঃ ০১৯": 7186,
      "প্রধান বিচারপতির ": 7187,
      " পদ্ধতিঃ অধিদপ্তর কর্তৃক নির্ধারিত": 7188,
      "বলে মনে করছেন ": 7189,
      " অভ্যন্তরীন নৌ": 7190,
      "ূজা উদযাপন ": 7191,
      " ব্যালট বাক্স": 7192,
      "PHONEKY": 7193,
      "স্টাফ রিপোর্টার :": 7194,
      "উজ্জ্বল রায়, ": 7195,
      "পিরাইট আইনে পূর্বানুমতি ছাড়া ": 7196,
      "-সি/৫২, ব্লক-কে, বসুন্ধরা, ": 7197,
      "tamil": 7198,
      "© সর্বস্বত্ব স্বত্বাধিকার সংরক্ষিত": 7199,
      "খিলক্ষেত": 7200,
      "চাঁপাইন": 7201,
      "চব্বিশ": 7202,
      "নোটিশ": 7203,
      "ভোকেট": 7204,
      "শতাধিক": 7205,
      "ুষ্ঠানিক": 7206,
      "১ ই-মেইল - cns": 7207,
      "প্রিম কোর্ট": 7208,
      " মাশরাফ": 7209,
      "িলঃ ০১৭১১৩৩৩৯৮": 7210,
      " ওবায়দুল কাদেরের ": 7211,
      "তি দমন কমিশ": 7212,
      " ফলাফল": 7213,
      " ডেলিভার": 7214,
      "ব্রাউজার-এর ": 7215,
      "নাল হোসেন চৌধুরী কর্তৃক": 7216,
      "সরকার, চীফ নটিক্যাল সার্ভেয়ার, ": 7217,
      "ফোনঃ ৯৫৫৩৫৮৪ মোবই": 7218,
      "রাজশাহী বিভাগ---সিলেট বিভাগঢাকা বিভাগচট্রগ্রাম বিভাগখুলনা বিভাগময়মনসিংহ বিভাগরংপুর বিভাগবরিশাল বিভাগ": 7219,
      "বরিশাল বিভাগ---সিলেট বিভাগঢাকা বিভাগচট্রগ্রাম বিভাগরাজশাহী বিভাগখুলনা বিভাগময়মনসিংহ বিভাগরংপুর বিভাগবরিশাল বিভাগ\n": 7220,
      "-৩৭১/এ, ব্লক-": 7221,
      "েরিটাইম ইন্সটিটিউট": 7222,
      "ের পক্ষে ময়নাল হোসেন চৌধুরী কর্তৃক": 7223,
      "কে, এম, জসীমউদ্দীন ": 7224,
      " ব্যাংকে অধিদপ্তরের সংশ্লিষ্ট একাউন্ট": 7225,
      "মসজিদে আকসা": 7226,
      " ওয়েস্ট মিডিয়া গ্রুপ লিমিটেডের পক্ষে ময়নাল হোসেন চৌধুরী কর্তৃক": 7227,
      " পদ্ধতিঃ অধিদপ্তর কর্তৃক নির্ধারিত ব্যাংকে অধিদপ্তরের সংশ্লিষ্ট একাউন্ট": 7228,
      "উজ্জ্বল রায়, নড়াইল জেলা ": 7229,
      "-সি/৫২, ব্লক-কে, বসুন্ধরা, খিলক্ষেত": 7230,
      "চাঁপাইনবাবগঞ্জ": 7231,
      "িলঃ ০১৭১১৩৩৩৯৮১ ই-মেইল - cns": 7232,
      "সরকার, চীফ নটিক্যাল সার্ভেয়ার, ফোনঃ ৯৫৫৩৫৮৪ মোবই": 7233,
      "রাজশাহী বিভাগ---সিলেট বিভাগঢাকা বিভাগচট্রগ্রাম বিভাগখুলনা বিভাগময়মনসিংহ বিভাগরংপুর বিভাগবরিশাল বিভাগরাজশাহী বিভাগ\n": 7234,
      "-৩৭১/এ, ব্লক-ডি, ব": 7235,
      "কে, এম, জসীমউদ্দীন সরকার, চীফ নটিক্যাল সার্ভেয়ার, ফোনঃ ৯৫৫৩৫৮৪ মোবই": 7236,
      " পদ্ধতিঃ অধিদপ্তর কর্তৃক নির্ধারিত ব্যাংকে অধিদপ্তরের সংশ্লিষ্ট একাউন্ট নম্বরে ফিস": 7237,
      "-সি/৫২, ব্লক-কে, বসুন্ধরা, খিলক্ষেত, বাড্ডা, ঢাকা-১২২৯": 7238,
      "কে, এম, জসীমউদ্দীন সরকার, চীফ নটিক্যাল সার্ভেয়ার, ফোনঃ ৯৫৫৩৫৮৪ মোবইিলঃ ০১৭১১৩৩৩৯৮১ ই-মেইল - cns": 7239,
      " !": 7240,
      " #": 7241,
      " =": 7242,
      " L": 7243,
      " w": 7244,
      " থ": 7245,
      " ষ": 7246,
      " –": 7247,
      " ঢাকা ": 7248,
      " ৫০": 7249,
      " ---": 7250,
      "'\n": 7251,
      "'ঘুম": 7252,
      "(৮": 7253,
      "(৩০": 7254,
      ")/": 7255,
      ") বি": 7256,
      ") প্র": 7257,
      ") :": 7258,
      ") নভেম্বর ": 7259,
      ",০০": 7260,
      "-f": 7261,
      "-২": 7262,
      "-বি": 7263,
      "-২০": 7264,
      "-১১": 7265,
      "-সি ": 7266,
      "-ড্রাইভার": 7267,
      ". ত": 7268,
      ". দো’আ": 7269,
      "/ফ": 7270,
      "12": 7271,
      "16": 7272,
      "1) আগস্ট 201": 7273,
      "20": 7274,
      "2) সেপ্টেম্বর 201": 7275,
      "3 (": 7276,
      "3) এপ্রিল 201": 7277,
      "4, ": 7278,
      "54": 7279,
      "57": 7280,
      "5) অক্টোবর 201": 7281,
      "52) সেপ্টেম্বর 201": 7282,
      "7) অক্টোবর 201": 7283,
      "7) জুন 201": 7284,
      "88": 7285,
      "89": 7286,
      "; ২": 7287,
      "AC": 7288,
      "Co": 7289,
      "Dat": 7290,
      "IC": 7291,
      "NE": 7292,
      "Saf": 7293,
      "Th": 7294,
      "Uni": 7295,
      "az": 7296,
      "ation": 7297,
      "bangl": 7298,
      "ce ": 7299,
      "ds": 7300,
      "day": 7301,
      "e, ": 7302,
      "ig": 7303,
      "kal": 7304,
      "l ": 7305,
      "movi": 7306,
      "oc": 7307,
      "ps ": 7308,
      "por": 7309,
      "rof": 7310,
      "si": 7311,
      "se ": 7312,
      "ta": 7313,
      "tr": 7314,
      "tag": 7315,
      "ue ": 7316,
      "ঁদ": 7317,
      "ঁড়": 7318,
      "ঁড়ে ": 7319,
      "ংগ্র": 7320,
      "ংস্ক": 7321,
      "ঃ-": 7322,
      "ঃ প": 7323,
      "অ্যাল": 7324,
      "অভাব": 7325,
      "অভ্যন্ত": 7326,
      "অস্ত্র ": 7327,
      "অর্জন কর": 7328,
      "অসুস্থ": 7329,
      "অ্যাকাউন্ট": 7330,
      "অবহেল": 7331,
      "অস্তিত্ব": 7332,
      "আদ": 7333,
      "আর্": 7334,
      "আদেশ": 7335,
      "আলো": 7336,
      "আকাশ": 7337,
      "আছে। ": 7338,
      "আব্দুল": 7339,
      "আবাসিক": 7340,
      "ইচ": 7341,
      "ইড": 7342,
      "ইভি": 7343,
      "ইতো": 7344,
      "ইত্যাদি ": 7345,
      "ঈদের ": 7346,
      "উন্": 7347,
      "উৎস": 7348,
      "উর্ধ্ব": 7349,
      "এর": 7350,
      "এদিক": 7351,
      "ওজ": 7352,
      "ওদের ": 7353,
      "ও বি": 7354,
      "ওরা ": 7355,
      "ও এক": 7356,
      "ওতায়": 7357,
      "কিল": 7358,
      "কেট": 7359,
      "ক নি": 7360,
      "কের": 7361,
      "কা কর": 7362,
      "কতা ": 7363,
      "কেজ": 7364,
      "কুপ": 7365,
      "কবর": 7366,
      "কথায়": 7367,
      "ক এক্স": 7368,
      "ক হিসেবে ": 7369,
      "কিশোরগঞ্জ": 7370,
      "ক্যামের": 7371,
      "খাত": 7372,
      "খুঁজ": 7373,
      "গদ": 7374,
      "গৌ": 7375,
      "গুয়": 7376,
      "গরু": 7377,
      "গরম": 7378,
      "গভী": 7379,
      "গীত": 7380,
      "গাইড": 7381,
      "গার্ল": 7382,
      "গ্যাসের ": 7383,
      "ঘুর": 7384,
      "ঘাতের ": 7385,
      "ঙঘ": 7386,
      "চি ": 7387,
      "চক্র": 7388,
      "চেয়ার": 7389,
      "চুপ": 7390,
      "চাঁদ": 7391,
      "চ্যানেল": 7392,
      "চর্চ": 7393,
      "ছেন": 7394,
      "ছড়া ": 7395,
      "ছহী": 7396,
      "ছিনতাই": 7397,
      "জুর রহমান ": 7398,
      "ঝাল": 7399,
      "ঝিন": 7400,
      "ঝাঁকে ": 7401,
      "টিম": 7402,
      "ঠিন ": 7403,
      "ডিল": 7404,
      "ডেট": 7405,
      "ডাট": 7406,
      "ডেকে ": 7407,
      "ঢুক": 7408,
      "ঢুকে ": 7409,
      "ণিক": 7410,
      "তঃ": 7411,
      "তে": 7412,
      "তন ": 7413,
      "তরা": 7414,
      "তেন ": 7415,
      "তাপ": 7416,
      "তীয়": 7417,
      "তুম": 7418,
      "তদিন ": 7419,
      "তীব": 7420,
      "তেমন ": 7421,
      "থিন ": 7422,
      "থা, ": 7423,
      "দে ": 7424,
      "দাস": 7425,
      "দীর ": 7426,
      "দো’আ": 7427,
      "দাশ": 7428,
      "দিখ": 7429,
      "দেওয়ার ": 7430,
      "দূর ": 7431,
      "দেয়া হ": 7432,
      "দাতা ": 7433,
      "দিতে হবে। ": 7434,
      "ধে ": 7435,
      "ধানের ": 7436,
      "ধাক্ক": 7437,
      "ন\n": 7438,
      "নও": 7439,
      "নাই": 7440,
      "নাহ": 7441,
      "নাজ": 7442,
      "নন্দ": 7443,
      "নীর ": 7444,
      "নারী": 7445,
      "ন- ": 7446,
      "নাজম": 7447,
      "নতু": 7448,
      "নম্বর": 7449,
      "পেল": 7450,
      "পদের ": 7451,
      "পাপ": 7452,
      "পেজ": 7453,
      "পি হ": 7454,
      "পূরণ": 7455,
      "পুরুষ": 7456,
      "পশ্চিম": 7457,
      "ফরকার": 7458,
      "ফা প": 7459,
      "ফুটবল": 7460,
      "ফাঁস": 7461,
      "বউ": 7462,
      "বট": 7463,
      "বৌ": 7464,
      "বেন, ": 7465,
      "বা দ": 7466,
      "বোয়": 7467,
      "বরং": 7468,
      "বস্তু": 7469,
      "বান্ধ": 7470,
      "ভ্যান": 7471,
      "ভেজ": 7472,
      "ভোর ": 7473,
      "ভেদ": 7474,
      "ভান্ড": 7475,
      "ভি আ": 7476,
      "মশ": 7477,
      "মীর ": 7478,
      "মন্ড": 7479,
      "মূর্ত": 7480,
      "মৎস্য": 7481,
      "মৌলভীবাজার ": 7482,
      "যেট": 7483,
      "যরত": 7484,
      "যোজ": 7485,
      "যন্ত্র ": 7486,
      "যমুনা ": 7487,
      "যথেষ্ট": 7488,
      "যেহেতু": 7489,
      "র'": 7490,
      "রই": 7491,
      "রথ": 7492,
      "রব": 7493,
      "রভ": 7494,
      "র। ": 7495,
      "রাক": 7496,
      "রতি": 7497,
      "রপ্ত": 7498,
      "রানের ": 7499,
      "রেড": 7500,
      "রয়েছেন ": 7501,
      "লী": 7502,
      "লের ": 7503,
      "লড়": 7504,
      "লিল": 7505,
      "ল্ট": 7506,
      "লিশ": 7507,
      "লে প": 7508,
      "লব্": 7509,
      "ল না। ": 7510,
      "লিফ": 7511,
      "লে আমরা ": 7512,
      "লড়াই": 7513,
      "শনি": 7514,
      "শুল": 7515,
      "শুর ": 7516,
      "শিয়া ": 7517,
      "শ্যাম": 7518,
      "শেয়ার ": 7519,
      "শিগগিরই": 7520,
      "ষা ": 7521,
      "স্র": 7522,
      "সেন": 7523,
      "সবার ": 7524,
      "সাব": 7525,
      "স এবং": 7526,
      "সফল": 7527,
      "সজীব": 7528,
      "সেখানে ": 7529,
      "সাপেক্ষে ": 7530,
      "হ্": 7531,
      "হা ": 7532,
      "হায়": 7533,
      "হিত": 7534,
      "হাড়": 7535,
      "হবে। ": 7536,
      "হোয়": 7537,
      "হাতের ": 7538,
      "হয়েছে।\n": 7539,
      "হমাদ": 7540,
      "হিসাব": 7541,
      "হেঁ": 7542,
      "হ ইছলাম": 7543,
      "হোসেন": 7544,
      "হিন্দু": 7545,
      "া!": 7546,
      "া,": 7547,
      "া, ক": 7548,
      "াচ্ছে ": 7549,
      "াচার্য": 7550,
      "ি। এ": 7551,
      "িতে পার": 7552,
      "ির্জ": 7553,
      "ি’র ": 7554,
      "িসম্পদ": 7555,
      "ীবি": 7556,
      "ী অ": 7557,
      "ী (": 7558,
      "ীকার ": 7559,
      "ুফ": 7560,
      "ুঞ্জ": 7561,
      "ূরুল ইসলাম": 7562,
      "ৃঢ়": 7563,
      "েতা": 7564,
      "ে...\n": 7565,
      "েপাশ": 7566,
      "েউল": 7567,
      "োই": 7568,
      "োড": 7569,
      "োরের ": 7570,
      "োত্ত": 7571,
      "োওল": 7572,
      "ৌন্দ": 7573,
      "ৌখিক": 7574,
      "্বিয়": 7575,
      "ৎসা": 7576,
      "০৯৬": 7577,
      "১ম": 7578,
      "১৯৫": 7579,
      "১-১": 7580,
      "২/": 7581,
      "২, ": 7582,
      "২১৫": 7583,
      "২-১": 7584,
      "৩৪": 7585,
      "৩০০": 7586,
      "৩ জন ": 7587,
      "৪ সালের ": 7588,
      "৫.": 7589,
      "৫২৬": 7590,
      "৭৯": 7591,
      "৯২": 7592,
      "‍‌": 7593,
      "‘আ": 7594,
      "’।\n": 7595,
      "র (": 7596,
      "র হ": 7597,
      "র রহমান": 7598,
      "ে যায়": 7599,
      "ে নাম": 7600,
      "ে গ্রাম": 7601,
      "ে নতুন ": 7602,
      "ে যোগ দ": 7603,
      "য়ত": 7604,
      "য়িক": 7605,
      "া বলেন, ": 7606,
      "া » «": 7607,
      "া রেখ": 7608,
      "া যে": 7609,
      "া চালিয়ে ": 7610,
      "ের ট": 7611,
      "ের ব": 7612,
      "ের ব্য": 7613,
      "ের নেত": 7614,
      "ের কোন ": 7615,
      "ের খেল": 7616,
      "ের তাল": 7617,
      "ের ফ্র": 7618,
      "ের ছেল": 7619,
      "ের বিষয়ে ": 7620,
      "ের ব্যক্তিগত": 7621,
      "ের তুলনায়": 7622,
      "ন এবং": 7623,
      "ন শেষ": 7624,
      "্রিজ": 7625,
      "্যেষ্ঠ": 7626,
      "ারদের ": 7627,
      "ারির ": 7628,
      "ারি কর": 7629,
      "ারত দ": 7630,
      "ার-ড্রাইভার": 7631,
      "ি ল": 7632,
      "ি সি": 7633,
      "ি এই": 7634,
      "ি পে": 7635,
      "ার ই": 7636,
      "ার জ": 7637,
      "ার ল": 7638,
      "ার পর": 7639,
      "ার সু": 7640,
      "ার মধ্য": 7641,
      "ার অধ": 7642,
      "ার মাস": 7643,
      "ার সুযোগ": 7644,
      "। আমাদের ": 7645,
      "। তারপর ": 7646,
      " কান": 7647,
      " কষ্ট": 7648,
      " কেজ": 7649,
      " কিউ": 7650,
      " ক্যার": 7651,
      " কিশোরগঞ্জ": 7652,
      " কক্সবাজার": 7653,
      " কখনোই": 7654,
      "ানগ": 7655,
      "ানি": 7656,
      "ানন্দ": 7657,
      "ানের ম": 7658,
      "ানিফ": 7659,
      "্তার": 7660,
      ", S": 7661,
      ", b": 7662,
      ", খ": 7663,
      ", ৪": 7664,
      ", ৫": 7665,
      ", এই": 7666,
      ", তাদের ": 7667,
      ", আপনি ": 7668,
      ", স্ম": 7669,
      ", লক্ষ্মীপুর ": 7670,
      "বির": 7671,
      "বিহ": 7672,
      "বিন্দ": 7673,
      "বিজি": 7674,
      "বিকাল": 7675,
      "বিনোদন ": 7676,
      " সী": 7677,
      " সাহ": 7678,
      " সেট": 7679,
      " স্ল": 7680,
      " সেম": 7681,
      " সিম": 7682,
      " সকাল": 7683,
      " সেখানে ": 7684,
      " সভাপতি": 7685,
      " সতর্ক": 7686,
      " সাহিত্য": 7687,
      " সাপেক্ষে ": 7688,
      " স‌চিব": 7689,
      "নিরুল ইসলাম": 7690,
      "নিরাপত্তা ": 7691,
      "নিরাপদ": 7692,
      "র্ন": 7693,
      "র্নি ": 7694,
      "র্কম": 7695,
      "বাউ": 7696,
      "বাধ": 7697,
      "বাফু": 7698,
      "বাণী": 7699,
      "বাপের ": 7700,
      "প্রস": 7701,
      "প্রভা": 7702,
      "প্রসঙ্গ": 7703,
      "প্রকল্প": 7704,
      "প্রদত্ত": 7705,
      "প্রয়োজন ": 7706,
      "প্রাকৃতিক": 7707,
      "প্রয়াত": 7708,
      "ালেখ": 7709,
      "ায় জ": 7710,
      "ায় এক": 7711,
      " মুর": 7712,
      " মিস": 7713,
      " মধ্য": 7714,
      " মাদক": 7715,
      " মেস": 7716,
      " মান্": 7717,
      " মহাস": 7718,
      " মঙ্গল": 7719,
      " মায়ের ": 7720,
      " মনোনয়": 7721,
      " মার্কিন ": 7722,
      " মিউজিক": 7723,
      "াকার ": 7724,
      "াকাল": 7725,
      "াকৃত": 7726,
      "াকারি ": 7727,
      "াকান্দ": 7728,
      "তে যাচ্ছে ": 7729,
      "িকশ": 7730,
      "িক্স": 7731,
      "িকারি ": 7732,
      "েছে স": 7733,
      "েছে পুলিশ": 7734,
      "েছে।": 7735,
      " দে": 7736,
      " দৈ": 7737,
      " দাস": 7738,
      " দিতে ": 7739,
      " দেয়ার ": 7740,
      " দূর ": 7741,
      " দৈনিক": 7742,
      " দাঁড়": 7743,
      "ড়াম": 7744,
      "ড়তে ": 7745,
      " হই": 7746,
      " হতে ": 7747,
      " হাতে ": 7748,
      " হবে।\n": 7749,
      " হিসাবে ": 7750,
      " হাঁস": 7751,
      " হালক": 7752,
      " হোস্টিং": 7753,
      " আদেশ": 7754,
      " আরো": 7755,
      " আকাশ": 7756,
      " আদায়": 7757,
      " আটক": 7758,
      " আত্ম": 7759,
      " আয়োজন": 7760,
      " আবুল": 7761,
      " আমাদেরকে ": 7762,
      " আলোচনা সভ": 7763,
      " বই": 7764,
      " বার্": 7765,
      " বোন": 7766,
      " ব্যাপ": 7767,
      " বেস": 7768,
      " বা ম": 7769,
      " ব্যাট": 7770,
      " ব্যাপক": 7771,
      " বহাল": 7772,
      " বর্জন কর": 7773,
      " বুরহ": 7774,
      " এখানে ": 7775,
      " এরকম": 7776,
      "িয়াজ": 7777,
      "িয়া-": 7778,
      "িয়ে আস": 7779,
      " করছ": 7780,
      " করত": 7781,
      " করেই": 7782,
      " করে আ": 7783,
      " করেন, ": 7784,
      " করে, ": 7785,
      " করবে। ": 7786,
      " করি। ": 7787,
      " করবো": 7788,
      " করতে হয়": 7789,
      " করতেই": 7790,
      " করা হয়।\n": 7791,
      " পান ": 7792,
      " পেজ": 7793,
      " পাত্র": 7794,
      " পিবিএক্স": 7795,
      " পঠিতব্য দো’আ 0": 7796,
      " পৌঁছে দ": 7797,
      "ুলু": 7798,
      "ুল আলম": 7799,
      "কে অ": 7800,
      "কে ধর্ষণ": 7801,
      "েন:": 7802,
      "েননি। ": 7803,
      "তি, ": 7804,
      "তিরিক্ত": 7805,
      "তিগ্রস্ত": 7806,
      "রাওয়": 7807,
      "েশন। ": 7808,
      "াই। ": 7809,
      "াইহি ": 7810,
      "িত হয়ে ": 7811,
      "িত করতে ": 7812,
      "িলিজ": 7813,
      "টি বাস": 7814,
      "দের জন্য": 7815,
      "মাষ্ট": 7816,
      "মাবেশ": 7817,
      "ে। আর ": 7818,
      " নজ": 7819,
      " নেন ": 7820,
      " নাশ": 7821,
      " নথি যাচাইয়": 7822,
      " নাসিম": 7823,
      " জং": 7824,
      " জি": 7825,
      " জকি": 7826,
      " জুট": 7827,
      " জারী": 7828,
      " জড়িত": 7829,
      " জ্ঞ": 7830,
      " জাতি": 7831,
      " জহির": 7832,
      "্যাগ": 7833,
      " অপার": 7834,
      " অর্ড": 7835,
      " অগ্নি": 7836,
      " অর্জন": 7837,
      "েন কর": 7838,
      "েন না ": 7839,
      "েন চার": 7840,
      "াতার ": 7841,
      "াতেম": 7842,
      "েইস": 7843,
      "েই।\n": 7844,
      "েই অ": 7845,
      "েইলে ": 7846,
      "েই থাক": 7847,
      "ে আবার ": 7848,
      "ে আছে। ": 7849,
      "ে আবেদন ": 7850,
      "ে আইন": 7851,
      "ে আলোচনা ": 7852,
      "ে আবেদন কর": 7853,
      "ন্তঃ": 7854,
      "ন্তান ": 7855,
      "ওয়াট": 7856,
      "ওয়াশ": 7857,
      "ওয়ার্ড": 7858,
      " বিস্": 7859,
      " বিনা ": 7860,
      " বিকাশ": 7861,
      " বিটকয়েন ": 7862,
      "ান প": 7863,
      "এক ধ": 7864,
      "একমাত্র ": 7865,
      "একেবার": 7866,
      "জনকে ": 7867,
      " তুর": 7868,
      " তালিক": 7869,
      " তদন্ত": 7870,
      " তফসিল": 7871,
      "ুরিত": 7872,
      "ুরোধ": 7873,
      "ুরুল ইসলাম": 7874,
      "ার্গ": 7875,
      "ার্কের ": 7876,
      " শোন": 7877,
      " শিখ": 7878,
      " শামীম": 7879,
      " শিগগিরই": 7880,
      " প্রিয়": 7881,
      " প্রক্র": 7882,
      " প্রভাব": 7883,
      " প্রচুর ": 7884,
      " প্রয়োজনীয়": 7885,
      "বে স": 7886,
      "া হাস": 7887,
      "া হলে ": 7888,
      "া হচ্ছ": 7889,
      "া হচ্ছে। ": 7890,
      "া হয়েছিল": 7891,
      "য়ে পড়": 7892,
      "কাঁচ": 7893,
      "সমু": 7894,
      "সম্ম": 7895,
      "সমবায়": 7896,
      "বললাম": 7897,
      "বলে আশ": 7898,
      "বলিউড": 7899,
      "বলা হয়, ": 7900,
      "বলা হয়েছে, ": 7901,
      "াসাহিত্য": 7902,
      "ির দাবিতে ": 7903,
      " (২৮": 7904,
      "বে?": 7905,
      "বেভার": 7906,
      "বেঞ্চ": 7907,
      "য়েছে ম": 7908,
      "েখান থেকে ": 7909,
      "ঙ্গিক": 7910,
      "ঙ্গীন ": 7911,
      "িনা ": 7912,
      "িনারেল": 7913,
      "িনাক্স": 7914,
      "ী ·": 7915,
      "ী  দেশ": 7916,
      "োগ্রাম": 7917,
      " ইস": 7918,
      " ইঞ্জিনিয়ার ": 7919,
      "কারে ": 7920,
      "কার্ট": 7921,
      "কার্যালয়ে ": 7922,
      "েটর ": 7923,
      "ক্তার": 7924,
      "গ্র্যান্ড": 7925,
      "োনাম": 7926,
      "ের সেম": 7927,
      "ের স্ত্র": 7928,
      "িসিপি ": 7929,
      "স্থায়": 7930,
      "াজির ": 7931,
      "ে দোক": 7932,
      "ে দেড়": 7933,
      " ও ": 7934,
      "াপোর্ট": 7935,
      "াদা ": 7936,
      "াদারীপুর ": 7937,
      "ে সর্ব": 7938,
      "ে সন্দেহ": 7939,
      "ে সজ্জিত": 7940,
      " রম": 7941,
      " রায়": 7942,
      " রনি ": 7943,
      " রোজ": 7944,
      "অনার্স": 7945,
      "অনলাইন ": 7946,
      " সমালোচ": 7947,
      "ুর চুল": 7948,
      " যে": 7949,
      " যেক": 7950,
      " যৌন": 7951,
      "পারিশ": 7952,
      "তাগ": 7953,
      "তাৎ": 7954,
      "তাছাড়া ": 7955,
      "উপাদ": 7956,
      "উপরে ": 7957,
      "উপযুক্ত": 7958,
      "উপস্থাপন কর": 7959,
      " চায়": 7960,
      " চাপ": 7961,
      " চক্র": 7962,
      "েকর্ড": 7963,
      " ফো": 7964,
      " ফিন": 7965,
      " ফজল": 7966,
      " ফারুক": 7967,
      "ভিজি": 7968,
      "ভি/এ": 7969,
      "ব্যতিক্রম": 7970,
      "ব্যারিস্ট": 7971,
      "স্তফ": 7972,
      "িশাল": 7973,
      "ীয়া ": 7974,
      "ীয় সিরিজ": 7975,
      "মুসল": 7976,
      " গুল": 7977,
      " গঙ্গ": 7978,
      " গুন": 7979,
      "না। এ": 7980,
      "না।’": 7981,
      " লিট": 7982,
      " লোহ": 7983,
      " লড়াই": 7984,
      " লিংক": 7985,
      "াবি ": 7986,
      "নের পর ": 7987,
      "নের উত্তর ": 7988,
      "ীর ভাগ": 7989,
      "ীর প্রতি ": 7990,
      "িম জং": 7991,
      " খেস": 7992,
      " খাওয়": 7993,
      " খুঁজ": 7994,
      "ের।\n": 7995,
      "ের...\n": 7996,
      "েরেছে ": 7997,
      "জানি ": 7998,
      "জানান": 7999,
      "জানান ": 8000,
      "জানিয়ে ": 8001,
      "থাকায়": 8002,
      "থাকেন। ": 8003,
      "আমার ম": 8004,
      "আমরাও": 8005,
      "্ড ট্রাম্প": 8006,
      " দেশ। ": 8007,
      " দেশ ব্যাংকের ": 8008,
      " ভোগ": 8009,
      " ভক্ত": 8010,
      " ভিয়েতনাম": 8011,
      "পরিষ্": 8012,
      "পরিহার": 8013,
      "পরিণত": 8014,
      "জিও": 8015,
      "জিস্ট্র": 8016,
      "জিজ্ঞাস": 8017,
      "সিভ": 8018,
      "সিগঞ্জ": 8019,
      "সিরিজের ": 8020,
      "সিটিজ": 8021,
      "এই তিন ": 8022,
      " ছাফ": 8023,
      " ছাত্র ": 8024,
      "ে, তাদের ": 8025,
      "তে পারলে ": 8026,
      "তার সঙ্গে ": 8027,
      "তার সাথ": 8028,
      " ট্যাং": 8029,
      " টাঙ্গাইল": 8030,
      "পরের ": 8031,
      "পরে স": 8032,
      "পর্যালোচ": 8033,
      "াঁপড়": 8034,
      "েন। তিনি ": 8035,
      "া করলে ": 8036,
      "া করতে গিয়ে ": 8037,
      "া কর্তৃপক্ষ": 8038,
      " উৎ": 8039,
      " উদ্ধ": 8040,
      " উদ্য": 8041,
      "কোপ": 8042,
      "কোষ": 8043,
      "কোটি ": 8044,
      "কোম্পানি ": 8045,
      "সংঘ": 8046,
      "র্বাধুনিক": 8047,
      " একবার ": 8048,
      "ক্রবার সকাল": 8049,
      "ন্ট্র": 8050,
      "ন করার জন্য": 8051,
      "ন করেছে। ": 8052,
      "বাসস": 8053,
      "বাসের ": 8054,
      " ডিজ": 8055,
      " ডাক্ত": 8056,
      " ডাউনলোড": 8057,
      "ের মূল": 8058,
      "ের মন্তব্য": 8059,
      "ের মনোনয়ন ": 8060,
      "এসপি ": 8061,
      "এসেছে। ": 8062,
      "এসে দেখ": 8063,
      "এবং তাদের ": 8064,
      " সংক্রান্ত": 8065,
      "পাচ্ছ": 8066,
      "২০১১": 8067,
      "ুনূ": 8068,
      "াগুল": 8069,
      "াগুরা ": 8070,
      "াগুলো": 8071,
      "ান্তর": 8072,
      "ুন নভ": 8073,
      "প্রতিটি ": 8074,
      "প্রতিরোধ": 8075,
      "ঞ্জাম": 8076,
      "ঞ্জিন ": 8077,
      "ধারালো": 8078,
      "েও একটি ": 8079,
      "চলিত": 8080,
      "চলছে ": 8081,
      "চলচ্চিত্র": 8082,
      "নামক": 8083,
      " এবং কোষ্টাল": 8084,
      " রাজনী": 8085,
      " করে বলেন, ": 8086,
      " করে রাখ": 8087,
      " পরিচয়": 8088,
      " পরিশ্রম": 8089,
      " অনলাই": 8090,
      "তোল": 8091,
      "তোয়": 8092,
      " বাম": 8093,
      " বাজার ": 8094,
      "দু'": 8095,
      "দুজন ": 8096,
      "িয়েছেন। ": 8097,
      "িয়েছেন।\n": 8098,
      "িয়েছিলেন ": 8099,
      " থেকে এক": 8100,
      " থেকে শুরু": 8101,
      "র্তাবল": 8102,
      "ে মোট": 8103,
      " কোড": 8104,
      "্যালয়ের ": 8105,
      "কর্মীরা ": 8106,
      "একটি ওয়েবসাইট": 8107,
      "জ্বাল": 8108,
      "গতিক": 8109,
      "গত শুক্রবার ": 8110,
      "সবে। ": 8111,
      "ছুট": 8112,
      " মোল্ল": 8113,
      " মো. আ": 8114,
      "ন্ডার": 8115,
      "এম এ": 8116,
      "গুলি, ": 8117,
      "া দূর ": 8118,
      "িং। ": 8119,
      "দিন ধরে ": 8120,
      "পুর ইউনিয়ন ": 8121,
      ", কালো": 8122,
      ", কেউ": 8123,
      "স্যাম": 8124,
      " বলছেন, ": 8125,
      "e download": 8126,
      "ডিএ": 8127,
      "ডিগ্র": 8128,
      "ডিএসই": 8129,
      "নার জন্য": 8130,
      "আগুন ": 8131,
      "আর তার ": 8132,
      "রাজিত": 8133,
      "ত্রু": 8134,
      "োল্ল": 8135,
      "সহযোগিত": 8136,
      "ে নিযুক্ত": 8137,
      "িদুল ইসলাম": 8138,
      "োর ও": 8139,
      "সম্পৃক্ত": 8140,
      "সম্পর্কের ": 8141,
      "ুকা ": 8142,
      "ুকেটর": 8143,
      " হয়, ": 8144,
      " হয়ে আ": 8145,
      " জানান ": 8146,
      "ছে হিম": 8147,
      "ূলক": 8148,
      "ূলুল্লাহ": 8149,
      "... ...\n": 8150,
      "আপনিও": 8151,
      "indow": 8152,
      "আইসিস": 8153,
      "এর ফল": 8154,
      "গঞ্জে ": 8155,
      "মো.": 8156,
      "িপুর": 8157,
      "ি। কিন্তু": 8158,
      "ি। ***\n": 8159,
      " দুটির ": 8160,
      "িরভাগ": 8161,
      " আমি": 8162,
      " পরিকল্প": 8163,
      "চেঞ্জ": 8164,
      "চেয়েছিল": 8165,
      "িয়া ও": 8166,
      "েন্ট ক": 8167,
      "েন্টিফ": 8168,
      "ার দিক": 8169,
      "ার দক্ষিণ": 8170,
      "ার দায়িত্ব": 8171,
      "বুধ": 8172,
      "বুকে ": 8173,
      "বুদ্ধ": 8174,
      " সালে ম": 8175,
      "বাড়তি ": 8176,
      "বাড়ী ম": 8177,
      "ি হল": 8178,
      "ি হামল": 8179,
      "সামরিক": 8180,
      "সামান্য": 8181,
      "পুর\n": 8182,
      "চারণ": 8183,
      "চারপাশ": 8184,
      "তারই": 8185,
      "তারা।\n": 8186,
      "নীত": 8187,
      "নীল": 8188,
      "নী, ": 8189,
      "র্শকাত": 8190,
      "মুখী, ": 8191,
      "মুখের মধ্যে ": 8192,
      "মুখোমুখ": 8193,
      "োরিয়াল": 8194,
      "রকারি ": 8195,
      "োয়ার হ": 8196,
      "ণ্ডনীয়": 8197,
      "কেরা ": 8198,
      " প্রতিযোগিত": 8199,
      ", সরকার": 8200,
      "অনুসার": 8201,
      "অভিযুক্ত": 8202,
      "ুষ্প": 8203,
      "েসি ": 8204,
      " হয়ে গেছ": 8205,
      " হয়ে গেল": 8206,
      "শেষ পর্যন্ত": 8207,
      "িউল": 8208,
      "ঢাকা মুন্": 8209,
      " বছরে ": 8210,
      "জাতক": 8211,
      "s P": 8212,
      "s 24": 8213,
      "ের দো’আ": 8214,
      "ন্নাহ": 8215,
      " সময়ের মধ্যেই": 8216,
      " সম্পদ": 8217,
      "াউদ্দিন ": 8218,
      "ারী বুরহ": 8219,
      " মুক্ত": 8220,
      "ঢাকা:": 8221,
      "নদী ·": 8222,
      "রহাট": 8223,
      "। সে": 8224,
      " ২৭": 8225,
      " ২য় বর্ষ": 8226,
      "ান্নার ": 8227,
      "নিজেই": 8228,
      "নিজেকে ": 8229,
      "মাধ্যমে আপনি ": 8230,
      "অনেক সময়": 8231,
      "োকানো": 8232,
      "কর্তব্য": 8233,
      " আল্লাহর ": 8234,
      " আল মামুন ": 8235,
      "নায়ক": 8236,
      "নায়ত": 8237,
      "ে প্রধান": 8238,
      " নির্বাচনে ": 8239,
      "আলফা নেট": 8240,
      "আল্লাহর ": 8241,
      "আলবিনে ": 8242,
      "া প্রকাশ": 8243,
      "া প্রেসক্লাব": 8244,
      "শাহী ": 8245,
      "া মিল": 8246,
      "া মার্ক": 8247,
      " এইচ": 8248,
      " করা সম্ভব": 8249,
      " জনপ্রিয়": 8250,
      " জনগোষ্ঠ": 8251,
      "তিকর ": 8252,
      " দলের স": 8253,
      "কাজে লাগ": 8254,
      "ের মধ্যে স": 8255,
      "ের মধ্য দিয়ে ": 8256,
      "নির্বাচিত": 8257,
      "নির্বাচনের ": 8258,
      " দেখা ": 8259,
      "বৃতি ": 8260,
      "বৃতিতে ": 8261,
      "্যাক্ট": 8262,
      " সুখ": 8263,
      " সুষ্ঠু": 8264,
      "দেখতে ": 8265,
      "দেখা যায়": 8266,
      "লক্ষী ক": 8267,
      "া নেই। ": 8268,
      " সিদ্ধ": 8269,
      " সিটি করপোরেশনের ": 8270,
      " সিস্টেম": 8271,
      "া আওয়ামীলীগ": 8272,
      " অনুস": 8273,
      " অনুর্ধ্ব": 8274,
      " অনুযায়ী ": 8275,
      "লাইনের ": 8276,
      "া পড়": 8277,
      " আসন্ন ": 8278,
      "িয়ার এড": 8279,
      "্যাটাস": 8280,
      "্যাটর্নি ": 8281,
      "বিশ্বের ": 8282,
      "্যামে": 8283,
      "দ্রোহ": 8284,
      "ে বিক্র": 8285,
      "ে বিজ্ঞ": 8286,
      " নামাজ": 8287,
      "ার সঙ্গ": 8288,
      " মানবিক": 8289,
      "শীতের ": 8290,
      "মাণবিক": 8291,
      "দর্শকদের ": 8292,
      "পড়েছেন ": 8293,
      "পড়েছে। ": 8294,
      "স্বাক্ষ": 8295,
      "মধ্যে একটি ": 8296,
      "মধ্যে এইচ-আই-": 8297,
      "end": 8298,
      "ার মা ": 8299,
      "ার মূল": 8300,
      "দ্দিক": 8301,
      "সম্মান ": 8302,
      "সম্ভাবনা ": 8303,
      "জাম্মেল": 8304,
      "ফোন: ": 8305,
      "াফিজ": 8306,
      "াফরে": 8307,
      "গুপ্ত": 8308,
      "গুগল": 8309,
      "দলকে ": 8310,
      "সেরা": 8311,
      "সেরা ": 8312,
      "ইউএস  ": 8313,
      "সিলেট জেলা ": 8314,
      "ৈরব": 8315,
      "ে যৌনকর্মীদের ": 8316,
      " সাথ": 8317,
      "র্কতাদের ": 8318,
      "আসেন ": 8319,
      "গোত্র": 8320,
      "্তৃক": 8321,
      "মন্ত্রী বলেন, ": 8322,
      "ে অভিন": 8323,
      "েম্বর 2018 (": 8324,
      " ২০১৫ (": 8325,
      "জাতীয় সংসদ নির্বাচ": 8326,
      "ধরিয়ে দ": 8327,
      "১২৩৮": 8328,
      " বেশি। ": 8329,
      "ঙ্কর ": 8330,
      "এলাকায় য": 8331,
      "এলাকাবাস": 8332,
      "তালিকা": 8333,
      "ে দু’": 8334,
      " কিছুই": 8335,
      "মা ইসলাম": 8336,
      " কোটি ১০": 8337,
      "out ": 8338,
      "কৃত্রিম": 8339,
      "তুলতে ": 8340,
      "তুল্লাহ": 8341,
      "শিক্ষার্থ": 8342,
      "শিক্ষার্থীদের ": 8343,
      " সহিহ": 8344,
      " মহান ": 8345,
      " ইউরোপ": 8346,
      "ভালো মানের ": 8347,
      "োহরাওয়": 8348,
      "া ক্যাম্প": 8349,
      "া কামাল": 8350,
      "প্রথমে ": 8351,
      "প্রথম আলো": 8352,
      " জেলা প্রশাস": 8353,
      "হত্যার ": 8354,
      "টি।\n": 8355,
      "টাইগার": 8356,
      "মির্জ": 8357,
      "ে এটি ": 8358,
      "ে এখন ": 8359,
      "ে কোনও": 8360,
      " হোসেনের ": 8361,
      " অধিবেশ": 8362,
      "সিংদী ": 8363,
      "ari": 8364,
      "are ": 8365,
      "খুব ভালো": 8366,
      "সারণ": 8367,
      " মাষ্ট": 8368,
      "ে। এতে ": 8369,
      " অক্টোবর": 8370,
      "বিশেষজ্ঞ": 8371,
      "হয়। ": 8372,
      "িকিৎসা": 8373,
      " অভিজ্ঞতা ": 8374,
      "কারীরা ": 8375,
      "সম্পাদক ও": 8376,
      "সম্পাদক :": 8377,
      "রেন্দ্র ": 8378,
      " বেগম": 8379,
      "রাত ৮": 8380,
      "রাত ১১": 8381,
      "কাছেও": 8382,
      "স্ত্রীর ": 8383,
      " বাড়ানোর ": 8384,
      "উপজেলা স্বাস্থ্য": 8385,
      "তাহস": 8386,
      "১৫২১৫": 8387,
      " ক্ষমত": 8388,
      " স্টোর": 8389,
      "িয়ে দেখ": 8390,
      "চেষ্টাকারী": 8391,
      " তারেক": 8392,
      "প্রতিনিধিদ": 8393,
      "যাচ্ছে।\n": 8394,
      "নগ্ন ": 8395,
      "নগরীর ": 8396,
      "মেয়ে ": 8397,
      " করতে পারেন ": 8398,
      "েন। এর ": 8399,
      "েন। এতে ": 8400,
      "েন। এ সময়": 8401,
      "al ": 8402,
      "শহরে ": 8403,
      "শহর, ": 8404,
      "শহীদ": 8405,
      "সীমা ": 8406,
      " বৃষ্টি ": 8407,
      "এসব রাস্ত": 8408,
      "১৮ দলীয় জোট": 8409,
      "ন হবে ": 8410,
      "ার্টজ": 8411,
      "পরিবারের সদস্য": 8412,
      "শুধুমাত্র ": 8413,
      "সরকারী": 8414,
      "টি কার্ড": 8415,
      "টি কর্পোর": 8416,
      "গ্রেফতার": 8417,
      " চলছে ": 8418,
      "rect": 8419,
      "ছেলে ": 8420,
      "ছোট ভাই": 8421,
      "ন। তবে ": 8422,
      "ে গান ": 8423,
      "ৃত্যু": 8424,
      " সংবাদমাধ্যম": 8425,
      " সংবাদ, তথ্য, ছবি, আলোক": 8426,
      "এখন আর ": 8427,
      "ধর্মযাজ": 8428,
      " বলে মনে কর": 8429,
      " খেলোয়াড়": 8430,
      " উদ্দিন আহমেদ": 8431,
      "ায় পুলিশ": 8432,
      "ায় যুব": 8433,
      " এস এম": 8434,
      "কে আসাম": 8435,
      " সালের এই": 8436,
      "উদ্বেগ": 8437,
      "আওয়ামী লীগ ও": 8438,
      "ভয়াবহ": 8439,
      "ভোট বর্জন কর": 8440,
      "হাজারীবাগ": 8441,
      "ান। তিনি ": 8442,
      "প্রাপ্তিস্থান": 8443,
      " মাহবুব": 8444,
      "জেলা প্রতিনিধি ": 8445,
      "পূর্ণাঙ্গ": 8446,
      " ই-মেইলঃ su": 8447,
      " ৭০": 8448,
      "আনু": 8449,
      "যাত্রায়": 8450,
      "শাস্ত": 8451,
      " নৌ পরিবহন অধিদপ্ত": 8452,
      " নৌযানের ": 8453,
      "অবস্থান ": 8454,
      "অবস্থান কর": 8455,
      "শ্চর্য": 8456,
      "পূর্বক": 8457,
      "অপেশাদ": 8458,
      "বৈধ": 8459,
      "লেখা ": 8460,
      "ের উদ্দেশ": 8461,
      " সেটি ": 8462,
      " সেরা ": 8463,
      " না। এ": 8464,
      "ন্তর্ভুক্ত": 8465,
      "ব্যবস্থা ন": 8466,
      " উত্তীর্ণ": 8467,
      " উত্তেজন": 8468,
      "সাহিত্য": 8469,
      "তে চায়। ": 8470,
      " আনুষ্ঠানিক": 8471,
      " তৈরি হয়েছে। ": 8472,
      "ের সংখ্যা ": 8473,
      " লেখা ": 8474,
      "অধিদপ্তর ": 8475,
      "চৌধুরীর ": 8476,
      "াতির পিতা ": 8477,
      "া রয়েছে। ": 8478,
      "ন ও সম": 8479,
      "নে হচ্ছে ": 8480,
      " ভারতে ": 8481,
      " সংস্থার ": 8482,
      " রাজবাড়ী ম": 8483,
      "ঢাকা বিভাগ\n": 8484,
      "ঢাকা বিভাগ---সিলেট বিভাগ": 8485,
      " স্বাভাবিক": 8486,
      "ছাত্রলীগ": 8487,
      "দ্বারা ": 8488,
      "ব্যাটসম": 8489,
      " সনদ; ·": 8490,
      "২০০৬": 8491,
      "নির্দেশ দিয়েছ": 8492,
      "বাজারে ": 8493,
      "বাজার পত্রিকার ": 8494,
      "ইলিয়": 8495,
      "কুমিল্ল": 8496,
      "চাকর": 8497,
      "ছড়িতে ": 8498,
      "পাড়া ": 8499,
      "পাড়া, ": 8500,
      "বরাবর": 8501,
      "ভেঙ": 8502,
      "শুনে আমি ": 8503,
      "ী নজরুল ইসলাম": 8504,
      "ৌঁছে ": 8505,
      "িকা। এ": 8506,
      "স্মরণ": 8507,
      "ব্যবহারের ": 8508,
      "ে পাথর ": 8509,
      " ছাড়পত্র ": 8510,
      "সাধারণ নাগরিক": 8511,
      "ঢাকা-১২০": 8512,
      "বিষয়টি সম্পূর্ণ": 8513,
      " ০.": 8514,
      ". কামাল": 8515,
      "অতিথি ": 8516,
      "এলাকা ": 8517,
      "সনদ ·": 8518,
      "৪৩ মতিঝিল": 8519,
      "৯৯ মোবাইলঃ ০১৯": 8520,
      "ে জঙ্গ": 8521,
      " দিবস": 8522,
      " পদক্ষেপ": 8523,
      " বিক্রি হয়": 8524,
      "নির্বাচন বয়কট": 8525,
      ") সেপ্টেম্বর ": 8526,
      "রায়পুর ": 8527,
      "৮৭ ই-মেইলঃ su": 8528,
      " সিলেটের ": 8529,
      " মেয়র ": 8530,
      " মেয়েদের ": 8531,
      "াইনালে ": 8532,
      "মাহবুব": 8533,
      " জাহাজ এবং কোষ্টাল": 8534,
      " তুলে ধর": 8535,
      " (৩৯": 8536,
      "নাগাদ": 8537,
      " উন্নয়নের ": 8538,
      "কোরবান": 8539,
      " ব্যবহৃত": 8540,
      "গঞ্জ ঢাকা মুন্": 8541,
      "বুঝতে পার": 8542,
      ". নতুন ": 8543,
      "ব্লগ": 8544,
      "২৭৮৭ ই-মেইলঃ su": 8545,
      "নিরীক্ষ": 8546,
      "নির্যাত": 8547,
      "প্রশ্নের উত্তর ": 8548,
      "ালটন ": 8549,
      " পেতে ": 8550,
      " অবশ্য": 8551,
      "উপস্থিত ছিলেন ": 8552,
      "ব্যবসা ": 8553,
      " পরিদর্শন ": 8554,
      "রেজিষ্ট্র": 8555,
      ") জানুয়ারি ": 8556,
      ") ডিসেম্বর ": 8557,
      "1964": 8558,
      "আহত অবস্থায়": 8559,
      "লিখেছেন, ": 8560,
      "ীপুর শরীয়": 8561,
      "নিউজ ডেস্ক": 8562,
      "মাদুর ": 8563,
      " নিহত হয়েছেন। ": 8564,
      " রেখে ": 8565,
      " যৌনকর্মী": 8566,
      " লাইফ": 8567,
      "সিডিস": 8568,
      " ছবিটি ": 8569,
      "ের বিরুদ্ধে ": 8570,
      "উত্তর কোরিয়ার ": 8571,
      ") জুন 2018 (": 8572,
      " সদস্যের ": 8573,
      "গড় উপজেলা ": 8574,
      "জাহান ": 8575,
      "নটিক্যাল": 8576,
      "মালয়েশ": 8577,
      "রের সব": 8578,
      "বিস্তারিত»\n": 8579,
      "কে সরিয়ে ": 8580,
      "রিদপুর ": 8581,
      "পাখিশ": 8582,
      " সালে  দেশ": 8583,
      "বছরের একই সময়ে ": 8584,
      "েওয়া হবে ": 8585,
      "েওয়া হবে। ": 8586,
      "েওয়া হবে।\n": 8587,
      "নারায়ণগঞ্জ টাঙ্গাইল": 8588,
      ") সেপ্টেম্বর 2017 (": 8589,
      "ঈদগাহ": 8590,
      "কথা, ": 8591,
      "াচ্ছেন ": 8592,
      "া ইস্য": 8593,
      "ন সংক্রান্ত": 8594,
      "ানাড": 8595,
      "ানাবিধ": 8596,
      " হত্যা কর": 8597,
      " করুন - € 53,50 EUR": 8598,
      " পালন কর": 8599,
      "রাজনৈতিক দল": 8600,
      "সমস্যা ": 8601,
      " পাওয়া গেছে। ": 8602,
      " কর্তৃপক্ষের ": 8603,
      ") নামের এক": 8604,
      "/এ, ঢাক": 8605,
      "ed1964": 8606,
      "আহবান জান": 8607,
      "কেন?": 8608,
      "গাজীপুর শরীয়": 8609,
      "তীর্থ": 8610,
      "রবিউল": 8611,
      "শৃং": 8612,
      "হীন চব্বিশ": 8613,
      "োঁয়": 8614,
      "ৌদি আজ": 8615,
      "ের সমস্ত": 8616,
      "ান্টু": 8617,
      "বাদের ভিত্তিতে ": 8618,
      "াক্তন ": 8619,
      " সম্মান": 8620,
      " সম্ভব": 8621,
      "তে পারেনি ": 8622,
      "আগামীতে ": 8623,
      "আগামীকাল": 8624,
      "গুড়ার ": 8625,
      "news 24": 8626,
      "না হওয়ায়": 8627,
      "লেই চল": 8628,
      "প্রার্থী": 8629,
      "প্রার্থী হ": 8630,
      " হবে না। ": 8631,
      " চালু": 8632,
      "ের সাধারণ সম্পাদক ও স": 8633,
      "ের সাধারণ সম্পাদক ওবায়দুল কাদেরের ": 8634,
      ") জুলাই 2016 (": 8635,
      "রেজিস্ট্রেশন ": 8636,
      ") নভেম্বর 2015 (": 8637,
      "আত্মসমর্প": 8638,
      "পিতা-": 8639,
      "বধূ": 8640,
      "৪৫ দিন": 8641,
      "া ফখরুল": 8642,
      "বিস্ফোরক": 8643,
      "বিস্ফোরণ": 8644,
      "বিদেশি ": 8645,
      "বিমান হামল": 8646,
      " বৈঠ": 8647,
      " বৈশিষ্ট্য": 8648,
      "েনের ভারসাম": 8649,
      "জনগণের ": 8650,
      " ইংরেজ": 8651,
      "ব্যালট\n": 8652,
      " খালেদা জিয়াকে ": 8653,
      " ভূমিক": 8654,
      " ছেলে ": 8655,
      "কলেজছাত্রী ": 8656,
      "অনুসন্ধ": 8657,
      "ঢাকার বাহিরে ": 8658,
      "লক্ষ্মী": 8659,
      " লাখ ডলারের ": 8660,
      " লাখ ডলার। ": 8661,
      "কৃষি ": 8662,
      " কিলোমিটার ": 8663,
      " by ": 8664,
      "direct": 8665,
      "দিল্ল": 8666,
      "সবাইকে ": 8667,
      "ের পক্ষ থেকে ": 8668,
      "নিময়ে ": 8669,
      "প্রত্যক্ষ": 8670,
      " বসবাস": 8671,
      " অতিথি ": 8672,
      "ে আবেদনপত্র; ·": 8673,
      "একাডেম": 8674,
      " যুবকের ম": 8675,
      "তি হিসাব": 8676,
      "মুসলিম সাম": 8677,
      " টুকরো": 8678,
      "রোজগ": 8679,
      " স্কুলে ": 8680,
      "গবেষণা ও উন্নয়": 8681,
      "যৌথ": 8682,
      "া যাবে না ": 8683,
      "ার খাঁচ": 8684,
      ", বা/এ, ঢাক": 8685,
      " মামুন": 8686,
      " হওয়া সাপেক্ষে ": 8687,
      " পুরস্কার ": 8688,
      "ে আইন ": 8689,
      "ে আলফা নেট": 8690,
      "জনের নাম": 8691,
      "ের সুবিধ": 8692,
      "ে পালিয়ে ": 8693,
      "জানিয়েছেন, ": 8694,
      "পর্যায়ে ": 8695,
      " ডাঃ": 8696,
      " ব্যবসায়": 8697,
      " লাখ টাকা। ": 8698,
      "বিশ্ববিদ্যালয়ের অধ্যাপক": 8699,
      "ে পাঠানো": 8700,
      "ৌলভীবাজার": 8701,
      "রোহিঙ্গাদের ": 8702,
      "ভিটামিন": 8703,
      " কাগজহীন চব্বিশ": 8704,
      "অভিনেত্র": 8705,
      "ক প্রদত্ত": 8706,
      "কপি ৩": 8707,
      "ফটওয়": 8708,
      "১। নির্ধারিত": 8709,
      "৮৪১৫২১৫": 8710,
      "৮৪৩২০": 8711,
      "া চামড়": 8712,
      " কপি পাসপোর্ট": 8713,
      ", 2018 আল মামুন ": 8714,
      " সাড়ে ১০": 8715,
      " মন্দির": 8716,
      " শামসু": 8717,
      " প্রশ্নের জবাবে ": 8718,
      " প্রধানমন্ত্রী": 8719,
      "ুর রশীদ": 8720,
      " খানাখন্দ": 8721,
      " পরিবর্তন ": 8722,
      "া দিবস": 8723,
      "অবসর ": 8724,
      "কর্তৃপক্ষ": 8725,
      " সূত্রে জানা গেছে, ": 8726,
      "স্তুতি নিচ্ছ": 8727,
      "গোপালগঞ্জ ফরিদ": 8728,
      "SIM": 8729,
      "TER": 8730,
      "তপুর নারায়ণগঞ্জ টাঙ্গাইল": 8731,
      "ভেতরে ": 8732,
      "সর্বশেষ": 8733,
      " দফা ": 8734,
      " আলোচনায়": 8735,
      " ফর্মে আবেদনপত্র ": 8736,
      "নাট্য": 8737,
      " ভেঙে ": 8738,
      "ধারাবাহিকতা ": 8739,
      " রাজনৈতিক দল": 8740,
      "দুঃখ": 8741,
      "ফলাফল প্রকাশ": 8742,
      "স্বপ্": 8743,
      "স্বপ্ন ": 8744,
      " দিন জনাব এ,কে,এম, ফখরুল ইসলাম, চীফ ইঞ্জিনিয়ার এন্ড শিপ সার্ভেয়ার ফোনঃ ৯৫৫০৮৬৭ মোবাইলঃ০১৭১১-৯৪৯৩২৪ ই-মেইল - cess": 8745,
      "মুক্তিযুদ্ধ": 8746,
      "জুড়ে বিক্ষোভ": 8747,
      "পরিচালক (গবেষণা ও উন্নয়": 8748,
      " কথা বলেন।\n": 8749,
      ") ফেব্রুয়ারি 201": 8750,
      "চট্রগ্রাম বিভাগরাজশাহী বিভাগখুলনা বিভাগময়মনসিংহ বিভাগরংপুর বিভাগবরিশাল বিভাগঢাকা বিভাগ\n": 8751,
      "গাছের ": 8752,
      "ডেস্ক :": 8753,
      "দাদুল হক": 8754,
      "প্যাকেজ": 8755,
      "বোমা হামল": 8756,
      "বন্য প্রাণ": 8757,
      "নির্মিত": 8758,
      " আউট বিক্রি ": 8759,
      " বরাবর ": 8760,
      " বিদ্যুৎ": 8761,
      "মুন্না\n": 8762,
      "নামূল্যে ": 8763,
      "কেন্দ্র কর": 8764,
      "যোগ্যতা সনদ": 8765,
      " ৫৮৯৫": 8766,
      "ted news 24": 8767,
      "বায়দুল কাদের বলেছেন, ": 8768,
      " পৌরসভার ": 8769,
      "free download": 8770,
      "omi": 8771,
      "গড়ে তুল": 8772,
      "দিতি ফ": 8773,
      "ন) ফোনঃ ৯৫": 8774,
      "নেচ": 8775,
      "ফিরে এস": 8776,
      "যেকোনো": 8777,
      "শিরোনাম": 8778,
      "সার্বিক": 8779,
      "াধুল": 8780,
      "েকাতে ": 8781,
      "নিশ্চয়ই": 8782,
      "াল্গুন": 8783,
      " বানানোর ": 8784,
      " বঙ্গবন্ধুর ": 8785,
      "াইদহ": 8786,
      "াইভেট": 8787,
      "ঙ্ঘন ": 8788,
      " প্রশিক্ষণ": 8789,
      "সম্বন্ধে ": 8790,
      "উপলক্ষে ": 8791,
      " চেষ্টা কর": 8792,
      "িশিং জাহাজ এবং কোষ্টাল": 8793,
      "চ্ছিন্ন ": 8794,
      "পরবর্তী ": 8795,
      " এবং উইন্ড": 8796,
      " থেকে মুদ্রিত।\n": 8797,
      "সহকারী পরিচালক": 8798,
      "...\tRead ": 8799,
      "া আওয়ামী লীগের সভাপতি ": 8800,
      " উপ-পরিচালক (গবেষণা ও উন্নয়": 8801,
      "প্লেটটি ": 8802,
      "ক্লিক করে ": 8803,
      "বৈঠক": 8804,
      "াক্ষাৎকার ": 8805,
      "উল্লেখ্য, ": 8806,
      " ভবন ভাঙতে ": 8807,
      "ভারপ্রাপ্ত কর্মকর্তা (": 8808,
      "নোয়াখালীর ": 8809,
      " ঘন্টার এক র": 8810,
      "েতুমন্ত্রী ওবায়দুল কাদের বলেছেন, ": 8811,
      "স্পাইডারম্যান": 8812,
      "চিত্র, ভিডিওচিত্র, অডিও কনট": 8813,
      " বাদী হয়ে ": 8814,
      " ধারণা ": 8815,
      ",১ টি ": 8816,
      ",০০০/- টাকা ": 8817,
      "gins": 8818,
      "virgins": 8819,
      "আবারও": 8820,
      "আয়োজন কর": 8821,
      "ইন্সটাফরে": 8822,
      "নরসিংদী ": 8823,
      "মেহেদ": 8824,
      "মিয়ানমারের ": 8825,
      "শমসের নগ": 8826,
      "ীপুরের কালিয়াক": 8827,
      "বিবেচ": 8828,
      "বিমানবন্দর ": 8829,
      " সার্ভার": 8830,
      " মন্ত্রণালয়": 8831,
      "ুল কবির ": 8832,
      "িল্যান্ডের বিপক্ষ": 8833,
      "মাগুরা ": 8834,
      "ের সিদ্ধান্ত": 8835,
      "ের সভাপতিত্বে ": 8836,
      "মুহূর্ত": 8837,
      "আইডব্ল": 8838,
      "শ্রেণীর ": 8839,
      " মানিকগঞ্জ ঢাকা মুন্": 8840,
      "েফাজতে ": 8841,
      ". You c": 8842,
      " টাকা। পরিশোধ": 8843,
      " । অদিতি ফ": 8844,
      "elec": 8845,
      " ০২ ৫৮৯৫": 8846,
      "ackag": 8847,
      "পুরোপুরি ": 8848,
      "যুগ্ম মহাসচিব": 8849,
      "পর্যবেক্ষণ": 8850,
      " এর টাকা জমা প্রদান করতে হবে। ": 8851,
      " মহাপরিচালক, নৌ পরিবহন অধিদপ্তরের ": 8852,
      " ওয়েবসাইটের কোনো লেখা বা ছবি অনুমতি ছাড়া নকল করা বা অন্য কোথাও প্রকাশ করা সম্পূর্ণ বেআইনি\n": 8853,
      ") শোবিজ": 8854,
      "-বাছাই": 8855,
      ": মুস": 8856,
      "MS, ": 8857,
      "ahmed1964": 8858,
      "ঠাণ্ডা নাম": 8859,
      "তৃতীয়": 8860,
      "নাইটেড": 8861,
      "নথি যাচাইয়ান্তে ": 8862,
      "ভ্রাম্যমাণ": 8863,
      "যাই হোক": 8864,
      "লেহেঙ্গ": 8865,
      "িফিকেট": 8866,
      "ার ক্লাশ-১": 8867,
      "ায়ূন ": 8868,
      "ায় অনেক খেস": 8869,
      " পাখি ": 8870,
      "বেআইনি ": 8871,
      "োনাল্ড ট্রাম্প": 8872,
      "িস ওয়ার্ল্ড  দেশ": 8873,
      " উদ্দেশ্য": 8874,
      " ডট কম": 8875,
      "হত্তর ": 8876,
      "সু চির ": 8877,
      "ান্ধ্যকালীন ": 8878,
      ": +৮৮ ০২ ৫৮৯৫": 8879,
      " নির্বাচন করুন নভ": 8880,
      "র্বৃত্তরা ": 8881,
      "্যান্ডার্ড - ": 8882,
      "গণফোরাম সভাপতি ": 8883,
      " উপস্থিত ছিলেন ": 8884,
      "প্লিকেশন": 8885,
      ", চট্টগ্রাম-৪": 8886,
      "বলে জানা গেছে। ": 8887,
      "শ্লীল রচ": 8888,
      "্প্রদায়িক": 8889,
      " খ্রিষ্টান ": 8890,
      " করুন - আউট বিক্রি ": 8891,
      "মনোনয়ন ফরম": 8892,
      "ফায়েল আহমেদ": 8893,
      " আইনশৃঙ্খলা বাহিনীর ": 8894,
      "More »\n": 8895,
      " গুরুত্বপূর্ণ": 8896,
      "ূজা উদযাপন পরিষদের ": 8897,
      " পদ্ধতিঃ অধিদপ্তর কর্তৃক নির্ধারিত ব্যাংকে অধিদপ্তরের সংশ্লিষ্ট একাউন্ট নম্বরে ফিস এর টাকা জমা প্রদান করতে হবে। ": 8898,
      "কে, এম, জসীমউদ্দীন সরকার, চীফ নটিক্যাল সার্ভেয়ার, ফোনঃ ৯৫৫৩৫৮৪ মোবইিলঃ ০১৭১১৩৩৩৯৮১ ই-মেইল - cns@dos.gov.bd\n": 8899,
      "'ঘুমর'": 8900,
      "(৮ম তলা": 8901,
      "-সি যোগ": 8902,
      "United news 24": 8903,
      "ংগ্রেস": 8904,
      "ংস্কৃতিক": 8905,
      "অভ্যন্তরীণ": 8906,
      "এরশাদ": 8907,
      "ক এক্সচেঞ্জ": 8908,
      "ছহীহ ইছলাম": 8909,
      "ঝিনাইদহ": 8910,
      "ডাটাস": 8911,
      "তরাং": 8912,
      "দিখান ": 8913,
      "ফা পিবিএক্স": 8914,
      "ভি আক্রান্ত": 8915,
      "লব্ধ": 8916,
      "ৌন্দর্য": 8917,
      "০৯৬১২": 8918,
      "১-১৪৩ মতিঝিল": 8919,
      "৫২৬৯৯ মোবাইলঃ ০১৯": 8920,
      "ারত দিতে হ": 8921,
      " কিশোরগঞ্জ মানিকগঞ্জ ঢাকা মুন্": 8922,
      "র্কমর্কতাদের ": 8923,
      " জকিগঞ্জ": 8924,
      " শোনা যায়": 8925,
      "বেভারেজ": 8926,
      "ঙ্গীন কাগজ": 8927,
      "িনাক্স এবং উইন্ড": 8928,
      "াদারীপুর গোপালগঞ্জ ফরিদ": 8929,
      "ভি/এড্স": 8930,
      "মুসলমান": 8931,
      "সিগঞ্জ রাজবাড়ী ম": 8932,
      " ডিজাই": 8933,
      "েন্টিফোর ": 8934,
      "ণ্ডনীয় অপরাধ": 8935,
      "োকানো অবস্থায়": 8936,
      "লক্ষী কুঞ্জ": 8937,
      "িয়ার এডুকেটর": 8938,
      "্যাটর্নি জেনারেল": 8939,
      "১২৩৮২৭৮৭ ই-মেইলঃ su": 8940,
      "এলাকায় যৌনকর্মীদের ": 8941,
      "তালিকাভুক্ত": 8942,
      "োহরাওয়ার্": 8943,
      " উদ্দিন আহমেদ উপ-পরিচালক (গবেষণা ও উন্নয়": 8944,
      "ভোট বর্জন করায় অনেক খেস": 8945,
      " উত্তীর্ণ হওয়া সাপেক্ষে ": 8946,
      "ঢাকা বিভাগ---সিলেট বিভাগচট্রগ্রাম বিভাগরাজশাহী বিভাগখুলনা বিভাগময়মনসিংহ বিভাগরংপুর বিভাগবরিশাল বিভাগঢাকা বিভাগ\n": 8947,
      "কুমিল্লা ": 8948,
      "নটিক্যাল সার্ভেয়ার ": 8949,
      "গাজীপুর শরীয়তপুর নারায়ণগঞ্জ টাঙ্গাইল": 8950,
      "কলেজছাত্রী খাদিজ": 8951,
      ", বা/এ, ঢাকা। ": 8952,
      " কাগজহীন চব্বিশ ঘন্টার এক র": 8953,
      "১। নির্ধারিত ফর্মে আবেদনপত্র ": 8954,
      " কপি পাসপোর্ট সাইজের ": 8955,
      ", 2018 আল মামুন মুন্না\n": 8956,
      "ন) ফোনঃ ৯৫৫২৬৯৯ মোবাইলঃ ০১৯": 8957,
      "াল্গুনী » «": 8958,
      "চিত্র, ভিডিওচিত্র, অডিও কনটেন্ট ক": 8959,
      "ইন্সটাফরেক্স": 8960,
      "নরসিংদী গাজীপুর শরীয়তপুর নারায়ণগঞ্জ টাঙ্গাইল": 8961,
      " । অদিতি ফাল্গুনী » «": 8962,
      "ahmed1964@gmail.com\n": 8963,
      "ঠাণ্ডা নামছে হিম": 8964,
      " নির্বাচন করুন নভেম্বর 2018 (": 8965,
      "United news 24 কাগজহীন চব্বিশ ঘন্টার এক র": 8966,
      "১-১৪৩ মতিঝিল, বা/এ, ঢাকা। ": 8967,
      " কিশোরগঞ্জ মানিকগঞ্জ ঢাকা মুন্সিগঞ্জ রাজবাড়ী ম": 8968,
      "াদারীপুর গোপালগঞ্জ ফরিদপুর\n": 8969,
      "১২৩৮২৭৮৭ ই-মেইলঃ suahmed1964@gmail.com\n": 8970,
      " উদ্দিন আহমেদ উপ-পরিচালক (গবেষণা ও উন্নয়ন) ফোনঃ ৯৫৫২৬৯৯ মোবাইলঃ ০১৯": 8971,
      "ভোট বর্জন করায় অনেক খেসারত দিতে হ": 8972,
      "নরসিংদী গাজীপুর শরীয়তপুর নারায়ণগঞ্জ টাঙ্গাইল কিশোরগঞ্জ মানিকগঞ্জ ঢাকা মুন্সিগঞ্জ রাজবাড়ী ম": 8973,
      "United news 24 কাগজহীন চব্বিশ ঘন্টার এক রঙ্গীন কাগজ": 8974,
      " উদ্দিন আহমেদ উপ-পরিচালক (গবেষণা ও উন্নয়ন) ফোনঃ ৯৫৫২৬৯৯ মোবাইলঃ ০১৯১২৩৮২৭৮৭ ই-মেইলঃ suahmed1964@gmail.com\n": 8975,
      "নরসিংদী গাজীপুর শরীয়তপুর নারায়ণগঞ্জ টাঙ্গাইল কিশোরগঞ্জ মানিকগঞ্জ ঢাকা মুন্সিগঞ্জ রাজবাড়ী মাদারীপুর গোপালগঞ্জ ফরিদপুর\n": 8976,
      " *": 8977,
      " .": 8978,
      " 7": 8979,
      " 8": 8980,
      " F": 8981,
      " J": 8982,
      " R": 8983,
      " |": 8984,
      " ৷": 8985,
      " র ": 8986,
      " ঢাক": 8987,
      " co": 8988,
      " । এই": 8989,
      " se": 8990,
      " of ": 8991,
      " im": 8992,
      " to ": 8993,
      " ঋণ": 8994,
      " www.": 8995,
      " তিনটি ": 8996,
      " November 1": 8997,
      " tw": 8998,
      "'প": 8999,
      "'র ": 9000,
      "'স্বল্প": 9001,
      "(২০": 9002,
      ") অ": 9003,
      ") এবং": 9004,
      ")-এর ": 9005,
      ") ১৪": 9006,
      ",\n": 9007,
      ", কর": 9008,
      ",০০০": 9009,
      ", কোন ": 9010,
      "-\n": 9011,
      "-উ": 9012,
      "-ও": 9013,
      "-গ": 9014,
      "-ট": 9015,
      "-৫": 9016,
      "- নি": 9017,
      "-১০": 9018,
      "-সম্পাদক": 9019,
      "-১৫": 9020,
      "-১৬": 9021,
      "-০২": 9022,
      ". ই": 9023,
      ". মো": 9024,
      "/ন": 9025,
      "/- ": 9026,
      "/২০১৮": 9027,
      "/৬০": 9028,
      "/২০১৫": 9029,
      "/০৮": 9030,
      "0) জুলাই": 9031,
      "1. ম": 9032,
      "13) এপ্রিল 201": 9033,
      "2) অক্টোবর ": 9034,
      "2 দ্রুত": 9035,
      "36": 9036,
      "39": 9037,
      "3 (1": 9038,
      "3) মে ": 9039,
      "3) শোবিজ": 9040,
      "48": 9041,
      "4 (1": 9042,
      "422": 9043,
      "5-": 9044,
      "56": 9045,
      "5) নভেম্বর 201": 9046,
      "5) মে 201": 9047,
      "68": 9048,
[...]
