{
  "version": "1.0",
  "truncation": null,
  "padding": null,
  "added_tokens": [
    {
      "id": 0,
      "content": "[PAD]",
      "single_word": false,
      "lstrip": false,
      "rstrip": false,
      "normalized": false,
      "special": true
    },
    {
      "id": 1,
      "content": "[UNK]",
      "single_word": false,
      "lstrip": false,
      "rstrip": false,
      "normalized": false,
      "special": true
    },
    {
      "id": 2,
      "content": "[CLS]",
      "single_word": false,
      "lstrip": false,
      "rstrip": false,
      "normalized": false,
      "special": true
    },
    {
      "id": 3,
      "content": "[SEP]",
      "single_word": false,
      "lstrip": false,
      "rstrip": false,
      "normalized": false,
      "special": true
    },
    {
      "id": 4,
      "content": "[MASK]",
      "single_word": false,
      "lstrip": false,
      "rstrip": false,
      "normalized": false,
      "special": true
    }
  ],
  "normalizer": {
    "type": "BertNormalizer",
    "clean_text": true,
    "handle_chinese_chars": true,
    "strip_accents": null,
    "lowercase": true
  },
  "pre_tokenizer": {
    "type": "BertPreTokenizer"
  },
  "post_processor": {
    "type": "TemplateProcessing",
    "single": [
      {
        "SpecialToken": {
          "id": "[CLS]",
          "type_id": 0
        }
      },
      {
        "Sequence": {
          "id": "A",
          "type_id": 0
        }
      },
      {
        "SpecialToken": {
          "id": "[SEP]",
          "type_id": 0
        }
      }
    ],
    "pair": [
      {
        "SpecialToken": {
          "id": "[CLS]",
          "type_id": 0
        }
      },
      {
        "Sequence": {
          "id": "A",
          "type_id": 0
        }
      },
      {
        "SpecialToken": {
          "id": "[SEP]",
          "type_id": 0
        }
      },
      {
        "Sequence": {
          "id": "B",
          "type_id": 1
        }
      },
      {
        "SpecialToken": {
          "id": "[SEP]",
          "type_id": 1
        }
      }
    ],
    "special_tokens": {
      "[CLS]": {
        "id": "[CLS]",
        "ids": [
          2
        ],
        "tokens": [
          "[CLS]"
        ]
      },
      "[SEP]": {
        "id": "[SEP]",
        "ids": [
          3
        ],
        "tokens": [
          "[SEP]"
        ]
      }
    }
  },
  "decoder": {
    "type": "WordPiece",
    "prefix": "##",
    "cleanup": true
  },
  "model": {
    "type": "WordPiece",
    "unk_token": "[UNK]",
    "continuing_subword_prefix": "##",
    "max_input_chars_per_word": 100,
    "vocab": {
      "[PAD]": 0,
      "[UNK]": 1,
      "[CLS]": 2,
      "[SEP]": 3,
      "[MASK]": 4,
      "!": 5,
      "\"": 6,
      "#": 7,
      "%": 8,
      "&": 9,
      "'": 10,
      "(": 11,
      ")": 12,
      "*": 13,
      "+": 14,
      ",": 15,
      "-": 16,
      ".": 17,
      "/": 18,
      "0": 19,
      "1": 20,
      "2": 21,
      "3": 22,
      "4": 23,
      "5": 24,
      "6": 25,
      "7": 26,
      "8": 27,
      "9": 28,
      ":": 29,
      ";": 30,
      "<": 31,
      "=": 32,
      ">": 33,
      "?": 34,
      "@": 35,
      "[": 36,
      "]": 37,
      "_": 38,
      "`": 39,
      "a": 40,
      "b": 41,
      "c": 42,
      "d": 43,
      "e": 44,
      "f": 45,
      "g": 46,
      "h": 47,
      "i": 48,
      "j": 49,
      "k": 50,
      "l": 51,
      "m": 52,
      "n": 53,
      "o": 54,
      "p": 55,
      "q": 56,
      "r": 57,
      "s": 58,
      "t": 59,
      "u": 60,
      "v": 61,
      "w": 62,
      "x": 63,
      "y": 64,
      "z": 65,
      "|": 66,
      "¦": 67,
      "©": 68,
      "«": 69,
      "·": 70,
      "»": 71,
      "¿": 72,
      "œ": 73,
      "।": 74,
      "॥": 75,
      "ং": 76,
      "ঃ": 77,
      "অ": 78,
      "আ": 79,
      "ই": 80,
      "ঈ": 81,
      "উ": 82,
      "ঊ": 83,
      "ঋ": 84,
      "এ": 85,
      "ঐ": 86,
      "ও": 87,
      "ঔ": 88,
      "ক": 89,
      "খ": 90,
      "গ": 91,
      "ঘ": 92,
      "ঙ": 93,
      "চ": 94,
      "ছ": 95,
      "জ": 96,
      "ঝ": 97,
      "ঞ": 98,
      "ট": 99,
      "ঠ": 100,
      "ড": 101,
      "ঢ": 102,
      "ণ": 103,
      "ত": 104,
      "থ": 105,
      "দ": 106,
      "ধ": 107,
      "ন": 108,
      "প": 109,
      "ফ": 110,
      "ব": 111,
      "ভ": 112,
      "ম": 113,
      "য": 114,
      "র": 115,
      "ল": 116,
      "শ": 117,
      "ষ": 118,
      "স": 119,
      "হ": 120,
      "া": 121,
      "ি": 122,
      "ী": 123,
      "ে": 124,
      "ৈ": 125,
      "ৎ": 126,
      "ৗ": 127,
      "০": 128,
      "১": 129,
      "২": 130,
      "৩": 131,
      "৪": 132,
      "৫": 133,
      "৬": 134,
      "৭": 135,
      "৮": 136,
      "৯": 137,
      "৷": 138,
      "–": 139,
      "—": 140,
      "‘": 141,
      "’": 142,
      "“": 143,
      "”": 144,
      "•": 145,
      "…": 146,
      "›": 147,
      "€": 148,
      "℃": 149,
      "→": 150,
      "ⓕ": 151,
      "☎": 152,
      "☑": 153,
      "☯": 154,
      "♣": 155,
      "✅": 156,
      "➤": 157,
      "💬": 158,
      "##া": 159,
      "##র": 160,
      "##হ": 161,
      "##ত": 162,
      "##ম": 163,
      "##জ": 164,
      "##ী": 165,
      "##ব": 166,
      "##ন": 167,
      "##ে": 168,
      "##e": 169,
      "##l": 170,
      "##p": 171,
      "##f": 172,
      "##u": 173,
      "##য": 174,
      "##শ": 175,
      "##n": 176,
      "##s": 177,
      "##t": 178,
      "##ি": 179,
      "##প": 180,
      "##ল": 181,
      "##ও": 182,
      "##ঞ": 183,
      "##চ": 184,
      "##ষ": 185,
      "##ক": 186,
      "##দ": 187,
      "##4": 188,
      "##3": 189,
      "##স": 190,
      "##ট": 191,
      "##ং": 192,
      "##ড": 193,
      "##ছ": 194,
      "##৷": 195,
      "##উ": 196,
      "##৬": 197,
      "##৩": 198,
      "##ৗ": 199,
      "##গ": 200,
      "##ধ": 201,
      "##ভ": 202,
      "##খ": 203,
      "##b": 204,
      "##8": 205,
      "##5": 206,
      "##থ": 207,
      "##ই": 208,
      "##৭": 209,
      "##ৈ": 210,
      "##ণ": 211,
      "##৫": 212,
      "##৯": 213,
      "##২": 214,
      "##ৎ": 215,
      "##ঘ": 216,
      "##ঠ": 217,
      "##ঙ": 218,
      "##a": 219,
      "##r": 220,
      "##c": 221,
      "##k": 222,
      "##m": 223,
      "##ফ": 224,
      "##৮": 225,
      "##০": 226,
      "##১": 227,
      "##৪": 228,
      "##o": 229,
      "##w": 230,
      "##d": 231,
      "##এ": 232,
      "##i": 233,
      "##y": 234,
      "##6": 235,
      "##0": 236,
      "##1": 237,
      "##2": 238,
      "##9": 239,
      "##x": 240,
      "##ঝ": 241,
      "##h": 242,
      "##g": 243,
      "##আ": 244,
      "##ঃ": 245,
      "##v": 246,
      "##j": 247,
      "##7": 248,
      "##ঢ": 249,
      "##➤": 250,
      "##œ": 251,
      "##z": 252,
      "##ঈ": 253,
      "##q": 254,
      "##¦": 255,
      "##ঊ": 256,
      "##অ": 257,
      "##☑": 258,
      "##✅": 259,
      "##ার": 260,
      "##ের": 261,
      "##ো": 262,
      "##ান": 263,
      "পর": 264,
      "কর": 265,
      "##যে": 266,
      "##যা": 267,
      "##েন": 268,
      "##কে": 269,
      "##াম": 270,
      "##িন": 271,
      "##াল": 272,
      "##তে": 273,
      "বি": 274,
      "##তি": 275,
      "##ায": 276,
      "##টি": 277,
      "##বে": 278,
      "##লে": 279,
      "##ছে": 280,
      "নি": 281,
      "##তর": 282,
      "##াক": 283,
      "##াই": 284,
      "##িক": 285,
      "##াদ": 286,
      "##াস": 287,
      "এক": 288,
      "সম": 289,
      "দে": 290,
      "##িত": 291,
      "করে": 292,
      "##পর": 293,
      "##াজ": 294,
      "##িল": 295,
      "##ির": 296,
      "##েল": 297,
      "##যার": 298,
      "##াব": 299,
      "##াহ": 300,
      "##কষ": 301,
      "##িযে": 302,
      "##নে": 303,
      "আম": 304,
      "জন": 305,
      "##াগ": 306,
      "##োন": 307,
      "##বর": 308,
      "##াত": 309,
      "##িস": 310,
      "##দের": 311,
      "##াড": 312,
      "##বার": 313,
      "##াপ": 314,
      "##কর": 315,
      "##ীর": 316,
      "অন": 317,
      "##ছেন": 318,
      "তার": 319,
      "না": 320,
      "হযে": 321,
      "##ঙগ": 322,
      "সে": 323,
      "পরি": 324,
      "##োগ": 325,
      "##াচ": 326,
      "সং": 327,
      "##রে": 328,
      "নে": 329,
      "##াদের": 330,
      "##তা": 331,
      "##যান": 332,
      "##েকে": 333,
      "##টা": 334,
      "যে": 335,
      "##কার": 336,
      "##বি": 337,
      "##েশ": 338,
      "##নি": 339,
      "##িনি": 340,
      "##বং": 341,
      "নির": 342,
      "##াশ": 343,
      "##োর": 344,
      "থেকে": 345,
      "##লি": 346,
      "এবং": 347,
      "আর": 348,
      "জান": 349,
      "##না": 350,
      "দেশ": 351,
      "এই": 352,
      "##দর": 353,
      "করা": 354,
      "বয": 355,
      "পার": 356,
      "##াধ": 357,
      "সব": 358,
      "##রা": 359,
      "হয": 360,
      "##নের": 361,
      "বল": 362,
      "##মান": 363,
      "##াকা": 364,
      "##দধ": 365,
      "##ওযা": 366,
      "বিভ": 367,
      "মে": 368,
      "##টে": 369,
      "##ীয": 370,
      "##রি": 371,
      "##াবে": 372,
      "মো": 373,
      "সি": 374,
      "এর": 375,
      "জনয": 376,
      "উপ": 377,
      "কার": 378,
      "##মন": 379,
      "পরতি": 380,
      "##মে": 381,
      "কি": 382,
      "##লো": 383,
      "২০": 384,
      "##নদ": 385,
      "আস": 386,
      "##টার": 387,
      "করতে": 388,
      "##যন": 389,
      "##বস": 390,
      "কোন": 391,
      "হবে": 392,
      "বা": 393,
      "##01": 394,
      "##লা": 395,
      "##কত": 396,
      "আপ": 397,
      "##জন": 398,
      "হযেছে": 399,
      "সর": 400,
      "##মা": 401,
      "201": 402,
      "##েষ": 403,
      "##ডে": 404,
      "##যোগ": 405,
      "আগ": 406,
      "গর": 407,
      "##থা": 408,
      "বিভাগ": 409,
      "একটি": 410,
      "##িযা": 411,
      "##কতি": 412,
      "##াখ": 413,
      "বলে": 414,
      "##াকে": 415,
      "##ঞজ": 416,
      "##যের": 417,
      "##ালে": 418,
      "নিযে": 419,
      "দিযে": 420,
      "শর": 421,
      "বিশ": 422,
      "##পি": 423,
      "দো": 424,
      "##তার": 425,
      "মধ": 426,
      "##মি": 427,
      "দেখ": 428,
      "##েলা": 429,
      "##ষট": 430,
      "অভ": 431,
      "##মী": 432,
      "##গর": 433,
      "মন": 434,
      "নিরব": 435,
      "নাম": 436,
      "বর": 437,
      "##তরী": 438,
      "২০১": 439,
      "কো": 440,
      "##দি": 441,
      "##যাল": 442,
      "##জি": 443,
      "##খন": 444,
      "দি": 445,
      "পা": 446,
      "##ডি": 447,
      "এস": 448,
      "##তব": 449,
      "মি": 450,
      "তিনি": 451,
      "মান": 452,
      "##তন": 453,
      "##বহ": 454,
      "##লাম": 455,
      "উদ": 456,
      "বে": 457,
      "##ীন": 458,
      "##শন": 459,
      "##ধান": 460,
      "নিরবাচ": 461,
      "##ষঠ": 462,
      "পে": 463,
      "##েখ": 464,
      "##ছিল": 465,
      "সময": 466,
      "##াতে": 467,
      "কে": 468,
      "##সি": 469,
      "মধযে": 470,
      "আল": 471,
      "কা": 472,
      "ছিল": 473,
      "##বন": 474,
      "##লের": 475,
      "##ঙগে": 476,
      "দর": 477,
      "##কের": 478,
      "##দিন": 479,
      "মহ": 480,
      "কষ": 481,
      "তাদের": 482,
      "মা": 483,
      "বলেন": 484,
      "সা": 485,
      "আই": 486,
      "যায": 487,
      "##ানে": 488,
      "##মবর": 489,
      "##০০": 490,
      "থাক": 491,
      "ইস": 492,
      "##নার": 493,
      "দিন": 494,
      "বযা": 495,
      "সন": 496,
      "সঙগে": 497,
      "রাজ": 498,
      "##তযা": 499,
      "##বাদ": 500,
      "##িম": 501,
      "##দন": 502,
      "করেন": 503,
      "ভার": 504,
      "সহ": 505,
      "##োধ": 506,
      "গে": 507,
      "চল": 508,
      "##ীগ": 509,
      "চে": 510,
      "সক": 511,
      "সার": 512,
      "##টের": 513,
      "##ছর": 514,
      "ধর": 515,
      "##ওযার": 516,
      "কিন": 517,
      "##কাশ": 518,
      "##ভে": 519,
      "মত": 520,
      "হো": 521,
      "##িজ": 522,
      "সমপ": 523,
      "বাড": 524,
      "পরে": 525,
      "করম": 526,
      "অর": 527,
      "##কস": 528,
      "##দেশ": 529,
      "##কষে": 530,
      "শি": 531,
      "##পতর": 532,
      "##াজার": 533,
      "অনে": 534,
      "##টির": 535,
      "কাজ": 536,
      "##ানের": 537,
      "আমি": 538,
      "বেশ": 539,
      "হাস": 540,
      "##ধি": 541,
      "##াডা": 542,
      "যা": 543,
      "আমরা": 544,
      "##লিশ": 545,
      "##বাস": 546,
      "এল": 547,
      "কম": 548,
      "সাম": 549,
      "বিষ": 550,
      "##চি": 551,
      "##থে": 552,
      "আমাদের": 553,
      "আহ": 554,
      "মার": 555,
      "মাম": 556,
      "নিজ": 557,
      "দেশের": 558,
      "উপজ": 559,
      "সভ": 560,
      "##িতে": 561,
      "##কা": 562,
      "কিছ": 563,
      "গত": 564,
      "##তের": 565,
      "আন": 566,
      "পলিশ": 567,
      "##গঞজ": 568,
      "##ভাবে": 569,
      "অভি": 570,
      "তো": 571,
      "তবে": 572,
      "##বল": 573,
      "##ছি": 574,
      "##ালো": 575,
      "##তির": 576,
      "কোনো": 577,
      "##লাই": 578,
      "কিনত": 579,
      "পরকাশ": 580,
      "ইসলাম": 581,
      "আজ": 582,
      "তা": 583,
      "##বেন": 584,
      "ঢাকা": 585,
      "##সট": 586,
      "গো": 587,
      "##মপ": 588,
      "##চছে": 589,
      "##সত": 590,
      "##াইল": 591,
      "##িসে": 592,
      "##াধয": 593,
      "করার": 594,
      "##ডার": 595,
      "##ণে": 596,
      "সংস": 597,
      "কথা": 598,
      "ঘট": 599,
      "বছর": 600,
      "করেছে": 601,
      "ইন": 602,
      "লি": 603,
      "##ডা": 604,
      "পরধান": 605,
      "বাস": 606,
      "##চে": 607,
      "##কট": 608,
      "##ারণ": 609,
      "##ামী": 610,
      "সরকার": 611,
      "সমপাদ": 612,
      "ইউ": 613,
      "ছবি": 614,
      "দল": 615,
      "ফোন": 616,
      "##োট": 617,
      "##তিক": 618,
      "সিলে": 619,
      "বিশব": 620,
      "দই": 621,
      "সথ": 622,
      "##লার": 623,
      "##াকার": 624,
      "এখন": 625,
      "বযবহ": 626,
      "##সব": 627,
      "পরিচ": 628,
      "যৌ": 629,
      "নিরবাচন": 630,
      "মাস": 631,
      "##ষণ": 632,
      "##যাপ": 633,
      "কল": 634,
      "রহ": 635,
      "শেষ": 636,
      "##সেন": 637,
      "পরদ": 638,
      "আদ": 639,
      "টাকা": 640,
      "ফে": 641,
      "অব": 642,
      "##নন": 643,
      "পরত": 644,
      "রযে": 645,
      "১০": 646,
      "##in": 647,
      "##াপতি": 648,
      "এন": 649,
      "##তত": 650,
      "##জা": 651,
      "##চার": 652,
      "##থয": 653,
      "##িনন": 654,
      "অনেক": 655,
      "আওযা": 656,
      "##er": 657,
      "##দা": 658,
      "পরথ": 659,
      "মনে": 660,
      "মাধয": 661,
      "##লপ": 662,
      "##ানত": 663,
      "সমপর": 664,
      "আমার": 665,
      "তারা": 666,
      "বযবহার": 667,
      "co": 668,
      "লীগ": 669,
      "##বা": 670,
      "রো": 671,
      "##সথ": 672,
      "##এন": 673,
      "##ানি": 674,
      "অবস": 675,
      "হলে": 676,
      "##মার": 677,
      "##ীকষ": 678,
      "##যো": 679,
      "##কাল": 680,
      "##েনট": 681,
      "করেছেন": 682,
      "যৌন": 683,
      "রাখ": 684,
      "##পার": 685,
      "##দে": 686,
      "##ংশ": 687,
      "করত": 688,
      "বির": 689,
      "##তরে": 690,
      "এম": 691,
      "নয": 692,
      "##ীদের": 693,
      "##ঞচ": 694,
      "##িকার": 695,
      "আপনি": 696,
      "আপনার": 697,
      "সমপাদক": 698,
      "জাত": 699,
      "মযা": 700,
      "সাল": 701,
      "হচছে": 702,
      "##হত": 703,
      "##িকা": 704,
      "আগে": 705,
      "যোগ": 706,
      "হতে": 707,
      "##কি": 708,
      "##টক": 709,
      "জানান": 710,
      "সাথে": 711,
      "রহমান": 712,
      "আওযামী": 713,
      "আশ": 714,
      "জেলা": 715,
      "বন": 716,
      "যাচ": 717,
      "##তম": 718,
      "##ইল": 719,
      "##ণড": 720,
      "##ানা": 721,
      "##বেদন": 722,
      "মাধযমে": 723,
      "আলো": 724,
      "পডে": 725,
      "বার": 726,
      "রে": 727,
      "সনদ": 728,
      "##খানে": 729,
      "##েলার": 730,
      "##াহী": 731,
      "বযবস": 732,
      "হোসেন": 733,
      "পরথম": 734,
      "নার": 735,
      "##ভার": 736,
      "পরীকষ": 737,
      "রযেছে": 738,
      "জাতীয": 739,
      "এমন": 740,
      "##মদ": 741,
      "##জঞ": 742,
      "##ীব": 743,
      "##ালক": 744,
      "গরাম": 745,
      "সভাপতি": 746,
      "পি": 747,
      "বস": 748,
      "ভালো": 749,
      "##রম": 750,
      "##গলো": 751,
      "##ারা": 752,
      "নেই": 753,
      "##নী": 754,
      "##টর": 755,
      "মানষ": 756,
      "##an": 757,
      "##এস": 758,
      "সেই": 759,
      "আছে": 760,
      "নতন": 761,
      "মল": 762,
      "সদ": 763,
      "সাধ": 764,
      "##নায": 765,
      "##পোর": 766,
      "##ারথ": 767,
      "##িকষ": 768,
      "অভিযোগ": 769,
      "অস": 770,
      "কেন": 771,
      "ভি": 772,
      "রা": 773,
      "হতযা": 774,
      "##দল": 775,
      "##ৎস": 776,
      "বিভিনন": 777,
      "##গরাম": 778,
      "চাল": 779,
      "টি": 780,
      "ডি": 781,
      "পড": 782,
      "##াট": 783,
      "##রের": 784,
      "##থি": 785,
      "##on": 786,
      "অনয": 787,
      "2018": 788,
      "ওই": 789,
      "তিন": 790,
      "বহ": 791,
      "বড": 792,
      "হিসে": 793,
      "##মের": 794,
      "##es": 795,
      "##পতি": 796,
      "##সের": 797,
      "করন": 798,
      "হিসেবে": 799,
      "কমি": 800,
      "টর": 801,
      "##ততর": 802,
      "পরশ": 803,
      "##যানড": 804,
      "কাছে": 805,
      "সিলেট": 806,
      "মখ": 807,
      "##িযার": 808,
      "##পাত": 809,
      "##দার": 810,
      "##ধর": 811,
      "##ণের": 812,
      "##াকায": 813,
      "মোব": 814,
      "গেছে": 815,
      "অরথ": 816,
      "বিষয": 817,
      "উপজেলা": 818,
      "তাই": 819,
      "##পত": 820,
      "##উন": 821,
      "##থায": 822,
      "পারেন": 823,
      "com": 824,
      "অযা": 825,
      "তাকে": 826,
      "শিকষ": 827,
      "##েই": 828,
      "বিএন": 829,
      "জানিযে": 830,
      "পরতিনি": 831,
      "যৌনকর": 832,
      "সাধারণ": 833,
      "আব": 834,
      "দাব": 835,
      "পরব": 836,
      "##যায": 837,
      "নৌ": 838,
      "পারে": 839,
      "করমকর": 840,
      "ওযে": 841,
      "চার": 842,
      "মস": 843,
      "রাস": 844,
      "##লেন": 845,
      "##ফল": 846,
      "##বেশ": 847,
      "##মনতরী": 848,
      "এসে": 849,
      "##ছিলেন": 850,
      "পরদান": 851,
      "থাকে": 852,
      "যদি": 853,
      "রি": 854,
      "##নিক": 855,
      "অনষঠ": 856,
      "সংবাদ": 857,
      "দিতে": 858,
      "আদাল": 859,
      "অধ": 860,
      "উনন": 861,
      "ধরে": 862,
      "##বারের": 863,
      "অনম": 864,
      "##যনত": 865,
      "পরতিনিধি": 866,
      "আবেদন": 867,
      "কযে": 868,
      "ভা": 869,
      "লকষ": 870,
      "০১": 871,
      "##মল": 872,
      "নেত": 873,
      "##বিদ": 874,
      "কারণে": 875,
      "বেশি": 876,
      "এনড": 877,
      "সদস": 878,
      "অফ": 879,
      "অপর": 880,
      "তথয": 881,
      "লো": 882,
      "##মত": 883,
      "##চনা": 884,
      "##উজ": 885,
      "##at": 886,
      "আবার": 887,
      "কন": 888,
      "খব": 889,
      "ছে": 890,
      "রেখ": 891,
      "শেখ": 892,
      "##মিক": 893,
      "##en": 894,
      "পরযনত": 895,
      "বিস": 896,
      "বিমান": 897,
      "নিহত": 898,
      "##ীরা": 899,
      "##কারী": 900,
      "বযকতি": 901,
      "##দধে": 902,
      "মেইল": 903,
      "পাঠ": 904,
      "পাওযা": 905,
      "ছিলেন": 906,
      "গরে": 907,
      "ছাডা": 908,
      "তৈ": 909,
      "লাখ": 910,
      "হাম": 911,
      "১২": 912,
      "##রণ": 913,
      "##ময": 914,
      "##বিত": 915,
      "##শোধ": 916,
      "করি": 917,
      "##িনে": 918,
      "##তরণ": 919,
      "সারভে": 920,
      "মোবাইল": 921,
      "কযেক": 922,
      "অধি": 923,
      "১৯": 924,
      "##ীল": 925,
      "##শচ": 926,
      "##সহ": 927,
      "##or": 928,
      "##ov": 929,
      "##মাণ": 930,
      "2016": 931,
      "2017": 932,
      "দিকে": 933,
      "ডে": 934,
      "দায": 935,
      "লেখ": 936,
      "হার": 937,
      "##তো": 938,
      "##তান": 939,
      "##বয": 940,
      "##শাল": 941,
      "নামে": 942,
      "এসব": 943,
      "মামলা": 944,
      "ইউনি": 945,
      "কোর": 946,
      "গণ": 947,
      "সো": 948,
      "##তমান": 949,
      "##পে": 950,
      "##ষে": 951,
      "লীগের": 952,
      "অকট": 953,
      "উততর": 954,
      "জাম": 955,
      "##বির": 956,
      "##শি": 957,
      "##os": 958,
      "##োবর": 959,
      "##াপত": 960,
      "##ষটর": 961,
      "বরতমান": 962,
      "কোটি": 963,
      "ফোনঃ": 964,
      "অকটোবর": 965,
      "কযা": 966,
      "দেন": 967,
      "মাহ": 968,
      "যাবে": 969,
      "হাজার": 970,
      "##রল": 971,
      "##মযান": 972,
      "##জে": 973,
      "##ষটি": 974,
      "##সার": 975,
      "##ডের": 976,
      "##পরি": 977,
      "##যারি": 978,
      "বিশেষ": 979,
      "২০১৮": 980,
      "চিক": 981,
      "ছা": 982,
      "পল": 983,
      "লাই": 984,
      "##গে": 985,
      "##ফা": 986,
      "##ফর": 987,
      "##il": 988,
      "##ানোর": 989,
      "জানা": 990,
      "পরতিষঠ": 991,
      "দেখা": 992,
      "চৌ": 993,
      "##ভেমবর": 994,
      "শিশ": 995,
      "বনধ": 996,
      "সদসয": 997,
      "দশ": 998,
      "ফি": 999,
      "শধ": 1000,
      "সাই": 1001,
      "##তী": 1002,
      "##বো": 1003,
      "##শাহী": 1004,
      "##পির": 1005,
      "##লায": 1006,
      "##ভাব": 1007,
      "##তিতে": 1008,
      "##তরা": 1009,
      "একস": 1010,
      "একটা": 1011,
      "আরও": 1012,
      "ধরম": 1013,
      "বিশববিদ": 1014,
      "উল": 1015,
      "খবর": 1016,
      "চলে": 1017,
      "নভেমবর": 1018,
      "মাল": 1019,
      "১১": 1020,
      "##রত": 1021,
      "##বান": 1022,
      "##৭১": 1023,
      "পরায": 1024,
      "বিপ": 1025,
      "বিজঞ": 1026,
      "##ডিও": 1027,
      "উদদিন": 1028,
      "##বনধ": 1029,
      "বিরদধে": 1030,
      "অধিদ": 1031,
      "বিশববিদযাল": 1032,
      "গিযে": 1033,
      "ঘো": 1034,
      "ছোট": 1035,
      "মিল": 1036,
      "লাগ": 1037,
      "সালে": 1038,
      "##মখ": 1039,
      "##বী": 1040,
      "##পকষ": 1041,
      "##লাহ": 1042,
      "##সে": 1043,
      "##ar": 1044,
      "##লেও": 1045,
      "একই": 1046,
      "##পরে": 1047,
      "##াহিন": 1048,
      "পৌ": 1049,
      "সকল": 1050,
      "হাসপাত": 1051,
      "সথান": 1052,
      "যৌনকরমী": 1053,
      "রেখে": 1054,
      "উঠ": 1055,
      "কাম": 1056,
      "জাহ": 1057,
      "পাচ": 1058,
      "ফট": 1059,
      "ফির": 1060,
      "শহ": 1061,
      "হা": 1062,
      "হওযার": 1063,
      "##রিক": 1064,
      "##কল": 1065,
      "##ভি": 1066,
      "##ou": 1067,
      "##িনার": 1068,
      "দেওযা": 1069,
      "##েশন": 1070,
      "কেউ": 1071,
      "আইন": 1072,
      "বিষযে": 1073,
      "এতে": 1074,
      "দকষ": 1075,
      "দলের": 1076,
      "পাশ": 1077,
      "ফর": 1078,
      "ফল": 1079,
      "৯৫": 1080,
      "##মিত": 1081,
      "##মেল": 1082,
      "##চছ": 1083,
      "##োল": 1084,
      "##ানো": 1085,
      "একজন": 1086,
      "ভারতের": 1087,
      "করমকরতা": 1088,
      "অফিস": 1089,
      "সারভেযার": 1090,
      "এটি": 1091,
      "কাল": 1092,
      "ডা": 1093,
      "তলে": 1094,
      "তাহ": 1095,
      "পো": 1096,
      "ভাই": 1097,
      "সট": 1098,
      "সাহ": 1099,
      "হলো": 1100,
      "১৫": 1101,
      "##িনা": 1102,
      "##াকি": 1103,
      "সমস": 1104,
      "বলা": 1105,
      "##চিতর": 1106,
      "মারচ": 1107,
      "গোল": 1108,
      "##যোজন": 1109,
      "th": 1110,
      "অংশ": 1111,
      "ইঞজ": 1112,
      "এটা": 1113,
      "কী": 1114,
      "টে": 1115,
      "বদধ": 1116,
      "ভে": 1117,
      "সির": 1118,
      "##াণ": 1119,
      "##বায": 1120,
      "##যর": 1121,
      "##িৎস": 1122,
      "##গত": 1123,
      "##যেন": 1124,
      "##াডে": 1125,
      "##াপন": 1126,
      "পরিবহ": 1127,
      "দেশে": 1128,
      "পেযে": 1129,
      "বযাং": 1130,
      "মতো": 1131,
      "ঘটনা": 1132,
      "##ষণা": 1133,
      "তৈরি": 1134,
      "চিকিৎস": 1135,
      "চৌধর": 1136,
      "অধিদপতর": 1137,
      "জলাই": 1138,
      "হল": 1139,
      "হওযা": 1140,
      "##জজ": 1141,
      "##জার": 1142,
      "##ীতে": 1143,
      "##ed": 1144,
      "##টট": 1145,
      "নিয": 1146,
      "##াইন": 1147,
      "কারণ": 1148,
      "বিভাগর": 1149,
      "নিরবাচনে": 1150,
      "##সিং": 1151,
      "এলাকায": 1152,
      "উই": 1153,
      "খে": 1154,
      "খালে": 1155,
      "তে": 1156,
      "পাল": 1157,
      "হক": 1158,
      "##তায": 1159,
      "##ীবন": 1160,
      "##ছাডা": 1161,
      "##ma": 1162,
      "##ফতার": 1163,
      "##এম": 1164,
      "পরয": 1165,
      "##াবার": 1166,
      "##াতের": 1167,
      "##েষটা": 1168,
      "##তবয": 1169,
      "সংসদ": 1170,
      "bd": 1171,
      "gov": 1172,
      "উচ": 1173,
      "চি": 1174,
      "জঙগ": 1175,
      "বৈ": 1176,
      "সপ": 1177,
      "১৮": 1178,
      "##হার": 1179,
      "##িণ": 1180,
      "##পটে": 1181,
      "##চর": 1182,
      "##ধার": 1183,
      "##ফিক": 1184,
      "##াডি": 1185,
      "##করম": 1186,
      "সেপটে": 1187,
      "পরিবারের": 1188,
      "পারবেন": 1189,
      "আগামী": 1190,
      "দেখে": 1191,
      "কোমপ": 1192,
      "বছরের": 1193,
      "যাচছে": 1194,
      "জানিযেছেন": 1195,
      "ছেলে": 1196,
      "সেপটেমবর": 1197,
      "dos": 1198,
      "in": 1199,
      "আটক": 1200,
      "উদধ": 1201,
      "কলে": 1202,
      "খো": 1203,
      "খান": 1204,
      "দীর": 1205,
      "পাক": 1206,
      "মর": 1207,
      "মকতি": 1208,
      "##রকষ": 1209,
      "##হণ": 1210,
      "##খে": 1211,
      "##ফি": 1212,
      "##কেট": 1213,
      "##াইকে": 1214,
      "##াতা": 1215,
      "##লিম": 1216,
      "উপসথ": 1217,
      "##দিকে": 1218,
      "কষে": 1219,
      "উপজেলার": 1220,
      "শেষে": 1221,
      "সালের": 1222,
      "রিপোর": 1223,
      "লোক": 1224,
      "পরিবহন": 1225,
      "দীরঘ": 1226,
      "এগ": 1227,
      "খেল": 1228,
      "গা": 1229,
      "চাই": 1230,
      "জার": 1231,
      "থাকা": 1232,
      "পতর": 1233,
      "সেন": 1234,
      "৩০": 1235,
      "##মর": 1236,
      "##জর": 1237,
      "##জের": 1238,
      "##ৈতিক": 1239,
      "##ad": 1240,
      "পরস": 1241,
      "করবে": 1242,
      "বিকর": 1243,
      "বিচার": 1244,
      "##তিহ": 1245,
      "সমমেল": 1246,
      "দেযা": 1247,
      "##িসট": 1248,
      "মোঃ": 1249,
      "সিটি": 1250,
      "সিদধ": 1251,
      "২০১৬": 1252,
      "মাঝ": 1253,
      "##চিব": 1254,
      "নিজের": 1255,
      "পরিচালক": 1256,
      "এখানে": 1257,
      "ঘরে": 1258,
      "বো": 1259,
      "মনদ": 1260,
      "সদর": 1261,
      "১৪": 1262,
      "##শক": 1263,
      "##ti": 1264,
      "##al": 1265,
      "পরো": 1266,
      "পরসত": 1267,
      "করছেন": 1268,
      "##যাস": 1269,
      "##ালের": 1270,
      "নিশচ": 1271,
      "##িতা": 1272,
      "##পরিল": 1273,
      "##ঙগল": 1274,
      "পরিশোধ": 1275,
      "মৌ": 1276,
      "কোনও": 1277,
      "আগসট": 1278,
      "২০১৭": 1279,
      "ভারত": 1280,
      "এলাকার": 1281,
      "অবসথ": 1282,
      "গরামের": 1283,
      "অতি": 1284,
      "এপরিল": 1285,
      "গান": 1286,
      "জা": 1287,
      "নাগ": 1288,
      "পদ": 1289,
      "পদধ": 1290,
      "মঙগল": 1291,
      "যব": 1292,
      "রান": 1293,
      "শাহ": 1294,
      "সড": 1295,
      "২৫": 1296,
      "##হে": 1297,
      "##ur": 1298,
      "##পন": 1299,
      "##ডিযা": 1300,
      "##টিং": 1301,
      "দেয": 1302,
      "অনযায": 1303,
      "পরিষ": 1304,
      "##িনিযার": 1305,
      "আরো": 1306,
      "সবচে": 1307,
      "2015": 1308,
      "দিযেছে": 1309,
      "মনোন": 1310,
      "গতকাল": 1311,
      "পরকাশিত": 1312,
      "পরিচাল": 1313,
      "ফেবর": 1314,
      "রাষটর": 1315,
      "গরেফতার": 1316,
      "চৌধরী": 1317,
      "উদধার": 1318,
      "মনদির": 1319,
      "মঙগলবার": 1320,
      "11": 1321,
      "an": 1322,
      "চাক": 1323,
      "জমা": 1324,
      "জীবন": 1325,
      "বঝ": 1326,
      "ভবন": 1327,
      "যান": 1328,
      "সতর": 1329,
      "সোন": 1330,
      "১৩": 1331,
      "##নৈতিক": 1332,
      "##পের": 1333,
      "##দয": 1334,
      "##ংস": 1335,
      "##গম": 1336,
      "##ঙক": 1337,
      "##োভ": 1338,
      "##ালি": 1339,
      "##টিক": 1340,
      "##পরণ": 1341,
      "জনাব": 1342,
      "মেযে": 1343,
      "করতপকষ": 1344,
      "বিএনপি": 1345,
      "মেইলঃ": 1346,
      "দকষিণ": 1347,
      "ইঞজিনিযার": 1348,
      "##টটগরাম": 1349,
      "পাকিস": 1350,
      "মনোনযন": 1351,
      "অপ": 1352,
      "উপর": 1353,
      "কখন": 1354,
      "খা": 1355,
      "চো": 1356,
      "ধার": 1357,
      "নাজ": 1358,
      "পায": 1359,
      "বকত": 1360,
      "বাজার": 1361,
      "ভাগ": 1362,
      "শিল": 1363,
      "সাবে": 1364,
      "হযা": 1365,
      "হিস": 1366,
      "##বাব": 1367,
      "##সর": 1368,
      "##টাই": 1369,
      "##উট": 1370,
      "##গা": 1371,
      "##ণয": 1372,
      "##আই": 1373,
      "##োযা": 1374,
      "##াযোগ": 1375,
      "##াসথয": 1376,
      "সমযে": 1377,
      "##যারী": 1378,
      "##ঙগা": 1379,
      "পরিদর": 1380,
      "নেতা": 1381,
      "##াশি": 1382,
      "সবাসথয": 1383,
      "কারয": 1384,
      "##তারিত": 1385,
      "দেখতে": 1386,
      "মিটার": 1387,
      "চেযার": 1388,
      "সামনে": 1389,
      "অবশ": 1390,
      "##ing": 1391,
      "কেনদর": 1392,
      "আদালতে": 1393,
      "অনমতি": 1394,
      "সথানীয": 1395,
      "এগিযে": 1396,
      "অনযাযী": 1397,
      "সবচেযে": 1398,
      "সাবেক": 1399,
      "এড": 1400,
      "কপি": 1401,
      "চী": 1402,
      "চাপ": 1403,
      "চকতি": 1404,
      "চটটগরাম": 1405,
      "তখন": 1406,
      "থান": 1407,
      "বের": 1408,
      "বান": 1409,
      "বাই": 1410,
      "ভর": 1411,
      "রাত": 1412,
      "##তয": 1413,
      "##লনা": 1414,
      "##কম": 1415,
      "পরারথ": 1416,
      "##াইট": 1417,
      "আমাকে": 1418,
      "মোহ": 1419,
      "মনতবয": 1420,
      "উদদেশ": 1421,
      "আলম": 1422,
      "মহান": 1423,
      "##০০০": 1424,
      "বযাপার": 1425,
      "আহত": 1426,
      "তোমার": 1427,
      "করতক": 1428,
      "যোগাযোগ": 1429,
      "বিষযটি": 1430,
      "দাবি": 1431,
      "ছাতর": 1432,
      "হাসপাতালে": 1433,
      "জঙগি": 1434,
      "কষেতরে": 1435,
      "এত": 1436,
      "এছাডা": 1437,
      "ঘটে": 1438,
      "চেষটা": 1439,
      "ঠিক": 1440,
      "ডিসে": 1441,
      "পান": 1442,
      "পাব": 1443,
      "বঙগ": 1444,
      "যারা": 1445,
      "রাতে": 1446,
      "লা": 1447,
      "লে": 1448,
      "সী": 1449,
      "১৬": 1450,
      "##রথ": 1451,
      "##হি": 1452,
      "##কলপ": 1453,
      "##ংপর": 1454,
      "##ইন": 1455,
      "##it": 1456,
      "বিল": 1457,
      "অনযান": 1458,
      "##মেদ": 1459,
      "বলেছেন": 1460,
      "উদব": 1461,
      "বাডি": 1462,
      "অনেকে": 1463,
      "নিজে": 1464,
      "##লাইন": 1465,
      "আলোচনা": 1466,
      "পরীকষা": 1467,
      "বিএনপির": 1468,
      "অনষঠিত": 1469,
      "লেখা": 1470,
      "ঘোষণা": 1471,
      "the": 1472,
      "ডিসেমবর": 1473,
      "12": 1474,
      "আতম": 1475,
      "ডাক": 1476,
      "পথ": 1477,
      "ফের": 1478,
      "ফলে": 1479,
      "বাদ": 1480,
      "বরি": 1481,
      "ভিত": 1482,
      "ভোট": 1483,
      "মাদ": 1484,
      "মির": 1485,
      "লাশ": 1486,
      "শনি": 1487,
      "হে": 1488,
      "হাত": 1489,
      "##বাজার": 1490,
      "##নয": 1491,
      "##le": 1492,
      "##টেন": 1493,
      "##গলি": 1494,
      "##ভব": 1495,
      "##খযা": 1496,
      "##যাব": 1497,
      "##েনে": 1498,
      "##ালী": 1499,
      "বিদেশ": 1500,
      "নিতে": 1501,
      "##াজের": 1502,
      "##েলের": 1503,
      "##কষা": 1504,
      "বযস": 1505,
      "##াধীন": 1506,
      "সরব": 1507,
      "দিযেছেন": 1508,
      "২০১৫": 1509,
      "শিপ": 1510,
      "ঘটনায": 1511,
      "বযবসথা": 1512,
      "ভিডিও": 1513,
      "উননযন": 1514,
      "যৌনকরমীদের": 1515,
      "৯৫৫": 1516,
      "খালেদা": 1517,
      "##mail": 1518,
      "পদধতি": 1519,
      "অনযানয": 1520,
      "খেলা": 1521,
      "জীব": 1522,
      "ডলার": 1523,
      "নমবর": 1524,
      "পকষে": 1525,
      "বাব": 1526,
      "রায": 1527,
      "রোগ": 1528,
      "শরে": 1529,
      "হত": 1530,
      "##ীত": 1531,
      "##se": 1532,
      "##দী": 1533,
      "##সম": 1534,
      "##গঠ": 1535,
      "##গার": 1536,
      "##ঘর": 1537,
      "##re": 1538,
      "##id": 1539,
      "পরযোজন": 1540,
      "করলে": 1541,
      "নিযন": 1542,
      "##াকষ": 1543,
      "একট": 1544,
      "##াবের": 1545,
      "জনগ": 1546,
      "##িসি": 1547,
      "হযেছেন": 1548,
      "নিরদেশ": 1549,
      "গরহণ": 1550,
      "রাজশাহী": 1551,
      "চলছে": 1552,
      "চেযে": 1553,
      "##বাসী": 1554,
      "পলিশের": 1555,
      "পরধানমনতরী": 1556,
      "আবদল": 1557,
      "০১৭১": 1558,
      "বিসতারিত": 1559,
      "মোবাইলঃ": 1560,
      "পরতিষঠান": 1561,
      "মালিক": 1562,
      "##সিংহ": 1563,
      "বিকরি": 1564,
      "##তিহাস": 1565,
      "নিশচিত": 1566,
      "নাগরিক": 1567,
      "gmail": 1568,
      "ওযা": 1569,
      "ওপর": 1570,
      "কান": 1571,
      "গবে": 1572,
      "ছাড": 1573,
      "জি": 1574,
      "জিযা": 1575,
      "তাল": 1576,
      "দবিত": 1577,
      "নগর": 1578,
      "বধ": 1579,
      "ভযা": 1580,
      "ভাল": 1581,
      "মিনি": 1582,
      "সতরী": 1583,
      "##রশ": 1584,
      "##লী": 1585,
      "##সক": 1586,
      "##গন": 1587,
      "##ফে": 1588,
      "##ফোর": 1589,
      "##is": 1590,
      "পরিস": 1591,
      "##ামমদ": 1592,
      "##তেই": 1593,
      "##াযণ": 1594,
      "##িতব": 1595,
      "##বরতী": 1596,
      "সংরকষ": 1597,
      "নিরধার": 1598,
      "##মনসিংহ": 1599,
      "মানব": 1600,
      "যাচাই": 1601,
      "নারাযণ": 1602,
      "##নীতি": 1603,
      "ওযেবস": 1604,
      "ভাঙ": 1605,
      "শিলপ": 1606,
      "10": 1607,
      "অযাপ": 1608,
      "ইং": 1609,
      "জে": 1610,
      "টাই": 1611,
      "দৈ": 1612,
      "দিল": 1613,
      "নং": 1614,
      "পন": 1615,
      "পকষ": 1616,
      "পণয": 1617,
      "ফরি": 1618,
      "বাক": 1619,
      "ভাব": 1620,
      "ভাবে": 1621,
      "সাপ": 1622,
      "সযোগ": 1623,
      "##াঙগ": 1624,
      "##মো": 1625,
      "##কয": 1626,
      "##উদ": 1627,
      "##২৪": 1628,
      "##ra": 1629,
      "##োদন": 1630,
      "##ানতর": 1631,
      "করবেন": 1632,
      "##লেখ": 1633,
      "নিউজ": 1634,
      "##াহার": 1635,
      "সৌ": 1636,
      "থেকেই": 1637,
      "কারযাল": 1638,
      "কষমত": 1639,
      "সাং": 1640,
      "রাজনৈতিক": 1641,
      "অবসথায": 1642,
      "##কালীন": 1643,
      "মযাচ": 1644,
      "নারী": 1645,
      "নেততব": 1646,
      "ইউনিযন": 1647,
      "বিপকষে": 1648,
      "সমসযা": 1649,
      "সিরিজ": 1650,
      "চেযারমযান": 1651,
      "শনিবার": 1652,
      "নারাযণগঞজ": 1653,
      "of": 1654,
      "অথ": 1655,
      "ইছ": 1656,
      "কত": 1657,
      "কাপ": 1658,
      "খর": 1659,
      "গেল": 1660,
      "চায": 1661,
      "তর": 1662,
      "পযা": 1663,
      "পাখ": 1664,
      "বিন": 1665,
      "যখন": 1666,
      "রপ": 1667,
      "শতা": 1668,
      "সপত": 1669,
      "৪০": 1670,
      "##মবার": 1671,
      "##জনের": 1672,
      "##ীপর": 1673,
      "##ীকার": 1674,
      "##যনের": 1675,
      "##শোর": 1676,
      "##িখ": 1677,
      "##দায": 1678,
      "##সং": 1679,
      "##সিল": 1680,
      "##সপতি": 1681,
      "##টায": 1682,
      "##ছডি": 1683,
      "##উল": 1684,
      "##২০": 1685,
      "##ারি": 1686,
      "##যাম": 1687,
      "##ামি": 1688,
      "সংশ": 1689,
      "পারি": 1690,
      "উপল": 1691,
      "২০০": 1692,
      "##কতির": 1693,
      "মনির": 1694,
      "##যালট": 1695,
      "বেগম": 1696,
      "কষি": 1697,
      "থাকলে": 1698,
      "গেলে": 1699,
      "সকাল": 1700,
      "বাডিতে": 1701,
      "আহমেদ": 1702,
      "আননদ": 1703,
      "ইনটার": 1704,
      "বহসপতি": 1705,
      "মসজি": 1706,
      "উললেখ": 1707,
      "দবিতীয": 1708,
      "নিরধারিত": 1709,
      "ইছলাম": 1710,
      "বহসপতিবার": 1711,
      "আরে": 1712,
      "উৎ": 1713,
      "জব": 1714,
      "নর": 1715,
      "নব": 1716,
      "শকর": 1717,
      "হন": 1718,
      "##তানের": 1719,
      "##ীপ": 1720,
      "##নদর": 1721,
      "##কান": 1722,
      "##ধা": 1723,
      "##খান": 1724,
      "##as": 1725,
      "##েরা": 1726,
      "পরশন": 1727,
      "পরতযা": 1728,
      "পরমাণ": 1729,
      "পরাণ": 1730,
      "##ালা": 1731,
      "##াযী": 1732,
      "##িলা": 1733,
      "##েলি": 1734,
      "##াবি": 1735,
      "##করানত": 1736,
      "তারিখ": 1737,
      "সেটা": 1738,
      "পরিয": 1739,
      "যেতে": 1740,
      "##লিষট": 1741,
      "জানতে": 1742,
      "কিং": 1743,
      "বাণ": 1744,
      "মিডিযা": 1745,
      "উদযোগ": 1746,
      "দরত": 1747,
      "মাঠ": 1748,
      "সনদর": 1749,
      "রাজধান": 1750,
      "ধরনের": 1751,
      "এলাকা": 1752,
      "মামলার": 1753,
      "ফেসব": 1754,
      "বিরোধ": 1755,
      "পরীকষার": 1756,
      "বসে": 1757,
      "##ang": 1758,
      "##তরণাল": 1759,
      "উচচ": 1760,
      "কলেজ": 1761,
      "উপসথিত": 1762,
      "রিপোরট": 1763,
      "সিদধানত": 1764,
      "সডক": 1765,
      "অবশয": 1766,
      "নিজেদের": 1767,
      "সপতাহ": 1768,
      "কাদের": 1769,
      "কযাপ": 1770,
      "জয": 1771,
      "জায": 1772,
      "তত": 1773,
      "পেশ": 1774,
      "বাহ": 1775,
      "মাত": 1776,
      "যেন": 1777,
      "হাতে": 1778,
      "২৪": 1779,
      "৫০": 1780,
      "##নধ": 1781,
      "##em": 1782,
      "##কালে": 1783,
      "##ঠিত": 1784,
      "##ac": 1785,
      "##ag": 1786,
      "##ফোন": 1787,
      "##ion": 1788,
      "##েরে": 1789,
      "পরণ": 1790,
      "পরাম": 1791,
      "পরবেশ": 1792,
      "করপোর": 1793,
      "বিকষ": 1794,
      "##লোর": 1795,
      "সমাধ": 1796,
      "সমযের": 1797,
      "সমরথ": 1798,
      "##োনা": 1799,
      "সেত": 1800,
      "সেটি": 1801,
      "সংঘর": 1802,
      "নিরাপত": 1803,
      "##টেড": 1804,
      "আসে": 1805,
      "মনতরণাল": 1806,
      "মিথ": 1807,
      "পেতে": 1808,
      "দিনে": 1809,
      "##ীগের": 1810,
      "সকালে": 1811,
      "হাসিনা": 1812,
      "যাতরী": 1813,
      "আনতর": 1814,
      "অভিযান": 1815,
      "সরকারি": 1816,
      "সরকারের": 1817,
      "দলীয": 1818,
      "সমপরকে": 1819,
      "রোহি": 1820,
      "মযাচে": 1821,
      "কমিটির": 1822,
      "অপরাধ": 1823,
      "উঠে": 1824,
      "তাহলে": 1825,
      "বধবার": 1826,
      "পাখি": 1827,
      "সংশলিষট": 1828,
      "শকরবার": 1829,
      "13": 1830,
      "ইতযা": 1831,
      "ওযার": 1832,
      "খাবার": 1833,
      "চাম": 1834,
      "জড": 1835,
      "জো": 1836,
      "জমি": 1837,
      "ফলাই": 1838,
      "বিনি": 1839,
      "শাম": 1840,
      "শীর": 1841,
      "হাল": 1842,
      "##ীতি": 1843,
      "##যকত": 1844,
      "##সটি": 1845,
      "##টাল": 1846,
      "##ro": 1847,
      "##ow": 1848,
      "##ic": 1849,
      "##ারে": 1850,
      "পরযা": 1851,
      "পরচার": 1852,
      "##যেল": 1853,
      "##েনস": 1854,
      "বিব": 1855,
      "বিজি": 1856,
      "##টিশ": 1857,
      "##টিতে": 1858,
      "##াদার": 1859,
      "সমভব": 1860,
      "দেওযার": 1861,
      "##াবাদ": 1862,
      "##করো": 1863,
      "সেখানে": 1864,
      "নেযা": 1865,
      "নেতত": 1866,
      "জানযারি": 1867,
      "এরপর": 1868,
      "আসলে": 1869,
      "আগের": 1870,
      "গরতব": 1871,
      "মধয": 1872,
      "কোথা": 1873,
      "থাকলেও": 1874,
      "সনধ": 1875,
      "সনতান": 1876,
      "সারভ": 1877,
      "মতয": 1878,
      "নিজসব": 1879,
      "সংসথা": 1880,
      "##জাতিক": 1881,
      "সমপরণ": 1882,
      "##যোজ": 1883,
      "বারতা": 1884,
      "গরামে": 1885,
      "শিকষারথ": 1886,
      "কযেকটি": 1887,
      "দাযিতব": 1888,
      "বিশববিদযালযের": 1889,
      "##াহিনীর": 1890,
      "মাঝে": 1891,
      "ফেবরযারি": 1892,
      "নাজমল": 1893,
      "বাইরে": 1894,
      "মহানগর": 1895,
      "বাণিজ": 1896,
      "আনতরজাতিক": 1897,
      "নেততবে": 1898,
      "আনদ": 1899,
      "ইতিহাস": 1900,
      "একে": 1901,
      "ওর": 1902,
      "কাগ": 1903,
      "গহ": 1904,
      "জেল": 1905,
      "জেলার": 1906,
      "ঢাকায": 1907,
      "পথে": 1908,
      "বই": 1909,
      "বাজ": 1910,
      "শে": 1911,
      "শনে": 1912,
      "সিল": 1913,
      "সাত": 1914,
      "২২": 1915,
      "##জল": 1916,
      "##বদধ": 1917,
      "##ew": 1918,
      "##যিক": 1919,
      "##শা": 1920,
      "##শর": 1921,
      "##পতার": 1922,
      "##সা": 1923,
      "##টস": 1924,
      "##ভাগ": 1925,
      "##খলনা": 1926,
      "##থাপ": 1927,
      "##am": 1928,
      "##এফ": 1929,
      "##ঢাকা": 1930,
      "##ারস": 1931,
      "##োপ": 1932,
      "পরের": 1933,
      "পরকলপ": 1934,
      "##কেল": 1935,
      "##াকর": 1936,
      "দেব": 1937,
      "##পরাপত": 1938,
      "##াজিক": 1939,
      "##াজশাহী": 1940,
      "##বরি": 1941,
      "##করা": 1942,
      "হযেছিল": 1943,
      "পরিবর": 1944,
      "সংগর": 1945,
      "সংগঠ": 1946,
      "যেমন": 1947,
      "##েশনের": 1948,
      "সবাই": 1949,
      "হযনি": 1950,
      "আসেন": 1951,
      "##মাতর": 1952,
      "বিভাগচ": 1953,
      "বিভাগময": 1954,
      "বিভাগখলনা": 1955,
      "বিভাগঢাকা": 1956,
      "বিশবাস": 1957,
      "কাছ": 1958,
      "মাতর": 1959,
      "থাকার": 1960,
      "##বাদিক": 1961,
      "কাজে": 1962,
      "হাসান": 1963,
      "মারক": 1964,
      "মামলায": 1965,
      "গোপ": 1966,
      "রোব": 1967,
      "##ঞচল": 1968,
      "আশা": 1969,
      "অসতর": 1970,
      "নৌযান": 1971,
      "এসেছে": 1972,
      "গরেপতার": 1973,
      "হামলা": 1974,
      "বরতমানে": 1975,
      "মাহমদ": 1976,
      "##াহিনী": 1977,
      "##চছা": 1978,
      "বিভাগরংপর": 1979,
      "বিভাগরাজশাহী": 1980,
      "পরিদরশন": 1981,
      "বযাপারে": 1982,
      "শরেণ": 1983,
      "পরিসথি": 1984,
      "সাংবাদিক": 1985,
      "আরেক": 1986,
      "পরামরশ": 1987,
      "শীরষ": 1988,
      "আনদোল": 1989,
      "বিভাগমযমনসিংহ": 1990,
      "01": 1991,
      "ঢাকার": 1992,
      "দাড": 1993,
      "দবার": 1994,
      "নথি": 1995,
      "পাস": 1996,
      "ফেল": 1997,
      "বযালট": 1998,
      "শাস": 1999,
      "শাখ": 2000,
      "সৈ": 2001,
      "সবার": 2002,
      "সচিব": 2003,
      "সতয": 2004,
      "সাকষ": 2005,
      "১৭": 2006,
      "২৩": 2007,
      "৬০": 2008,
      "##রহ": 2009,
      "##মতা": 2010,
      "##বিল": 2011,
      "##বছর": 2012,
      "##যতা": 2013,
      "##th": 2014,
      "##টাম": 2015,
      "##ভা": 2016,
      "##৯৩": 2017,
      "##৯৯": 2018,
      "##৮৭": 2019,
      "##আর": 2020,
      "##ানতি": 2021,
      "করছে": 2022,
      "##যাকস": 2023,
      "##ামে": 2024,
      "##ামল": 2025,
      "##ামান": 2026,
      "##িনের": 2027,
      "##াযন": 2028,
      "##লেট": 2029,
      "সমহ": 2030,
      "##িরা": 2031,
      "##াবর": 2032,
      "##করে": 2033,
      "তারপর": 2034,
      "পরিবেশ": 2035,
      "সংশোধ": 2036,
      "এইচ": 2037,
      "বিভাগবরি": 2038,
      "অভিনে": 2039,
      "মহাস": 2040,
      "সহজ": 2041,
      "যাওযার": 2042,
      "সামাজিক": 2043,
      "লিমি": 2044,
      "আদায": 2045,
      "সমপরক": 2046,
      "রাখা": 2047,
      "আলোচ": 2048,
      "##টরগরাম": 2049,
      "পরশাস": 2050,
      "আদালত": 2051,
      "ডেসক": 2052,
      "সোমবার": 2053,
      "পৌর": 2054,
      "কামাল": 2055,
      "অধিদপতরের": 2056,
      "কোমপান": 2057,
      "লোকজন": 2058,
      "গাছ": 2059,
      "সমমেলনে": 2060,
      "কখনো": 2061,
      "মোহামমদ": 2062,
      "লাভ": 2063,
      "উদবোধ": 2064,
      "পদধতিঃ": 2065,
      "বিকষোভ": 2066,
      "নিরাপততা": 2067,
      "কোথাও": 2068,
      "সারভিস": 2069,
      "বিভাগবরিশাল": 2070,
      "14": 2071,
      "se": 2072,
      "ওবায": 2073,
      "কবিত": 2074,
      "খার": 2075,
      "খাদ": 2076,
      "গযাস": 2077,
      "চান": 2078,
      "চীন": 2079,
      "তল": 2080,
      "দা": 2081,
      "দটি": 2082,
      "পদে": 2083,
      "বগ": 2084,
      "মাশ": 2085,
      "যদধ": 2086,
      "রাম": 2087,
      "লাল": 2088,
      "সফ": 2089,
      "সাডে": 2090,
      "হাজ": 2091,
      "হসত": 2092,
      "হলেন": 2093,
      "২৬": 2094,
      "৩৫": 2095,
      "##রাজ": 2096,
      "##ীম": 2097,
      "##বাই": 2098,
      "##বনদ": 2099,
      "##শনের": 2100,
      "##পাশ": 2101,
      "##কলে": 2102,
      "##সন": 2103,
      "##ডাই": 2104,
      "##ছরে": 2105,
      "##ভীর": 2106,
      "##খলা": 2107,
      "##ামা": 2108,
      "##ামিনার": 2109,
      "##বেদ": 2110,
      "##লেই": 2111,
      "##তরীর": 2112,
      "##িকত": 2113,
      "##াদা": 2114,
      "সমদর": 2115,
      "##কষণ": 2116,
      "জনের": 2117,
      "##যানডে": 2118,
      "জানায": 2119,
      "আসতে": 2120,
      "##কতার": 2121,
      "##মিটার": 2122,
      "বেডে": 2123,
      "দিনের": 2124,
      "সহকারী": 2125,
      "চলচ": 2126,
      "##িজঞ": 2127,
      "যাওযা": 2128,
      "কমার": 2129,
      "আহবান": 2130,
      "মামন": 2131,
      "##তিরিকত": 2132,
      "এমনকি": 2133,
      "মানষের": 2134,
      "কমিশন": 2135,
      "অনমোদন": 2136,
      "আবেদনপতর": 2137,
      "##ent": 2138,
      "একসামিনার": 2139,
      "বিশববিদযালয": 2140,
      "সাহায": 2141,
      "নিযমিত": 2142,
      "কোমপানি": 2143,
      "সেনাব": 2144,
      "পরসকার": 2145,
      "অবসথান": 2146,
      "পরিচালনা": 2147,
      "বকতবয": 2148,
      "থানার": 2149,
      "বঙগবনধ": 2150,
      "দৈনিক": 2151,
      "কযাপটেন": 2152,
      "সমাধান": 2153,
      "ইতযাদি": 2154,
      "##ews": 2155,
      "বিভাগচটরগরাম": 2156,
      "15": 2157,
      "50": 2158,
      "you": 2159,
      "অতিরিকত": 2160,
      "আয": 2161,
      "আছেন": 2162,
      "ইম": 2163,
      "ঐকয": 2164,
      "খলে": 2165,
      "গাড": 2166,
      "গাডি": 2167,
      "জিযার": 2168,
      "তব": 2169,
      "তমি": 2170,
      "তদন": 2171,
      "দঃ": 2172,
      "নানা": 2173,
      "পিতা": 2174,
      "ফখ": 2175,
      "ফরম": 2176,
      "বাধ": 2177,
      "বকস": 2178,
      "ভিযে": 2179,
      "যক": 2180,
      "যার": 2181,
      "যাদের": 2182,
      "যকত": 2183,
      "রবি": 2184,
      "রাশ": 2185,
      "সল": 2186,
      "সষটি": 2187,
      "হম": 2188,
      "৩১": 2189,
      "##রাস": 2190,
      "##ততে": 2191,
      "##মিন": 2192,
      "##জীব": 2193,
      "##ীদ": 2194,
      "##নড": 2195,
      "##েক": 2196,
      "##el": 2197,
      "##pp": 2198,
      "##un": 2199,
      "##শে": 2200,
      "##কেন": 2201,
      "##ছলিম": 2202,
      "##উড": 2203,
      "##ৗশ": 2204,
      "##গল": 2205,
      "##৯৬": 2206,
      "##ct": 2207,
      "##১২": 2208,
      "পরবে": 2209,
      "পরিক": 2210,
      "পরবরতী": 2211,
      "করমী": 2212,
      "##যাং": 2213,
      "##িনদ": 2214,
      "##াযক": 2215,
      "##তরের": 2216,
      "সমন": 2217,
      "দেযার": 2218,
      "##াহি": 2219,
      "অনলাইন": 2220,
      "সেবা": 2221,
      "সংখযা": 2222,
      "##োরে": 2223,
      "জানযারী": 2224,
      "মেযর": 2225,
      "পরতির": 2226,
      "কিশোর": 2227,
      "আসছে": 2228,
      "##যনতরী": 2229,
      "আপিল": 2230,
      "##জনয": 2231,
      "অভযনতরী": 2232,
      "নামের": 2233,
      "নিরবাচনের": 2234,
      "আলী": 2235,
      "মহা": 2236,
      "সনতর": 2237,
      "সহযোগ": 2238,
      "চলতি": 2239,
      "পরেস": 2240,
      "করমস": 2241,
      "সভায": 2242,
      "লিখে": 2243,
      "বাসের": 2244,
      "বাসতব": 2245,
      "##ারণা": 2246,
      "মাসের": 2247,
      "হলেও": 2248,
      "রাখতে": 2249,
      "রেজ": 2250,
      "চালিযে": 2251,
      "##ess": 2252,
      "মসলিম": 2253,
      "রাসতা": 2254,
      "ভাষ": 2255,
      "##মলক": 2256,
      "বিজঞপতি": 2257,
      "ফিরে": 2258,
      "অফিসার": 2259,
      "##জজামান": 2260,
      "##এমই": 2261,
      "পরারথী": 2262,
      "ভিততিতে": 2263,
      "হতযার": 2264,
      "নিযনতরণ": 2265,
      "পনর": 2266,
      "শতাংশ": 2267,
      "ফলাইট": 2268,
      "কাগজ": 2269,
      "সংগরহ": 2270,
      "মারকিন": 2271,
      "রোববার": 2272,
      "ওবাযদল": 2273,
      "ভিযেতন": 2274,
      "08": 2275,
      "ch": 2276,
      "ht": 2277,
      "to": 2278,
      "অযানড": 2279,
      "আট": 2280,
      "আদেশ": 2281,
      "ইযা": 2282,
      "এবার": 2283,
      "কমে": 2284,
      "কণড": 2285,
      "ঘন": 2286,
      "ঘণ": 2287,
      "ছবির": 2288,
      "জর": 2289,
      "তাক": 2290,
      "তরি": 2291,
      "দাম": 2292,
      "দিক": 2293,
      "ফার": 2294,
      "ফলা": 2295,
      "বনদ": 2296,
      "ভল": 2297,
      "মড": 2298,
      "মাই": 2299,
      "মজি": 2300,
      "যাব": 2301,
      "শব": 2302,
      "শন": 2303,
      "শার": 2304,
      "শফিক": 2305,
      "সপর": 2306,
      "সাজ": 2307,
      "সবি": 2308,
      "০২": 2309,
      "২৮": 2310,
      "২১": 2311,
      "##রয": 2312,
      "##রধ": 2313,
      "##জান": 2314,
      "##বিক": 2315,
      "##বীর": 2316,
      "##নির": 2317,
      "##শীল": 2318,
      "##পা": 2319,
      "##চালক": 2320,
      "##দান": 2321,
      "##সল": 2322,
      "##সিস": 2323,
      "##৩০": 2324,
      "##গায": 2325,
      "##ভর": 2326,
      "##ৎকার": 2327,
      "##ঘাত": 2328,
      "##ch": 2329,
      "##০১": 2330,
      "##োজ": 2331,
      "পরচ": 2332,
      "পরষ": 2333,
      "পরাক": 2334,
      "##েলায": 2335,
      "জনকে": 2336,
      "##করিযা": 2337,
      "অনি": 2338,
      "অনতত": 2339,
      "নেওযা": 2340,
      "##টাফ": 2341,
      "##কারি": 2342,
      "##বিশ": 2343,
      "##বিএ": 2344,
      "বলক": 2345,
      "মোতা": 2346,
      "##যোগয": 2347,
      "গরপ": 2348,
      "বিভাগের": 2349,
      "শরীর": 2350,
      "শরমিক": 2351,
      "মনতরী": 2352,
      "নিরবাহী": 2353,
      "দিলে": 2354,
      "পাওযার": 2355,
      "##ছিলাম": 2356,
      "হোক": 2357,
      "আহমদ": 2358,
      "##কটর": 2359,
      "এখনও": 2360,
      "কলক": 2361,
      "আলোক": 2362,
      "বযবসথাপ": 2363,
      "মলত": 2364,
      "মলয": 2365,
      "যৌনকরম": 2366,
      "ওযেব": 2367,
      "ওযেসট": 2368,
      "লকষয": 2369,
      "ছেডে": 2370,
      "কযামপ": 2371,
      "জাহাজ": 2372,
      "চিকিৎসা": 2373,
      "পরিষদ": 2374,
      "and": 2375,
      "পাকিসতান": 2376,
      "উদদেশযে": 2377,
      "অনেকেই": 2378,
      "উপলকষে": 2379,
      "কিংবা": 2380,
      "জডিত": 2381,
      "বিনিযোগ": 2382,
      "গোপাল": 2383,
      "ফখরল": 2384,
      "সনতরাস": 2385,
      "##এমইএ": 2386,
      "03": 2387,
      "17": 2388,
      "bang": 2389,
      "আকর": 2390,
      "ইমে": 2391,
      "উতত": 2392,
      "এনে": 2393,
      "এদিকে": 2394,
      "ওঠ": 2395,
      "কিল": 2396,
      "কালো": 2397,
      "খদ": 2398,
      "গঠ": 2399,
      "গাই": 2400,
      "গলি": 2401,
      "গলপ": 2402,
      "চা": 2403,
      "চরি": 2404,
      "জেন": 2405,
      "ডর": 2406,
      "ডাকা": 2407,
      "তরণ": 2408,
      "নজ": 2409,
      "নান": 2410,
      "পছ": 2411,
      "পানি": 2412,
      "পঞচ": 2413,
      "পঠিত": 2414,
      "বী": 2415,
      "বাচ": 2416,
      "বযানড": 2417,
      "মযান": 2418,
      "মিযা": 2419,
      "যত": 2420,
      "যবল": 2421,
      "রশ": 2422,
      "রকষা": 2423,
      "শত": 2424,
      "সযার": 2425,
      "সতরে": 2426,
      "হবি": 2427,
      "৩৩": 2428,
      "৮৮": 2429,
      "##াউন": 2430,
      "##হা": 2431,
      "##হীন": 2432,
      "##মকত": 2433,
      "##ববর": 2434,
      "##tp": 2435,
      "##ষক": 2436,
      "##কাপ": 2437,
      "##টন": 2438,
      "##টো": 2439,
      "##উটার": 2440,
      "##গের": 2441,
      "##গরে": 2442,
      "##ধে": 2443,
      "##ধাজ": 2444,
      "##ভী": 2445,
      "##খয": 2446,
      "##থার": 2447,
      "##৮১": 2448,
      "##৪৩": 2449,
      "##োম": 2450,
      "##যাট": 2451,
      "##কেশন": 2452,
      "##ামের": 2453,
      "##াযের": 2454,
      "##াদশ": 2455,
      "একাধ": 2456,
      "একাদশ": 2457,
      "করেই": 2458,
      "##পরের": 2459,
      "জনম": 2460,
      "পরিবার": 2461,
      "##রেশন": 2462,
      "নেট": 2463,
      "যেসব": 2464,
      "আরব": 2465,
      "##নাকে": 2466,
      "সবামী": 2467,
      "সবীকার": 2468,
      "মেডি": 2469,
      "##মনতরীর": 2470,
      "##লোড": 2471,
      "আসন": 2472,
      "আসামি": 2473,
      "আপন": 2474,
      "বেআই": 2475,
      "পেছ": 2476,
      "আলফা": 2477,
      "থাকেন": 2478,
      "থাকবে": 2479,
      "সহি": 2480,
      "ধরষণ": 2481,
      "বেশী": 2482,
      "কমপি": 2483,
      "সামপর": 2484,
      "ছবিতে": 2485,
      "বিশবকাপ": 2486,
      "ডিজি": 2487,
      "মখে": 2488,
      "দাবিতে": 2489,
      "অধিকার": 2490,
      "লকষমী": 2491,
      "ইউনিযনের": 2492,
      "কোরিযার": 2493,
      "পলাস": 2494,
      "লাইসেন": 2495,
      "বিজঞাপন": 2496,
      "পৌছে": 2497,
      "ফটবল": 2498,
      "শহরের": 2499,
      "পাশে": 2500,
      "গোলাপ": 2501,
      "টেক": 2502,
      "বযাংকের": 2503,
      "দীরঘদিন": 2504,
      "অতিথি": 2505,
      "জাতি": 2506,
      "হিসাব": 2507,
      "সংরকষিত": 2508,
      "মসজিদে": 2509,
      "সংঘরষে": 2510,
      "মিথযা": 2511,
      "বিজিএমইএ": 2512,
      "পরিবরতন": 2513,
      "পরিসথিতি": 2514,
      "দবারা": 2515,
      "মাশরা": 2516,
      "হসতানতর": 2517,
      "চলচচিতর": 2518,
      "যকতরা": 2519,
      "পরিকলপ": 2520,
      "খদদের": 2521,
      "মেডিকেল": 2522,
      "বেআইনি": 2523,
      "06": 2524,
      "news": 2525,
      "sh": 2526,
      "অঙগ": 2527,
      "অঞচ": 2528,
      "আউট": 2529,
      "আকতার": 2530,
      "ইক": 2531,
      "উৎস": 2532,
      "কবি": 2533,
      "খনি": 2534,
      "গাজ": 2535,
      "গডে": 2536,
      "চিন": 2537,
      "চির": 2538,
      "চনদর": 2539,
      "টাকার": 2540,
      "দলে": 2541,
      "দীপ": 2542,
      "ধারণা": 2543,
      "নড": 2544,
      "নাস": 2545,
      "নোযা": 2546,
      "পাহ": 2547,
      "বোর": 2548,
      "বলি": 2549,
      "বদর": 2550,
      "ভয": 2551,
      "মের": 2552,
      "মদর": 2553,
      "মছলিম": 2554,
      "যাতে": 2555,
      "রিজ": 2556,
      "রযাব": 2557,
      "শো": 2558,
      "শামী": 2559,
      "সখ": 2560,
      "সান": 2561,
      "সাব": 2562,
      "সঙগ": 2563,
      "সফল": 2564,
      "হাদ": 2565,
      "হাইকে": 2566,
      "১০০": 2567,
      "২৭": 2568,
      "৪৫": 2569,
      "##রো": 2570,
      "##তবে": 2571,
      "##মধ": 2572,
      "##জেনট": 2573,
      "##বাড": 2574,
      "##বাদের": 2575,
      "##la": 2576,
      "##lo": 2577,
      "##ter": 2578,
      "##িং": 2579,
      "##ওল": 2580,
      "##কোন": 2581,
      "##৬০": 2582,
      "##ধন": 2583,
      "##৫২": 2584,
      "##ঙে": 2585,
      "##০৮": 2586,
      "##im": 2587,
      "##ারট": 2588,
      "##োমিটার": 2589,
      "পরভাব": 2590,
      "পরচর": 2591,
      "করছি": 2592,
      "##যাণ": 2593,
      "##যাশন": 2594,
      "##ামপ": 2595,
      "বিতর": 2596,
      "নিযোগ": 2597,
      "##াসট": 2598,
      "সমমান": 2599,
      "আমল": 2600,
      "জনপরি": 2601,
      "##াগা": 2602,
      "##াপাশি": 2603,
      "##করণ": 2604,
      "নাট": 2605,
      "সংকরানত": 2606,
      "নেমে": 2607,
      "##বিষ": 2608,
      "নিরমাণ": 2609,
      "##াধিকার": 2610,
      "পরতিদিন": 2611,
      "পরতিবেদন": 2612,
      "আসা": 2613,
      "নিযেছে": 2614,
      "##ষটরের": 2615,
      "বরষ": 2616,
      "মধযেই": 2617,
      "আললাহ": 2618,
      "##বনদর": 2619,
      "যাযনি": 2620,
      "বযাপ": 2621,
      "বাডির": 2622,
      "করমকা": 2623,
      "##কষেপ": 2624,
      "কমপ": 2625,
      "সভা": 2626,
      "##সটর": 2627,
      "লিখ": 2628,
      "বাসায": 2629,
      "ছবিটি": 2630,
      "সিলেটে": 2631,
      "সিলেটের": 2632,
      "কলিক": 2633,
      "পরদতত": 2634,
      "ফেলে": 2635,
      "##ীবাজার": 2636,
      "বসবাস": 2637,
      "ভালোবাস": 2638,
      "পডতে": 2639,
      "অনযতম": 2640,
      "অরথবছর": 2641,
      "অনষঠানে": 2642,
      "##ation": 2643,
      "বিপল": 2644,
      "##মখী": 2645,
      "পাশাপাশি": 2646,
      "পোশ": 2647,
      "সমসযার": 2648,
      "বদধি": 2649,
      "হওযায": 2650,
      "তেমন": 2651,
      "পালন": 2652,
      "পতরিকার": 2653,
      "বিচারপতি": 2654,
      "সমমেলন": 2655,
      "পরসততি": 2656,
      "মৌল": 2657,
      "জাতির": 2658,
      "বঝতে": 2659,
      "করতপকষের": 2660,
      "চোখ": 2661,
      "চোখে": 2662,
      "কারযকরম": 2663,
      "কেনদরীয": 2664,
      "চীফ": 2665,
      "নগরের": 2666,
      "ওযেবসাইট": 2667,
      "সাপে": 2668,
      "অথবা": 2669,
      "রাজধানীর": 2670,
      "জাযগায": 2671,
      "করপোরেশনের": 2672,
      "চামচ": 2673,
      "সনধযা": 2674,
      "শেযার": 2675,
      "খারাপ": 2676,
      "সাহাযয": 2677,
      "তদনত": 2678,
      "মহাপরি": 2679,
      "কণডোম": 2680,
      "ফলাফল": 2681,
      "কিলোমিটার": 2682,
      "জেনার": 2683,
      "একাধিক": 2684,
      "কমপিউটার": 2685,
      "নোযাখ": 2686,
      "##মধযে": 2687,
      "09": 2688,
      "07": 2689,
      "re": 2690,
      "অডিও": 2691,
      "আচ": 2692,
      "আধ": 2693,
      "আকাশ": 2694,
      "উন": 2695,
      "উভ": 2696,
      "কথ": 2697,
      "কঠ": 2698,
      "খেলার": 2699,
      "ছয": 2700,
      "জল": 2701,
      "টেলি": 2702,
      "তৎ": 2703,
      "থিম": 2704,
      "দাখ": 2705,
      "দবী": 2706,
      "নাকি": 2707,
      "ফোর": 2708,
      "বোন": 2709,
      "বষটি": 2710,
      "ভো": 2711,
      "ভিনন": 2712,
      "মিস": 2713,
      "রপত": 2714,
      "রাশি": 2715,
      "##াথ": 2716,
      "##রী": 2717,
      "##তল": 2718,
      "##তাদের": 2719,
      "##মক": 2720,
      "##মস": 2721,
      "##মির": 2722,
      "##মেনট": 2723,
      "##জয": 2724,
      "##নট": 2725,
      "##শবর": 2726,
      "##ts": 2727,
      "##চের": 2728,
      "##কো": 2729,
      "##ককে": 2730,
      "##সাম": 2731,
      "##সিক": 2732,
      "##ংক": 2733,
      "##ংযের": 2734,
      "##৩৩": 2735,
      "##গলোর": 2736,
      "##ঘাট": 2737,
      "##ap": 2738,
      "##ia": 2739,
      "##ir": 2740,
      "##22": 2741,
      "##hm": 2742,
      "##gh": 2743,
      "##ানতে": 2744,
      "পরমখ": 2745,
      "##েনের": 2746,
      "##কেই": 2747,
      "##কেলে": 2748,
      "##কেটে": 2749,
      "বিদ": 2750,
      "বিবর": 2751,
      "বিযের": 2752,
      "বিটক": 2753,
      "বিকেলে": 2754,
      "##াযার": 2755,
      "##বেক": 2756,
      "নিষ": 2757,
      "নিষে": 2758,
      "##াসে": 2759,
      "একর": 2760,
      "একবার": 2761,
      "সমাজ": 2762,
      "সমাবে": 2763,
      "সমভাব": 2764,
      "দেহ": 2765,
      "করেছি": 2766,
      "##াবাস": 2767,
      "##াহিক": 2768,
      "আমের": 2769,
      "##াগার": 2770,
      "##াতন": 2771,
      "অনকলে": 2772,
      "নেতার": 2773,
      "যেখানে": 2774,
      "##নাথ": 2775,
      "দেশকে": 2776,
      "সবাইকে": 2777,
      "হযতো": 2778,
      "বলতে": 2779,
      "সিম": 2780,
      "কারা": 2781,
      "পরতিযোগ": 2782,
      "আসামী": 2783,
      "আপনাকে": 2784,
      "সরবো": 2785,
      "2014": 2786,
      "##েষে": 2787,
      "বলেও": 2788,
      "২০১৪": 2789,
      "দিচছে": 2790,
      "উদযাপ": 2791,
      "বেসর": 2792,
      "নিরবাচিত": 2793,
      "কষতি": 2794,
      "আইফোন": 2795,
      "থাকতে": 2796,
      "ভারপরাপত": 2797,
      "গেছেন": 2798,
      "চলন": 2799,
      "সকলের": 2800,
      "নিজেকে": 2801,
      "উপজেলায": 2802,
      "পরকাশক": 2803,
      "ঘটনার": 2804,
      "ইনসটি": 2805,
      "পরধানমনতরীর": 2806,
      "সথাপন": 2807,
      "পরিচয": 2808,
      "পরিচিত": 2809,
      "মাসে": 2810,
      "মাসটার": 2811,
      "ফেডার": 2812,
      "সমপরতি": 2813,
      "##ণডের": 2814,
      "পডেছে": 2815,
      "রেজা": 2816,
      "সনদে": 2817,
      "পরীকষায": 2818,
      "বসনধ": 2819,
      "##গলোতে": 2820,
      "টরামপ": 2821,
      "রাসতায": 2822,
      "অনষঠান": 2823,
      "নেতাকর": 2824,
      "##ate": 2825,
      "বিসফোর": 2826,
      "বিমানবনদর": 2827,
      "বযকতিকে": 2828,
      "হামলায": 2829,
      "করিকেট": 2830,
      "দাযের": 2831,
      "গণতন": 2832,
      "ধরমীয": 2833,
      "শহর": 2834,
      "ফরমে": 2835,
      "টেবিল": 2836,
      "ভেঙে": 2837,
      "বযাংকে": 2838,
      "চিকিৎসক": 2839,
      "চাইলে": 2840,
      "পরিষদের": 2841,
      "মনদিরের": 2842,
      "পাকিসতানের": 2843,
      "বাজারে": 2844,
      "হিসাবে": 2845,
      "লেগে": 2846,
      "০১৭১১": 2847,
      "তালিকা": 2848,
      "ওযেবসাই": 2849,
      "##উদদিন": 2850,
      "সৌদি": 2851,
      "মাঠে": 2852,
      "বিরোধী": 2853,
      "মাতববর": 2854,
      "গরতবপরণ": 2855,
      "আনদোলন": 2856,
      "মহাসচিব": 2857,
      "বযবসথাপনা": 2858,
      "গোপালগঞজ": 2859,
      "হবিগঞজ": 2860,
      "##ধাজঞ": 2861,
      "ডিজিটাল": 2862,
      "লাইসেনস": 2863,
      "নডাইল": 2864,
      "শামীম": 2865,
      "অরথবছরের": 2866,
      "মহাপরিচালক": 2867,
      "নিষেধাজঞ": 2868,
      "ইনসটিটি": 2869,
      "বসনধরা": 2870,
      "নেতাকরমী": 2871,
      "04": 2872,
      "05": 2873,
      "de": 2874,
      "un": 2875,
      "ww": 2876,
      "অলপ": 2877,
      "অপার": 2878,
      "অসটর": 2879,
      "আজি": 2880,
      "আবাস": 2881,
      "আবল": 2882,
      "আফর": 2883,
      "এজনয": 2884,
      "কাচ": 2885,
      "কাশ": 2886,
      "ককস": 2887,
      "ঘাট": 2888,
      "চযাম": 2889,
      "জোট": 2890,
      "তান": 2891,
      "তলা": 2892,
      "থানা": 2893,
      "ধবং": 2894,
      "নেন": 2895,
      "নিন": 2896,
      "নাব": 2897,
      "বাকি": 2898,
      "বছরে": 2899,
      "ভকত": 2900,
      "মতি": 2901,
      "মযন": 2902,
      "যন": 2903,
      "রাহ": 2904,
      "রানে": 2905,
      "শির": 2906,
      "শিকার": 2907,
      "সঠ": 2908,
      "সেল": 2909,
      "সকষ": 2910,
      "সবর": 2911,
      "সিনি": 2912,
      "সেনট": 2913,
      "সিনে": 2914,
      "সটাফ": 2915,
      "হচ": 2916,
      "হরত": 2917,
      "৩২": 2918,
      "৫০০": 2919,
      "##হন": 2920,
      "##হাজ": 2921,
      "##তাই": 2922,
      "##মাধয": 2923,
      "##বযে": 2924,
      "##শিযা": 2925,
      "##পতির": 2926,
      "##লযানড": 2927,
      "##লীগের": 2928,
      "##চচ": 2929,
      "##ষের": 2930,
      "##সতর": 2931,
      "##সমান": 2932,
      "##ডায": 2933,
      "##ডেনট": 2934,
      "##৬৭": 2935,
      "##গণ": 2936,
      "##গামী": 2937,
      "##ভত": 2938,
      "##ভীবাজার": 2939,
      "##ইচ": 2940,
      "##৫১": 2941,
      "##ঠি": 2942,
      "##ঙঘ": 2943,
      "##ঙকা": 2944,
      "##ঙখলা": 2945,
      "##ফের": 2946,
      "##৮৪": 2947,
      "##oo": 2948,
      "##োমখ": 2949,
      "##ানী": 2950,
      "##ানস": 2951,
      "করায": 2952,
      "##েনদ": 2953,
      "##েনদর": 2954,
      "##িনয": 2955,
      "বিদয": 2956,
      "##টিযে": 2957,
      "##াইডার": 2958,
      "##াসহ": 2959,
      "সমসত": 2960,
      "দেবেন": 2961,
      "##াগর": 2962,
      "##াতার": 2963,
      "##াচছেন": 2964,
      "যেকোন": 2965,
      "##কারে": 2966,
      "##কারীদের": 2967,
      "##লিযা": 2968,
      "##দধা": 2969,
      "মোট": 2970,
      "আসনে": 2971,
      "আসনন": 2972,
      "##জনক": 2973,
      "সরবস": 2974,
      "##েষট": 2975,
      "আগন": 2976,
      "##পিযন": 2977,
      "দেখার": 2978,
      "অভিজঞ": 2979,
      "মনো": 2980,
      "বরণ": 2981,
      "দিবস": 2982,
      "মানিক": 2983,
      "##সিডেনট": 2984,
      "কাউ": 2985,
      "ছিলো": 2986,
      "দরদ": 2987,
      "দরনীতি": 2988,
      "মহিলা": 2989,
      "কষমতা": 2990,
      "আইনে": 2991,
      "পরেসিডেনট": 2992,
      "অরজন": 2993,
      "তোম": 2994,
      "বিশবের": 2995,
      "অবযা": 2996,
      "রযেছেন": 2997,
      "##ind": 2998,
      "রোড": 2999,
      "অবসথা": 3000,
      "রাখেন": 3001,
      "এমপি": 3002,
      "যোগযতা": 3003,
      "বযবসায": 3004,
      "মানষকে": 3005,
      "অভিযোগপতর": 3006,
      "ভিটাম": 3007,
      "পরশংস": 3008,
      "মখয": 3009,
      "মখোমখ": 3010,
      "অযাড": 3011,
      "শিকষা": 3012,
      "দাবী": 3013,
      "চারটি": 3014,
      "রাসেল": 3015,
      "বযকতির": 3016,
      "হামলার": 3017,
      "কযেকজন": 3018,
      "হারিযে": 3019,
      "জামাল": 3020,
      "পরতিষঠানের": 3021,
      "সদসযদের": 3022,
      "সাইট": 3023,
      "মিলিযে": 3024,
      "জাহাজের": 3025,
      "উচিত": 3026,
      "বৈঠ": 3027,
      "##করমণ": 3028,
      "খোলা": 3029,
      "রিপোরটার": 3030,
      "ফেবরযারী": 3031,
      "কখনও": 3032,
      "বরিশাল": 3033,
      "জীবনের": 3034,
      "পরযোজনীয": 3035,
      "জনগণের": 3036,
      "গবেষণা": 3037,
      "মিনিট": 3038,
      "মিনিটে": 3039,
      "ফরিদ": 3040,
      "বাকস": 3041,
      "নেততবাধীন": 3042,
      "খরিসট": 3043,
      "উদযোগে": 3044,
      "সমরথন": 3045,
      "রোহিঙগ": 3046,
      "জমিদার": 3047,
      "সৈয": 3048,
      "উদবোধন": 3049,
      "সমদরগামী": 3050,
      "বাধা": 3051,
      "কিশোরগঞজ": 3052,
      "লিখেছেন": 3053,
      "http": 3054,
      "ঘণটা": 3055,
      "মোতাবেক": 3056,
      "ইমেইল": 3057,
      "পছনদ": 3058,
      "আপনাদের": 3059,
      "টেকনা": 3060,
      "খনিজ": 3061,
      "বযাপক": 3062,
      "পোশাক": 3063,
      "মৌলভীবাজার": 3064,
      "সাপেকষে": 3065,
      "জেনারেল": 3066,
      "দাখিল": 3067,
      "বিটকযেন": 3068,
      "সনদেহ": 3069,
      "www": 3070,
      "ককসবাজার": 3071,
      "চযামপিযন": 3072,
      "সঠিক": 3073,
      "সিনিযর": 3074,
      "মখোমখি": 3075,
      "16": 3076,
      "es": 3077,
      "eur": 3078,
      "im": 3079,
      "ph": 3080,
      "অপে": 3081,
      "আক": 3082,
      "আনা": 3083,
      "আযোজন": 3084,
      "ইসি": 3085,
      "উনি": 3086,
      "ঋণ": 3087,
      "এযার": 3088,
      "কবির": 3089,
      "খলনা": 3090,
      "ঘর": 3091,
      "চর": 3092,
      "জহ": 3093,
      "জিম": 3094,
      "জিতে": 3095,
      "জেনে": 3096,
      "ঝকি": 3097,
      "ডিজ": 3098,
      "তথ": 3099,
      "তফ": 3100,
      "তাতে": 3101,
      "তালক": 3102,
      "দাস": 3103,
      "দাগ": 3104,
      "দাশ": 3105,
      "নাই": 3106,
      "নজর": 3107,
      "নীতি": 3108,
      "পথি": 3109,
      "ফিস": 3110,
      "ফযাকস": 3111,
      "বযান": 3112,
      "বাহিনীর": 3113,
      "ভরম": 3114,
      "মজ": 3115,
      "মাগ": 3116,
      "মাযের": 3117,
      "যম": 3118,
      "যগ": 3119,
      "যাক": 3120,
      "যথায": 3121,
      "রম": 3122,
      "রাগ": 3123,
      "শানতি": 3124,
      "সিক": 3125,
      "সরা": 3126,
      "সেরা": 3127,
      "হজ": 3128,
      "হি": 3129,
      "হই": 3130,
      "হিম": 3131,
      "হেরে": 3132,
      "৭০": 3133,
      "৮৪৩": 3134,
      "##াযা": 3135,
      "##হী": 3136,
      "##ততি": 3137,
      "##ীড": 3138,
      "##বক": 3139,
      "##বধান": 3140,
      "##বলের": 3141,
      "##বযাপ": 3142,
      "##েজ": 3143,
      "##eb": 3144,
      "##যনে": 3145,
      "##শের": 3146,
      "##িফ": 3147,
      "##চা": 3148,
      "##ষটার": 3149,
      "##ষটির": 3150,
      "##দদ": 3151,
      "##দলে": 3152,
      "##দরে": 3153,
      "##সভ": 3154,
      "##টনে": 3155,
      "##ডাল": 3156,
      "##ছা": 3157,
      "##উরি": 3158,
      "##গির": 3159,
      "##ভকত": 3160,
      "##ber": 3161,
      "##োস": 3162,
      "পরাপতি": 3163,
      "পরবাসী": 3164,
      "পরকরিযা": 3165,
      "করব": 3166,
      "করণ": 3167,
      "করলেন": 3168,
      "##ামীর": 3169,
      "##ালাল": 3170,
      "##টিভ": 3171,
      "##টিকে": 3172,
      "##লেকস": 3173,
      "##াদদ": 3174,
      "##াসরি": 3175,
      "একমত": 3176,
      "একষে": 3177,
      "দেড": 3178,
      "দৌ": 3179,
      "##িতার": 3180,
      "##াবাহিক": 3181,
      "##াহিত": 3182,
      "আমির": 3183,
      "অনস": 3184,
      "##াচছে": 3185,
      "নেওযার": 3186,
      "##যানমার": 3187,
      "বযবধান": 3188,
      "সবপন": 3189,
      "সবাধীন": 3190,
      "পরতিবাদ": 3191,
      "পরতিবেশ": 3192,
      "##বসত": 3193,
      "বাঙ": 3194,
      "সরাসরি": 3195,
      "আগরহ": 3196,
      "##াখনদ": 3197,
      "##পিং": 3198,
      "দোক": 3199,
      "দোযা": 3200,
      "দোকান": 3201,
      "বরং": 3202,
      "পাথ": 3203,
      "মিযানমার": 3204,
      "বেড": 3205,
      "বেধে": 3206,
      "##ছিলো": 3207,
      "আলহাজ": 3208,
      "দরশক": 3209,
      "মাছ": 3210,
      "সাফল": 3211,
      "চলাচ": 3212,
      "##ীগঞজ": 3213,
      "অরথা": 3214,
      "হাসি": 3215,
      "আমাদেরকে": 3216,
      "আজকের": 3217,
      "গোপন": 3218,
      "ইউপি": 3219,
      "ইউএস": 3220,
      "সথানে": 3221,
      "বযবহত": 3222,
      "পরথমে": 3223,
      "বযবহারের": 3224,
      "করতেন": 3225,
      "আপনারা": 3226,
      "আগেই": 3227,
      "রহমানের": 3228,
      "পডেছেন": 3229,
      "পিছ": 3230,
      "অভিযোগে": 3231,
      "অসং": 3232,
      "তিনটি": 3233,
      "টরাক": 3234,
      "পরশনের": 3235,
      "করমকরতাদের": 3236,
      "যদিও": 3237,
      "অধিন": 3238,
      "অধযাপ": 3239,
      "ভাং": 3240,
      "##enc": 3241,
      "বযকতিগত": 3242,
      "১৯৯": 3243,
      "##শালী": 3244,
      "সোহ": 3245,
      "কযামের": 3246,
      "##সারে": 3247,
      "ছাতরী": 3248,
      "পলট": 3249,
      "লাইভ": 3250,
      "শিশদের": 3251,
      "ঘোষ": 3252,
      "সাহিত": 3253,
      "কীভাবে": 3254,
      "পেযেছে": 3255,
      "পরযকতি": 3256,
      "পরযকতির": 3257,
      "খানাখনদ": 3258,
      "খেলতে": 3259,
      "জারী": 3260,
      "মৌস": 3261,
      "অবসথিত": 3262,
      "চাকমা": 3263,
      "সতরক": 3264,
      "ধারাবাহিক": 3265,
      "##গাও": 3266,
      "এডস": 3267,
      "চীনের": 3268,
      "থানায": 3269,
      "ভরতি": 3270,
      "সীমান": 3271,
      "মিরজা": 3272,
      "বিদেশি": 3273,
      "বাবা": 3274,
      "##ide": 3275,
      "নিযনতর": 3276,
      "সংরকষণ": 3277,
      "কারযালয": 3278,
      "কষমতায": 3279,
      "সিরিজের": 3280,
      "অথচ": 3281,
      "কাপড": 3282,
      "খরচ": 3283,
      "ইছলামী": 3284,
      "জবাবে": 3285,
      "মনতরণালযের": 3286,
      "রোহিঙগা": 3287,
      "পরচারিত": 3288,
      "শরেণীর": 3289,
      "দাডিযে": 3290,
      "শাসতি": 3291,
      "পৌরস": 3292,
      "কবিতা": 3293,
      "ইমাম": 3294,
      "##ৗশল": 3295,
      "পরতিরোধ": 3296,
      "অভযনতরীণ": 3297,
      "শবদ": 3298,
      "##রধব": 3299,
      "##বিএকস": 3300,
      "আলোকচিতর": 3301,
      "bangla": 3302,
      "নজরল": 3303,
      "পঠিতবয": 3304,
      "সামপরতিক": 3305,
      "মাশরাফি": 3306,
      "ইকব": 3307,
      "গাজীপর": 3308,
      "জনপরিয": 3309,
      "উভয": 3310,
      "উদযাপন": 3311,
      "নিষেধাজঞা": 3312,
      "অসটরেল": 3313,
      "ঘাটতি": 3314,
      "জহির": 3315,
      "তালকদার": 3316,
      "যথাযথ": 3317,
      "একষেতরে": 3318,
      "00": 3319,
      "be": 3320,
      "can": 3321,
      "dow": 3322,
      "mor": 3323,
      "su": 3324,
      "son": 3325,
      "te": 3326,
      "আফ": 3327,
      "আযোজ": 3328,
      "ইচছা": 3329,
      "ঈদ": 3330,
      "এদের": 3331,
      "এভাবে": 3332,
      "ওপরে": 3333,
      "ওযানডে": 3334,
      "ওসমান": 3335,
      "কলি": 3336,
      "খরি": 3337,
      "গার": 3338,
      "গযা": 3339,
      "গরি": 3340,
      "গলো": 3341,
      "গিযা": 3342,
      "গভীর": 3343,
      "চড": 3344,
      "চাদ": 3345,
      "ছি": 3346,
      "ছড": 3347,
      "ছাল": 3348,
      "ছটে": 3349,
      "জটি": 3350,
      "জোর": 3351,
      "জযের": 3352,
      "টিন": 3353,
      "ডঃ": 3354,
      "দয": 3355,
      "দরে": 3356,
      "দবি": 3357,
      "দরি": 3358,
      "দারি": 3359,
      "ধরা": 3360,
      "নী": 3361,
      "নও": 3362,
      "নক": 3363,
      "নরল": 3364,
      "নবায": 3365,
      "নটিক": 3366,
      "নদী": 3367,
      "পশ": 3368,
      "পাই": 3369,
      "পযান": 3370,
      "পজি": 3371,
      "পশচ": 3372,
      "পাতা": 3373,
      "ভম": 3374,
      "ভগ": 3375,
      "মশ": 3376,
      "মতে": 3377,
      "মকত": 3378,
      "মঞজ": 3379,
      "যথ": 3380,
      "যাই": 3381,
      "রব": 3382,
      "রশি": 3383,
      "রকম": 3384,
      "রংপর": 3385,
      "লডাই": 3386,
      "লেনদ": 3387,
      "শী": 3388,
      "সস": 3389,
      "সটে": 3390,
      "সষঠ": 3391,
      "সপার": 3392,
      "সফর": 3393,
      "সাদা": 3394,
      "হাই": 3395,
      "হদয": 3396,
      "০০০": 3397,
      "২য": 3398,
      "২৯": 3399,
      "৩৭": 3400,
      "৫৫": 3401,
      "৫২": 3402,
      "৫৮": 3403,
      "৯৪": 3404,
      "##হর": 3405,
      "##তঃ": 3406,
      "##মতি": 3407,
      "##মিল": 3408,
      "##জডে": 3409,
      "##ীকে": 3410,
      "##বধ": 3411,
      "##বনে": 3412,
      "##বাহী": 3413,
      "##নো": 3414,
      "##নদের": 3415,
      "##নীয": 3416,
      "##et": 3417,
      "##us": 3418,
      "##ut": 3419,
      "##শনে": 3420,
      "##শেষ": 3421,
      "##ns": 3422,
      "##িদধ": 3423,
      "##লিক": 3424,
      "##ওযান": 3425,
      "##কদের": 3426,
      "##টিন": 3427,
      "##গান": 3428,
      "##ৈর": 3429,
      "##ঘট": 3430,
      "##ri": 3431,
      "##ফাজ": 3432,
      "##৪২০": 3433,
      "##24": 3434,
      "##োকতি": 3435,
      "পরাজ": 3436,
      "পরাথ": 3437,
      "করিম": 3438,
      "##যাত": 3439,
      "##যাক": 3440,
      "বিধ": 3441,
      "বিযে": 3442,
      "বিবে": 3443,
      "বিসি": 3444,
      "নিকট": 3445,
      "##াইভার": 3446,
      "##িকষণ": 3447,
      "##াসি": 3448,
      "##াসীন": 3449,
      "একাডে": 3450,
      "সমালো": 3451,
      "সমবনধ": 3452,
      "##িলার": 3453,
      "##িরে": 3454,
      "আমদ": 3455,
      "জনযে": 3456,
      "##াগত": 3457,
      "##াতল": 3458,
      "##াডার": 3459,
      "##বারে": 3460,
      "নেয": 3461,
      "##যানতে": 3462,
      "##কারের": 3463,
      "##নিং": 3464,
      "নিরভর": 3465,
      "##লিকেশন": 3466,
      "জানে": 3467,
      "জানেন": 3468,
      "##দরশ": 3469,
      "বযয": 3470,
      "##টেডের": 3471,
      "মোল": 3472,
      "মোক": 3473,
      "পরতিটি": 3474,
      "পরতিরকষ": 3475,
      "পরতিবেদ": 3476,
      "##টারি": 3477,
      "বলেছে": 3478,
      "বলেছিলেন": 3479,
      "শরর": 3480,
      "মনতর": 3481,
      "এসময": 3482,
      "মিছিল": 3483,
      "মিউজ": 3484,
      "বেঞচ": 3485,
      "##বনধর": 3486,
      "দরব": 3487,
      "##০০৩": 3488,
      "বযাট": 3489,
      "ভারজ": 3490,
      "ভারতে": 3491,
      "সকলে": 3492,
      "ধরতে": 3493,
      "কিনে": 3494,
      "মতযর": 3495,
      "হোস": 3496,
      "সমপনন": 3497,
      "বাডানোর": 3498,
      "কাজের": 3499,
      "সামরাজ": 3500,
      "আহম": 3501,
      "##কাউন": 3502,
      "কিছটা": 3503,
      "ঘটন": 3504,
      "লিংক": 3505,
      "সরকারী": 3506,
      "ইউরো": 3507,
      "নিরবাচনী": 3508,
      "পরতয": 3509,
      "##ers": 3510,
      "##সথান": 3511,
      "রাখার": 3512,
      "##কিছ": 3513,
      "রেজি": 3514,
      "বযবসাযী": 3515,
      "হোসেনের": 3516,
      "সভাপতিতবে": 3517,
      "##এসসি": 3518,
      "কমিটি": 3519,
      "কমিশনের": 3520,
      "পরশিকষণ": 3521,
      "আবদর": 3522,
      "পরবের": 3523,
      "উননযনে": 3524,
      "সদসযের": 3525,
      "খবই": 3526,
      "পাঠক": 3527,
      "পাঠানো": 3528,
      "১২০": 3529,
      "লেখক": 3530,
      "কোরস": 3531,
      "##শিং": 3532,
      "সদসযরা": 3533,
      "চলেছে": 3534,
      "##কলাবের": 3535,
      "ডাঃ": 3536,
      "ডাউন": 3537,
      "##াকিব": 3538,
      "সিরাজ": 3539,
      "নিযম": 3540,
      "উইকেটে": 3541,
      "পালিযে": 3542,
      "পরযবে": 3543,
      "সপাইডার": 3544,
      "##িসটরেশন": 3545,
      "##tion": 3546,
      "any": 3547,
      "চাকরি": 3548,
      "খাওযা": 3549,
      "##বাবগঞজ": 3550,
      "পরিদরশক": 3551,
      "উদদেশয": 3552,
      "জঙগিবাদ": 3553,
      "পাবেন": 3554,
      "বঙগবনধর": 3555,
      "ডাকতার": 3556,
      "বরিটিশ": 3557,
      "বযসী": 3558,
      "৯৫৫৪২০": 3559,
      "ডলারের": 3560,
      "জনগণ": 3561,
      "০১৭১৬০": 3562,
      "মোবাইলঃ০১": 3563,
      "যাচাইযানতে": 3564,
      "ইনটারনে": 3565,
      "উৎপ": 3566,
      "পরাণী": 3567,
      "ফেসবক": 3568,
      "সেতমনতরী": 3569,
      "মনতরণালয": 3570,
      "শিকষারথীদের": 3571,
      "বাণিজয": 3572,
      "আরেকটি": 3573,
      "শাখার": 3574,
      "##৯৯০০৩": 3575,
      "সংশোধনী": 3576,
      "অভিনেতা": 3577,
      "লিমিটেডের": 3578,
      "কোমপানির": 3579,
      "গাছের": 3580,
      "হাজির": 3581,
      "সেনাবাহিনীর": 3582,
      "রবিবার": 3583,
      "পরেসকলাবের": 3584,
      "করমসচি": 3585,
      "ঘনটার": 3586,
      "মডেল": 3587,
      "মাইকরো": 3588,
      "সনতরাসী": 3589,
      "ডরাইভার": 3590,
      "যবলীগের": 3591,
      "সবীকারোকতি": 3592,
      "পরিকলপনা": 3593,
      "চিনতা": 3594,
      "রিজভী": 3595,
      "হাদিস": 3596,
      "##যাশনাল": 3597,
      "##বিষয": 3598,
      "আললাহর": 3599,
      "কমপলেকস": 3600,
      "সরবোচচ": 3601,
      "বেসরকারি": 3602,
      "ফেডারেশন": 3603,
      "গণতনতর": 3604,
      "ওযেবসাইটের": 3605,
      "ইনসটিটিউট": 3606,
      "অপারেশন": 3607,
      "আবাসিক": 3608,
      "ধবংস": 3609,
      "নাবিক": 3610,
      "সকষম": 3611,
      "অভিজঞতা": 3612,
      "কাউকে": 3613,
      "অবযাহত": 3614,
      "ভিটামিন": 3615,
      "টেকনাফ": 3616,
      "চযামপিযনস": 3617,
      "##বযাপী": 3618,
      "অনসরণ": 3619,
      "অরথাৎ": 3620,
      "অসংখয": 3621,
      "অধযাপক": 3622,
      "ভাংচর": 3623,
      "down": 3624,
      "গিযাস": 3625,
      "চডানত": 3626,
      "নটিকযাল": 3627,
      "পরাথমিক": 3628,
      "সমবনধে": 3629,
      "৯৫৫৪২০৬": 3630,
      "০১৭১৬০৯৯০০৩": 3631,
      "18": 3632,
      "19": 3633,
      "ad": 3634,
      "cess": 3635,
      "nse": 3636,
      "pro": 3637,
      "vide": 3638,
      "অশ": 3639,
      "অবহ": 3640,
      "অজঞ": 3641,
      "আকরমণ": 3642,
      "ইলে": 3643,
      "উত": 3644,
      "এপ": 3645,
      "ওসি": 3646,
      "কের": 3647,
      "কাব": 3648,
      "কলা": 3649,
      "কষট": 3650,
      "কপির": 3651,
      "গন": 3652,
      "গঙগ": 3653,
      "চম": 3654,
      "চোর": 3655,
      "জঞ": 3656,
      "জডে": 3657,
      "ডান": 3658,
      "তাস": 3659,
      "তাড": 3660,
      "দার": 3661,
      "দজন": 3662,
      "দষট": 3663,
      "দফা": 3664,
      "দবাই": 3665,
      "ধারা": 3666,
      "ধনয": 3667,
      "নো": 3668,
      "নকল": 3669,
      "পোর": 3670,
      "পাবে": 3671,
      "পষঠ": 3672,
      "ফাইন": 3673,
      "বাম": 3674,
      "বাল": 3675,
      "বযার": 3676,
      "বেলা": 3677,
      "ভযান": 3678,
      "ভোর": 3679,
      "ভমি": 3680,
      "ভবিষয": 3681,
      "ময": 3682,
      "মেনে": 3683,
      "রক": 3684,
      "রাই": 3685,
      "রেল": 3686,
      "রনি": 3687,
      "শনয": 3688,
      "সত": 3689,
      "০৩": 3690,
      "০৭": 3691,
      "০৮": 3692,
      "৩৬": 3693,
      "##রযে": 3694,
      "##রির": 3695,
      "##হান": 3696,
      "##তপর": 3697,
      "##তনে": 3698,
      "##তমা": 3699,
      "##মকে": 3700,
      "##মদের": 3701,
      "##জাত": 3702,
      "##বাচ": 3703,
      "##বতব": 3704,
      "##বাডি": 3705,
      "##নত": 3706,
      "##নাল": 3707,
      "##নাই": 3708,
      "##েদ": 3709,
      "##fer": 3710,
      "##ue": 3711,
      "##যই": 3712,
      "##যদধ": 3713,
      "##যতার": 3714,
      "##শব": 3715,
      "##শঙখলা": 3716,
      "##িপ": 3717,
      "##লড": 3718,
      "##লীগ": 3719,
      "##ষী": 3720,
      "##কন": 3721,
      "##দীন": 3722,
      "##দানের": 3723,
      "##সী": 3724,
      "##ডস": 3725,
      "##গিত": 3726,
      "##গরি": 3727,
      "##গগির": 3728,
      "##ধারা": 3729,
      "##ভিন": 3730,
      "##ভোগ": 3731,
      "##ণা": 3732,
      "##২৩": 3733,
      "##২৯": 3734,
      "##ঠা": 3735,
      "##ঙকর": 3736,
      "##ment": 3737,
      "##ফরম": 3738,
      "##১৫২": 3739,
      "##00": 3740,
      "##96": 3741,
      "##ve": 3742,
      "##70": 3743,
      "##োযার": 3744,
      "##োনে": 3745,
      "##ানয": 3746,
      "পরকে": 3747,
      "করআ": 3748,
      "করবো": 3749,
      "##যাজ": 3750,
      "##যাতন": 3751,
      "##যামপ": 3752,
      "##েনি": 3753,
      "##কেজ": 3754,
      "##ামার": 3755,
      "##িনদা": 3756,
      "##ালছডি": 3757,
      "বিপর": 3758,
      "বিজে": 3759,
      "নিলে": 3760,
      "##তরিক": 3761,
      "##াকত": 3762,
      "##াকট": 3763,
      "##াদি": 3764,
      "##াসথ": 3765,
      "সমদধ": 3766,
      "দেবে": 3767,
      "##িতায": 3768,
      "আমিন": 3769,
      "##বরের": 3770,
      "##করমী": 3771,
      "##ীরণ": 3772,
      "##ীরিক": 3773,
      "অনতর": 3774,
      "তারকা": 3775,
      "নাটক": 3776,
      "##াচার": 3777,
      "নেযার": 3778,
      "##টাতে": 3779,
      "##বিতর": 3780,
      "##িনিযা": 3781,
      "নিরাপ": 3782,
      "দেশটির": 3783,
      "##দরের": 3784,
      "বযসত": 3785,
      "পারব": 3786,
      "পারবে": 3787,
      "পারলে": 3788,
      "সবলপ": 3789,
      "সবামীর": 3790,
      "##রাট": 3791,
      "##রাফ": 3792,
      "বললেন": 3793,
      "মেঘ": 3794,
      "সিড": 3795,
      "কারড": 3796,
      "আসবে": 3797,
      "সরিযে": 3798,
      "2013": 3799,
      "বিভাগে": 3800,
      "নিযেই": 3801,
      "নিযেছেন": 3802,
      "নামক": 3803,
      "##জিং": 3804,
      "দিচ": 3805,
      "##ডিং": 3806,
      "মানের": 3807,
      "মানসিক": 3808,
      "পেলে": 3809,
      "কেমন": 3810,
      "কাউন": 3811,
      "মহালছডি": 3812,
      "মাথায": 3813,
      "মাষটার": 3814,
      "আইসিস": 3815,
      "থাকায": 3816,
      "ইসির": 3817,
      "রাজনীতি": 3818,
      "##তযাগ": 3819,
      "করেননি": 3820,
      "ভারসাম": 3821,
      "শিব": 3822,
      "শিখ": 3823,
      "শিগগির": 3824,
      "সামরিক": 3825,
      "কিছই": 3826,
      "তাছাডা": 3827,
      "সংসদে": 3828,
      "সংসথার": 3829,
      "বাসিনদা": 3830,
      "সমপাদকের": 3831,
      "দলকে": 3832,
      "সথাযী": 3833,
      "সথগিত": 3834,
      "এখনো": 3835,
      "কলাশ": 3836,
      "কলযাণ": 3837,
      "পরতযে": 3838,
      "রোজ": 3839,
      "অবসর": 3840,
      "##কিং": 3841,
      "আশরয": 3842,
      "নারীদের": 3843,
      "##ভারে": 3844,
      "পরীকষারথ": 3845,
      "পিবিএকস": 3846,
      "##গলোকে": 3847,
      "##নীতির": 3848,
      "টরফ": 3849,
      "##যানডের": 3850,
      "বিষযক": 3851,
      "পারেনি": 3852,
      "পারেননি": 3853,
      "অযাকাউন": 3854,
      "জানিযেছে": 3855,
      "নৌকা": 3856,
      "আদালতের": 3857,
      "উননযনের": 3858,
      "লকষযে": 3859,
      "নেতাদের": 3860,
      "##ovem": 3861,
      "##তোষ": 3862,
      "শিশকে": 3863,
      "দশমিক": 3864,
      "শধমাতর": 3865,
      "##৭১১": 3866,
      "##বনধন": 3867,
      "লাগে": 3868,
      "পৌছ": 3869,
      "ফটবলের": 3870,
      "আইনজীব": 3871,
      "আইনশঙখলা": 3872,
      "পাশের": 3873,
      "৯৫৮৭": 3874,
      "বযাংক": 3875,
      "খেতে": 3876,
      "সপেন": 3877,
      "##ফিকল": 3878,
      "inf": 3879,
      "কলেজের": 3880,
      "##াইকেল": 3881,
      "খেলোযা": 3882,
      "জারমান": 3883,
      "পরসতত": 3884,
      "ভারতীয": 3885,
      "যবক": 3886,
      "যবকের": 3887,
      "শাহজ": 3888,
      "সোনার": 3889,
      "মেযেদের": 3890,
      "অবশেষে": 3891,
      "চাপা": 3892,
      "ছাতরলীগের": 3893,
      "এছাডাও": 3894,
      "বাদী": 3895,
      "ভিততি": 3896,
      "মাদক": 3897,
      "সরবশেষ": 3898,
      "৯৫৫০৮": 3899,
      "গবেষক": 3900,
      "জিযাকে": 3901,
      "ইংরে": 3902,
      "##উদদীন": 3903,
      "কারযালযে": 3904,
      "বিনামল": 3905,
      "ইনটারন": 3906,
      "উললেখয": 3907,
      "##খানায": 3908,
      "রাজধানী": 3909,
      "ফেসবকে": 3910,
      "অবশযই": 3911,
      "কাদেরের": 3912,
      "##ack": 3913,
      "শামস": 3914,
      "হালকা": 3915,
      "পরযাযে": 3916,
      "সংগঠন": 3917,
      "সংগঠনের": 3918,
      "নৌযানের": 3919,
      "##৯৩২৪": 3920,
      "লিমিটেড": 3921,
      "##বনদি": 3922,
      "##পাশে": 3923,
      "গাডির": 3924,
      "##ততেজ": 3925,
      "সমনবয": 3926,
      "রেজিসটরেশন": 3927,
      "তরিপর": 3928,
      "শারীরিক": 3929,
      "সবিধা": 3930,
      "##৩০২": 3931,
      "পরাকতিক": 3932,
      "গঠন": 3933,
      "বীজ": 3934,
      "রশীদ": 3935,
      "পেছনে": 3936,
      "লকষমীপর": 3937,
      "অঞচলের": 3938,
      "মদরিত": 3939,
      "##load": 3940,
      "লিখিত": 3941,
      "আধনিক": 3942,
      "টেলিভি": 3943,
      "রাশিযান": 3944,
      "বিবরণ": 3945,
      "নিষিদধ": 3946,
      "সমাবেশ": 3947,
      "পরশংসা": 3948,
      "ফরিদপর": 3949,
      "খরিসটান": 3950,
      "সৈযদ": 3951,
      "esse": 3952,
      "ডিজাইন": 3953,
      "পথিবীর": 3954,
      "ভরমণ": 3955,
      "মাগরা": 3956,
      "যমনা": 3957,
      "মিযানমারের": 3958,
      "পৌরসভার": 3959,
      "more": 3960,
      "ছডিযে": 3961,
      "দরিদর": 3962,
      "নবাযন": 3963,
      "পশচিম": 3964,
      "৯৪৯৩২৪": 3965,
      "আমদানি": 3966,
      "মিউজিক": 3967,
      "ভারজিনিযা": 3968,
      "সামরাজয": 3969,
      "ডাউনলোড": 3970,
      "পরযবেকষ": 3971,
      "সপাইডারমযান": 3972,
      "মোবাইলঃ০১৭১১": 3973,
      "download": 3974,
      "কপিরাইট": 3975,
      "ধনযবাদ": 3976,
      "শিগগিরই": 3977,
      "৯৫৮৭৩০২": 3978,
      "৯৫৫০৮৬৭": 3979,
      "02": 3980,
      "24": 3981,
      "28": 3982,
      "53": 3983,
      "fre": 3984,
      "ma": 3985,
      "novem": 3986,
      "on": 3987,
      "pre": 3988,
      "tit": 3989,
      "অদ": 3990,
      "অবর": 3991,
      "অগন": 3992,
      "আদি": 3993,
      "আকস": 3994,
      "ইহ": 3995,
      "ইতি": 3996,
      "ইততে": 3997,
      "ঈশবর": 3998,
      "উকত": 3999,
      "উপরে": 4000,
      "উজজ": 4001,
      "এরা": 4002,
      "এএফ": 4003,
      "ওকে": 4004,
      "কপ": 4005,
      "কণ": 4006,
      "কযার": 4007,
      "কমান": 4008,
      "কথায": 4009,
      "খাগ": 4010,
      "খশি": 4011,
      "খজে": 4012,
      "খালি": 4013,
      "গল": 4014,
      "গনধ": 4015,
      "ঘরের": 4016,
      "চলের": 4017,
      "চাট": 4018,
      "চাহি": 4019,
      "ছিন": 4020,
      "ছাপ": 4021,
      "ছেলের": 4022,
      "জম": 4023,
      "টম": 4024,
      "টযা": 4025,
      "টরে": 4026,
      "টানা": 4027,
      "টাঙগ": 4028,
      "টকরো": 4029,
      "ডাই": 4030,
      "ডিম": 4031,
      "ডকম": 4032,
      "তণ": 4033,
      "দফ": 4034,
      "দমন": 4035,
      "দণড": 4036,
      "দপরে": 4037,
      "নন": 4038,
      "নায": 4039,
      "পিস": 4040,
      "পডার": 4041,
      "পজা": 4042,
      "পেরে": 4043,
      "ফাউন": 4044,
      "বক": 4045,
      "বকে": 4046,
      "বায": 4047,
      "বাশ": 4048,
      "বাবার": 4049,
      "ভট": 4050,
      "ভাডা": 4051,
      "ভমিক": 4052,
      "মণড": 4053,
      "মৎস": 4054,
      "যিনি": 4055,
      "যগম": 4056,
      "রকত": 4057,
      "রিযা": 4058,
      "রানের": 4059,
      "রচনা": 4060,
      "রাতের": 4061,
      "লই": 4062,
      "শান": 4063,
      "শতর": 4064,
      "শোনা": 4065,
      "সিস": 4066,
      "সকর": 4067,
      "সজজ": 4068,
      "হাক": 4069,
      "হেল": 4070,
      "হিনদ": 4071,
      "১০০০": 4072,
      "৩৯": 4073,
      "৩০০": 4074,
      "৫৬": 4075,
      "৫৭": 4076,
      "৭৫": 4077,
      "##াপর": 4078,
      "##তাব": 4079,
      "##মণ": 4080,
      "##জেন": 4081,
      "##জাম": 4082,
      "##ীনে": 4083,
      "##বিনে": 4084,
      "##নান": 4085,
      "##um": 4086,
      "##শী": 4087,
      "##শরম": 4088,
      "##sra": 4089,
      "##tar": 4090,
      "##িদ": 4091,
      "##িতি": 4092,
      "##িষট": 4093,
      "##পথ": 4094,
      "##পণ": 4095,
      "##পাডা": 4096,
      "##চী": 4097,
      "##চিত": 4098,
      "##ষিক": 4099,
      "##কটের": 4100,
      "##দত": 4101,
      "##দির": 4102,
      "##সয": 4103,
      "##সান": 4104,
      "##সাল": 4105,
      "##সেল": 4106,
      "##সীম": 4107,
      "##টকে": 4108,
      "##টটি": 4109,
      "##ছাই": 4110,
      "##উর": 4111,
      "##উনি": 4112,
      "##৩৫": 4113,
      "##গড": 4114,
      "##গো": 4115,
      "##ধিক": 4116,
      "##খিক": 4117,
      "##৭২": 4118,
      "##২৭": 4119,
      "##ঘাতে": 4120,
      "##rou": 4121,
      "##ck": 4122,
      "##ফার": 4123,
      "##ফটি": 4124,
      "##ফাক": 4125,
      "##ফনের": 4126,
      "##ol": 4127,
      "##এইচ": 4128,
      "##ঝিল": 4129,
      "##োক": 4130,
      "##যাতর": 4131,
      "##যাদি": 4132,
      "##াময": 4133,
      "##ালীর": 4134,
      "বিগত": 4135,
      "##তিতব": 4136,
      "##টিই": 4137,
      "##টিফি": 4138,
      "নিচছে": 4139,
      "নিচে": 4140,
      "##াইজ": 4141,
      "##াদন": 4142,
      "##াদান": 4143,
      "সমবায": 4144,
      "##পরয": 4145,
      "##াজিল": 4146,
      "##কষয": 4147,
      "##াগে": 4148,
      "##বরাহ": 4149,
      "##াডের": 4150,
      "##বারিক": 4151,
      "##াপের": 4152,
      "##করন": 4153,
      "অনরধব": 4154,
      "তারে": 4155,
      "তারই": 4156,
      "সেসব": 4157,
      "সেকরে": 4158,
      "সেকেন": 4159,
      "পরিণ": 4160,
      "নেতব": 4161,
      "যেভাবে": 4162,
      "নিরযাতন": 4163,
      "আরজেনট": 4164,
      "জানি": 4165,
      "জানাল": 4166,
      "পারকের": 4167,
      "সবতব": 4168,
      "বললাম": 4169,
      "মেগ": 4170,
      "মেজর": 4171,
      "##টেবল": 4172,
      "মোস": 4173,
      "মোটর": 4174,
      "এরকম": 4175,
      "উপদ": 4176,
      "উপায": 4177,
      "কারো": 4178,
      "##নদা": 4179,
      "আসার": 4180,
      "বাতি": 4181,
      "বাছাই": 4182,
      "##লাভ": 4183,
      "সরয": 4184,
      "সরবরাহ": 4185,
      "##মাকে": 4186,
      "##েষটার": 4187,
      "গরম": 4188,
      "গরতর": 4189,
      "গরাহ": 4190,
      "গরযানড": 4191,
      "গরপের": 4192,
      "##িযায": 4193,
      "##কতিক": 4194,
      "শরী": 4195,
      "শরীয": 4196,
      "শরদধা": 4197,
      "বিশাল": 4198,
      "বিশিষট": 4199,
      "অভিনয": 4200,
      "##গরী": 4201,
      "##গরহণ": 4202,
      "বরাবর": 4203,
      "বরাদদ": 4204,
      "বরাজিল": 4205,
      "পাট": 4206,
      "মিলে": 4207,
      "মানে": 4208,
      "বেই": 4209,
      "বেচে": 4210,
      "কেজি": 4211,
      "কেবল": 4212,
      "কৌশল": 4213,
      "দরকার": 4214,
      "দরঘট": 4215,
      "মহামমদ": 4216,
      "মাটি": 4217,
      "আইপি": 4218,
      "থাকি": 4219,
      "ইসয": 4220,
      "ইসট": 4221,
      "সনদের": 4222,
      "সনতোষ": 4223,
      "সহায": 4224,
      "চলবে": 4225,
      "সারা": 4226,
      "সারবিক": 4227,
      "মতাম": 4228,
      "বাডছে": 4229,
      "অরডার": 4230,
      "কাজী": 4231,
      "বেশির": 4232,
      "হাসিনার": 4233,
      "যাতর": 4234,
      "এলাক": 4235,
      "নিজেই": 4236,
      "আনিস": 4237,
      "##লাইনে": 4238,
      "আজও": 4239,
      "##মপশ": 4240,
      "##ডাছডি": 4241,
      "##চেতন": 4242,
      "##াকারী": 4243,
      "যৌথ": 4244,
      "##ink": 4245,
      "অনেকটা": 4246,
      "আওযাজ": 4247,
      "যাচছেন": 4248,
      "বারি": 4249,
      "চালায": 4250,
      "##one": 4251,
      "অনযদিকে": 4252,
      "বডো": 4253,
      "##পততি": 4254,
      "শিকষাবর": 4255,
      "সাধারণত": 4256,
      "করমকরতার": 4257,
      "অধিক": 4258,
      "কনট": 4259,
      "দাযী": 4260,
      "জামিন": 4261,
      "##শিষট": 4262,
      "মাহব": 4263,
      "লাইফ": 4264,
      "শিশর": 4265,
      "ফিচার": 4266,
      "বিজঞান": 4267,
      "বিশববিদযালযে": 4268,
      "লাগবে": 4269,
      "লাগিযে": 4270,
      "হাসপাতালের": 4271,
      "ফিরতে": 4272,
      "হাওল": 4273,
      "##our": 4274,
      "ভেতরে": 4275,
      "##যেনট": 4276,
      "পেযেছেন": 4277,
      "চৌধরীর": 4278,
      "উইকেট": 4279,
      "খেলে": 4280,
      "চিৎকার": 4281,
      "সপষট": 4282,
      "মরযা": 4283,
      "উপসথাপন": 4284,
      "জারি": 4285,
      "সেনা": 4286,
      "বিচারক": 4287,
      "বিচারপতির": 4288,
      "##িসটরি": 4289,
      "বোঝ": 4290,
      "বোমা": 4291,
      "পরোড": 4292,
      "পরোপরি": 4293,
      "পরসতাব": 4294,
      "নিশচযই": 4295,
      "পরিচালিত": 4296,
      "119": 4297,
      "বঝে": 4298,
      "হযাজ": 4299,
      "হযামপশ": 4300,
      "কারযকর": 4301,
      "চাপায": 4302,
      "ঘটেছে": 4303,
      "ফেরত": 4304,
      "ফেরার": 4305,
      "মাদার": 4306,
      "##খযাত": 4307,
      "ভিডিওচিতর": 4308,
      "রাযপর": 4309,
      "##তিহাসিক": 4310,
      "ভযাবহ": 4311,
      "অযাপস": 4312,
      "কষমতাসীন": 4313,
      "গেলেন": 4314,
      "বিনোদন": 4315,
      "শতাধিক": 4316,
      "পারিবারিক": 4317,
      "উৎসব": 4318,
      "পরিযতমা": 4319,
      "উচচতা": 4320,
      "সপতাহে": 4321,
      "সপতাহের": 4322,
      "উঠেছে": 4323,
      "জোটের": 4324,
      "শিকষারথী": 4325,
      "বাণিজযিক": 4326,
      "ওরফে": 4327,
      "পরকলপের": 4328,
      "##ঞচলিক": 4329,
      "শাখা": 4330,
      "সাকষা": 4331,
      "অভিনেতরী": 4332,
      "আলোচনায": 4333,
      "কখনোই": 4334,
      "সারভিসের": 4335,
      "বগডা": 4336,
      "সেনাবাহিনী": 4337,
      "গাডিতে": 4338,
      "##pping": 4339,
      "সহযোগিতা": 4340,
      "ভিযেতনামের": 4341,
      "মজিব": 4342,
      "শফিকর": 4343,
      "যৌনকরমীরা": 4344,
      "সযারেজ": 4345,
      "যকতরাষটর": 4346,
      "যকতরাষটরের": 4347,
      "খদদেরদের": 4348,
      "হাইকোরট": 4349,
      "##বাডী": 4350,
      "নোযাখালী": 4351,
      "read": 4352,
      "আচরণ": 4353,
      "কঠিন": 4354,
      "তৎকালীন": 4355,
      "ফোরাম": 4356,
      "বিদযাল": 4357,
      "রেজাউল": 4358,
      "নেতাকরমীদের": 4359,
      "মতিঝিল": 4360,
      "রাহা": 4361,
      "সরবসবতব": 4362,
      "তোমাদের": 4363,
      "এযারলাইন": 4364,
      "জিমবাব": 4365,
      "তফসিল": 4366,
      "বযানার": 4367,
      "##উরিটি": 4368,
      "পরতিবেশী": 4369,
      "পাথর": 4370,
      "সাফলয": 4371,
      "চলাচল": 4372,
      "অধিনাযক": 4373,
      "অসটরেলিযা": 4374,
      "song": 4375,
      "গযাসের": 4376,
      "ভমিকা": 4377,
      "রশিদ": 4378,
      "শীতের": 4379,
      "সমালোচনা": 4380,
      "মোললা": 4381,
      "ঘটনাসথ": 4382,
      "video": 4383,
      "করআন": 4384,
      "বিজেপি": 4385,
      "টরফিতে": 4386,
      "ইংরেজি": 4387,
      "বিনামলযে": 4388,
      "november": 4389,
      "ইততেফাক": 4390,
      "ডকমেনট": 4391,
      "ফাউনড": 4392,
      "ভমিকমপ": 4393,
      "মৎসয": 4394,
      "সিসটে": 4395,
      "সজজিত": 4396,
      "app": 4397,
      "by": 4398,
      "cap": 4399,
      "en": 4400,
      "for": 4401,
      "ha": 4402,
      "la": 4403,
      "mov": 4404,
      "msra": 4405,
      "sa": 4406,
      "অম": 4407,
      "অজ": 4408,
      "অগর": 4409,
      "অযাল": 4410,
      "আত": 4411,
      "আও": 4412,
      "আড": 4413,
      "আবেদ": 4414,
      "আঞচলিক": 4415,
      "ইর": 4416,
      "ইমর": 4417,
      "উড": 4418,
      "এগলো": 4419,
      "এটাই": 4420,
      "এজেনট": 4421,
      "ঐতিহাসিক": 4422,
      "ককষ": 4423,
      "কবর": 4424,
      "খল": 4425,
      "খনদ": 4426,
      "খানের": 4427,
      "খাতের": 4428,
      "গড": 4429,
      "গপত": 4430,
      "ঘা": 4431,
      "চব": 4432,
      "চতর": 4433,
      "চকষ": 4434,
      "চযান": 4435,
      "চলা": 4436,
      "ছর": 4437,
      "জযা": 4438,
      "জিন": 4439,
      "জবান": 4440,
      "জবাব": 4441,
      "জিজঞ": 4442,
      "ঝল": 4443,
      "টই": 4444,
      "টো": 4445,
      "টযাব": 4446,
      "ঠান": 4447,
      "ঠাণ": 4448,
      "ঠেক": 4449,
      "ঢকে": 4450,
      "তহ": 4451,
      "তির": 4452,
      "তেল": 4453,
      "তোর": 4454,
      "দধ": 4455,
      "দখ": 4456,
      "দান": 4457,
      "দপর": 4458,
      "দষটি": 4459,
      "ধন": 4460,
      "ধাক": 4461,
      "নাক": 4462,
      "নাদ": 4463,
      "পাপ": 4464,
      "পলি": 4465,
      "পিসি": 4466,
      "পবিতর": 4467,
      "ফয": 4468,
      "ফাস": 4469,
      "ফাযার": 4470,
      "বহত": 4471,
      "বোল": 4472,
      "বিনা": 4473,
      "বালি": 4474,
      "বাহিনী": 4475,
      "বদলে": 4476,
      "ভযে": 4477,
      "ভোগ": 4478,
      "মঈ": 4479,
      "মিন": 4480,
      "মরি": 4481,
      "মিনার": 4482,
      "যগে": 4483,
      "যশোর": 4484,
      "রং": 4485,
      "রকষ": 4486,
      "রটে": 4487,
      "রযাল": 4488,
      "রফিকল": 4489,
      "লক": 4490,
      "শম": 4491,
      "শাব": 4492,
      "শকত": 4493,
      "শিম": 4494,
      "শভে": 4495,
      "সবে": 4496,
      "সটর": 4497,
      "সাকিব": 4498,
      "হর": 4499,
      "হায": 4500,
      "হকের": 4501,
      "হাতের": 4502,
      "হাবি": 4503,
      "০৫": 4504,
      "১ম": 4505,
      "৩৪": 4506,
      "৪৩": 4507,
      "৪৭": 4508,
      "৭১": 4509,
      "##াযে": 4510,
      "##াভাব": 4511,
      "##াউদদিন": 4512,
      "##হতযা": 4513,
      "##হাট": 4514,
      "##হণের": 4515,
      "##তেন": 4516,
      "##তাম": 4517,
      "##মযে": 4518,
      "##মায": 4519,
      "##মীর": 4520,
      "##মালা": 4521,
      "##জায": 4522,
      "##জনে": 4523,
      "##বদন": 4524,
      "##বছরে": 4525,
      "##েট": 4526,
      "##ps": 4527,
      "##fi": 4528,
      "##যম": 4529,
      "##শার": 4530,
      "##শান": 4531,
      "##িশ": 4532,
      "##িউরিটি": 4533,
      "##লম": 4534,
      "##লীল": 4535,
      "##ওটি": 4536,
      "##চয": 4537,
      "##ষধ": 4538,
      "##কাম": 4539,
      "##কায": 4540,
      "##কতা": 4541,
      "##কামী": 4542,
      "##44": 4543,
      "##সাই": 4544,
      "##সঙগ": 4545,
      "##সটার": 4546,
      "##সাইকেল": 4547,
      "##টল": 4548,
      "##ডকে": 4549,
      "##ডযন": 4550,
      "##ছির": 4551,
      "##৬৮": 4552,
      "##৩৯": 4553,
      "##গধ": 4554,
      "##ধয": 4555,
      "##ধারণ": 4556,
      "##ভো": 4557,
      "##ভেন": 4558,
      "##খযান": 4559,
      "##be": 4560,
      "##৭৫": 4561,
      "##ণী": 4562,
      "##ণডে": 4563,
      "##ঘা": 4564,
      "##ঙকার": 4565,
      "##৮৫": 4566,
      "##oc": 4567,
      "##gin": 4568,
      "##jo": 4569,
      "##ারটের": 4570,
      "##েরপর": 4571,
      "##োকত": 4572,
      "##োষঠ": 4573,
      "##োততর": 4574,
      "##ানতের": 4575,
      "##ানমতি": 4576,
      "পরদর": 4577,
      "পরকত": 4578,
      "পরদেশ": 4579,
      "পরযোজ": 4580,
      "করিযে": 4581,
      "করলেও": 4582,
      "##যেনদা": 4583,
      "##েনড": 4584,
      "বিকাশ": 4585,
      "বিএস": 4586,
      "বিজয": 4587,
      "##তিত": 4588,
      "##বেশন": 4589,
      "নিহ": 4590,
      "নিদর": 4591,
      "নিলাম": 4592,
      "##তরি": 4593,
      "##তরিম": 4594,
      "##াকির": 4595,
      "##াকরম": 4596,
      "##াইলে": 4597,
      "##িকায": 4598,
      "##াসন": 4599,
      "একাউন": 4600,
      "সমতি": 4601,
      "করেছিল": 4602,
      "##পরযা": 4603,
      "##াহীন": 4604,
      "##াগারে": 4605,
      "##বরা": 4606,
      "##াতমক": 4607,
      "##িসহ": 4608,
      "##িসং": 4609,
      "##িসের": 4610,
      "##িসটার": 4611,
      "##াডায": 4612,
      "অনর": 4613,
      "অনসারে": 4614,
      "অনলাইনে": 4615,
      "তারেক": 4616,
      "সেবার": 4617,
      "সেমি": 4618,
      "সেকস": 4619,
      "পরিশরম": 4620,
      "সংগরাম": 4621,
      "##তাফ": 4622,
      "যেটা": 4623,
      "##কারীর": 4624,
      "##কারীরা": 4625,
      "নিরমিত": 4626,
      "##লিং": 4627,
      "আরা": 4628,
      "আরথ": 4629,
      "জানার": 4630,
      "##দরো": 4631,
      "##দরনাথ": 4632,
      "বযতি": 4633,
      "বযসে": 4634,
      "পারা": 4635,
      "পারটির": 4636,
      "সবজ": 4637,
      "সবী": 4638,
      "সবাদ": 4639,
      "সবাভাব": 4640,
      "##রাণ": 4641,
      "বলছেন": 4642,
      "##মানের": 4643,
      "##ওযাত": 4644,
      "মেযের": 4645,
      "##রিযার": 4646,
      "সিং": 4647,
      "সিমের": 4648,
      "উপযকত": 4649,
      "উপাদান": 4650,
      "কারও": 4651,
      "পরতিমা": 4652,
      "##মেই": 4653,
      "কিম": 4654,
      "কিছর": 4655,
      "কিভাবে": 4656,
      "২০০০": 4657,
      "বাফ": 4658,
      "আপলোড": 4659,
      "##যোগের": 4660,
      "##িযাল": 4661,
      "বলেই": 4662,
      "দিযেছিলেন": 4663,
      "শরণ": 4664,
      "শরো": 4665,
      "শরীল": 4666,
      "দেখন": 4667,
      "দেখি": 4668,
      "দেখলে": 4669,
      "##ষটান": 4670,
      "##ষটাল": 4671,
      "অভাব": 4672,
      "নামবার": 4673,
      "বরগ": 4674,
      "বরো": 4675,
      "বরাহ": 4676,
      "বরইন": 4677,
      "২০১৩": 4678,
      "২০১২": 4679,
      "কোচ": 4680,
      "কোথায": 4681,
      "কোষটাল": 4682,
      "##দিষট": 4683,
      "##ডিপি": 4684,
      "এসএসসি": 4685,
      "##বহার": 4686,
      "আলাদা": 4687,
      "আলবিনে": 4688,
      "কাফনের": 4689,
      "##কেরা": 4690,
      "মহিল": 4691,
      "কষক": 4692,
      "কষোভ": 4693,
      "আইনের": 4694,
      "বযাটিং": 4695,
      "রাজি": 4696,
      "##িমত": 4697,
      "করেনি": 4698,
      "ভারি": 4699,
      "গৌ": 4700,
      "চলার": 4701,
      "চলাক": 4702,
      "ধরণের": 4703,
      "হোম": 4704,
      "সমপদ": 4705,
      "বাডতি": 4706,
      "বাডডা": 4707,
      "পরেম": 4708,
      "পরেকষ": 4709,
      "পরেমের": 4710,
      "বেশীর": 4711,
      "মারা": 4712,
      "তোলা": 4713,
      "ইসলামী": 4714,
      "ইসলামের": 4715,
      "গোযেনদা": 4716,
      "##মপদ": 4717,
      "##মপলেট": 4718,
      "ইনডি": 4719,
      "ফোনের": 4720,
      "নিরবাচনকালীন": 4721,
      "কলপ": 4722,
      "পরতাহার": 4723,
      "এনসিল": 4724,
      "##সথল": 4725,
      "রাখন": 4726,
      "আপনিও": 4727,
      "মযাগ": 4728,
      "জানানো": 4729,
      "আওযামীলীগ": 4730,
      "আশে": 4731,
      "আশাবাদ": 4732,
      "আলোকে": 4733,
      "বযবসা": 4734,
      "পরথমবারের": 4735,
      "নারীর": 4736,
      "পিযার": 4737,
      "##টরিক": 4738,
      "##an70": 4739,
      "##পোরট": 4740,
      "অভিযোগের": 4741,
      "অসসথ": 4742,
      "অসতিতব": 4743,
      "কেনদরে": 4744,
      "রাউন": 4745,
      "বহন": 4746,
      "বহাল": 4747,
      "টরানস": 4748,
      "মখের": 4749,
      "##িযারী": 4750,
      "অরথনৈতিক": 4751,
      "পরবানমতি": 4752,
      "রাসতার": 4753,
      "অধীনে": 4754,
      "উননত": 4755,
      "০১৯": 4756,
      "নেতাকরম": 4757,
      "আবারও": 4758,
      "আবারো": 4759,
      "কনস": 4760,
      "বযকতিদের": 4761,
      "তৈরী": 4762,
      "১২২৯": 4763,
      "ডেমো": 4764,
      "গণফোর": 4765,
      "গণমাধয": 4766,
      "জামাযা": 4767,
      "##শিযান": 4768,
      "##ফাযেল": 4769,
      "ফিটনে": 4770,
      "সাইটের": 4771,
      "মিলন": 4772,
      "হাসপাতাল": 4773,
      "পাচটি": 4774,
      "পাচছে": 4775,
      "ফটো": 4776,
      "ফিরিযে": 4777,
      "শহরে": 4778,
      "শহীদ": 4779,
      "##ভিউ": 4780,
      "##চছক": 4781,
      "কালি": 4782,
      "ভাইস": 4783,
      "ভাইরাস": 4784,
      "সটোরে": 4785,
      "##যেনটি": 4786,
      "নিযকত": 4787,
      "খেযে": 4788,
      "তেজ": 4789,
      "চিতর": 4790,
      "বৈশিষট": 4791,
      "মরতি": 4792,
      "পরসঙগে": 4793,
      "সিটিজেন": 4794,
      "পদতযাগ": 4795,
      "রাননা": 4796,
      "##হেত": 4797,
      "সোনম": 4798,
      "সোনাগা": 4799,
      "##ংসতা": 4800,
      "মনোনযনপতর": 4801,
      "পাযের": 4802,
      "বকতবযে": 4803,
      "##টাইম": 4804,
      "চটটগরামে": 4805,
      "বেরিযে": 4806,
      "ভরাময": 4807,
      "পাবলিক": 4808,
      "উদবতত": 4809,
      "129": 4810,
      "হেফাজ": 4811,
      "নমবরের": 4812,
      "রোগের": 4813,
      "শরেষঠ": 4814,
      "##idad": 4815,
      "জনগোষঠ": 4816,
      "গবেষণ": 4817,
      "ছাডাই": 4818,
      "ছাডপতর": 4819,
      "নগরীর": 4820,
      "মানবতা": 4821,
      "টাইম": 4822,
      "টাইগার": 4823,
      "দিলেন": 4824,
      "ভাবেই": 4825,
      "##মোহর": 4826,
      "নিউজিল": 4827,
      "কারযালযের": 4828,
      "কাপের": 4829,
      "পযাকেজ": 4830,
      "মনিরল": 4831,
      "মসজিদের": 4832,
      "কিংবদন": 4833,
      "জাযগা": 4834,
      "বাহিরে": 4835,
      "##age": 4836,
      "পরণাঙগ": 4837,
      "পরবেশের": 4838,
      "করপোরেশন": 4839,
      "মযাচেই": 4840,
      "133": 4841,
      "138": 4842,
      "পরযালো": 4843,
      "ইতিহাসের": 4844,
      "সিলভার": 4845,
      "সাংবাদিকদের": 4846,
      "017": 4847,
      "সতযি": 4848,
      "##৯৩৫১": 4849,
      "##ামলক": 4850,
      "কোমপানীর": 4851,
      "উদবোধনী": 4852,
      "141": 4853,
      "তলতে": 4854,
      "বগডার": 4855,
      "সফরে": 4856,
      "দঃখ": 4857,
      "হমকি": 4858,
      "##গলির": 4859,
      "অভযনতরীন": 4860,
      "বাসতবায": 4861,
      "পনরায": 4862,
      "ইযাবা": 4863,
      "জররি": 4864,
      "তাকিযে": 4865,
      "মডেলের": 4866,
      "মজিবর": 4867,
      "শনানি": 4868,
      "শফিকল": 4869,
      "সপরশ": 4870,
      "শরীরে": 4871,
      "আকরাম": 4872,
      "গাইড": 4873,
      "বোরড": 4874,
      "বদরল": 4875,
      "সখবর": 4876,
      "হাইকোরটের": 4877,
      "বিতরক": 4878,
      "করমকাণডের": 4879,
      "বিপলব": 4880,
      "চোখের": 4881,
      "কমপিউটারের": 4882,
      "ভোটের": 4883,
      "##aper": 4884,
      "##hman70": 4885,
      "সমভাবনা": 4886,
      "আমেরিকা": 4887,
      "নেতারা": 4888,
      "চলনবিল": 4889,
      "বিসফোরক": 4890,
      "০১৭১১৯৩৫১": 4891,
      "যনতর": 4892,
      "##ঙঘন": 4893,
      "বিদযৎ": 4894,
      "যেকোনো": 4895,
      "বৈঠক": 4896,
      "রোহিঙগাদের": 4897,
      "https": 4898,
      "ইমেইলঃ": 4899,
      "162": 4900,
      "phone": 4901,
      "অপেকষা": 4902,
      "সিকিউরিটি": 4903,
      "৮৪৩২৩": 4904,
      "দোকানে": 4905,
      "আলহাজব": 4906,
      "দরশকদের": 4907,
      "##ences": 4908,
      "সাহিতয": 4909,
      "ইকবাল": 4910,
      "জহিরল": 4911,
      "খরিষটান": 4912,
      "পশচি": 4913,
      "পজিবাজার": 4914,
      "যথেষট": 4915,
      "লেনদেনের": 4916,
      "পরাজিত": 4917,
      "পরতিরকষা": 4918,
      "পরতিবেদক": 4919,
      "ইনটারনেট": 4920,
      "সবীকারোকতিমলক": 4921,
      "ইলেকটর": 4922,
      "বযারিসটার": 4923,
      "মযমনসিংহ": 4924,
      "##ferences": 4925,
      "##যদধের": 4926,
      "পারবতয": 4927,
      "কাউনসিল": 4928,
      "রোজগার": 4929,
      "সামরাজযবাদের": 4930,
      "preferences": 4931,
      "অবরোধ": 4932,
      "আকসা": 4933,
      "উজজবল": 4934,
      "খাগডাছডি": 4935,
      "চাহিদা": 4936,
      "ছিনতাই": 4937,
      "টাঙগাইল": 4938,
      "তণমল": 4939,
      "পরিণত": 4940,
      "নেতবনদ": 4941,
      "সবতবাধিকার": 4942,
      "এলাকাবাস": 4943,
      "বারিধারা": 4944,
      "কনটেনট": 4945,
      "হাওলাদার": 4946,
      "মরযাদা": 4947,
      "পরোডাকট": 4948,
      "মাদারীপর": 4949,
      "এযারলাইনসের": 4950,
      "msrahman70": 4951,
      "খনদকার": 4952,
      "চতরথ": 4953,
      "ছরিকা": 4954,
      "জবানবনদি": 4955,
      "জিজঞাস": 4956,
      "ঠাণডা": 4957,
      "মিনারেল": 4958,
      "শভেচছা": 4959,
      "নিলামে": 4960,
      "একাউনট": 4961,
      "সবাভাবিক": 4962,
      "এনসিলিযারী": 4963,
      "০১৭১১৯৩৫১৯৬": 4964,
      "48": 4965,
      "60": 4966,
      "al": 4967,
      "ab": 4968,
      "ac": 4969,
      "cu": 4970,
      "cns": 4971,
      "fac": 4972,
      "link": 4973,
      "no": 4974,
      "tam": 4975,
      "tim": 4976,
      "অত": 4977,
      "অল": 4978,
      "অাপ": 4979,
      "আখ": 4980,
      "আযা": 4981,
      "আযান": 4982,
      "আনার": 4983,
      "আছি": 4984,
      "আঘাত": 4985,
      "আদরশ": 4986,
      "ইতো": 4987,
      "ইফতার": 4988,
      "ইযাস": 4989,
      "উটের": 4990,
      "উততেজ": 4991,
      "এযা": 4992,
      "এএস": 4993,
      "এতো": 4994,
      "এশিযা": 4995,
      "এশিযান": 4996,
      "ঐতিহ": 4997,
      "ওযালট": 4998,
      "কব": 4999,
      "কং": 5000,
      "কই": 5001,
      "কযান": 5002,
      "কতরিম": 5003,
      "খাম": 5004,
      "খিল": 5005,
      "গডার": 5006,
      "গঠিত": 5007,
      "গগল": 5008,
      "চত": 5009,
      "চকর": 5010,
      "চালক": 5011,
      "চরম": 5012,
      "জের": 5013,
      "জযে": 5014,
      "জাল": 5015,
      "জাপ": 5016,
      "জোগ": 5017,
      "জমে": 5018,
      "জকি": 5019,
      "জসীম": 5020,
      "জাকির": 5021,
      "টার": 5022,
      "টেল": 5023,
      "টাকায": 5024,
      "টযাং": 5025,
      "ডট": 5026,
      "ডো": 5027,
      "ডোন": 5028,
      "ডেকে": 5029,
      "ডেলি": 5030,
      "তী": 5031,
      "তিত": 5032,
      "তাপ": 5033,
      "থে": 5034,
      "দত": 5035,
      "দম": 5036,
      "দপতর": 5037,
      "দতত": 5038,
      "দজনের": 5039,
      "নযন": 5040,
      "নষট": 5041,
      "নরম": 5042,
      "নীল": 5043,
      "নবী": 5044,
      "নগন": 5045,
      "নগরে": 5046,
      "পট": 5047,
      "পণ": 5048,
      "পের": 5049,
      "পেল": 5050,
      "পলা": 5051,
      "পিতার": 5052,
      "ফিন": 5053,
      "ফাল": 5054,
      "ফিল": 5055,
      "ফলো": 5056,
      "বেল": 5057,
      "বাগ": 5058,
      "বাত": 5059,
      "বরে": 5060,
      "বরা": 5061,
      "বসত": 5062,
      "বাধয": 5063,
      "ভরা": 5064,
      "ভোরে": 5065,
      "ভবনে": 5066,
      "মম": 5067,
      "মচ": 5068,
      "মেন": 5069,
      "মছে": 5070,
      "মেশ": 5071,
      "মতব": 5072,
      "মরত": 5073,
      "রস": 5074,
      "রট": 5075,
      "রিক": 5076,
      "লার": 5077,
      "শকতি": 5078,
      "শীল": 5079,
      "ষডযন": 5080,
      "সও": 5081,
      "সচ": 5082,
      "সই": 5083,
      "সিন": 5084,
      "সরে": 5085,
      "সজন": 5086,
      "সঞচ": 5087,
      "সচনা": 5088,
      "সযাম": 5089,
      "সজীব": 5090,
      "সচেতন": 5091,
      "হট": 5092,
      "হির": 5093,
      "হরি": 5094,
      "হানি": 5095,
      "হঠা": 5096,
      "০০": 5097,
      "৩৭১": 5098,
      "৪৪": 5099,
      "৫১": 5100,
      "৬৯": 5101,
      "##াথে": 5102,
      "##তাবাদ": 5103,
      "##মাল": 5104,
      "##মোর": 5105,
      "##জী": 5106,
      "##জাক": 5107,
      "##জিত": 5108,
      "##ীষ": 5109,
      "##ীণ": 5110,
      "##বগ": 5111,
      "##বাহ": 5112,
      "##বলি": 5113,
      "##বযের": 5114,
      "##fic": 5115,
      "##যব": 5116,
      "##যযার": 5117,
      "##যসত": 5118,
      "##শত": 5119,
      "##শাদ": 5120,
      "##শির": 5121,
      "##শিযে": 5122,
      "##শযাল": 5123,
      "##nt": 5124,
      "##ss": 5125,
      "##te": 5126,
      "##tu": 5127,
      "##িদের": 5128,
      "##িটাইম": 5129,
      "##পপ": 5130,
      "##পদ": 5131,
      "##পান": 5132,
      "##পনের": 5133,
      "##পদধ": 5134,
      "##পথে": 5135,
      "##পীড": 5136,
      "##লস": 5137,
      "##লিত": 5138,
      "##ওযযার": 5139,
      "##চনায": 5140,
      "##কটি": 5141,
      "##কিতে": 5142,
      "##দম": 5143,
      "##দস": 5144,
      "##দিক": 5145,
      "##দীর": 5146,
      "##দণড": 5147,
      "##দাতা": 5148,
      "##সকে": 5149,
      "##সমর": 5150,
      "##সিসি": 5151,
      "##ডেন": 5152,
      "##ডির": 5153,
      "##ছের": 5154,
      "##৬৬": 5155,
      "##৩৮": 5156,
      "##গদ": 5157,
      "##গাহ": 5158,
      "##গীর": 5159,
      "##ভিল": 5160,
      "##খা": 5161,
      "##খালী": 5162,
      "##ইিল": 5163,
      "##৭৯": 5164,
      "##ঘাতের": 5165,
      "##ain": 5166,
      "##ahm": 5167,
      "##ce": 5168,
      "##ky": 5169,
      "##ms": 5170,
      "##ফন": 5171,
      "##ফলের": 5172,
      "##om": 5173,
      "##di": 5174,
      "##এল": 5175,
      "##ies": 5176,
      "##igh": 5177,
      "##196": 5178,
      "##ারের": 5179,
      "##ানিক": 5180,
      "##ানডার": 5181,
      "##ানদা": 5182,
      "পরাপ": 5183,
      "পরাচ": 5184,
      "পরকতি": 5185,
      "পরকতির": 5186,
      "পরাতন": 5187,
      "করী": 5188,
      "করাই": 5189,
      "করিনি": 5190,
      "করতবয": 5191,
      "##যেম": 5192,
      "##েনা": 5193,
      "##েনসি": 5194,
      "##িনী": 5195,
      "##িনাকে": 5196,
      "##িনডার": 5197,
      "বিডি": 5198,
      "বিধান": 5199,
      "বিকলপ": 5200,
      "বিদরো": 5201,
      "##তিঃ": 5202,
      "নিকষে": 5203,
      "নিধন": 5204,
      "নিপীড": 5205,
      "##াকস": 5206,
      "##াইদ": 5207,
      "##িকো": 5208,
      "##িকান": 5209,
      "##াদে": 5210,
      "##াদল": 5211,
      "##াদেশ": 5212,
      "##াদণড": 5213,
      "একমাতর": 5214,
      "করেছিলেন": 5215,
      "##িলি": 5216,
      "##াবেন": 5217,
      "##াবরে": 5218,
      "##াহত": 5219,
      "##াহান": 5220,
      "জনসভ": 5221,
      "##াগরে": 5222,
      "##াগলো": 5223,
      "##াতক": 5224,
      "##াতদন": 5225,
      "##দেরও": 5226,
      "##াপে": 5227,
      "অনভ": 5228,
      "অনারস": 5229,
      "অনসন": 5230,
      "নাচ": 5231,
      "সেদিন": 5232,
      "সেগলো": 5233,
      "সেকটর": 5234,
      "পরিবেশন": 5235,
      "সংকর": 5236,
      "সংবি": 5237,
      "সংকট": 5238,
      "নেচে": 5239,
      "নেমপলেট": 5240,
      "##যানস": 5241,
      "##যানডার": 5242,
      "যেহেত": 5243,
      "##বিজ": 5244,
      "##বিযান": 5245,
      "##বিএন": 5246,
      "##েশাদার": 5247,
      "##নিযা": 5248,
      "নিরমা": 5249,
      "নিরধারণ": 5250,
      "আরন": 5251,
      "আরিফ": 5252,
      "জানন": 5253,
      "জানাতে": 5254,
      "এইসব": 5255,
      "পারট": 5256,
      "পারছেন": 5257,
      "পারভিন": 5258,
      "##াধা": 5259,
      "##াধনিক": 5260,
      "সবস": 5261,
      "সবপনের": 5262,
      "বললেই": 5263,
      "মেযা": 5264,
      "মেসি": 5265,
      "মেকস": 5266,
      "মেহে": 5267,
      "মোড": 5268,
      "সিভিল": 5269,
      "কারনে": 5270,
      "কারখানায": 5271,
      "কারাগারে": 5272,
      "##মেইন": 5273,
      "আসাদ": 5274,
      "আসছেন": 5275,
      "##টারে": 5276,
      "##কতাদের": 5277,
      "সরমা": 5278,
      "##মাতরা": 5279,
      "##ডেট": 5280,
      "##যোগী": 5281,
      "আগষট": 5282,
      "##িযাক": 5283,
      "দিযেই": 5284,
      "শরতে": 5285,
      "দেখিযে": 5286,
      "##ষটরেশন": 5287,
      "অভাবে": 5288,
      "নামাজ": 5289,
      "বরাবরে": 5290,
      "২০১৯": 5291,
      "২০১১": 5292,
      "##দিবস": 5293,
      "##জিও": 5294,
      "দিবে": 5295,
      "##ডিএ": 5296,
      "মিশন": 5297,
      "##তনী": 5298,
      "বৌ": 5299,
      "বেজে": 5300,
      "##ীনগর": 5301,
      "##ধানের": 5302,
      "##ষঠানিক": 5303,
      "সমযস": 5304,
      "দরের": 5305,
      "দরনীতির": 5306,
      "মহি": 5307,
      "সাঈ": 5308,
      "আইনি": 5309,
      "বযাটস": 5310,
      "রাজা": 5311,
      "রাজজাক": 5312,
      "সহসভ": 5313,
      "##োধী": 5314,
      "গেম": 5315,
      "চলতে": 5316,
      "সারচ": 5317,
      "হোট": 5318,
      "হোযা": 5319,
      "##িজা": 5320,
      "সমপকত": 5321,
      "বাডী": 5322,
      "বাডিযে": 5323,
      "পরেই": 5324,
      "করমীর": 5325,
      "করমচার": 5326,
      "করমরত": 5327,
      "##কষেত": 5328,
      "যাতরা": 5329,
      "আমরাও": 5330,
      "এলজি": 5331,
      "কমিল": 5332,
      "সামনের": 5333,
      "সামানয": 5334,
      "মারওযা": 5335,
      "কিছদিন": 5336,
      "কিছকষণ": 5337,
      "আনতে": 5338,
      "আনষঠানিক": 5339,
      "##গঞজে": 5340,
      "অভিযকত": 5341,
      "তাৎ": 5342,
      "ঘটছে": 5343,
      "ইনস": 5344,
      "ইনড": 5345,
      "লিঙগ": 5346,
      "সিলেকট": 5347,
      "এখনই": 5348,
      "মাসদ": 5349,
      "রহসয": 5350,
      "##জাতির": 5351,
      "মাধযম": 5352,
      "তারাও": 5353,
      "col": 5354,
      "##বাতি": 5355,
      "রোজা": 5356,
      "রোডের": 5357,
      "##দৌ": 5358,
      "সালমান": 5359,
      "সালাউদদিন": 5360,
      "##িকাংশ": 5361,
      "##টকম": 5362,
      "বনযা": 5363,
      "বারষিক": 5364,
      "রেডিও": 5365,
      "##ভারড": 5366,
      "জাতীযতাবাদ": 5367,
      "বসতে": 5368,
      "##এসই": 5369,
      "মলধন": 5370,
      "রাষটরের": 5371,
      "চালানের": 5372,
      "চালানোর": 5373,
      "টিভি": 5374,
      "ডিএসই": 5375,
      "পডন": 5376,
      "পডল": 5377,
      "পডেন": 5378,
      "পডবে": 5379,
      "পডছে": 5380,
      "বহমখী": 5381,
      "টরাই": 5382,
      "##ততরা": 5383,
      "কাছেও": 5384,
      "মোবইিল": 5385,
      "শিকষক": 5386,
      "আবলের": 5387,
      "চারজার": 5388,
      "রাসল": 5389,
      "এসেছি": 5390,
      "রিং": 5391,
      "সংবাদদাতা": 5392,
      "অধিকাংশ": 5393,
      "০১৮১": 5394,
      "০১৮৪": 5395,
      "অপরি": 5396,
      "##উজার": 5397,
      "##attar": 5398,
      "কনযা": 5399,
      "##end": 5400,
      "পাঠিযে": 5401,
      "পাঠানোর": 5402,
      "পাওযায": 5403,
      "তৈরির": 5404,
      "##শচিন": 5405,
      "ডেক": 5406,
      "##তানতরিক": 5407,
      "সোশযাল": 5408,
      "##পেকষ": 5409,
      "মাহফ": 5410,
      "মাহমদের": 5411,
      "হাজারীব": 5412,
      "বিশেষজঞ": 5413,
      "ছাফা": 5414,
      "পললী": 5415,
      "লাইন": 5416,
      "দশম": 5417,
      "দশয": 5418,
      "ফিশিং": 5419,
      "সাইজের": 5420,
      "##তীত": 5421,
      "একসএস": 5422,
      "একসাথে": 5423,
      "অধিদফ": 5424,
      "মিলনের": 5425,
      "লাগছে": 5426,
      "রেখেছে": 5427,
      "উঠতে": 5428,
      "জাহান": 5429,
      "##কলযাণ": 5430,
      "দকষি": 5431,
      "ফরান": 5432,
      "##চছিনন": 5433,
      "করমকরতাকে": 5434,
      "কালিযাক": 5435,
      "সটরি": 5436,
      "সটযানডার": 5437,
      "অংশগরহণ": 5438,
      "টেসট": 5439,
      "বযাংকিং": 5440,
      "চিকিৎসার": 5441,
      "##াইনবাবগঞজ": 5442,
      "উইনড": 5443,
      "খেযাল": 5444,
      "চিহন": 5445,
      "চিঠি": 5446,
      "আগামীকাল": 5447,
      "inter": 5448,
      "কলেজে": 5449,
      "মকতিযো": 5450,
      "সিদধারথ": 5451,
      "পরিশোধপদধ": 5452,
      "পদক": 5453,
      "পদকষেপ": 5454,
      "সডকের": 5455,
      "২৫০": 5456,
      "##ডিযামে": 5457,
      "রাষটরীয": 5458,
      "রাষটরপতি": 5459,
      "রাষটরদত": 5460,
      "গরেফতারের": 5461,
      "সতরীর": 5462,
      "মেযেকে": 5463,
      "অপেশাদার": 5464,
      "ধারায": 5465,
      "বকতবযের": 5466,
      "ভাগে": 5467,
      "ভাগয": 5468,
      "এডাতে": 5469,
      "চাপাইনবাবগঞজ": 5470,
      "পরারথীদের": 5471,
      "মোহন": 5472,
      "আলমগীর": 5473,
      "ঠিকানা": 5474,
      "লেহে": 5475,
      "##ited": 5476,
      "আতমসমর": 5477,
      "পথক": 5478,
      "মাদর": 5479,
      "##lect": 5480,
      "বিদেশে": 5481,
      "৯৫৫৩৫": 5482,
      "জীবনে": 5483,
      "নমবরে": 5484,
      "##সমেনট": 5485,
      "##াকষর": 5486,
      "##ist": 5487,
      "ভাঙার": 5488,
      "ভাঙচর": 5489,
      "শিলপী": 5490,
      "ইংলযানড": 5491,
      "কষমতাযন": 5492,
      "নারীকে": 5493,
      "সিরিজে": 5494,
      "কতজঞ": 5495,
      "চাযনা": 5496,
      "পযাডে": 5497,
      "রপানতর": 5498,
      "নরসিং": 5499,
      "নবীগঞজ": 5500,
      "ফেসবকের": 5501,
      "ততীয": 5502,
      "তততব": 5503,
      "পেশাদার": 5504,
      "ওযারলড": 5505,
      "জডিযে": 5506,
      "বিবতি": 5507,
      "বিবিসি": 5508,
      "সনধযায": 5509,
      "বাজে": 5510,
      "সিলিনডার": 5511,
      "সাতকষ": 5512,
      "শরেণির": 5513,
      "আনদোলনের": 5514,
      "পাসপোরট": 5515,
      "সৈনয": 5516,
      "সংশোধন": 5517,
      "সহজেই": 5518,
      "পরশাসন": 5519,
      "পরশাসনের": 5520,
      "তলনায": 5521,
      "রামগড": 5522,
      "লালবাতি": 5523,
      "সফট": 5524,
      "##পাশের": 5525,
      "মামনল": 5526,
      "কমিশনার": 5527,
      "ঐকযফর": 5528,
      "ঐকযবদধ": 5529,
      "রাশিযা": 5530,
      "হমাযন": 5531,
      "##ৗশলী": 5532,
      "সহযোগিতায": 5533,
      "করমসচ": 5534,
      "ভাষা": 5535,
      "ভিযেতনামে": 5536,
      "অযানডরযে": 5537,
      "আটকে": 5538,
      "বনদকয": 5539,
      "সপরিম": 5540,
      "##ঘাতী": 5541,
      "পরচলিত": 5542,
      "অনিচছক": 5543,
      "কলকাতা": 5544,
      "কলকাতার": 5545,
      "মলযবান": 5546,
      "যৌনকরমীর": 5547,
      "কযামপে": 5548,
      "উততীরণ": 5549,
      "ডাকাতি": 5550,
      "নানট": 5551,
      "পঞচম": 5552,
      "যবলীগ": 5553,
      "আরবের": 5554,
      "সহিহ": 5555,
      "সহিংসতা": 5556,
      "পলাসটিক": 5557,
      "চলচচিতরের": 5558,
      "উৎসাহ": 5559,
      "নাসিম": 5560,
      "পাহাডের": 5561,
      "বলিউড": 5562,
      "বদরলের": 5563,
      "মেরিটাইম": 5564,
      "সানধয": 5565,
      "সঙগীত": 5566,
      "নাটয": 5567,
      "নাটোর": 5568,
      "ভালোবাসা": 5569,
      "তৎপর": 5570,
      "দবীপ": 5571,
      "##৩৩৩৯": 5572,
      "সমভাবয": 5573,
      "সিমবিযান": 5574,
      "০১৭১১৩৩৩৯": 5575,
      "কাচা": 5576,
      "কাশমির": 5577,
      "মযনাল": 5578,
      "মযনাতদন": 5579,
      "সেনটমার": 5580,
      "সিনেমা": 5581,
      "হচছেন": 5582,
      "হরতাল": 5583,
      "হরতালের": 5584,
      "বযবসাযীরা": 5585,
      "অযাডরে": 5586,
      "আকবর": 5587,
      "##োসিযে": 5588,
      "পরাপতিসথান": 5589,
      "বযবধানে": 5590,
      "বাঙালি": 5591,
      "বেডাতে": 5592,
      "১৯৯০": 5593,
      "সোহেল": 5594,
      "মৌসমী": 5595,
      "ধারাবাহিকতা": 5596,
      "দাডিযেছে": 5597,
      "গাজীপরের": 5598,
      "ওসমানী": 5599,
      "গরিব": 5600,
      "চাদপর": 5601,
      "নকশা": 5602,
      "মশফিক": 5603,
      "মঞজর": 5604,
      "রবীন": 5605,
      "বিসিবি": 5606,
      "দরবততরা": 5607,
      "হোসটিং": 5608,
      "আহমাদ": 5609,
      "পরতযকষ": 5610,
      "রেজিষটরেশন": 5611,
      "ডাকতারের": 5612,
      "উৎপাদন": 5613,
      "অজঞাত": 5614,
      "এপলিকেশন": 5615,
      "কষটের": 5616,
      "তাডাহ": 5617,
      "দষটানত": 5618,
      "পষঠা": 5619,
      "০৩১": 5620,
      "পরকৌশলী": 5621,
      "বিপরীতে": 5622,
      "নিরাপদ": 5623,
      "অযাকাউনট": 5624,
      "জারমানির": 5625,
      "শাহজালাল": 5626,
      "ইনটারনযাশনাল": 5627,
      "তরিপরা": 5628,
      "টেলিভিশন": 5629,
      "tits": 5630,
      "অদভত": 5631,
      "আদিবাসী": 5632,
      "এএফপি": 5633,
      "কযারিযার": 5634,
      "হাকিম": 5635,
      "##মণবাড": 5636,
      "তারেকের": 5637,
      "সেকরেটারি": 5638,
      "মেগাহার": 5639,
      "উপদেষটা": 5640,
      "শরীযতপর": 5641,
      "বেইজিং": 5642,
      "ইসযতে": 5643,
      "হযামপশাযার": 5644,
      "সাকষাৎকার": 5645,
      "জিমবাবযে": 5646,
      "songs": 5647,
      "সিসটেম": 5648,
      "law": 5649,
      "saf": 5650,
      "আওতায": 5651,
      "চববিশ": 5652,
      "চযানেল": 5653,
      "টইটার": 5654,
      "ঠানডা": 5655,
      "পিসিপি": 5656,
      "বহততর": 5657,
      "মঈন": 5658,
      "রযালী": 5659,
      "শমসের": 5660,
      "সটরাই": 5661,
      "##ভোকেট": 5662,
      "নিহতের": 5663,
      "##পরযাযে": 5664,
      "আরথিক": 5665,
      "বরাহমণবাড": 5666,
      "ডেমোকরে": 5667,
      "গণফোরাম": 5668,
      "জামাযাতের": 5669,
      "ফিটনেস": 5670,
      "তেজগাও": 5671,
      "বৈশিষটয": 5672,
      "phoneky": 5673,
      "কাউনসিলর": 5674,
      "tamil": 5675,
      "time": 5676,
      "ইতোমধযে": 5677,
      "ঐতিহয": 5678,
      "খিলকষেত": 5679,
      "জকিগঞজ": 5680,
      "জসীমউদদীন": 5681,
      "ডোমেইন": 5682,
      "ডেলিভার": 5683,
      "তীবর": 5684,
      "বরাউজার": 5685,
      "মমবাই": 5686,
      "ষডযনতর": 5687,
      "হিরো": 5688,
      "হঠাৎ": 5689,
      "নিকষেপের": 5690,
      "সংবিধান": 5691,
      "নিরমাণের": 5692,
      "মেকসিকো": 5693,
      "বযাটসমযান": 5694,
      "সহসভাপতি": 5695,
      "মোবইিলঃ": 5696,
      "সটযানডারড": 5697,
      "intern": 5698,
      "পরিশোধপদধতিঃ": 5699,
      "৯৫৫৩৫৮৪": 5700,
      "০১৭১১৩৩৩৯৮১": 5701,
      "পরাপতিসথানঃ": 5702,
      "25": 5703,
      "30": 5704,
      "am": 5705,
      "bun": 5706,
      "cer": 5707,
      "dat": 5708,
      "dem": 5709,
      "four": 5710,
      "grou": 5711,
      "hd": 5712,
      "kal": 5713,
      "pr": 5714,
      "pm": 5715,
      "pack": 5716,
      "so": 5717,
      "sam": 5718,
      "tw": 5719,
      "vi": 5720,
      "vir": 5721,
      "wh": 5722,
      "wind": 5723,
      "web": 5724,
      "অযার": 5725,
      "অমান": 5726,
      "অষট": 5727,
      "অদি": 5728,
      "অতযা": 5729,
      "অবল": 5730,
      "অসব": 5731,
      "অসথ": 5732,
      "অঞচল": 5733,
      "অকষয": 5734,
      "আলে": 5735,
      "আকরানত": 5736,
      "ইজ": 5737,
      "ইট": 5738,
      "ইমদ": 5739,
      "ইভি": 5740,
      "ইঙক": 5741,
      "ইলম": 5742,
      "ঈদের": 5743,
      "ঈদে": 5744,
      "উর": 5745,
      "উরধ": 5746,
      "এজ": 5747,
      "এদিন": 5748,
      "এবারের": 5749,
      "ওদের": 5750,
      "ওযান": 5751,
      "ওরা": 5752,
      "ওভারে": 5753,
      "কায": 5754,
      "কাধ": 5755,
      "কঞজ": 5756,
      "কালে": 5757,
      "কলাম": 5758,
      "ককষে": 5759,
      "কবল": 5760,
      "কাসট": 5761,
      "খজ": 5762,
      "খন": 5763,
      "খস": 5764,
      "খযা": 5765,
      "খায": 5766,
      "খাত": 5767,
      "খাচ": 5768,
      "খলি": 5769,
      "গদ": 5770,
      "গডা": 5771,
      "গলায": 5772,
      "ঘমর": 5773,
      "ঘরাণ": 5774,
      "চপ": 5775,
      "চাচ": 5776,
      "চোট": 5777,
      "ছহী": 5778,
      "জজ": 5779,
      "জং": 5780,
      "জাস": 5781,
      "জোন": 5782,
      "জরি": 5783,
      "জবল": 5784,
      "জাকার": 5785,
      "ঝিন": 5786,
      "ঝাকে": 5787,
      "টা": 5788,
      "টস": 5789,
      "টরি": 5790,
      "টিম": 5791,
      "টিকা": 5792,
      "টেনে": 5793,
      "ঠো": 5794,
      "ডাট": 5795,
      "ঢক": 5796,
      "ঢোক": 5797,
      "তাম": 5798,
      "তাগ": 5799,
      "তাত": 5800,
      "তথা": 5801,
      "তাডা": 5802,
      "থার": 5803,
      "দদ": 5804,
      "দঢ": 5805,
      "দটির": 5806,
      "দারণ": 5807,
      "দশচিন": 5808,
      "নট": 5809,
      "নই": 5810,
      "নযা": 5811,
      "নীর": 5812,
      "নযায": 5813,
      "নবাবগঞজ": 5814,
      "নযাশনাল": 5815,
      "পত": 5816,
      "পঃ": 5817,
      "পেন": 5818,
      "পলে": 5819,
      "পযার": 5820,
      "পাগ": 5821,
      "পাকা": 5822,
      "পতন": 5823,
      "পাডা": 5824,
      "পডা": 5825,
      "পযেনট": 5826,
      "ফা": 5827,
      "ফজল": 5828,
      "ফোনে": 5829,
      "বউ": 5830,
      "বথ": 5831,
      "বীর": 5832,
      "বেকে": 5833,
      "বযাল": 5834,
      "বোধ": 5835,
      "বংশ": 5836,
      "বটিশ": 5837,
      "বষটির": 5838,
      "বাপের": 5839,
      "বজায": 5840,
      "ভী": 5841,
      "ভাস": 5842,
      "ভৈর": 5843,
      "ভানডার": 5844,
      "মদ": 5845,
      "মনি": 5846,
      "মেলার": 5847,
      "মাইন": 5848,
      "যকতি": 5849,
      "যদধে": 5850,
      "রজ": 5851,
      "রয": 5852,
      "রিল": 5853,
      "রঙগ": 5854,
      "রসল": 5855,
      "লম": 5856,
      "লিন": 5857,
      "লনড": 5858,
      "শা": 5859,
      "শয": 5860,
      "শল": 5861,
      "শং": 5862,
      "শযা": 5863,
      "শিযা": 5864,
      "শাহী": 5865,
      "শটিং": 5866,
      "শোভ": 5867,
      "ষষঠ": 5868,
      "সঃ": 5869,
      "সের": 5870,
      "সাক": 5871,
      "সাদ": 5872,
      "সটার": 5873,
      "সটক": 5874,
      "সপোর": 5875,
      "সতরা": 5876,
      "সইচ": 5877,
      "সঙঘ": 5878,
      "হাড": 5879,
      "হতা": 5880,
      "হযান": 5881,
      "হিজ": 5882,
      "হবেন": 5883,
      "হতো": 5884,
      "০৯৬": 5885,
      "২টি": 5886,
      "৩য": 5887,
      "৩৮": 5888,
      "৪৯": 5889,
      "৪১": 5890,
      "৪০০": 5891,
      "৪০০০": 5892,
      "৫৩": 5893,
      "৫০০০": 5894,
      "৬৭": 5895,
      "৬টা": 5896,
      "৭৬": 5897,
      "৭৮": 5898,
      "৭০০০": 5899,
      "৮ম": 5900,
      "৮০": 5901,
      "৯২": 5902,
      "##াতি": 5903,
      "##াটা": 5904,
      "##রাম": 5905,
      "##রিন": 5906,
      "##রাল": 5907,
      "##রীর": 5908,
      "##হায": 5909,
      "##হাই": 5910,
      "##হাত": 5911,
      "##হিযা": 5912,
      "##হণে": 5913,
      "##হারা": 5914,
      "##তক": 5915,
      "##তাল": 5916,
      "##তীর": 5917,
      "##তনা": 5918,
      "##মহ": 5919,
      "##মম": 5920,
      "##মাস": 5921,
      "##জদার": 5922,
      "##জীবন": 5923,
      "##বৈ": 5924,
      "##বণ": 5925,
      "##বাগ": 5926,
      "##নচ": 5927,
      "##নক": 5928,
      "##নং": 5929,
      "##নাম": 5930,
      "##নাহ": 5931,
      "##ly": 5932,
      "##lin": 5933,
      "##po": 5934,
      "##por": 5935,
      "##ption": 5936,
      "##শিল": 5937,
      "##শিকার": 5938,
      "##st": 5939,
      "##sb": 5940,
      "##িয": 5941,
      "##িকে": 5942,
      "##পাড": 5943,
      "##পষট": 5944,
      "##পকষে": 5945,
      "##পালের": 5946,
      "##লক": 5947,
      "##লিন": 5948,
      "##লির": 5949,
      "##লাকার": 5950,
      "##ললাহ": 5951,
      "##ওন": 5952,
      "##ওসি": 5953,
      "##ওলার": 5954,
      "##চাল": 5955,
      "##চেষট": 5956,
      "##ষা": 5957,
      "##কিল": 5958,
      "##কির": 5959,
      "##কাব": 5960,
      "##কলা": 5961,
      "##কশন": 5962,
      "##কসি": 5963,
      "##দশ": 5964,
      "##দৈ": 5965,
      "##দাস": 5966,
      "##দীতে": 5967,
      "##সির": 5968,
      "##সলি": 5969,
      "##সটের": 5970,
      "##সচিব": 5971,
      "##টজ": 5972,
      "##টান": 5973,
      "##টনের": 5974,
      "##টরি": 5975,
      "##টলা": 5976,
      "##ডবলি": 5977,
      "##ছার": 5978,
      "##ছায": 5979,
      "##উই": 5980,
      "##৬৪": 5981,
      "##৬৯৯": 5982,
      "##গনী": 5983,
      "##ধব": 5984,
      "##ভাস": 5985,
      "##ভিত": 5986,
      "##ভেল": 5987,
      "##ভিযে": 5988,
      "##ভমি": 5989,
      "##খি": 5990,
      "##খার": 5991,
      "##bad": 5992,
      "##থন": 5993,
      "##থির": 5994,
      "##ইউ": 5995,
      "##ইযা": 5996,
      "##ইসি": 5997,
      "##৭৭": 5998,
      "##ৈধ": 5999,
      "##ণিক": 6000,
      "##৫৬": 6001,
      "##৯৮": 6002,
      "##৯১": 6003,
      "##২১": 6004,
      "##২৬৯৯": 6005,
      "##ঘন": 6006,
      "##ঠে": 6007,
      "##ab": 6008,
      "##ay": 6009,
      "##ah": 6010,
      "##rd": 6011,
      "##ml": 6012,
      "##ফট": 6013,
      "##ফির": 6014,
      "##day": 6015,
      "##ig": 6016,
      "##ipping": 6017,
      "##98": 6018,
      "##gy": 6019,
      "##ঃস": 6020,
      "##qu": 6021,
      "##ারন": 6022,
      "##ারড": 6023,
      "##োদ": 6024,
      "পরন": 6025,
      "পরও": 6026,
      "পরিন": 6027,
      "পরাই": 6028,
      "পরতার": 6029,
      "পরোট": 6030,
      "পরবনধ": 6031,
      "পরনো": 6032,
      "করয": 6033,
      "করো": 6034,
      "করছিলেন": 6035,
      "##যেশ": 6036,
      "##যাবে": 6037,
      "##কেও": 6038,
      "##কেটের": 6039,
      "##কেটর": 6040,
      "##ামন": 6041,
      "##ালড": 6042,
      "বিজ": 6043,
      "বিরি": 6044,
      "বিকাল": 6045,
      "বিতরণ": 6046,
      "বিআই": 6047,
      "বিদায": 6048,
      "বিআর": 6049,
      "বিরাট": 6050,
      "##াযান": 6051,
      "##টিসি": 6052,
      "##টিকের": 6053,
      "##বেগ": 6054,
      "নিম": 6055,
      "নিমন": 6056,
      "নিবেদন": 6057,
      "নিযোজ": 6058,
      "নিবনধন": 6059,
      "##াকানদা": 6060,
      "##াইযা": 6061,
      "##াইহি": 6062,
      "##াসাহিত": 6063,
      "একা": 6064,
      "একক": 6065,
      "একদিন": 6066,
      "সমান": 6067,
      "সমরণ": 6068,
      "সমমখ": 6069,
      "সমাজের": 6070,
      "সমারট": 6071,
      "সমরাট": 6072,
      "দেযাল": 6073,
      "দেবী": 6074,
      "##পরাণ": 6075,
      "##যারা": 6076,
      "##াবল": 6077,
      "##াবান": 6078,
      "##কষণে": 6079,
      "##িযেল": 6080,
      "আমন": 6081,
      "জনসং": 6082,
      "##াগরের": 6083,
      "##োনার": 6084,
      "##োনো": 6085,
      "##বরত": 6086,
      "##িসটর": 6087,
      "##িসমপদ": 6088,
      "##াডী": 6089,
      "##করণের": 6090,
      "##ীরথ": 6091,
      "অনধ": 6092,
      "অনভব": 6093,
      "নাশক": 6094,
      "হযেছি": 6095,
      "হযেছিলেন": 6096,
      "##ঙগত": 6097,
      "##ঙগার": 6098,
      "পরিযা": 6099,
      "পরিমাণ": 6100,
      "##াচি": 6101,
      "সংগ": 6102,
      "সংযকত": 6103,
      "সংখয": 6104,
      "সংবাদের": 6105,
      "##রেট": 6106,
      "##রেকস": 6107,
      "নেতরী": 6108,
      "##যানে": 6109,
      "যেটি": 6110,
      "##কারস": 6111,
      "##বিধা": 6112,
      "##নিষঠ": 6113,
      "নিরস": 6114,
      "নিরভ": 6115,
      "নিরবি": 6116,
      "নিরীকষ": 6117,
      "নিরদিষট": 6118,
      "আরক": 6119,
      "জানালে": 6120,
      "জানালা": 6121,
      "দেশি": 6122,
      "দেশেই": 6123,
      "দেশজডে": 6124,
      "##দরয": 6125,
      "করাউন": 6126,
      "বযকত": 6127,
      "বযসের": 6128,
      "বযরথ": 6129,
      "পারছি": 6130,
      "পারমাণ": 6131,
      "পারফরম": 6132,
      "##াধারণ": 6133,
      "সবাগ": 6134,
      "সবাগত": 6135,
      "সবকিছ": 6136,
      "সবাকষর": 6137,
      "##রাওযার": 6138,
      "##রাষটর": 6139,
      "হযরত": 6140,
      "বলার": 6141,
      "বললে": 6142,
      "বলছে": 6143,
      "বলকের": 6144,
      "##াকাছি": 6145,
      "মেহ": 6146,
      "মেড": 6147,
      "মেটাতে": 6148,
      "মেমোর": 6149,
      "##রিম": 6150,
      "##রিযা": 6151,
      "##রিতে": 6152,
      "মোটা": 6153,
      "মোসত": 6154,
      "মোমিন": 6155,
      "মোজাম": 6156,
      "সিটির": 6157,
      "সিদদ": 6158,
      "সিজদার": 6159,
      "এরই": 6160,
      "এরশাদ": 6161,
      "কারী": 6162,
      "কারট": 6163,
      "কারাগার": 6164,
      "কারাদণড": 6165,
      "পরতিফল": 6166,
      "পরতিবছর": 6167,
      "পরতিকরিযা": 6168,
      "আসি": 6169,
      "আসনের": 6170,
      "##টারী": 6171,
      "##টারের": 6172,
      "করতেই": 6173,
      "বাঙগ": 6174,
      "##জনকে": 6175,
      "##জনিত": 6176,
      "সরদার": 6177,
      "আগাম": 6178,
      "গরপে": 6179,
      "বলেছি": 6180,
      "##ঞজাম": 6181,
      "দিযেছি": 6182,
      "শরতাব": 6183,
      "##পিপি": 6184,
      "দোহার": 6185,
      "##মিং": 6186,
      "দেখবেন": 6187,
      "##ষটরে": 6188,
      "অভিন": 6189,
      "##গরসত": 6190,
      "মননা": 6191,
      "মনসি": 6192,
      "নামার": 6193,
      "নামছে": 6194,
      "বরজ": 6195,
      "বরজন": 6196,
      "বরডার": 6197,
      "বরহান": 6198,
      "কোষ": 6199,
      "কোড": 6200,
      "##দিখান": 6201,
      "পাতর": 6202,
      "পাছায": 6203,
      "##ডিএফ": 6204,
      "এসআই": 6205,
      "মিযার": 6206,
      "মিষটি": 6207,
      "মিজান": 6208,
      "মিশিযে": 6209,
      "মানেই": 6210,
      "মাননান": 6211,
      "উদযো": 6212,
      "উদবেগ": 6213,
      "বেতন": 6214,
      "##সিম": 6215,
      "মধযেও": 6216,
      "আলর": 6217,
      "আলীর": 6218,
      "আলতাফ": 6219,
      "আলাইহি": 6220,
      "কাটা": 6221,
      "ছিলাম": 6222,
      "মহর": 6223,
      "মহল": 6224,
      "মহেশ": 6225,
      "মহরত": 6226,
      "কষদর": 6227,
      "মাতরা": 6228,
      "সাফ": 6229,
      "সাভার": 6230,
      "সাংস": 6231,
      "আইজ": 6232,
      "আইএস": 6233,
      "থাকবেন": 6234,
      "বযাটারি": 6235,
      "সনান": 6236,
      "সনতানের": 6237,
      "সননাহ": 6238,
      "রাজবাডী": 6239,
      "ভারী": 6240,
      "সহয": 6241,
      "সহজে": 6242,
      "গেলেও": 6243,
      "চেপে": 6244,
      "সকোযা": 6245,
      "সারটিফি": 6246,
      "ধরার": 6247,
      "ধরিযে": 6248,
      "ধরমের": 6249,
      "##ওযারক": 6250,
      "কিনা": 6251,
      "##ভেট": 6252,
      "বাডার": 6253,
      "করমীরা": 6254,
      "অরজনের": 6255,
      "শিখে": 6256,
      "শিপিং": 6257,
      "অনেকের": 6258,
      "সামযিক": 6259,
      "মারাতমক": 6260,
      "সভযতার": 6261,
      "##কাতর": 6262,
      "কিছতেই": 6263,
      "আনডার": 6264,
      "আননদের": 6265,
      "পলিশে": 6266,
      "অভিভাব": 6267,
      "তোমাকে": 6268,
      "তোফাযেল": 6269,
      "##ছিলে": 6270,
      "##লাইনের": 6271,
      "পরকাশযে": 6272,
      "ইসলামকে": 6273,
      "আজবে": 6274,
      "আজকাল": 6275,
      "আজমল": 6276,
      "##িসেস": 6277,
      "##ণেই": 6278,
      "সংসর": 6279,
      "সংসকার": 6280,
      "সংসকতি": 6281,
      "লিপি": 6282,
      "বাসা": 6283,
      "বাসস": 6284,
      "বাসিনদ": 6285,
      "বাসতবে": 6286,
      "##চেঞজ": 6287,
      "সমপাদিত": 6288,
      "সমপাদনের": 6289,
      "ইউনাই": 6290,
      "দলিল": 6291,
      "বিশববযাপী": 6292,
      "মাসম": 6293,
      "মাসিক": 6294,
      "কলাব": 6295,
      "কলাবের": 6296,
      "পরদা": 6297,
      "পরদানের": 6298,
      "অবৈধ": 6299,
      "##ননত": 6300,
      "সমপরকের": 6301,
      "সমপরদায": 6302,
      "##বাও": 6303,
      "হলেই": 6304,
      "এমসি": 6305,
      "সালল": 6306,
      "সালমা": 6307,
      "আশরা": 6308,
      "আশচর": 6309,
      "আশঙকা": 6310,
      "বনয": 6311,
      "বারসেল": 6312,
      "রেকর": 6313,
      "হোসেনকে": 6314,
      "পরথমবার": 6315,
      "##মদার": 6316,
      "পিপ": 6317,
      "ভালোভাবে": 6318,
      "##টরনি": 6319,
      "মলক": 6320,
      "##নাযতনে": 6321,
      "অসম": 6322,
      "অসহায": 6323,
      "ভিজি": 6324,
      "হতযাকা": 6325,
      "চালর": 6326,
      "টিপ": 6327,
      "ডিপ": 6328,
      "ডিফ": 6329,
      "পডাশ": 6330,
      "অরথমনতরী": 6331,
      "বিষযবসত": 6332,
      "অযাটরনি": 6333,
      "পরবক": 6334,
      "চারপাশে": 6335,
      "মসা": 6336,
      "মসল": 6337,
      "মসাকে": 6338,
      "অনষঠানের": 6339,
      "সংবাদে": 6340,
      "সংবাদমাধয": 6341,
      "ধরেই": 6342,
      "অনমোদ": 6343,
      "লকষী": 6344,
      "অফিসে": 6345,
      "##atur": 6346,
      "বিমানে": 6347,
      "বিমানবনদ": 6348,
      "হামলাকার": 6349,
      "কযেকদিন": 6350,
      "অধিবেশ": 6351,
      "##ori": 6352,
      "লেখায": 6353,
      "হারে": 6354,
      "হারাম": 6355,
      "ইউনিটের": 6356,
      "কোরটের": 6357,
      "কোরবান": 6358,
      "গণতানতরিক": 6359,
      "##বিরোধী": 6360,
      "##ost": 6361,
      "##সারত": 6362,
      "চিকেন": 6363,
      "পরতিষঠা": 6364,
      "চৌদি": 6365,
      "বনধে": 6366,
      "দশকের": 6367,
      "সাইটে": 6368,
      "সাইফল": 6369,
      "একসচেঞজ": 6370,
      "ধরমযাজ": 6371,
      "উললাহ": 6372,
      "গিযেছে": 6373,
      "মিলি": 6374,
      "মিলনাযতনে": 6375,
      "##লাহি": 6376,
      "##ari": 6377,
      "রেখেছেন": 6378,
      "উঠবে": 6379,
      "কামনা": 6380,
      "কামরল": 6381,
      "জাহি": 6382,
      "হাফ": 6383,
      "হাটে": 6384,
      "হাউজ": 6385,
      "##out": 6386,
      "কেউই": 6387,
      "ফরসট": 6388,
      "ফরনট": 6389,
      "##চছাসে": 6390,
      "কালের": 6391,
      "ডাযাল": 6392,
      "ডাযাবে": 6393,
      "তলেছে": 6394,
      "তলেছেন": 6395,
      "পোড": 6396,
      "সটযাট": 6397,
      "সটযামপ": 6398,
      "অংশে": 6399,
      "ইঞজিন": 6400,
      "ভেঙগে": 6401,
      "##ed196": 6402,
      "উইলি": 6403,
      "খেসারত": 6404,
      "খালেদার": 6405,
      "বৈশ": 6406,
      "##হারের": 6407,
      "আগামীতে": 6408,
      "দেখেছি": 6409,
      "খোজ": 6410,
      "মরগে": 6411,
      "মকতির": 6412,
      "উপসথিতি": 6413,
      "খেলাধ": 6414,
      "##মরকতাদের": 6415,
      "পরসঙগত": 6416,
      "মাঝারি": 6417,
      "১৪৩": 6418,
      "১৪১": 6419,
      "##tim": 6420,
      "পরসতাবের": 6421,
      "মৌখিক": 6422,
      "অতিথির": 6423,
      "পদম": 6424,
      "পদধতিতে": 6425,
      "রানী": 6426,
      "শাহরিযার": 6427,
      "সডকে": 6428,
      "পরিষকার": 6429,
      "আরোপ": 6430,
      "পরিচালনার": 6431,
      "রাষটরপতির": 6432,
      "মনদিরে": 6433,
      "113": 6434,
      "115": 6435,
      "112": 6436,
      "117": 6437,
      "ভবনটি": 6438,
      "পাকিসত": 6439,
      "উপরের": 6440,
      "ধারালো": 6441,
      "নাজিম": 6442,
      "বাজারের": 6443,
      "হিসাবের": 6444,
      "এডকেটর": 6445,
      "চীনা": 6446,
      "চকতির": 6447,
      "চকতিতে": 6448,
      "তখনই": 6449,
      "বানিযে": 6450,
      "বানানোর": 6451,
      "বাইরের": 6452,
      "ভরতির": 6453,
      "ভরসা": 6454,
      "উদদেশে": 6455,
      "এতদিন": 6456,
      "পাবনা": 6457,
      "লাফ": 6458,
      "সীমা": 6459,
      "121": 6460,
      "আতমবিশ": 6461,
      "আতমহতযা": 6462,
      "আতমঘাতী": 6463,
      "পথচার": 6464,
      "মাদরাস": 6465,
      "লাশের": 6466,
      "হেটে": 6467,
      "সরবতর": 6468,
      "সরবাধনিক": 6469,
      "৯৫৫২৬৯৯": 6470,
      "বাবদ": 6471,
      "##rect": 6472,
      "পরতিষঠানটি": 6473,
      "মালিকদের": 6474,
      "নাগরিককে": 6475,
      "নাগরিকদের": 6476,
      "ওযাশিং": 6477,
      "ভযাট": 6478,
      "ভালবাস": 6479,
      "ভালকা": 6480,
      "##ists": 6481,
      "মানবিক": 6482,
      "ভাঙতে": 6483,
      "104": 6484,
      "ইংলিশ": 6485,
      "টাইপ": 6486,
      "টাইমস": 6487,
      "পকষের": 6488,
      "ফরিজ": 6489,
      "সাপোর": 6490,
      "সযোগয": 6491,
      "সৌনদর": 6492,
      "মযাচের": 6493,
      "কতটা": 6494,
      "পযাড": 6495,
      "##দাযিক": 6496,
      "##সংঘ": 6497,
      "##২০৪": 6498,
      "২০০৬": 6499,
      "২০০৮": 6500,
      "আননদবাজার": 6501,
      "ইছলামের": 6502,
      "জবাল": 6503,
      "জববার": 6504,
      "##কানদি": 6505,
      "##খানকার": 6506,
      "পরশনোততর": 6507,
      "পরতযাশী": 6508,
      "পরমাণিত": 6509,
      "পরাণিসমপদ": 6510,
      "##াবিধ": 6511,
      "সনদরী": 6512,
      "কলেজছা": 6513,
      "##agra": 6514,
      "সংঘরষের": 6515,
      "মিথিলার": 6516,
      "যাতরীদের": 6517,
      "অপরাধে": 6518,
      "পাখিশিকার": 6519,
      "চামডা": 6520,
      "বিনিমযে": 6521,
      "পরযাত": 6522,
      "বিবাহ": 6523,
      "বিবতিতে": 6524,
      "সনতানকে": 6525,
      "মতযদণড": 6526,
      "বাণিজযে": 6527,
      "একেএম": 6528,
      "একেবারে": 6529,
      "গহকর": 6530,
      "জেলায": 6531,
      "পরেরণ": 6532,
      "কাছাকাছি": 6533,
      "গোপনে": 6534,
      "শীরষক": 6535,
      "নথিপতর": 6536,
      "পাসতা": 6537,
      "সাকষাত": 6538,
      "তারপরও": 6539,
      "আলোচিত": 6540,
      "আলোচনার": 6541,
      "পরশাসক": 6542,
      "140": 6543,
      "কবিতার": 6544,
      "খাদয": 6545,
      "খাদিজা": 6546,
      "দাফন": 6547,
      "হাজতে": 6548,
      "152": 6549,
      "youtu": 6550,
      "তবও": 6551,
      "তবকের": 6552,
      "রবিউল": 6553,
      "রাশেদ": 6554,
      "সলতান": 6555,
      "##১২৩৮": 6556,
      "বাসতবাযন": 6557,
      "ফলাইটটি": 6558,
      "কাগজপতর": 6559,
      "কাগজহীন": 6560,
      "ভিযেতনাম": 6561,
      "তাকবীর": 6562,
      "ফারক": 6563,
      "পরষদের": 6564,
      "পরাকতন": 6565,
      "##টাফরেকস": 6566,
      "মোতাযেন": 6567,
      "কযামপের": 6568,
      "জাহাজে": 6569,
      "গঠনের": 6570,
      "চরিতর": 6571,
      "নানাবিধ": 6572,
      "বাচার": 6573,
      "জনমদিন": 6574,
      "পরিবারে": 6575,
      "বিশবকাপের": 6576,
      "গোলাপফলের": 6577,
      "জাতিসংঘ": 6578,
      "shipping": 6579,
      "অঞচলে": 6580,
      "দীপিকার": 6581,
      "নাসরিন": 6582,
      "মেরিন": 6583,
      "শোবিজ": 6584,
      "সাবধান": 6585,
      "সঙগী": 6586,
      "পরভাবশালী": 6587,
      "করমকাণড": 6588,
      "একাধিকবার": 6589,
      "নোযাখালীর": 6590,
      "উনমো": 6591,
      "উনমকত": 6592,
      "কথিত": 6593,
      "কথাসাহিত": 6594,
      "দবীপের": 6595,
      "রপতান": 6596,
      "রপতানি": 6597,
      "সমাবেশে": 6598,
      "আমেরিকান": 6599,
      "কষতিগরসত": 6600,
      "বিমানবনদরের": 6601,
      "লেগেছে": 6602,
      "তালিকাভকত": 6603,
      "united": 6604,
      "আজিজল": 6605,
      "তানজ": 6606,
      "ভকতদের": 6607,
      "শিরোন": 6608,
      "সেলিম": 6609,
      "##ook": 6610,
      "মনোযোগ": 6611,
      "মানিকগঞজ": 6612,
      "মানিকছডি": 6613,
      "দরদশা": 6614,
      "তোমরা": 6615,
      "বৈঠকে": 6616,
      "দাখিলের": 6617,
      "অপেকষ": 6618,
      "চরচা": 6619,
      "জিতেছে": 6620,
      "নীতিমালা": 6621,
      "মজমদার": 6622,
      "শানতিপরণ": 6623,
      "হিউ": 6624,
      "হইবে": 6625,
      "৮৪৩২০৪": 6626,
      "##ebook": 6627,
      "দৌল": 6628,
      "পরতিবাদে": 6629,
      "বাঙালী": 6630,
      "দোকানের": 6631,
      "ইউপিডিএফ": 6632,
      "পিছনে": 6633,
      "টরাকের": 6634,
      "সোহরাওযার": 6635,
      "ঘোষিত": 6636,
      "suahm": 6637,
      "আফগান": 6638,
      "আযোজিত": 6639,
      "আযোজনে": 6640,
      "ঈদগাহ": 6641,
      "এভাবেই": 6642,
      "ছালাতের": 6643,
      "নীচের": 6644,
      "সটেডিযামে": 6645,
      "৫৮৯": 6646,
      "মোকাব": 6647,
      "মনতরিস": 6648,
      "সিরাজদিখান": 6649,
      "ডরাইভারদের": 6650,
      "কমপলেকসে": 6651,
      "add": 6652,
      "অশলীল": 6653,
      "অবহেলা": 6654,
      "জঞান": 6655,
      "নোটিশ": 6656,
      "ভবিষযত": 6657,
      "রকমরকতাদের": 6658,
      "##১৫২১৫২": 6659,
      "##000": 6660,
      "##াচারয": 6661,
      "সিডিসি": 6662,
      "দিচছি": 6663,
      "ভারসাময": 6664,
      "ভারসামযে": 6665,
      "শিখতে": 6666,
      "পরতযেকের": 6667,
      "পরীকষারথীদের": 6668,
      "আইনজীবী": 6669,
      "খেলোযাড": 6670,
      "চাপাতির": 6671,
      "free": 6672,
      "কপিযে": 6673,
      "কমানডার": 6674,
      "চাটমোহর": 6675,
      "টরেড": 6676,
      "দফায": 6677,
      "দণডনীয": 6678,
      "##২৭৮৭": 6679,
      "##যাতরার": 6680,
      "আরজেনটিনার": 6681,
      "জানালেন": 6682,
      "মোটরসাইকেল": 6683,
      "সনতোষজনক": 6684,
      "সহাযতায": 6685,
      "মতামত": 6686,
      "বেশিরভাগ": 6687,
      "মাহবব": 6688,
      "ফাউনডেশন": 6689,
      "movies": 6690,
      "ইমরান": 6691,
      "টযাবলেট": 6692,
      "ঠেকাতে": 6693,
      "তহিন": 6694,
      "দখল": 6695,
      "নাকচ": 6696,
      "নাদিম": 6697,
      "হাবিবর": 6698,
      "##gins": 6699,
      "বিজযী": 6700,
      "অনরোধ": 6701,
      "সবীকতি": 6702,
      "মেযেরা": 6703,
      "বরোওলার": 6704,
      "কলপনা": 6705,
      "০১৯১২৩৮": 6706,
      "নেতাকরমীরা": 6707,
      "গণমাধযম": 6708,
      "##যেনটিফোর": 6709,
      "ভরামযমাণ": 6710,
      "হেফাজতে": 6711,
      "গবেষণায": 6712,
      "নিউজিলযানডের": 6713,
      "কিংবদনতি": 6714,
      "সতযিই": 6715,
      "সপরশকাতর": 6716,
      "গাইডলাইনের": 6717,
      "ইলেকটরন": 6718,
      "facebook": 6719,
      "ইযাসিন": 6720,
      "উততেজনা": 6721,
      "এযাড": 6722,
      "এএসপি": 6723,
      "ওযালটন": 6724,
      "কংগরে": 6725,
      "কযানসার": 6726,
      "চতবর": 6727,
      "ডোনালড": 6728,
      "পণযের": 6729,
      "ফালগনী": 6730,
      "শকতিশালী": 6731,
      "হানিফ": 6732,
      "করীডা": 6733,
      "##াইদহ": 6734,
      "জনসভায": 6735,
      "অনসনধান": 6736,
      "নেচেছেন": 6737,
      "নেমপলেটটি": 6738,
      "মেহেদী": 6739,
      "বৌদধ": 6740,
      "কমিললা": 6741,
      "ইনসটাফরেকস": 6742,
      "০১৮৪১৫২১৫২": 6743,
      "অপরিহার": 6744,
      "অধিদফতরের": 6745,
      "দকষিণে": 6746,
      "মকতিযোদধা": 6747,
      "নরসিংদী": 6748,
      "সফটওযযার": 6749,
      "অযানডরযেড": 6750,
      "বনদকযদধে": 6751,
      "সানধযকালীন": 6752,
      "তৎপরতা": 6753,
      "সেনটমারটিন": 6754,
      "অযাডরেস": 6755,
      "internet": 6756,
      "data": 6757,
      "virgins": 6758,
      "window": 6759,
      "অষটম": 6760,
      "অদিতি": 6761,
      "অসবীকার": 6762,
      "খজতে": 6763,
      "খযাঃ": 6764,
      "খলিফা": 6765,
      "ছহীহ": 6766,
      "ঝিনাইদহ": 6767,
      "ডাটাস": 6768,
      "ঢোকানো": 6769,
      "দদক": 6770,
      "ভৈরব": 6771,
      "রিলিজ": 6772,
      "রঙগীন": 6773,
      "লমবা": 6774,
      "লিনাকস": 6775,
      "সপোরটস": 6776,
      "সতরাং": 6777,
      "সঙঘবদধ": 6778,
      "০৯৬১২": 6779,
      "##চেষটাকারী": 6780,
      "##দৈনিক": 6781,
      "##ভিততিক": 6782,
      "পরাইভেট": 6783,
      "বিআইডবলি": 6784,
      "নিযোজিত": 6785,
      "সংখযক": 6786,
      "পারমাণবিক": 6787,
      "মোসতফা": 6788,
      "মোজামমেল": 6789,
      "সিদদিক": 6790,
      "মনসিগঞজ": 6791,
      "সাংসকতিক": 6792,
      "সারটিফিকেট": 6793,
      "ইউনাইটেড": 6794,
      "বিমানবনদরে": 6795,
      "##ed1964": 6796,
      "সৌনদরয": 6797,
      "কলেজছাতরী": 6798,
      "suahmed1964": 6799,
      "০১৯১২৩৮২৭৮৭": 6800,
      "23": 6801,
      "26": 6802,
      "33": 6803,
      "35": 6804,
      "46": 6805,
      "54": 6806,
      "55": 6807,
      "76": 6808,
      "71": 6809,
      "88": 6810,
      "85": 6811,
      "80": 6812,
      "93": 6813,
      "90": 6814,
      "92": 6815,
      "at": 6816,
      "bl": 6817,
      "bu": 6818,
      "cate": 6819,
      "di": 6820,
      "des": 6821,
      "em": 6822,
      "ex": 6823,
      "fro": 6824,
      "hind": 6825,
      "hum": 6826,
      "hour": 6827,
      "le": 6828,
      "lang": 6829,
      "mo": 6830,
      "mi": 6831,
      "man": 6832,
      "mas": 6833,
      "pl": 6834,
      "pd": 6835,
      "pur": 6836,
      "paper": 6837,
      "ru": 6838,
      "res": 6839,
      "sc": 6840,
      "s6": 6841,
      "sim": 6842,
      "sms": 6843,
      "tra": 6844,
      "tag": 6845,
      "wor": 6846,
      "wit": 6847,
      "xia": 6848,
      "অগ": 6849,
      "অাগ": 6850,
      "অযান": 6851,
      "অলি": 6852,
      "অযেল": 6853,
      "অটো": 6854,
      "অজয": 6855,
      "আযার": 6856,
      "আকার": 6857,
      "আলি": 6858,
      "আদর": 6859,
      "আলা": 6860,
      "আলোর": 6861,
      "আডাই": 6862,
      "আবিষ": 6863,
      "আকষেপ": 6864,
      "আঘাতে": 6865,
      "ইঙগ": 6866,
      "ইনি": 6867,
      "ইলি": 6868,
      "ইচছ": 6869,
      "ইহা": 6870,
      "ইলিযা": 6871,
      "ঈদল": 6872,
      "ঈগল": 6873,
      "ঋত": 6874,
      "এতি": 6875,
      "এযাল": 6876,
      "এদেশ": 6877,
      "এখানকার": 6878,
      "ঐক": 6879,
      "ওব": 6880,
      "ওপ": 6881,
      "ওজন": 6882,
      "ওভার": 6883,
      "ওএস": 6884,
      "ওমর": 6885,
      "ওষধ": 6886,
      "ঔষধ": 6887,
      "কয": 6888,
      "কস": 6889,
      "কট": 6890,
      "কবে": 6891,
      "কাদ": 6892,
      "কির": 6893,
      "কীর": 6894,
      "কলের": 6895,
      "কানে": 6896,
      "কচি": 6897,
      "কভার": 6898,
      "খতি": 6899,
      "খাস": 6900,
      "খতম": 6901,
      "খানা": 6902,
      "খালা": 6903,
      "খনড": 6904,
      "গী": 6905,
      "গতি": 6906,
      "গলা": 6907,
      "গানে": 6908,
      "গানের": 6909,
      "গযাং": 6910,
      "গপপ": 6911,
      "গাধা": 6912,
      "ঘরণ": 6913,
      "ঘষে": 6914,
      "ঘিরে": 6915,
      "চট": 6916,
      "চিত": 6917,
      "চযারি": 6918,
      "ছাদের": 6919,
      "ছডা": 6920,
      "জগ": 6921,
      "জনে": 6922,
      "জাগ": 6923,
      "জমার": 6924,
      "জযেল": 6925,
      "ঝাল": 6926,
      "টেন": 6927,
      "টযান": 6928,
      "টেই": 6929,
      "টযেনটিফোর": 6930,
      "ডিস": 6931,
      "ডেই": 6932,
      "ঢাক": 6933,
      "তযা": 6934,
      "তাজ": 6935,
      "থিন": 6936,
      "দী": 6937,
      "দযা": 6938,
      "দিত": 6939,
      "দমপ": 6940,
      "দীকষ": 6941,
      "দটো": 6942,
      "দণডের": 6943,
      "দালাল": 6944,
      "দজনে": 6945,
      "ধো": 6946,
      "ধযে": 6947,
      "ধাপ": 6948,
      "নৈ": 6949,
      "নাড": 6950,
      "নযাপ": 6951,
      "নৈতিক": 6952,
      "নাইট": 6953,
      "ননট": 6954,
      "নগদ": 6955,
      "পহ": 6956,
      "পজ": 6957,
      "পষ": 6958,
      "পাত": 6959,
      "পদের": 6960,
      "পীর": 6961,
      "পনি": 6962,
      "পীন": 6963,
      "পাইল": 6964,
      "পাডে": 6965,
      "পলেই": 6966,
      "পতিত": 6967,
      "ফন": 6968,
      "ফটে": 6969,
      "ফেলা": 6970,
      "ফাতে": 6971,
      "ফাইল": 6972,
      "ফসল": 6973,
      "বদ": 6974,
      "বনের": 6975,
      "বাকা": 6976,
      "বটে": 6977,
      "বথা": 6978,
      "বতত": 6979,
      "বজর": 6980,
      "বযানডে": 6981,
      "বশির": 6982,
      "ভটট": 6983,
      "ভীড": 6984,
      "ভইযা": 6985,
      "মঞ": 6986,
      "মগ": 6987,
      "মঠ": 6988,
      "মাপ": 6989,
      "মীর": 6990,
      "মোর": 6991,
      "মনের": 6992,
      "মাকে": 6993,
      "মেলা": 6994,
      "মশি": 6995,
      "মভি": 6996,
      "মজল": 6997,
      "মিসেস": 6998,
      "যাদ": 6999,
      "যাকে": 7000,
      "যাবার": 7001,
      "রও": 7002,
      "রথ": 7003,
      "রৈ": 7004,
      "রঙ": 7005,
      "রযা": 7006,
      "রতন": 7007,
      "রিম": 7008,
      "রাকি": 7009,
      "রীতি": 7010,
      "রংযের": 7011,
      "লযা": 7012,
      "লাদ": 7013,
      "লোগ": 7014,
      "লকস": 7015,
      "লেনস": 7016,
      "শক": 7017,
      "শভ": 7018,
      "শযে": 7019,
      "শোন": 7020,
      "শরি": 7021,
      "শফি": 7022,
      "শীত": 7023,
      "শঙখলা": 7024,
      "শাকিব": 7025,
      "শেরপর": 7026,
      "সশ": 7027,
      "সলি": 7028,
      "সতন": 7029,
      "সীল": 7030,
      "সেলি": 7031,
      "সলেট": 7032,
      "সশীল": 7033,
      "সাগরের": 7034,
      "হব": 7035,
      "হাব": 7036,
      "হলি": 7037,
      "হদা": 7038,
      "হকি": 7039,
      "হদার": 7040,
      "হিসটরি": 7041,
      "০৬": 7042,
      "০৯": 7043,
      "৩০০০": 7044,
      "৪৬": 7045,
      "৪৮": 7046,
      "৬৫": 7047,
      "৬৪": 7048,
      "৬০০": 7049,
      "৬টায": 7050,
      "৭খ": 7051,
      "৭টা": 7052,
      "৮৩": 7053,
      "৮টা": 7054,
      "৮৮৭": 7055,
      "##াঞচল": 7056,
      "##রখ": 7057,
      "##রীপর": 7058,
      "##রোপ": 7059,
      "##হতি": 7060,
      "##হিত": 7061,
      "##হাব": 7062,
      "##হরের": 7063,
      "##তনের": 7064,
      "##তীয": 7065,
      "##ততব": 7066,
      "##তানা": 7067,
      "##তাসহ": 7068,
      "##মতে": 7069,
      "##মরা": 7070,
      "##মলের": 7071,
      "##মিনে": 7072,
      "##জিযা": 7073,
      "##জজা": 7074,
      "##জিসট": 7075,
      "##বের": 7076,
      "##বলে": 7077,
      "##বপর": 7078,
      "##বাজ": 7079,
      "##বযন": 7080,
      "##বীন": 7081,
      "##বজা": 7082,
      "##বিনদ": 7083,
      "##নগর": 7084,
      "##নটের": 7085,
      "##েলে": 7086,
      "##েমবর": 7087,
      "##েজার": 7088,
      "##েকষা": 7089,
      "##lic": 7090,
      "##less": 7091,
      "##paper": 7092,
      "##fu": 7093,
      "##uage": 7094,
      "##যং": 7095,
      "##যকর": 7096,
      "##যিং": 7097,
      "##শায": 7098,
      "##শরে": 7099,
      "##শকতি": 7100,
      "##ned": 7101,
      "##news": 7102,
      "##sa": 7103,
      "##so": 7104,
      "##sw": 7105,
      "##si": 7106,
      "##sit": 7107,
      "##িযান": 7108,
      "##িতির": 7109,
      "##িদে": 7110,
      "##পী": 7111,
      "##পট": 7112,
      "##পাল": 7113,
      "##পাখ": 7114,
      "##পাতে": 7115,
      "##পণের": 7116,
      "##পনিক": 7117,
      "##পমেনট": 7118,
      "##লগন": 7119,
      "##ওর": 7120,
      "##ঞজন": 7121,
      "##চযাল": 7122,
      "##চরের": 7123,
      "##ষময": 7124,
      "##দাকে": 7125,
      "##দগধ": 7126,
      "##422": 7127,
      "##35": 7128,
      "##সটে": 7129,
      "##সাকে": 7130,
      "##সেলের": 7131,
      "##সতনী": 7132,
      "##সোসিযে": 7133,
      "##টোন": 7134,
      "##টরা": 7135,
      "##টাগর": 7136,
      "##ংকার": 7137,
      "##ংখযান": 7138,
      "##ডক": 7139,
      "##ডতে": 7140,
      "##ডেল": 7141,
      "##ডলার": 7142,
      "##ডটকম": 7143,
      "##ছো": 7144,
      "##ছডা": 7145,
      "##ছানা": 7146,
      "##উশন": 7147,
      "##উডা": 7148,
      "##গি": 7149,
      "##গকে": 7150,
      "##গিস": 7151,
      "##গমন": 7152,
      "##গপত": 7153,
      "##গঙগা": 7154,
      "##ধনের": 7155,
      "##ধনিক": 7156,
      "##ধাযক": 7157,
      "##ধাদি": 7158,
      "##ভের": 7159,
      "##ভেরা": 7160,
      "##খানা": 7161,
      "##খাট": 7162,
      "##bd": 7163,
      "##81": 7164,
      "##8422": 7165,
      "##55": 7166,
      "##থের": 7167,
      "##থান": 7168,
      "##থখলা": 7169,
      "##ইও": 7170,
      "##ইট": 7171,
      "##ণার": 7172,
      "##৫৩": 7173,
      "##৫৭": 7174,
      "##২২": 7175,
      "##ঘয": 7176,
      "##ঘটে": 7177,
      "##ঠাম": 7178,
      "##ঙকের": 7179,
      "##ঙামা": 7180,
      "##ak": 7181,
      "##az": 7182,
      "##co": 7183,
      "##ke": 7184,
      "##mation": 7185,
      "##ফরি": 7186,
      "##ফাইন": 7187,
      "##০টি": 7188,
      "##১১": 7189,
      "##op": 7190,
      "##oti": 7191,
      "##opping": 7192,
      "##de": 7193,
      "##dle": 7194,
      "##iv": 7195,
      "##16": 7196,
      "##201": 7197,
      "##go": 7198,
      "##gor": 7199,
      "##gal": 7200,
      "##আউট": 7201,
      "##ারক": 7202,
      "##েরি": 7203,
      "##োড": 7204,
      "##োতে": 7205,
      "##োটা": 7206,
      "##োতরী": 7207,
      "##োজা": 7208,
      "##ানার": 7209,
      "##ানায": 7210,
      "##াননদ": 7211,
      "##ানিতে": 7212,
      "##ানসারে": 7213,
      "পরম": 7214,
      "পরান": 7215,
      "পরোগ": 7216,
      "পরজন": 7217,
      "পরযোগ": 7218,
      "পরণে": 7219,
      "পরণের": 7220,
      "পরাপত": 7221,
      "পরসার": 7222,
      "পরসে": 7223,
      "পরানতে": 7224,
      "পরখযাত": 7225,
      "পরজাতির": 7226,
      "পররাষটর": 7227,
      "করল": 7228,
      "করের": 7229,
      "করিতে": 7230,
      "##যেব": 7231,
      "##যেষঠ": 7232,
      "##যাযন": 7233,
      "##কোর": 7234,
      "##কোরস": 7235,
      "##ামপর": 7236,
      "##িনট": 7237,
      "##ালীন": 7238,
      "##াললাহ": 7239,
      "##ালীতে": 7240,
      "##তেও": 7241,
      "বিত": 7242,
      "বিলে": 7243,
      "বিযার": 7244,
      "বিবি": 7245,
      "বিলো": 7246,
      "বিলপ": 7247,
      "বিহার": 7248,
      "বিকালে": 7249,
      "বিছানা": 7250,
      "##াযকের": 7251,
      "##টিত": 7252,
      "##টিল": 7253,
      "##টিও": 7254,
      "##টিস": 7255,
      "##টিএ": 7256,
      "##বেত": 7257,
      "##বেল": 7258,
      "##বেলা": 7259,
      "##বেষী": 7260,
      "##লেটের": 7261,
      "##লেষণ": 7262,
      "নিবার": 7263,
      "নিকষেপ": 7264,
      "##াকষণ": 7265,
      "##াইভ": 7266,
      "##াইযে": 7267,
      "##াইসিস": 7268,
      "##াইঘাট": 7269,
      "##িকাকে": 7270,
      "##িকযাল": 7271,
      "##িকভাবে": 7272,
      "##িকরণ": 7273,
      "##াদিন": 7274,
      "##াদিজ": 7275,
      "একতর": 7276,
      "একাই": 7277,
      "একদিকে": 7278,
      "একটাই": 7279,
      "একশে": 7280,
      "একদম": 7281,
      "একপরযাযে": 7282,
      "সমী": 7283,
      "সমমিল": 7284,
      "সমিতি": 7285,
      "সমকামী": 7286,
      "সমিতির": 7287,
      "সমবেত": 7288,
      "দেলো": 7289,
      "দেউল": 7290,
      "##িতের": 7291,
      "করেছিলাম": 7292,
      "##পরবে": 7293,
      "##পরবক": 7294,
      "##পরিনট": 7295,
      "##াজন": 7296,
      "##াজি": 7297,
      "##াজিন": 7298,
      "##াজডে": 7299,
      "##িলায": 7300,
      "##াবী": 7301,
      "##াবদ": 7302,
      "##াবনদ": 7303,
      "##াবধাযক": 7304,
      "##াহা": 7305,
      "##াহরণ": 7306,
      "##কষণের": 7307,
      "##কষনিক": 7308,
      "##কষিণ": 7309,
      "##নেতা": 7310,
      "জনস": 7311,
      "জনতা": 7312,
      "জনসম": 7313,
      "##াগহে": 7314,
      "##বরধ": 7315,
      "##বরগের": 7316,
      "##িসির": 7317,
      "##িসতারিত": 7318,
      "##াপতর": 7319,
      "##াপিত": 7320,
      "##াপডা": 7321,
      "##াপাডায": 7322,
      "##ীরার": 7323,
      "অনবাদ": 7324,
      "অনপাত": 7325,
      "অনশীল": 7326,
      "তারিক": 7327,
      "তারাকানদা": 7328,
      "নাযে": 7329,
      "##ঙগি": 7330,
      "##ঙগিক": 7331,
      "##ঙগিনী": 7332,
      "সেম": 7333,
      "সেটাই": 7334,
      "সেখান": 7335,
      "সেজনয": 7336,
      "পরিম": 7337,
      "পরিমান": 7338,
      "পরিচি": 7339,
      "##োগা": 7340,
      "##াচোর": 7341,
      "সংযোগ": 7342,
      "সংকরমণ": 7343,
      "সংকটের": 7344,
      "##রেজ": 7345,
      "##রেড": 7346,
      "নেবে": 7347,
      "নেহাত": 7348,
      "##যানি": 7349,
      "##যানটাম": 7350,
      "##টাও": 7351,
      "##টাকে": 7352,
      "##বিযা": 7353,
      "##বিলে": 7354,
      "##বিদধ": 7355,
      "##বিজঞ": 7356,
      "##েশবর": 7357,
      "##েশবরের": 7358,
      "##নিম": 7359,
      "##নিকে": 7360,
      "##নিউজ": 7361,
      "##িনিউজ": 7362,
      "নিরপেকষ": 7363,
      "##াশীষ": 7364,
      "##োরিযাল": 7365,
      "##োরসমেনট": 7366,
      "থেকেও": 7367,
      "##লিকে": 7368,
      "##লিতে": 7369,
      "আরাম": 7370,
      "জানযার": 7371,
      "জানাচছেন": 7372,
      "দেশী": 7373,
      "দেশীয": 7374,
      "দেশবাস": 7375,
      "দেশবযাপী": 7376,
      "##দরবয": 7377,
      "করাতে": 7378,
      "বযোজ": 7379,
      "বযকটের": 7380,
      "বযতীত": 7381,
      "পারভ": 7382,
      "পারটি": 7383,
      "পারলাম": 7384,
      "পারতো": 7385,
      "পারিনা": 7386,
      "পারশব": 7387,
      "সবজি": 7388,
      "সবদেশ": 7389,
      "##রাও": 7390,
      "হযত": 7391,
      "হযনা": 7392,
      "বলব": 7393,
      "বলগ": 7394,
      "বলকার": 7395,
      "বলগে": 7396,
      "বলযাক": 7397,
      "##মানী": 7398,
      "##মানধ": 7399,
      "##মানিক": 7400,
      "##াকাটা": 7401,
      "বিভকত": 7402,
      "মেদিন": 7403,
      "##টেক": 7404,
      "মোত": 7405,
      "মোটি": 7406,
      "মোবার": 7407,
      "মোটাম": 7408,
      "মোদির": 7409,
      "সিপি": 7410,
      "সিঙগা": 7411,
      "সিবিএন": 7412,
      "জনযও": 7413,
      "জনযই": 7414,
      "উপশ": 7415,
      "উপার": 7416,
      "উপকার": 7417,
      "উপহার": 7418,
      "উপেকষা": 7419,
      "কারি": 7420,
      "কারচ": 7421,
      "কারোর": 7422,
      "কারেনট": 7423,
      "কারওযান": 7424,
      "##মনির": 7425,
      "পরতিদ": 7426,
      "পরতিসথ": 7427,
      "পরতিজঞ": 7428,
      "পরতিপকষ": 7429,
      "পরতিশর": 7430,
      "##মেদের": 7431,
      "##মেযাদি": 7432,
      "কিউরি": 7433,
      "কিউই": 7434,
      "২০২১": 7435,
      "আসর": 7436,
      "আসল": 7437,
      "আসাম": 7438,
      "##টারস": 7439,
      "##বসতর": 7440,
      "##লাযেন": 7441,
      "আপাত": 7442,
      "##জনী": 7443,
      "সরজ": 7444,
      "সরকষা": 7445,
      "সরঞজাম": 7446,
      "##মাতে": 7447,
      "##মাঞচ": 7448,
      "##মাঙগিনী": 7449,
      "আগনে": 7450,
      "আগরাস": 7451,
      "গরর": 7452,
      "গরহণে": 7453,
      "##িযাম": 7454,
      "##ঞজয": 7455,
      "##ঞজের": 7456,
      "##ঞজারস": 7457,
      "##ালেব": 7458,
      "শরতেই": 7459,
      "শরীম": 7460,
      "শরীনগর": 7461,
      "বিশদধ": 7462,
      "বিশবস": 7463,
      "বিশলেষণ": 7464,
      "দোত": 7465,
      "দোষ": 7466,
      "দোযার": 7467,
      "মধর": 7468,
      "দেখল": 7469,
      "দেখছে": 7470,
      "দেখানোর": 7471,
      "অভিমত": 7472,
      "নামা": 7473,
      "নামতে": 7474,
      "নামায": 7475,
      "নামানসারে": 7476,
      "বরাত": 7477,
      "২০১০": 7478,
      "কোলে": 7479,
      "কোযানটাম": 7480,
      "##জিকে": 7481,
      "দিপ": 7482,
      "পাযে": 7483,
      "পাথার": 7484,
      "##ডিকে": 7485,
      "##ডিপির": 7486,
      "##ডিউল": 7487,
      "এসি": 7488,
      "##তবযে": 7489,
      "##তবিক": 7490,
      "মিঃ": 7491,
      "মিশক": 7492,
      "মিষটির": 7493,
      "মিছিলে": 7494,
      "মানিযে": 7495,
      "মাননীয": 7496,
      "##লামা": 7497,
      "উদাহরণ": 7498,
      "বেহ": 7499,
      "বেছে": 7500,
      "বেটে": 7501,
      "পেজ": 7502,
      "পেটে": 7503,
      "পেপার": 7504,
      "পেটর": 7505,
      "সমযই": 7506,
      "##াতেও": 7507,
      "কেস": 7508,
      "##সিপি": 7509,
      "আলযা": 7510,
      "আলযার": 7511,
      "কাট": 7512,
      "কাপর": 7513,
      "কাভারড": 7514,
      "দরশ": 7515,
      "দরবার": 7516,
      "দরধর": 7517,
      "দরবারের": 7518,
      "মহামার": 7519,
      "কষটে": 7520,
      "মাথা": 7521,
      "মাওল": 7522,
      "সাউ": 7523,
      "আইভীর": 7524,
      "আইওটি": 7525,
      "থাকন": 7526,
      "থাকল": 7527,
      "থাকছে": 7528,
      "থাকবো": 7529,
      "দিনই": 7530,
      "বযাগ": 7531,
      "বযাঙক": 7532,
      "বযাবহার": 7533,
      "সনত": 7534,
      "সননি": 7535,
      "সনানে": 7536,
      "সনীল": 7537,
      "রাজী": 7538,
      "রাজসব": 7539,
      "রাজীব": 7540,
      "রাজনীতির": 7541,
      "##বাদী": 7542,
      "##বাদীদের": 7543,
      "##িমালা": 7544,
      "ভারচযাল": 7545,
      "ভারথখলা": 7546,
      "সহকারে": 7547,
      "##োধে": 7548,
      "গেট": 7549,
      "গেমস": 7550,
      "চলমান": 7551,
      "চেতন": 7552,
      "চেহার": 7553,
      "চেতনা": 7554,
      "সকযার": 7555,
      "সকযান": 7556,
      "সারজন": 7557,
      "সারভার": 7558,
      "সারকলে": 7559,
      "সারাকষণ": 7560,
      "সারাদিন": 7561,
      "ধরষ": 7562,
      "ধরমানধ": 7563,
      "কিনতে": 7564,
      "##ভেজ": 7565,
      "##ভেঞজারস": 7566,
      "সমপদের": 7567,
      "সমপততি": 7568,
      "বাডতে": 7569,
      "বাডাতে": 7570,
      "পরেছেন": 7571,
      "পরেমে": 7572,
      "পরেমিক": 7573,
      "করমদিবস": 7574,
      "অরধ": 7575,
      "অরথে": 7576,
      "##কসহ": 7577,
      "##কসান": 7578,
      "##দেশিক": 7579,
      "##দেশীয": 7580,
      "শিবল": 7581,
      "শিবির": 7582,
      "অনেকা": 7583,
      "কাজটা": 7584,
      "হাসিনাকে": 7585,
      "##বাসের": 7586,
      "কমল": 7587,
      "কমডার": 7588,
      "সামলে": 7589,
      "সামগরী": 7590,
      "বিষযের": 7591,
      "##চিতরে": 7592,
      "আহসান": 7593,
      "আহমেদের": 7594,
      "মারে": 7595,
      "মারকেট": 7596,
      "সভার": 7597,
      "##কাঠ": 7598,
      "##কাটা": 7599,
      "আনসার": 7600,
      "আনতঃ": 7601,
      "আনোযার": 7602,
      "তোলেন": 7603,
      "##বলিত": 7604,
      "ইসলামিক": 7605,
      "তাও": 7606,
      "##সটল": 7607,
      "গোডাল": 7608,
      "##মপির": 7609,
      "##াইলিক": 7610,
      "সংসার": 7611,
      "সংসকারে": 7612,
      "কথাটি": 7613,
      "ইনফ": 7614,
      "ইনাম": 7615,
      "ইনকিল": 7616,
      "ইনকোরস": 7617,
      "লিঙক": 7618,
      "লিটন": 7619,
      "লিটল": 7620,
      "##ডাঙগা": 7621,
      "বাসার": 7622,
      "ইউন": 7623,
      "ইউরোপ": 7624,
      "দলগলো": 7625,
      "নিরবাচনকে": 7626,
      "মাসমের": 7627,
      "##যাপত": 7628,
      "কলম": 7629,
      "কলিন": 7630,
      "কলঙক": 7631,
      "কলাপাডায": 7632,
      "রহল": 7633,
      "ফেটে": 7634,
      "অবাক": 7635,
      "অবগত": 7636,
      "রযেল": 7637,
      "১০টি": 7638,
      "১০টা": 7639,
      "১০টায": 7640,
      "এনামল": 7641,
      "এনওসি": 7642,
      "##erk": 7643,
      "মাধযমিক": 7644,
      "cont": 7645,
      "##সথানে": 7646,
      "##এনএন": 7647,
      "##যোজনের": 7648,
      "##যোদশ": 7649,
      "রাখে": 7650,
      "রাখবে": 7651,
      "##পারসন": 7652,
      "##ংশে": 7653,
      "বিরতি": 7654,
      "বিরতিহ": 7655,
      "এমনি": 7656,
      "মযাজিসট": 7657,
      "সাললাম": 7658,
      "সালমার": 7659,
      "##কিপার": 7660,
      "সাথেই": 7661,
      "আওযামীলীগের": 7662,
      "আশঙক": 7663,
      "আশলিযা": 7664,
      "বনদর": 7665,
      "বারসার": 7666,
      "বারসা": 7667,
      "বারসাকে": 7668,
      "রেড": 7669,
      "রেটিং": 7670,
      "রেফরি": 7671,
      "রেসিপি": 7672,
      "সনদপতর": 7673,
      "##খানেক": 7674,
      "পরথমত": 7675,
      "নারি": 7676,
      "নারগিস": 7677,
      "এমনটা": 7678,
      "গরামটি": 7679,
      "গরামটির": 7680,
      "পিকে": 7681,
      "পিণড": 7682,
      "পিঠে": 7683,
      "ভালোই": 7684,
      "নেইমার": 7685,
      "##ant": 7686,
      "##and": 7687,
      "মলযে": 7688,
      "মলযাযন": 7689,
      "সদয": 7690,
      "সাধারন": 7691,
      "##িকষক": 7692,
      "অসবিধা": 7693,
      "অসাধারণ": 7694,
      "কেনা": 7695,
      "কেনার": 7696,
      "কেননা": 7697,
      "ভিতর": 7698,
      "ভিডিপি": 7699,
      "রাফ": 7700,
      "রাঙামা": 7701,
      "হতযাচেষটাকারী": 7702,
      "চালাতে": 7703,
      "চালানো": 7704,
      "চালাচছেন": 7705,
      "টিট": 7706,
      "টিউট": 7707,
      "ডিএন": 7708,
      "পডযা": 7709,
      "##onlin": 7710,
      "অনযকে": 7711,
      "অনযদের": 7712,
      "বহল": 7713,
      "বহৎ": 7714,
      "বডড": 7715,
      "কমিউনি": 7716,
      "টরেন": 7717,
      "টরেনট": 7718,
      "পরশরয": 7719,
      "সিলেটজডে": 7720,
      "মোবাইলে": 7721,
      "অরথনীতি": 7722,
      "অরথবছরে": 7723,
      "comp": 7724,
      "অযাঞজ": 7725,
      "অযামিক": 7726,
      "অযাসোসিযে": 7727,
      "অযাভেঞজারস": 7728,
      "শিকষার": 7729,
      "শিকষান": 7730,
      "পরতিনিধ": 7731,
      "সাধারণভাবে": 7732,
      "আবিস": 7733,
      "আবদস": 7734,
      "পরবীণ": 7735,
      "চারটার": 7736,
      "চারচের": 7737,
      "রাসত": 7738,
      "রিটের": 7739,
      "রিভিউ": 7740,
      "অনমতিতে": 7741,
      "পরতিনিধিদলে": 7742,
      "এনডোরসমেনট": 7743,
      "অপরে": 7744,
      "তথযপরয": 7745,
      "লোড": 7746,
      "লোহার": 7747,
      "##মতো": 7748,
      "কনঠ": 7749,
      "কনতে": 7750,
      "কনটর": 7751,
      "কনসার": 7752,
      "কনযাস": 7753,
      "রেখা": 7754,
      "রেখাচি": 7755,
      "বিমানটির": 7756,
      "পাঠান": 7757,
      "পাঠায": 7758,
      "পাঠাতে": 7759,
      "হামিদ": 7760,
      "১২টি": 7761,
      "১২৩০": 7762,
      "১২০৮": 7763,
      "##তরণা": 7764,
      "১৯৩": 7765,
      "##ored": 7766,
      "##ormation": 7767,
      "ডেভেল": 7768,
      "দাযভাগ": 7769,
      "লেখার": 7770,
      "লেখাপডা": 7771,
      "##বযবহার": 7772,
      "##শালা": 7773,
      "নামেও": 7774,
      "মামলাটি": 7775,
      "কোরট": 7776,
      "কোরিযা": 7777,
      "সোযা": 7778,
      "উততরা": 7779,
      "উততরাধিকার": 7780,
      "জামে": 7781,
      "অকটোবরে": 7782,
      "কযাডেট": 7783,
      "কযাটাগর": 7784,
      "বিশেষভাবে": 7785,
      "চিকিত": 7786,
      "পলাশ": 7787,
      "পলযাট": 7788,
      "লাইজ": 7789,
      "##গেট": 7790,
      "##ill": 7791,
      "জানাযায": 7792,
      "পরতিষঠাতা": 7793,
      "শিশটি": 7794,
      "বনধদের": 7795,
      "বনধরা": 7796,
      "দশকে": 7797,
      "দশটা": 7798,
      "ফিট": 7799,
      "ফিডলার": 7800,
      "সাইবার": 7801,
      "ধরমভীর": 7802,
      "ধরমঘটে": 7803,
      "উলটে": 7804,
      "১১টার": 7805,
      "বিজঞানের": 7806,
      "ছোটদের": 7807,
      "লাগান": 7808,
      "লাগাতে": 7809,
      "##সেকার": 7810,
      "##are": 7811,
      "##art": 7812,
      "##পরেও": 7813,
      "সকলকে": 7814,
      "কামালের": 7815,
      "জাহাঙগ": 7816,
      "পাচছি": 7817,
      "ফটোগ": 7818,
      "হাতি": 7819,
      "##ভিযান": 7820,
      "##ough": 7821,
      "বিষযেও": 7822,
      "অফিসের": 7823,
      "কালপনিক": 7824,
      "তাহসান": 7825,
      "পোষট": 7826,
      "পোসট": 7827,
      "পোষণ": 7828,
      "ভাইযের": 7829,
      "ভাইরাল": 7830,
      "সটোর": 7831,
      "সটেশন": 7832,
      "সাহে": 7833,
      "সাহস": 7834,
      "সমসযায": 7835,
      "##চিতরয": 7836,
      "গোলকিপার": 7837,
      "that": 7838,
      "এটাও": 7839,
      "বদধা": 7840,
      "বদধির": 7841,
      "ভেবে": 7842,
      "##যেনদরনাথ": 7843,
      "দেশেও": 7844,
      "পেযেছিলেন": 7845,
      "তৈরিতে": 7846,
      "চিকিৎসাধীন": 7847,
      "নিযতি": 7848,
      "উইনচ": 7849,
      "খেজর": 7850,
      "তৌ": 7851,
      "পালিত": 7852,
      "পালটা": 7853,
      "পালটে": 7854,
      "##mah": 7855,
      "পরযটক": 7856,
      "পরযটন": 7857,
      "চিপ": 7858,
      "জঙগিরা": 7859,
      "বৈষময": 7860,
      "বৈদেশিক": 7861,
      "সপিন": 7862,
      "##ধারী": 7863,
      "মরাদ": 7864,
      "মকতিযদধের": 7865,
      "খেলায": 7866,
      "গাযে": 7867,
      "গাঙগ": 7868,
      "জারসি": 7869,
      "পতরের": 7870,
      "পতরিকা": 7871,
      "পতরিকায": 7872,
      "বিকরির": 7873,
      "বিকরযের": 7874,
      "সমমেলনের": 7875,
      "সিদধির": 7876,
      "এখানেই": 7877,
      "বোমার": 7878,
      "বোলিং": 7879,
      "সদরঘাট": 7880,
      "##tive": 7881,
      "##alth": 7882,
      "পরোটা": 7883,
      "পরিশোধযোগয": 7884,
      "মৌসম": 7885,
      "ভারতবর": 7886,
      "অবসথার": 7887,
      "অতিব": 7888,
      "যবত": 7889,
      "রানদন": 7890,
      "রানারস": 7891,
      "শাহরখ": 7892,
      "##ure": 7893,
      "দেযনি": 7894,
      "পরিচালনায": 7895,
      "রাষটরপর": 7896,
      "গরেফতারকত": 7897,
      "উদধারের": 7898,
      "চাকরির": 7899,
      "চাকরীর": 7900,
      "বঝি": 7901,
      "বঝিযে": 7902,
      "যানতরিক": 7903,
      "যানবাহ": 7904,
      "সতরপাত": 7905,
      "১৩৮": 7906,
      "মেযেটির": 7907,
      "বিএনপিতে": 7908,
      "অপমান": 7909,
      "অপশন": 7910,
      "ধারনা": 7911,
      "পাযনি": 7912,
      "শিলপের": 7913,
      "হযাভেন": 7914,
      "##গাছের": 7915,
      "সবাসথযমনতরী": 7916,
      "চেযারপারসন": 7917,
      "বানর": 7918,
      "বানডেল": 7919,
      "পরারথনার": 7920,
      "##াইটস": 7921,
      "বযাপারটা": 7922,
      "যোগাযোগের": 7923,
      "জঙগিদের": 7924,
      "কষেতরেই": 7925,
      "পানিতে": 7926,
      "পানামা": 7927,
      "পাবলিকেশন": 7928,
      "লাঠি": 7929,
      "সীমিত": 7930,
      "১৬৪": 7931,
      "বিলম": 7932,
      "বিলঙ": 7933,
      "বিলাস": 7934,
      "বিলবাও": 7935,
      "উদবদধ": 7936,
      "বাডিটি": 7937,
      "125": 7938,
      "126": 7939,
      "আতমীয": 7940,
      "ডাকাত": 7941,
      "ফেরদৌ": 7942,
      "বাদা": 7943,
      "বরিজ": 7944,
      "বরিটেন": 7945,
      "ভিততিক": 7946,
      "ভোটদান": 7947,
      "মিরপরের": 7948,
      "হেসে": 7949,
      "বিদেশী": 7950,
      "বাবল": 7951,
      "বাবাকে": 7952,
      "রোগী": 7953,
      "রোগে": 7954,
      "##সমপর": 7955,
      "##গঠিত": 7956,
      "##গঠনিক": 7957,
      "নিরদেশনা": 7958,
      "গরহণযোগয": 7959,
      "##বাসীকে": 7960,
      "পরতিষঠানটির": 7961,
      "মালিকের": 7962,
      "কাননার": 7963,
      "কানাডার": 7964,
      "কানটরি": 7965,
      "কানাইঘাট": 7966,
      "ছাডার": 7967,
      "জিমেই": 7968,
      "জিযাউর": 7969,
      "মিনিটের": 7970,
      "সতরীকে": 7971,
      "সতরীদের": 7972,
      "##রশীল": 7973,
      "##ফেযার": 7974,
      "##ফোরড": 7975,
      "##ish": 7976,
      "পরিসংখযান": 7977,
      "মানবাধিকার": 7978,
      "মানববনধন": 7979,
      "ভাঙাচোর": 7980,
      "105": 7981,
      "10000": 7982,
      "অযাপল": 7983,
      "দিললি": 7984,
      "দিলীপ": 7985,
      "দিলিপ": 7986,
      "পনঃ": 7987,
      "বাকসটি": 7988,
      "ভাবেন": 7989,
      "সৌময": 7990,
      "সাংগঠনিক": 7991,
      "নারাযণগঞজের": 7992,
      "গেলাম": 7993,
      "তরান": 7994,
      "তরিকা": 7995,
      "তরযোদশ": 7996,
      "পযাক": 7997,
      "##দাযক": 7998,
      "##উললাহ": 7999,
      "##ামিং": 8000,
      "২০০৪": 8001,
      "ইনটারভিউ": 8002,
      "মসজিদ": 8003,
      "উললেখযোগয": 8004,
      "উৎপততি": 8005,
      "নরেনদর": 8006,
      "নবীর": 8007,
      "##ash": 8008,
      "পরতযাশ": 8009,
      "পরতযাশা": 8010,
      "পরতযাখযান": 8011,
      "তারিখঃ": 8012,
      "তারিখের": 8013,
      "মিডিযায": 8014,
      "মাঠের": 8015,
      "বিরোধের": 8016,
      "##angbad": 8017,
      "ততই": 8018,
      "ততকষণে": 8019,
      "পেশা": 8020,
      "পেশার": 8021,
      "বাহির": 8022,
      "বাহযিক": 8023,
      "মাতদগধ": 8024,
      "২৪০": 8025,
      "##ach": 8026,
      "##ফোনের": 8027,
      "##ional": 8028,
      "সমাধানের": 8029,
      "সেটিও": 8030,
      "সংঘরষ": 8031,
      "নিরাপততার": 8032,
      "যাতরীবাহী": 8033,
      "অপরাধী": 8034,
      "135": 8035,
      "ইতযাদির": 8036,
      "ওযারড": 8037,
      "খাবারের": 8038,
      "জোছ": 8039,
      "জমিতে": 8040,
      "শামসল": 8041,
      "হালদার": 8042,
      "##owjo": 8043,
      "বিজিবি": 8044,
      "সমভবত": 8045,
      "##াবাদে": 8046,
      "সেখানেই": 8047,
      "সনতানদের": 8048,
      "মতযবগ": 8049,
      "গহবধ": 8050,
      "শৌ": 8051,
      "##শরী": 8052,
      "##োপচার": 8053,
      "পরেরণা": 8054,
      "দেবীগঞজ": 8055,
      "আসেনি": 8056,
      "##মাতরার": 8057,
      "অসতরোপচার": 8058,
      "শরেণী": 8059,
      "পরিসথিতিতে": 8060,
      "পরামরশের": 8061,
      "ফেলন": 8062,
      "শাসতির": 8063,
      "সবারই": 8064,
      "সতযতা": 8065,
      "সতযিকার": 8066,
      "সাকষর": 8067,
      "৬০৯৮": 8068,
      "##রহাট": 8069,
      "##আরডি": 8070,
      "পরিবেশে": 8071,
      "সংশোধনের": 8072,
      "মহাসডকে": 8073,
      "পরশাসনিক": 8074,
      "আদালতকে": 8075,
      "লাভের": 8076,
      "বিকষোভের": 8077,
      "sex": 8078,
      "select": 8079,
      "কবিতায": 8080,
      "খারিজ": 8081,
      "চাননি": 8082,
      "তলল": 8083,
      "দাঙগা": 8084,
      "যদধের": 8085,
      "যদধাপর": 8086,
      "লালপর": 8087,
      "সফলা": 8088,
      "চলচচিতরে": 8089,
      "যাওযায": 8090,
      "মামনর": 8091,
      "##enty": 8092,
      "কোমপানিটি": 8093,
      "কোমপানিটির": 8094,
      "পরসকারদৈনিক": 8095,
      "155": 8096,
      "150": 8097,
      "157": 8098,
      "আযকর": 8099,
      "তবককে": 8100,
      "তদনতে": 8101,
      "যকতফর": 8102,
      "রাশিযার": 8103,
      "##une": 8104,
      "##কেনদর": 8105,
      "সমনবযে": 8106,
      "সংখযাও": 8107,
      "পরতিরপ": 8108,
      "রেজিসটর": 8109,
      "ভাষায": 8110,
      "পনরনির": 8111,
      "che": 8112,
      "html": 8113,
      "ইযাহিযা": 8114,
      "ঘনটা": 8115,
      "তরিদেশীয": 8116,
      "দিকের": 8117,
      "বনদক": 8118,
      "যাবৎ": 8119,
      "যাবতীয": 8120,
      "শবশর": 8121,
      "সাজে": 8122,
      "সবিধাদি": 8123,
      "##পাতি": 8124,
      "##chn": 8125,
      "পরচেষটা": 8126,
      "পরচারণা": 8127,
      "অনিয": 8128,
      "অনিশচ": 8129,
      "কলকবজা": 8130,
      "বযবসথাপক": 8131,
      "পাকিসতানকে": 8132,
      "বিনিযোগের": 8133,
      "বিনিযোগকারীদের": 8134,
      "178": 8135,
      "176": 8136,
      "bangl": 8137,
      "আকরষণ": 8138,
      "আকরানতের": 8139,
      "উততম": 8140,
      "উততোল": 8141,
      "এনেছে": 8142,
      "ওঠা": 8143,
      "ওঠে": 8144,
      "গাইতে": 8145,
      "চাষ": 8146,
      "চরিতরে": 8147,
      "নজির": 8148,
      "পছনদের": 8149,
      "বাচচ": 8150,
      "মযানেজার": 8151,
      "যতই": 8152,
      "শতকরা": 8153,
      "আরবীয": 8154,
      "পেছন": 8155,
      "সামপরদাযিক": 8156,
      "বিশবকাপে": 8157,
      "লকষমীছডি": 8158,
      "লকষমীপরের": 8159,
      "পলাসটিকের": 8160,
      "ফটবলার": 8161,
      "দীরঘদিনের": 8162,
      "মাশরাফির": 8163,
      "পরিকলপন": 8164,
      "খদদেরকে": 8165,
      "newspaper": 8166,
      "shopping": 8167,
      "অঙগীকার": 8168,
      "অঙগরাজ": 8169,
      "চিনতার": 8170,
      "দীপিকা": 8171,
      "বোরডের": 8172,
      "ভযঙকর": 8173,
      "মদরা": 8174,
      "মছলিমদের": 8175,
      "সাবরেজ": 8176,
      "##logy": 8177,
      "##ওলপর": 8178,
      "পরভাবমকত": 8179,
      "বিতরন": 8180,
      "বিতরকের": 8181,
      "আমলকিতে": 8182,
      "জনপরিযতা": 8183,
      "বরষপর": 8184,
      "কমপকষে": 8185,
      "বসবাসকারী": 8186,
      "ভালোবাসে": 8187,
      "reg": 8188,
      "কঠোর": 8189,
      "ছযটি": 8190,
      "জলফ": 8191,
      "দবীপে": 8192,
      "ফোরস": 8193,
      "##তললাহ": 8194,
      "একরাইলিক": 8195,
      "সমাজে": 8196,
      "সমাজকলযাণ": 8197,
      "দেহের": 8198,
      "##াবাসের": 8199,
      "বেসরকারী": 8200,
      "চলনত": 8201,
      "##ateur": 8202,
      "বিসফোরণ": 8203,
      "ওযেবসাইটে": 8204,
      "হবিগঞজী": 8205,
      "নেতাকরমীকে": 8206,
      "আজিজ": 8207,
      "আফরিকার": 8208,
      "কাশমীর": 8209,
      "সবরপ": 8210,
      "সিনেমায": 8211,
      "হচছিলো": 8212,
      "##শিযাল": 8213,
      "দেবেনমিত": 8214,
      "সরবসম": 8215,
      "মনোভাব": 8216,
      "দরদানত": 8217,
      "অভিযোগপতরে": 8218,
      "হারিযেছেন": 8219,
      "সদসযদেরকে": 8220,
      "রোহিঙগারা": 8221,
      "কিশোরগঞজের": 8222,
      "মৌলভীবাজারে": 8223,
      "160": 8224,
      "ঝকিপরণ": 8225,
      "তথযাদি": 8226,
      "নাইজের": 8227,
      "যাকাত": 8228,
      "রমজান": 8229,
      "সেরাটা": 8230,
      "হইতে": 8231,
      "হেরেছে": 8232,
      "পরকরিযায": 8233,
      "করণধার": 8234,
      "দৌডে": 8235,
      "সবাধীনতা": 8236,
      "আগরহী": 8237,
      "পাথরের": 8238,
      "বেডান": 8239,
      "অধিনাযকের": 8240,
      "কযামেরা": 8241,
      "ছাতরীকে": 8242,
      "মৌসমে": 8243,
      "সতরকতা": 8244,
      "সীমানত": 8245,
      "নিযনতরিত": 8246,
      "নিযনতরণে": 8247,
      "সংরকষণাগার": 8248,
      "কষমতাযনের": 8249,
      "##রধবতন": 8250,
      "অসটরেলিযার": 8251,
      "যথাযথভাবে": 8252,
      "teen": 8253,
      "আফসার": 8254,
      "ওযানডেতে": 8255,
      "খরিঃ": 8256,
      "গরিজ": 8257,
      "গভীরতা": 8258,
      "ছিটকে": 8259,
      "জোরালো": 8260,
      "দারিদরের": 8261,
      "দারিদরয": 8262,
      "নওগার": 8263,
      "পযানট": 8264,
      "পযানেল": 8265,
      "রংপরের": 8266,
      "লেনদেন": 8267,
      "সসবাদ": 8268,
      "সপারিশ": 8269,
      "সফরকারী": 8270,
      "##rib": 8271,
      "##ফাজজল": 8272,
      "বিধিমালা": 8273,
      "বিবেচিত": 8274,
      "##াসিধা": 8275,
      "কিনেছেন": 8276,
      "আহমমেদ": 8277,
      "ইউরোপের": 8278,
      "পরতযয": 8279,
      "সিরাজগঞজ": 8280,
      "জঙগিবাদকে": 8281,
      "বাণিজযমনতরী": 8282,
      "নাবিকদের": 8283,
      "189": 8284,
      "prof": 8285,
      "কাবয": 8286,
      "কাবলে": 8287,
      "কলাউড": 8288,
      "গঙগোতরী": 8289,
      "চমবক": 8290,
      "তাসনিম": 8291,
      "দবাইযে": 8292,
      "পোরটাল": 8293,
      "ফাইনাল": 8294,
      "ফাইনালে": 8295,
      "ভযানচালক": 8296,
      "সতীরথ": 8297,
      "সতযেনদরনাথ": 8298,
      "৩৬৩": 8299,
      "##হানির": 8300,
      "##জাতকরণের": 8301,
      "##বাচক": 8302,
      "##বাচিত": 8303,
      "##সীমা": 8304,
      "পরকৌশল": 8305,
      "অনতরভকত": 8306,
      "অবসরপরাপত": 8307,
      "পরীকষারথী": 8308,
      "পৌছাতে": 8309,
      "information": 8310,
      "খেলোযাডের": 8311,
      "পশচিমব": 8312,
      "পরযবেকষক": 8313,
      "পরযবেকষণে": 8314,
      "সপাইডারমযানের": 8315,
      "mail": 8316,
      "অগনিসং": 8317,
      "ইহকালীন": 8318,
      "ইতিমধযে": 8319,
      "ঈশবরগঞজ": 8320,
      "কণঠ": 8321,
      "ছাপা": 8322,
      "টযাগ": 8323,
      "নাযকর": 8324,
      "পিসতল": 8325,
      "ভটান": 8326,
      "ভটানের": 8327,
      "মণডল": 8328,
      "মণডপে": 8329,
      "লইস": 8330,
      "শানতির": 8331,
      "শতরর": 8332,
      "সকরিনে": 8333,
      "##যাতরায": 8334,
      "সেকেনড": 8335,
      "সেকেনডের": 8336,
      "মোসাক": 8337,
      "বাতিল": 8338,
      "বাতিলের": 8339,
      "সরযমখী": 8340,
      "গরাহকের": 8341,
      "শরীফ": 8342,
      "বরাজিলের": 8343,
      "পাটগরাম": 8344,
      "মিলেছে": 8345,
      "কৌশলগত": 8346,
      "দরঘটনায": 8347,
      "যাতরীরা": 8348,
      "আনিসল": 8349,
      "শিকষাবরষে": 8350,
      "করমকরতারা": 8351,
      "খেলেছে": 8352,
      "বিদযালয": 8353,
      "বিদযালযের": 8354,
      "ঘটনাসথল": 8355,
      "ফাউনডেশনের": 8356,
      "ভমিকমপের": 8357,
      "have": 8358,
      "অমছলিম": 8359,
      "অযালগরি": 8360,
      "আবেদপতর": 8361,
      "গপতচর": 8362,
      "জিনিস": 8363,
      "ঝলিযে": 8364,
      "তিরমি": 8365,
      "তোরের": 8366,
      "ধাককায": 8367,
      "পাপডি": 8368,
      "ফযসাল": 8369,
      "ভযেজ": 8370,
      "ভোগানতি": 8371,
      "শাবন": 8372,
      "হরদ": 8373,
      "##ওটিএ": 8374,
      "##ভেনশন": 8375,
      "পরদরশন": 8376,
      "পরযোজনে": 8377,
      "##বরাতরি": 8378,
      "সেমিফাইন": 8379,
      "সংগরামের": 8380,
      "বযতিকরমী": 8381,
      "সিংহ": 8382,
      "বাফফের": 8383,
      "শরণারথ": 8384,
      "শরোতা": 8385,
      "শরীলংকার": 8386,
      "মহিলাদের": 8387,
      "বযাটিংযে": 8388,
      "গৌতম": 8389,
      "গৌরীপর": 8390,
      "চলাকালে": 8391,
      "চলাকালীন": 8392,
      "পরেকষিতে": 8393,
      "পরতাহারের": 8394,
      "মযাগাজিন": 8395,
      "আশাবাদী": 8396,
      "রাউনডে": 8397,
      "কনসটেবল": 8398,
      "সটোরেজ": 8399,
      "চিতরনায": 8400,
      "সোনাগাছির": 8401,
      "টাইগাররা": 8402,
      "পরযালোচনা": 8403,
      "0178422": 8404,
      "বাসতবাযনে": 8405,
      "বিতরকিত": 8406,
      "যনতরপাতি": 8407,
      "পশচিমে": 8408,
      "পজিবাজারে": 8409,
      "ছিনতাইকারীরা": 8410,
      "হাওলাদারের": 8411,
      "ছরিকাঘাতে": 8412,
      "মিনারেলস": 8413,
      "all": 8414,
      "about": 8415,
      "অাপনার": 8416,
      "আযাতের": 8417,
      "খামারে": 8418,
      "জোগায": 8419,
      "টারগেট": 8420,
      "টেলিক": 8421,
      "টযাংকার": 8422,
      "তিতাস": 8423,
      "তাপমাতরা": 8424,
      "থেমে": 8425,
      "দততের": 8426,
      "নযনতম": 8427,
      "পটযা": 8428,
      "পলাট": 8429,
      "ফিনালের": 8430,
      "মেনবার": 8431,
      "মেশিন": 8432,
      "লারনিং": 8433,
      "সচকে": 8434,
      "সজনশীল": 8435,
      "সঞচাল": 8436,
      "সযামযেল": 8437,
      "##fici": 8438,
      "##omi": 8439,
      "##ight": 8440,
      "পরাপতির": 8441,
      "পরাচীন": 8442,
      "করতবযরত": 8443,
      "বিদরোহী": 8444,
      "অনভতি": 8445,
      "জাননাত": 8446,
      "সবসময": 8447,
      "আসাদজজামান": 8448,
      "সমযসচী": 8449,
      "হোটেলের": 8450,
      "হোযাইট": 8451,
      "এলজিআরডি": 8452,
      "তাৎকষনিক": 8453,
      "colored": 8454,
      "জাতীযতাবাদী": 8455,
      "টরাইবযন": 8456,
      "রিংটোন": 8457,
      "##endra": 8458,
      "মাহফজর": 8459,
      "হাজারীবাগে": 8460,
      "ফরানসের": 8461,
      "কালিযাকৈর": 8462,
      "উইনডোজ": 8463,
      "চিহনিত": 8464,
      "লেহেঙগা": 8465,
      "আতমসমরপণের": 8466,
      "সাতকষীরার": 8467,
      "করমসচির": 8468,
      "মযনাতদনতের": 8469,
      "রবীনদরনাথ": 8470,
      "মেগাহারটজ": 8471,
      "safari": 8472,
      "বরাহমণবাডিযা": 8473,
      "ডেমোকরেটিক": 8474,
      "ডেলিভারি": 8475,
      "amateur": 8476,
      "bundle": 8477,
      "certi": 8478,
      "twenty": 8479,
      "websit": 8480,
      "অতযাধনিক": 8481,
      "অবলম": 8482,
      "ইমদাদল": 8483,
      "ইভিএম": 8484,
      "উরধবে": 8485,
      "এজাহার": 8486,
      "কাযদায": 8487,
      "কাধে": 8488,
      "চাচা": 8489,
      "জোনের": 8490,
      "জাকারিযা": 8491,
      "তাতপরয": 8492,
      "দশচিনতা": 8493,
      "নযাযয": 8494,
      "ফজলল": 8495,
      "বযালেনস": 8496,
      "ভীষণ": 8497,
      "ভাসমান": 8498,
      "রসলললাহ": 8499,
      "শংখলা": 8500,
      "শযামাঙগিনী": 8501,
      "হতাশ": 8502,
      "##port": 8503,
      "##শিলপী": 8504,
      "##ামনতরী": 8505,
      "বিজযের": 8506,
      "বিরিযানি": 8507,
      "নিমনোকত": 8508,
      "আমনতরণ": 8509,
      "নাশকতা": 8510,
      "পরিযাঙকা": 8511,
      "সংগীত": 8512,
      "নিরভরশীল": 8513,
      "আরকানা": 8514,
      "সবাগতিক": 8515,
      "মেহেরপর": 8516,
      "পরতিফলিত": 8517,
      "বাঙগালী": 8518,
      "শরতাবলী": 8519,
      "মিজানর": 8520,
      "উদযোকতা": 8521,
      "অনেকেরই": 8522,
      "সাললাললাহ": 8523,
      "আশরাফল": 8524,
      "আশচরয": 8525,
      "বারসেলোনা": 8526,
      "রেকরড": 8527,
      "ভিজিডি": 8528,
      "ডিফেনস": 8529,
      "পডাশোনা": 8530,
      "মসলমান": 8531,
      "হামলাকারি": 8532,
      "অধিবেশনে": 8533,
      "কোরবানির": 8534,
      "ধরমযাজক": 8535,
      "মিলিযন": 8536,
      "##চছাসেবক": 8537,
      "সটযাটাস": 8538,
      "উইলিযাম": 8539,
      "খেলাধলা": 8540,
      "নাজিমউদদিন": 8541,
      "পাখিশিকারি": 8542,
      "কথাসাহিতযিক": 8543,
      "শিরোনাম": 8544,
      "হিউমযান": 8545,
      "দৌলতপর": 8546,
      "আফগানিস": 8547,
      "মনতরিসভা": 8548,
      "বিআইডবলিওটিএ": 8549,
      "সিদদিকী": 8550,
      "blowjo": 8551,
      "categor": 8552,
      "from": 8553,
      "human": 8554,
      "hours": 8555,
      "language": 8556,
      "paperless": 8557,
      "train": 8558,
      "with": 8559,
      "xiaomi": 8560,
      "আযারলযানড": 8561,
      "আলাওলপর": 8562,
      "ইঙগিত": 8563,
      "ইলিযাস": 8564,
      "এতিম": 8565,
      "ঐকযের": 8566,
      "কীরতি": 8567,
      "ঘরণি": 8568,
      "টযানারি": 8569,
      "টেইক": 8570,
      "ডেইলি": 8571,
      "নযাপল": 8572,
      "ননটযাকস": 8573,
      "পষপ": 8574,
      "পনিটলা": 8575,
      "পীনসতনী": 8576,
      "পলেইস": 8577,
      "ভীডটা": 8578,
      "মঞচে": 8579,
      "মোরগ": 8580,
      "রৈখিক": 8581,
      "লকসেমবর": 8582,
      "হলিউড": 8583,
      "৭খাদিজ": 8584,
      "বিলপত": 8585,
      "সমমিলিত": 8586,
      "দেলোযার": 8587,
      "পরিচিতি": 8588,
      "বযোজযেষঠ": 8589,
      "মেদিনীপর": 8590,
      "মোটামটি": 8591,
      "পরতিসথাপন": 8592,
      "পরতিশরতি": 8593,
      "পাথারকানদি": 8594,
      "দরধরষ": 8595,
      "মাওলানা": 8596,
      "সারাকষণই": 8597,
      "শিবলী": 8598,
      "অনেকাংশ": 8599,
      "ইনকিলাব": 8600,
      "ইউরোপীয": 8601,
      "বিরতিহীন": 8602,
      "মযাজিসটরেট": 8603,
      "রেফরিজার": 8604,
      "নারগিসকে": 8605,
      "টিউটোরিযাল": 8606,
      "##online": 8607,
      "অযামিকাস": 8608,
      "তথযপরযকতি": 8609,
      "কনসারটে": 8610,
      "কনযাসন": 8611,
      "রেখাচিতর": 8612,
      "কযাটাগরীর": 8613,
      "পলযাটফরম": 8614,
      "জাহাঙগীর": 8615,
      "উইনচেষটার": 8616,
      "খেজরগলো": 8617,
      "জিমেইলে": 8618,
      "ভাঙাচোরা": 8619,
      "10000mah": 8620,
      "মতযবগডায": 8621,
      "যদধাপরাধ": 8622,
      "রেজিসটরার": 8623,
      "অগনিসংযোগের": 8624,
      "সেমিফাইনালে": 8625,
      "017842222": 8626,
      "blowjob": 8627,
      "৭খাদিজার": 8628,
      "001": 8629,
      "22": 8630,
      "27": 8631,
      "34": 8632,
      "36": 8633,
      "31": 8634,
      "41": 8635,
      "49": 8636,
      "56": 8637,
      "51": 8638,
      "62": 8639,
      "7t": 8640,
      "87": 8641,
      "au": 8642,
      "as": 8643,
      "aor": 8644,
      "are": 8645,
      "ass": 8646,
      "ben": 8647,
      "bal": 8648,
      "bro": 8649,
      "bel": 8650,
      "but": 8651,
      "cc": 8652,
      "cur": 8653,
      "cart": 8654,
      "do": 8655,
      "don": 8656,
      "dre": 8657,
      "dsw": 8658,
      "ef": 8659,
      "ets": 8660,
      "each": 8661,
      "fe": 8662,
      "gu": 8663,
      "goo": 8664,
      "gso": 8665,
      "he": 8666,
      "has": 8667,
      "hack": 8668,
      "is": 8669,
      "it": 8670,
      "ima": 8671,
      "its": 8672,
      "jo": 8673,
      "jus": 8674,
      "kn": 8675,
      "kum": 8676,
      "ln": 8677,
      "lt": 8678,
      "li": 8679,
      "los": 8680,
      "me": 8681,
      "mp": 8682,
      "mu": 8683,
      "mon": 8684,
      "mis": 8685,
      "mag": 8686,
      "mms": 8687,
      "niv": 8688,
      "or": 8689,
      "oth": 8690,
      "oct": 8691,
      "pu": 8692,
      "pas": 8693,
      "pun": 8694,
      "pla": 8695,
      "pri": 8696,
      "pak": 8697,
      "qu": 8698,
      "righ": 8699,
      "sp": 8700,
      "sy": 8701,
      "sin": 8702,
      "sur": 8703,
      "sid": 8704,
      "satur": 8705,
      "tr": 8706,
      "ti": 8707,
      "tus": 8708,
      "trib": 8709,
      "urd": 8710,
      "vis": 8711,
      "wat": 8712,
      "will": 8713,
      "xx": 8714,
      "yah": 8715,
      "অমন": 8716,
      "অকত": 8717,
      "অকস": 8718,
      "অশাল": 8719,
      "অমিত": 8720,
      "অটট": 8721,
      "অমর": 8722,
      "অবিশ": 8723,
      "অকেজ": 8724,
      "অাসন": 8725,
      "অতীত": 8726,
      "আঙ": 8727,
      "আযে": 8728,
      "আবে": 8729,
      "আপর": 8730,
      "আঙগ": 8731,
      "আযের": 8732,
      "আবহ": 8733,
      "আকা": 8734,
      "আচার": 8735,
      "আংশ": 8736,
      "আকি": 8737,
      "আযর": 8738,
      "আধার": 8739,
      "আকরো": 8740,
      "আডাল": 8741,
      "আযাত": 8742,
      "আকারের": 8743,
      "আঘাতের": 8744,
      "আযোজনের": 8745,
      "আভিযান": 8746,
      "ইভ": 8747,
      "ইযার": 8748,
      "ইকষ": 8749,
      "ইলিশ": 8750,
      "ইচছে": 8751,
      "ইমো": 8752,
      "ইবনে": 8753,
      "ইনিং": 8754,
      "ইযেম": 8755,
      "উনার": 8756,
      "উষণ": 8757,
      "উসক": 8758,
      "উসমান": 8759,
      "উডাল": 8760,
      "উমম": 8761,
      "উষা": 8762,
      "উরধবতন": 8763,
      "এশ": 8764,
      "এফ": 8765,
      "এবাদ": 8766,
      "এভার": 8767,
      "এফটি": 8768,
      "এডিপি": 8769,
      "এযানে": 8770,
      "ঐশবর": 8771,
      "ওয": 8772,
      "ওল": 8773,
      "ওষ": 8774,
      "ওযাল": 8775,
      "ওগলো": 8776,
      "ওজনের": 8777,
      "ওলড": 8778,
      "কচ": 8779,
      "কদ": 8780,
      "কড": 8781,
      "ককে": 8782,
      "কতি": 8783,
      "কাক": 8784,
      "কাই": 8785,
      "কাত": 8786,
      "কাড": 8787,
      "ককর": 8788,
      "কদর": 8789,
      "কমন": 8790,
      "কযাল": 8791,
      "কতরা": 8792,
      "কসম": 8793,
      "কাকর": 8794,
      "কাহিনী": 8795,
      "কবলের": 8796,
      "খাল": 8797,
      "খাপ": 8798,
      "খাশ": 8799,
      "খনন": 8800,
      "খসর": 8801,
      "খাতন": 8802,
      "খযাত": 8803,
      "খামার": 8804,
      "খাচার": 8805,
      "গম": 8806,
      "গয": 8807,
      "গাম": 8808,
      "গাল": 8809,
      "গাট": 8810,
      "গমের": 8811,
      "গফর": 8812,
      "গতিতে": 8813,
      "গজার": 8814,
      "গদয": 8815,
      "গালি": 8816,
      "গঙগা": 8817,
      "গাযের": 8818,
      "গলাভ": 8819,
      "ঘম": 8820,
      "ঘে": 8821,
      "ঘষ": 8822,
      "ঘনিষঠ": 8823,
      "চক": 8824,
      "চখ": 8825,
      "চেন": 8826,
      "চনদ": 8827,
      "চণড": 8828,
      "চডাই": 8829,
      "চমক": 8830,
      "চাচছেন": 8831,
      "চেষটার": 8832,
      "ছযে": 8833,
      "ছাম": 8834,
      "ছাদ": 8835,
      "ছাচ": 8836,
      "ছডে": 8837,
      "ছটির": 8838,
      "ছরিক": 8839,
      "ছাতক": 8840,
      "ছাইযে": 8841,
      "জখ": 8842,
      "জৈ": 8843,
      "জিত": 8844,
      "জাব": 8845,
      "জবর": 8846,
      "জযান": 8847,
      "জযন": 8848,
      "জালে": 8849,
      "জলের": 8850,
      "জেলের": 8851,
      "জাবি": 8852,
      "জোনা": 8853,
      "জযাকস": 8854,
      "জোরে": 8855,
      "জালাল": 8856,
      "জসিম": 8857,
      "ঝড": 8858,
      "ঝগ": 8859,
      "ঝাম": 8860,
      "ঝাড": 8861,
      "টন": 8862,
      "টয": 8863,
      "টল": 8864,
      "টথ": 8865,
      "টের": 8866,
      "টান": 8867,
      "টঙগ": 8868,
      "টরা": 8869,
      "টযাকস": 8870,
      "টিনের": 8871,
      "ঠাকর": 8872,
      "ঠযাং": 8873,
      "ডক": 8874,
      "ডাল": 8875,
      "ডবে": 8876,
      "ডিক": 8877,
      "ডানে": 8878,
      "ডকটর": 8879,
      "ডরাফ": 8880,
      "ডিলি": 8881,
      "ডটকম": 8882,
      "ডাবল": 8883,
      "ডরিম": 8884,
      "ঢং": 8885,
      "ঢো": 8886,
      "ঢেকে": 8887,
      "তন": 8888,
      "তের": 8889,
      "তাশ": 8890,
      "তেলা": 8891,
      "তদার": 8892,
      "তরল": 8893,
      "তিলা": 8894,
      "তোরে": 8895,
      "তরাণ": 8896,
      "থরি": 8897,
      "থামে": 8898,
      "দপ": 8899,
      "দষ": 8900,
      "দাই": 8901,
      "দযার": 8902,
      "দিযা": 8903,
      "দবাদ": 8904,
      "দানি": 8905,
      "দাঙগ": 8906,
      "দামে": 8907,
      "দলাভ": 8908,
      "দগধ": 8909,
      "দবীন": 8910,
      "ধত": 8911,
      "ধপ": 8912,
      "ধান": 8913,
      "ধারণ": 8914,
      "ধোযা": 8915,
      "ধবগ": 8916,
      "নহ": 8917,
      "নশ": 8918,
      "নাত": 8919,
      "নজি": 8920,
      "নফল": 8921,
      "নহে": 8922,
      "নতয": 8923,
      "নীত": 8924,
      "নাহার": 8925,
      "নাযক": 8926,
      "নাহি": 8927,
      "নমস": 8928,
      "নদীর": 8929,
      "নাপিত": 8930,
      "নবরাতরি": 8931,
      "পয": 8932,
      "পগ": 8933,
      "পৈ": 8934,
      "পতি": 8935,
      "পটি": 8936,
      "পেকে": 8937,
      "পানের": 8938,
      "পবা": 8939,
      "পষটি": 8940,
      "পজার": 8941,
      "পশর": 8942,
      "পাগা": 8943,
      "পতল": 8944,
      "পাতার": 8945,
      "পাডার": 8946,
      "ফজ": 8947,
      "ফান": 8948,
      "ফেন": 8949,
      "ফতে": 8950,
      "ফায": 8951,
      "ফাদ": 8952,
      "ফাহ": 8953,
      "ফাকে": 8954,
      "ফলের": 8955,
      "ফেলার": 8956,
      "ফাট": 8957,
      "ফযাট": 8958,
      "ফযাশন": 8959,
      "ফটিযে": 8960,
      "ফাদে": 8961,
      "ফাইভ": 8962,
      "বম": 8963,
      "বচ": 8964,
      "বযে": 8965,
      "বডি": 8966,
      "বকের": 8967,
      "বকা": 8968,
      "বাকার": 8969,
      "বঞচ": 8970,
      "বৎস": 8971,
      "বঙক": 8972,
      "বাহার": 8973,
      "বততি": 8974,
      "ভত": 8975,
      "ভব": 8976,
      "ভক": 8977,
      "ভায": 8978,
      "ভলে": 8979,
      "ভাত": 8980,
      "ভিজ": 8981,
      "ভাতা": 8982,
      "ভীতি": 8983,
      "ভেরি": 8984,
      "মও": 8985,
      "মক": 8986,
      "মফ": 8987,
      "মলে": 8988,
      "মাক": 8989,
      "মিত": 8990,
      "মাজ": 8991,
      "মেল": 8992,
      "মোগ": 8993,
      "মকস": 8994,
      "মাজার": 8995,
      "মসত": 8996,
      "মঞচ": 8997,
      "মরম": 8998,
      "মমত": 8999,
      "মদয": 9000,
      "মইন": 9001,
      "মমিন": 9002,
      "মাইকেল": 9003,
      "মণিক": 9004,
      "যাজ": 9005,
      "যোন": 9006,
      "যিযার": 9007,
      "যাতা": 9008,
      "যগের": 9009,
      "যথার": 9010,
      "রল": 9011,
      "রড": 9012,
      "রউ": 9013,
      "রণ": 9014,
      "রবার": 9015,
      "রমি": 9016,
      "রলের": 9017,
      "রযাপ": 9018,
      "রইল": 9019,
      "রানা": 9020,
      "রিসি": 9021,
      "রকষণ": 9022,
      "রচনায": 9023,
      "রিযেল": 9024,
      "রাইটস": 9025,
      "লগ": 9026,
      "লৎ": 9027,
      "লতি": 9028,
      "লাজ": 9029,
      "লকষে": 9030,
      "লাইল": 9031,
      "লডা": 9032,
      "লকেট": 9033,
      "লঙক": 9034,
      "লাসি": 9035,
      "লঙঘন": 9036,
      "লবণ": 9037,
      "লজজা": 9038,
      "লডতে": 9039,
      "শৈ": 9040,
      "শের": 9041,
      "শাক": 9042,
      "শাড": 9043,
      "শাপ": 9044,
      "শাশ": 9045,
      "শানত": 9046,
      "শাহিন": 9047,
      "শশা": 9048,
      "শপিং": 9049,
      "শযামপ": 9050,
      "ষট": 9051,
      "ষো": 9052,
      "ষটে": 9053,
      "ষাট": 9054,
      "সাশ": 9055,
      "সাখ": 9056,
      "সদি": 9057,
      "সপতর": 9058,
      "সাডা": 9059,
      "সাইল": 9060,
      "সানত": 9061,
      "সসথ": 9062,
      "সতো": 9063,
      "সাপত": 9064,
      "সপরি": 9065,
      "সফি": 9066,
      "সইন": 9067,
      "সাবি": 9068,
      "সাগর": 9069,
      "সষটির": 9070,
      "সঞজয": 9071,
      "হের": 9072,
      "হিন": 9073,
      "হিল": 9074,
      "হবার": 9075,
      "হাচ": 9076,
      "হাশ": 9077,
      "হীন": 9078,
      "হসেন": 9079,
      "হাট": 9080,
      "হবো": 9081,
      "হাডে": 9082,
      "হজজ": 9083,
      "হরাস": 9084,
      "হিলার": 9085,
      "হাডের": 9086,
      "হিলি": 9087,
      "হকারস": 9088,
      "হদাকে": 9089,
      "০৪": 9090,
      "০২৪": 9091,
      "১টি": 9092,
      "১টার": 9093,
      "২৮৭": 9094,
      "৩শ": 9095,
      "৩টার": 9096,
      "৪২": 9097,
      "৪টি": 9098,
      "৪টার": 9099,
      "৪রথ": 9100,
      "৪২০": 9101,
      "৫ম": 9102,
      "৫৪": 9103,
      "৫টি": 9104,
      "৬৬": 9105,
      "৬৩": 9106,
      "৬০০০": 9107,
      "৬২৩": 9108,
      "৭৭": 9109,
      "৭২": 9110,
      "৭২৪": 9111,
      "৭টায": 9112,
      "৮৭": 9113,
      "৮৫": 9114,
      "৮২": 9115,
      "৮১": 9116,
      "৮০০০": 9117,
      "৯০": 9118,
      "৯১": 9119,
      "৯টা": 9120,
      "৯টার": 9121,
      "##াও": 9122,
      "##াঢ": 9123,
      "##াষটর": 9124,
      "##াওযাত": 9125,
      "##রর": 9126,
      "##রান": 9127,
      "##রাগ": 9128,
      "##রোগ": 9129,
      "##রমে": 9130,
      "##রটিং": 9131,
      "##রঘয": 9132,
      "##রামিং": 9133,
      "##হের": 9134,
      "##হো": 9135,
      "##হাদ": 9136,
      "##হাস": 9137,
      "##হাগ": 9138,
      "##হরণ": 9139,
      "##হাদি": 9140,
      "##তই": 9141,
      "##তকে": 9142,
      "##তলে": 9143,
      "##ততের": 9144,
      "##তাবর": 9145,
      "##তহীন": 9146,
      "##মশ": 9147,
      "##মথ": 9148,
      "##মৈ": 9149,
      "##মযা": 9150,
      "##মেন": 9151,
      "##মনি": 9152,
      "##মযের": 9153,
      "##মতার": 9154,
      "##মলাই": 9155,
      "##মচে": 9156,
      "##মমদ": 9157,
      "##মবারের": 9158,
      "##মাতা": 9159,
      "##মাইজ": 9160,
      "##জব": 9161,
      "##জক": 9162,
      "##জাদ": 9163,
      "##জাহ": 9164,
      "##জমিন": 9165,
      "##জাহান": 9166,
      "##ীহ": 9167,
      "##ীক": 9168,
      "##ীছ": 9169,
      "##ীযার": 9170,
      "##ীকত": 9171,
      "##ীজন": 9172,
      "##ীতের": 9173,
      "##ীদার": 9174,
      "##ীতায": 9175,
      "##বত": 9176,
      "##বট": 9177,
      "##বতা": 9178,
      "##বোধ": 9179,
      "##বধি": 9180,
      "##ববী": 9181,
      "##বদয": 9182,
      "##বাহিনী": 9183,
      "##বিসতারিত": 9184,
      "##নকে": 9185,
      "##নাগ": 9186,
      "##ননদ": 9187,
      "##নানি": 9188,
      "##নভেমবর": 9189,
      "##নঠিত": 9190,
      "##নবযে": 9191,
      "##নাবান": 9192,
      "##েম": 9193,
      "##েটি": 9194,
      "##েবল": 9195,
      "##েটর": 9196,
      "##েজের": 9197,
      "##েটারী": 9198,
      "##li": 9199,
      "##lfi": 9200,
      "##lish": 9201,
      "##pr": 9202,
      "##post": 9203,
      "##fur": 9204,
      "##ues": 9205,
      "##uel": 9206,
      "##uter": 9207,
      "##uck": 9208,
      "##যী": 9209,
      "##যকষ": 9210,
      "##যঙক": 9211,
      "##যবাদী": 9212,
      "##শাস": 9213,
      "##শাহ": 9214,
      "##শাচ": 9215,
      "##শিকষ": 9216,
      "##শলী": 9217,
      "##শাগর": 9218,
      "##শঙকর": 9219,
      "##n24": 9220,
      "##sen": 9221,
      "##sattar": 9222,
      "##tt": 9223,
      "##tw": 9224,
      "##tra": 9225,
      "##tro": 9226,
      "##tain": 9227,
      "##িদর": 9228,
      "##িমা": 9229,
      "##িদল": 9230,
      "##িতিতে": 9231,
      "##িঙগা": 9232,
      "##পয": 9233,
      "##পল": 9234,
      "##পো": 9235,
      "##পাহ": 9236,
      "##পেশ": 9237,
      "##পলের": 9238,
      "##পাট": 9239,
      "##পলোর": 9240,
      "##লল": 9241,
      "##লটি": 9242,
      "##লাব": 9243,
      "##লতা": 9244,
      "##লবো": 9245,
      "##লগলি": 9246,
      "##লযানডে": 9247,
      "##ওযে": 9248,
      "##ঞছার": 9249,
      "##চন": 9250,
      "##চায": 9251,
      "##চাপ": 9252,
      "##চকর": 9253,
      "##চাচ": 9254,
      "##চনার": 9255,
      "##চলার": 9256,
      "##চনদর": 9257,
      "##চানতে": 9258,
      "##ষার": 9259,
      "##ষাক": 9260,
      "##ষদের": 9261,
      "##ষকত": 9262,
      "##ষঙগিক": 9263,
      "##কী": 9264,
      "##কণ": 9265,
      "##কিন": 9266,
      "##কিত": 9267,
      "##কটে": 9268,
      "##কাতে": 9269,
      "##কডা": 9270,
      "##কলার": 9271,
      "##কমার": 9272,
      "##কাসট": 9273,
      "##কটিভ": 9274,
      "##কচকর": 9275,
      "##দাই": 9276,
      "##দদিন": 9277,
      "##দাইল": 9278,
      "##দমের": 9279,
      "##দদার": 9280,
      "##দমাতর": 9281,
      "##46": 9282,
      "##36": 9283,
      "##344": 9284,
      "##346": 9285,
      "##সই": 9286,
      "##সাহ": 9287,
      "##সবর": 9288,
      "##সকর": 9289,
      "##সথা": 9290,
      "##সিযা": 9291,
      "##সযের": 9292,
      "##সকের": 9293,
      "##সারণ": 9294,
      "##সকল": 9295,
      "##সপন": 9296,
      "##টয": 9297,
      "##টপ": 9298,
      "##টেল": 9299,
      "##টেশন": 9300,
      "##টাগা": 9301,
      "##টটরিক": 9302,
      "##ংকর": 9303,
      "##ংশন": 9304,
      "##ংনী": 9305,
      "##ং২৪": 9306,
      "##ডফ": 9307,
      "##ডো": 9308,
      "##ডিত": 9309,
      "##ডিনে": 9310,
      "##ডানো": 9311,
      "##ছক": 9312,
      "##উলি": 9313,
      "##৩৪৩": 9314,
      "##৩৭৯": 9315,
      "##ৗডি": 9316,
      "##ৗসট": 9317,
      "##গযে": 9318,
      "##গতি": 9319,
      "##গাপ": 9320,
      "##গনার": 9321,
      "##গতির": 9322,
      "##গলপ": 9323,
      "##গণের": 9324,
      "##গডের": 9325,
      "##গেশন": 9326,
      "##গাডি": 9327,
      "##গাডী": 9328,
      "##ধায": 9329,
      "##ধমান": 9330,
      "##ধীন": 9331,
      "##ভযা": 9332,
      "##ভির": 9333,
      "##ভাত": 9334,
      "##ভযান": 9335,
      "##ভিনি": 9336,
      "##খী": 9337,
      "##খিন": 9338,
      "##খনি": 9339,
      "##খণড": 9340,
      "##খসে": 9341,
      "##খালীর": 9342,
      "##bs": 9343,
      "##bil": 9344,
      "##থলে": 9345,
      "##থিত": 9346,
      "##ইং": 9347,
      "##ইসট": 9348,
      "##ইউজ": 9349,
      "##ইপমেনট": 9350,
      "##৭৬": 9351,
      "##৭৮": 9352,
      "##৭৮১": 9353,
      "##ৈল": 9354,
      "##ৈক": 9355,
      "##ৈরের": 9356,
      "##ণন": 9357,
      "##ণি": 9358,
      "##৫৫": 9359,
      "##৫৯": 9360,
      "##৫৫১": 9361,
      "##২২৪": 9362,
      "##ঘির": 9363,
      "##ঘনে": 9364,
      "##ঘরে": 9365,
      "##ঘোপ": 9366,
      "##ঘটিত": 9367,
      "##ঠের": 9368,
      "##ঙা": 9369,
      "##ঙের": 9370,
      "##ase": 9371,
      "##ren": 9372,
      "##ration": 9373,
      "##cy": 9374,
      "##cri": 9375,
      "##ction": 9376,
      "##cure": 9377,
      "##ken": 9378,
      "##kar": 9379,
      "##md": 9380,
      "##ফফ": 9381,
      "##ফটের": 9382,
      "##ফাইল": 9383,
      "##ফাদার": 9384,
      "##ফোনে": 9385,
      "##ফামার": 9386,
      "##৮৬": 9387,
      "##৮২": 9388,
      "##৮২০": 9389,
      "##০৪": 9390,
      "##১৬": 9391,
      "##১৫": 9392,
      "##১৩৫": 9393,
      "##১৩৪৩": 9394,
      "##৪০": 9395,
      "##৪২২": 9396,
      "##ot": 9397,
      "##ober": 9398,
      "##ology": 9399,
      "##du": 9400,
      "##এব": 9401,
      "##এবিএকস": 9402,
      "##এমপির": 9403,
      "##yn": 9404,
      "##18": 9405,
      "##20": 9406,
      "##27": 9407,
      "##99": 9408,
      "##xsb": 9409,
      "##ঝি": 9410,
      "##ঝো": 9411,
      "##ঝাই": 9412,
      "##ha": 9413,
      "##ham": 9414,
      "##hns": 9415,
      "##ge": 9416,
      "##ga": 9417,
      "##ger": 9418,
      "##ঃসঙগ": 9419,
      "##vat": 9420,
      "##vir": 9421,
      "##z8": 9422,
      "##অযাপ": 9423,
      "##ারম": 9424,
      "##ারভ": 9425,
      "##োয": 9426,
      "##োথ": 9427,
      "##োভে": 9428,
      "##োইন": 9429,
      "##োবদধ": 9430,
      "##োবসত": 9431,
      "##োততেজ": 9432,
      "##োফোনে": 9433,
      "##ানভ": 9434,
      "##ানকে": 9435,
      "##ানতরে": 9436,
      "##ানাধীন": 9437,
      "পরা": 9438,
      "পরই": 9439,
      "পরিত": 9440,
      "পরপর": 9441,
      "পরনে": 9442,
      "পরকার": 9443,
      "পরনা": 9444,
      "পরাধ": 9445,
      "পরথা": 9446,
      "পরদিন": 9447,
      "পরবাস": 9448,
      "পরবল": 9449,
      "পরসথ": 9450,
      "পরপার": 9451,
      "পরযায": 9452,
      "পরফে": 9453,
      "পরভত": 9454,
      "পরদরশ": 9455,
      "পরযোগের": 9456,
      "পরোনো": 9457,
      "পরযাপত": 9458,
      "করান": 9459,
      "করিস": 9460,
      "করমে": 9461,
      "করিযা": 9462,
      "করোধ": 9463,
      "করানোর": 9464,
      "করবান": 9465,
      "করানো": 9466,
      "##যেত": 9467,
      "##যেড": 9468,
      "##যেগে": 9469,
      "##যেশিযা": 9470,
      "##যাশ": 9471,
      "##যাছ": 9472,
      "##যাকে": 9473,
      "##যাবর": 9474,
      "##যাতরী": 9475,
      "##যাবাদ": 9476,
      "##যাফিক": 9477,
      "##যাঘাট": 9478,
      "##েননি": 9479,
      "##েনটের": 9480,
      "##েনসের": 9481,
      "##েনসে": 9482,
      "##েনটারে": 9483,
      "##কেটার": 9484,
      "##কৌডি": 9485,
      "##ামিত": 9486,
      "##ামতের": 9487,
      "##ামারা": 9488,
      "##ামমেদ": 9489,
      "##ামমদের": 9490,
      "##িনির": 9491,
      "##ালয": 9492,
      "##ালযে": 9493,
      "##ালটি": 9494,
      "##তেকাল": 9495,
      "বিড": 9496,
      "বিগ": 9497,
      "বিএ": 9498,
      "বিলি": 9499,
      "বিকত": 9500,
      "বিষট": 9501,
      "বিধি": 9502,
      "বিচছে": 9503,
      "বিসত": 9504,
      "বিকল": 9505,
      "বিচিতর": 9506,
      "বিচছিনন": 9507,
      "বিঘন": 9508,
      "##াযারে": 9509,
      "##বোর": 9510,
      "##লেঙকার": 9511,
      "##ছেদ": 9512,
      "নিত": 9513,
      "নিশ": 9514,
      "নিল": 9515,
      "নিক": 9516,
      "নিই": 9517,
      "নিযা": 9518,
      "নিকার": 9519,
      "নিবি": 9520,
      "নিষঠ": 9521,
      "নিবাস": 9522,
      "নিবনধ": 9523,
      "নিবেদ": 9524,
      "নিচের": 9525,
      "নিকো": 9526,
      "নিতাই": 9527,
      "নিঃস": 9528,
      "নিছক": 9529,
      "নিঃসঙগ": 9530,
      "##তরাজ": 9531,
      "##তরকষ": 9532,
      "##তরীয": 9533,
      "##তরীরা": 9534,
      "##াকশলী": 9535,
      "##াকথিত": 9536,
      "##াইলের": 9537,
      "##াইনার": 9538,
      "##াইগরাম": 9539,
      "##াইসার": 9540,
      "##িকির": 9541,
      "##াদর": 9542,
      "##াদকে": 9543,
[...]
