#version: 0.2
à ¦
à §
Ġ à¦
à¦ ¾
à¦ °
à§ ĩ
à§ į
à¦¾ à¦
à¦ ¿
à§į à¦
à¦¿ à¦
à¦ ¨
à¦ ¼
à§ĩ à¦
à§ ģ
à¦¾ à¦°
à¦ ķ
Ġà¦ ķ
Ġà¦ ¸
à¦ ²
Ġà¦ ¬
à¦ ¤
à§ ĭ
Ġà¦ ª
à¦ ¬
à¦ ®
à§ĩ à¦°
à§į à¦°
à¦ ¯
à ¥
à¥ ¤
à§įà¦ ¯
à§ Ģ
Ġà¦ Ĩ
Ġà¦ ®
à¦¾à¦ ¨
à¦ ¸
Ġà¦ ı
Ġà¦ ¨
Ġà¦ ¦
Ġà¦ ¹
à¦ ¦
à§įà¦ ¤
à¦¼ à§ĩ
à¦ ª
Ġà¦ķ à¦°
à¦ Ł
à¦¼ à¦¾
Ġà¦ ľ
Ġà¦ ¤
Ġà¦ ħ
à§ĩ à¦¨
à¦ Ĺ
à¦¾à¦ ²
à¦¿à¦ ¯
à¦¾à¦ ®
à¦¿à¦ ¨
à¦¿à¦ ķ
à¦¾à¦ ¯
à¦¿ à¦°
à§įà¦ ¬
Ġà¦ °
à¦ ¹
à¦¾à¦ ķ
Ġà¦ ¯
à¦ Ľ
à¦ ĩ
à§įà¦ Ł
à¦¿à¦ ¤
à¦ ľ
Ġà¦ ¶
Ġà¦ Ĺ
à§ §
Ġà¦ ļ
à§ ¦
à¦ Ĥ
à§ĩ à¥¤
à¦¾à¦ ĩ
Ġà¦ ĵ
à¦ ¡
à§ģ à¦°
à¦¾à¦ ¬
à§ģ à¦²
à¦¾à¦ ¤
â Ģ
à¦¾à¦ ¦
à¦ £
à¦¿à¦ ²
à¦¾à¦ ¸
à§įà¦ ·
Ġà¦ ī
à¦ ¶
Ġà¦ Ń
Ġà¦ª à¦°
à§ĩà¦ ¶
à¦ Ń
à§ĩà¦ ķ
à¦ §
à¦ ļ
à§ĩà¦ ²
à§ ¨
Ġà¦ı à¦ķ
Ġà¦ «
à¦¾à¦ ľ
Ġà¦¸ à¦®
Ġà¦¹ à¦¯
Ġà¦ ĩ
Ġà¦ ²
Ġà¦ ¥
à§įà¦ ®
à¦¿à¦ ¶
à§ ĥ
Ġà¦ ĸ
à§įà¦ ¦
à§ Ĥ
à¦¾à¦ ¹
à¦¾à¦ ª
Ġà¦ Ľ
à§įà¦ ª
à§įà¦ ¥
Ġ (
à¦ ĸ
à¦ ĵ
à¦¿à¦ ¬
à¦¿à¦ ¸
à§įà¦ §
à¦¾à¦ Ĺ
à§ĩà¦ ĩ
à§ĩà¦ Ľ
Ġà¦ħ à¦¨
à§ĭ à¦¨
à¦ ¥
Ġà¦Ĩ à¦®
Ġà¦ľ à¦¨
Ġà¦¬ à¦²
à§ģ à¦¨
à¦¾à¦ ¡
à¦ «
à§įà¦ Ĺ
à¦ ·
à§ «
à§ ©
à§įà¦ ¡
Ġà¦ Ł
à¦¿à¦ ¦
à§Ģ à¦°
à¦¿à¦ ľ
âĢ Ļ
à§įà¦° à¦¤
à§ĩà¦ ĸ
à¦ Ļ
à§ĩà¦ ¯
à§ĭ à¦°
à§įà¦ ²
à¦¾à¦ ļ
à§ĩà¦ Ł
à§ģ à¦ķ
à§įà¦ ¸
à¦¿à¦ ®
à¦¾à¦ ¶
à§įà¦ ľ
à¦¿à¦ Ł
à§įà¦ ¨
Ġà¦ ¡
à¦ Ĩ
Ġà¦ı à¦¬
à¦¿à¦ Ń
à§ĭ à¦Ĺ
à§ Į
à¦ ı
à§įà¦ ķ
Ġà¦Ĩ à¦°
à¦¾à¦ ģ
à§ĩà¦ ¤
à§ ®
à§ Ń
à¦¼ à¥¤
à¦¾ à¥¤
à§ ¯
à¦¿à¦ ·
à§ ª
à¦¾à¦ §
Ġà¦ı à¦ĩ
à§ ¬
Ġà¦ §
Ġ âĢ
Ġà¦ ĺ
à§ĩà¦ ®
à¦¾à¦ Ł
Ġà¦ī à¦ª
à§Ģ à¦¯
à¦¼ à¦¨
Ġà¦® à¦¨
à¦¿ à¥¤
à¦¿à¦ ª
Ġà¦ıà¦ķ à¦Ł
à¦¼ à¦¿
à§ĩà¦ ·
à§įà¦ ļ
à§ĥ à¦¤
à¦¾à¦ ĵ
Ġà¦ķà¦° à¦¤
Ġ Â
à§įà¦ Ľ
Ġà¦¹ à¦¬
à§ģ à¦¦
à§ĩ ,
à§ģ à¦®
à§ĩà¦ ĵ
à§ĩà¦ ¬
à¦ ĥ
à¦ ŀ
. .
à§ĩà¦ ¦
Ġà¦Ĩ à¦¸
à¦ľ à¦¨
Ġà¦Ĩ à¦²
à§įà¦¯ à¦¬
à§Ĥ à¦°
à¦¿à¦ Ĥ
à§ĭ à¦Ł
à¦ķ à¦°
Ġà¦ı à¦°
à§įà¦¤ à¦°
à¦¿à¦ ļ
à§ģ à¦¯
à¦¾ ,
à¦¾à¦ ĸ
à§ Ī
à¦ª à¦¨
à¦® à¦¨
Ġà¦¸à¦® à¦¯
à¦¬ à¦°
à¦ĵ à¦¯
à§ĩà¦ ¸
Ġà¦Ĩ à¦Ĺ
à¦¾à¦° à¦£
à§Ģ à¦¨
Ġà¦ī à¦¦
à¦ ī
Ġà¦Ĩ à¦¬
à§įà¦¬ à¦°
Ġà¦¸ à¦°
ĠâĢ ĺ
à§ĭ à¦®
à¦ª à¦°
à§ĩà¦ ľ
à§ĭ à¦ķ
Ġà¦§ à¦°
à§ģ à¦·
Ġà¦® à¦§
Ġà¦¹ à¦²
à§ģ à¦¬
à¦ĸ à¦¨
Ġà¦ħ à¦Ń
Ġà¦¹ à¦¤
à¦¬ à¦¨
à§įà¦° à¦ķ
à§įà¦ ł
à¦¿à¦ ı
Ġà¦ħ à¦¬
à¦¾à¦ £
à¦ ł
à§Ģ à¦ķ
Ġà¦ķ à¦®
Ġà¦¸ à¦¬
à§ İ
Ġà¦Ĩ à¦ªà¦¨
à¦¿ ,
à§įà¦ Ń
à§ĩà¦ ¡
Ġà¦ı à¦¸
à¦¾à¦ Ľ
à¦¿à¦ Ľ
Ġà¦ļ à¦²
à§ģ à¦Ł
Ġà¦¸ à¦¨
Ġà¦¸ à¦Ļ
à§Ģ à¦¤
à¦¾à¦ļ à¦¨
à§ĭ à¦²
à§Ģ à¦¦
à¦¾à¦ĵ à¦¯
à¦¾à¦ «
à¦¾à¦ Ĥ
à§ģ à¦¤
à¦¾à¦® à¦²
à¦¾à¦ ¥
Ġà¦¦ à¦²
Ġà¦ª à¦¡
Ġ :
à§ĭ âĢĻ
à¦¿à¦ ī
à¦¸ à¦²
Ġà¦ ¢
à§ģ à¦ĩ
Ġà¦Ĩ à¦¨
à¦Ľ à¦°
à¦¿à¦ §
à¦¿à¦ ¹
à§ĭ à¦§
à¦¹ à¦®
à§Ģ à¦Ĺ
à¦Ĥ à¦¸
à§įà¦° à¦¦
Ġà¦¬ à¦°
à§įà¦¯ à¦®
à§Ĥ à¦²
à§ĭ à¦¸
à§įà¦° à¦®
Ġà¦ĺ à¦Ł
Ġà¦Ĩ à¦ĩ
Ġ -
Ġà¦ĵ à¦¯
à§ģ à¦ĸ
à¦¼ à§ĭ
Ġà¦¸ à¦¹
à¦¼ ,
à¦¿à¦ ¡
Ġà¦Ĩ à¦¦
Ġà¦ķ à¦¥
à§ĭ à¦¯
Ġà¦ħ à¦°
à§ģ à¦ª
Ġà¦® à¦¹
à¦¾à¦ĩ à¦²
à¦¾à¦ ī
à§ĭ à¦¬
Ġà¦ı à¦²
.. .
à§ĩà¦ ª
à§ĩà¦¶ à¦¨
Ġà¦Ľ à¦¬
à¦¿à¦· à¦¯
ĠÂ ·
à§įà¦ ŀ
à§įà¦¯ à¦ķ
i n
Ġà¦¬ à¦Ľà¦°
Ġà¦īà¦ª à¦ľ
à¦¾à¦ª à¦¤
Ġà¦Ĩà¦® à¦°
à¦¼ à¦¤
Ġà¦¸ à¦Ń
Ġà¦Ĩ à¦ľ
Ġà¦ħ à¦§
à¦¾à¦² à¦¯
à§įà¦° à¦¯
à§įà¦° à¦§
à¦ª à¦¤
à¦¾à¦¦ à¦ķ
à¦ ģ
à§įà¦ ¶
à¦¾à¦° à¦¤
Ġà¦Ĺ à¦¤
Ġà¦ĩ à¦¸à¦²
à¦ ĺ
à¦¿à¦ ĵ
à¦¿à¦ Ĺ
à¦¼ à¦ķ
Ġà¦ĩ à¦¨
à¦¾ -
à¦¼ à§Ģ
à§ĭ à¦¹
à§ĥ à¦·
à§įà¦¯à¦¬ à¦¹
Ġà¦¤ à¦¬
à§įà¦ £
Ġà¦ı à¦¨
Ġà¦¸à¦° à¦ķ
à¦¾à¦ Ļ
Ġà¦¸ à¦¦
à¦¾à¦ ·
Ġà¦® à¦¤
Ġà¦ı à¦ĸà¦¨
à¦¾à¦ĩ à¦Ł
à¦¸ à¦®
Ġà¦ĩ à¦ī
à¦¾à¦ ł
Ġà¦¸ à¦ķ
à§ĭ à¦ļ
à§ĩà¦ĵ à¦¯
Ġà¦Ĩ à¦Ľ
à¦¾à¦ĩ à¦¨
Ġà¦ķ à¦²
à§įà¦¤ à¦¬
à¦Ĥ à¦¶
Ġà¦° à¦¯
a n
à§įà¦° à¦¥
à¦Ĺ à¦ŀ
à§Į à¦¨
à§ĭ à¦·
à§įà¦° à¦¶
Ġà¦¹ à¦ļ
Ġà¦¬ à¦¨
à§įà¦° à¦¬
Ġ t
Ġà¦ª à¦¦
Ġà¦¨ à¦¯
à§įà¦°à¦¥ à¦®
Ġà¦ı à¦Ł
à§ĩà¦¦ à¦¨
Ġà¦ĺà¦Ł à¦¨
à§ģ à¦§
à§įà¦° à¦¸
à¦¾à¦Ĺ à¦°
à§ĭ à¦¡
Ġà¦¹ à¦ĵà¦¯
à§ĩà¦ĩ à¦²
e r
à¦ ħ
Ġà¦ķà¦° à¦¬
Ġà¦ħ à¦¸
à¦¾à¦ª à¦¨
Ġà¦ħà¦¬ à¦¸
à§ģ à¦¸
à§įà¦° à¦¹
Ġà¦ī à¦¨
à§Ģ à¦ª
Ġà¦Ĩ à¦ķ
Ġà¦Ĩ à¦ĵà¦¯
Ġà¦° à¦¹à¦®
à¦¿à¦ ĸ
Ġà¦¬ à¦¸
à§ĭ à¦¤
Ġà¦ī à¦¤
à¦¾à¦ Ń
à§ģ à¦¡
Ġà¦ı à¦¤
à§įà¦¯à¦¬ à¦¸
à§İ à¦¸
Ġà¦Ĩ à¦¶
e s
à¦° à¦®
à§įà¦¯ à¦¨
à¦¾à¦² à¦ķ
à¦Ĥ à¦¬
à¦¿à¦ı à¦¨
à§ĩà¦ Ĺ
Ġà¦ı à¦®à¦¨
à§ĩà¦ ¹
Ġà¦ķà¦° à¦Ľ
à¦Ĺ à¦°
à§Ī à¦°
à§įà¦· à¦£
Ġà¦¸à¦¨ à¦¦
Ġ à¥¤
c o
à§Ģ à¦¬
Ġà¦¤ à¦¥
à¦® à¦¤
à§Ģ à¦²
Ġà¦¨ à¦¤
à¦¾à¦ĩ à¦ķ
à¦¿à¦ «
- à¦®
à¦° à¦ķ
o n
à¦° à¦£
Ġà¦Ĩà¦ĩ à¦¨
Ġà¦Ĩ à¦¹
à§įà¦¤ à¦®
à¦¿à¦¹ à¦¤
à¦¾à¦° à¦ķ
à§įà¦¯ à¦¤
Ġà¦ħ à¦ķ
à§įà¦® à¦ķà¦°
ĠÂ «
à§Įà¦¨ à¦ķà¦°
à¦¿à¦ıà¦¨ à¦ª
- -
à§Ģ à¦®
Ġà¦ľ à¦®
Ġà¦« à¦²
Ġà¦¬ à¦¡
à§ĭ à¦ª
Ġà¦ħ à¦¤
Ġà¦ĵ à¦ĩ
à§Ĥ à¦¤
à¦ı à¦°
à§ĭà¦ļ à¦¨
à¦¾à¦° à¦¬
à¦¾à¦² à¦¤
e n
à¦ ¢
à§ģ à¦ľ
à¦Ĥ à¦Ĺ
âĢ Į
Ġà¦ĩ à¦¤
Ġà¦² à¦ķ
à§ĥ à¦¦
à¦¾à¦ī à¦¨
Ġà¦ĩà¦ī à¦¨
Ġà¦ Ĳ
Ġà¦ķ à¦¯
à§Ģ ,
Ġà¦Ĩ à¦¯
Ġà¦¯ à¦¦
Ġà¦¸à¦¦ à¦¸
à§Ģ à¦¬à¦¨
à¦¸ à¦¹
à¦¦ à¦¨
Ġà¦ħ à¦ª
à§įà¦ª à¦°
ĠÂ »
co m
à§įà¦ ĺ
Ġà¦ı à¦®
à¦Ł à¦ķ
à¦ı à¦¸
o v
à§ĩà¦ «
à§įà¦° à¦£
Ġà¦ħ à¦«
à§įà¦¬ à¦¬
à§įà¦¦ à¦°
d o
à¦¿à¦ £
à§įà¦° à¦ļ
à¦¾à¦¸ à¦ª
Ġà¦¸à¦® à¦¸
a t
Ġ S
à¦ Ŀ
Ġà¦ ł
à¦¼ à¦¸
Ġà¦¬ à¦ķ
Ġà¦¬ à¦¯
à§ĭ à¦Ń
à§ĭ à¦¬à¦°
à¦¿à¦¶ à¦¨
à§ĥ à¦¹
à¦¿à¦¦ à¦ª
Ġà¦¹ à¦ķ
à¦ª à¦ķ
Ġà¦ıà¦¸ à¦¬
. com
Ġ ...
à¦¼ à¦Ł
à§ĩà¦ ī
à§Ģ à¥¤
Ġà¦Ĩ à¦¹à¦®
à¦¾à¦® à¦¨
à¦¾à¦ķ à¦²
à¦Ĥ à¦ķ
âĢ ¦
à¦Ĩ à¦®
r e
Ġà¦ª à¦ķ
Ġà¦ķà¦° à¦²
à¦¾à¦² à¦¨
à¦Ĥà¦¸ à¦¦
* *
i l
à§ģ à¦Ĺ
à§ģ à¦£
à§ģ à¦¶
à¦¹ à¦¨
à¦¾à¦ľ à¦¨
à¦¾à¦ľ à¦¶
à§įà¦¨ à¦¯
Ġà¦ķ à¦¬
à¦² à¦ķ
m a
Ġ s
à¦¼ à¦¦
Ġà¦ķ à¦¨
Ġà¦¨ à¦Ń
Ġà¦Ĩà¦° à¦ĵ
o u
à¦° à¦¤
à¦¿à¦ ¥
à§ģ à¦¹
à§ĭ à¥¤
Ġà¦ĸ à¦¬à¦°
à§ĩà¦¸ à¦¬
à¦¿à¦ ĥ
à¦² à¦¬
à¦¤ à¦¨
à¦¾à¦¨ à¦¬
Ġà¦ī à¦ł
à§ĩà¦® à¦¨
à¦¿ -
à¦¼ à¦°
à¦¼ à¦®
à§ģ à¦ģ
Ġà¦ª à¦¥
Ġà¦ı à¦ª
Ġà¦ı à¦Ĺ
Ġà¦ħ à¦ªà¦°
Ġà¦° à¦ķ
à¦ĩ à¦¨
Ġà¦¶ à¦¤
Ġà¦¶ à¦¹
Ġà¦ıà¦ķ à¦ľà¦¨
Ġà¦ĩ à¦®
à§Į à¦§
à§Ī à¦¤
à¦¿à¦ī à¦ľ
à§įà¦°à¦¹ à¦£
. g
b d
Ġ P
à¦¿à¦ Ļ
Ġà¦Ĩ à¦ª
Ġà¦Ĩ à¦Łà¦ķ
à¦¾à¦¨ à¦®à¦¨
à¦Ľ à¦²
Ġà¦Ĺ à¦£
à§įà¦· à¦®à¦¤
à§įà¦ª à¦¨
à§įà¦§ à¦¤
à§ģà¦® à¦¤
à¦¿ à§İà¦¸
à¦¾à¦ĩ à¦°
à¦¶ à¦¨
Ġà¦ıà¦ķ à¦ĩ
Ġà¦ĩ à¦ŀ
Ġà¦ĺ à¦°
Ġà¦ Ŀ
Ġà¦ķ à¦ª
Ġà¦¸ à¦«
à§ĭ à¦ľ
à¦Ĺ à¦¤
à§ģà¦² à¦¨
Ġ A
Ġ C
à§ ·
à¦¾à¦ Ŀ
à¦¿à¦ ĩ
Ġà¦ª à¦¤
Ġà¦¦ à¦ķ
à§įà¦® à¦¦
à§ĥ à¦ķ
à¦¿à¦¬ à¦¹à¦¨
Ġà¦īà¦ª à¦°
e d
à¦¬ à¦¸
à¦¾à¦¨ à¦¤
Ġà¦¨ à¦¬
Ġà¦ľ à¦Ļ
à§įà¦¬ à¦ķ
à§įà¦Ł à¦Ĺ
Ġà¦¶ à¦°
à§įà¦ľ à¦¨
Ġà¦īà¦ª à¦¸
à§įà¦ļ à¦²
Ġà¦¸à¦ķ à¦²
à§ĭà¦· à¦£
.g ov
a r
h e
i t
Ġ a
Ġ c
à¦¾à¦° à¦¨
Ġà¦¸ à¦¤
à§ĭ ,
Ġà¦¦ à¦¶
à¦¾à¦® à¦°
à¦Ĥ à¦ĸ
à¦¾à¦ĩ à¦¸
Ġà¦ī à¦²
Ġà¦ī à¦ļ
Ġà¦Ń à¦¬à¦¨
à§ĩà¦² à¦¨
à¦¿à¦¦ à¦°
Ġà¦Ĩà¦Ĺ à¦¸
à¦ł à¦¨
à§ĭà¦§ à¦¨
. bd
o r
Ġà¦ Ī
à§ĭ à¦ĥ
à¦¬ à¦²
à§įà¦° à¦¨
Ġà¦ı à¦ĸ
à§įà¦¬ à¦¤
à¦¾à¦ķ à¦°
Ġà¦ĵ à¦ªà¦°
à¦¾à¦¸ à¦¨
Ġà¦ĩ à¦¸
- à¦¸
/ -
à§ĩà¦ ģ
à¦® à¦¯
Ġà¦Ĩ à¦¤
Ġà¦¦ à¦°
à¦¾à¦¬ à¦°
à¦ļ à¦Ł
à§Ĥ à¦ļ
à§ĭà¦¨ à¦ĵ
Ġà¦Ĩà¦¸ à¦¨
Ġà¦¸à¦¦ à¦°
do s
Ġ '
Ġ b
à§ĭ .
à§įà¦¤ à¦¨
Ġà¦ľ à¦¯
à¦¾à¦ĩ à¦¯
âĢ Ŀ
à§įà¦ª à¦¤
à§įà¦Ĺ à¦²à¦¬
à§Ī à¦¨
Ġà¦¸à¦¬ à¦ļ
à§ĩà¦« à¦¤
@ dos
a l
Ġ /
Ġ p
à§ģ à¦Ŀ
Ġà¦¬ à¦¹
à¦¾à¦¨ à¦ķ
à¦¼à§ĩ à¥¤
à¦Ĺ à¦£
à§ĥ à¦ªà¦ķ
à§Ĥ à¦ª
à§ĭà¦¨ à¦¯
à§ĩà¦ĸ à¦¤
à¦Ĩ à¦ĩ
à¦ı à¦®
à¦¿à¦ª à¦ķ
à§įà¦¶ à¦ķ
Ġà¦¶à¦¹ à¦°
) à¥¤
a d
à¦° à¦¸
à¦¾à¦° à¦Ł
à¦ķ à¦Ł
Ġà¦¸ à¦¡
à§įà¦° à¦Ĺ
à¦¼à¦¾ ,
Ġà¦ľ à¦¬
Ġà¦ļ à¦Ł
à¦Ĥ à¦ª
à¦Ĥ à¦ĺ
à§Ĥ à¦®
à¦¾à¦¹ à¦®
à¦¿à¦· à¦¦
Ġà¦Ĩà¦² à¦®
à§įà¦¶ à¦¨
Ġ n
à¦¾ à§İ
à¦¼ à¦Ĺ
à§ģ à¦Ń
Ġà¦ķ à¦ĸà¦¨
Ġà¦¬ à¦Ļ
à¦¾à¦¨ à¦Ł
Ġà¦¤ à¦ĸà¦¨
à§įà¦¬ à¦ª
à¦¾à¦¬ à¦²
à§įà¦· à¦ķ
Ġà¦ī à¦ĩ
ĠâĢ ¢
in g
Ġà¦Ĩà¦¹ à¦¤
ma il
o f
s e
Ġ h
à§ĩ -
à§ģ ,
à§ĭ à¦¥
Ġà¦ª à¦£
à§ĩà¦° à¦ķ
Ġà¦¨ à¦®
à¦¾à¦ª à¦ķ
ĠâĢ ľ
ĠÂ ł
Ġà¦ļà¦² à¦Ľ
Ġà¦Ĺà¦¤ à¦ķ
) ,
l e
s t
à§ĩà¦ Ń
à§ģ âĢĻ
à¦¾à¦° à¦ª
Ġà¦¸ à¦ª
à§ĭ à¦ĸ
à¥¤ âĢĻ
Ġà¦® à¦°
Ġà¦® à¦Ļ
Ġà¦¨ à¦Ĺà¦°
à§įà¦¬ à¦¨
à¦¾à¦ĩ à¦®
à¦¾à¦ĩ à¦Ń
Ġà¦Ń à¦¯
Ġà¦« à¦°
à§įà¦¥ à¦¨
Ġà¦¬à¦² à¦²
Ġà¦¡ à¦²
ĠâĢ ¦
Ġà¦Ĩà¦¸ à¦Ľ
Ġà¦ħà¦¬ à¦¶
@ g
i on
r a
Ġ m
à§ĩ ?
à¦¼ à¦£
à¦¼ à¦®à¦¨
à§ĭ à¦¶
à§ĭ à¦¦à¦¨
à¦¸ à¦ľ
à¦Ł à¦¨
à¦¾à¦ķ à¦¬
à¦Ľ à¦¡
Ġà¦ĩ à¦¯
à§įà¦Ĺ à¦¬à¦¨
à¦Ĩ à¦°
à¦¿à¦ı à¦®
à¦¿à¦ī à¦Ł
à§Ĥà¦² à¦ķ
- à¦ıà¦°
Ġ M
à¦¿ )
à§ĭ à¦¦
à§įà¦¯ à¦¦
Ġà¦ı à¦¡
Ġà¦¤ à¦°
à§ĩà¦¨ à¦¨
Ġà¦° à¦¬
à¦Ĥ à¦°à¦ķ
à¦¾à¦¬ à¦¨
à§įà¦® à¦ķ
à§Ĥ à¦¹
à¦ı à¦ķ
à¦¾à¦« à¦²
Ġt he
@g mail
à¦¼à¦®à¦¨ à¦¸
- à¦¬
d e
à¦¾à¦ ŀ
à§ĩà¦ Ļ
à§ĩà¦ ļ
à§ĩà¦ ŀ
à¦ķ à¦²
à¦¤ à¦®
Ġà¦¨ à¦ľ
à§įà¦¬ à¦²
Ġà¦Ĺ à¦¡
âĢ ĺ
à§ĩà¦ķ à¦Ł
à¦¾à¦¹ à¦²
à¦¿à¦¬ à¦°
à¦ı à¦ĩ
Ġà¦Ĩà¦¨ à¦¨
à¦¼à¦£ à¦Ĺà¦ŀ
u n
Ġ in
à¦¬ à¦Ľà¦°
Ġà¦ı à¦Ľ
Ġà¦¯ à¦ĸà¦¨
Ġà¦Ĺ à¦²
Ġà¦ĵ à¦°
à¦¾à¦ľ à¦®
Ġà¦ĸ à¦¨
à¦¾à¦¹ à¦°
à§įà¦² à¦ķ
Ġà¦§à¦° à¦¨
à§ģà¦Ł à¦¬à¦²
à§ĩà¦Ĺ à¦®
âĢĮ à§į
à§ĥà¦¹ à¦¸
** *
w w
Ġ f
Ġ an
Ġ of
à¦¾ :
à¦¼ à§ģ
à¦¼ à¦²
à§ģ à¦¸à¦²
à¦¾à¦° à¦¦
à¦¾à¦¨ à¦¬à¦¨
à¦¸ à¦¨
Ġà¦ı à¦¦
Ġà¦¹ à¦¨
à¦¦ à¦°
à¦¿à¦ķ à¦²
Ġà¦¯ à¦¥
à¦ĩ à¦²
à¦¾à¦ĩ à¦ľ
à¦¾à¦ĩ à¦¡
à§įà¦· à¦¤
à¦¾à¦ľ à¦§
à§Į à¦ģ
à¦¿à¦ı à¦¸
à§įà¦Ń à¦¬
à§ĭà¦² à¦¨
à§įà¦°à¦® à¦£
Ġà¦¸à¦¹ à¦ľ
an g
à§ģà¦§ à¦¬
a g
l a
l o
Ġ D
à¦¾à¦° à¦®
Ġà¦ķ à¦ķ
Ġà¦ķ à¦£
Ġà¦ħ à¦¥
à¦¿à¦ķ à¦¦
Ġà¦Ĺ à¦¬
à¦Ĥ à¦¯
à§ģà¦° à¦¸
à¦¾à¦¤ à¦ķ
à§įà¦® à¦¸
à¦¾à¦Ĺ à¦ľ
Ġà¦ħà¦¨ à¦²
à¦¿à¦ľ à¦¸
à§ĩà¦· à¦£
Ġà¦Ĩà¦¸ à¦²
à¦¿à¦Ĺ à¦ŀ
à¦Ĥà¦ĺ à¦°
Ġà¦¨à¦ľ à¦°
- à¦ª
i c
i m
Ġ ?
Ġ B
Ġ E
à¦¿ :
à§ĩà¦ £
à¦¾à¦° à¦ªà¦°
à¦¾à¦° à¦ªà¦¤
à¦ķ à¦¬
à¦ķ à¦®
Ġà¦ķ à¦¤
à§įà¦° à¦Ń
à§įà¦¯ à¦¸
à¦¾à¦¨ à¦Ĺà¦°
Ġà¦ľ à¦¡
à¦¾à¦² à¦Ł
à§įà¦¬ à¦¸
à¦¿à¦¤ à¦°
Ġà¦Ĺ à¦°
Ġà¦ī à§İà¦¸
Ġà¦Ń à¦°
Ġà¦ĩ à¦Ľà¦²
à¦¾à¦¹ à¦¤
Ġà¦ľà¦¨ à¦Ĺà¦£
à§Į à¦¦
à§ĩà¦¤ à¦¨
à§ģà¦¬ à¦ķ
à§įà¦°à¦ķ à¦²
Ġà¦ļà¦² à¦¤
à¦¿à¦Ĺ à¦¤
-- -
Ġà¦Ī à¦¦
> >
a m
v i
Ġ I
Ġ â
Ġ Ġ
à¦¼ à¦ĩ
à§ĩà¦ §
à§ģ à¦«
à§ģ à¦ľà¦¨
à¦¾à¦° à¦¸
à¦¾à¦° à¦ĩ
à¦¾à¦° à¦ĵ
Ġà¦¸ à¦ļ
à¦¤ à¦°
Ġà¦Ĩ à¦«
Ġà¦ľ à¦°
à¦¾à¦® à¦ķ
à¦¿à¦° à¦¤
à¦Ľ à¦¨
Ġà¦¶ à¦¨
Ġà¦ĵ à¦¬
à¦¾à¦¤ à¦¨
à¦¾à¦Ĺ à¦ĸ
à¦¾à¦Ĺ à¦¢
à¦¾à¦Ĺ à¦®à¦¯
à¦¾à¦Ĺ à¦ļà¦Ł
à§įà¦¸ à¦Ł
à¦Ĩ à¦ªà¦¨
à§Į à¦¯
à§Į à¦¸
à§ĭà¦ķ à¦ľà¦¨
Ġà¦Ĳ à¦ķ
w s
Ġ T
Ġà¦ ·
à¦¾ )
à¦¾à¦° à¦²
à¦¾à¦° à¦Ń
à¦¤ à¦¬
Ġà¦¨ à¦¥
Ġà¦ħ à¦²
Ġà¦ħ à¦ŀ
à¦¾à¦® à¦¸
à§įà¦¬ à¦¯
Ġà¦¶ à¦«
à¦¾à¦¦ à¦¶
à¦¿à¦² à¦¨
Ġà¦¸à¦® à¦°
Ġà¦ĩ à¦²
à§ĥ à¦¥
à¦ĸ à¦°
à§įà¦§ à¦¨
à¦¾à¦Ĺ à¦¬à¦°
Ġà¦ľà¦¨ à¦ķ
Ġà¦ľà¦¨ à¦ª
à¦¾à¦¶ à¦¨
à§Į à¦²
Ġà¦īà¦ª à¦²à¦ķ
à§ĭà¦® à¦¬
à§İ à¦ķ
Ġà¦¸à¦¹ à¦ķ
Ġà¦ıà¦®à¦¨ à¦ķ
Ġà¦īà¦ĩ à¦ķ
- à¦Ń
c t
e m
t h
à¦¾ !
à¦¿à¦ Ĩ
à¦¼ à¦¬
à§ģ à¦Ľà¦²
à§įà¦¯ à¦°
à§Ģ à¦¡
à§Ģ à¦«
Ġà¦Ĩ à¦ī
Ġà¦® à¦¯
Ġà¦® à¦¸à¦ľ
Ġà¦¹ à¦¸
à§įà¦¤ à¦¤
Ġà¦ħ à¦®
Ġà¦ħ à¦Ĺ
Ġà¦ħ à¦ľ
à¦¿à¦ķ à¦¤
à¦¿à¦° à¦ķ
à§įà¦Ł à¦®
Ġà¦ļ à¦°
à¦¾à¦¦ à¦¨
à¦¾à¦ª à¦°
à§įà¦ª à¦¦
à¦¿à¦¬ à¦¸
à§įà¦§ à¦°
à§ģà¦¨ à¦°
à¦¾à¦¶ à¦ķ
à¦¿à¦Ł à¦ķ
à§įà¦¨ à¦¤
Ġà¦ĺ à¦¨
à¦ķà¦° à¦£
Ġà¦¸à¦¹ à¦¯
à§ĭà¦¬ à¦¬
à§ĩà¦¦à¦¨ à¦ªà¦¤
en t
à¦Ĥà¦Ĺ à¦łà¦¨
c h
r o
u r
à¦¾ .
à¦¾à¦ ĺ
à¦¨ à¦¬
à§ģ à¦ĥ
Ġà¦¬ à¦ĩ
à§ĭ à¦ģ
à§ĩà¦° à¦ĵ
à§Ģ à¦£
Ġà¦® à¦¡
à¦¾à¦¨ à¦¸
à¦¸ à¦¬
Ġà¦ķà¦° à¦ª
à¦¾à¦® à¦Ĺ
Ġà¦° à¦¶
à¦ĩ à¦ı
Ġà¦ļ à¦¨
à§ģà¦² à¦¤
à¦¾à¦¸ à¦°
à¦¶ à¦²
Ġà¦ªà¦° à¦¬à¦°
Ġà¦« à¦°à¦®
Ġà¦« à¦ĸà¦°
à§įà¦¥ à¦¬à¦Ľà¦°
à¦¾à¦¶ à¦°
à§Į à¦¶à¦²
à§ĩà¦¬ à¦²
à¦ľà¦¨ à¦ķ
à§Ĥà¦° à¦£
Ġà¦ıà¦° à¦ªà¦°
à¦¾à¦ĸ à¦¤
à§ģà¦¬ à¦²
à§Ĥà¦² à¦¤
à§įà¦ŀ à¦ª
es s
- à¦ķ
< <
a p
a s
e l
e ws
Â »
Ġ W
Ġ vi
Ġ <<
à¦ Ĳ
à¦¿ /
à¦¼ -
à§ĩà¦ Ĩ
à¦¾à¦° à¦Ľ
à§ĭ à¦ĩ
à§ĭ à¦«
à§ĭ à¦ªà¦¨
Ġà¦ª à¦²
Ġà¦ª à¦¶
à§įà¦° à¦ª
Ġà¦® à¦ľ
à¦¾à¦¨ à¦¨
Ġà¦¦ à¦«
à§įà¦¤ à¦ķ
à¦¼à¦¾ à¥¤
Ġà¦¤ à¦²
Ġà¦¤ à¦¤
Ġà¦¤ à¦¦à¦¨
à¦¾à¦² à¦®
à¦¾à¦® à¦¤
à¦¿à¦¨ à¦Ł
à¦¾à¦ķ à¦¤
à¦Ĥ à¦²
à§ĩà¥¤ âĢĻ
à¦¾à¦ĩ à¦«
à¦¾à¦¤ à¦¬
à§ĩà¦¶ à¦ķ
à¦ļ à¦¨
Ġà¦ĩ à¦ļ
à¦¾à¦ª à¦¡
à§įà¦¥ à¦²
à¦Ĩ à¦¨
à§Į à¦°
à¦ı à¦¨
Ġà¦Ĩà¦° à¦¬
à¦ī à¦¦
Ġà¦Ĩà¦¬ à¦¦
Ġà¦ıà¦ĸà¦¨ à¦ĵ
Ġà¦¬à¦¸ à¦¬
à§įà¦ĺ à¦¦
à¦¿à¦ıà¦® à¦ĩà¦ı
Ġ<< >>
p s
t t
Ġ ,
Ġ F
Ġ H
Ġà¦ ĭ
à¦¾ âĢĻ
à¦¾à¦ ĥ
à¦¿ .
à§įà¦ «
à¦¼ à¦Ľ
Ġà¦¬ à¦Ĺ
Ġà¦ª à¦ł
à¦® à¦¹
à§įà¦° à¦«
à§įà¦¯ à¦ĩ
à§Ģ à¦ľ
Ġà¦¨ à¦¡
Ġà¦ħ à¦Ļ
à¦¾à¦² à¦¬
à¦¾à¦² à¦Ĺà¦ŀ
à¦¿à¦¨ à¦¯
à¦¿à¦ķ à¦Ń
à§įà¦¬ à¦¶
Ġà¦¯ à¦¤
à¦ĩ à¦¯
Ġà¦Ĺ à¦łà¦¨
Ġà¦ļ à¦ķ
Ġà¦ĵ à¦ł
âĢ Ķ
à§ĩà¦ķ à¦¨
à¦¾à¦ľ à¦¤
Ġà¦¸à¦® à¦¨
Ġà¦² à¦¡
Ġà¦ĸ à¦¦
Ġà¦Ľ à¦¯
à¦¾à¦Ĺ à¦¤
Ġà¦¬à¦² à¦¤
Ġà¦¬à¦² à¦Ľ
Ġà¦ıà¦ĩ à¦ļ
à§ģà¦® à¦¨
Ġà¦Ĩà¦² à¦«
à¦¿à¦ļ à¦¯
Ġà¦ļà¦² à¦ļ
à¦¿à¦ī à¦°
Ġ- --
à§įà¦¯à¦¤ à¦®
Ġà¦Ĩà¦¹à¦® à¦¦
à¦¿à§İà¦¸ à¦ķ
Ġà¦Ĩà¦ī à¦Ł
à§ĩà¦Ĩ à¦ĩà¦¨
c k
i s
Â ł
Ġ L
à¦° à¦ª
à§ĩ âĢĻ
à§įà¦ ĸ
à¦¨ à¦®
à§ģ à¥¤
Ġà¦¸ à¦ľ
Ġà¦ª à¦Ľà¦¨
à§įà¦¯ à¦¯
Ġà¦® à¦ŀ
à¦¸ à¦Ń
Ġà¦¨ à¦¦
Ġà¦¨ à¦Ł
à¦ª à¦¦
à¦¿à¦¨ à¦¤
à¦¿à¦° à¦ª
à§įà¦Ł à¦°
Ġà¦¶ à¦ķ
à¦¾à¦¸ à¦ķ
Ġà¦ī à§İ
à§ĩà¦² à¦¤
à§Ĥ à¦ľ
Ġà¦Ľ à¦¡
à¦ĸ à¦²
à§ĩà¦ĩ à¦¨
à¦« à¦°
Ġà¦¡ à¦ķ
Ġà¦ĺ à¦£
à¦¾à¦ĵ à¦²
Ġà¦Ĩà¦¸ à¦¤
Ġà¦īà¦¦ à¦¯
à§įà¦°à¦¦ à¦¤
à§įà¦ŀ à¦¤
à§ĭà¦¹ à¦°
à¦¾à¦ł à¦ķ
à¦ħ à¦¨
Ġà¦ıà¦® à¦ª
Ġà¦¦à¦¶ à¦®
à§ģà¦Ŀ à¦¤
Ġan d
Ġà¦ħà¦¥ à¦¬
- à¦ı
g h
h m
i d
Ġ *
Ġ .
Ġ N
Ġ R
Ġ w
à¦¾ ;
à¦¿à¦ ł
à¦¼ à¦ª
à§ģ à¦ļ
à§ĭ -
à¦® à¦°
à§įà¦° à¦²
à§įà¦¯ à¦®à¦¨
à§Ģ -
à§Ģ à¦Ń
Ġà¦Ĩ à¦§
à¦¾à¦¨ à¦Ĺ
Ġà¦ı à¦¯
Ġà¦ħ à¦¡
à¦¾à¦® à¦ļ
à¦¹ à¦¤
à¦¿à¦¤ à¦¬
Ġà¦¶ à¦¬
à¦¾à¦¸ à¦ļ
Ġà¦ī à¦Ń
Ġà¦ıà¦ķ à¦¦
Ġà¦ĸ à¦°
à¦¾à¦¹ à¦ķ
à§ĩà¦Ľ à¦¨
à¦« à¦¸
à§įà¦² à¦Ł
à§ĩà¦Ł à¦°
à§įà¦¸ à¦¬
à§Į à¦ķ
à¦¾à¦Ł à¦ķ
à§Ī à¦¯
à§ĩà¦¸ à¦ķ
à§ĩà¦¸ à¦°à¦ķ
à§ģà¦· à¦ķ
à¦¾à¦¥ à¦°
à¦¿à¦ī à¦¨
à¦¾à¦ī à¦ľ
Ġà¦ĩà¦ī à¦°
Ġt o
at e
à¦Ĩà¦® à¦°
Ġà¦¸à¦« à¦°
Ġà¦¸à¦« à¦²
Ġn ews
à§Įà¦² à¦Ń
à¦¿à¦Łà¦ķ à¦¯
Ġà¦īà¦Ń à¦¯
- à¦ªà¦°
/ /
: //
O N
U R
d i
h o
i st
p p
u t
Ġ !
Ġ "
Ġ ***
à¦ Ī
à¦¾ /
à§ĩ !
à¦¿ ?
à¦¿ âĢĻ
à¦¨ à¦¡
Ġà¦ķ à¦·
Ġà¦¸ à¦ł
à¦¬ à¦¦
à§įà¦¯ à¦ª
Ġà¦Ĩ à¦ļ
à¦¸ à¦°
à¦¸ à¦ķ
Ġà¦ı à¦ľ
Ġà¦ı à¦¶
Ġà¦ı à¦Ń
Ġà¦¦ à¦£
Ġà¦¦ à¦®à¦¨
Ġà¦¹ à¦ľ
Ġà¦¹ à¦°à¦¤
Ġà¦ħ à¦¦
à¦¿à¦ķ à¦Ł
à¦¾à¦ķ à¦®
Ġà¦¯ à¦¨
à¦ĩ à¦¸
Ġà¦Ĺ à¦°à¦®
à¦Ĥ -
à¦¾à¦ĩ à¦¬
à¦¾à¦¸ à¦¹
Ġà¦ī à¦°
Ġà¦Ń à¦ķ
à§ĥ à¦Ļ
à§Ĥ à¦¨
âĢĻ à¥¤
à§ĩà¦ĸ à¦²
à§ĭà¦° à¦Ĺà¦ŀ
à¦¾à¦ļ à¦²
à¦¿à¦® à¦¤
à§ĭà¦Ĺ à¦ªà¦¤
Ġà¦§ à¦¨
ĠâĢ ĵ
à¦¾à¦Ł à¦¤
à§įà¦ļ à¦¯
à§ģà¦® à¦ķ
Ġà¦Ĩà¦² à¦¹
à§Ī à¦¶
à§Ī à¦ł
à¦ī à¦²
à§įà¦Ń à¦°
à¦¾à¦« à¦¨
à¦¿à¦ī à¦²
à¦¿à¦ī à¦¡
à§ģà¦ĩ à¦¨
Ġà¦Ĩà¦ľ à¦ķ
Ġà¦ķà¦² à¦ķ
Ġà¦ªà¦¦ à¦ķ
à§įà¦°à¦¸ à¦Ļ
Ġà¦Ĳ à¦¤
do w
Ġà¦Ĺà¦£ à¦¤à¦¨
Ġà¦ķà¦ĸà¦¨ à¦ĵ
Ġh tt
ww w
à¦¿à¦Ĩ à¦°
Ġà¦ĭ à¦£
à§įà¦ĸ à¦²
Ġà¦ĸà¦° à¦ļ
à§Īà¦ł à¦ķ
- à¦¡
b er
Ġ e
Ĥ ¬
à¦° à¦²
à§ĩ :
à¦¿ !
à¦¿à¦ ģ
à¦¿à¦ Ŀ
à§ĩà¦ ı
à¦¾à¦° à¦Ĺ
à¦ķ à¦¦
à¦ķ à¦ľà¦¨
Ġà¦ķ à¦ł
Ġà¦¬ à¦¦
Ġà¦ª à¦ŀ
à§ĩà¦° à¦¦
à§įà¦¯ à¦ķà¦°
Ġà¦Ĩ à¦¡
Ġà¦Ĩ à¦ĺ
à¦¾à¦¨ à¦¦
Ġà¦ı à¦ľà¦¨
à§įà¦¤ à¦¦
à¦¼à¦¾ -
Ġà¦ľ à¦²
Ġà¦ľ à¦¹
à§ĩà¦¨ à¦¦
à¦¿à¦ķ à¦®
à¦¾à¦¯ à¦¥
Ġà¦° à¦¸
Ġà¦Ĺ à¦Ļ
Ġà¦ļ à¦¤
à¦¾à¦¬ à¦¤
âĢ ľ
à¦¿à¦² à¦ķ
à§įà¦· à¦®
à§ĩà¦¶ à¦Ł
à¦ļ à¦²
Ġà¦ıà¦ķ à¦®à¦¤
Ġà¦¸à¦® à¦¬
Ġà¦ĩ à¦¹
à§ĥ à¦£
à§įà¦¦ à¦ķ
à¦¾à¦¹ à¦¬
à¦¾à¦¹ à¦¸
à¦¿à¦¬ à¦°à¦£
à¦¾à¦Ĺ à¦¬
Ġà¦Ĩà¦® à¦¦
à§įà¦Ĺ à¦¤
à¦¿à¦ľ à¦Ń
âĢĻ à¦°
à§ĩà¦ĸ à¦ķ
à§ģà¦ķ à¦¦
à¦¿à¦Ł à¦¨
à¦Ĩ à¦Ĺ
à¦Ĩ à¦ľ
à§Į à¦°à¦¸
à¦ı à¦«
à¦¾à¥¤ âĢĻ
à¦¿à¦ª à¦¤
à§įà¦¯à¦¬ à¦§
à¦¾à¦ĸ à¦¨
à§Ģà¦¨ à¦¤
à¦ī à¦ª
à§ĭà¦ķ à¦ļ
à¦¿à¦ı à¦ķ
Ġà¦ķà¦® à¦ª
à§ģà¦¤ à¦°
à§Ģà¦Ĺ à¦ŀ
à¦¾à¦ī à¦¦
à¦¸à¦® à¦¯
Ġà¦ĩà¦ī à¦ıà¦¸
à§įà¦°à¦¥à¦® à¦¬
à§ģà¦¸ à¦°à¦£
Ġà¦¬à¦¸ à¦¤
en c
at ion
à¦Ĥà¦ķ à¦Ł
ou t
Ġà¦°à¦ķ à¦®
Ġà¦¸à¦¤ à¦°
à¦¾à§İ à¦ķ
ang la
ĠE UR
Ġâ Ĥ¬
Ġà¦īà§İ à¦ª
à§Įà¦°à¦¸ à¦Ń
, à¦¬
- à¦¨
- à¦¤
- à¦¦
- à¦Ĩà¦ĩ
. à¦ıà¦®
h a
i a
i v
l in
n s
o l
o o
u e
Ġ +
Ġ J
Ġ g
Ġ es
Ġ co
à¦¼ ?
à¦¼ à§Ĥ
à¦¾à¦° à¦ľ
à¦¾à¦° à¦ĵà¦¯
à¦ķ à¦¤
Ġà¦¬ à¦¦à¦°
à§ĭ à¦Ŀ
à§ĩà¦° à¦ª
à§ĩà¦° à¦£
à§įà¦° à¦ªà¦¤
à§Ģ à¦¹
à§Ģ à¦ļ
Ġà¦¨ à¦ķ
Ġà¦¦ à¦°à¦ķ
à¦¼à§ĩ ,
Ġà¦¤ à¦«à¦¸
à¦¾à¦® à¦Ł
à¦¿à¦ķ à¦°
Ġà¦° à¦ª
Ġà¦° à¦¹
Ġà¦° à¦«
Ġà¦° à¦ļà¦¨
à§įà¦Ł à¦¨
Ġà¦Ĺ à¦¨
Ġà¦Ĺ à¦Ń
à¦¾à¦ĩ à¦ª
à¦¾à¦¬ à¦Ĺà¦ŀ
Ġà¦ī à¦¡
Ġà¦Ń à¦¬
à§ĩà¦¶ à¦¬
Ġà¦ıà¦ķ à¦¬
Ġà¦« à¦Ł
à§įà¦® à¦¤
à§įà¦® à¦¬
à§įà¦® à¦¯
à§ĥ à¦¶
à¦¾à¦¹ à¦¨
à§įà¦ª à¦·
Ġà¦Ĩà¦® à¦²
à§įà¦¡ à¦¨
Ġà¦Ł à¦®
à¦¿à¦ľ à¦¯
à§ĩà¦Ł à¦Ł
à§ģà¦ķ à¦°
à§įà¦¸ à¦ª
à¦Ĩ à¦²
à¦Ĩ à¦¬
à¦Ĩ à¦ĵà¦¯
à§Į -
à§įà¦ķ à¦°
à§įà¦ķ à¦¤
à§ĩà¦¤ à¦°
à¦¿à¦ª à¦°
à§įà¦ļ à¦¤
Ġà¦§à¦° à¦¤
à§ģà¦¬ à¦ĩ
à¦¾à¦ļà¦¨ à¦ķ
à¦¾à¦¥ à¦®
Ġà¦Ĩà¦ĩ à¦«
à¦¾à¦ī à¦ķ
Ġà¦Ĩà¦ľ à¦®
er s
à¦ħ à¦¬
à§ĥà¦¦ à¦¯
à¦¾à¦īà¦¨ à¦²
ĠS e
âĢ¦ âĢ¦
Ġà¦ķà¦¨ à¦¸
ou r
ĠA n
, à¦ķ
- à¦¶
O R
Y ou
c e
f er
m ent
n lo
o re
t er
Ġ #
Ġ [
Ġ y
Ġ dow
à¦¾ ?
à¦¿à¦ ĺ
à¦¼ à¦ªà¦¤
à§ĩà¦ ĺ
à§ģ -
à§ģ à§İ
à¦¾à¦° à¦ĸ
à¦ķ à¦¨
à¦² à¦¨
à§ĩà¦° à¦¤
à§ĩà¦° à¦ĩ
à§įà¦¯ à¦ĵ
à§Ģ à¦·
Ġà¦Ĩ à¦Ł
Ġà¦® à¦£
à¦¾à¦¨ à¦ľ
à¦¾à¦¨ à¦ļ
à¦¸ à¦¤
Ġà¦¨ à¦Ĺ
Ġà¦¨ à¦ķà¦²
Ġà¦¦ à¦¤
Ġà¦¹ à¦ĩ
à¦ª à¦¡
à¦ª à¦¥
Ġà¦ľ à¦¸
Ġà¦ħ à¦¶
à¦¾à¦² à¦¦
à¦¾à¦² à¦Ľà¦¡
à¦¿à¦° à¦¬
à¦¿à¦° à¦ĩ
à§įà¦Ł à¦ķ
à§įà¦Ł à¦¸
à¦Ĥ à¦°
à¦¾à¦ĩ à¦¤
à¦¾à¦ĩ à¦Ĺ
Ġà¦ĵ à¦¸à¦®
à§ģà¦° à¦Ĩà¦¨
à¦¾à¦¬ à¦§
à¦¾à¦¸ à¦¸
à§įà¦· à¦°
Ġà¦ī à¦ĩà¦¨
à¦§ à¦°
à§ĩà¦² à¦¬
Ġà¦ıà¦ķ à¦°
Ġà¦ıà¦ķ à¦¸
Ġà¦ĩ à¦ķ
Ġà¦ĩ à¦ķà¦¬
à§įà¦® à¦ĺ
à§Ĥ à¦¡
à¦¾à¦¹ à¦ľ
à¦¾à¦ª à¦¦
à¦¾à¦ª à¦Ł
à§įà¦ª à¦£
à§įà¦¥ à¦Ĺ
à¦ĵ à¦¤
à¦¿à¦¬ à¦¨
à¦¿à¦¸ à¦¹
à¦¾à¦Ĺ à¦¡
à§ĭà¦¨ à¦®
à§ĩà¦ĸ à¦Ľ
à§įà¦² à¦Ĺ
à§Į à¦¡
à¦ı à¦²
à¦¾à¦Ł à¦®
Ġà¦īà¦ª à¦ķ
Ġà¦īà¦ª à¦¯
à¦¿à¦ª à¦¨
à¦¼à¦¿ ,
Ġà¦Ĩà¦¸ à¦¬
à¦ķà¦° à¦¨
à§ĩà¦ľ à¦¨
Ġà¦ıà¦¸ à¦®à¦¯
Ġà¦ļà¦² à¦¬
Ġà¦¦à¦² à¦ķ
à§įà¦°à¦¦ à¦°
Ġà¦Ĩà¦ĩ à¦¸
Ġà¦Ĩà¦¦ à¦°
à¦¾à¦ī à¦¡
à¦¼à¦¤ à¦®
à¦ģ à¦ļ
à¦ĺ à¦°
à¦¿à¦Ĺ à¦Ĺ
Ġà¦ĩà¦¨ à¦ķ
Ġà¦ıà¦¨ à¦¸
à¦¸à¦® à¦°
Ġà¦ĩà¦ī à¦ª
Ġt h
à¦ħ à¦°
à¦ħ à¦Ń
Ġà¦Ĩà¦¶ à¦Ļ
Ġà¦Ĩà¦ĩà¦¨ à¦ľ
Ġà¦Ĩà¦ĩà¦¨ à¦¶
à¦ıà¦¸ à¦¸
ov em
à¦¿à¦£ à¦¤
Ġc an
Ġc ess
Ġn se
de o
Ġà¦ħà¦¥ à¦ļ
ĠI n
gh t
Ġà¦Ĩà¦ļ à¦°à¦£
Ġes se
nlo ad
Ġdow nload
& F
- à¦¯
. à¦ķà¦®
A T
b e
e ad
i es
o m
s ra
t ar
t ion
u m
Ġ )
Ġ d
Ġ on
Ġ de
Ġ You
à¦¾ ...
à§ĩ )
à¦¾à¦ Ī
à¦¿ à§İà¦ķ
à¦¼ !
à¦¼ :
à¦¼ à§į
à¦¼ à¦Ń
à¦¼ à¦ķà¦°
à¦¼ à¦¾à¦Ĥ
à§ģ '
à§ģ à¦Ļ
Ġà¦ķ à¦¬à¦°
à¦² à¦®
Ġà¦¬ à¦ľ
Ġà¦¬ à¦¹à¦¨
à§ĭ à¦ĵ
Ġà¦ª à¦¯
à¦¬ à¦¹
à¦® à¦¸
à¦® à¦ľ
à§įà¦° à¦ľ
à§Ģ âĢĻ
à§Ģ à¦¸à¦¹
Ġà¦® à¦¦
Ġà¦¨ à¦¨
Ġà¦¹ à¦°
à§įà¦¤ à¦«
Ġà¦¤ à§İà¦ķ
à¦Ĺ à¦²
à¦Ĺ à¦¬
à¦Ĺ à¦¡
à¦¾à¦² à¦ª
à¦¾à¦® à¦Ľ
à¦¾à¦® à¦¡
à¦¿à¦¨ à¦ķ
à¦¿à¦° à¦¸
Ġà¦° à¦¨
Ġà¦° à¦Ļ
à¦ľ à¦²
à¦¾à¦ĩ à¦¦
Ġà¦ĵ à¦ķ
Ġà¦ĵ à¦Ń
à§ģà¦° à¦¹
à¦¾à¦¬ à¦¸
à§ģà¦² à¦¬
à¦¾à¦¤ à¦°
à¦¿à¦² à¦Ń
à§įà¦· à¦¨
à§įà¦· à¦¯
Ġà¦« à¦¯
Ġà¦ĩ à¦Ļ
à§ĥ à¦¨
à§ĥ à¦ª
à§įà¦¦ à¦¨
à§Ĥ à¦¦
à¦¾à¦ª à¦¸
à§įà¦ª à¦¶
à¦ĵ à¦¸
à¦ĵ à¦Ĺ
Ġà¦¬à¦² à¦¬
à¦« à¦¤
à¦« à¦Ł
à¦« à¦°à¦®
à§ĭà¦° à¦ķ
à§įà¦² à¦¬
à¦¿à¦® à¦¨
à¦¿à¦® à¦¯
à§Į à¦¥
à¦ı à¦¦
Ġà¦īà¦ª à¦¦
à¦¿à¥¤ âĢĻ
à§ĩà¦· à¦ķ
à§ĩà¦¦ à¦ķ
Ġà¦Ĩà¦² à¦¬
à¦¾à¦°à¦£ à¦¤
à§Ģà¦¨ à¦Ĺà¦°
à¦ī à¦ľ
Ġà¦¸à¦° à¦¬à¦°
à§ĭà¦® à¦°
à§ĩà¦ľ à¦°
Ġà¦§à¦° à¦£
à¦¿à¦ı à¦«
Ġà¦ħà¦¬ à¦¹
Ġà¦ļà¦² à¦¨à¦¬
Ġ: :
à§ģà¦ĩ à¦Ł
à¦¿à¦§ à¦¨
Ġà¦Ĩà¦ĩ à¦ª
à¦¾à¦ī à¦²
à¦¼à¦¤ à¦¨
à¦¼à¦¤ à¦ª
à¦¿à¦ĵ à¦ļ
à§ĭà¦¹ à¦¨
à§ĥà¦· à¦ķ
à¦¾à¦Ļ à¦ļ
à¦Ĥà¦¶ à¦Ĺ
Ġt it
à¦ħ à¦ªà¦°
Ġà¦Ĩà¦ķ à¦¸
on g
à§įà¦ĺ à¦¨
à§įà¦ĺ à¦Łà¦¨
à§ĥà¦¹ à¦ķà¦°
Ġs ong
à¦¾à¦¨à¦¬ à¦¤
Ġà¦ĩà¦® à¦°
ĠP H
ĠP re
Ġà¦¦à¦¶ à¦ķ
Ġà¦Ī à¦¶
-à¦¸ à¦Ń
ĠM ore
Ġà¦ĵà¦° à¦«
Ġf re
im e
Ġà¦īà§İà¦¸ à¦¬
Ġvi deo
ĠN ovem
pp ing
Ġà¦¬à¦¦ à¦²
à§ĥà¦£ à¦®
Ġà¦¨à¦ķ à¦¶
Ġà¦°à¦¹ à¦¸
ĠNovem ber
, à¦¸à¦®
- à¦°
- à¦Ĺ
- à¦ļ
/ à¦ª
a ck
e t
f i
g in
i r
i ght
j o
r ou
u s
Ġ O
Ġ U
Ġ k
Ġ l
Ġ à¥
Ġ ma
Ġ un
Ġ www
à¦¾ '
à¦° à¦¬
à§ĩ '
à§ĩ ;
à¦¼ à¦Ĥ
à§ģ à¦Ľ
à§ģ à¦¥
à§ģ à¦ł
Ġà¦¸ à¦ŀ
à¦² à¦Ĺ
à¦¬ à¦¦à¦¨
à¦® à¦¸à¦ľ
à§įà¦° à¦ĩ
à§Ģ /
à§Ģ à¦Ł
à§Ģ à¦ķà¦°à¦£
Ġà¦Ĩ à¦ĸ
Ġà¦Ĩ à¦ŀ
Ġà¦Ĩ à¦ĵà¦¤
Ġà¦® à¦¸
Ġà¦® à§İà¦¸
Ġà¦¦ à¦ĸà¦²
Ġà¦ħ à¦¯
Ġà¦ħ à¦Ł
Ġà¦ħ à¦¬à¦°
à¦Ĺ à¦ķ
à¦¿à¦ķ à¦ķ
à¦¿à¦ķ à¦¬
à§įà¦¬ à¦¦
Ġà¦¯ à¦®
Ġà¦¯ à¦¶
à¦ĩ à¦Ł
à¦ĩ à¦ļ
à¦ľ à¦¯
Ġà¦¶ à¦°à¦£
à§ģà¦° à¦®
âĢ į
Ġà¦ī à¦ķ
à¦¶ à¦ķ
à¦¶ à¦¤
à¦§ à¦¨
à§ĩà¦² à¦¸
Ġà¦ıà¦ķ à¦®
à¦¾à¦ľ à¦ķ
à¦¾à¦ľ à¦¬
à¦¾à¦ľ à¦¦
Ġà¦ĩ à¦°
Ġà¦ĩ à¦ľ
Ġà¦ĩ à¦Ń
Ġà¦² à¦Ļ
à¦¿à¦¶ à¦ķ
à§ĥ à¦¬
à§įà¦¦ à¦²
à¦¾à¦¹ à¦«
à¦¾à¦ª à¦²
à¦¾à¦ª à¦®
à¦ĵ à¦ĩ
à¦¿à¦¸ à¦®
à§įà¦§ à¦¬
à¦¾à¦Ĺ à¦Ľ
à§ĩà¦ĩ à¦ľ
à§ĭà¦¨ à¦Ł
Ġà¦ľà¦¨ à¦¸
Ġà¦ľà¦¨ à¦Ĺ
à¦« à¦¤à¦°
à¦¿à¦¦ à¦«à¦¤à¦°
âĢĻ -
à§ĩà¦ĸ à¦¬
à¦¿à¦® à¦¬
Ġà¦¡ à¦Ł
à§Į à¦ĸ
à¦ı à¦¡
à¦¾à¦ģ âĢĻ
à¦¼à¥¤ âĢĻ
ĠâĢ Ŀ
à§ĩà¦® à¦ª
à¦¾à¦Ł à¦¨
à¦¼à¦¨ à¦ªà¦¤
à§ĩà¦· à¦ľ
à§įà¦ļ à¦®
Ġà¦Ĩà¦¸ à¦°
à§ĭà¦Ł à¦¦
Ġà¦ıà¦° à¦ķà¦®
à§įà¦¤à¦° à¦ķ
à§Ī à¦§
à§ĩà¦ľ à¦Ĺ
Ġà¦§à¦° à¦®
à¦¾à¦« à¦°
Ġà¦¦à¦² à¦Ĺ
à§ģà¦ĸ à¦¬à¦°
Ġà¦Ĩà¦ľ à¦ĵ
à¦¼à¦ķ à¦Ł
Ġà¦ĩà¦¨ à¦¸
Ġt e
à§ģà¦¸ à¦¨
à§ģà¦¸ à¦¹
Ġà¦Ĩà¦¶ à¦°
âĢĮ à¦ļ
à¦Łà¦ķ à¦®
à§ģà¦Ĺ à¦²
Ġs u
ĠP r
Ġà¦Ĩà¦ª à¦²
Ġà¦Ĺà¦£ à¦®
Ġà¦Ĺà¦£ à¦«
à§ĭà¦ľ à¦Ĺ
à§Ĥà¦ļ à¦¨
Ġb e
Ġb y
à§įà¦¶à¦ķ à¦¦
le ct
Ġm sra
Ġin f
Ġan y
ag e
à¦¿à¦Ĩ à¦ĩ
à¦¾. )
ap er
hm an
ON E
à¦Ī à¦¨
Ġhtt ps
à§ĩà¦ı à¦®
à¦ıà¦« à¦ª
enc es
fer ences
ĠPre ferences
Ġà¥ ¥
Ġmsra hman
- à¦Ĩ
. C
/ à¦ı
E R
K Y
M S
O M
R ead
S I
S S
a f
a v
a in
a hm
d d
e b
h i
o w
r i
t i
Â ©
Ġ ;
Ġ =
Ġ X
Ġ x
Ġ com
Ġ la
Ġ im
à§ĩ .
à¦¾à¦ ¢
à¦¨ à¦Ĺà¦°
à¦¼ à¦¯
à¦¼ à¦¬à¦¸
à§ĩà¦ ¥
à§ģ à¦ĵ
à§ģ à¦ŀ
à¦¾à¦° à¦°
à¦² à¦Łà¦¨
à§ĭ :
à§ĭ à¦ľà¦¨
Ġà¦ª à¦¬
à¦¬ à¦Ĺ
à¦¬ à¦§
à¦® à¦ķ
à¦® à¦§
à¦® à¦Ļ
à§ĩà¦° à¦²
à§įà¦° à¦Ł
à§įà¦° à¦®à¦¨
à§įà¦° à¦¬à¦¨
à¥¤ à¦¬
à§įà¦¯ à¦«
à§Ģ :
à§Ģ à¦ĩ
à§Ģ à¦¶
à§Ģ à¦ĵ
Ġà¦® à¦Īà¦¨
à¦¾à¦¨ à¦¯
Ġà¦ı à¦ıà¦¸
Ġà¦¨ à¦·
Ġà¦¨ à¦°à¦®
Ġà¦¦ à¦®
Ġà¦¦ à¦ª
Ġà¦¹ à¦ł
à¦¦ à¦ª
à¦ª à¦²
Ġà¦ľ à¦ķ
Ġà¦¤ à§İ
Ġà¦ħ à¦¸à¦®
à§ĩà¦¨ à¦ķ
à¦¾à¦² à¦Ń
à¦¾à¦® à¦¯
à¦¾à¦® à¦ĵ
à¦¿à¦¨ à¦¬
à¦¿à¦¨ à¦¹
à§įà¦¬ à¦¤à¦¨
Ġà¦° à¦®à¦ľ
à¦¾à¦ķ à¦ļ
à¦ĩ à¦ī
à¦ĩ à¦¸à¦²
à§įà¦Ł à¦¦
à§įà¦Ł à¦«
à¦ľ à¦¤
Ġà¦¶ à¦®à¦¸
Ġà¦Ĺ à¦ł
Ġà¦ļ à¦¬
Ġà¦ļ à¦°à¦®
à¦¾à¦ĩ à¦Ľ
Ġà¦ĵ à¦¦
Ġà¦ĵ à¦ľà¦¨
à§ģà¦° à¦¨
à§ģà¦° à¦ķ
à§ģà¦° à¦¬
à¦¾à¦¬ à¦¦
à¦¾à¦¬ à¦¹
à¦¾à¦¤ à¦¦à¦¨
à¦¾à¦¦ à¦¦
à¦¾à¦¦ à¦£
à¦£ à¦¬
à¦¿à¦² à¦°
à¦¿à¦² à¦®
à¦¿à¦² à¦Ł
à¦¾à¦¸ à¦¬
à¦¾à¦¸ à¦®
Ġà¦ī à¦Ł
à¦¶ à¦°
Ġà¦Ń à¦Ĺ
Ġà¦Ń à¦°à¦¸
à§ĩà¦ķ à¦°
à¦ļ à¦ķ
à§ĩà¦² à¦ª
Ġà¦ıà¦ķ à¦ķ
Ġà¦« à¦ľà¦²
à¦¾à¦ľ à¦¸
à¦¾à¦ľ à¦Ł
Ġà¦ĩ à¦Ł
Ġà¦ĩ à¦«à¦¤
à§įà¦® à¦Ĺ
à§įà¦® à¦ļ
à§įà¦® à¦°à¦¤
à§įà¦® à¦¸à¦®à¦°
à§įà¦® à¦£à¦¬
Ġà¦ĸ à¦²
à§įà¦¦ à¦¶
à§Ĥ à¦ĸ
à¦¾à¦ª à¦«
à§įà¦ª à¦ķ
à§įà¦¥ à¦®à¦¨
à¦¿à¦¸ à¦ķ
à§įà¦§ à¦ķ
à¦¾à¦Ĺ à¦²
Ġà¦Ĩà¦® à¦¨
Ġà¦Ĩà¦® à¦²à¦ķ
à§įà¦Ĺ à¦°
à§įà¦¡ à¦²
à§įà¦¡ à¦ª
à¦¿à¦¦ à¦²
âĢĻ à¦²
à§ĭà¦° à¦¬
à§ĭà¦° à¦£
à§ģà¦ķ à¦¯
à§įà¦¸ à¦®
à§įà¦¸ à¦ıà¦¸
à§Į à¦®
à¦ı à¦¬
à¦ı à¦Ľ
à§įà¦ķ à¦Ł
Ġà¦ıà¦ĩ à¦¸à¦¬
à§ĩà¦® à¦¬
à¦¾à¦Ł à¦°
à¦¾à¦Ł à¦¸à¦®
à¦¾à¦Ł à¦«à¦°
à§ĥà¦¤ à¦ľ
à§ģà¦¦ à¦£
à¦ĥ à¦¸
à§įà¦¯à¦¬ à¦¦
à¦¿à¦Ĥ ,
à¦¿à¦Ĥ -
à¦¿à¦Ĥ à¥¤
à§ĭà¦Ł à¦°à¦¸
à¦¾à¦ĸ à¦²
à¦¾à¦ĸ à¦¬
à§Ī à¦ļ
Ġà¦Ĩà¦Ĺ à¦·
à§ĭà¦® à¦§
à¦ªà¦° à¦¤
à§ĭà¦ķ à¦¨
à§ģà¦¬ à¦¨
à¦¿à¦ı à¦²
à¦¿à¦ı à¦ĩà¦ļ
Ġà¦ıà¦¸ à¦ıà¦¸à¦¸
Ġà¦Ĩà¦¨ à¦¤
à§ĭà¦§ à¦ªà¦¦
à§Ĥà¦² à¦§à¦¨
Ġà¦ĺà¦Ł à¦Ľ
Ġà¦Ĩà¦ĩ à¦ľ
Ġà¦¸à¦¹ à¦¸à¦Ń
à§ĭà¦¬ à¦ĩ
à¦ĺ à¦Łà¦¨
à¦¼à§Ģ ,
Ġà¦®à¦¤ à¦¬
Ġà¦ıà¦ĸà¦¨ à¦ĩ
à¦¾à¦ĩà¦Ł à¦Ł
à¦¸à¦® à¦ķ
à¦¾à¦ĩà¦¨ à¦¬
Ġt am
Ġà¦ªà¦¦ à¦¤
à§ģà¦§ à¦°
Ġà¦Ĩà¦ķ à¦¬à¦°
Ġà¦ıà¦¤ à¦¦
Ġà¦ıà¦®à¦¨ à¦Ł
à¦¿à¦« à¦²
Ġà¦Ĩà¦¹ à¦¬
à§Ģà¦® à¦īà¦¦
à¦ıà¦° à¦ªà¦°
en d
à§Ģà¦¬à¦¨ à¦¯
à¦¸à¦¹ à¦ķ
Ġà¦ıà¦® à¦¸
à§įà¦°à¦ļ à¦²
at tar
à§ĥà¦¹ à¦¤
à§ģà¦¶ à¦«
Ġs e
Ġà¦ķà¦¨ à¦Ł
à¦¾à¦¨à¦¬ à¦¬à¦¨
Ġà¦īà¦ł à¦²
Ġà¦īà¦ł à¦¤
à§ĩà¦®à¦¨ à¦Ł
à§įà¦°à¦¹à¦£ à¦ķ
Ġà¦¸à¦« à¦Ł
ĠC h
it ed
Ġc ns
Ġà¦¦à¦¶ à¦Ł
Ġà¦Ĩà¦²à¦® à¦Ĺ
à¦¾à¦ĩà¦® à¦¸
à¦¿à¦ıà¦¸ à¦ĩ
à¦¾à¦Ĺà¦ľ à¦ªà¦¤
ĠB angla
Ġà¦ķà¦¤ à¦Ł
à§ģà¦« à¦²
Ġà¦· à¦¡
à§ĥà¦¥ à¦ķ
à§Įà¦² à¦¤
à¦¾à¦®à¦Ĺ à¦¡
Ġhtt p
out u
lin k
à¦¼à§Ĥ ,
Ġà¦Ĩà¦ľà¦® à¦²
Ġtit s
Ġsong s
ĠPH ONE
à¦¼à¦¯ à¦¨
Ġà¦¤à§İ à¦ªà¦°à¦¤
Ġtam il
ĠPHONE KY
) -
) /
- f
- à¦Ł
. f
/ à¦¨
/ à¦¡
A C
I C
N E
U n
a b
a y
a z
b ad
d s
d u
d ay
i g
l y
o c
p o
p or
p tion
q u
r gin
u re
u st
y a
y outu
ĉ Read
Ġ G
Ġ K
Ġ V
Ġ o
Ġ en
Ġ it
Ĩ Ĵ
à§ĩ ...
à§į âĢĮ
à§į âĢį
à¦¿ à§İ
à¦¿ ...
à¦¿ âĢ¦
à¦¿ )à¥¤
à¦¨ à¦¤
à¦¨ à¦°à¦¸
à¦¼ à¦ĵ
à¦¼ à¦¿à¦Ĥ
à¦¾à¦° à¦«à¦°à¦®
Ġà¦¸ à¦²
Ġà¦¸ à¦¸
Ġà¦¸ à¦ĵ
à¦² à¦ª
Ġà¦¬ à¦Ł
Ġà¦¬ à¦¶
Ġà¦¬ à¦ī
à¦¤ à¦²
à§ĭ ?
Ġà¦ª à¦Ł
à§įà¦° à¦·
à§įà¦° à¦ªà¦ķ
à§įà¦° à¦Ĺà¦¤
à¥¤ "
à§įà¦¯ à¦²
à§įà¦¯ à¦¥
à§įà¦¯ à¦Ļ
à§Ģ à¦ĺ
Ġà¦Ĩ à¦Ļ
Ġà¦Ĩ à¦ķà¦°
Ġà¦® à¦¶
à¦¾à¦¨ à¦°
à¦¸ à¦Ļ
Ġà¦ı à¦ıà¦«à¦ª
Ġà¦¨ à¦°
Ġà¦¨ à¦ĩ
Ġà¦¨ à¦ĵà¦Ĺ
Ġà¦¹ à¦Ł
à¦¦ à¦ķ
à¦ª à¦Ł
à¦ª à¦ŀ
à¦Ł à¦¸
à¦¼à¦¾ )
Ġà¦ħ à¦·
à§ĩà¦¨ à¦¸
à§ĩà¦¨ à¦ª
à¦Ĺ à¦¨
à¦¾à¦® à¦¬
à¦¾à¦® à¦ª
à¦¾à¦® à¦Ĺà¦ŀ
à¦¿à¦¨ à¦ĩ
à¦¿à¦ķ à¦¶
à¦¿à¦ķ à¦Ĺà¦ŀ
à¦¿à¦ķ à¦Ľà¦¡
à¦¿à¦° à¦²
à¦¿à¦° à¦Ń
à¦¿à¦° à¦¸à¦¨
Ġà¦° à¦¥
à¦¹ à¦°
à¦¾à¦ķ à¦Ł
à¦¾à¦ķ à¦Ľ
à¦¾à¦ķ à¦¶à¦¨
à¦Ľ à¦¬
à¦ĩ à¦¤
à§įà¦Ł à¦ľ
à¦¿à¦¤ à¦°à¦£
Ġà¦¶ à¦¯
à¦¾à¦ĩ à¦¹
Ġà¦ĵ à¦¸
à¦¡ à¦¬
à§ģà¦° à¦Ĺ
à¦¾à¦¬ à¦ķ
à¦¾à¦¬ à¦Ł
à¦¾à¦¬ à¦¶
à§ģà¦² à¦ķ
à¦¾à¦¤ à¦¤
à¦¾à¦¤ à¦Ł
à¦¾à¦¤ à¦ķà¦°à¦£
âĢ ĵ
à¦¾à¦¦ à¦®
à¦¿à¦² à¦¤
à¦¿à¦² à¦¬
à¦¾à¦¸ à¦¤
Ġà¦ī à¦·
Ġà¦ªà¦° à¦®
Ġà¦ªà¦° à¦ĵ
à§ĩà¦¶ à¦ľ
à§ĩà¦ķ à¦¦
à§ĩà¦ķ à¦¶à¦¨
à§ĩà¦² à¦²
à§ĩà¦² à¦«
Ġà¦« à¦¨
Ġà¦« à¦¤
à¦¾à¦ľ à¦°
à¦¾à¦ľ à¦ª
à¦¾à¦ľ à¦Ĺà¦ŀ
Ġà¦¸à¦® à¦ķ
Ġà¦¹à¦¯ à¦°à¦¤
Ġà¦² à¦®
à§įà¦® à¦°
à§įà¦® à¦°à¦£
à§įà¦® à¦¹à¦¤
à§ĥ à¦Ł
à§ĥ à¦Ĥ
à§ĥ à¦¢
Ġà¦ĸ à¦¸
à§įà¦¦ à¦¬
à§įà¦¦ à¦®
Ġà¦Ľ à¦¹
à§įà¦ª à¦Ł
à§įà¦¥ à¦¤
à¦ĵ à¦Ł
à¦¿à¦¬ à¦²
à¦¿à¦¬ à¦Ľà¦°
à¦¿à¦¸ à¦Ń
à¦¾à¦Ĺ à¦¸
à§ĩà¦ĩ à¦¸
Ġà¦ľà¦¨ à¦¤
Ġà¦ľà¦¨ à¦¸à¦Ń
à§ģà¦¨ à¦¤
à§ģà¦¨ à¦¬
à¦¾à¦¡ à¦Ń
à¦« à¦²
à§įà¦Ĺ à¦¨
à§įà¦Ĺ à¦²
à§įà¦¡ à¦ķ
à§įà¦¡ à¦¬
à§įà¦¡ à¦¸
Ġà¦Ł à¦¨
à§Ģà¦° à¦¬
à¦¿à¦ľ à¦¦
âĢĻ ,
à§ĭà¦° à¦Ĺ
à¦¾à¦ļ à¦ķ
à§įà¦¸ à¦ķ
à§įà¦¸ à¦ļ
à¦¿à¦® à¦¦
à§įà¦ľ à¦¯
à¦¿à¦Ł à¦²
à§įà¦¨ à¦¬
à¦Ĩ à¦¯
à¦Ĩ à¦¦
à¦Ĩ à¦¸à¦¨
à§Į à¦¹
à¦ı à¦¤
à¦ı à¦Ł
à¦ı à¦ķà¦Ł
à§įà¦ķ à¦®à¦°
à§ĩà¦® à¦¸
à¦¾à¦Ł à¦Ĺ
Ġà¦īà¦ª à¦²à¦¬
à¦¼à¦¨ à¦ķ
à¦¿à¦ª à¦¸
à§įà¦ļ à¦°
à§įà¦ļ à¦¨
à¦¾à¦ĵ à¦¨
à§ģà¦¦ à¦ķ
à§ģà¦® à¦°
à§ģà¦® à¦¦
Ġà¦ıà¦° à¦ĩ
à§Ģà¦¨ à¦¸
à¦ī à¦¨
à¦ī à¦ķ
ĠâĢĺ âĢĺ
à§ĩà¦ľ à¦ķ
à§ĩà¦ľ à¦Ľ
à§ĭà¦ķ à¦¦
à§ģà¦· à¦¦
à§įà¦ł à¦ª
Ġà¦ħà¦¬ à¦¦
à¦¾à¦£ à¦¬
Ġà¦ķà¦® à¦²
Ġà¦ķà¦® à¦¤
Ġà¦¸à¦¬ à¦ķ
Ġà¦¸à¦¬ à¦ľ
Ġà¦ıà¦¸ à¦ıà¦®
à¦¿à¦Ľ à¦¨
à§ģà¦Ł à¦ª
Ġà¦¸à¦Ļ à¦ĺ
à§ĭà¦² à¦ķ
Ġà¦¦à¦² à¦Ł
à§ģà¦ĩ à¦¸
à¦Ĥà¦¸ à¦°
à§įà¦¯à¦® à¦¯
Ġà¦Ĩà¦ĩ à¦¡
Ġà¦Ĩà¦ĩ à¦Ń
Ġà¦Ĩà¦ĩ à¦ıà¦¸
Ġà¦ıà¦² à¦ľ
in d
Ġà¦Ĩà¦ľ à¦¬
Ġà¦Ĩà¦ľ à¦¹
à¦ģ à¦ķ
à¦¿à¦ĵ à¦Ł
Ġà¦ĩà¦¨ à¦Ń
à§ĭà¦¹ à¦£
à¦¾à¦Ļ à¦¤
à¦¾à¦ĩà¦Ł à¦¸
Ġà¦ĩà¦ī à¦ľ
à§ĭà¦· à¦ľà¦¨à¦ķ
Ġt ime
à¦ħ à¦ª
Ġà¦ħà¦¸ à¦¹
Ġà¦ħà¦¬à¦¸ à¦°
à¦¿à¦ĸ à¦¤
à§İà¦¸ à¦°
Ġà¦Ĩà¦¶ à¦ª
à§Īà¦° à¦¬
à¦°à¦ķ à¦®
à¦Ĥà¦Ĺ à¦ł
Ġà¦ħà¦ª à¦®
ov ies
at a
ĠS I
ĠS af
à§ĥà¦¹ à¦¬à¦§
à§ĩà¦ī à¦²
à§ĩà¦ī à¦ĩ
re ct
Ġà¦ķà¦¨ à¦«
Ġà¦īà¦ł à¦¬
Ġà¦ªà¦¥ à¦ļ
Ġà¦ĩà¦® à¦¦
ĠP ro
Ġà¦Ĩà¦ª à¦¡
Ġà¦Ĺà¦£ à¦¤
Ġà¦¸à¦« à¦°à¦ķ
à¦Ĺà¦¤ à¦ķ
ĠA dd
à¦¿à¦ĩ à¦ī
Ġa b
Ġa m
Ġc ap
Ġà¦Ńà¦¬à¦¨ à¦Ł
or i
Ġà¦¦à¦° à¦ľ
Ġb un
âĢĿ à¥¤
à¦Ĩà¦ĩ à¦¸
à¦Ĩà¦ĩ à¦«
ad es
à§ģà¦Ń à¦¬
Ġà¦¤à¦ĸà¦¨ à¦ĩ
Ġà¦īà¦ĩ à¦²
Ġm ovies
à¦ıà¦ķ à¦ĩ
à§ĩà¦ļ à¦¨
à¦ıà¦ĩ à¦ļ
un e
Ġf or
à§ģà¦¸à¦² à¦®
à¦¾à¦ĩà¦¡ à¦²
à§įà¦Ńà¦¬ à¦¤
ag ra
ĠD e
ĠD ata
à¦¾à¦Ĺà¦ľ à¦¹
à¦¾à¦°à¦ªà¦° à¦ĵ
Ġà¦Īà¦¦ à¦Ĺ
Ġâ ĨĴ
Ġà¦· à¦·
Ġà¦ĩà¦² à¦®
à¦¾à¦¶à¦ķ à¦¤
ĠW in
Ġvi rgin
Âł ĠÂł
di rect
ist s
à¦¿à¦Ĩà¦° à¦Ł
à§ĩà¦ı à¦¸
à¦īà¦ª à¦ľ
à¦ħà¦¬ à¦¶
ĠSe lect
ter n
Ġà¦¹à¦ĩ à¦¬
à§įà¦®à¦ĺ à¦Ł
à¦ģà¦ļ à¦¡
om i
à§ĭà¦ĵ à¦²
à¦¾à¦ĩà¦¦ à¦¹
Ġfre e
Ġsu ahm
à¦¿à¦Ĩà¦ĩ à¦¡à¦¬
av e
hi pping
Ġà¦ıà¦ıà¦¸ à¦ª
Ġà¦¸à¦«à¦Ł à¦ĵà¦¯
Un ited
à§įâĢį âĢĮ
Ġà¦¸à¦Ļà¦ĺ à¦¬à¦¦
Ġvirgin s
Ġsuahm ed
' à¦¸
- à¦¹
- à¦ĵ
- à¦ī
- à¦¢
/ à¦°
/ à¦®
/ à¦ĵà¦¯
: -
@ k
A N
A h
E C
I ON
O L
S Y
a c
a k
a ch
a ce
b oo
c re
d le
e g
f f
g o
g or
g al
i f
i de
k e
l l
l ic
l ess
m l
m Ah
n ed
o s
o x
p aper
r es
s o
s s
s w
s it
t w
t ain
u l
u ck
u age
w ent
w jo
| |
ĉ à¦¬
Ġ j
Ġ v
Ġ at
Ġ re
Ġ lo
Ġ >>
Ġ link
Ġ ||
Ķ à¦·
Ġà¦ Ĭ
Ġà¦ Ķà¦·
à¦¾ âĢĮ
à¦¾ ),
à¦° à¦¯
à¦° à¦ĩ
à§ĩ âĢĶ
à¦¿ ;
à¦¿ =
à¦¨ à¦ķ
à¦¨ à¦Ł
à¦¨ à¦ĵà¦Ĺ
à¦¼ ;
à¦¼ à¦Ļ
à¦¾à¦° à¦ļ
à¦ķ à¦¥
Ġà¦ķ à¦Ł
Ġà¦ķ à¦ĩ
Ġà¦ķ à¦¡
Ġà¦ķ à¦Ń
Ġà¦ķ à¦ļ
Ġà¦ķ à¦¦à¦°
Ġà¦¬ à¦§
Ġà¦¬ à¦ļ
à¦¤ à¦¤
à§ĭ à¦Ľà¦¨
Ġà¦ª à¦¨
Ġà¦ª à¦¹
Ġà¦ª à¦¤à¦¨
à¦¬ à¦¯
à¦¬ à¦¦à¦°
à§ĩà¦° à¦°
à§įà¦° à¦ĸ
à§įà¦° à¦ľà¦¨
à¦¯ à¦®
à¥¤ à¦¨
à¥¤ à¦¤
à¥¤ à¥¤
à§įà¦¯ à¦Ĺ
à§įà¦¯ à¦Ń
à§įà¦¯ à¦Łà¦ķ
à§įà¦¯ à¦°à¦¤
à§įà¦¯ à¦Łà¦¨
à§Ģ '
à§Ģ )
à§Ģ à¦Ľà¦¡
Ġà¦Ĩ à¦Ń
Ġà¦® à¦²
Ġà¦® à¦®à¦¤
Ġà¦® à¦ļà¦ķ
à¦¾à¦¨ à¦ª
à¦¾à¦¨ à¦¡
à¦¾à¦¨ à¦Ń
à¦¾à¦¨ à¦¸à¦¹
à¦¸ à¦°à¦ķ
Ġà¦¦ à¦¯
à¦¦ à¦¶
à§įà¦¤ à¦²
à§įà¦¤ à¦ļ
à¦ª à¦¬
Ġà¦ľ à¦Ł
Ġà¦ľ à¦Ĺà¦¤
Ġà¦¤ à¦¨
Ġà¦ħ à¦®à¦¨
à§ĩà¦¨ à¦®
à§ĩà¦¨ à¦Ĺ
à§ĩà¦¨ à¦ĩ
à§ĩà¦¨ à¦¶à¦¨
à¦Ĺ à¦¦
à¦Ĺ à¦łà¦¨
à¦¾à¦² à¦¸
à¦¾à¦² à¦Ĺà¦°
à¦¾à¦® à¦¦
à¦¿à¦¨ à¦²
à¦¿à¦ķ à¦¨
à¦¿à¦ķ à¦°à¦£
à¦¿à¦° à¦®
à¦¿à¦° à¦Ł
à¦¿à¦° à¦Ĺà¦ŀ
à§įà¦¬ à¦Ł
à§įà¦¬ à¦ľ
à§įà¦¬ à¦Ń
Ġà¦° à¦ĵ
Ġà¦° à¦ľà¦¤
à¦¹ à¦¬
à¦¹ à¦£
à¦¾à¦ķ à¦¨
à¦ĩ à¦Ľà¦²
à§įà¦Ł à¦²
à¦¿à¦¤ à¦Ń
Ġà¦¶ à¦Ļ
Ġà¦Ĺ à¦¯
Ġà¦Ĺ à¦¦
Ġà¦Ĺ à¦ª
Ġà¦ļ à¦®
à¦¾à¦ĩ à¦¶
à¦¾à¦ĩ à¦ĺ
Ġà¦ĵ à¦ª
Ġà¦ĵ à¦·
Ġà¦ĵ à¦ıà¦¸
Ġà¦ĵ à¦®à¦°
à¦¡ à¦Łà¦ķà¦®
à¦¾à¦¬ à¦®
à¦¾à¦¬ à¦Ľ
à¦¾à¦¬ à§İ
à§ģà¦² à¦ª
à§ģà¦² à¦Ľ
à§ģà¦² à¦Ń
à§ģà¦² à¦«
à¦¾à¦¤ à¦²
à¦¾à¦¦ à¦¤
à¦¿à¦² à¦Ļ
à¦¾à¦¸ à¦Ł
à¦¾à¦¸ à¦¡
à¦¾à¦¸ à¦«
à§įà¦· à¦¸
à§įà¦· à¦¦
à§įà¦· à¦ª
Ġà¦Ń à¦Ł
Ġà¦ªà¦° à¦°
à§ĩà¦¶ à¦Ĺ
à§ĩà¦¶ à¦ĸ
à§ĩà¦ķ à¦ķ
à¦ļ à¦®
à§ĩà¦² à¦ľ
à§ĩà¦² à¦ĸ
à§ĩà¦² à¦ĵà¦¯
Ġà¦ıà¦ķ à¦¤
Ġà¦ıà¦ķ à¦¥
Ġà¦ıà¦ķ à¦ªà¦°
Ġà¦« à¦¸à¦²
à¦¾à¦ľ à¦ķà¦²
Ġà¦ĩ à¦¸à¦®
à§įà¦® à¦ľ
à§įà¦® à¦Ń
à§įà¦® à¦ĵ
à§ĥ à¦ľà¦¨
Ġà¦ĸ à¦¤
Ġà¦ĸ à¦¤à¦®
Ġà¦ĸ à¦¸à¦°
à§įà¦¦ à¦¦
à§Ĥ à¦ķ
à§Ĥ à¦ªà¦ķ
à¦¾à¦¹ à¦°à¦£
à§įà¦ª à¦ķà¦²
à§įà¦¥ à¦ķ
à§įà¦¥ à¦ĸà¦²
à¦ĵ à¦ķ
à¦¿à¦¬ à¦¹à¦£
à¦¿à¦¸ à¦°
à§įà¦§ à¦Ń
à¦¾à¦Ĺ à¦¨
à¦¾à¦Ĺ à¦ĩ
à§ĩà¦ĩ à¦ķ
à§ĩà¦ĩ à¦®
Ġà¦ħà¦¨ à¦¨
à§ģà¦¨ à¦ķ
à§ģà¦¨ à¦²
à§įà¦Ĺ à¦ķ
à§įà¦Ĺ à¦®
à§įà¦Ĺ à¦¦
à¦· à¦®
à§įà¦¡ à¦®
Ġà¦Ł à¦¸
à¦¿à¦¦ à¦®
à§Ģà¦° à¦¤
à¦¿à¦ľ à¦¨
à¦¿à¦ľ à¦®
à¦¿à¦ľ à¦¡
âĢĻ s
à§ĩà¦ĸ à¦¯
à§ĭà¦° à¦¦
à¦¾à¦ļ à¦Ł
à§ĩà¦Ł à¦ľ
à§ĩà¦Ł à¦ĵà¦¯
à§įà¦¸ à¦Ĺ
à¦¿à¦® à¦°
à¦¿à¦® à¦Ĺ
à¦¿à¦® à¦§
à¦¿à¦® à¦īà¦¦
à§įà¦ľ à¦²
à§įà¦¨ à¦®
Ġà¦¡ à¦Łà¦ķà¦®
à¦Ĩ à¦ī
à¦Ĩ à¦ĩà¦¨
à¦¿à¦Ń à¦ķ
à§ĭà¦Ĺ à¦Ł
à§Į à¦¬à¦¨
à§Į à¦¤à¦®
à¦ı à¦Ń
à¦ı à¦®à¦¨
à§įà¦ķ à¦¯
ĠâĢ į
Ġà¦ĺ à¦·
Ġà¦īà¦ª à¦¨
Ġà¦īà¦ª à¦¹
Ġà¦īà¦ª à¦¶
à¦¿à¦ª à¦¦
à¦¼à¦¿ âĢĻ
à§ĩà¦· à¦Ń
à§įà¦ļ à¦Ĺà¦¡
à§ĥà¦¤ à¦°
à§ĥà¦¤ à¦¦
à§ģà¦¦ à¦¹
à§ģà¦® à¦¡
à§ĩà¦¬ à¦ķ
à§ĩà¦¬ à¦¤
à§ĩà¦¬ à¦¦
à¦ĥ )
à§ĩà¦¦ à¦ªà¦¤
Ġà¦Ĩà¦¸ à¦ķ
Ġà¦Ĩà¦² à¦¤
Ġà¦ıà¦° à¦¶
à§įà¦¤à¦° à¦£
à¦¾à¦ĸ à¦Ľ
à§Ī à¦²
à§Ī à¦¦
à§Ī à¦ĸ
à§Ī à¦ķà¦¤
à§Ī à¦·à¦®
à¦¾à¦°à¦£ à¦Ń
à§Ģà¦¨ à¦¦
à¦ī à¦°
à§įà¦¬à¦° à¦Ĺà¦ŀ
Ġà¦¸à¦° à¦¦
Ġà¦¸à¦° à¦ŀ
à§ģà¦¬ à¦¤
à§ģà¦¬ à¦Ĺ
Ġà¦ħà¦¬ à¦Ĺà¦¤
Ġà¦ħà¦¬ à¦²à¦®
Ġà¦ķà¦® à¦ªà¦ķ
Ġà¦¸à¦¬ à¦¸à¦®à¦¯
Ġà¦ıà¦¸ à¦Ĩà¦ĩ
à¦¾à¦Ľ à¦Ł
Ġà¦ļà¦² à¦¨
Ġà¦ļà¦² à¦²
Ġà¦ļà¦² à¦®
à¦¿à¦ī à¦®
à¦¿à¦ī à¦¦
à¦¿à¦ī à¦ĩ
à¦¿à¦ī à¦¶à¦¨
à§ģà¦ĩ à¦¬
à§ģà¦ĩ à¦ļ
à§ģà¦ĩ à¦ľà¦¨
Ġà¦Ĩà¦¨ à¦¸
à§ĭà¦§ à¦¯
à§įà¦°à¦¦ à¦ķ
à§įà¦¯à¦® à¦¤
Ġà¦Ĩà¦ĩ à¦°
Ġà¦Ĩà¦ĩ à¦ĵà¦Ł
à§ģà¦ĸ à¦ª
à¦¿à¦¡ à¦²
à§ģà¦ª à¦ļ
à¦¾à¦ĩà¦² à¦Ł
à§ĩà¦¶à¦¨ à¦Ł
à§įà¦¯à¦ķ à¦²
à¦¾à¦°à¦¤ à¦¬à¦°
à¦ĺ à¦¨
à¦¿à¦Ĺ à¦°
Ġà¦ĩà¦¨ à¦«
à¦¼à§Ģ à¥¤
à§įà¦£ à¦¨
à§įà¦£ à¦§
à¦¾à¦ł à¦Ł
Ġà¦ķà¦² à¦Ļ
Ġà¦ķà¦² à¦ķà¦¬
an t
à§Įà¦¨ à¦ķ
à§įà¦°à¦¬ à¦£
Ġt went
Ġà¦ªà¦¦ à¦Ł
à§įà¦°à¦¥à¦® à¦¤
er k
à¦ħ à¦¤
à¦ħ à¦§
Ġà¦ħà¦¬à¦¸ à¦°à¦ª
à§ĭà¦¤ à¦²
Ġà¦ıà¦¤ à¦ķ
Ġà¦ıà¦¤ à¦Ł
à§įà¦·à¦£ à¦ĩ
Ġà¦¸à¦¨à¦¦ à¦ªà¦¤
à§Ģà¦² à¦¨
à§Ģà¦² à¦Ļ
à¦¿à¦« à¦Ł
Ġà¦Ĩà¦¹ à¦¸
à§Ģà¦® à¦Ļ
à§ĭà¦ª à¦ļ
à¦¾à¦²à¦¤ à¦ķ
âĢĮ à¦°
âĢĮ à¦¯
à§Ģà¦¬à¦¨ à¦°
Ġà¦ħà¦ª à¦¬
Ġà¦ħà¦ª à¦¹
Ġà¦ħà¦ª à¦ļ
Ġà¦ħà¦ª à¦¶à¦¨
à§įà¦ĺ à¦®
à§įà¦¦à¦° à¦¬à¦¨
at ur
à§ĥà¦¹ à§İ
âĢ¦ ]
re d
il l
à§ģà¦¶ à¦ķ
à¦¾à¦ľà¦¨ à¦ķ
Ġà¦ķà¦¬ à¦²
Ġs hipping
Ġà¦ķà¦¨ à¦Ń
ou n
à¦¾à¦¨à¦¬ à¦ľ
Ġà¦¶à¦¤ à¦ķà¦°
à§įà¦°à¦¹à¦£ à¦¯
ĠP aper
Ġà¦Ŀ à¦¡
ĠC er
ĠC he
à¦¿à¦ĩ à¦¸
Ġà¦¨à¦¬ à¦ľ
à§įà¦¬à¦ķ à¦ķ
ar i
ar t
it h
Ġc h
Ġà¦īà¦² à¦Ļ
or k
Ġà¦Ī à¦Ĺà¦²
à§Ĥà¦ļ à¦ķ
Ġà¦¸à¦¦à¦° à¦ĺ
Ġb lo
Ġp m
Ġp la
Ġp ack
Ġh our
Ġh ave
ion al
ra in
ĠM a
ĠM i
à¦ıà¦ķ à¦¬
un t
Ġf ro
ang l
ang bad
ang uage
lo red
-à¦ª à¦¶
ic e
ic i
à¦¿à¦¤à¦° à¦¨
am e
Ġâ ĺ
Ġà¦Ĩà¦« à¦°
Ġà¦Ĩà¦« à¦¸
Ġà¦Ĩà¦« à¦Ĺ
ĠT rain
Ġà¦ľà¦¨à¦ª à¦¦
Ġà¦ħà¦ľ à¦¯
à§Įà¦¶à¦² à¦Ĺà¦¤
ap p
as h
Ġà¦®à¦ľ à¦²
Ġà¦¤à¦¤ à¦ĩ
à¦Ĥà¦² à¦Ĺ
à¦Ĩà¦¨ à¦¨
Ġà¦ĭ à¦¤
à¦¾à¦ĥ -
à¦®à¦¹ à¦²
Ġà¦¯à¦¤ à¦ĩ
Ġà¦īà§İ à¦ªà¦¤
à¦¾à¦ĵà¦² à¦ª
id a
ĠN o
ĠR eg
Ġà¦ıà¦ķà¦¦ à¦®
à§ĩà¦Łà¦° à¦°
ate ur
ate gor
Ġà¦¸à¦«à¦² à¦¤
Ġnews paper
ho pping
à§įà¦Ńà¦° à¦¶
à¦¿à¦Ĩà¦° à¦¡
à¦¾à¦¯à¦¥ à¦Ń
à¦ļà¦² à¦ļ
Ġà¦ĩà¦¹ à¦ķ
à¦Ĩà¦ľ à¦ķ
ia omi
Ġco n
Ġco lored
âĢ¦âĢ¦ âĢ¦âĢ¦
ĠAn y
Ġ[ âĢ¦]
à§ĩà¦°à¦¤ à¦¯
à§Ģà¦· à¦£
Ġà¦¨à¦Ĺ à¦¦
Ġà¦¹à¦ĩ à¦¤
Ġà¦īà¦ĩà¦¨ à¦ļ
Ġth at
AT ION
um an
à¦¿à¦®à¦¬ à¦Ļ
Ġte en
ĠPr of
.C OM
eb sit
ri b
ĠX iaomi
end ra
Ġse x
à§Įà¦²à¦¤ à¦ª
-f our
/à¦¨ à¦¨à¦Ł
por t
Ġà¦¸à¦ĵ à¦ľ
à§įà¦¯à¦² à¦¯
Ġà¦«à¦¨ à¦¸
ĠSI M
ĠSaf ari
Ġab out
Ġam ateur
Ġbun dle
ĠWin dow
tern et
@k al
ace boo
wjo b
Ġà¦Ķà¦· à¦§
Ġà¦ķà¦ĩ à¦·
à§ĥà¦ľà¦¨ à¦¶
à¦Ĩà¦ī à¦Ł
Ġtwent y
ĠPaper less
Ġblo wjob
Ġhour s
Ġfro m
aceboo k
! )
! âĢĿ
' à¦īà¦²
( à¦ª
( à¦ıà¦ķ
) :
, à¦¸à¦¬
, à¦¶à¦°
- à¦Ľ
- à¦ĩ
- à¦«
- à¦ķà¦°
- à¦ªà¦¨
- à¦¬à¦°
- à¦¸à¦®
- à¦¸à¦¹
- mail
- à¦ħà¦°
- à¦¸à¦¹à¦ķ
. à¦ķ
. à¦¬
. in
. dos
. be
. direct
/ A
/ à¦ķ
/ à¦¬
/ à¦¯
/ à¦Ł
/ à¦ĩ
/ à¦¶
/ à¦ıà¦¸
/ à¦ıà¦ķ
/ im
: :
? âĢĿ
@ bd
@ ya
A R
A S
B angla
C C
D F
E M
G Y
H N
I V
K I
M ov
O C
O T
O GY
P H
P R
P o
Q u
S T
T ag
T ER
T SY
W S
Y T
a w
b angla
b az
c y
c ure
d er
d es
d ing
e e
e w
g a
g e
g y
g er
h y
h al
h am
h ns
i x
i an
i ke
k en
l n
l is
m er
m ation
n a
n ews
n ow
o S
o il
o di
o ber
o hns
p r
p le
p ut
q ue
r on
r en
r im
r ist
r ation
r ue
r du
s a
s ion
s attar
s baz
t e
t z
t in
t ra
t im
t ro
t iv
t ml
u b
u p
u y
u es
u ma
u le
u de
u th
u el
u ida
x x
y n
Ã ĳ
Å ĵ
Ġ &
Ġ Z
Ġ _
Ġ he
Ġ or
Ġ ĠÂł
Ġ le
Ġ ra
Ġ qu
İ â
Ġà¦ ĥ
à¦¾ âĢĿ
à¦¾ )à¥¤
à¦¾ à§İà¦¸à¦°
à¦° à¦°
à¦° à¦¦
à¦° à¦ĵ
à§ĩ /
à§ĩ âĢ¦
à§į à¥¤
à¦¾à¦ Ĩ
à¦¿ à¦¾
à¦¿ âĢĮ
à¦¿à¦ ŀ
à¦¨ à¦°
à¦¨ à¦¦
à¦¨ à¦Ń
à¦¼ )
à¦¼ à¦¹
à¦¼ à¦ľ
à¦¼ à¦ĸ
à¦¼ à¦¿à¥¤
à¦¼ à¦ľà¦¨
à¦¼ à¦ĺ
à§ĩà¦ ĥ
à§ĩà¦ Ŀ
à§ĩà¦ ł
à§ģ !
à§ģ à§į
à§ģ à§ģ
à§ģ à¦Ĥ
à§ģ à¦¬à¦°
à§ģ à¦¹à¦®
à§ģ à§İà¦¸
à¦¾à¦° à¦¹
à¦¾à¦° à¦¶
à¦¾à¦° à¦·
à¦¾à¦° à¦ľà¦¨
à¦¾à¦° à¦ķà¦°
à¦¾à¦° à¦¸à¦®
à¦¾à¦° à¦¸à¦¹
à¦¾à¦° à¦¸à¦¨
à¦¾à¦° à¦«à¦°
à¦ķ à¦ķ
à¦ķ à¦¯
à¦ķ à¦Ĺ
Ġà¦ķ à¦¦
Ġà¦ķ à¦®à¦¨
Ġà¦ķ à¦¸à¦®
Ġà¦¸ à¦ĩ
Ġà¦¸ à¦¶
Ġà¦¸ à¦¬à¦¨
à¦² à¦¤
Ġà¦¬ à¦®
Ġà¦¬ à¦ŀ
Ġà¦¬ à§İà¦¸à¦°
à¦¤ à¦¦
à¦¤ à¦¥
à§ĭ à¦Ľ
à§ĭ à¦£
à§ĭ à¦Ļ
à§ĭ à¦ªà¦°
à§ĭ à¦ĩà¦¨
Ġà¦ª à¦ª
Ġà¦ª à¦Ĺ
Ġà¦ª à¦ľ
à¦¬ à¦¤
à¦¬ à¦®
à¦¬ à¦ª
à¦¬ à¦£
à¦¬ à¦Ļ
à¦® à¦¶
à§ĩà¦° à¦¸
à§įà¦° à¦°
à§įà¦° à¦¬à¦°
à§įà¦° à¦²à¦¬
à¦¯ à¦¦
à¥¤ [
à¥¤ à¦ķ
à¥¤ à¦¸
à¥¤ à¦ª
à¥¤ à¦¤à¦¬
à¥¤ à¦Ĩà¦¬
à§įà¦¯ à¦Ł
à§įà¦¯ à¦ľ
à§Ģ ;
à§Ģ ?
à§Ģ à¦Ľ
à§Ģ à¦ľà¦¨
Ġà¦Ĩ à¦ªà¦¤
Ġà¦® à¦ĩà¦¨
Ġà¦® à¦ķà¦¬
Ġà¦® à¦²à¦¨
à¦¾à¦¨ à¦®
à¦¾à¦¨ à¦ĩ
à¦¾à¦¨ à¦ĵ
à¦¸ à¦ĩ
à¦¸ à¦¡
Ġà¦ı à¦«
Ġà¦ı à¦«à¦Ł
Ġà¦¨ à¦¹
Ġà¦¨ à¦ĵ
Ġà¦¨ à¦¬à¦°
Ġà¦¨ à¦°à¦¸
Ġà¦¨ à¦«à¦²
Ġà¦¦ à¦Ĺ
Ġà¦¹ à¦ĩà¦²
à¦¦ à¦¶à¦ķ
à§įà¦¤ à¦¹
à§įà¦¤ à¦ĩ
à§įà¦¤ à¦ľ
à§įà¦¤ à¦Ń
à¦¼à§ĩ -
à¦ª à¦®
Ġà¦ķà¦° à¦¨
Ġà¦ķà¦° à¦£
à¦Ł à¦®
à¦¼à¦¾ âĢĻ
à¦¼à¦¾ âĢ¦
Ġà¦ľ à¦ľ
Ġà¦ľ à¦ĸ
Ġà¦¤ à¦¦
à§ĩà¦¨ à¦¬
à¦Ĺ à¦Ļ
à¦Ĺ à¦ł
à¦¾à¦² à¦¶
à¦¾à¦² à¦Ļ
à¦¾à¦² à¦®à¦¨
à¦¾à¦® à¦ĩ
à¦¾à¦® à¦ķà¦°à¦£
à¦¿à¦¨ à¦¦
à¦¿à¦¨ à¦ª
à¦¿à¦¨ à¦¶
à¦¿à¦¨ à¦ĵ
à¦¿à¦¨ à¦ľà¦¨
à¦¿à¦ķ à¦¸
à¦¿à¦ķ à¦ª
à¦¿à¦ķ à¦Ĺà¦£
à¦¿à¦° à¦°
à¦¿à¦° à¦¹
à¦¿à¦° à¦¶
à¦¿à¦° à¦ĵ
à§įà¦¬ à¦¹
à§įà¦¬ à¦ļ
à§įà¦¬ à¦ľà¦¨
à§įà¦¬ à¦ªà¦¨
à§įà¦¬ à¦¬à¦°
à§įà¦¬ à¦¸à¦®
à§įà¦¬ à¦¸à¦®à¦ķ
Ġà¦° à¦®
Ġà¦° à¦¡
Ġà¦° à¦£
Ġà¦° à¦ī
Ġà¦° à¦¤à¦¨
Ġà¦° à¦ĩà¦²
à¦¹ à¦¸
à¦¹ à¦¶
à¦¾à¦ķ à¦¸
à¦¾à¦ķ à¦¡
à¦¾à¦ķ à¦¥
à¦¾à¦ķ à¦¸à¦¨
Ġà¦¯ à¦ķ
à¦ĩ à¦¬
à¦ĩ à¦Ĺ
à¦ĩ à¦ĵ
à¦ĩ à¦īà¦ª
à¦¿à¦¤ à¦¤
à¦ľ à¦°
Ġà¦¶ à¦®
Ġà¦¶ à¦ª
Ġà¦¶ à¦¶
Ġà¦¶ à¦ªà¦¥
Ġà¦Ĺ à¦ľ
Ġà¦Ĺ à¦«à¦°
Ġà¦ļ à¦¡
Ġà¦ļ à¦£
Ġà¦ļ à¦ĸ
Ġà¦ļ à¦®à¦ķ
à¦Ĥ ,
à¦Ĥ :
à¦Ĥ à¦ľ
à¦Ĥ à¦ķà¦°
à¦Ĥ à¦¹à¦¤
à§ĩà¥¤ '
à§ĩà¥¤ âĢĿ
Ġà¦ĵ à¦¨
Ġà¦ĵ à¦²
Ġà¦ĵ à¦Ĺ
Ġà¦ĵ à¦ĸ
à§ģà¦° à¦¤
à§ģà¦° à¦ľ
à¦¾à¦¬ à¦¬
à¦¾à¦¬ à¦ľ
à¦¾à¦¬ à¦¡
à¦¾à¦¬ à¦£
à§ģà¦² à¦Ł
à§ģà¦² à¦Ĺ
à§ģà¦² à¦¶
à§ģà¦² à¦ĵ
à¦¾à¦¤ à¦¦
à¦¾à¦¤ à¦ĩ
âĢ ¢
à¦¾à¦¦ à¦°
à¦¾à¦¦ à¦ª
à¦¾à¦¦ à¦Ł
à¦¾à¦¦ à¦ªà¦¤
à¦¾à¦¦ à¦¬à¦ª
à¦¿à¦² à¦¸
à¦¿à¦² à¦ªà¦¤
à¦¾à¦¸ à¦¦
à¦¾à¦¸ à¦ĵ
à¦¾à¦¸ à¦«à¦Ł
à§įà¦· à¦ĩ
à§įà¦· à¦°à¦¤
à§įà¦· à¦¦à¦°
Ġà¦ī à¦®
Ġà¦ī à¦Ĺ
Ġà¦ī à¦ľ
Ġà¦ī à¦¸à¦®
Ġà¦ī à§İà¦ķ
à¦¶ à¦ª
à¦¶ à¦Ĺ
à¦¶ à¦ĩ
Ġà¦ªà¦° à¦¨
Ġà¦ªà¦° à¦¦
Ġà¦ªà¦° à¦ĩ
Ġà¦ªà¦° à¦¶
Ġà¦ªà¦° à¦ªà¦°
à§ĩà¦¶ à¦¤
à§ĩà¦¶ à¦ª
à§ĩà¦¶ à¦ªà¦¥
à¦Ń à¦°
à¦Ń à¦ľà¦¨
à§ĩà¦ķ à¦Ĺ
à§ĩà¦ķ à¦ľà¦¨
à¦§ à¦²
à¦§ à¦°à¦£
à¦§ à¦¬à¦Ĺ
à¦ļ à¦¦
à¦ļ à¦Ĺ
à§ĩà¦² à¦ķ
à§ĩà¦² à¦®
à§ĩà¦² à¦Ł
à§ĩà¦² à¦Ĺ
à§ĩà¦² à¦ī
à§ĩà¦² à¦ĸà¦¨
Ġà¦ıà¦ķ à¦¨
Ġà¦ıà¦ķ à¦¶
à¦¾à¦ľ à¦²
à¦¾à¦ľ à¦¯
à¦¾à¦ľ à¦īà¦ķ
Ġà¦¸à¦® à¦Ŀ
Ġà¦ĩ à¦¦
Ġà¦ĩ à¦¬à¦¨
Ġà¦² à¦¨
Ġà¦² à¦¤
Ġà¦² à¦ľ
Ġà¦² à¦Ń
Ġà¦² à¦ĩà¦¯
Ġà¦² à¦¬à¦£
à¦¿à¦¶ à¦¬
à§ĥ à¦§
Ġà¦ĸ à¦¡
à§įà¦¦ à¦¯
à§įà¦¦ à¦Ł
à§Ĥ à¦¯
à§Ĥ à¦Ń
à§Ĥ à¦Łà¦¨
à¦¾à¦¹ à¦ĵ
à¦¾à¦ª à¦ļ
à¦¾à¦ª à¦Ĺà¦ŀ
à¦¾à¦ª à¦ľà¦²
Ġà¦Ľ à¦Ł
à§įà¦ª à¦®
à§įà¦¥ à¦¬
à§įà¦¥ à¦¦
à§įà¦¥ à¦Ń
à§įà¦¥ à¦ķà¦¦
à¦ĸ à¦¸
à¦ĸ à¦ľà¦¨à¦ķ
à¦ĵ à¦¡
à¦ĵ à¦·
à¦¿à¦¬ à¦ķ
à¦¿à¦¬ à¦¦
à¦¿à¦¬ à¦Ĺà¦ŀ
à¦¿à¦¸ à¦¤
à¦¿à¦¸ à¦Ļ
à§įà¦§ à¦®
à§įà¦§ à¦¦
à§įà¦§ à¦ķà¦°à¦£
à¦¾à¦Ĺ à¦ķ
à¦¾à¦Ĺ à¦¦
à¦¾à¦Ĺ à¦Ł
à¦¾à¦Ĺ à¦Ĺ
à§ĩà¦ĩ à¦«à¦Ł
Ġà¦ħà¦¨ à¦¬à¦¦
à§ĭà¦¨ à¦ķ
à¦¥ à¦ļ
Ġà¦Ĩà¦® à¦ľ
Ġà¦ľà¦¨ à¦¨
Ġà¦ľà¦¨ à¦¶à¦ķ
Ġà¦ľà¦¨ à¦¸à¦®à¦ķ
à§ģà¦¨ à¦¦
à§ģà¦¨ à¦Ĺ
à§ģà¦¨ à¦¤à¦®
à¦¾à¦¡ à¦®
à¦· à¦¤
à§įà¦¡ à¦¦
à§įà¦¡ à¦Ń
à§Ģà¦° à¦Ń
âĢĻ à¦ķ
âĢĻ à¦Ĩà¦°
à§ĭà¦° à¦ķà¦®
à§įà¦² à¦¸
à¦¾à¦ļ à¦Ĺ
à¦¾à¦ļ à¦ĸ
à¦¾à¦ļ à¦ĵ
à§ĩà¦Ł à¦ķ
à§ģà¦ķ à¦¤
à§ģà¦ķ à¦¸
à§ģà¦ķ à¦Ł
à§ģà¦ķ à¦Ľ
à§įà¦¸ à¦¦
à§įà¦¸ à¦«
à§įà¦¸ à¦Ĩà¦°
à¦¿à¦® à¦ķ
à¦¿à¦® à¦¸
à¦¿à¦® à¦£
à¦¾à¦¶ à¦Ł
à¦¿à¦Ł à¦°
Ġà¦¡ à¦ľà¦¨
à¦Ĩ à¦¡
à¦Ĩ à¦¸à¦²
à¦Ĩ à¦¹à¦®
à¦Ĩ à¦²à¦¬
à¦Ĩ à¦¬à¦¦
à§ĭà¦Ĺ à¦²
à§ĭà¦Ĺ à¦¦
à§ĭà¦Ĺ à¦ľ
à§Į à¦ļ
à§Į à¦«
à¦ı à¦ª
à¦ı à¦ĸ
à¦ı à¦ıà¦«à¦ª
à§įà¦ķ à¦¸
à¦¾à¦ģ ,
à¦¿à¦· à¦Ł
à¦¿à¦· à¦£
Ġà¦ıà¦ĩ à¦¬
Ġà¦ıà¦ĩ à¦ľà¦¨
ĠâĢ ĭ
ĠâĢ Į
ĠâĢ Ķ
Ġà¦ĺ à¦¡
à¦¾à¦Ł à¦Ł
à¦¾à¦Ł à¦ķà¦Ł
Ġà¦īà¦ª à¦¤
Ġà¦īà¦ª à¦ªà¦°
Ġà¦īà¦ª à¦®à¦¹
Ġà¦īà¦ª à¦ķà¦°à¦¨
à¦¼à¦¨ à¦®
Ġà¦®à¦¨ à¦ľ
à¦¿à¦ª à¦¯
à¦¿à¦ª à¦¶à¦¨
à§ĩà¦· à¦¤
à§įà¦ļ à¦¬
à§įà¦ļ à¦²à¦ķ
à§ĥà¦¤ à¦ķ
à§ĥà¦¤ à¦ªà¦ķ
à¦¾à¦ĵ à¦°
à§ģà¦¦ à¦īà¦²
à§ĩà¦¬ à¦¨
à¦ľà¦¨ à¦¸à¦Ń
à§įà¦¯à¦¬ à¦¤
à§Ĥà¦° à¦ķ
à§Ĥà¦° à¦¤
à¦¿à¦Ĥ )
à§ĭà¦Ł à¦¨
à§ĭà¦Ł à¦ķ
à§ĭà¦Ł à¦¬
à§ĭà¦Ł à¦ĸ
à§ĭà¦Ł à¦ªà¦°
à§ĭà¦Ł à¦Ĺà¦²
à§įà¦¤à¦° à¦¥
à§Ī à¦ķ
à§Ī à¦¥
à§ĩà¦¸ à¦°
à§ĩà¦¸ à¦®
à§ĩà¦¸ à¦ªà¦¨
à¦¾à¦°à¦£ à¦ķ
à¦¾à¦°à¦£ à¦¬
à§Ģà¦¨ à¦ķ
à§Ģà¦¨ à¦¬
à§Ģà¦¨ à¦Ń
Ġà¦īà¦¦ à¦ĺ
à¦ī à¦¤
à¦ī à¦ªà¦¦
Ġà¦Ĩà¦¬ à¦¹
à§įà¦¬à¦° à¦ķ
à§įà¦¬à¦° à¦¦
Ġà¦¸à¦° à¦²
à§ĭà¦® à¦ª
à¦ªà¦° à¦¬à¦°
à§ĩà¦ľ à¦®
à§ĩà¦ľ à¦Ń
à§ĩà¦ľ à¦ķà¦¤
à§ĭà¦ķ à¦²
à§ĭà¦ķ à¦¸
à§ĭà¦ķ à¦ª
Ġà¦§à¦° à¦²
à§ģà¦· à¦¤
à§ģà¦· à¦Ł
à§ģà¦· à¦Ļ
à§ģà¦· à¦®à¦¨
à§įà¦ł à¦ķ
à§įà¦ł à¦¶
à¦¿à¦ı à¦¬
à¦¿à¦ı à¦¸à¦ľ
Ġà¦ħà¦¬ à¦ķ
à¦¾à¦£ à¦°
à¦¾à¦£ à¦ķ
à¦¾à¦£ à¦ª
à¦¾à¦£ à¦¹
à¦¾à¦£ à¦®à¦¨
Ġà¦ķà¦® à¦°
Ġà¦ķà¦® à¦¬
Ġà¦ķà¦® à¦ĩ
Ġà¦¸à¦¬ à¦§à¦°à¦£
à§ĩà¦¡ à¦²
Ġà¦ıà¦¸ à¦¡
à¦¿à¦Ľ à¦ķ
à§ģà¦Ł à¦¹
à§Ģà¦¤ à¦ķ
à¦¾à¦ļà¦¨ à¦Ĺ
à§ĭà¦² à¦¸
à§ĭà¦² à¦ª
à¦¾à¦« à¦Ł
à¦¾à¦« à¦«
à¦¾à¦Ĥ ,
à¦¾à¦Ĥ -
à§ģà¦¤ à¦ĩ
à¦¾à¦¥ à¦²
Ġà¦¦à¦² à¦¨
Ġà¦¦à¦² à¦ĩ
Ġà¦¦à¦² à¦¬à¦¦
Ġ: -
à§ģà¦ĩ à¦ľ
à§ģà¦ĩ à¦ªà¦®
Ġà¦Ĩà¦¨ à¦²
Ġà¦Ĩà¦¨ à¦¬
Ġà¦Ĩà¦¨ à¦ĩà¦¨
à¦¿à¦§ à¦¬
à§ĭà¦§ à¦ķ
à§Ģà¦Ĺ à¦¡
Ġà¦¬à¦° à¦£
à§įà¦¯à¦® à¦ķ
à§įà¦°à¦® à¦¶
Ġà¦ĺà¦Ł à¦¤
Ġà¦Ĩà¦ĩ à¦¯
Ġà¦Ĩà¦ĩ à¦Ł
à§ģà¦ĸ à¦°
Ġà¦¸à¦¹ à¦¬
Ġà¦¸à¦¹ à¦ª
Ġà¦¸à¦¹ à¦ķà¦°
à¦¿à¦¡ à¦«
Ġà¦Ĩà¦¦ à¦¤
à§ģà¦ª à¦ķ
Ġà¦®à¦¹ à¦¡
à¦¾à¦ī à¦¸
à¦¾à¦ī à¦Ł
à¦¾à¦ī à¦¥
à§ĭà¦¬ à¦¸
à§ĭà¦¬ à¦Ł
Ġà¦ıà¦² à¦Ĩà¦°
à§ĩà¦ª à¦£
à§ĩà¦¶à¦¨ à¦ķ
à§įà¦ŀ à¦°
in k
in di
in ha
Ġà¦¬à¦Ľà¦° à¦ĸ
Ġà¦Ĩà¦ľ à¦Ĺà¦°
à¦¾à¦¦à¦ķ à¦¦
à¦ģ à¦¤
à¦ģ à¦¦
à¦ģ à¦Ł
à¦ģ à¦§
à¦¿à¦ĵ à¦¨
à¦¿à¦ĵ à¦¤
à¦¿à¦ĵ à¦Ĺ
à¦¼à¦ķ à¦ķ
Ġà¦ĩà¦¨ à¦²
Ġà¦ĩà¦¨ à¦ľ
Ġà¦ĩà¦¨ à¦ļ
à§įà¦£ à¦®
à§įà¦£ à¦¯
à§įà¦£ à¦Ń
Ġà¦ıà¦¨ à¦¡
Ġà¦ıà¦¨ à¦Ĩà¦ĩ
Ġà¦ıà¦¨ à¦ĵà¦¸
à¦¾à¦Ļ à¦¨
Ġà¦®à¦¤ à¦ĩ
à¦¾à¦ł à¦ªà¦°
Ġà¦¸à¦ķ à¦²à¦ķ
Ġà¦ķà¦² à¦®
Ġà¦ķà¦² à¦Ĺ
Ġà¦ķà¦² à¦¹
à§įà¦¤à¦¬ à¦¤
an o
an er
an th
an ce
à§Įà¦¨ à¦°
à§Įà¦¨ à¦¤
à§Įà¦¨ à¦ª
à§įà¦°à¦¶ à¦¸
Ġà¦¬à¦¨ à¦¸
à§įà¦°à¦¬ à¦²
Ġt i
Ġt ag
Ġt us
à§ĩà¦¦à¦¨ à¦ķ
à§ĩà¦¦à¦¨ à¦Ł
à§ĩà¦¦à¦¨ à¦¶
à§įà¦°à¦¸ à¦°
à§ĭà¦¡ à¦ķ
er e
à¦ħ à¦ķ
à¦ħ à¦¸
à¦ħ à¦«
à¦ħ à¦¬à¦¸
à¦ħ à¦¥à¦ļ
Ġà¦ħà¦¸ à¦¨
à¦¾à¦ªà¦¨ à¦ĵ
à§įà¦°à¦¹ à¦¨
à¦¿à¦ĸ à¦Ľ
à¦¾à¦Ń à¦¬
à¦¾à¦Ń à¦ľà¦¨à¦ķ
à¦¾à¦²à¦ķ à¦ķ
à¦¿à¦ıà¦¨ à¦¸
à§ĩà¦¹ à¦¤
à§ĩà¦¹ à¦®
à§ĩà¦¹ à¦¦
à§įà¦·à¦£ à¦¶
à§Ģà¦¬ à¦¬
à¦®à¦¤ à¦ª
à§Ģà¦² à¦¤
à§Ģà¦² à¦«
à¦¾à¦ĩà¦ķ à¦¸
on th
on lin
on tin
Ġà¦Ĩà¦¹ à¦°à¦£
à¦¾à¦°à¦ķ à¦ļà¦ķ
-- --
Ġà¦«à¦² à¦¨
Ġà¦ħà¦¤ à¦ıà¦¬
Ġà¦ĵà¦ĩ à¦¸à¦¬
en se
en gal
à§ģà¦ľ à¦¤
âĢĮ à¦¨
âĢĮ à¦ľ
Ġà¦Ĳ à¦¶
Ġà¦ħà¦ª à¦ķà¦°
Ġà¦ıà¦® à¦¦
Ġà¦ıà¦® à¦ı
à¦ıà¦¸ à¦Ł
à¦ıà¦¸ à¦ıà¦¨
à¦ıà¦¸ à¦ıà¦¸à¦¸
à¦ıà¦¸ à¦ĩà¦ĵ
à§ĩà¦« à¦Ł
at ed
ĠS E
ĠS on
ĠS am
ĠS ur
ĠS MS
ĠS atur
ĠS inha
à¦¼à¦¸ à¦¸
à¦Ĥà¦ķ à¦²à¦¨
re am
à¦¾à¦²à¦¨ à¦ķ
il id
à§ģà¦Ĺ à¦Ľ
à§ģà¦¶ à¦²
ma ge
Ġs ha
Ġs ame
Ġs oil
ou gh
ou ght
à§ĭà¥¤ âĢĻ
à§ĭà¥¤ âĢĿ
Ġà¦ĸà¦¬à¦° à¦Ł
Ġà¦ĸà¦¬à¦° à¦Ĺ
à§ĩà¦®à¦¨ à¦ĩ
à¦¼à¦° à¦¨
Ġà¦ªà¦¥ à¦ļà¦²
Ġà¦ıà¦ķà¦ľà¦¨ à¦ķ
à¦¿à¦īà¦ľ à¦ļ
ĠP DF
Ġà¦Ĩà¦Łà¦ķ à¦ķ
Ġà¦Ĺà¦£ à¦¹
à¦¾à¦ĩà¦° à¦¹
Ġà¦ĺà¦° à¦¬
Ġà¦Ŀ à¦Ĺà¦¡
à§ĭà¦ľ à¦ķ
ĠA c
ĠA p
ĠA OR
ĠC o
ĠC art
ĠC ategor
ĠC ontin
à¦¾à¦Ŀ à¦ĸ
Ġà¦¨à¦¬ à¦Ĺà¦ł
ar d
ar NE
it y
it co
it ter
Ġa d
Ġa l
Ġa re
Ġa pp
Ġc ho
or s
or mation
Ġà¦Ī à¦®
Ġà¦ĩà¦¸ à¦°
-à¦¸ à¦¨
Ġà¦Ĩà¦¤ à¦Ļ
Ġà¦¦à¦° à¦ªà¦¤
Ġ' '
Ġb al
à§Īà¦¨ à¦¨
al o
al s
al th
à¦Ĩà¦ĩ à¦Ł
à¦¾à¦°à¦Ł à¦¨
Ġà¦ļà¦Ł à¦Ĺ
à¦Ĥà¦ĺ à¦Ł
à§įà¦¶à¦¨ à¦ķ
Ġn iv
à¦¾à¦¬à¦² à¦®
à§įà¦·à¦ķ à¦¦
Ġà¦īà¦ĩ à¦¥
ing s
Ġh d
Ġh ab
Ġh indi
le aner
st agra
Ġà¦®à¦° à¦¨
Ġà¦¨à¦Ĺà¦° à¦¬
à§įà¦¬à¦¨ à¦°à¦¤
à¦¾à¦ĩà¦® à¦²
ion s
ra cy
Ġm e
Ġm p
Ġm u
Ġm odi
à¦Ĩà¦° à¦ı
ĠM ag
ĠM MS
ĠM onth
Ġà¦ıà¦¡ à¦Ń
Ġà¦¤à¦° à¦²
Ġà¦¤à¦° à¦«
Ġà¦¤à¦° à¦Ļ
-à¦¬ à¦¡
à§įà¦¬à¦² à¦¨
à§įà¦¬à¦² à¦Ľ
à§ĩà¦Ĺà¦® à¦ķ
Ġf e
à¦¿à¦ıà¦¸ à¦Ł
à¦¿à¦ıà¦¸ à¦ıà¦«
à§ĭà¦²à¦¨ à¦ķ
ag es
ĠD em
ĠD oS
ĠD ream
ic k
ic ate
ĠB u
ĠB ro
ĠE n
ĠE TSY
Ġà¦ķà¦¤ à¦ķ
Ġà¦ķà¦¤ à¦¦
à§įà¦¯à¦¸ à¦ļ
Ġà¦ľà¦¨à¦Ĺà¦£ à¦ķ
à¦¿à¦Ĺà¦¤ à¦Ń
Ġà¦Īà¦¦ à¦ª
vi ron
ĠI N
ĠI m
à¦¾à¦°à¦ĩ à¦¸
à¦¾à¦¤à¦¨ à¦ķ
à§įà¦¸à¦Ł à¦²
à§ĭà¦ķà¦ľà¦¨ à¦ĵ
ĠT he
ĠT EC
Ġà¦ħà¦² à¦°
Ġà¦ħà¦² à¦Ļ
à§įà¦§à¦¨ à¦¦
Ġà¦ľà¦¨à¦ª à¦¥
ct g
ct ober
th a
th er
Ġà¦ħà¦® à¦°
Ġà¦ħà¦® à¦²
à§įà¦Łà¦® à¦¸
à§įà¦¨à¦¤ à¦ĵ
à¦Ĥà¦Ĺà¦łà¦¨ à¦Ł
ch a
ro p
Ġà¦¬à¦ĩ à¦¯
Ġà¦¬à¦ĩ à¦Ł
à§Ĥà¦°à¦£ à¦ķ
el le
ĠW ork
Ġvi agra
Ġà¦¦à¦« à¦¤à¦°
Ġà¦¤à¦¤ à¦ķ
à¦¾à¦ĩà¦« à¦¸
à¦ıà¦¨ à¦ľ
tt ings
ĠF or
ĠH T
ĠH AC
ĠH uman
à¦¿. )
à¦¿. ,
à§įà¦¬à¦¶ à¦°
Ġà¦¯à¦¤ à¦¦
Ġà¦¯à¦¤ Åĵ
âĢĶ à¦¶
à¦¾à¦ľà¦¤ à¦ķ
Ġà¦Ĩà¦īà¦Ł à¦ª
Âł à¦°
Âł à¦¨
ĠL anguage
ĠL aw
à§ĩâĢĻ à¥¤
à¦¨à¦® à¦¸
à¦¾à¦łà¦ķ à¦¬à¦°
id ad
ĠR ight
ĠR ule
Ġw ill
Ġw ith
Ġw ebsit
à§ģà¦ļ à¦ķ
à§ģà¦ļ à¦¦
Ġà¦Ĩà¦§ à¦ĺ
à¦¾à¦¨à¦Ĺ à¦®à¦¨
di a
ho o
ist an
ist ration
à¦Ī à¦¶
à¦¸à¦ķ à¦²à¦ķ
Ġà¦¹à¦ľ à¦®
à¦¿à¦ķà¦Ł à¦¬à¦°
Ġà¦ķà¦ĸà¦¨à¦ĵ à¦ĩ
Ġe x
Ġe ach
Ġe ff
Ġà¦ľà¦² à¦¸
âĢľ à¦Ĩà¦Ĺ
Ġà¦ĩà¦īà¦ıà¦¸ à¦¬
enc y
ation al
Ġà¦īà§İà¦ª à¦²
-à¦¦ à¦²
iv e
lin es
ol lect
oo d
ue go
ĠJ ust
Ġg rou
Ġà¦¨à¦ķ à¦Ĩà¦īà¦Ł
Ġà¦Łà¦® à¦¸à¦¨
ers angbad
ĠSe e
ĠSe ttings
Ġy ou
à§ĩà¦ĺ à¦¨
Ġà¦Ĩà¦Ł à¦Ł
Ġà¦ıà¦ķà¦¸ à¦Ļ
à¦ıà¦² à¦¡
Ġth rou
ĠIn ternet
Ġà¦Ĩà¦ļà¦°à¦£ à¦¬
Ġd es
Ġd on
Ġde m
à¦¾à¦Ī à¦¦
à¦¼à¦¾à¦Ĥ à¥¤
Ġà¦¹à¦° à¦Ńà¦ľà¦¨
à¦¾à¦ªà¦¸ à¦Ĺ
à§Įà¦¥ à¦Ń
Ġtit t
Ġfre ind
fi ed
ĠO ctober
Ġk now
Ġma ss
à§ģà¦¥ à¦ª
à§Ģà¦ķà¦°à¦£ à¦¤à¦¨
Ġà¦Ĩà¦ĸ à¦¤
âĢį à§į
à§Īà¦§ à¦Ń
Ġte am
ĠPr iv
Ġinf o
Ġinf oc
à§ĩà¦ıà¦® à¦¬
-à¦Ĩ à¦ª
.C om
SS attar
Ġx xx
Ġla ws
à§Ģà¦¶ à¦Ļ
à§ĭà¦ķà¦¨ à¦ª
Ġse cure
ĠCh rist
à¦¿à¦ıà¦¸à¦ĩ à¦°
.f acebook
du ct
oc racy
youtu be
ĠK uma
ĠV i
Ġo ther
Ġen viron
Ġit s
à§įâĢĮ ,
Ġà¦¹à¦Ł à¦²
à¦Łà¦¸ à¦ħ
Ġà¦ĸà¦¸ à¦ĸà¦¸
Ġà¦ıà¦°à¦ĩ à¦®à¦§
Ġà¦ıà¦¸à¦ıà¦® à¦ª
Ġà¦ıà¦¸à¦ıà¦® à¦ıà¦¸
à§Īà¦°à¦¬ à¦ĺ
Ġcap tiv
ori al
ades h
à§ĩà¦ıà¦¸ à¦¸
OL OGY
ak istan
cre en
lic ation
ox sbaz
tw itter
Ġlo s
Ġà¦Ĭ à¦°
Ġà¦¬à¦ļ à¦¸
à§įà¦¯à¦Łà¦ķ à¦¦
Ġà¦°à¦ĵ à¦¨
à§įà¦Łà¦² à¦Ł
Ġà¦ļà¦® à§İà¦ķ
à§Ĥà¦ªà¦ķ à¦²
Ġà¦īà¦ªà¦¶ à¦®
erk anth
à§Ģà¦¬à¦¨à¦° à¦¹à¦¸
Ġà¦ħà¦ªà¦¹ à¦°à¦£
ĠCer ti
ĠChe ck
Ġpla y
Ġpack ages
angl adesh
ici ent
Ġâĺ İâ
ĠTrain ing
ĠReg istration
hopping direct
ĠProf ess
rib une
port ant
@kal erkanth
/A SSattar
/im sattar
@bd tim
@ya hoo
HN OLOGY
IV E
Tag s
ln k
lis h
ohns on
put er
uida do
Ġhe alth
Ġà¦ľà¦ĸ à¦®
à¦¿à¦ķà¦Ĺà¦£ à¦ķ
Ġà¦°à¦ī à¦«
Ġà¦Ĺà¦«à¦° à¦Ĺ
Ġà¦ªà¦°à¦ªà¦° à¦ĩ
à§ĩà¦²à¦ī à¦¡
à§ĩà¦ľà¦ķà¦¤ à¦¤
Ġà¦ıà¦²à¦Ĩà¦° à¦¬
Ġà¦ıà¦¨à¦Ĩà¦ĩ à¦¡
à¦ħà¦¬à¦¸ à¦°
onlin e
engal i
à¦ıà¦¸à¦ıà¦¨ à¦ıà¦¨
ĠSam uel
ĠSur endra
ĠSatur day
ilid ades
ĠContin ue
arNE WS
Ġbal ance
Ġniv el
Ġhab ilidades
stagra m
ĠDem ocracy
ĠBro ken
ĠTEC HNOLOGY
ĠRight s
Ġeff icient
ollect ed
ĠJust ice
Ġthrou gh
Ġfreind ly
Ġinfoc n
ĠKuma r
Ġenviron ment
Ġcaptiv ated
oxsbaz arNEWS
@kalerkanth o
@bdtim es
! à¦¸
# à¦ªà¦°à¦¬à¦°
% ,
' '
' m
' s
' à¦°
' à¥¤
' à¦¹
' à¦Ń
' à¦ľà¦¨
' à¦Ĩà¦°
( E
( Q
( à¦°
( à¦®
( à¦¹
( à¦¶
( à¦ĸ
( à¦ķà¦®
( !)
) "
) .
) ;
) M
) à¦ķ
) à¦¬
) à¦ª
) à¦¶
* )
* à¦¬
, C
, P
, S
, c
, p
, à¦¦
, à¦Ľ
, à¦Ń
, à¦ĸ
, à¦Ĩ
, à¦ı
, à¦¸à¦¹
, com
, à¦Ĩà¦®
, à¦ıà¦®
, âĢĺ
, à¦¸à¦¨
, âĢĶ
, à¦Ĩà¦¬
, à¦ªà¦²
, à¦¨à¦¤
, à¦ªà¦ŀ
, à¦ıà¦ķà¦Ł
- à¦ľ
- à¦§
- à¦ĵà¦¯
- à¦ł
- à¦ªà¦¤
- à¦ħ
- à¦ıà¦¸
- do
- à¦Ĩà¦®
- à¦ıà¦®
- à¦ķà¦²
- âĢĺ
- à¦ıà¦ĩ
- à¦¤à¦°
- à¦¨à¦¬
- à¦Ĩà¦¨
- à¦ħà¦¨
- à¦¹à¦¤
- à¦ĩà¦¸
- à¦īà¦²
- à¦Ĩà¦Ĺ
- à¦Ĩà¦²
- à¦§à¦°
- à¦ĺà¦°
- à¦ħà¦Ń
- à¦ħà¦§
- à¦Ĩà¦¨à¦¨
- Bangla
- ee
. A
. S
. d
. r
. s
. à¦®
. à¦ı
. à¦ıà¦¨
. ds
. ude
. youtube
/ %
/ B
/ C
/ G
/ H
/ Q
/ W
/ c
/ g
/ à¦¸
/ à¦¦
/ à¦Ĺ
/ à¦Ľ
/ à¦ľ
/ à¦«
/ à¦ħà¦¨
/ à¦®à¦ľ
/ à¦ĩà¦ī
/ à¦¸à¦¹à¦ķ
/ à¦ıà¦ĩà¦ļ
/ à¦®à¦¹à¦²
/ à¦Ĩà¦°à¦ı
: S
: à¦¨
: âĢĺ
: news
= ?
@ c
@ ho
A B
A L
A l
A r
A pp
A uth
B E
B O
B S
B us
B angladesh
C P
C R
C l
C o
C ategor
C leaner
C ollected
C oxsbazarNEWS
D G
D i
D OM
D SS
E T
E m
E à¦Ł
E SI
E SS
E BO
F OR
F IC
F ren
G M
H ow
I n
I ch
I NE
I mage
I BE
I FIC
J ohnson
K ER
L A
L E
L T
L e
L l
L ike
L INE
M L
M O
M Y
M u
M an
M or
M et
M ATION
M AR
M DSS
N G
N P
N SI
N Mu
O K
O U
O KI
P P
P AN
R C
R o
R online
R OU
S B
S e
S i
T o
T he
T OR
T PH
T IVE
T NMu
U V
U rdu
U BS
V is
W hy
X c
Y em
Y ST
Z CP
[ à¦Ń
] "
] .
] à¥¤
] ]"
_ rue
a x
a re
a ma
a st
a id
a ha
a ir
b m
b s
b on
b ar
b ing
b le
b as
b ol
b ori
b os
b ox
b angl
b ian
b ama
c m
c u
c in
c an
c ed
c al
c ri
c ard
d w
d y
d ro
d as
d ren
d ctg
e o
e v
e y
e er
e ed
e le
e lo
e ight
e ach
e Qu
e Ronline
f in
f à¦ĩà¦¨
f ur
f fer
f ul
f uck
f ormation
f icate
g an
g ed
g ar
g le
g ra
g oo
g et
g ain
g po
g ust
g so
g ues
g ency
g lish
h on
h at
h ad
h ang
h ic
h ur
h jo
h ists
h ork
h tml
i U
i z
i Ã
i ed
i fi
i port
i mage
i eQu
j v
j in
j hal
k ar
k la
k et
k ash
k jhal
l d
l es
l ing
l ia
l us
l ied
m y
m in
m es
m ing
m em
m ist
m bian
m dctg
n es
n se
n el
n ia
n ight
n ya
n Al
n ifi
o ma
o st
o ck
o tar
o ti
o tha
o dy
o kjhal
p t
p y
p er
p en
p lo
p el
p ment
p ir
p ow
p art
p ions
p aid
p das
p ful
q un
r d
r an
r ov
r ar
r al
r ad
r ing
r of
r un
r ent
r id
r ight
r une
r der
r ket
s ia
s day
s app
s ense
s hoppingdirect
t c
t d
t on
t ed
t he
t it
t mail
t ps
t ate
t ime
t end
t bol
t gpo
t okjhal
u ed
u se
u ide
u gust
v er
v ic
v elo
v tps
w on
w or
w ood
x em
y ment
y fuck
y mbian
z ed
z ul
£ à¦¦à¦°
¦ à¦¾
¯ â
³ n
¸ ı
º à¦¿
º tbol
½ ...
¿ ½...
Â ·
Â ķ
Â ¦à¦¾
Ã Ń
Ã ºtbol
Å ¸
â Ļ
ï ģ
ï ¸ı
ï ¿½...
ð Ł
Ġ >
Ġ `
Ġ âĢĻ
Ġ ..
Ġ ov
Ġ do
Ġ ed
Ġ em
Ġ ess
Ġ el
Ġ is
Ġ out
Ġ ol
Ġ res
Ġ que
Ġ rim
Ġ ought
Ġ Yem
Ġ image
Ġ qun
Ġ run
Ġ use
Ġ ïģ
Ġ ðŁ
ĥ ,
Ħ ĥ,
Ĭ à¦¦
Ĭ à¦ī
ĳ ï¸ı
Ĵ ¬
Ĵ »
ĺ ĳï¸ı
ľ ħ
ŀ ¤
à¦ Ĭà¦ī
à¦¾ =
à¦¾ à¦¾à¥¤
à¦¾ ..
à¦¾ âĢ¦
à¦¾ âĢĺ
à¦¾ ï¿½...
à¦° à¦Ł
à¦° à¦¡
à¦° à¦¶
à¦° à¦Ļ
à¦° à¦¹à¦®
à¦° à¦Ŀ
à¦° à¦¨à¦Ĺà¦°
à§ĩ "
à§ĩ [
à§ĩ à§Ģ
à§ĩ ..
à§ĩ à§İ
à§ĩ âĢĮ
à§ĩ âĢĿ
à§ĩ )à¥¤
à§ĩ ),
à§ĩ âĢ¦âĢ¦
à§ĩ Ãĳ
à§į -
à§į âĢĻ
à¦¾à¦ ¿
à¦¾à¦ Ĭà¦¦
à¦¿ "
à¦¿ _
à¦¿ à§ĩ
à¦¿ à§ģ
à¦¿ âĢĺ
à¦¿ âĢĵ
à¦¿ âĢ¦âĢ¦âĢ¦âĢ¦
à¦¿ Eà¦Ł
à§įà¦ ¹
à¦¨ à¦¨
à¦¨ à¦ª
à¦¨ à¦ľ
à¦¨ à¦¥
à¦¨ à¦ķà¦°
à¦¼ (
à¦¼ .
à¦¼ à¦¶
à¦¼ à¦§
à¦¼ âĢĻ
à¦¼ à¦ĥ
à¦¼ à¦ĸà¦¨
à¦¼ à§ĭâĢĻ
à¦¼ à¦°à¦£
à¦¼ à¦Ŀ
à¦¼ à¦ĩà¦¨
à¦¼ )à¥¤
à¦¼ à¦ľà¦¨à¦ķ
à¦¼ âĢĻà¥¤
à§ĩà¦ Ĥ
à§ģ .
à§ģ :
à§ģ à¦ĵà¦¯
à§ģ à¦ī
à§ģ ...
à§ģ à¦ĺ
à§ģ à¦¸à¦®
à§ģ à¦Ĺà¦ŀ
à§ģ à¦¢
à§ģ âĢĺ
à§ģ à¦ļà¦¨
à§ģ à¦Ĩà¦²
à§ģ à¦Īà¦¨
à¦¾à¦° à¦¯
à¦¾à¦° à¦¡
à¦¾à¦° à¦«
à¦¾à¦° à¦Ĺà¦ŀ
à¦¾à¦° à¦Ŀ
à¦¾à¦° à¦Ľà¦¡
à¦¾à¦° à¦«à¦¤
à¦ķ à¦¸
à¦ķ à¦ª
à¦ķ à¦Ľ
à¦ķ à¦Ń
à¦ķ à¦·
à¦ķ à¦¬à¦°
à¦ķ à¦ĵà¦¯
à¦ķ à¦²à¦ķ
à¦ķ à¦ľà¦¨à¦ķ
Ġà¦ķ à¦¸
Ġà¦ķ à¦Ľ
Ġà¦ķ à¦«
Ġà¦ķ à¦Ļ
Ġà¦ķ à¦ķà¦Ł
Ġà¦ķ à¦¸à¦¬
Ġà¦ķ à¦¸à¦ķ
Ġà¦¸ à¦¯
Ġà¦¸ à¦ĸ
Ġà¦¸ à¦ªà¦°
Ġà¦¸ à¦¹à¦®
Ġà¦¸ à¦¤à¦¨
Ġà¦¸ à¦ĩà¦¤
Ġà¦¸ à¦Ĺà¦¦
à¦² à¦¸
à¦² à¦ĩ
à¦² à¦¡
à¦² à¦Ń
à¦² à¦¥
à¦² à¦«
à¦² Tags
Ġà¦¬ à¦£
Ġà¦¬ à¦ĸ
Ġà¦¬ à¦ķà¦°
Ġà¦¬ à¦¸à¦²
à¦¤ à¦ķ
à¦¤ à¦ĩ
à¦¤ à¦¡
à¦¤ à¦Ĺà¦ŀ
à¦¤ à¦°à¦£
à¦¤ à¦¦à¦¨
à¦¤ à¦«à¦¸
à§ĭ à¦ŀ
à§ĭ à¦ĵà¦¯
à§ĭ à¦¸à¦²
à§ĭ à§İà¦¸
à§ĭ âĢĮ
à§ĭ âĢĿ
à§ĭ )à¥¤
à§ĭ Â»
à§ĭ à¦ħà¦ª
à§ĭ Ãĳ
Ġà¦ª à¦ļ
Ġà¦ª à¦¬à¦¨
Ġà¦ª à¦Ĺà¦¬
à¦¬ à¦ķ
à¦¬ à¦¡
à¦¬ à¦Ń
à¦¬ à¦¹à¦¤
à¦¬ à¦ĩà¦Ł
à¦® à¦²
à¦® à¦¦
à¦® à¦ĩ
à¦® à¦¥
à¦® à¦ŀ
à¦® à§İà¦¸
à§ĩà¦° à¦¨
à§ĩà¦° à¦¡
à§ĩà¦° à¦¥
à§įà¦° à¦¸à¦®
à¦¯ à¦¤
à¥¤ )
à¥¤ -
à¥¤ à¦²
à¥¤ à¦®
à¥¤ à¦¯
à¥¤ à¦¦
à¥¤ à¦Ĺ
à¥¤ à¦Ľ
à¥¤ à¦Ń
à¥¤ à¦ļ
à¥¤ à¦®à¦¨
à¥¤ à¦ªà¦°
à¥¤ à¦ıà¦°
à¥¤ à¦Ŀ
à¥¤ âĢĺ
à¥¤ à¦ıà¦ĩ
à¥¤ à¦ķà¦¬
à¥¤ à¦ľà¦¯
à¥¤ à¦ĵà¦ĩ
à¥¤ à¦ıà¦Ł
à¥¤ à¦Ĺà¦¤à¦ķ
à¥¤ à¦Ĩà¦ĩà¦¸
à¥¤ à¦ħà¦¥à¦ļ
à¥¤ à¦¸à¦ķà¦²à¦ķ
à¥¤ ''
à¥¤ bangl
à§įà¦¯ à¦¹
à§įà¦¯ à¦ĸ
à§įà¦¯ à¦ŀ
à§įà¦¯ à¦ľà¦¨
à§įà¦¯ à§İ
à§įà¦¯ à¦¸à¦¹
à§įà¦¯ à¦ľà¦¨à¦ķ
à§įà¦¯ à¦¹à¦¤
à§įà¦¯ à¦°à¦ķà¦®
à§Ģ !
à§Ģ "
à§Ģ .
à§Ģ à¦¸
à§Ģ à¦ĥ
à§Ģ à¦ķà¦°
à§Ģ à¦ł
à§Ģ à¦¸à¦®
à§Ģ âĢĿ
à§Ģ à¦¹à¦¤
à§Ģ âĢĻà¥¤
à§Ģ à¦ķà¦°à¦¨
à§Ģ âĢĿà¥¤
à§Ģ ----
Ġà¦® à¦®
Ġà¦® à¦Ĺ
Ġà¦® à¦ĵ
Ġà¦® à¦ľà¦¨
Ġà¦® à¦¸à¦²
Ġà¦® à¦°à¦£
Ġà¦® à¦°à¦¸
Ġà¦® à¦ĸà¦²
Ġà¦® à¦«à¦¸
Ġà¦® à¦Ĺà¦¬
Ġà¦® à¦Ĺà¦¡
Ġà¦® à¦ļà¦®
Ġà¦® à¦ĵà¦ķ
Ġà¦® à¦ķà¦¸
à¦¾à¦¨ à¦²
à¦¾à¦¨ à¦¹
à¦¾à¦¨ à¦¶
à¦¾à¦¨ à¦¥
à¦¾à¦¨ à¦«
à¦¾à¦¨ à¦¸à¦®
à¦¾à¦¨ à¦°à¦¤
à¦¾à¦¨ à¦Ľà¦¡
à¦¾à¦¨ à¦ľà¦¨à¦ķ
à¦¸ à¦¦
à¦¸ à¦Ł
à¦¸ à¦ĵ
à¦¸ à¦ŀ
à¦¸ à¦ķà¦²
à¦¸ à¦¤à¦°
Ġà¦ı à¦¹
Ġà¦ı à¦ĵ
Ġà¦ı à¦ıà¦«
Ġà¦¨ à¦¸
Ġà¦¨ à¦ļ
Ġà¦¨ à¦ĸ
Ġà¦¨ à¦¬à¦¨
Ġà¦¹ à¦®
Ġà¦¹ à¦°à¦¸
à¦¦ à¦ĩ
à¦¦ à¦¹à¦¨
à¦¦ à¦®à¦ľ
à§įà¦¤ à¦¯
à§įà¦¤ à¦ĵ
à§įà¦¤ à¦¬à¦°
à§įà¦¤ à¦ķà¦°à¦£
à¦¼à§ĩ ;
à¦¼à§ĩ ...
à¦¼à§ĩ âĢĶ
à¦ª à¦¯
à¦ª à¦¸
à¦ª à¦£
à¦ª à¦¶
à¦ª à§İ
à¦ª à¦Ľà¦¨
Ġà¦ķà¦° à¦¦
à¦Ł à¦²
à¦Ł à¦Ľ
à¦Ł à¦Ľà¦¡
à¦¼à¦¾ !
à¦¼à¦¾ "
à¦¼à¦¾ :
à¦¼à¦¾ ;
à¦¼à¦¾ ...
à¦¼à¦¾ âĢĮ
à¦¼à¦¾ Â»
Ġà¦ľ à¦Ĺ
Ġà¦ľ à¦¶
Ġà¦ľ à¦ĵà¦¯
Ġà¦ľ à¦²à¦ķ
Ġà¦ľ à¦²à¦¬
Ġà¦ľ à¦ĺà¦¨
Ġà¦¤ à¦®
Ġà¦¤ à¦ª
Ġà¦¤ à¦ªà¦¨
Ġà¦¤ à¦¸à¦²
Ġà¦¤ à¦²à¦¬
Ġà¦¤ à¦ķà¦®
Ġà¦¤ à¦Ľà¦¨
Ġà¦¤ à¦¹à¦¬
Ġà¦¤ à¦¹à¦¶
Ġà¦ħ à¦ĩ
Ġà¦ħ à¦ļ
Ġà¦ħ à¦¬à¦¨
Ġà¦ħ à¦¶à¦¨
Ġà¦ħ à¦ļà¦²
Ġà¦ħ à¦¹à¦°
à§ĩà¦¨ à¦°
à§ĩà¦¨ à¦Ł
à§ĩà¦¨ à¦ľ
à§ĩà¦¨ à¦¶
à§ĩà¦¨ à¦ĵ
à§ĩà¦¨ à¦¸à¦¹
à§ĩà¦¨ à¦¬à¦²
à¦Ĺ à¦Ń
à¦Ĺ à¦°à¦®
à¦Ĺ à¦ĩà¦¨
à¦¾à¦² à¦²
à¦¾à¦² à¦Ĺ
à¦¾à¦² à¦ĩ
à¦¾à¦² à¦ļ
à¦¾à¦² à¦ĵ
à¦¾à¦² à¦ķà¦°
à¦¾à¦² à¦ĵà¦¯
à¦¾à¦² à¦ĺ
à¦¾à¦® à¦¹
à¦¾à¦® à¦ĸ
à¦¾à¦® à¦«
à¦¾à¦® à¦ķà¦°
à¦¾à¦® à¦ªà¦¤
à¦¾à¦® à¦ĩà¦¨
à¦¾à¦® à¦¤à¦°
à¦¾à¦® à¦ļà¦¨
à¦¾à¦® à¦ķà¦°à¦¨
à¦¿à¦¨ à¦®
à¦¿à¦¨ à¦Ĺ
à¦¿à¦¨ à¦¥
à¦¿à¦¨ à¦Ĺà¦¤
à¦¿à¦¨ à¦Ĺà¦£
à¦¿à¦¨ à¦ľà¦¨à¦ķ
à¦¿à¦¨ à¦Ńà¦°
à¦¿à¦ķ à¦ĩ
à¦¿à¦ķ à¦£
à¦¿à¦ķ à¦¥
à¦¿à¦ķ à¦ªà¦ķ
à¦¿à¦ķ à¦¤à¦®
à¦¿à¦ķ à¦¤à¦°
à¦¾à¦¯ à¦¨
à¦¿à¦° à¦¨
à¦¿à¦° à¦Ĺ
à¦¿à¦° à¦Ľ
à¦¿à¦° à¦ļ
à¦¿à¦° à¦ĸ
à¦¿à¦° à¦ĩà¦²
à¦¿à¦° à¦īà¦¦
à§įà¦¬ à¦®
à§įà¦¬ à¦§
à§įà¦¬ à¦¦à¦°
Ġà¦° à¦¤
Ġà¦° à¦ĩ
Ġà¦° à¦ľ
Ġà¦° à¦ļ
Ġà¦° à¦ŀ
Ġà¦° à¦ľà¦¨
Ġà¦° à¦¨à¦¬
à¦¹ à¦¯
à¦¹ à¦Ł
à¦¹ à¦¹
à¦¹ à¦ľ
à¦¹ à¦Ń
à¦¹ à¦°à¦¤
à¦¹ à¦¤à¦°
à¦¾à¦ķ à¦ķ
à¦¾à¦ķ à¦ľ
à¦¾à¦ķ à¦¶
à¦¾à¦ķ à¦ĵ
à¦¾à¦ķ à¦ĵà¦¯
à¦¾à¦ķ à¦¬à¦²
à¦¾à¦ķ à¦¸à¦¬
à¦¾à¦ķ à¦ĺà¦°
Ġà¦¯ à¦¬
Ġà¦¯ à¦¯
Ġà¦¯ à¦·
Ġà¦¯ à¦¤à¦¬
Ġà¦¯ à¦Ī
Ġà¦¯ fà¦ĩà¦¨
Ġà¦¯ à¦¹à¦°à¦¤
à¦Ľ à¦®
à¦Ľ à¦¯
à¦Ľ à¦Ł
à¦ĩ à¦°
à¦ĩ à¦ķ
à¦ĩ à¦®
à¦ĩ à¦ª
à¦ĩ à¦¹
à¦ĩ à¦Ľ
à¦ĩ à¦¡
à¦ĩ à¦Ń
à¦ĩ à¦ļà¦Ł
à¦ĩ à¦®à¦°
à¦ĩ à¦«à¦¤
à¦ĩ à¦īà¦ľ
à§įà¦Ł à¦¬
à§įà¦Ł à¦ª
à§įà¦Ł à¦¡
à§įà¦Ł à¦ĵ
à§įà¦Ł à¦ľà¦¨
à§įà¦Ł à¦ĵà¦¯
à§įà¦Ł à¦¤à¦ĩ
à¦¿à¦¤ à¦ķ
à¦¿à¦¤ à¦²
à¦¿à¦¤ à¦¸
à¦¿à¦¤ à¦¦
à¦¿à¦¤ à¦Ĺ
à¦¿à¦¤ à¦£
à¦¿à¦¤ à¦ĵ
à¦¿à¦¤ à¦ķà¦²
à¦¿à¦¤ à¦ķà¦°à¦£
à¦¿à¦¤ à¦¸à¦ķ
à¦¿à¦¤ à¦ķà¦°à¦¨
à¦ľ à¦ķ
à¦ľ à¦®
à¦ľ à¦§
à¦ľ à¦ĸ
à¦ľ à¦ĩà¦²
à¦ľ à¦ķà¦¦
Ġà¦¶ à¦Ł
Ġà¦¶ à¦°à¦®
Ġà¦¶ à¦®à¦°
Ġà¦¶ à¦ĵà¦ķ
Ġà¦Ĺ à¦®
Ġà¦Ĺ à¦ľà¦¨
Ġà¦Ĺ à¦®à¦¨
Ġà¦Ĺ à§İ
Ġà¦Ĺ à¦®à¦°
Ġà¦Ĺ à¦Ĺà¦¨
Ġà¦ļ à¦ŀ
Ġà¦ļ à¦Łà¦ķ
Ġà¦ļ à¦ĵà¦¡
à¦Ĥ )
à¦Ĥ ;
à¦Ĥ F
à¦Ĥ à¦®
à¦Ĥ à¦¹
à¦Ĥ à¦¬à¦°
à¦Ĥ âĢ¦
à¦Ĥ à¦łà¦¨
à§ĩà¥¤ "
à§ĩà¥¤ ...
à§ĩà¥¤ âĢľ
à¦¾à¦ĩ à¦ĵ
à¦¾à¦ĩ à¦ķà¦°
à¦¾à¦ĩ à¦ªà¦°
Ġà¦ĵ à¦Ł
Ġà¦ĵ à¦¡
Ġà¦ĵ à¦²à¦®
à¦¡ à¦¸
à¦¡ à¦¬à¦²
à§ģà¦° à¦ª
à§ģà¦° à¦¶
à§ģà¦° à¦·
à§ģà¦° à¦°à¦¹à¦®
à¦¾à¦¬ à¦Ĺ
à¦¾à¦¬ à¦ĩ
à¦¾à¦¬ à¦ıà¦¨
à¦¾à¦¬ à¦ķà¦¦
à§ģà¦² à¦°
à§ģà¦² à¦¸
à§ģà¦² à¦ĩ
à§ģà¦² à¦¸à¦¹
à¦¾à¦¤ à¦ª
à¦¾à¦¤ à¦Ľ
à¦¾à¦¤ à¦ľ
à¦¾à¦¤ à¦ľà¦¨
à¦¾à¦¤ à¦ªà¦°
à¦¾à¦¤ à¦®à¦¯
âĢ ºà¦¿
à¦¾à¦¦ à¦¸
à¦¾à¦¦ à¦ľ
à¦¾à¦¦ à¦ķà¦°
à¦¾à¦¦ à¦¬à¦°
à¦¾à¦¦ à¦ªà¦¦
à¦¿à¦² à¦¦
à¦¿à¦² à¦ª
à¦¿à¦² à¦Ĺ
à¦¿à¦² à¦Ľ
à¦¿à¦² à¦ĵ
à¦¿à¦² à¦¸à¦¹à¦ķ
à¦¾à¦¸ à¦²
à¦¾à¦¸ à¦Ĺ
à¦¾à¦¸ à¦Ľ
à¦¾à¦¸ à¦Ń
à¦¾à¦¸ à¦Ļ
à¦¾à¦¸ à¦ĵà¦¯
à¦¾à¦¸ à¦¸à¦¹
à¦¾à¦¸ à¦°à¦¤
à¦¾à¦¸ à¦®à¦¯
à¦¾à¦¸ à¦¬à¦¹
à§įà¦· à¦¬
à§įà¦· à¦Ł
à§įà¦· à¦ĵ
à§įà¦· à¦ķà¦°
à§įà¦· à¦°à¦£
Ġà¦ī à¦¸
Ġà¦ī à¦¶
Ġà¦ī à¦ĸ
Ġà¦ī à¦Ĺà¦°
Ġà¦ī à¦®à¦¤
Ġà¦ī à¦²à¦ķ
Ġà¦ī à¦Ī
Ġà¦ī à¦¸à¦ķ
à¦¶ à¦¹
à¦¶ à¦ĸ
à¦¶ à¦Ŀ
à¦¶ à¦¹à¦°
Ġà¦Ń à¦²
Ġà¦Ń à¦¸
Ġà¦Ń à¦¦
Ġà¦Ń à¦Ļ
Ġà¦Ń à¦ľà¦¨
Ġà¦Ń à¦°à¦£
Ġà¦Ń à¦Ĺà¦¤
Ġà¦Ń à¦Ĺà¦¬
Ġà¦ªà¦° à¦ķ
Ġà¦ªà¦° à¦ª
Ġà¦ªà¦° à¦¬à¦¤
à§ĩà¦¶ à¦®
à§ĩà¦¶ à¦¯
à§ĩà¦¶ à¦¹
à§ĩà¦¶ à¦ĩ
à§ĩà¦¶ à¦ĵ
à§ĩà¦¶ à¦ªà¦¤
à§ĩà¦¶ à¦¸à¦¹
à§ĩà¦¶ à¦ķà¦Ł
à¦Ń à¦¬
à§ĩà¦ķ à¦ľ
à§ĩà¦ķ à¦Ń
à§ĩà¦ķ à¦ĸ
à§ĩà¦ķ à¦®à¦¤
à§ĩà¦ķ à¦¸à¦¹
à§ĩà¦ķ à¦¸à¦ĩ
à¦ļ à¦°
à¦ļ à¦¤
à¦ļ à¦ľà¦¨
à§ĩà¦² à¦°
à§ĩà¦² à¦¦
à§ĩà¦² à¦¹
à§ĩà¦² à¦¡
à§ĩà¦² à¦Ń
à§ĩà¦² à¦ĵ
à§ĩà¦² à¦¥
à§ĩà¦² à¦®à¦¨
à§ĩà¦² à¦¬à¦¨
à§ĩà¦² à¦¸à¦¹
à§ĩà¦² à¦¸à¦ķ
à§ĩà¦² à¦ªà¦¥
Ġà¦ıà¦ķ à¦¯
Ġà¦ıà¦ķ à¦ª
Ġà¦ıà¦ķ à¦Ĺ
Ġà¦ıà¦ķ à¦ªà¦ķ
Ġà¦ıà¦ķ à¦¬à¦Ľà¦°
Ġà¦ıà¦ķ à¦¤à¦°
Ġà¦ıà¦ķ à¦¸à¦®à¦¯
Ġà¦ıà¦ķ à¦°à¦ķà¦®
Ġà¦« à¦ķ
Ġà¦« à¦ľ
Ġà¦« à¦ķà¦°
Ġà¦« à¦Łà¦ķ
Ġà¦« à¦¸à¦ķ
à¦¾à¦ľ à¦Ĺ
à¦¾à¦ľ à¦Ľ
à¦¾à¦ľ à¦ĩ
à¦¾à¦ľ à¦Ń
à¦¾à¦ľ à¦ĵ
à¦¾à¦ľ à¦ķà¦°
à¦¾à¦ľ à¦¸à¦¹
à¦¾à¦ľ à¦ĺà¦°
Ġà¦¸à¦® à¦¤
Ġà¦¸à¦® à¦Ĺ
Ġà¦¸à¦® à¦Ń
Ġà¦¸à¦® à¦·
Ġà¦ĩ à¦¬
Ġà¦ĩ à¦Ĺ
Ġà¦ĩ à¦¡
Ġà¦ĩ à¦ķà¦°
Ġà¦ĩ à¦®à¦¤
Ġà¦ĩ à¦§à¦°
Ġà¦ĩ à¦ĩà¦ī
Ġà¦ĩ à¦¶à¦°
Ġà¦² à¦°
Ġà¦² à¦²
Ġà¦² à¦¯
Ġà¦² à¦¸
Ġà¦² à¦ŀ
Ġà¦² à¦ĩà¦¤
Ġà¦² à¦ĩà¦¬
Ġà¦² à¦Ĺà¦ĩà¦¨
Ġà¦¥ à¦®à¦ķ
Ġà¦¥ à¦®à¦¥
à§įà¦® à¦¨
à§įà¦® à¦²
à§įà¦® à¦®
à§įà¦® à¦¹
à§įà¦® à¦¶
à§įà¦® à¦§
à§įà¦® à¦¥
à§įà¦® à¦«
à§įà¦® à¦¬à¦°
à§įà¦® à¦ªà¦°
à§įà¦® à¦¸à¦¹
à§įà¦® à¦¨à¦¬
à¦¿à¦¶ à¦¤
à¦¿à¦¶ à¦¦
à¦¿à¦¶ à¦Ĺ
à¦¿à¦¶ à¦§
à¦¿à¦¶ à¦ªà¦¤
à§ĥ à¦°
à§ĥ à¦®
à§ĥ à¦¸
à§ĥ à¦Ĺ
à§ĥ à¦ľ
à§ĥ à¦Ń
à§ĥ à¦¬à¦¨
à§ĥ à§İ
Ġà¦ĸ à¦£
Ġà¦ĸ à¦°à¦®
à§įà¦¦ à¦ĵ
à§įà¦¦ à¦Ĺà¦ŀ
à§įà¦¦ à¦®à¦¤
à§įà¦¦ à¦¶à¦¨
à§įà¦¦ à¦¸à¦ĩ
à§Ĥ à¦¸
à§Ĥ à¦Ł
à§Ĥ à¦ªà¦¤
à§Ĥ à¦ģ
à§Ĥ à¦Łà¦ķ
à§Ĥ à¦ĸà¦°
à§Ĥ à¦ĩà¦¯
à§Ĥ à¦¸à¦°
à¦¾à¦¹ à¦¯
à¦¾à¦¹ à¦¦
à¦¾à¦¹ à¦ļ
à¦¾à¦¹ à¦ĸ
à¦¾à¦¹ à¦ªà¦°
à¦¾à¦¹ à¦īà¦¦
à¦¾à¦¹ à¦Ĺà¦²
à¦¾à¦ª à¦¯
à¦¾à¦ª à¦ª
à¦¾à¦ª à¦Ĺ
à¦¾à¦ª à¦Ľ
à¦¾à¦ª à¦ĵ
à¦¾à¦ª à¦¥
Ġà¦Ľ à¦¨
Ġà¦Ľ à¦²
Ġà¦Ľ à¦¤
Ġà¦Ľ à¦¦
à§įà¦ª à¦²
à§įà¦ª à¦¸
à§įà¦ª à¦¹
à§įà¦ª à¦§
à§įà¦ª à¦«
à§įà¦ª à¦Łà¦¨
à§įà¦ª à¦ķà¦¬
à§įà¦ª à¦īà¦¦
à§įà¦¥ à¦°
à§įà¦¥ à¦¶
à§įà¦¥ à¦ĵ
à§įà¦¥ à¦ķà¦°
à§įà¦¥ à¦ªà¦°
à§įà¦¥ à¦ªà¦¤
à§įà¦¥ à¦ªà¦¥
à¦ĸ à¦£
à¦ĸ à¦¬à¦°
à¦ĸ à¦²à¦ķ
à¦ĵ à¦°
à¦ĵ à¦¬
à¦ĵ à¦¹
à¦ĵ à¦¸à¦®
à¦ĵ à¦²à¦®
à¦¿à¦¬ à¦ĵ
à¦¿à¦¸ à¦¨
à¦¿à¦¸ à¦Ĺ
à¦¿à¦¸ à¦ĸ
à¦¿à¦¸ à¦«
à§įà¦§ à¦Ł
à§įà¦§ à¦ľ
à§įà¦§ à¦¶
à§įà¦§ à¦ĵ
à§įà¦§ à¦¬à¦¨
à§įà¦§ à¦¸à¦®
à§įà¦§ à¦¤à¦¨
à¦¾à¦Ĺ à¦£
à¦¾à¦Ĺ à¦§
à¦¾à¦Ĺ à¦ĵ
à¦¾à¦Ĺ à¦®à¦¨
à§ĩà¦ĩ à¦ª
à§ĩà¦ĩ à¦Ł
à§ĩà¦ĩ à¦ıà¦ķ
à§ĩà¦ĩ à¦¸à¦¬
Ġà¦ħà¦¨ à¦®
Ġà¦ħà¦¨ à¦Ł
Ġà¦ħà¦¨ à¦¡
Ġà¦ħà¦¨ à¦®à¦¨
Ġà¦ħà¦¨ à¦¬à¦°
à§ĭà¦¨ à¦²
à§ĭà¦¨ à¦¸
à§ĭà¦¨ à¦¦
à§ĭà¦¨ à¦ĩ
à§ĭà¦¨ à¦Ń
Ġà¦Ĩà¦® à¦¡
Ġà¦Ĩà¦® à¦¤à¦²
Ġà¦ľà¦¨ à¦ľ
Ġà¦ľà¦¨ à¦ĵ
Ġà¦ľà¦¨ à¦¸à¦®
Ġà¦ľà¦¨ à¦®à¦¤
Ġà¦ľà¦¨ à¦¬à¦²
Ġà¦ľà¦¨ à¦ķà¦²
Ġà¦ľà¦¨ à¦¸à¦¨
à§ģà¦¨ à¦Ľ
à§ģà¦¨ à¦¶
à§ģà¦¨ à¦Ń
à§ģà¦¨ à¦·
à§ģà¦¨ à¦¸à¦¹
à¦¾à¦¡ à¦¨
à¦¾à¦¡ à¦Ĺ
à¦¾à¦¡ à¦°à¦Ł
à¦« à¦Ĺ
à§įà¦Ĺ à¦¸
à§įà¦Ĺ à¦£
à§įà¦Ĺ à¦«
à§įà¦Ĺ à¦¸à¦¹
à§įà¦¡ à¦¯
à§įà¦¡ à¦Ł
à§įà¦¡ à¦Ĺ
à§įà¦¡ à¦ļ
à§įà¦¡ à¦«
à§įà¦¡ à¦¸à¦¹
à§įà¦¡ à¦Ĺà¦¤
Ġà¦Ł à¦ķ
Ġà¦Ł à¦¬
Ġà¦Ł à¦¯
à¦¿à¦¦ à¦ķ
à¦¿à¦¦ à¦ĵà¦¯
à§Ģà¦° à¦ķ
à§Ģà¦° à¦ĩ
à§Ģà¦° à¦¶
à§Ģà¦° à¦¸à¦°
à§Ģà¦° à¦¨à¦Ĺà¦°
à¦¿à¦ľ à¦ķ
à¦¿à¦ľ à¦¬
à¦¿à¦ľ à¦Ĺ
à¦¿à¦ľ à¦ĵà¦¯
à¦¿à¦ľ à¦¸à¦¹
à¦¿à¦ľ à¦°à¦¤
âĢĻ t
âĢĻ à¦¤
âĢĻ à¦¸
âĢĻ à¦Ł
âĢĻ à¦Ń
âĢĻ à¦ı
âĢĻ à¦ľà¦¨
âĢĻ à¦ıà¦°
âĢĻ âĢĶ
âĢĻ is
âĢĻ à¦¶à¦¤
à§įà¦°à¦¤ à¦°
à§įà¦°à¦¤ à¦®
à§ĩà¦ĸ à¦ĺ
à§ĩà¦ĸ à¦°à¦¨à¦Ĺà¦°
à§ĩà¦¯ à¦¬
à§ĭà¦° à¦®
à§ĭà¦° à¦¶
à§ĭà¦° à¦ĸ
à§ĭà¦° à¦ĵ
à§ĭà¦° à¦Ĩà¦¨
à§ĭà¦° à¦ķà¦¦
à§įà¦² à¦²
à§įà¦² à¦ľ
à§įà¦² à¦¥
à§įà¦² à¦«
à§įà¦² à¦Łà¦¨
à¦¾à¦ļ à¦°
à¦¾à¦ļ à¦°à¦£
à§ĩà¦Ł à¦®
à§ĩà¦Ł à¦¸
à§ĩà¦Ł à¦¸à¦¹
à§ģà¦ķ à¦¨
à§ģà¦ķ à¦ķ
à§ģà¦ķ à¦ĵ
à§įà¦¸ à¦°
à§įà¦¸ à¦¨
à§įà¦¸ à¦²
à§įà¦¸ à¦¡
à§įà¦¸ à¦¬à¦¸
à§įà¦¸ à¦°à¦¯
à¦¿à¦® à¦ª
à¦¿à¦® à¦Ł
à¦¿à¦® à¦¶
à¦¿à¦® à¦ĵà¦¯
à¦¿à¦® à¦¤à¦®
à¦¾à¦¶ à¦¤
à¦¾à¦¶ à¦¯
à¦¾à¦¶ à¦ª
à¦¾à¦¶ à¦Ĺ
à¦¾à¦¶ à¦ļ
à¦¾à¦¶ à¦ªà¦¥
à¦¾à¦¶ à¦Ĺà¦Ļ
à§įà¦ľ à¦ķ
à§įà¦ľ à¦¤
à§įà¦ľ à¦¬
à§įà¦ľ à¦ľ
à§įà¦ľ à¦£
à¦¿à¦Ł à¦Ł
à¦¿à¦Ł à¦ĵ
à¦¿à¦Ł à¦«
à¦¿à¦Ł à¦¸à¦¹
à¦¿à¦Ł à¦¸à¦¬
à¦¿à¦Ł à¦®à¦¹
à§įà¦¨ à¦ķ
à§įà¦¨ à¦¸
à§įà¦¨ à¦¦
à§įà¦¨ à¦Ł
à§įà¦¨ à¦Ĺ
à§įà¦¨ à¦¶
à§įà¦¨ à¦Ń
à§įà¦¨ à¦ĵ
à§įà¦¨ à¦®à¦¤
Ġà¦¡ à¦°
Ġà¦¡ à¦¨
Ġà¦¡ à¦®
Ġà¦¡ à¦¯
Ġà¦¡ à¦Ĺ
à¦Ĩ à¦ķ
à¦Ĩ à¦¤
à¦Ĩ à¦¸
à¦Ĩ à¦ª
à¦Ĩ à¦¶
à¦Ĩ à¦ļ
à¦Ĩ à¦ŀ
à¦Ĩ à¦Ĺà¦°
à¦Ĩ à¦Łà¦ķ
à¦Ĩ à¦°à¦¸
à¦Ĩ à¦¹à¦¤à¦°
à¦Ĩ à¦«à¦Ĺ
à§ĭà¦Ĺ à¦®
à§ĭà¦Ĺ à¦¯
à§ĭà¦Ĺ à¦ª
à§ĭà¦Ĺ à¦ĩ
à§Į à¦¬
à§Į à¦Ł
à§Į à¦Ľ
à§Į à¦Ń
à§Į à¦ľà¦¨
à§Į à¦®à¦¨
à§Į à¦¶à¦¨
à§Į à¦Ĺà¦²
à¦ı à¦¶
à¦ı à¦ľà¦¨
à¦ı à¦¨à¦¬
à¦ı à¦«à¦¸
à¦ı à¦¸à¦®à¦¯
à¦ı à¦ıà¦²
à¦ı à¦°à¦ķà¦®
à¦ı à¦Ĩà¦°à¦ı
à¦ı à¦Ĩà¦°à¦¸
à§įà¦ķ à¦ķ
à§įà¦ķ à¦²
à§įà¦ķ à¦¬
à§įà¦ķ à¦¶
à§įà¦ķ à¦ĵ
à§įà¦ķ à¦°à¦£
à§įà¦ķ à¦Ĩà¦īà¦Ł
à§įà¦ķ à¦¨à¦¦
à§įà¦ķ à¦¶à¦ª
Ġà¦Ĩà¦° à¦¨
Ġà¦Ĩà¦° à¦¤
Ġà¦Ĩà¦° à¦Ł
Ġà¦Ĩà¦° à¦¶
à¦¾à¦ģ -
à¦¾à¦ģ âĢĿ
à§ĩà¦¤ à¦ķà¦°
à¦¾à¥¤ '
à¦¾à¥¤ [
à¦¿à¦· à¦ķ
à¦¾à¦§ à¦Ĺ
Ġà¦ıà¦ĩ à¦°
Ġà¦ıà¦ĩ à¦®
Ġà¦ıà¦ĩ à¦ľ
Ġà¦ıà¦ĩ à¦ļà¦Ł
Ġà¦ıà¦ĩ à¦¡à¦¸
Ġà¦§ à¦ķ
Ġà¦§ à¦²
Ġà¦§ à¦¡
Ġà¦§ à¦¨à¦¬
Ġà¦§ à¦®à¦ķ
Ġà¦ĺ à¦°à¦ķ
à§ĩà¦® à¦°
à§ĩà¦® à¦ķ
à§ĩà¦® à¦¦
à§ĩà¦® à¦§
à§ĩà¦® à¦¬à¦¨
à¦¾à¦Ł à¦²
à¦¾à¦Ł à¦¬
à¦¾à¦Ł à¦¸
à¦¾à¦Ł à¦¦
à¦¾à¦Ł à¦ª
à¦¾à¦Ł à¦Ľ
à¦¾à¦Ł à¦«à¦°à¦®
à¦¾à¦Ł à¦²à¦Ĺ
Ġà¦īà¦ª à¦Ń
Ġà¦īà¦ª à¦®à¦¨
Ġà¦īà¦ª à¦ªà¦¤
Ġà¦īà¦ª à¦ķà¦®
Ġà¦īà¦ª à¦²à¦¡
à¦¼à¦¨ à¦Ł
à¦¼à¦¨ à¦Ĺ
à¦¼à¦¨ à¦¶
à¦¼à¦¨ à¦ĵ
Ġà¦®à¦¨ à¦¸
à¦¿à¥¤ '
à¦¿à¥¤ âĢĿ
à¦¿à¦ª à¦²
à¦¿à¦ª à¦ª
à¦¿à¦ª à¦Ł
à¦¿à¦ª à¦¥
à¦¼à¦¿ -
à§ĩà¦· à¦°
à§ĩà¦· à¦¦
à§ĩà¦· à¦Ł
à§ĩà¦· à¦ªà¦°
à§ĩà¦· à¦ķà¦¦
à§įà¦ļ à¦ķ
à§įà¦ļ à¦ª
à§įà¦ļ à¦Ń
à§įà¦ļ à¦ªà¦°
à§įà¦ļ à¦Ĺà¦¤
à§įà¦ļ à¦¤à¦®
à§įà¦ļ à¦ªà¦¦
à§ĥà¦¤ à¦¤
à§ĥà¦¤ à¦ª
à¦¾à¦ĵ à¦ķ
à¦¾à¦ĵ à¦¬
à¦¾à¦ĵ à¦Ń
à¦¾à¦ĵ à¦«
ĠÂ ©
ĠÂ ¿
à§įà¦Ľ à¦²
à§įà¦Ľ à¦²à¦¤
à§ģà¦¦ à¦°
à§ģà¦¦ à¦¯
à§ģà¦¦ à¦¸
à§ģà¦¦ à¦ª
à§ģà¦¦ à¦°à¦¤
à§ĩ, "
à§ģà¦® à¦ĵ
à§ĩà¦¬ à¦°
à§ĩà¦¬ à¦ª
à§ĩà¦¬ à¦¹
à¦ĥ -
à¦ĥ à¦¨
à¦ĥ à¦ª
à¦ĥ à¦ľ
à¦ĥ à¦®à¦¨
à¦ĥ à¦ªà¦°
à¦ĥ à¦Ńà¦°
à¦ĥ gso
à¦ĥ nse
à¦ĥ à¦¤à¦«à¦¸
à¦ĥ à¦Ĩà¦ŀ
.. ]
à§ĩà¦¦ à¦°
à§ĩà¦¦ à¦Ł
à§ĩà¦¦ à¦¡
Ġà¦Ĩà¦¸ à¦ĵà¦¯
à¦ľà¦¨ à¦ª
à¦ľà¦¨ à¦Ł
Ġà¦Ĩà¦² à¦¦
Ġà¦Ĩà¦² à¦Ĺ
Ġà¦Ĩà¦² à¦Ń
à§įà¦¯à¦¬ à¦°
à§įà¦¯à¦¬ à¦ĩà¦¯
à§Ĥà¦° à¦¨
à§Ĥà¦° à¦ľ
à§Ĥà¦° à¦Ń
à¦¿à¦Ĥ âĢĿ
à¦¿à¦Ĥ âĢĻ-
à¦¿à¦Ĥ :-
à§ĭà¦Ł à¦°
à§ĭà¦Ł à¦ª
à§ĭà¦Ł à¦Ł
à§ĭà¦Ł à¦Ĺ
à§ĭà¦Ł à¦¬à¦¦
à§ĭà¦Ł à¦°à¦¬
Ġà¦ıà¦° à¦®à¦§
à§įà¦¤à¦° à¦°
à§įà¦¤à¦° à¦ª
à§įà¦¤à¦° à¦ĸ
à§įà¦¤à¦° à¦ķà¦°à¦¨
à§įà¦¤à¦° à¦«à¦²
à§įà¦¤à¦° à¦¬à¦Ļ
à¦¿à¦ļ à¦°
à¦¿à¦ļ à¦ķ
à¦¿à¦ļ à¦²
à§ģà¦¯ à¦ķ
à§Ī ,
à§Ī à¦¬
à§Ī à¦ª
à§Ī à¦Ńà¦¬
à¦ªà¦¨ à¦°
à¦¬à¦° à¦ķà¦¤
à§ĩà¦¸ à¦¨
à§ĩà¦¸ à¦²
à§ĩà¦¸ à¦Ĺ
à§ĩà¦¸ à¦¹
Ġà¦Ĩà¦Ĺ à¦®à¦¨
à¦¾à¦°à¦£ à¦¦
Ġà¦īà¦¦ à¦Ń
à§įà¦¬à¦° à¦ª
à§įà¦¬à¦° à¦Ĺ
à§įà¦¬à¦° à¦ĩ
à§įà¦¬à¦° à¦¸à¦¹
Ġà¦¸à¦° à¦¬
Ġà¦¸à¦° à¦¸
Ġà¦¸à¦° à¦£
Ġà¦¸à¦° à¦«à¦°
Ġà¦¸à¦° à¦°à¦°
Ġà¦¸à¦° à¦ľà¦®
à§ĭà¦® à¦ķ
à§ĭà¦® à¦¤
à§ĭà¦® à¦¶
à§ĭà¦® à¦²à¦¤
à§ĩà¦ľ à¦ª
à§ĩà¦ľ à¦Ł
à§ĩà¦ľ à¦ĩ
à§ĩà¦ľ à¦¶
à§ĩà¦ľ à¦®à¦¯
à§ĭà¦ķ à¦ķ
à§ĭà¦ķ à¦¤
à§ĭà¦ķ à¦®
à§ĭà¦ķ à¦Ĺ
à§ĭà¦ķ à¦ĩ
à§ĭà¦ķ à¦¬à¦²
à§ĭà¦ķ à¦¸à¦Ń
à§ĭà¦ķ à¦Ľà¦Ł
à§ģà¦· à¦°
à§ģà¦· à¦ĩ
à§ģà¦· à¦¡
à§ģà¦· à¦ĵ
à§ģà¦· à¦ľà¦¨
à§ģà¦· à¦¹à¦¤
Ġà¦¹à¦² à¦°
Ġà¦¹à¦² à¦¨
Ġà¦¹à¦² à¦¦
à§ģà¦¬ à¦¦
à§ģà¦¬ à¦ķà¦°
à§ģà¦¬ à¦¸à¦®
Ġà¦¹à¦¤ à¦¬
Ġà¦¹à¦¤ à¦¦à¦°
à¦¬à¦¨ à¦§
à§įà¦ł à¦°
à§įà¦ł à¦¤
à§įà¦ł à¦¸
à§įà¦ł à¦¤à¦®
à¦¿à¦ı à¦¡
à¦¿à¦ı à¦«à¦°
à¦¿à¦ı à¦ĩà¦¸
à¦¿à¦ı à¦ĩà¦ļà¦Ł
Ġà¦ħà¦¬ à¦²
Ġà¦ħà¦¬ à¦§
Ġà¦ħà¦¬ à¦¤à¦°à¦£
à¦¾à¦£ à¦¸
à¦¾à¦£ à¦ĵ
à¦¾à¦£ à¦ĺ
à¦¾à¦£ à¦®à¦¤
à¦ł à¦¯
à§Ģà¦ķ à¦¨
à§Ģà¦ķ à¦ķ
Ġà¦ķà¦® à¦Ľ
Ġà¦¸à¦¬ à¦²
Ġà¦¸à¦¬ à¦®
Ġà¦¸à¦¬ à¦¦
Ġà¦¸à¦¬ à¦Ĺ
Ġà¦¸à¦¬ à¦ĩ
Ġà¦¸à¦¬ à¦¶
Ġà¦¸à¦¬ à¦ĸ
Ġà¦¸à¦¬ à¦¥
à§įà¦Ń à¦®
à§įà¦Ń à¦ª
à§įà¦Ń à¦§
à§įà¦Ń à¦°à¦¤
à§ĩà¦¡ à¦¨
à§ĩà¦¡ à¦¸
à§ĩà¦¡ à¦¸à¦¹
à¦¾à¦Ľ à¦¨
à¦¾à¦Ľ à¦ķ
à¦¾à¦Ľ à¦Ĺ
à¦¾à¦Ľ à¦¡
à¦¾à¦Ľ à¦ĵ
à¦¿à¦Ľ à¦²
à¦¿à¦Ľ à¦ª
à§ģà¦Ł à¦Ľ
à§ģà¦Ł à¦ĺ
Ġà¦¸à¦¨ à¦ľ
à§Ģà¦¤ à¦²
à§Ģà¦¤ à¦®
à§Ģà¦¤ à¦¶
à§Ģà¦¤ à¦¬à¦¸
à¦¾à¦ļà¦¨ à¦ĩ
à¦¾à¦ļà¦¨ à¦ĵ
à§ĭà¦² à¦Ł
à§ĭà¦² à¦¡
à§ĭà¦² à¦°à¦ķ
à§ĭà¦² à¦¡à¦Łà¦ķà¦®
à§Ģà¦¦ à¦¦
à§Ģà¦¦ à¦ľ
à¦¾à¦« à¦¸
à¦¾à¦Ĥ à¥¤
à§ģà¦¤ à¦¨
à§ģà¦¤ à¦²
à§ģà¦¤ à¦¦
à¦¾à¦¥ à¦¨
à¦¾à¦¥ à¦ķ
Ġà¦¦à¦² à¦ĵ
Ġà¦¦à¦² à¦¸à¦¹
Ġà¦ªà¦¡ à¦ķ
à¦¿à¦ī à¦ķ
à¦¿à¦ī à¦ļ
à¦¿à¦ī à¦²à¦ķ
à¦¿à¦ī à¦¬à¦¸
à¦¿à¦ī Le
Ġà¦¢ à¦²
à§ģà¦ĩ à¦¯
à§ģà¦ĩ à¦Ļ
à§ģà¦ĩ à¦¶à¦¤
Ġà¦Ĩà¦¨ à¦¯
Ġà¦Ĩà¦¨ à¦Ľ
à¦¿à¦§ à¦°
à¦¿à¦¹ à¦¬
à¦¿à¦¹ à¦¸
à¦¿à¦¹ à¦Ł
à¦¿à¦¹ à¦°à¦ª
à§ĭà¦§ à¦ª
à§ĭà¦§ à¦¶à¦ķ
à§Ģà¦Ĺ à¦¨
à§Ģà¦Ĺ à¦ķ
à§Ģà¦Ĺ à¦£
à¦Ĥà¦¸ à¦¤
à¦Ĥà¦¸ à¦¸
à§įà¦°à¦¦ à¦²
Ġà¦¬à¦° à¦ŀ
à§įà¦¯à¦® à¦Ĺ
à§įà¦¯à¦® à¦£
à§Ĥà¦² à¦¸
à§ĭà¦¸ à¦®
à§įà¦°à¦® à¦¤
à§įà¦°à¦® à¦¬à¦°
Ġà¦ĺà¦Ł à¦²
Ġà¦ĺà¦Ł à¦¬
Ġà¦Ĩà¦ĩ à¦²
Ġà¦Ĩà¦ĩ à¦ļ
Ġà¦Ĩà¦ĩ à¦Ĩà¦°
Ġà¦Ĩà¦ĩ à¦ıà¦Ĩà¦°à¦¸
Ġ- -
à§ģà¦ĸ à¦®
Ġà¦¸à¦¹ In
à¦¿à¦¡ à¦¨
à¦¿à¦¡ à¦®
Ġà¦Ĩà¦¦ à¦¨
Ġà¦Ĩà¦¦ à¦¬
Ġà¦Ĩà¦¦ à¦®à¦¦
Ġà¦ķà¦¥ à¦¨
Ġà¦ħà¦° à¦¨
Ġà¦ħà¦° à¦¬
Ġà¦ħà¦° à¦«
à§ģà¦ª à¦¤
à§ģà¦ª à¦¯
à§ģà¦ª à¦¸
à§ģà¦ª à¦¦
à§ģà¦ª à¦ĩ
à§ģà¦ª à¦§
Ġà¦®à¦¹ à¦²
Ġà¦®à¦¹ à¦¸
à¦¾à¦ĩà¦² à¦¸
à¦¾à¦ĩà¦² à¦¦
à¦¾à¦ī à¦ĩ
à§ĭà¦¬ à¦²
à§ĭà¦¬ à¦¹
Ġà¦ıà¦² à¦¬
à§ĩà¦ª à¦¨
à§ĩà¦ª à¦ķ
à§ĩà¦ª à¦Ł
à§ĩà¦ª à¦¥
à§ĩà¦¶à¦¨ à¦¸
à§ĩà¦¶à¦¨ à¦ĵ
à§ĩà¦¶à¦¨ à¦ıà¦°
in a
in e
in ch
in ess
in ut
in tain
in als
Ġà¦¬à¦Ľà¦° à¦Ł
Ġà¦¬à¦Ľà¦° à¦Ĺ
Ġà¦¬à¦Ľà¦° à¦ĩ
Ġà¦īà¦ªà¦ľ à¦²
Ġà¦Ĩà¦ľ à¦¦
Ġà¦Ĩà¦ľ à¦ª
Ġà¦ħà¦§ à¦®
Ġà¦ħà¦§ à¦¸
à§įà¦°à¦¯ à¦¤
à§įà¦°à¦§ à¦°
à¦¾à¦¦à¦ķ à¦¸à¦¹
à§įà¦¶ à¦ĩ
à§įà¦¶ à¦£
à§įà¦¶ à¦ķà¦°
à§įà¦¶ à¦Ĺà¦¤
à¦¾à¦°à¦¤ à¦®
Ġà¦Ĺà¦¤ à¦¬à¦Ľà¦°
à¦¿à¦ĵ à¦¯
à¦¿à¦ĵ à¦¸
à¦¿à¦ĵ à¦°à¦ķ
à¦¿à¦ĵ à¦¨à¦ķ
à¦¿à¦ĵ à¦°à¦°
à¦¿à¦ĵ à¦ªà¦¸
à¦¿à¦Ĺ à¦¨
à¦¿à¦Ĺ à¦ķ
à¦¿à¦Ĺ à¦²
à¦¿à¦Ĺ à¦¡
à¦¿à¦Ĺ à¦®à¦¨
à¦¼à¦ķ à¦²
à¦¼à¦ķ à¦¸
à¦¼à¦ķ à¦Ĺ
Ġà¦ĩà¦¨ à¦Ł
Ġà¦ĩà¦¨ à¦«à¦°à¦®
à¦¼à§Ģ '
à¦¼à§Ģ -
à§ĭà¦¹ à¦²
à§ĥà¦· à¦ķà¦°
à§įà¦£ à¦¤
à§įà¦£ à¦Ĺ
à§įà¦£ à¦«
à§įà¦£ à¦¸à¦¹
Ġà¦ıà¦¨ à¦°
Ġà¦ıà¦¨ à¦ľ
Ġà¦ıà¦¨ à¦ĩà¦¡
à¦¾à¦Ļ à¦¬
Ġà¦¸à¦¦ à¦ķ
à¦¾à¦· à¦£
Ġà¦®à¦¤ à¦Ń
Ġà¦ıà¦ĸà¦¨ à¦ķ
à¦¾à¦ĩà¦Ł à¦ĵà¦¯
Ġà¦ĩà¦ī à¦ķ
Ġà¦ĩà¦ī à¦ıà¦¨
à¦¾à¦ł à¦¶
à§ĭà¦ļ à¦¬
à¦¾à¦ĩà¦¨ à¦°
à¦¾à¦ĩà¦¨ à¦Ĺ
à¦¾à¦ĩà¦¨ à¦ļ
à¦¾à¦ĩà¦¨ à¦Ĺà¦°
à¦¾à¦ĩà¦¨ à¦¸à¦¹
à¦¾à¦ĩà¦¨ à¦īà¦¦
à¦¾à¦ĩà¦¨ à¦Ĩà¦ª
Ġà¦ķà¦² à¦Ł
à§įà¦¤à¦¬ à¦¯
à§įà¦¤à¦¬ à¦ľ
à¦Ĥà¦¶ à¦ķ
à¦Ĥà¦¶ à¦¬
à¦Ĥà¦¶ à¦¯
à¦Ĥà¦¶ à¦Ł
à¦Ĥà¦¶ à¦Ĺà¦¤
à¦Ĥà¦¶ à¦§à¦°
an d
an ar
an ag
an ding
an nel
à§Įà¦¨ à¦¸
à§Įà¦¨ à¦¦
à§Įà¦¨ à¦¸à¦®
à§Įà¦¨ à¦īà¦¤
à§ĭà¦· à¦¨
à§ĭà¦· à¦ķ
à§ĭà¦· à¦Ł
à§ĭà¦· à¦ķà¦¤
à§ĭà¦· à¦ľà¦ķ
à§įà¦°à¦¶ à¦¨
Ġà¦¬à¦¨ à¦Ĺ
Ġà¦¬à¦¨ à¦¶
à§įà¦°à¦¬ à¦¤
Ġt ar
Ġt ho
Ġt ak
Ġt rib
Ġt rue
Ġt ough
Ġt rad
Ġà¦ªà¦¦ à¦¬
Ġà¦ªà¦¦ à¦¯
à§ģà¦§ à¦ĩ
à§įà¦°à¦¸ à¦¨
à§įà¦°à¦¸ à¦¹
à¦¾à¦Ĺà¦° à¦ª
à§ĭà¦¡ à¦²
à§ĭà¦¡ à¦¶
à§ĩà¦ĩà¦² à¦°
à§ĩà¦ĩà¦² à¦Ĩà¦¦
er y
er ma
er ic
er ia
er ment
er tain
er card
er vic
à¦ħ à¦²
à¦ħ à¦¦
à¦ħ à¦ľ
à¦ħ à¦¡
à¦ħ à¦¶
Ġà¦ħà¦¸ à¦¹à¦¨
à¦¾à¦ªà¦¨ à¦Ĺ
à§ģà¦¸ à¦«
à§įà¦°à¦¹ à¦¸
Ġà¦īà¦¨ à¦ķ
à§Ģà¦ª à¦ķ
à§Ģà¦ª à¦Ł
à§Ģà¦ª à¦£
à§Ģà¦ª à¦Ļ
Ġà¦Ĩà¦ķ à¦¨
Ġà¦Ĩà¦ķ à¦Ľ
Ġà¦Ĩà¦ķ à¦ļ
Ġà¦°à¦¹à¦® à¦¤à¦Ĺà¦ŀ
à¦¿à¦ĸ à¦°
à¦¿à¦ĸ à¦¨
à¦¿à¦ĸ à¦²
à¦¿à¦ĸ à¦¬
Ġà¦¬à¦¸ à¦Ľ
à¦¾à¦Ń à¦°
à¦¾à¦Ń à¦²
à¦¾à¦Ń à¦¸
à§ģà¦¡ à¦¸
Ġà¦ıà¦¤ à¦Ĺ
Ġà¦ıà¦¤ à¦¬à¦¡
es ig
es ul
es ional
es ÃŃ
à¦°à¦® à¦£
à¦¾à¦²à¦ķ à¦Ł
à¦¾à¦²à¦ķ à¦ĵ
à¦Ĥà¦¬ à¦²
à¦¿à¦ıà¦¨ à¦ľ
à¦¿à¦ıà¦¨ à¦Ń
à¦¿à¦ıà¦¨ à¦ıà¦¸
à¦¿à¦ıà¦¨ à¦ıà¦¨
à¦¿à¦ıà¦¨ CoxsbazarNEWS
à§ĩà¦Ĺ à¦Ļ
à§ĩà¦Ĺ à¦ľà¦¨à¦ķ
à§ĩà¦¹ à¦ķ
à§ĩà¦¹ à¦Ń
à§ĩà¦¹ à¦¤à¦¤
à§įà¦·à¦£ à¦ķ
à§įà¦·à¦£ à¦¬
à§įà¦·à¦£ à¦Ĺ
à§įà¦·à¦£ à¦ķà¦°
Ġà¦¸à¦¨à¦¦ à¦ª
Ġà¦¸à¦¨à¦¦ à¦§
Ġà¥¤ âĢĿ
co unt
à§Ģà¦¬ à¦¶
à¦®à¦¤ à¦²
à§Ģà¦² à¦®
à§Ģà¦² à¦¸à¦¹
à¦¾à¦ĩà¦ķ à¦ª
à¦¿à¦« à¦ķ
à¦¿à¦« à¦²à¦¨
Ġà¦Ĩà¦ĩà¦¨ à¦¤
Ġà¦Ĩà¦¹ à¦¯
Ġà¦Ĩà¦¹ Å¸
à¦¿à¦¹à¦¤ à¦°
à¦¾à¦°à¦ķ à¦ķ
à¦¾à¦°à¦ķ à¦²
à§įà¦¯à¦¤ à¦¬
à§Ģà¦® à¦ķ
à§Ģà¦® à¦°à¦¤
Ġà¦«à¦² à¦¬à¦¤
à§ĭà¦ª à¦ľ
à§ĭà¦ª à¦¡
à§ĭà¦ª à¦£
à§ĭà¦ª à¦¥
à§ĭà¦ª à¦ķà¦¥
à§Ĥà¦¤ à¦°
à¦ıà¦° à¦¶
à¦¾à¦°à¦¬ à¦£
en es
en Po
en ger
à§ģà¦ľ à¦¬
à§ģà¦ľ à¦°à¦Ļ
à¦Ĥà¦Ĺ à¦¬à¦¨
âĢĮ à¦¹
Ġà¦²à¦ķ à¦¡
Ġà¦²à¦ķ à¦²à¦ķ
à§ĥà¦¦ à¦°
à§ĥà¦¦ à¦¸
Ġà¦Ĩà¦¯ à¦¹
Ġà¦ħà¦ª à¦¯
Ġà¦ħà¦ª à¦ª
Ġà¦ħà¦ª à¦Ł
Ġà¦ħà¦ª à¦¸à¦¨
Ġà¦ħà¦ª à¦Ľà¦¨
à§įà¦ĺ à¦¸
à§įà¦ĺ à¦¸à¦®à¦¯
Ġà¦ıà¦® à¦¬
Ġà¦ıà¦® à¦Ĩà¦ĩ
à¦ıà¦¸ à¦¬
à¦ıà¦¸ à¦Ĩà¦ĩ
à§įà¦°à¦£ à¦°
à§įà¦°à¦£ à¦¯
à§įà¦°à¦£ à¦ªà¦¤
à§įà¦¦à¦° à¦ª
à§įà¦¦à¦° à¦¸à¦ľ
do ws
do res
do rid
à§įà¦°à¦ļ à¦¨
at er
at ad
at ing
at ch
at ure
at ribune
ĠS D
ĠS ou
ĠS ha
ĠS AT
ĠS um
ĠS attar
ĠS ig
ĠS hipping
ĠS hopping
ĠS creen
ĠS MAR
ĠS UBS
ĠS YST
ĠS cal
ĠS hork
ĠS oma
ĠS pel
à¦¼à¦¸ à¦ľà¦¨
Ġà¦¬à¦ķ à¦¸à¦¹
Ġà¦¬à¦ķ à¦²à¦®
à§ĭà¦Ń à¦°
à§ĭà¦Ń à¦Ł
à§ĭà¦Ń à¦ĵ
à§ĭà¦Ń à¦°à¦¤
à§ĭà¦¬à¦° à¦ķ
à§ĥà¦¹ à¦¯
à§ĥà¦¹ à¦ªà¦°
Ġà¦¹à¦ķ à¦ķ
Ġà¦¹à¦ķ à¦¦
à§ĩà¦ī à¦¨
à§ĩà¦ī à¦¬
à§ĩà¦ī à¦¡
à§Ģà¥¤ âĢĻ
à¦¾à¦®à¦¨ à¦ļà¦¨
âĢ¦ .
âĢ¦ à¦¤
âĢ¦ âĢĻ
âĢ¦ à¦²à¦Ĺ
à¦Ĩà¦® à¦²
à¦Ĩà¦® à¦²à¦ķ
à¦Ĩà¦® à¦¦à¦ĩ
re ad
il it
il ding
il dren
il and
à§ģà¦Ĺ à¦¤
à§ģà¦Ĺ à¦£
à§ģà¦Ĺ à¦¤à¦¦
à§ģà¦Ĺ à¦ªà§İ
à§ģà¦£ à¦ķ
à§ģà¦£ à¦¬
à§ģà¦£ à¦¦
à§ģà¦¶ à¦¤
à§ģà¦¶ à¦®à¦¨
à¦¾à¦ľà¦¨ à¦ªà¦Ł
ma s
ma oun
Ġs a
Ġs he
Ġs of
Ġs em
Ġs el
Ġs um
Ġs af
Ġs hal
Ġs te
Ġs creen
Ġs hoppingdirect
Ġs pir
Ġs tate
Ġs ymbian
Ġs ervic
à¦¼à¦¦ à¦ª
Ġà¦ķà¦¨ à¦¡
Ġà¦ķà¦¨ à¦ķà¦¨
à¦°à¦¤ à¦²
à§ģà¦¹ à¦°
à§ģà¦¹ à¦ķ
à§ģà¦¹ à¦ĵ
à¦¿à¦ĥ à¥¤
à¦¾à¦¨à¦¬ à¦²
Ġà¦īà¦ł à¦Ľ
à¦¼à¦® à¦ķ
Ġà¦ªà¦¥ à¦¨
Ġà¦ªà¦¥ à¦ĩ
Ġà¦ıà¦ª à¦¸
Ġà¦ħà¦ªà¦° à¦¦
Ġà¦ħà¦ªà¦° à¦ľà¦¨
à¦ĩà¦¨ à¦ķ
Ġà¦¶à¦¤ à¦ķ
Ġà¦¶à¦¤ à¦Ń
Ġà¦¶à¦¤ à¦¬à¦°
Ġà¦¶à¦¤ à¦¶à¦¤
Ġà¦¶à¦¹ à¦°à¦ķ
Ġà¦¶à¦¹ à¦°à¦¤à¦²
Ġà¦ĩà¦® à¦®
Ġà¦ĩà¦® à¦ª
à§Īà¦¤ à¦°à¦£
à¦¿à¦īà¦ľ à¦ķ
à¦¿à¦īà¦ľ à¦¬
à§įà¦°à¦¹à¦£ à¦°à¦¤
.g l
.g al
.g le
.g so
ĠP O
ĠP la
ĠP ur
ĠP UR
ĠP ol
ĠP ack
ĠP age
ĠP AN
ĠP ink
ĠP akistan
ĠP erma
Ġà¦Ĩà¦ª à¦£
Ġà¦Ĺà¦£ à¦¸
Ġà¦Ĺà¦£ à¦ª
Ġà¦Ĺà¦£ à¦ªà¦°
Ġà¦Ĺà¦£ à¦¹à¦¤
Ġà¦Ĺà¦£ à¦ķà¦¬à¦°
à§įà¦ªà¦¨ à¦Ĺà¦°
à¦¿à§İà¦¸ à¦ķà¦°
à¦¾à¦ĩà¦° à¦¯
Ġà¦ıà¦ķà¦ĩ à¦¸à¦Ļ
Ġà¦ĺà¦° à¦¦
Ġà¦ĺà¦° à¦Ł
Ġà¦Ŀ à¦°à¦Ŀ
Ġà¦Ŀ à¦²à¦¸
Ġà¦¸à¦« à¦°à¦¸
ĠA in
ĠA de
ĠA pp
ĠA ust
ĠA ff
ĠA ll
ĠA CC
ĠA PP
ĠA bori
ĠA sia
ĠA the
ĠA ugust
ĠC an
ĠC ur
ĠC ap
ĠC ho
ĠC oo
ĠC our
ĠC OR
ĠC OM
ĠC ab
ĠC omi
ĠC lic
ĠC ss
ĠC up
ĠC ity
ĠC uidado
ĠC ollected
ĠC oxsbazarNEWS
ĠC Cleaner
à¦¾à¦Ŀ à¦°
à¦¾à¦Ŀ à¦ķ
à¦¾à¦Ŀ à¦ªà¦¥
à¦¿à¦ĩ à¦ĵ
à¦¿à¦ĩ à¦īà¦ľ
ed ia
ed nes
à¦¾à¦¨à¦¤ à¦¦
Ġà¦¨à¦¬ à¦¬
Ġà¦¨à¦¬ à¦¬à¦°
Ġà¦¨à¦¬ à¦¬à¦§
à§įà¦ľà¦¨ à¦ķ
Ġà¦īà¦ªà¦¸ à¦°
à§įà¦ļà¦² à¦Ĺ
à§įà¦ļà¦² à¦Ń
ar a
ar y
ar er
ar it
ar ter
ar ack
ar go
ar ned
ar endra
ar fur
it or
it ut
Ġa ct
Ġa ds
Ġa po
Ġa ll
Ġa yn
Ġa gain
Ġa maoun
Ġc ur
Ġc ut
Ġc uidado
Ġc tgpo
Ġc ertain
à¦¾à¦°à¦¨ à¦¤
Ġà¦Ńà¦¬à¦¨ à¦Ĺ
à§ĭà¦§à¦¨ à¦ķ
or n
or ash
or ld
Ġà¦Ī à¦°
Ġà¦Ī à¦ķ
à§įà¦°à¦¨ à¦²
à¦¾à¦ķà¦° à¦ĩà¦ķ
à¦¾à¦¸à¦¨ à¦ķ
Ġà¦ĩà¦¸ à¦¤
-à¦¸ à¦ļ
à§ĩà¦ģ à¦ģ
Ġà¦¦à¦° à¦¬
Ġà¦¦à¦° à¦¸
Ġà¦¦à¦° à¦Ĺ
à¦¾à¦¬à¦° à¦ĩ
à¦¾à¦¬à¦° à¦¸à¦¹
à¦ļà¦Ł à¦Ł
à§ĭà¦¨à¦ĵ à¦Ł
à§ĭà¦¨à¦ĵ à¦Ń
Ġà¦Ĩà¦¸à¦¨ à¦Ł
Ġà¦Ĩà¦¸à¦¨ à¦Ĺ
Ġà¦Ĩà¦¸à¦¨ à¦¸à¦¹
Ġb ang
Ġb ut
Ġb angla
Ġb ol
Ġb oo
Ġb uy
Ġb elle
Ġb ody
Ġb rune
Ġb arack
à§įà¦¤à¦¨ à¦ĵ
à§įà¦¤à¦¨ à¦ľà¦¨
âĢĿ -
al ing
al ersangbad
Ġp c
Ġp un
Ġp ro
Ġp ur
Ġp ha
Ġp ers
Ġp rou
Ġp ds
Ġp res
Ġp unt
Ġp ub
Ġp akistan
Ġp ast
Ġp eo
Ġp hon
Ġp lus
Ġp pdas
Ġp rof
Ġp ued
Ġp atad
Ġp ara
Ġp orn
à§ģà¦Ŀ à¦²
à§ģà¦Ŀ à¦¬
à¦¾à¦¨à¦ķ à¦¡
à¦Ĺà¦£ à¦®
à¦Ĺà¦£ à¦ª
à¦Ĺà¦£ à¦¤à¦¨
à§Ĥà¦ª à¦¸
à§Ĥà¦ª à¦Ł
à§Ĥà¦ª à¦®à¦¨
à¦Ĩà¦ĩ à¦Ĩà¦°
à¦ıà¦® à¦¸
à¦ıà¦® à¦ıà¦®
à¦ıà¦® à¦ıà¦¨
Ġà¦¶à¦¹à¦° à¦Ĺ
ad ing
à¦¾à¦°à¦Ł à¦ª
à¦¼à¦¾, âĢĺ
Ġà¦ľà¦¬ à¦Ł
à§Ĥà¦® à¦ª
à¦¿à¦·à¦¦ à¦¸
à¦¿à¦·à¦¦ à¦ĵ
Ġà¦Ĩà¦²à¦® à¦¡
à§įà¦¶à¦¨ à¦ª
Ġn o
Ġn um
Ġn ew
Ġn ude
Ġn ational
Ġn eed
Ġn arendra
à¦¾à§İ à¦ķà¦°
à¦¾à§İ à¦ªà¦°
à§ģà¦Ń à¦°
à§ģà¦Ń à¦®
à§ģà¦Ń à¦¦
à§ģà¦Ń à¦²à¦ķ
Ġà¦ķà¦ĸà¦¨ à¦ĩ
Ġà¦¤à¦ĸà¦¨ à¦ĵ
à§įà¦·à¦ķ à¦ķ
à§įà¦·à¦ķ à¦Ĺà¦£
Ġà¦īà¦ĩ à¦®
Ġà¦īà¦ĩ à¦¦
Ġà¦īà¦ĩ à¦ľ
ing bd
ing ing
ing ton
of fer
se e
se aling
Ġh ic
Ġh as
Ġh ol
Ġh app
Ġh uman
à§ĩà¦°à¦ķ à¦®à¦ĩ
ĠÂł ĠÂł
le te
le gar
st ed
st news
st ercard
st itut
à§ĩà¦Ń à¦¡
à§ģâĢĻ -
à§ĭà¦ĸ à¦Ł
à¥¤âĢĻ âĢĻ
Ġà¦®à¦° à¦¦
à§įà¦¬à¦¨ à¦¬
à¦¾à¦ĩà¦Ń à¦·
Ġà¦«à¦° à¦ľ
@g so
ra q
ra y
Ġm is
Ġm id
Ġm ore
Ġm ight
Ġm mdctg
Ġm inut
Ġm anag
Ġm ature
à§ĩ? (
à§ĩ? âĢĻ
à§ĭà¦¶ à¦¤
à§ĭà¦¶ à¦¬
à§ĭà¦¦à¦¨ à¦ķà¦°à¦¨
à¦Ĩà¦° à¦ĵ
à¦¿à¦ıà¦® à¦¸
à¦¿à¦ıà¦® à¦ª
à¦¿à¦ıà¦® à¦ıà¦²
à¦¿à¦īà¦Ł à¦¸à¦®
ĠM is
ĠM EM
ĠM OT
ĠM ano
ĠM atch
ĠM arit
à¦¿) ;
à¦¿) =
à§ĭà¦¦ à¦°
à§ĭà¦¦ à¦®
à§įà¦¯à¦¦ à¦¬à¦¸
Ġà¦ıà¦¡ à¦¸
à§įà¦®à¦ķ à¦Ń
à§Ĥà¦¹ à¦ķ
à§Ĥà¦¹ à¦¤
à¦ıà¦ķ à¦¤
à¦ıà¦ķ à¦ľà¦¨
à¦ıà¦ķ à¦¸à¦®à¦¯
Ġthe y
Ġthe app
de ga
à¦ķà¦² à¦®
à§įà¦¬à¦² à¦¤
âĢĺ à¦¨
âĢĺ à¦¬
âĢĺ à¦¯
âĢĺ à¦¸
âĢĺ à¦ĸ
âĢĺ à¦¬à¦¨
âĢĺ à¦ħà¦ªà¦°
âĢĺ à¦ıà¦Ń
âĢĺ à¦®à¦¤à¦ª
âĢĺ à¦¹à¦ľ
âĢĺ à¦Ĩà¦ļ
âĢĺ à¦Ĺà¦£à¦¤à¦¨
à¦¾à¦¹à¦² à¦Ń
à¦ıà¦ĩ à¦ĸ
un a
un dega
Ġin tern
Ġin ternet
Ġin box
Ġin ver
Ġà¦¯à¦ĸà¦¨ à¦ĩ
Ġà¦ĸà¦¨ à¦¨
à§ĩà¦Ĺà¦® à¦Ĺà¦ŀ
Ġf as
Ġf ind
Ġf uck
Ġf acebook
Ġf ood
Ġf Ãºtbol
Ġan al
Ġan ch
Ġan otar
à¦¾: )
Ġà¦¹à¦¨ à¦¨
Ġà¦¹à¦¨ à¦²
à¦ĩà¦² à¦ĵ
à¦¾à¦ĩà¦ľ à¦ľ
à¦¾à¦ĩà¦ľ à¦¡
à¦¾à¦ĩà¦¡ à¦¦
à§įà¦·à¦¤ à¦Ń
à¦¿à¦ıà¦¸ à¦¬
à¦¿à¦ıà¦¸ à¦¸
à¦¿à¦ıà¦¸ à¦ĩà¦¸
à¦¿à¦ıà¦¸ à¦Ĩà¦ĩà¦Ĩà¦°
à¦¿à¦ıà¦¸ à¦ıà¦®à¦ıà¦®
à§įà¦Ńà¦¬ à¦ªà¦°
à§įà¦°à¦®à¦£ à¦ķ
à§įà¦°à¦®à¦£ à¦Ń
Ġà¦¸à¦¹à¦ľ à¦¬
Ġà¦¸à¦¹à¦ľ à¦Ń
Ġà¦¸à¦¹à¦ľ à¦¤à¦°
Ġà¦¸à¦¹à¦ľ à¦²à¦Ń
ang el
ag ue
ag ged
la ide
lo ck
lo gy
ĠD ic
ĠD el
ĠD ead
ĠD ow
ĠD ET
ĠD esig
ĠD arfur
à¦¿à¦ķà¦¦ à¦£
à¦¾à¦¤à¦ķ à¦¡
à¦¾à¦Ĺà¦ľ à¦Ĺ
Ġà¦¨à¦ľà¦° à¦¦
-à¦ª à¦ŀ
ic y
im ited
im ists
Ġ? âĢĻ
ĠB as
ĠB ut
ĠB AT
ĠB os
ĠB itco
ĠB elle
ĠB angladesh
ĠB engali
ĠB aha
ĠB each
ĠB lock
ĠE ns
ĠE gy
ĠE mer
ĠE xem
à¦¿: -
à¦¿: :
Ġà¦ľà¦¨à¦Ĺà¦£ à¦ĵ
Ġà¦ľà¦¨à¦Ĺà¦£ à¦¨à¦°
à§ĩà¦¤à¦¨ à¦¤
à§ģà¦¬à¦ķ à¦ķ
à§ģà¦¬à¦ķ à¦¦
am pions
am una
vi des
vi sion
ĠI sra
ĠI LT
ĠI MO
ĠI ran
ĠI raq
Ġâ Ħĥ,
Ġâ Ĵ»
à§ĩà¦§ à¦ķ
à§ģà¦« à¦°
à§ģà¦« à¦¤
à§ģà¦ľà¦¨ à¦ķ
à§ģà¦ľà¦¨ à¦ĩ
Ġà¦¸à¦ļ à¦²
Ġà¦Ĩà¦« à¦ľ
à§ĭà¦ķà¦ľà¦¨ à¦ķ
à§ĭà¦ķà¦ľà¦¨ à¦ĩ
ĠT o
ĠT ur
ĠT ut
ĠT ha
ĠT ime
ĠT ER
ĠT ig
ĠT rop
ĠT ribune
ĠT ele
ĠT hur
Ġà¦· à¦£
à¦¾à¦°à¦Ń à¦¬
à¦¿à¦²à¦¨ à¦ķ
à¦¿à¦²à¦¨ à¦¸
à§įà¦§à¦¨ à¦Ĺà¦Ļ
Ġà¦ľà¦¨à¦ķ à¦¨
Ġà¦ľà¦¨à¦ķ à¦£
em s
em ent
th ro
th ough
à¦¼à¦¬ à¦¦
à¦¼à¦¬ à¦¹
à¦¼à¦¬ à¦¡
à§įà¦¯à¦° à¦°
Ġà¦Ĩà¦ī à¦¨
Ġà¦Ĩà¦ī à¦¯
Ġà¦Ĩà¦ī à¦¡
Ġà¦ħà¦® à¦°à¦¤
à¦¾à¦¦à¦¨ à¦ķ
à¦¾à¦ªà¦° à¦ļ
à§įà¦ªà¦¦ à¦ķ
à§įà¦ªà¦¦ à¦¸à¦¹
à¦¿à¦¬à¦¸ à¦ĵ
à§įà¦¨à¦¤ à¦¤à¦°
Ġà¦ĺà¦¨ à¦®
ent o
ent s
à¦Ĥà¦Ĺà¦łà¦¨ à¦ķ
à¦Ĥà¦Ĺà¦łà¦¨ à¦¸à¦¹
ch ain
ch ham
ch nya
ch angel
à¦¾à¦ĺ à¦¬
à¦¾à¦ĺ à¦°à¦ĵ
Ġà¦¬à¦ĩ à¦¤
Ġà¦¬à¦ĩ à¦Ľ
à¦¾à¦®à¦Ĺ à¦¦
à¦ĩà¦ı à¦«
à¦¾à¦¶à¦° à¦¥
à§Įà¦¶à¦² à¦ĵ
-à¦ķ à¦¯
-à¦ķ à¦·
ap cha
as an
as on
as ed
as hm
as sw
el pful
ĠW AT
ĠW eb
ĠW ith
ĠW ebsit
ĠW eight
ĠW hat
ĠW ater
ĠW ednes
ĠW orld
Ġvi sa
Ġvi ento
à§ĩà¦Ĩ à¦ľ
Ġà¦®à¦ľ à¦¬
à§įà¦¤à¦ķ à¦¨
à§įà¦¤à¦ķ à¦¤
Ġà¦¤à¦¤ à¦¦
Ġà¦¤à¦¤ à¦Ł
à§Įà¦° à¦Ń
à§Įà¦° à¦¶à¦ķ
à§Įà¦° à¦¶à¦¹à¦°
à¦ıà¦¨ à¦ª
à¦ıà¦¨ à¦ĵà¦¸
à¦ıà¦¨ à¦ıà¦Ń
ps ide
tt es
ĠF L
ĠF ahm
ĠF AC
ĠF ac
ĠF ix
ĠF argo
ĠH D
ĠH om
ĠH ind
ĠH tml
ĠH ub
ĠH ere
ĠH asan
ĠH elpful
à§Ģà¦ľ à¦Ł
à§Ģà¦ľ à¦Ĺà¦£
Ġà¦¯à¦¤ à¦ķ
Ġà¦¯à¦¤ à¦Ł
Ġà¦Ĺà¦łà¦¨ à¦®
Ġà¦Ĺà¦łà¦¨ à¦Ĺà¦¤
Ġà¦ļà¦ķ à¦¬à¦°à¦ķà¦¤
âĢĶ à¦¬
âĢĶ à¦¸
âĢĶ à¦Ĩà¦®
âĢĶ à¦Ĺà¦¨
à¦¾à¦Ĺà¦¤ à¦Ń
Ġà¦ıà¦ĩà¦ļ à¦¡
Ġà¦ıà¦ĩà¦ļ à¦ıà¦«à¦¸
à¦¿à§İà¦¸à¦ķ à¦¦
is al
is ha
is cre
is ingbd
Âł à¦¸
Âł Âł
Âł à¦Ĩà¦ľ
Âł à¦Ĩà¦¦
ĠL OC
ĠL ike
ĠL yn
ĠL ink
ĠL ev
ĠL ock
ĠL td
ĠL undega
ĠL imited
à§ĩâĢĻ ,
Ġà¦¸à¦ľ à¦²
à¦ªà¦¦ à¦¤
à§ĩà¦ĩà¦¨ à¦¸
Ġà¦¡à¦ķ à¦ĩà¦¯
à§ĭà¦¹à¦° à¦¯
à¦¾à¦łà¦ķ à¦ķ
à¦ħà¦¨ à¦²
id ing
ĠN ig
ĠN OKI
ĠR ead
ĠR AN
ĠR ESI
ĠR iport
ĠR esul
Ġw as
Ġw ho
Ġw ant
Ġw ash
Ġw hic
Ġw arned
à¦¿à¦ł à¦¤
à§ģà¦ļ à¦®
à§Ģà¦Ń à§İà¦¸
Ġà¦ıà¦ķà¦¦ à¦²
à¦¾à¦¹à¦ķ à¦ķ
à¦¾à¦¹à¦ķ à¦¦
à§ĩà¦Łà¦° à¦¦
à¦¾à¦Łà¦ķ à¦ĵ
à¦¾à¦īà¦ľ à¦«
Ġà¦¸à¦«à¦° à¦°à¦¤
Ġà¦¸à¦«à¦² à¦Ń
ON IC
ON LINE
ut pr
ut orash
Ġ! !
Ġ" (
à¦Ī à¦Ĭà¦ī
Ġà¦Ĩà¦ļ à¦®à¦ķ
Ġà¦ıà¦ľ à¦²
Ġà¦¹à¦ľ à¦¯
Ġà¦¹à¦ľ à¦°à¦¤
à§Ĥà¦¨ à¦Ń
à§Ĥà¦¨ à¦¤à¦®
Ġà¦§à¦¨ à¦ķ
Ġà¦§à¦¨ à¦¤
Ġà¦§à¦¨ à¦ŀ
Ġà¦§à¦¨ à¦ľà¦ĩà¦²
à§Īà¦¶ à¦¬
à¦¿à¦īà¦¡ à¦ķ
à¦¿à¦Ĩà¦° à¦ıà¦²
à¦¿à¦Ĩà¦° à¦ĩà¦ī
Ġà¦ĭà¦£ à¦®
Ġà¦ĭà¦£ à¦¦
Ġà¦ĭà¦£ à¦ĸ
Ġe mail
Ġe Po
Ġe bon
Ġe tc
à¦¿à¦Ŀ à¦°
à¦¿à¦Ŀ à¦¡
à¦¾à¦°à¦Ĺ à¦Ł
Ġà¦ľà¦² à¦¨
à¦¾à¦¬à¦¤ à¦ķ
à¦¾à¦¬à¦¤ à¦ĩ
âĢľ à¦¨
âĢľ à¦¦
âĢľ à¦£
âĢľ à¦ļ
âĢľ à¦Ĩà¦®
âĢľ à¦ĩà¦¸à¦²
âĢľ à¦ıà¦Ł
à¦ļà¦² à¦¤
à¦ļà¦² à¦Ľ
à¦¾à¦¹à¦¬ à¦¹
à¦¾à¦¹à¦¸ à¦Ł
à¦¿à¦¬à¦°à¦£ à¦Ł
à§ĩà¦ĸà¦ķ à¦Ĺà¦£
à¦Ĩà¦ľ à¦²
à¦Ĩà¦ľ à¦ĵ
à¦īà¦ª à¦¶
à¦īà¦ª à¦ķà¦°à¦£
à¦¾à¦īà¦¦ à¦ķ
Ġà¦¬à¦¸à¦¤ à¦ĺà¦°
enc e
enc iÃ
à¦Ĥà¦ķà¦Ł à¦ľà¦¨
-à¦¨ à¦¤
iv ers
ns ists
ol po
oo gle
ĠJ ews
ĠJ ack
ĠJ av
ĠJ une
ĠJ ohnson
ĠJ amuna
ĠJ utorash
Ġg um
Ġg ame
Ġg uy
Ġg anar
Ġg agged
Ġg olpo
Ġg oogle
Ġco up
Ġco py
Ġco nsists
à§Ģà¦ļ à¦ŀ
à§įà¦®à¦¤ à¦Ń
à¦¾à¦¹à¦¨ à¦ķ
Ġà¦Łà¦® à¦Łà¦®
à¦Ĩà¦² à¦¤
à§įà¦ķà¦° à¦¬
Ġà¦Ĩà¦ľà¦® à¦²à¦ķ
ers ham
à¦ħà¦¬ à¦¤
à¦ħà¦¬ à¦¹
ĠSe in
âĢ¦âĢ¦ ..
our won
ĠAn na
ĠAn dro
ĠAn dorid
ĠAn imists
ĠAn thro
-à¦¶ à¦°
-à¦¶ à¦¤
-à¦¶ à¦¸
OR Y
OR OL
ment ation
Ġ[ [
Ġ[ ..]
Ġy outu
Ġy oun
Ġy ourwon
à¦¾? ...
à§ĩà¦ĺ à¦¹
à§ĩà¦ĺ à¦ĸà¦£
à§ģà§İ à¦ļ
à§ģà§İ à¦«
à§ģà§İ à¦«à¦°
à¦ķà¦¨ à¦¸
à¦ķà¦¨ à¦ľ
à¦²à¦¨ à¦Ĺà¦°
Ġà¦Ĩà¦Ł à¦²
à¦¾à¦¨à¦ľ à¦Ł
à¦ªà¦¡ à¦ķ
à¦¿à¦°à¦¬ à¦ļ
Ġà¦ıà¦ķà¦¸ à¦ª
à¦¾à¦ªà¦Ł à¦ª
à§ĭà¦¨à¦® à¦ķ
à¦ıà¦² à¦ľ
à¦ıà¦² à¦ıà¦¨à¦ľ
à¦ĺà¦° à¦Ĺ
Ġth is
Ġth ir
Ġth ought
ovem ents
Ġcan be
Ġcan see
deo s
ĠIn tro
ĠIn dia
ĠIn stagram
ĠIn formation
ĠIn tend
ĠIn stitut
Ġà¦Ĩà¦ļà¦°à¦£ à¦Ĺà¦¤
&F à¦¨
-à¦¯ à¦®
AT AL
be enPo
tion ary
Ġd ds
Ġd sw
Ġd iscre
Ġde fi
ĠYou can
à¦¾... -
à¦¾à¦Ī à¦°
à¦¾à¦Ī à¦®
à¦¾à¦Ī à¦ľ
Ġà¦ķà¦¬à¦° à¦¸
Ġà¦¬à¦ľ à¦°
Ġà¦¬à¦¹à¦¨ à¦¸à¦¹
à§ĭà¦ĵ à¦ľ
à§ĢâĢĻ Â»
Ġà¦®à¦¦ à¦¦
Ġà¦¹à¦° à¦¹
Ġà¦ĵà¦ķ à¦¸à¦ķ
à¦¾à¦¬à¦¸ à¦¯
à§Ĥà¦¦ à¦ĸ
à§Įà¦¥ à¦¬
à¦¿à¥¤âĢĻ âĢĻ
à¦¿à¦ıà¦« à¦ª
à¦¿à¦ıà¦« à¦ıà¦¸
à¦¿à¦ıà¦« à¦ĩà¦īà¦ľ
à§ĭà¦¹à¦¨ à¦ķ
à§ĭà¦¹à¦¨ à¦Ĺà¦ŀ
à¦ħà¦ªà¦° à¦¦
ĠPH P
ĠPH OT
ĠPre paid
Ġfre eb
Ġà¦īà§İà¦¸à¦¬ à¦ķ
-à¦° à¦¶
-à¦Ĺ à¦¦
fi e
fi qu
gin als
gin eer
ir ing
ir se
jo g
jo y
rou ps
us a
ĠO ption
ĠO ffer
ĠO rder
ĠU SS
ĠU na
ĠU rdu
ĠU SB
ĠU pside
Ġk ill
Ġk ey
Ġk otha
Ġk alersangbad
Ġl t
Ġl uck
Ġl anguage
Ġl uego
Ġl anding
Ġl legar
Ġma de
Ġma ke
Ġma rket
Ġma intain
Ġun der
Ġun idad
Ġun sealing
Ġun ivers
Ġun irse
à¦¼à¦Ĥ à¥¤
à§ģà¦¥ à¦Ĺ
à¦²à¦Ĺ à¦Ł
à¦²à¦Ĺ à¦ĵ
à§įà¦°à¦ĩ à¦¡
Ġà¦Ĩà¦ĸ à¦¡
à¦ĩà¦Ł à¦ĵà¦¯
à¦¾à¦ľà¦ķ à¦ķ
à¦¾à¦ľà¦ķ à¦¸à¦¹
Ġà¦ĩà¦Ń à¦²
Ġà¦ľà¦¨à¦¸ à¦ļ
à§įà¦ļà¦® à¦¬
à§Īà¦§ à¦¤
à§ģà¦ĸà¦¬à¦° à¦Ł
Ġsu bm
Ġsu beenPo
ĠPr ess
Ġbe en
Ġinf ormation
Ġinf ring
Ġany SI
à¦¿à¦Ĩà¦ĩ à¦°
à¦¾.) âĢĻ
-à¦Ĩ à¦ķ
-à¦Ĩ à¦¯
-à¦Ĩ à¦¦à¦®à¦ľ
SI D
dd hists
hi kar
ri ate
ĠX R
ĠX S
Ġcom o
Ġcom ment
Ġcom puter
Ġcom bos
Ġla w
Ġla st
Ġim o
Ġim pr
Ġim ple
Ġim portant
Ġim mem
à¦¾à¦°à¦° à¦«
à§ĭà¦ľà¦¨ à¦ĩ
Ġà¦ıà¦ıà¦¸ à¦Ĩà¦ĩ
Ġà¦¦à¦® à¦ķà¦²
à¦ĩà¦ī à¦¨
à¦¿à¦²à¦° à¦¦
à§ĩà¦²à¦ª à¦®
Ġà¦ıà¦ķà¦ķ à¦¥
Ġà¦ĩà¦Ł à¦Ń
à§Ĥà¦ĸ à¦£
à§įà¦ķà¦Ł à¦²
à§įà¦ķà¦Ł à¦ª
à¦¿à¦ıà¦ĩà¦ļ à¦ı
Ġà¦Ĩà¦ķà¦¬à¦° à¦ķ
ĠCh at
ĠCh ildren
ĠCh ampions
à§ģà¦«à¦² à¦ĩ
à§ģà¦«à¦² à¦Ń
à§Įà¦²à¦¤ à¦¦
-f inals
-à¦Ł à¦¯
-à¦Ł à¦ĩ
.f b
.f our
AC SI
IC E
NE T
az e
az ine
bad hikar
ly wood
po logy
por ter
qu iring
ya dores
ĠG PR
ĠG MDSS
ĠG ROU
ĠG uide
ĠK ick
ĠK ashm
ĠV ol
ĠV GM
Ġo bama
Ġo pen
Ġen joy
à¦¿à§İ à¦·à¦¤
Ġà¦¸à¦² à¦¤
Ġà¦¸à¦ĵ à¦¦
Ġà¦¬à¦Ł à¦¤à¦²
Ġà¦¬à¦¶ à¦¬à¦°
Ġà¦¬à¦ī à¦®
Ġà¦ªà¦Ł à¦Ń
à¦¿à¦°à¦² à¦¸
à¦¿à¦°à¦¸à¦¨ à¦ķà¦²
à§ģà¦²à¦ķ à¦ª
à§įà¦®à¦°à¦£ à¦¸à¦Ń
Ġà¦ĸà¦¸ à¦¡
à¦¾à¦Ĺà¦¸ à¦ĩ
à§Ģà¦°à¦¬ à¦¤
à¦¼à¦¨à¦ķ à¦ķ
à§įà¦ļà¦¨ à¦ª
Ġà¦ķà¦®à¦² à¦Ĺà¦ŀ
Ġà¦Ĩà¦ĩà¦Ń à¦°
Ġà¦Ĩà¦ĩà¦ıà¦¸ à¦¬
Ġà¦Ĩà¦ĩà¦ıà¦¸ à¦ª
Ġà¦Ĩà¦ĩà¦ıà¦¸ à¦Ĩà¦ĩ
à¦Ĥà¦Ĺà¦ł à¦ķà¦°
ĠSI D
ĠSaf e
ĠPro duct
ĠPro kash
à¦¿à¦ĩà¦ī à¦¤
Ġab le
Ġam eric
Ġcap tion
Ġcap tha
ori zed
Ġbun ch
à¦ıà¦ķà¦ĩ à¦¦
à¦ıà¦ĩà¦ļ à¦¡
à¦ıà¦ĩà¦ļ à¦ıà¦®
à¦ıà¦ĩà¦ļ à¦ıà¦¸à¦¸
ĠDe fin
ĠDe part
ĠDe velo
ĠDe lete
ĠWin dows
à§ĩà¦ıà¦¸ à¦ıà¦¸
à§ĩà¦ıà¦¸ à¦ıà¦«
ĠSelect ions
-à¦ĵ à¦²
-à¦ĵ à¦®à¦°
-à¦ī à¦ªà¦¨
-à¦ī à¦¤à¦°
-à¦ī à¦§à¦°
EC TOR
ac y
ac ity
if U
if y
if ur
sw inging
tw are
tain s
Ġj erk
Ġj Qu
Ġj uego
Ġv s
Ġv alo
Ġat enciÃ
Ġre jin
Ġre ading
Ġre ason
Ġlo st
Ġà¦Ĭ à¦ªà¦¦
à¦¨à¦ķ à¦ª
à¦¤à¦¤ à¦ķ
à§įà¦¯à¦Łà¦ķ à¦Ĺà¦£
Ġà¦®à¦² à¦¦
à§įà¦¤à¦ļ à¦°
à§įà¦¤à¦ļ à¦°à¦ķ
à§įà¦¤à¦ļ à¦°à¦¬
à¦¿à¦ķà¦°à¦£ à¦¸à¦¹
Ġà¦°à¦ĵ à¦¶à¦¨
Ġà¦īà¦ªà¦¶ à¦¹à¦°
Ġà¦ħà¦¬à¦Ĺà¦¤ à¦ķà¦°à¦¨
à¦¿à¦īà¦ĩ à¦°
à¦¿à¦īà¦ĩ à¦¦
à¦¾à¦ĩà¦²à¦Ł à¦°
à§įà¦°à¦¬à¦£ à¦¤
Ġà¦ħà¦ªà¦ļ à¦¯
atur es
oun ce
à¦¾à¦¨à¦¬à¦ľ à¦®
ĠCer tit
ĠChe chnya
Ġch ina
Ġch annel
Ġch ased
Ġpla ce
Ġpack age
ĠMa il
ĠMa had
ĠMa stercard
unt a
ice bd
ici ency
Ġâĺ ¯â
ĠTrain ers
ĠReg ional
Ġcon tains
ĠAny time
Ġteen s
ĠProf iciency
@kal ersangbad
Ġà¦Ķà¦·à¦§ à¦¸à¦®
,à¦¶à¦° à¦¹
-à¦ĩ à¦®
.in stagram
/à¦ıà¦¸ à¦ıà¦ĩà¦ļà¦ıà¦®
AR MY
AS ONIC
CC leaner
KI NG
Mov ed
Mov ieQu
OC ATAL
PH P
PR ICE
ST IVE
TER Y
TER NET
YT E
YT IC
des kla
ga jog
ix sense
ian s
mer y
rim ere
sa ifur
tra s
ues tras
uth orized
ĠZ end
ĠZ NP
Ġ_ _
Ġle gal
Ġle ague
Ġra el
Ġra ce
Ġqu ick
Ġqu arter
à§ĩâĢ¦ !
à¦¾à¦Ĩ à¦²
à¦¾à¦Ĩ à¦ķà¦Ľ
à¦¿à¦¾ à§ĩ
à§ģà¦¬à¦° à¦£
Ġà¦ķà¦¦ à¦²à¦ª
Ġà¦ķà¦¦ à¦®à¦¤à¦²
Ġà¦ķà¦®à¦¨ à¦ĵà¦¯
Ġà¦¸à¦¶ à¦¬
Ġà¦¸à¦¶ à¦¸
à§ĭà¦£ à¦ł
Ġà¦ıà¦« à¦ı
Ġà¦¨à¦ĵ à¦°
Ġà¦¨à¦ĵ à¦¹
Ġà¦ľà¦ľ à¦ķ
Ġà¦°à¦£ à¦¤à¦°
Ġà¦°à¦£ à¦¸à¦Ļ
Ġà¦ļà¦®à¦ķ à¦ª
Ġà¦īà§İà¦ķ à¦£
à¦¾à¦¹à¦ĵ à¦¬
Ġà¦Ľà¦Ł à¦«à¦Ł
à¦Ĩà¦¹à¦® à¦¦
à§įà¦ļà¦¬ à¦Ł
à¦¾à¦°à¦£à¦¬ à¦¶à¦¤
à§ģà¦ĸà¦° à¦ŀ
Ġti ps
Ġti enes
Ġà¦ıà¦®à¦ı à¦ľ
à§ĩà¦«à¦Ł à¦¬
ĠSE NSI
ĠSon s
Ġsha h
Ġsha re
ĠAc count
ĠAc quiring
ĠAp ps
ĠAp unta
ĠCo que
ĠCategor y
ĠCategor ies
Ġad min
Ġad vtps
Ġal read
Ġapp lication
Ġapp lied
Ġcho se
Ġcho ti
alo gues
Ġmu ch
Ġmu zul
Ġmodi fied
ĠMag nifi
ĠMag azine
Ġà¦¤à¦°à¦« à¦¦
Ġfe ar
Ġfe atures
ĠBu ilding
ĠBu ddhists
ĠEn glish
ĠEn gineer
ĠIN FOR
ĠIN TERNET
ĠIm portant
ĠIm saifur
ĠThe mes
Ġà¦ħà¦®à¦° à¦¨
cha se
rop riate
ĠWork s
ĠHT C
ĠHT ML
ĠHAC KER
ĠHAC KING
Ġà¦¯à¦¤Åĵ à¦¶
Ġwebsit e
Ġwebsit es
Ġà¦Ĩà¦§à¦ĺ à¦£
Ġà¦¹à¦ľà¦® à¦ľà¦¨
Ġex am
Ġex tra
Ġgrou p
Ġgrou ps
Ġà¦Łà¦®à¦¸à¦¨ à¦ķ
Ġdes cri
Ġdes hjo
Ġdon de
Ġdem ost
Ġdem uestras
Ġtitt ies
Ġtitt yfuck
Ġmass ive
ĠPriv ate
ĠPriv acy
ĠChrist mas
ĠChrist ians
duct ion
ĠVi ew
ĠVi deos
ĠCerti fied
ĠCerti ficate
ĠCheck out
Ġplay ed
Ġpackages offer
Ġâĺİâ ĺĳï¸ı
Ġâĺİâ ľħ
ĠProfess ional
ĠProfess ors
lish ed
(E di
(Q t
(à¦ķà¦® à¦²à¦¨à¦Ĺà¦°
)M aze
,C hang
,P M
,S MS
,c apcha
,p assw
,à¦Ĩ à¦ķà¦¤
,à¦¸à¦¹ à¦ľ
,com puter
-à¦ħ à¦¬à¦°
-ee e
.A ll
.d jv
.r isingbd
.ds w
.ude my
/B engali
/C OR
/G Xc
/H dw
/Q ifU
/W eRonline
/c utpr
/g roups
/à¦ĩà¦ī à¦¬
:S Ro
:news deskla
@c rimere
@ho tmail
AB YTE
Ar changel
App rov
Auth or
Bus iness
Bangladesh er
CR IBE
Cl ixsense
Co P
Categor y
Di alogues
Em pow
EBO OK
Fren esÃŃ
Ich chham
IFIC ATION
Mor gan
Met a
PAN Y
Si O
To T
The in
TPH ONE
Vis ion
ZCP E
_rue t
ax y
air s
bar isal
bas ar
cu ps
cin ating
gra m
mist i
nAl though
per ation
plo yment
ral ia
tokjhal misti
wor d
âĻ £à¦¦à¦°
Ġ.. '
Ġov ers
Ġdo a
Ġed itor
Ġem ployment
Ġess barisal
Ġol vides
Ġres iding
Ġrim ming
ĠYem en
Ġqun ut
Ġrun s
Ġïģ ¬
ĠðŁ Ĵ¬
à¦¾.. ..
à¦¿âĢ¦âĢ¦âĢ¦âĢ¦ âĢ¦âĢ¦âĢ¦âĢ¦
à¦¨à¦ķà¦° à¦ķà¦®
à§ģà¦ī à¦ļ
à§ģà¦ĺ à¦²à¦ª
à¦¾à¦°à¦Ŀ à¦¡
Ġà¦ķà¦¸à¦ķ à¦¨à¦ķà¦ª
Ġà¦¸à¦¹à¦® à¦°
à§ĭà§İà¦¸ à¦¬
à¥¤bangl atribune
à§Ģ---- --
Ġà¦®à¦Ĺ à¦ľà¦§
Ġà¦®à¦ĵ à¦¦
Ġà¦®à¦ļà¦® à¦ļ
à¦¸à¦ĵ à¦ľ
Ġà¦¨à¦ĸ à¦¦à¦¨
Ġà¦ľà¦Ĺ à§İ
Ġà¦¤à¦Ľà¦¨ à¦Ľ
Ġà¦ħà¦¬à¦¨ à¦¤
Ġà¦ħà¦¹à¦° à¦¹
à§ĩà¦¨à¦¬à¦² à¦Ľ
Ġà¦°à¦ĩ à¦ľ
à¦¾à¦ķà¦¸à¦¬ à¦ľ
Ġà¦¯à¦Ī à¦«
à§įà¦Łà¦ľà¦¨ à¦¦
Ġà¦Ĺà§İ à¦¬
Ġà¦Ĺà¦Ĺà¦¨ à¦ļ
Ġà¦ļà¦Łà¦ķ à¦¦
à¦¾à¦ĩà¦ĵ à¦°à¦ª
à¦¾à¦¸à¦Ń à¦¬à¦¨
Ġà¦īà¦Ī à¦¦
Ġà¦ıà¦ķà¦¤à¦° à¦«
Ġà¦¥à¦®à¦¥ à¦®
à§įà¦®à¦¥ à¦ķà¦°
Ġà¦ĸà¦°à¦® à¦ª
à§Ĥà¦Łà¦ķ à¦ļ
à¦¾à¦ªà¦¥ à¦ĵ
à¦ĸà¦¬à¦° ONLINE
à¦¾à¦Ĺà¦®à¦¨ à¦ķ
Ġà¦ħà¦¨à¦¬à¦° à¦¤
à§įà¦Ĺà¦¸à¦¹ à¦¯
à¦¿à¦Łà¦®à¦¹ à¦²à¦Ĺ
à¦Ĩà¦Ĺà¦° à¦¤à¦²
à¦ıà¦ıà¦² à¦¸
à§ĭà¦ķà¦¬à¦² à¦¸
à¦¿à¦ıà¦ĩà¦¸ à¦ĵ
à¦¿à¦īLe ave
Ġà¦Ĩà¦ĩà¦Ĩà¦° à¦ľ
Ġà¦¸à¦¹In dia
Ġà¦ĩà¦īà¦ıà¦¨ à¦ĵ
à¦Ĥà¦¶à¦§à¦° à¦¦
Ġtar get
Ġtho se
Ġtak en
Ġtrib bing
Ġtough er
Ġtrad e
à§ĭà¦ªà¦ķà¦¥ à¦¨
Ġà¦ıà¦®à¦Ĩà¦ĩ à¦¬
ĠSou th
ĠSha re
ĠSum on
ĠSig ned
ĠSMAR TPHONE
ĠSUBS CRIBE
ĠSYST EM
ĠScal e
ĠShork arer
ĠSoma lia
ĠSpel ling
à§ĭà¦Ńà¦°à¦¤ à¦¦
ilit ate
Ġshe ersham
Ġsof tware
Ġsem is
Ġsel fie
Ġsum mery
Ġsaf e
Ġshal l
Ġste ps
Ġspir it
Ġservic es
.gal axy
ĠPla ced
ĠPur ify
ĠPUR IFICATION
ĠPol icy
ĠPack age
ĠPAN ASONIC
ĠPerma link
Ġà¦Ŀà¦°à¦Ŀ à¦°
ĠAde laide
ĠApp ropriate
ĠAust ralia
ĠAff airs
ĠACC ESS
ĠAPP LE
ĠAbori ginals
ĠAthe ists
ĠCur rent
ĠCap acity
ĠCho ti
ĠCoo peration
ĠCour se
ĠCOM PANY
ĠCab le
ĠComi ence
ĠClic k
Ġact ive
Ġads ense
Ġapo yadores
Ġayn un
Ġagain st
Ġamaoun t
Ġcur es
Ġcut ies
Ġctgpo st
Ġcertain ly
Ġbol lywood
Ġboo bs
Ġbrune ttes
Ġpun isha
Ġpro s
Ġpur chase
Ġpha se
Ġpers on
Ġprou d
Ġpds online
Ġpres tar
Ġpunt os
Ġpub lished
Ġpast e
Ġpeo ple
Ġphon e
Ġprof esional
Ġpued e
Ġpatad as
Ġnum ber
Ġhic cups
Ġhol y
Ġhapp y
stnews bd
Ġmis s
Ġmid night
Ġmmdctg bd
Ġminut es
Ġmanag ement
ĠMis sion
ĠMEM ORY
ĠMOT OROL
ĠMano badhikar
ĠMarit ime
Ġtheapp lication
Ġintern ational
Ġinver ted
Ġfas cinating
Ġanch or
à¦¿à¦ıà¦¸à¦ıà¦®à¦ıà¦® à¦ĩà¦ī
ĠDic tionary
ĠDel ray
ĠDow n
ĠDET ECTOR
ĠDesig nAlthough
ĠBas ic
ĠBAT TERY
ĠBos nia
ĠBitco in
ĠBlock chain
ĠEns ure
ĠEgy pt
ĠEmer gency
ĠExem ption
ĠIsra el
ĠILT S
ĠTur ned
ĠTut orial
ĠTha iland
ĠTER ABYTE
ĠTig ers
ĠTrop hy
ĠTele vision
ĠThur sday
ĠWAT ER
ĠWebsit e
ĠWhat sapp
ĠWednes day
ĠFahm ida
ĠFAC EBOOK
ĠFac ilitate
ĠHom e
ĠHind us
ĠLOC ATION
ĠLyn ch
ĠLev enger
ĠLundega ard
ĠNig eria
ĠNOKI A
ĠRAN DOM
ĠRESI STIVE
ĠResul t
Ġwash ington
Ġwhic h
à¦Īà¦Ĭà¦ī à¦ħà¦¡
ĠePo ems
Ġebon y
ĠJav a
ĠJutorash tro
Ġgum ption
Ġcoup les
Ġcopy right
ĠAndro id
ĠAnthro pology
Ġyoutu be
Ġyoun ger
Ġthir d
Ġthought s
ĠIntro duction
ĠIntend ed
ĠInstitut e
Ġdsw ctg
Ġdiscre tion
ĠPHOT OCATAL
Ġfreeb itco
fiqu er
ĠUSS R
ĠUna uthorized
Ġkey word
Ġunder lines
Ġunivers idad
Ġsubm it
ĠsubeenPo sted
Ġinfring es
ĠanySI M
Ġimpr ovements
Ġimple mentation
Ġimmem orial
ĠGPR S
ĠGROU P
ĠGuide lines
ĠKick er
ĠKashm ir
Ġopen ing
ĠProkash on
Ġameric ano
ĠDefin ed
ĠDepart ment
ĠDevelo pment
Ġjerk ing
ĠjQu ery
Ġvalo basar
ĠatenciÃ ³n
Ġrejin ab
ĠCertit icate
ĠMahad i
Ġâĺ¯â ŀ¤
MovieQu iz
ĠSENSI TIVE
Ġadvtps angbad
Ġalread y
Ġmuzul fiquer
ĠMagnifi ers
ĠINFOR MATION
Ġdescri ption
Ġdeshjo gajog
Ġdemost rar
Ġtittyfuck ing
Ġpackagesoffer ed
,Chang e
,passw ors
.djv u
/GXc TNMu
/WeRonline ARMY
/cutpr icebd
:SRo y
:newsdeskla stnewsbd
@crimere porter
Approv al
Empow erment
Ichchham oti
Ġsheersham edia
Ġpunisha ble
ĠMOTOROL LA
ĠPHOTOCATAL YTIC
