{"<|endoftext|>":0,"<|im_start|>":1,"<|im_end|>":2,"!":3,"\"":4,"#":5,"%":6,"&":7,"'":8,"(":9,")":10,"*":11,"+":12,",":13,"-":14,".":15,"/":16,"0":17,"1":18,"2":19,"3":20,"4":21,"5":22,"6":23,"7":24,"8":25,"9":26,":":27,";":28,"<":29,"=":30,">":31,"?":32,"@":33,"A":34,"B":35,"C":36,"D":37,"E":38,"F":39,"G":40,"H":41,"I":42,"J":43,"K":44,"L":45,"M":46,"N":47,"O":48,"P":49,"Q":50,"R":51,"S":52,"T":53,"U":54,"V":55,"W":56,"X":57,"Y":58,"Z":59,"[":60,"]":61,"_":62,"`":63,"a":64,"b":65,"c":66,"d":67,"e":68,"f":69,"g":70,"h":71,"i":72,"j":73,"k":74,"l":75,"m":76,"n":77,"o":78,"p":79,"q":80,"r":81,"s":82,"t":83,"u":84,"v":85,"w":86,"x":87,"y":88,"z":89,"|":90,"¡":91,"¢":92,"£":93,"¤":94,"¥":95,"¦":96,"§":97,"¨":98,"©":99,"ª":100,"«":101,"¬":102,"®":103,"¯":104,"°":105,"²":106,"³":107,"¶":108,"·":109,"¸":110,"¹":111,"º":112,"»":113,"¼":114,"½":115,"¾":116,"¿":117,"Â":118,"Ã":119,"Å":120,"à":121,"â":122,"ï":123,"ð":124,"ĉ":125,"Ġ":126,"Ģ":127,"ģ":128,"Ĥ":129,"ĥ":130,"Ħ":131,"ħ":132,"Ĩ":133,"ĩ":134,"Ī":135,"ī":136,"Ĭ":137,"ĭ":138,"Į":139,"į":140,"İ":141,"ı":142,"Ĳ":143,"ĳ":144,"Ĵ":145,"ĵ":146,"Ķ":147,"ķ":148,"ĸ":149,"Ĺ":150,"ĺ":151,"Ļ":152,"ļ":153,"Ľ":154,"ľ":155,"Ŀ":156,"ŀ":157,"Ł":158,"ł":159,"Ń":160,"à¦":161,"à§":162,"Ġà¦":163,"à¦¾":164,"à¦°":165,"à§ĩ":166,"à§į":167,"à¦¾à¦":168,"à¦¿":169,"à§įà¦":170,"à¦¿à¦":171,"à¦¨":172,"à¦¼":173,"à§ĩà¦":174,"à§ģ":175,"à¦¾à¦°":176,"à¦ķ":177,"Ġà¦ķ":178,"Ġà¦¸":179,"à¦²":180,"Ġà¦¬":181,"à¦¤":182,"à§ĭ":183,"Ġà¦ª":184,"à¦¬":185,"à¦®":186,"à§ĩà¦°":187,"à§įà¦°":188,"à¦¯":189,"à¥":190,"à¥¤":191,"à§įà¦¯":192,"à§Ģ":193,"Ġà¦Ĩ":194,"Ġà¦®":195,"à¦¾à¦¨":196,"à¦¸":197,"Ġà¦ı":198,"Ġà¦¨":199,"Ġà¦¦":200,"Ġà¦¹":201,"à¦¦":202,"à§įà¦¤":203,"à¦¼à§ĩ":204,"à¦ª":205,"Ġà¦ķà¦°":206,"à¦Ł":207,"à¦¼à¦¾":208,"Ġà¦ľ":209,"Ġà¦¤":210,"Ġà¦ħ":211,"à§ĩà¦¨":212,"à¦Ĺ":213,"à¦¾à¦²":214,"à¦¿à¦¯":215,"à¦¾à¦®":216,"à¦¿à¦¨":217,"à¦¿à¦ķ":218,"à¦¾à¦¯":219,"à¦¿à¦°":220,"à§įà¦¬":221,"Ġà¦°":222,"à¦¹":223,"à¦¾à¦ķ":224,"Ġà¦¯":225,"à¦Ľ":226,"à¦ĩ":227,"à§įà¦Ł":228,"à¦¿à¦¤":229,"à¦ľ":230,"Ġà¦¶":231,"Ġà¦Ĺ":232,"à§§":233,"Ġà¦ļ":234,"à§¦":235,"à¦Ĥ":236,"à§ĩà¥¤":237,"à¦¾à¦ĩ":238,"Ġà¦ĵ":239,"à¦¡":240,"à§ģà¦°":241,"à¦¾à¦¬":242,"à§ģà¦²":243,"à¦¾à¦¤":244,"âĢ":245,"à¦¾à¦¦":246,"à¦£":247,"à¦¿à¦²":248,"à¦¾à¦¸":249,"à§įà¦·":250,"Ġà¦ī":251,"à¦¶":252,"Ġà¦Ń":253,"Ġà¦ªà¦°":254,"à§ĩà¦¶":255,"à¦Ń":256,"à§ĩà¦ķ":257,"à¦§":258,"à¦ļ":259,"à§ĩà¦²":260,"à§¨":261,"Ġà¦ıà¦ķ":262,"Ġà¦«":263,"à¦¾à¦ľ":264,"Ġà¦¸à¦®":265,"Ġà¦¹à¦¯":266,"Ġà¦ĩ":267,"Ġà¦²":268,"Ġà¦¥":269,"à§įà¦®":270,"à¦¿à¦¶":271,"à§ĥ":272,"Ġà¦ĸ":273,"à§įà¦¦":274,"à§Ĥ":275,"à¦¾à¦¹":276,"à¦¾à¦ª":277,"Ġà¦Ľ":278,"à§įà¦ª":279,"à§įà¦¥":280,"Ġ(":281,"à¦ĸ":282,"à¦ĵ":283,"à¦¿à¦¬":284,"à¦¿à¦¸":285,"à§įà¦§":286,"à¦¾à¦Ĺ":287,"à§ĩà¦ĩ":288,"à§ĩà¦Ľ":289,"Ġà¦ħà¦¨":290,"à§ĭà¦¨":291,"à¦¥":292,"Ġà¦Ĩà¦®":293,"Ġà¦ľà¦¨":294,"Ġà¦¬à¦²":295,"à§ģà¦¨":296,"à¦¾à¦¡":297,"à¦«":298,"à§įà¦Ĺ":299,"à¦·":300,"à§«":301,"à§©":302,"à§įà¦¡":303,"Ġà¦Ł":304,"à¦¿à¦¦":305,"à§Ģà¦°":306,"à¦¿à¦ľ":307,"âĢĻ":308,"à§įà¦°à¦¤":309,"à§ĩà¦ĸ":310,"à¦Ļ":311,"à§ĩà¦¯":312,"à§ĭà¦°":313,"à§įà¦²":314,"à¦¾à¦ļ":315,"à§ĩà¦Ł":316,"à§ģà¦ķ":317,"à§įà¦¸":318,"à¦¿à¦®":319,"à¦¾à¦¶":320,"à§įà¦ľ":321,"à¦¿à¦Ł":322,"à§įà¦¨":323,"Ġà¦¡":324,"à¦Ĩ":325,"Ġà¦ıà¦¬":326,"à¦¿à¦Ń":327,"à§ĭà¦Ĺ":328,"à§Į":329,"à¦ı":330,"à§įà¦ķ":331,"Ġà¦Ĩà¦°":332,"à¦¾à¦ģ":333,"à§ĩà¦¤":334,"à§®":335,"à§Ń":336,"à¦¼à¥¤":337,"à¦¾à¥¤":338,"à§¯":339,"à¦¿à¦·":340,"à§ª":341,"à¦¾à¦§":342,"Ġà¦ıà¦ĩ":343,"à§¬":344,"Ġà¦§":345,"ĠâĢ":346,"Ġà¦ĺ":347,"à§ĩà¦®":348,"à¦¾à¦Ł":349,"Ġà¦īà¦ª":350,"à§Ģà¦¯":351,"à¦¼à¦¨":352,"Ġà¦®à¦¨":353,"à¦¿à¥¤":354,"à¦¿à¦ª":355,"Ġà¦ıà¦ķà¦Ł":356,"à¦¼à¦¿":357,"à§ĩà¦·":358,"à§įà¦ļ":359,"à§ĥà¦¤":360,"à¦¾à¦ĵ":361,"Ġà¦ķà¦°à¦¤":362,"ĠÂ":363,"à§įà¦Ľ":364,"Ġà¦¹à¦¬":365,"à§ģà¦¦":366,"à§ĩ,":367,"à§ģà¦®":368,"à§ĩà¦ĵ":369,"à§ĩà¦¬":370,"à¦ĥ":371,"à¦ŀ":372,"..":373,"à§ĩà¦¦":374,"Ġà¦Ĩà¦¸":375,"à¦ľà¦¨":376,"Ġà¦Ĩà¦²":377,"à§įà¦¯à¦¬":378,"à§Ĥà¦°":379,"à¦¿à¦Ĥ":380,"à§ĭà¦Ł":381,"à¦ķà¦°":382,"Ġà¦ıà¦°":383,"à§įà¦¤à¦°":384,"à¦¿à¦ļ":385,"à§ģà¦¯":386,"à¦¾,":387,"à¦¾à¦ĸ":388,"à§Ī":389,"à¦ªà¦¨":390,"à¦®à¦¨":391,"Ġà¦¸à¦®à¦¯":392,"à¦¬à¦°":393,"à¦ĵà¦¯":394,"à§ĩà¦¸":395,"Ġà¦Ĩà¦Ĺ":396,"à¦¾à¦°à¦£":397,"à§Ģà¦¨":398,"Ġà¦īà¦¦":399,"à¦ī":400,"Ġà¦Ĩà¦¬":401,"à§įà¦¬à¦°":402,"Ġà¦¸à¦°":403,"ĠâĢĺ":404,"à§ĭà¦®":405,"à¦ªà¦°":406,"à§ĩà¦ľ":407,"à§ĭà¦ķ":408,"Ġà¦§à¦°":409,"à§ģà¦·":410,"Ġà¦®à¦§":411,"Ġà¦¹à¦²":412,"à§ģà¦¬":413,"à¦ĸà¦¨":414,"Ġà¦ħà¦Ń":415,"Ġà¦¹à¦¤":416,"à¦¬à¦¨":417,"à§įà¦°à¦ķ":418,"à§įà¦ł":419,"à¦¿à¦ı":420,"Ġà¦ħà¦¬":421,"à¦¾à¦£":422,"à¦ł":423,"à§Ģà¦ķ":424,"Ġà¦ķà¦®":425,"Ġà¦¸à¦¬":426,"à§İ":427,"Ġà¦Ĩà¦ªà¦¨":428,"à¦¿,":429,"à§įà¦Ń":430,"à§ĩà¦¡":431,"Ġà¦ıà¦¸":432,"à¦¾à¦Ľ":433,"à¦¿à¦Ľ":434,"Ġà¦ļà¦²":435,"à§ģà¦Ł":436,"Ġà¦¸à¦¨":437,"Ġà¦¸à¦Ļ":438,"à§Ģà¦¤":439,"à¦¾à¦ļà¦¨":440,"à§ĭà¦²":441,"à§Ģà¦¦":442,"à¦¾à¦ĵà¦¯":443,"à¦¾à¦«":444,"à¦¾à¦Ĥ":445,"à§ģà¦¤":446,"à¦¾à¦®à¦²":447,"à¦¾à¦¥":448,"Ġà¦¦à¦²":449,"Ġà¦ªà¦¡":450,"Ġ:":451,"à§ĭâĢĻ":452,"à¦¿à¦ī":453,"à¦¸à¦²":454,"Ġà¦¢":455,"à§ģà¦ĩ":456,"Ġà¦Ĩà¦¨":457,"à¦Ľà¦°":458,"à¦¿à¦§":459,"à¦¿à¦¹":460,"à§ĭà¦§":461,"à¦¹à¦®":462,"à§Ģà¦Ĺ":463,"à¦Ĥà¦¸":464,"à§įà¦°à¦¦":465,"Ġà¦¬à¦°":466,"à§įà¦¯à¦®":467,"à§Ĥà¦²":468,"à§ĭà¦¸":469,"à§įà¦°à¦®":470,"Ġà¦ĺà¦Ł":471,"Ġà¦Ĩà¦ĩ":472,"Ġ-":473,"Ġà¦ĵà¦¯":474,"à§ģà¦ĸ":475,"à¦¼à§ĭ":476,"Ġà¦¸à¦¹":477,"à¦¼,":478,"à¦¿à¦¡":479,"Ġà¦Ĩà¦¦":480,"Ġà¦ķà¦¥":481,"à§ĭà¦¯":482,"Ġà¦ħà¦°":483,"à§ģà¦ª":484,"Ġà¦®à¦¹":485,"à¦¾à¦ĩà¦²":486,"à¦¾à¦ī":487,"à§ĭà¦¬":488,"Ġà¦ıà¦²":489,"...":490,"à§ĩà¦ª":491,"à§ĩà¦¶à¦¨":492,"Ġà¦Ľà¦¬":493,"à¦¿à¦·à¦¯":494,"ĠÂ·":495,"à§įà¦ŀ":496,"à§įà¦¯à¦ķ":497,"in":498,"Ġà¦¬à¦Ľà¦°":499,"Ġà¦īà¦ªà¦ľ":500,"à¦¾à¦ªà¦¤":501,"Ġà¦Ĩà¦®à¦°":502,"à¦¼à¦¤":503,"Ġà¦¸à¦Ń":504,"Ġà¦Ĩà¦ľ":505,"Ġà¦ħà¦§":506,"à¦¾à¦²à¦¯":507,"à§įà¦°à¦¯":508,"à§įà¦°à¦§":509,"à¦ªà¦¤":510,"à¦¾à¦¦à¦ķ":511,"à¦ģ":512,"à§įà¦¶":513,"à¦¾à¦°à¦¤":514,"Ġà¦Ĺà¦¤":515,"Ġà¦ĩà¦¸à¦²":516,"à¦ĺ":517,"à¦¿à¦ĵ":518,"à¦¿à¦Ĺ":519,"à¦¼à¦ķ":520,"Ġà¦ĩà¦¨":521,"à¦¾-":522,"à¦¼à§Ģ":523,"à§ĭà¦¹":524,"à§ĥà¦·":525,"à§įà¦¯à¦¬à¦¹":526,"Ġà¦¤à¦¬":527,"à§įà¦£":528,"Ġà¦ıà¦¨":529,"Ġà¦¸à¦°à¦ķ":530,"à¦¾à¦Ļ":531,"Ġà¦¸à¦¦":532,"à¦¾à¦·":533,"Ġà¦®à¦¤":534,"Ġà¦ıà¦ĸà¦¨":535,"à¦¾à¦ĩà¦Ł":536,"à¦¸à¦®":537,"Ġà¦ĩà¦ī":538,"à¦¾à¦ł":539,"Ġà¦¸à¦ķ":540,"à§ĭà¦ļ":541,"à§ĩà¦ĵà¦¯":542,"Ġà¦Ĩà¦Ľ":543,"à¦¾à¦ĩà¦¨":544,"Ġà¦ķà¦²":545,"à§įà¦¤à¦¬":546,"à¦Ĥà¦¶":547,"Ġà¦°à¦¯":548,"an":549,"à§įà¦°à¦¥":550,"à¦Ĺà¦ŀ":551,"à§Įà¦¨":552,"à§ĭà¦·":553,"à§įà¦°à¦¶":554,"Ġà¦¹à¦ļ":555,"Ġà¦¬à¦¨":556,"à§įà¦°à¦¬":557,"Ġt":558,"Ġà¦ªà¦¦":559,"Ġà¦¨à¦¯":560,"à§įà¦°à¦¥à¦®":561,"Ġà¦ıà¦Ł":562,"à§ĩà¦¦à¦¨":563,"Ġà¦ĺà¦Łà¦¨":564,"à§ģà¦§":565,"à§įà¦°à¦¸":566,"à¦¾à¦Ĺà¦°":567,"à§ĭà¦¡":568,"Ġà¦¹à¦ĵà¦¯":569,"à§ĩà¦ĩà¦²":570,"er":571,"à¦ħ":572,"Ġà¦ķà¦°à¦¬":573,"Ġà¦ħà¦¸":574,"à¦¾à¦ªà¦¨":575,"Ġà¦ħà¦¬à¦¸":576,"à§ģà¦¸":577,"à§įà¦°à¦¹":578,"Ġà¦īà¦¨":579,"à§Ģà¦ª":580,"Ġà¦Ĩà¦ķ":581,"Ġà¦Ĩà¦ĵà¦¯":582,"Ġà¦°à¦¹à¦®":583,"à¦¿à¦ĸ":584,"Ġà¦¬à¦¸":585,"à§ĭà¦¤":586,"Ġà¦īà¦¤":587,"à¦¾à¦Ń":588,"à§ģà¦¡":589,"Ġà¦ıà¦¤":590,"à§įà¦¯à¦¬à¦¸":591,"à§İà¦¸":592,"Ġà¦Ĩà¦¶":593,"es":594,"à¦°à¦®":595,"à§įà¦¯à¦¨":596,"à¦¾à¦²à¦ķ":597,"à¦Ĥà¦¬":598,"à¦¿à¦ıà¦¨":599,"à§ĩà¦Ĺ":600,"Ġà¦ıà¦®à¦¨":601,"à§ĩà¦¹":602,"Ġà¦ķà¦°à¦Ľ":603,"à¦Ĺà¦°":604,"à§Īà¦°":605,"à§įà¦·à¦£":606,"Ġà¦¸à¦¨à¦¦":607,"Ġà¥¤":608,"co":609,"à§Ģà¦¬":610,"Ġà¦¤à¦¥":611,"à¦®à¦¤":612,"à§Ģà¦²":613,"Ġà¦¨à¦¤":614,"à¦¾à¦ĩà¦ķ":615,"à¦¿à¦«":616,"-à¦®":617,"à¦°à¦ķ":618,"on":619,"à¦°à¦£":620,"Ġà¦Ĩà¦ĩà¦¨":621,"Ġà¦Ĩà¦¹":622,"à§įà¦¤à¦®":623,"à¦¿à¦¹à¦¤":624,"à¦¾à¦°à¦ķ":625,"à§įà¦¯à¦¤":626,"Ġà¦ħà¦ķ":627,"à§įà¦®à¦ķà¦°":628,"ĠÂ«":629,"à§Įà¦¨à¦ķà¦°":630,"à¦¿à¦ıà¦¨à¦ª":631,"--":632,"à§Ģà¦®":633,"Ġà¦ľà¦®":634,"Ġà¦«à¦²":635,"Ġà¦¬à¦¡":636,"à§ĭà¦ª":637,"Ġà¦ħà¦¤":638,"Ġà¦ĵà¦ĩ":639,"à§Ĥà¦¤":640,"à¦ıà¦°":641,"à§ĭà¦ļà¦¨":642,"à¦¾à¦°à¦¬":643,"à¦¾à¦²à¦¤":644,"en":645,"à¦¢":646,"à§ģà¦ľ":647,"à¦Ĥà¦Ĺ":648,"âĢĮ":649,"Ġà¦ĩà¦¤":650,"Ġà¦²à¦ķ":651,"à§ĥà¦¦":652,"à¦¾à¦īà¦¨":653,"Ġà¦ĩà¦īà¦¨":654,"Ġà¦Ĳ":655,"Ġà¦ķà¦¯":656,"à§Ģ,":657,"Ġà¦Ĩà¦¯":658,"Ġà¦¯à¦¦":659,"Ġà¦¸à¦¦à¦¸":660,"à§Ģà¦¬à¦¨":661,"à¦¸à¦¹":662,"à¦¦à¦¨":663,"Ġà¦ħà¦ª":664,"à§įà¦ªà¦°":665,"ĠÂ»":666,"com":667,"à§įà¦ĺ":668,"Ġà¦ıà¦®":669,"à¦Łà¦ķ":670,"à¦ıà¦¸":671,"ov":672,"à§ĩà¦«":673,"à§įà¦°à¦£":674,"Ġà¦ħà¦«":675,"à§įà¦¬à¦¬":676,"à§įà¦¦à¦°":677,"do":678,"à¦¿à¦£":679,"à§įà¦°à¦ļ":680,"à¦¾à¦¸à¦ª":681,"Ġà¦¸à¦®à¦¸":682,"at":683,"ĠS":684,"à¦Ŀ":685,"Ġà¦ł":686,"à¦¼à¦¸":687,"Ġà¦¬à¦ķ":688,"Ġà¦¬à¦¯":689,"à§ĭà¦Ń":690,"à§ĭà¦¬à¦°":691,"à¦¿à¦¶à¦¨":692,"à§ĥà¦¹":693,"à¦¿à¦¦à¦ª":694,"Ġà¦¹à¦ķ":695,"à¦ªà¦ķ":696,"Ġà¦ıà¦¸à¦¬":697,".com":698,"Ġ...":699,"à¦¼à¦Ł":700,"à§ĩà¦ī":701,"à§Ģà¥¤":702,"Ġà¦Ĩà¦¹à¦®":703,"à¦¾à¦®à¦¨":704,"à¦¾à¦ķà¦²":705,"à¦Ĥà¦ķ":706,"âĢ¦":707,"à¦Ĩà¦®":708,"re":709,"Ġà¦ªà¦ķ":710,"Ġà¦ķà¦°à¦²":711,"à¦¾à¦²à¦¨":712,"à¦Ĥà¦¸à¦¦":713,"**":714,"il":715,"à§ģà¦Ĺ":716,"à§ģà¦£":717,"à§ģà¦¶":718,"à¦¹à¦¨":719,"à¦¾à¦ľà¦¨":720,"à¦¾à¦ľà¦¶":721,"à§įà¦¨à¦¯":722,"Ġà¦ķà¦¬":723,"à¦²à¦ķ":724,"ma":725,"Ġs":726,"à¦¼à¦¦":727,"Ġà¦ķà¦¨":728,"Ġà¦¨à¦Ń":729,"Ġà¦Ĩà¦°à¦ĵ":730,"ou":731,"à¦°à¦¤":732,"à¦¿à¦¥":733,"à§ģà¦¹":734,"à§ĭà¥¤":735,"Ġà¦ĸà¦¬à¦°":736,"à§ĩà¦¸à¦¬":737,"à¦¿à¦ĥ":738,"à¦²à¦¬":739,"à¦¤à¦¨":740,"à¦¾à¦¨à¦¬":741,"Ġà¦īà¦ł":742,"à§ĩà¦®à¦¨":743,"à¦¿-":744,"à¦¼à¦°":745,"à¦¼à¦®":746,"à§ģà¦ģ":747,"Ġà¦ªà¦¥":748,"Ġà¦ıà¦ª":749,"Ġà¦ıà¦Ĺ":750,"Ġà¦ħà¦ªà¦°":751,"Ġà¦°à¦ķ":752,"à¦ĩà¦¨":753,"Ġà¦¶à¦¤":754,"Ġà¦¶à¦¹":755,"Ġà¦ıà¦ķà¦ľà¦¨":756,"Ġà¦ĩà¦®":757,"à§Įà¦§":758,"à§Īà¦¤":759,"à¦¿à¦īà¦ľ":760,"à§įà¦°à¦¹à¦£":761,".g":762,"bd":763,"ĠP":764,"à¦¿à¦Ļ":765,"Ġà¦Ĩà¦ª":766,"Ġà¦Ĩà¦Łà¦ķ":767,"à¦¾à¦¨à¦®à¦¨":768,"à¦Ľà¦²":769,"Ġà¦Ĺà¦£":770,"à§įà¦·à¦®à¦¤":771,"à§įà¦ªà¦¨":772,"à§įà¦§à¦¤":773,"à§ģà¦®à¦¤":774,"à¦¿à§İà¦¸":775,"à¦¾à¦ĩà¦°":776,"à¦¶à¦¨":777,"Ġà¦ıà¦ķà¦ĩ":778,"Ġà¦ĩà¦ŀ":779,"Ġà¦ĺà¦°":780,"Ġà¦Ŀ":781,"Ġà¦ķà¦ª":782,"Ġà¦¸à¦«":783,"à§ĭà¦ľ":784,"à¦Ĺà¦¤":785,"à§ģà¦²à¦¨":786,"ĠA":787,"ĠC":788,"à§·":789,"à¦¾à¦Ŀ":790,"à¦¿à¦ĩ":791,"Ġà¦ªà¦¤":792,"Ġà¦¦à¦ķ":793,"à§įà¦®à¦¦":794,"à§ĥà¦ķ":795,"à¦¿à¦¬à¦¹à¦¨":796,"Ġà¦īà¦ªà¦°":797,"ed":798,"à¦¬à¦¸":799,"à¦¾à¦¨à¦¤":800,"Ġà¦¨à¦¬":801,"Ġà¦ľà¦Ļ":802,"à§įà¦¬à¦ķ":803,"à§įà¦Łà¦Ĺ":804,"Ġà¦¶à¦°":805,"à§įà¦ľà¦¨":806,"Ġà¦īà¦ªà¦¸":807,"à§įà¦ļà¦²":808,"Ġà¦¸à¦ķà¦²":809,"à§ĭà¦·à¦£":810,".gov":811,"ar":812,"he":813,"it":814,"Ġa":815,"Ġc":816,"à¦¾à¦°à¦¨":817,"Ġà¦¸à¦¤":818,"à§ĭ,":819,"Ġà¦¦à¦¶":820,"à¦¾à¦®à¦°":821,"à¦Ĥà¦ĸ":822,"à¦¾à¦ĩà¦¸":823,"Ġà¦īà¦²":824,"Ġà¦īà¦ļ":825,"Ġà¦Ńà¦¬à¦¨":826,"à§ĩà¦²à¦¨":827,"à¦¿à¦¦à¦°":828,"Ġà¦Ĩà¦Ĺà¦¸":829,"à¦łà¦¨":830,"à§ĭà¦§à¦¨":831,".bd":832,"or":833,"Ġà¦Ī":834,"à§ĭà¦ĥ":835,"à¦¬à¦²":836,"à§įà¦°à¦¨":837,"Ġà¦ıà¦ĸ":838,"à§įà¦¬à¦¤":839,"à¦¾à¦ķà¦°":840,"Ġà¦ĵà¦ªà¦°":841,"à¦¾à¦¸à¦¨":842,"Ġà¦ĩà¦¸":843,"-à¦¸":844,"/-":845,"à§ĩà¦ģ":846,"à¦®à¦¯":847,"Ġà¦Ĩà¦¤":848,"Ġà¦¦à¦°":849,"à¦¾à¦¬à¦°":850,"à¦ļà¦Ł":851,"à§Ĥà¦ļ":852,"à§ĭà¦¨à¦ĵ":853,"Ġà¦Ĩà¦¸à¦¨":854,"Ġà¦¸à¦¦à¦°":855,"dos":856,"Ġ'":857,"Ġb":858,"à§ĭ.":859,"à§įà¦¤à¦¨":860,"Ġà¦ľà¦¯":861,"à¦¾à¦ĩà¦¯":862,"âĢĿ":863,"à§įà¦ªà¦¤":864,"à§įà¦Ĺà¦²à¦¬":865,"à§Īà¦¨":866,"Ġà¦¸à¦¬à¦ļ":867,"à§ĩà¦«à¦¤":868,"@dos":869,"al":870,"Ġ/":871,"Ġp":872,"à§ģà¦Ŀ":873,"Ġà¦¬à¦¹":874,"à¦¾à¦¨à¦ķ":875,"à¦¼à§ĩà¥¤":876,"à¦Ĺà¦£":877,"à§ĥà¦ªà¦ķ":878,"à§Ĥà¦ª":879,"à§ĭà¦¨à¦¯":880,"à§ĩà¦ĸà¦¤":881,"à¦Ĩà¦ĩ":882,"à¦ıà¦®":883,"à¦¿à¦ªà¦ķ":884,"à§įà¦¶à¦ķ":885,"Ġà¦¶à¦¹à¦°":886,")à¥¤":887,"ad":888,"à¦°à¦¸":889,"à¦¾à¦°à¦Ł":890,"à¦ķà¦Ł":891,"Ġà¦¸à¦¡":892,"à§įà¦°à¦Ĺ":893,"à¦¼à¦¾,":894,"Ġà¦ľà¦¬":895,"Ġà¦ļà¦Ł":896,"à¦Ĥà¦ª":897,"à¦Ĥà¦ĺ":898,"à§Ĥà¦®":899,"à¦¾à¦¹à¦®":900,"à¦¿à¦·à¦¦":901,"Ġà¦Ĩà¦²à¦®":902,"à§įà¦¶à¦¨":903,"Ġn":904,"à¦¾à§İ":905,"à¦¼à¦Ĺ":906,"à§ģà¦Ń":907,"Ġà¦ķà¦ĸà¦¨":908,"Ġà¦¬à¦Ļ":909,"à¦¾à¦¨à¦Ł":910,"Ġà¦¤à¦ĸà¦¨":911,"à§įà¦¬à¦ª":912,"à¦¾à¦¬à¦²":913,"à§įà¦·à¦ķ":914,"Ġà¦īà¦ĩ":915,"ĠâĢ¢":916,"ing":917,"Ġà¦Ĩà¦¹à¦¤":918,"mail":919,"of":920,"se":921,"Ġh":922,"à§ĩ-":923,"à§ģ,":924,"à§ĭà¦¥":925,"Ġà¦ªà¦£":926,"à§ĩà¦°à¦ķ":927,"Ġà¦¨à¦®":928,"à¦¾à¦ªà¦ķ":929,"ĠâĢľ":930,"ĠÂł":931,"Ġà¦ļà¦²à¦Ľ":932,"Ġà¦Ĺà¦¤à¦ķ":933,"),":934,"le":935,"st":936,"à§ĩà¦Ń":937,"à§ģâĢĻ":938,"à¦¾à¦°à¦ª":939,"Ġà¦¸à¦ª":940,"à§ĭà¦ĸ":941,"à¥¤âĢĻ":942,"Ġà¦®à¦°":943,"Ġà¦®à¦Ļ":944,"Ġà¦¨à¦Ĺà¦°":945,"à§įà¦¬à¦¨":946,"à¦¾à¦ĩà¦®":947,"à¦¾à¦ĩà¦Ń":948,"Ġà¦Ńà¦¯":949,"Ġà¦«à¦°":950,"à§įà¦¥à¦¨":951,"Ġà¦¬à¦²à¦²":952,"Ġà¦¡à¦²":953,"ĠâĢ¦":954,"Ġà¦Ĩà¦¸à¦Ľ":955,"Ġà¦ħà¦¬à¦¶":956,"@g":957,"ion":958,"ra":959,"Ġm":960,"à§ĩ?":961,"à¦¼à¦£":962,"à¦¼à¦®à¦¨":963,"à§ĭà¦¶":964,"à§ĭà¦¦à¦¨":965,"à¦¸à¦ľ":966,"à¦Łà¦¨":967,"à¦¾à¦ķà¦¬":968,"à¦Ľà¦¡":969,"Ġà¦ĩà¦¯":970,"à§įà¦Ĺà¦¬à¦¨":971,"à¦Ĩà¦°":972,"à¦¿à¦ıà¦®":973,"à¦¿à¦īà¦Ł":974,"à§Ĥà¦²à¦ķ":975,"-à¦ıà¦°":976,"ĠM":977,"à¦¿)":978,"à§ĭà¦¦":979,"à§įà¦¯à¦¦":980,"Ġà¦ıà¦¡":981,"Ġà¦¤à¦°":982,"à§ĩà¦¨à¦¨":983,"Ġà¦°à¦¬":984,"à¦Ĥà¦°à¦ķ":985,"à¦¾à¦¬à¦¨":986,"à§įà¦®à¦ķ":987,"à§Ĥà¦¹":988,"à¦ıà¦ķ":989,"à¦¾à¦«à¦²":990,"Ġthe":991,"@gmail":992,"à¦¼à¦®à¦¨à¦¸":993,"-à¦¬":994,"de":995,"à¦¾à¦ŀ":996,"à§ĩà¦Ļ":997,"à§ĩà¦ļ":998,"à§ĩà¦ŀ":999,"à¦ķà¦²":1000,"à¦¤à¦®":1001,"Ġà¦¨à¦ľ":1002,"à§įà¦¬à¦²":1003,"Ġà¦Ĺà¦¡":1004,"âĢĺ":1005,"à§ĩà¦ķà¦Ł":1006,"à¦¾à¦¹à¦²":1007,"à¦¿à¦¬à¦°":1008,"à¦ıà¦ĩ":1009,"Ġà¦Ĩà¦¨à¦¨":1010,"à¦¼à¦£à¦Ĺà¦ŀ":1011,"un":1012,"Ġin":1013,"à¦¬à¦Ľà¦°":1014,"Ġà¦ıà¦Ľ":1015,"Ġà¦¯à¦ĸà¦¨":1016,"Ġà¦Ĺà¦²":1017,"Ġà¦ĵà¦°":1018,"à¦¾à¦ľà¦®":1019,"Ġà¦ĸà¦¨":1020,"à¦¾à¦¹à¦°":1021,"à§įà¦²à¦ķ":1022,"Ġà¦§à¦°à¦¨":1023,"à§ģà¦Łà¦¬à¦²":1024,"à§ĩà¦Ĺà¦®":1025,"âĢĮà§į":1026,"à§ĥà¦¹à¦¸":1027,"***":1028,"ww":1029,"Ġf":1030,"Ġan":1031,"Ġof":1032,"à¦¾:":1033,"à¦¼à§ģ":1034,"à¦¼à¦²":1035,"à§ģà¦¸à¦²":1036,"à¦¾à¦°à¦¦":1037,"à¦¾à¦¨à¦¬à¦¨":1038,"à¦¸à¦¨":1039,"Ġà¦ıà¦¦":1040,"Ġà¦¹à¦¨":1041,"à¦¦à¦°":1042,"à¦¿à¦ķà¦²":1043,"Ġà¦¯à¦¥":1044,"à¦ĩà¦²":1045,"à¦¾à¦ĩà¦ľ":1046,"à¦¾à¦ĩà¦¡":1047,"à§įà¦·à¦¤":1048,"à¦¾à¦ľà¦§":1049,"à§Įà¦ģ":1050,"à¦¿à¦ıà¦¸":1051,"à§įà¦Ńà¦¬":1052,"à§ĭà¦²à¦¨":1053,"à§įà¦°à¦®à¦£":1054,"Ġà¦¸à¦¹à¦ľ":1055,"ang":1056,"à§ģà¦§à¦¬":1057,"ag":1058,"la":1059,"lo":1060,"ĠD":1061,"à¦¾à¦°à¦®":1062,"Ġà¦ķà¦ķ":1063,"Ġà¦ķà¦£":1064,"Ġà¦ħà¦¥":1065,"à¦¿à¦ķà¦¦":1066,"Ġà¦Ĺà¦¬":1067,"à¦Ĥà¦¯":1068,"à§ģà¦°à¦¸":1069,"à¦¾à¦¤à¦ķ":1070,"à§įà¦®à¦¸":1071,"à¦¾à¦Ĺà¦ľ":1072,"Ġà¦ħà¦¨à¦²":1073,"à¦¿à¦ľà¦¸":1074,"à§ĩà¦·à¦£":1075,"Ġà¦Ĩà¦¸à¦²":1076,"à¦¿à¦Ĺà¦ŀ":1077,"à¦Ĥà¦ĺà¦°":1078,"Ġà¦¨à¦ľà¦°":1079,"-à¦ª":1080,"ic":1081,"im":1082,"Ġ?":1083,"ĠB":1084,"ĠE":1085,"à¦¿:":1086,"à§ĩà¦£":1087,"à¦¾à¦°à¦ªà¦°":1088,"à¦¾à¦°à¦ªà¦¤":1089,"à¦ķà¦¬":1090,"à¦ķà¦®":1091,"Ġà¦ķà¦¤":1092,"à§įà¦°à¦Ń":1093,"à§įà¦¯à¦¸":1094,"à¦¾à¦¨à¦Ĺà¦°":1095,"Ġà¦ľà¦¡":1096,"à¦¾à¦²à¦Ł":1097,"à§įà¦¬à¦¸":1098,"à¦¿à¦¤à¦°":1099,"Ġà¦Ĺà¦°":1100,"Ġà¦īà§İà¦¸":1101,"Ġà¦Ńà¦°":1102,"Ġà¦ĩà¦Ľà¦²":1103,"à¦¾à¦¹à¦¤":1104,"Ġà¦ľà¦¨à¦Ĺà¦£":1105,"à§Įà¦¦":1106,"à§ĩà¦¤à¦¨":1107,"à§ģà¦¬à¦ķ":1108,"à§įà¦°à¦ķà¦²":1109,"Ġà¦ļà¦²à¦¤":1110,"à¦¿à¦Ĺà¦¤":1111,"---":1112,"Ġà¦Īà¦¦":1113,">>":1114,"am":1115,"vi":1116,"ĠI":1117,"Ġâ":1118,"ĠĠ":1119,"à¦¼à¦ĩ":1120,"à§ĩà¦§":1121,"à§ģà¦«":1122,"à§ģà¦ľà¦¨":1123,"à¦¾à¦°à¦¸":1124,"à¦¾à¦°à¦ĩ":1125,"à¦¾à¦°à¦ĵ":1126,"Ġà¦¸à¦ļ":1127,"à¦¤à¦°":1128,"Ġà¦Ĩà¦«":1129,"Ġà¦ľà¦°":1130,"à¦¾à¦®à¦ķ":1131,"à¦¿à¦°à¦¤":1132,"à¦Ľà¦¨":1133,"Ġà¦¶à¦¨":1134,"Ġà¦ĵà¦¬":1135,"à¦¾à¦¤à¦¨":1136,"à¦¾à¦Ĺà¦ĸ":1137,"à¦¾à¦Ĺà¦¢":1138,"à¦¾à¦Ĺà¦®à¦¯":1139,"à¦¾à¦Ĺà¦ļà¦Ł":1140,"à§įà¦¸à¦Ł":1141,"à¦Ĩà¦ªà¦¨":1142,"à§Įà¦¯":1143,"à§Įà¦¸":1144,"à§ĭà¦ķà¦ľà¦¨":1145,"Ġà¦Ĳà¦ķ":1146,"ws":1147,"ĠT":1148,"Ġà¦·":1149,"à¦¾)":1150,"à¦¾à¦°à¦²":1151,"à¦¾à¦°à¦Ń":1152,"à¦¤à¦¬":1153,"Ġà¦¨à¦¥":1154,"Ġà¦ħà¦²":1155,"Ġà¦ħà¦ŀ":1156,"à¦¾à¦®à¦¸":1157,"à§įà¦¬à¦¯":1158,"Ġà¦¶à¦«":1159,"à¦¾à¦¦à¦¶":1160,"à¦¿à¦²à¦¨":1161,"Ġà¦¸à¦®à¦°":1162,"Ġà¦ĩà¦²":1163,"à§ĥà¦¥":1164,"à¦ĸà¦°":1165,"à§įà¦§à¦¨":1166,"à¦¾à¦Ĺà¦¬à¦°":1167,"Ġà¦ľà¦¨à¦ķ":1168,"Ġà¦ľà¦¨à¦ª":1169,"à¦¾à¦¶à¦¨":1170,"à§Įà¦²":1171,"Ġà¦īà¦ªà¦²à¦ķ":1172,"à§ĭà¦®à¦¬":1173,"à§İà¦ķ":1174,"Ġà¦¸à¦¹à¦ķ":1175,"Ġà¦ıà¦®à¦¨à¦ķ":1176,"Ġà¦īà¦ĩà¦ķ":1177,"-à¦Ń":1178,"ct":1179,"em":1180,"th":1181,"à¦¾!":1182,"à¦¿à¦Ĩ":1183,"à¦¼à¦¬":1184,"à§ģà¦Ľà¦²":1185,"à§įà¦¯à¦°":1186,"à§Ģà¦¡":1187,"à§Ģà¦«":1188,"Ġà¦Ĩà¦ī":1189,"Ġà¦®à¦¯":1190,"Ġà¦®à¦¸à¦ľ":1191,"Ġà¦¹à¦¸":1192,"à§įà¦¤à¦¤":1193,"Ġà¦ħà¦®":1194,"Ġà¦ħà¦Ĺ":1195,"Ġà¦ħà¦ľ":1196,"à¦¿à¦ķà¦¤":1197,"à¦¿à¦°à¦ķ":1198,"à§įà¦Łà¦®":1199,"Ġà¦ļà¦°":1200,"à¦¾à¦¦à¦¨":1201,"à¦¾à¦ªà¦°":1202,"à§įà¦ªà¦¦":1203,"à¦¿à¦¬à¦¸":1204,"à§įà¦§à¦°":1205,"à§ģà¦¨à¦°":1206,"à¦¾à¦¶à¦ķ":1207,"à¦¿à¦Łà¦ķ":1208,"à§įà¦¨à¦¤":1209,"Ġà¦ĺà¦¨":1210,"à¦ķà¦°à¦£":1211,"Ġà¦¸à¦¹à¦¯":1212,"à§ĭà¦¬à¦¬":1213,"à§ĩà¦¦à¦¨à¦ªà¦¤":1214,"ent":1215,"à¦Ĥà¦Ĺà¦łà¦¨":1216,"ch":1217,"ro":1218,"ur":1219,"à¦¾.":1220,"à¦¾à¦ĺ":1221,"à¦¨à¦¬":1222,"à§ģà¦ĥ":1223,"Ġà¦¬à¦ĩ":1224,"à§ĭà¦ģ":1225,"à§ĩà¦°à¦ĵ":1226,"à§Ģà¦£":1227,"Ġà¦®à¦¡":1228,"à¦¾à¦¨à¦¸":1229,"à¦¸à¦¬":1230,"Ġà¦ķà¦°à¦ª":1231,"à¦¾à¦®à¦Ĺ":1232,"Ġà¦°à¦¶":1233,"à¦ĩà¦ı":1234,"Ġà¦ļà¦¨":1235,"à§ģà¦²à¦¤":1236,"à¦¾à¦¸à¦°":1237,"à¦¶à¦²":1238,"Ġà¦ªà¦°à¦¬à¦°":1239,"Ġà¦«à¦°à¦®":1240,"Ġà¦«à¦ĸà¦°":1241,"à§įà¦¥à¦¬à¦Ľà¦°":1242,"à¦¾à¦¶à¦°":1243,"à§Įà¦¶à¦²":1244,"à§ĩà¦¬à¦²":1245,"à¦ľà¦¨à¦ķ":1246,"à§Ĥà¦°à¦£":1247,"Ġà¦ıà¦°à¦ªà¦°":1248,"à¦¾à¦ĸà¦¤":1249,"à§ģà¦¬à¦²":1250,"à§Ĥà¦²à¦¤":1251,"à§įà¦ŀà¦ª":1252,"ess":1253,"-à¦ķ":1254,"<<":1255,"ap":1256,"as":1257,"el":1258,"ews":1259,"Â»":1260,"ĠW":1261,"Ġvi":1262,"Ġ<<":1263,"à¦Ĳ":1264,"à¦¿/":1265,"à¦¼-":1266,"à§ĩà¦Ĩ":1267,"à¦¾à¦°à¦Ľ":1268,"à§ĭà¦ĩ":1269,"à§ĭà¦«":1270,"à§ĭà¦ªà¦¨":1271,"Ġà¦ªà¦²":1272,"Ġà¦ªà¦¶":1273,"à§įà¦°à¦ª":1274,"Ġà¦®à¦ľ":1275,"à¦¾à¦¨à¦¨":1276,"Ġà¦¦à¦«":1277,"à§įà¦¤à¦ķ":1278,"à¦¼à¦¾à¥¤":1279,"Ġà¦¤à¦²":1280,"Ġà¦¤à¦¤":1281,"Ġà¦¤à¦¦à¦¨":1282,"à¦¾à¦²à¦®":1283,"à¦¾à¦®à¦¤":1284,"à¦¿à¦¨à¦Ł":1285,"à¦¾à¦ķà¦¤":1286,"à¦Ĥà¦²":1287,"à§ĩà¥¤âĢĻ":1288,"à¦¾à¦ĩà¦«":1289,"à¦¾à¦¤à¦¬":1290,"à§ĩà¦¶à¦ķ":1291,"à¦ļà¦¨":1292,"Ġà¦ĩà¦ļ":1293,"à¦¾à¦ªà¦¡":1294,"à§įà¦¥à¦²":1295,"à¦Ĩà¦¨":1296,"à§Įà¦°":1297,"à¦ıà¦¨":1298,"Ġà¦Ĩà¦°à¦¬":1299,"à¦īà¦¦":1300,"Ġà¦Ĩà¦¬à¦¦":1301,"Ġà¦ıà¦ĸà¦¨à¦ĵ":1302,"Ġà¦¬à¦¸à¦¬":1303,"à§įà¦ĺà¦¦":1304,"à¦¿à¦ıà¦®à¦ĩà¦ı":1305,"Ġ<<>>":1306,"ps":1307,"tt":1308,"Ġ,":1309,"ĠF":1310,"ĠH":1311,"Ġà¦ĭ":1312,"à¦¾âĢĻ":1313,"à¦¾à¦ĥ":1314,"à¦¿.":1315,"à§įà¦«":1316,"à¦¼à¦Ľ":1317,"Ġà¦¬à¦Ĺ":1318,"Ġà¦ªà¦ł":1319,"à¦®à¦¹":1320,"à§įà¦°à¦«":1321,"à§įà¦¯à¦ĩ":1322,"à§Ģà¦ľ":1323,"Ġà¦¨à¦¡":1324,"Ġà¦ħà¦Ļ":1325,"à¦¾à¦²à¦¬":1326,"à¦¾à¦²à¦Ĺà¦ŀ":1327,"à¦¿à¦¨à¦¯":1328,"à¦¿à¦ķà¦Ń":1329,"à§įà¦¬à¦¶":1330,"Ġà¦¯à¦¤":1331,"à¦ĩà¦¯":1332,"Ġà¦Ĺà¦łà¦¨":1333,"Ġà¦ļà¦ķ":1334,"Ġà¦ĵà¦ł":1335,"âĢĶ":1336,"à§ĩà¦ķà¦¨":1337,"à¦¾à¦ľà¦¤":1338,"Ġà¦¸à¦®à¦¨":1339,"Ġà¦²à¦¡":1340,"Ġà¦ĸà¦¦":1341,"Ġà¦Ľà¦¯":1342,"à¦¾à¦Ĺà¦¤":1343,"Ġà¦¬à¦²à¦¤":1344,"Ġà¦¬à¦²à¦Ľ":1345,"Ġà¦ıà¦ĩà¦ļ":1346,"à§ģà¦®à¦¨":1347,"Ġà¦Ĩà¦²à¦«":1348,"à¦¿à¦ļà¦¯":1349,"Ġà¦ļà¦²à¦ļ":1350,"à¦¿à¦īà¦°":1351,"Ġ---":1352,"à§įà¦¯à¦¤à¦®":1353,"Ġà¦Ĩà¦¹à¦®à¦¦":1354,"à¦¿à§İà¦¸à¦ķ":1355,"Ġà¦Ĩà¦īà¦Ł":1356,"à§ĩà¦Ĩà¦ĩà¦¨":1357,"ck":1358,"is":1359,"Âł":1360,"ĠL":1361,"à¦°à¦ª":1362,"à§ĩâĢĻ":1363,"à§įà¦ĸ":1364,"à¦¨à¦®":1365,"à§ģà¥¤":1366,"Ġà¦¸à¦ľ":1367,"Ġà¦ªà¦Ľà¦¨":1368,"à§įà¦¯à¦¯":1369,"Ġà¦®à¦ŀ":1370,"à¦¸à¦Ń":1371,"Ġà¦¨à¦¦":1372,"Ġà¦¨à¦Ł":1373,"à¦ªà¦¦":1374,"à¦¿à¦¨à¦¤":1375,"à¦¿à¦°à¦ª":1376,"à§įà¦Łà¦°":1377,"Ġà¦¶à¦ķ":1378,"à¦¾à¦¸à¦ķ":1379,"Ġà¦īà§İ":1380,"à§ĩà¦²à¦¤":1381,"à§Ĥà¦ľ":1382,"Ġà¦Ľà¦¡":1383,"à¦ĸà¦²":1384,"à§ĩà¦ĩà¦¨":1385,"à¦«à¦°":1386,"Ġà¦¡à¦ķ":1387,"Ġà¦ĺà¦£":1388,"à¦¾à¦ĵà¦²":1389,"Ġà¦Ĩà¦¸à¦¤":1390,"Ġà¦īà¦¦à¦¯":1391,"à§įà¦°à¦¦à¦¤":1392,"à§įà¦ŀà¦¤":1393,"à§ĭà¦¹à¦°":1394,"à¦¾à¦łà¦ķ":1395,"à¦ħà¦¨":1396,"Ġà¦ıà¦®à¦ª":1397,"Ġà¦¦à¦¶à¦®":1398,"à§ģà¦Ŀà¦¤":1399,"Ġand":1400,"Ġà¦ħà¦¥à¦¬":1401,"-à¦ı":1402,"gh":1403,"hm":1404,"id":1405,"Ġ*":1406,"Ġ.":1407,"ĠN":1408,"ĠR":1409,"Ġw":1410,"à¦¾;":1411,"à¦¿à¦ł":1412,"à¦¼à¦ª":1413,"à§ģà¦ļ":1414,"à§ĭ-":1415,"à¦®à¦°":1416,"à§įà¦°à¦²":1417,"à§įà¦¯à¦®à¦¨":1418,"à§Ģ-":1419,"à§Ģà¦Ń":1420,"Ġà¦Ĩà¦§":1421,"à¦¾à¦¨à¦Ĺ":1422,"Ġà¦ıà¦¯":1423,"Ġà¦ħà¦¡":1424,"à¦¾à¦®à¦ļ":1425,"à¦¹à¦¤":1426,"à¦¿à¦¤à¦¬":1427,"Ġà¦¶à¦¬":1428,"à¦¾à¦¸à¦ļ":1429,"Ġà¦īà¦Ń":1430,"Ġà¦ıà¦ķà¦¦":1431,"Ġà¦ĸà¦°":1432,"à¦¾à¦¹à¦ķ":1433,"à§ĩà¦Ľà¦¨":1434,"à¦«à¦¸":1435,"à§įà¦²à¦Ł":1436,"à§ĩà¦Łà¦°":1437,"à§įà¦¸à¦¬":1438,"à§Įà¦ķ":1439,"à¦¾à¦Łà¦ķ":1440,"à§Īà¦¯":1441,"à§ĩà¦¸à¦ķ":1442,"à§ĩà¦¸à¦°à¦ķ":1443,"à§ģà¦·à¦ķ":1444,"à¦¾à¦¥à¦°":1445,"à¦¿à¦īà¦¨":1446,"à¦¾à¦īà¦ľ":1447,"Ġà¦ĩà¦īà¦°":1448,"Ġto":1449,"ate":1450,"à¦Ĩà¦®à¦°":1451,"Ġà¦¸à¦«à¦°":1452,"Ġà¦¸à¦«à¦²":1453,"Ġnews":1454,"à§Įà¦²à¦Ń":1455,"à¦¿à¦Łà¦ķà¦¯":1456,"Ġà¦īà¦Ńà¦¯":1457,"-à¦ªà¦°":1458,"//":1459,"://":1460,"ON":1461,"UR":1462,"di":1463,"ho":1464,"ist":1465,"pp":1466,"ut":1467,"Ġ!":1468,"Ġ\"":1469,"Ġ***":1470,"à¦Ī":1471,"à¦¾/":1472,"à§ĩ!":1473,"à¦¿?":1474,"à¦¿âĢĻ":1475,"à¦¨à¦¡":1476,"Ġà¦ķà¦·":1477,"Ġà¦¸à¦ł":1478,"à¦¬à¦¦":1479,"à§įà¦¯à¦ª":1480,"Ġà¦Ĩà¦ļ":1481,"à¦¸à¦°":1482,"à¦¸à¦ķ":1483,"Ġà¦ıà¦ľ":1484,"Ġà¦ıà¦¶":1485,"Ġà¦ıà¦Ń":1486,"Ġà¦¦à¦£":1487,"Ġà¦¦à¦®à¦¨":1488,"Ġà¦¹à¦ľ":1489,"Ġà¦¹à¦°à¦¤":1490,"Ġà¦ħà¦¦":1491,"à¦¿à¦ķà¦Ł":1492,"à¦¾à¦ķà¦®":1493,"Ġà¦¯à¦¨":1494,"à¦ĩà¦¸":1495,"Ġà¦Ĺà¦°à¦®":1496,"à¦Ĥ-":1497,"à¦¾à¦ĩà¦¬":1498,"à¦¾à¦¸à¦¹":1499,"Ġà¦īà¦°":1500,"Ġà¦Ńà¦ķ":1501,"à§ĥà¦Ļ":1502,"à§Ĥà¦¨":1503,"âĢĻà¥¤":1504,"à§ĩà¦ĸà¦²":1505,"à§ĭà¦°à¦Ĺà¦ŀ":1506,"à¦¾à¦ļà¦²":1507,"à¦¿à¦®à¦¤":1508,"à§ĭà¦Ĺà¦ªà¦¤":1509,"Ġà¦§à¦¨":1510,"ĠâĢĵ":1511,"à¦¾à¦Łà¦¤":1512,"à§įà¦ļà¦¯":1513,"à§ģà¦®à¦ķ":1514,"Ġà¦Ĩà¦²à¦¹":1515,"à§Īà¦¶":1516,"à§Īà¦ł":1517,"à¦īà¦²":1518,"à§įà¦Ńà¦°":1519,"à¦¾à¦«à¦¨":1520,"à¦¿à¦īà¦²":1521,"à¦¿à¦īà¦¡":1522,"à§ģà¦ĩà¦¨":1523,"Ġà¦Ĩà¦ľà¦ķ":1524,"Ġà¦ķà¦²à¦ķ":1525,"Ġà¦ªà¦¦à¦ķ":1526,"à§įà¦°à¦¸à¦Ļ":1527,"Ġà¦Ĳà¦¤":1528,"dow":1529,"Ġà¦Ĺà¦£à¦¤à¦¨":1530,"Ġà¦ķà¦ĸà¦¨à¦ĵ":1531,"Ġhtt":1532,"www":1533,"à¦¿à¦Ĩà¦°":1534,"Ġà¦ĭà¦£":1535,"à§įà¦ĸà¦²":1536,"Ġà¦ĸà¦°à¦ļ":1537,"à§Īà¦łà¦ķ":1538,"-à¦¡":1539,"ber":1540,"Ġe":1541,"Ĥ¬":1542,"à¦°à¦²":1543,"à§ĩ:":1544,"à¦¿!":1545,"à¦¿à¦ģ":1546,"à¦¿à¦Ŀ":1547,"à§ĩà¦ı":1548,"à¦¾à¦°à¦Ĺ":1549,"à¦ķà¦¦":1550,"à¦ķà¦ľà¦¨":1551,"Ġà¦ķà¦ł":1552,"Ġà¦¬à¦¦":1553,"Ġà¦ªà¦ŀ":1554,"à§ĩà¦°à¦¦":1555,"à§įà¦¯à¦ķà¦°":1556,"Ġà¦Ĩà¦¡":1557,"Ġà¦Ĩà¦ĺ":1558,"à¦¾à¦¨à¦¦":1559,"Ġà¦ıà¦ľà¦¨":1560,"à§įà¦¤à¦¦":1561,"à¦¼à¦¾-":1562,"Ġà¦ľà¦²":1563,"Ġà¦ľà¦¹":1564,"à§ĩà¦¨à¦¦":1565,"à¦¿à¦ķà¦®":1566,"à¦¾à¦¯à¦¥":1567,"Ġà¦°à¦¸":1568,"Ġà¦Ĺà¦Ļ":1569,"Ġà¦ļà¦¤":1570,"à¦¾à¦¬à¦¤":1571,"âĢľ":1572,"à¦¿à¦²à¦ķ":1573,"à§įà¦·à¦®":1574,"à§ĩà¦¶à¦Ł":1575,"à¦ļà¦²":1576,"Ġà¦ıà¦ķà¦®à¦¤":1577,"Ġà¦¸à¦®à¦¬":1578,"Ġà¦ĩà¦¹":1579,"à§ĥà¦£":1580,"à§įà¦¦à¦ķ":1581,"à¦¾à¦¹à¦¬":1582,"à¦¾à¦¹à¦¸":1583,"à¦¿à¦¬à¦°à¦£":1584,"à¦¾à¦Ĺà¦¬":1585,"Ġà¦Ĩà¦®à¦¦":1586,"à§įà¦Ĺà¦¤":1587,"à¦¿à¦ľà¦Ń":1588,"âĢĻà¦°":1589,"à§ĩà¦ĸà¦ķ":1590,"à§ģà¦ķà¦¦":1591,"à¦¿à¦Łà¦¨":1592,"à¦Ĩà¦Ĺ":1593,"à¦Ĩà¦ľ":1594,"à§Įà¦°à¦¸":1595,"à¦ıà¦«":1596,"à¦¾à¥¤âĢĻ":1597,"à¦¿à¦ªà¦¤":1598,"à§įà¦¯à¦¬à¦§":1599,"à¦¾à¦ĸà¦¨":1600,"à§Ģà¦¨à¦¤":1601,"à¦īà¦ª":1602,"à§ĭà¦ķà¦ļ":1603,"à¦¿à¦ıà¦ķ":1604,"Ġà¦ķà¦®à¦ª":1605,"à§ģà¦¤à¦°":1606,"à§Ģà¦Ĺà¦ŀ":1607,"à¦¾à¦īà¦¦":1608,"à¦¸à¦®à¦¯":1609,"Ġà¦ĩà¦īà¦ıà¦¸":1610,"à§įà¦°à¦¥à¦®à¦¬":1611,"à§ģà¦¸à¦°à¦£":1612,"Ġà¦¬à¦¸à¦¤":1613,"enc":1614,"ation":1615,"à¦Ĥà¦ķà¦Ł":1616,"out":1617,"Ġà¦°à¦ķà¦®":1618,"Ġà¦¸à¦¤à¦°":1619,"à¦¾à§İà¦ķ":1620,"angla":1621,"ĠEUR":1622,"ĠâĤ¬":1623,"Ġà¦īà§İà¦ª":1624,"à§Įà¦°à¦¸à¦Ń":1625,",à¦¬":1626,"-à¦¨":1627,"-à¦¤":1628,"-à¦¦":1629,"-à¦Ĩà¦ĩ":1630,".à¦ıà¦®":1631,"ha":1632,"ia":1633,"iv":1634,"lin":1635,"ns":1636,"ol":1637,"oo":1638,"ue":1639,"Ġ+":1640,"ĠJ":1641,"Ġg":1642,"Ġes":1643,"Ġco":1644,"à¦¼?":1645,"à¦¼à§Ĥ":1646,"à¦¾à¦°à¦ľ":1647,"à¦¾à¦°à¦ĵà¦¯":1648,"à¦ķà¦¤":1649,"Ġà¦¬à¦¦à¦°":1650,"à§ĭà¦Ŀ":1651,"à§ĩà¦°à¦ª":1652,"à§ĩà¦°à¦£":1653,"à§įà¦°à¦ªà¦¤":1654,"à§Ģà¦¹":1655,"à§Ģà¦ļ":1656,"Ġà¦¨à¦ķ":1657,"Ġà¦¦à¦°à¦ķ":1658,"à¦¼à§ĩ,":1659,"Ġà¦¤à¦«à¦¸":1660,"à¦¾à¦®à¦Ł":1661,"à¦¿à¦ķà¦°":1662,"Ġà¦°à¦ª":1663,"Ġà¦°à¦¹":1664,"Ġà¦°à¦«":1665,"Ġà¦°à¦ļà¦¨":1666,"à§įà¦Łà¦¨":1667,"Ġà¦Ĺà¦¨":1668,"Ġà¦Ĺà¦Ń":1669,"à¦¾à¦ĩà¦ª":1670,"à¦¾à¦¬à¦Ĺà¦ŀ":1671,"Ġà¦īà¦¡":1672,"Ġà¦Ńà¦¬":1673,"à§ĩà¦¶à¦¬":1674,"Ġà¦ıà¦ķà¦¬":1675,"Ġà¦«à¦Ł":1676,"à§įà¦®à¦¤":1677,"à§įà¦®à¦¬":1678,"à§įà¦®à¦¯":1679,"à§ĥà¦¶":1680,"à¦¾à¦¹à¦¨":1681,"à§įà¦ªà¦·":1682,"Ġà¦Ĩà¦®à¦²":1683,"à§įà¦¡à¦¨":1684,"Ġà¦Łà¦®":1685,"à¦¿à¦ľà¦¯":1686,"à§ĩà¦Łà¦Ł":1687,"à§ģà¦ķà¦°":1688,"à§įà¦¸à¦ª":1689,"à¦Ĩà¦²":1690,"à¦Ĩà¦¬":1691,"à¦Ĩà¦ĵà¦¯":1692,"à§Į-":1693,"à§įà¦ķà¦°":1694,"à§įà¦ķà¦¤":1695,"à§ĩà¦¤à¦°":1696,"à¦¿à¦ªà¦°":1697,"à§įà¦ļà¦¤":1698,"Ġà¦§à¦°à¦¤":1699,"à§ģà¦¬à¦ĩ":1700,"à¦¾à¦ļà¦¨à¦ķ":1701,"à¦¾à¦¥à¦®":1702,"Ġà¦Ĩà¦ĩà¦«":1703,"à¦¾à¦īà¦ķ":1704,"Ġà¦Ĩà¦ľà¦®":1705,"ers":1706,"à¦ħà¦¬":1707,"à§ĥà¦¦à¦¯":1708,"à¦¾à¦īà¦¨à¦²":1709,"ĠSe":1710,"âĢ¦âĢ¦":1711,"Ġà¦ķà¦¨à¦¸":1712,"our":1713,"ĠAn":1714,",à¦ķ":1715,"-à¦¶":1716,"OR":1717,"You":1718,"ce":1719,"fer":1720,"ment":1721,"nlo":1722,"ore":1723,"ter":1724,"Ġ#":1725,"Ġ[":1726,"Ġy":1727,"Ġdow":1728,"à¦¾?":1729,"à¦¿à¦ĺ":1730,"à¦¼à¦ªà¦¤":1731,"à§ĩà¦ĺ":1732,"à§ģ-":1733,"à§ģà§İ":1734,"à¦¾à¦°à¦ĸ":1735,"à¦ķà¦¨":1736,"à¦²à¦¨":1737,"à§ĩà¦°à¦¤":1738,"à§ĩà¦°à¦ĩ":1739,"à§įà¦¯à¦ĵ":1740,"à§Ģà¦·":1741,"Ġà¦Ĩà¦Ł":1742,"Ġà¦®à¦£":1743,"à¦¾à¦¨à¦ľ":1744,"à¦¾à¦¨à¦ļ":1745,"à¦¸à¦¤":1746,"Ġà¦¨à¦Ĺ":1747,"Ġà¦¨à¦ķà¦²":1748,"Ġà¦¦à¦¤":1749,"Ġà¦¹à¦ĩ":1750,"à¦ªà¦¡":1751,"à¦ªà¦¥":1752,"Ġà¦ľà¦¸":1753,"Ġà¦ħà¦¶":1754,"à¦¾à¦²à¦¦":1755,"à¦¾à¦²à¦Ľà¦¡":1756,"à¦¿à¦°à¦¬":1757,"à¦¿à¦°à¦ĩ":1758,"à§įà¦Łà¦ķ":1759,"à§įà¦Łà¦¸":1760,"à¦Ĥà¦°":1761,"à¦¾à¦ĩà¦¤":1762,"à¦¾à¦ĩà¦Ĺ":1763,"Ġà¦ĵà¦¸à¦®":1764,"à§ģà¦°à¦Ĩà¦¨":1765,"à¦¾à¦¬à¦§":1766,"à¦¾à¦¸à¦¸":1767,"à§įà¦·à¦°":1768,"Ġà¦īà¦ĩà¦¨":1769,"à¦§à¦°":1770,"à§ĩà¦²à¦¬":1771,"Ġà¦ıà¦ķà¦°":1772,"Ġà¦ıà¦ķà¦¸":1773,"Ġà¦ĩà¦ķ":1774,"Ġà¦ĩà¦ķà¦¬":1775,"à§įà¦®à¦ĺ":1776,"à§Ĥà¦¡":1777,"à¦¾à¦¹à¦ľ":1778,"à¦¾à¦ªà¦¦":1779,"à¦¾à¦ªà¦Ł":1780,"à§įà¦ªà¦£":1781,"à§įà¦¥à¦Ĺ":1782,"à¦ĵà¦¤":1783,"à¦¿à¦¬à¦¨":1784,"à¦¿à¦¸à¦¹":1785,"à¦¾à¦Ĺà¦¡":1786,"à§ĭà¦¨à¦®":1787,"à§ĩà¦ĸà¦Ľ":1788,"à§įà¦²à¦Ĺ":1789,"à§Įà¦¡":1790,"à¦ıà¦²":1791,"à¦¾à¦Łà¦®":1792,"Ġà¦īà¦ªà¦ķ":1793,"Ġà¦īà¦ªà¦¯":1794,"à¦¿à¦ªà¦¨":1795,"à¦¼à¦¿,":1796,"Ġà¦Ĩà¦¸à¦¬":1797,"à¦ķà¦°à¦¨":1798,"à§ĩà¦ľà¦¨":1799,"Ġà¦ıà¦¸à¦®à¦¯":1800,"Ġà¦ļà¦²à¦¬":1801,"Ġà¦¦à¦²à¦ķ":1802,"à§įà¦°à¦¦à¦°":1803,"Ġà¦Ĩà¦ĩà¦¸":1804,"Ġà¦Ĩà¦¦à¦°":1805,"à¦¾à¦īà¦¡":1806,"à¦¼à¦¤à¦®":1807,"à¦ģà¦ļ":1808,"à¦ĺà¦°":1809,"à¦¿à¦Ĺà¦Ĺ":1810,"Ġà¦ĩà¦¨à¦ķ":1811,"Ġà¦ıà¦¨à¦¸":1812,"à¦¸à¦®à¦°":1813,"Ġà¦ĩà¦īà¦ª":1814,"Ġth":1815,"à¦ħà¦°":1816,"à¦ħà¦Ń":1817,"Ġà¦Ĩà¦¶à¦Ļ":1818,"Ġà¦Ĩà¦ĩà¦¨à¦ľ":1819,"Ġà¦Ĩà¦ĩà¦¨à¦¶":1820,"à¦ıà¦¸à¦¸":1821,"ovem":1822,"à¦¿à¦£à¦¤":1823,"Ġcan":1824,"Ġcess":1825,"Ġnse":1826,"deo":1827,"Ġà¦ħà¦¥à¦ļ":1828,"ĠIn":1829,"ght":1830,"Ġà¦Ĩà¦ļà¦°à¦£":1831,"Ġesse":1832,"nload":1833,"Ġdownload":1834,"&F":1835,"-à¦¯":1836,".à¦ķà¦®":1837,"AT":1838,"be":1839,"ead":1840,"ies":1841,"om":1842,"sra":1843,"tar":1844,"tion":1845,"um":1846,"Ġ)":1847,"Ġd":1848,"Ġon":1849,"Ġde":1850,"ĠYou":1851,"à¦¾...":1852,"à§ĩ)":1853,"à¦¾à¦Ī":1854,"à¦¿à§İà¦ķ":1855,"à¦¼!":1856,"à¦¼:":1857,"à¦¼à§į":1858,"à¦¼à¦Ń":1859,"à¦¼à¦ķà¦°":1860,"à¦¼à¦¾à¦Ĥ":1861,"à§ģ'":1862,"à§ģà¦Ļ":1863,"Ġà¦ķà¦¬à¦°":1864,"à¦²à¦®":1865,"Ġà¦¬à¦ľ":1866,"Ġà¦¬à¦¹à¦¨":1867,"à§ĭà¦ĵ":1868,"Ġà¦ªà¦¯":1869,"à¦¬à¦¹":1870,"à¦®à¦¸":1871,"à¦®à¦ľ":1872,"à§įà¦°à¦ľ":1873,"à§ĢâĢĻ":1874,"à§Ģà¦¸à¦¹":1875,"Ġà¦®à¦¦":1876,"Ġà¦¨à¦¨":1877,"Ġà¦¹à¦°":1878,"à§įà¦¤à¦«":1879,"Ġà¦¤à§İà¦ķ":1880,"à¦Ĺà¦²":1881,"à¦Ĺà¦¬":1882,"à¦Ĺà¦¡":1883,"à¦¾à¦²à¦ª":1884,"à¦¾à¦®à¦Ľ":1885,"à¦¾à¦®à¦¡":1886,"à¦¿à¦¨à¦ķ":1887,"à¦¿à¦°à¦¸":1888,"Ġà¦°à¦¨":1889,"Ġà¦°à¦Ļ":1890,"à¦ľà¦²":1891,"à¦¾à¦ĩà¦¦":1892,"Ġà¦ĵà¦ķ":1893,"Ġà¦ĵà¦Ń":1894,"à§ģà¦°à¦¹":1895,"à¦¾à¦¬à¦¸":1896,"à§ģà¦²à¦¬":1897,"à¦¾à¦¤à¦°":1898,"à¦¿à¦²à¦Ń":1899,"à§įà¦·à¦¨":1900,"à§įà¦·à¦¯":1901,"Ġà¦«à¦¯":1902,"Ġà¦ĩà¦Ļ":1903,"à§ĥà¦¨":1904,"à§ĥà¦ª":1905,"à§įà¦¦à¦¨":1906,"à§Ĥà¦¦":1907,"à¦¾à¦ªà¦¸":1908,"à§įà¦ªà¦¶":1909,"à¦ĵà¦¸":1910,"à¦ĵà¦Ĺ":1911,"Ġà¦¬à¦²à¦¬":1912,"à¦«à¦¤":1913,"à¦«à¦Ł":1914,"à¦«à¦°à¦®":1915,"à§ĭà¦°à¦ķ":1916,"à§įà¦²à¦¬":1917,"à¦¿à¦®à¦¨":1918,"à¦¿à¦®à¦¯":1919,"à§Įà¦¥":1920,"à¦ıà¦¦":1921,"Ġà¦īà¦ªà¦¦":1922,"à¦¿à¥¤âĢĻ":1923,"à§ĩà¦·à¦ķ":1924,"à§ĩà¦¦à¦ķ":1925,"Ġà¦Ĩà¦²à¦¬":1926,"à¦¾à¦°à¦£à¦¤":1927,"à§Ģà¦¨à¦Ĺà¦°":1928,"à¦īà¦ľ":1929,"Ġà¦¸à¦°à¦¬à¦°":1930,"à§ĭà¦®à¦°":1931,"à§ĩà¦ľà¦°":1932,"Ġà¦§à¦°à¦£":1933,"à¦¿à¦ıà¦«":1934,"Ġà¦ħà¦¬à¦¹":1935,"Ġà¦ļà¦²à¦¨à¦¬":1936,"Ġ::":1937,"à§ģà¦ĩà¦Ł":1938,"à¦¿à¦§à¦¨":1939,"Ġà¦Ĩà¦ĩà¦ª":1940,"à¦¾à¦īà¦²":1941,"à¦¼à¦¤à¦¨":1942,"à¦¼à¦¤à¦ª":1943,"à¦¿à¦ĵà¦ļ":1944,"à§ĭà¦¹à¦¨":1945,"à§ĥà¦·à¦ķ":1946,"à¦¾à¦Ļà¦ļ":1947,"à¦Ĥà¦¶à¦Ĺ":1948,"Ġtit":1949,"à¦ħà¦ªà¦°":1950,"Ġà¦Ĩà¦ķà¦¸":1951,"ong":1952,"à§įà¦ĺà¦¨":1953,"à§įà¦ĺà¦Łà¦¨":1954,"à§ĥà¦¹à¦ķà¦°":1955,"Ġsong":1956,"à¦¾à¦¨à¦¬à¦¤":1957,"Ġà¦ĩà¦®à¦°":1958,"ĠPH":1959,"ĠPre":1960,"Ġà¦¦à¦¶à¦ķ":1961,"Ġà¦Īà¦¶":1962,"-à¦¸à¦Ń":1963,"ĠMore":1964,"Ġà¦ĵà¦°à¦«":1965,"Ġfre":1966,"ime":1967,"Ġà¦īà§İà¦¸à¦¬":1968,"Ġvideo":1969,"ĠNovem":1970,"pping":1971,"Ġà¦¬à¦¦à¦²":1972,"à§ĥà¦£à¦®":1973,"Ġà¦¨à¦ķà¦¶":1974,"Ġà¦°à¦¹à¦¸":1975,"ĠNovember":1976,",à¦¸à¦®":1977,"-à¦°":1978,"-à¦Ĺ":1979,"-à¦ļ":1980,"/à¦ª":1981,"ack":1982,"et":1983,"fi":1984,"gin":1985,"ir":1986,"ight":1987,"jo":1988,"rou":1989,"us":1990,"ĠO":1991,"ĠU":1992,"Ġk":1993,"Ġl":1994,"Ġà¥":1995,"Ġma":1996,"Ġun":1997,"Ġwww":1998,"à¦¾'":1999,"à¦°à¦¬":2000,"à§ĩ'":2001,"à§ĩ;":2002,"à¦¼à¦Ĥ":2003,"à§ģà¦Ľ":2004,"à§ģà¦¥":2005,"à§ģà¦ł":2006,"Ġà¦¸à¦ŀ":2007,"à¦²à¦Ĺ":2008,"à¦¬à¦¦à¦¨":2009,"à¦®à¦¸à¦ľ":2010,"à§įà¦°à¦ĩ":2011,"à§Ģ/":2012,"à§Ģà¦Ł":2013,"à§Ģà¦ķà¦°à¦£":2014,"Ġà¦Ĩà¦ĸ":2015,"Ġà¦Ĩà¦ŀ":2016,"Ġà¦Ĩà¦ĵà¦¤":2017,"Ġà¦®à¦¸":2018,"Ġà¦®à§İà¦¸":2019,"Ġà¦¦à¦ĸà¦²":2020,"Ġà¦ħà¦¯":2021,"Ġà¦ħà¦Ł":2022,"Ġà¦ħà¦¬à¦°":2023,"à¦Ĺà¦ķ":2024,"à¦¿à¦ķà¦ķ":2025,"à¦¿à¦ķà¦¬":2026,"à§įà¦¬à¦¦":2027,"Ġà¦¯à¦®":2028,"Ġà¦¯à¦¶":2029,"à¦ĩà¦Ł":2030,"à¦ĩà¦ļ":2031,"à¦ľà¦¯":2032,"Ġà¦¶à¦°à¦£":2033,"à§ģà¦°à¦®":2034,"âĢį":2035,"Ġà¦īà¦ķ":2036,"à¦¶à¦ķ":2037,"à¦¶à¦¤":2038,"à¦§à¦¨":2039,"à§ĩà¦²à¦¸":2040,"Ġà¦ıà¦ķà¦®":2041,"à¦¾à¦ľà¦ķ":2042,"à¦¾à¦ľà¦¬":2043,"à¦¾à¦ľà¦¦":2044,"Ġà¦ĩà¦°":2045,"Ġà¦ĩà¦ľ":2046,"Ġà¦ĩà¦Ń":2047,"Ġà¦²à¦Ļ":2048,"à¦¿à¦¶à¦ķ":2049,"à§ĥà¦¬":2050,"à§įà¦¦à¦²":2051,"à¦¾à¦¹à¦«":2052,"à¦¾à¦ªà¦²":2053,"à¦¾à¦ªà¦®":2054,"à¦ĵà¦ĩ":2055,"à¦¿à¦¸à¦®":2056,"à§įà¦§à¦¬":2057,"à¦¾à¦Ĺà¦Ľ":2058,"à§ĩà¦ĩà¦ľ":2059,"à§ĭà¦¨à¦Ł":2060,"Ġà¦ľà¦¨à¦¸":2061,"Ġà¦ľà¦¨à¦Ĺ":2062,"à¦«à¦¤à¦°":2063,"à¦¿à¦¦à¦«à¦¤à¦°":2064,"âĢĻ-":2065,"à§ĩà¦ĸà¦¬":2066,"à¦¿à¦®à¦¬":2067,"Ġà¦¡à¦Ł":2068,"à§Įà¦ĸ":2069,"à¦ıà¦¡":2070,"à¦¾à¦ģâĢĻ":2071,"à¦¼à¥¤âĢĻ":2072,"ĠâĢĿ":2073,"à§ĩà¦®à¦ª":2074,"à¦¾à¦Łà¦¨":2075,"à¦¼à¦¨à¦ªà¦¤":2076,"à§ĩà¦·à¦ľ":2077,"à§įà¦ļà¦®":2078,"Ġà¦Ĩà¦¸à¦°":2079,"à§ĭà¦Łà¦¦":2080,"Ġà¦ıà¦°à¦ķà¦®":2081,"à§įà¦¤à¦°à¦ķ":2082,"à§Īà¦§":2083,"à§ĩà¦ľà¦Ĺ":2084,"Ġà¦§à¦°à¦®":2085,"à¦¾à¦«à¦°":2086,"Ġà¦¦à¦²à¦Ĺ":2087,"à§ģà¦ĸà¦¬à¦°":2088,"Ġà¦Ĩà¦ľà¦ĵ":2089,"à¦¼à¦ķà¦Ł":2090,"Ġà¦ĩà¦¨à¦¸":2091,"Ġte":2092,"à§ģà¦¸à¦¨":2093,"à§ģà¦¸à¦¹":2094,"Ġà¦Ĩà¦¶à¦°":2095,"âĢĮà¦ļ":2096,"à¦Łà¦ķà¦®":2097,"à§ģà¦Ĺà¦²":2098,"Ġsu":2099,"ĠPr":2100,"Ġà¦Ĩà¦ªà¦²":2101,"Ġà¦Ĺà¦£à¦®":2102,"Ġà¦Ĺà¦£à¦«":2103,"à§ĭà¦ľà¦Ĺ":2104,"à§Ĥà¦ļà¦¨":2105,"Ġbe":2106,"Ġby":2107,"à§įà¦¶à¦ķà¦¦":2108,"lect":2109,"Ġmsra":2110,"Ġinf":2111,"Ġany":2112,"age":2113,"à¦¿à¦Ĩà¦ĩ":2114,"à¦¾.)":2115,"aper":2116,"hman":2117,"ONE":2118,"à¦Īà¦¨":2119,"Ġhttps":2120,"à§ĩà¦ıà¦®":2121,"à¦ıà¦«à¦ª":2122,"ences":2123,"ferences":2124,"ĠPreferences":2125,"Ġà¥¥":2126,"Ġmsrahman":2127,"-à¦Ĩ":2128,".C":2129,"/à¦ı":2130,"ER":2131,"KY":2132,"MS":2133,"OM":2134,"Read":2135,"SI":2136,"SS":2137,"af":2138,"av":2139,"ain":2140,"ahm":2141,"dd":2142,"eb":2143,"hi":2144,"ow":2145,"ri":2146,"ti":2147,"Â©":2148,"Ġ;":2149,"Ġ=":2150,"ĠX":2151,"Ġx":2152,"Ġcom":2153,"Ġla":2154,"Ġim":2155,"à§ĩ.":2156,"à¦¾à¦¢":2157,"à¦¨à¦Ĺà¦°":2158,"à¦¼à¦¯":2159,"à¦¼à¦¬à¦¸":2160,"à§ĩà¦¥":2161,"à§ģà¦ĵ":2162,"à§ģà¦ŀ":2163,"à¦¾à¦°à¦°":2164,"à¦²à¦Łà¦¨":2165,"à§ĭ:":2166,"à§ĭà¦ľà¦¨":2167,"Ġà¦ªà¦¬":2168,"à¦¬à¦Ĺ":2169,"à¦¬à¦§":2170,"à¦®à¦ķ":2171,"à¦®à¦§":2172,"à¦®à¦Ļ":2173,"à§ĩà¦°à¦²":2174,"à§įà¦°à¦Ł":2175,"à§įà¦°à¦®à¦¨":2176,"à§įà¦°à¦¬à¦¨":2177,"à¥¤à¦¬":2178,"à§įà¦¯à¦«":2179,"à§Ģ:":2180,"à§Ģà¦ĩ":2181,"à§Ģà¦¶":2182,"à§Ģà¦ĵ":2183,"Ġà¦®à¦Īà¦¨":2184,"à¦¾à¦¨à¦¯":2185,"Ġà¦ıà¦ıà¦¸":2186,"Ġà¦¨à¦·":2187,"Ġà¦¨à¦°à¦®":2188,"Ġà¦¦à¦®":2189,"Ġà¦¦à¦ª":2190,"Ġà¦¹à¦ł":2191,"à¦¦à¦ª":2192,"à¦ªà¦²":2193,"Ġà¦ľà¦ķ":2194,"Ġà¦¤à§İ":2195,"Ġà¦ħà¦¸à¦®":2196,"à§ĩà¦¨à¦ķ":2197,"à¦¾à¦²à¦Ń":2198,"à¦¾à¦®à¦¯":2199,"à¦¾à¦®à¦ĵ":2200,"à¦¿à¦¨à¦¬":2201,"à¦¿à¦¨à¦¹":2202,"à§įà¦¬à¦¤à¦¨":2203,"Ġà¦°à¦®à¦ľ":2204,"à¦¾à¦ķà¦ļ":2205,"à¦ĩà¦ī":2206,"à¦ĩà¦¸à¦²":2207,"à§įà¦Łà¦¦":2208,"à§įà¦Łà¦«":2209,"à¦ľà¦¤":2210,"Ġà¦¶à¦®à¦¸":2211,"Ġà¦Ĺà¦ł":2212,"Ġà¦ļà¦¬":2213,"Ġà¦ļà¦°à¦®":2214,"à¦¾à¦ĩà¦Ľ":2215,"Ġà¦ĵà¦¦":2216,"Ġà¦ĵà¦ľà¦¨":2217,"à§ģà¦°à¦¨":2218,"à§ģà¦°à¦ķ":2219,"à§ģà¦°à¦¬":2220,"à¦¾à¦¬à¦¦":2221,"à¦¾à¦¬à¦¹":2222,"à¦¾à¦¤à¦¦à¦¨":2223,"à¦¾à¦¦à¦¦":2224,"à¦¾à¦¦à¦£":2225,"à¦£à¦¬":2226,"à¦¿à¦²à¦°":2227,"à¦¿à¦²à¦®":2228,"à¦¿à¦²à¦Ł":2229,"à¦¾à¦¸à¦¬":2230,"à¦¾à¦¸à¦®":2231,"Ġà¦īà¦Ł":2232,"à¦¶à¦°":2233,"Ġà¦Ńà¦Ĺ":2234,"Ġà¦Ńà¦°à¦¸":2235,"à§ĩà¦ķà¦°":2236,"à¦ļà¦ķ":2237,"à§ĩà¦²à¦ª":2238,"Ġà¦ıà¦ķà¦ķ":2239,"Ġà¦«à¦ľà¦²":2240,"à¦¾à¦ľà¦¸":2241,"à¦¾à¦ľà¦Ł":2242,"Ġà¦ĩà¦Ł":2243,"Ġà¦ĩà¦«à¦¤":2244,"à§įà¦®à¦Ĺ":2245,"à§įà¦®à¦ļ":2246,"à§įà¦®à¦°à¦¤":2247,"à§įà¦®à¦¸à¦®à¦°":2248,"à§įà¦®à¦£à¦¬":2249,"Ġà¦ĸà¦²":2250,"à§įà¦¦à¦¶":2251,"à§Ĥà¦ĸ":2252,"à¦¾à¦ªà¦«":2253,"à§įà¦ªà¦ķ":2254,"à§įà¦¥à¦®à¦¨":2255,"à¦¿à¦¸à¦ķ":2256,"à§įà¦§à¦ķ":2257,"à¦¾à¦Ĺà¦²":2258,"Ġà¦Ĩà¦®à¦¨":2259,"Ġà¦Ĩà¦®à¦²à¦ķ":2260,"à§įà¦Ĺà¦°":2261,"à§įà¦¡à¦²":2262,"à§įà¦¡à¦ª":2263,"à¦¿à¦¦à¦²":2264,"âĢĻà¦²":2265,"à§ĭà¦°à¦¬":2266,"à§ĭà¦°à¦£":2267,"à§ģà¦ķà¦¯":2268,"à§įà¦¸à¦®":2269,"à§įà¦¸à¦ıà¦¸":2270,"à§Įà¦®":2271,"à¦ıà¦¬":2272,"à¦ıà¦Ľ":2273,"à§įà¦ķà¦Ł":2274,"Ġà¦ıà¦ĩà¦¸à¦¬":2275,"à§ĩà¦®à¦¬":2276,"à¦¾à¦Łà¦°":2277,"à¦¾à¦Łà¦¸à¦®":2278,"à¦¾à¦Łà¦«à¦°":2279,"à§ĥà¦¤à¦ľ":2280,"à§ģà¦¦à¦£":2281,"à¦ĥà¦¸":2282,"à§įà¦¯à¦¬à¦¦":2283,"à¦¿à¦Ĥ,":2284,"à¦¿à¦Ĥ-":2285,"à¦¿à¦Ĥà¥¤":2286,"à§ĭà¦Łà¦°à¦¸":2287,"à¦¾à¦ĸà¦²":2288,"à¦¾à¦ĸà¦¬":2289,"à§Īà¦ļ":2290,"Ġà¦Ĩà¦Ĺà¦·":2291,"à§ĭà¦®à¦§":2292,"à¦ªà¦°à¦¤":2293,"à§ĭà¦ķà¦¨":2294,"à§ģà¦¬à¦¨":2295,"à¦¿à¦ıà¦²":2296,"à¦¿à¦ıà¦ĩà¦ļ":2297,"Ġà¦ıà¦¸à¦ıà¦¸à¦¸":2298,"Ġà¦Ĩà¦¨à¦¤":2299,"à§ĭà¦§à¦ªà¦¦":2300,"à§Ĥà¦²à¦§à¦¨":2301,"Ġà¦ĺà¦Łà¦Ľ":2302,"Ġà¦Ĩà¦ĩà¦ľ":2303,"Ġà¦¸à¦¹à¦¸à¦Ń":2304,"à§ĭà¦¬à¦ĩ":2305,"à¦ĺà¦Łà¦¨":2306,"à¦¼à§Ģ,":2307,"Ġà¦®à¦¤à¦¬":2308,"Ġà¦ıà¦ĸà¦¨à¦ĩ":2309,"à¦¾à¦ĩà¦Łà¦Ł":2310,"à¦¸à¦®à¦ķ":2311,"à¦¾à¦ĩà¦¨à¦¬":2312,"Ġtam":2313,"Ġà¦ªà¦¦à¦¤":2314,"à§ģà¦§à¦°":2315,"Ġà¦Ĩà¦ķà¦¬à¦°":2316,"Ġà¦ıà¦¤à¦¦":2317,"Ġà¦ıà¦®à¦¨à¦Ł":2318,"à¦¿à¦«à¦²":2319,"Ġà¦Ĩà¦¹à¦¬":2320,"à§Ģà¦®à¦īà¦¦":2321,"à¦ıà¦°à¦ªà¦°":2322,"end":2323,"à§Ģà¦¬à¦¨à¦¯":2324,"à¦¸à¦¹à¦ķ":2325,"Ġà¦ıà¦®à¦¸":2326,"à§įà¦°à¦ļà¦²":2327,"attar":2328,"à§ĥà¦¹à¦¤":2329,"à§ģà¦¶à¦«":2330,"Ġse":2331,"Ġà¦ķà¦¨à¦Ł":2332,"à¦¾à¦¨à¦¬à¦¬à¦¨":2333,"Ġà¦īà¦łà¦²":2334,"Ġà¦īà¦łà¦¤":2335,"à§ĩà¦®à¦¨à¦Ł":2336,"à§įà¦°à¦¹à¦£à¦ķ":2337,"Ġà¦¸à¦«à¦Ł":2338,"ĠCh":2339,"ited":2340,"Ġcns":2341,"Ġà¦¦à¦¶à¦Ł":2342,"Ġà¦Ĩà¦²à¦®à¦Ĺ":2343,"à¦¾à¦ĩà¦®à¦¸":2344,"à¦¿à¦ıà¦¸à¦ĩ":2345,"à¦¾à¦Ĺà¦ľà¦ªà¦¤":2346,"ĠBangla":2347,"Ġà¦ķà¦¤à¦Ł":2348,"à§ģà¦«à¦²":2349,"Ġà¦·à¦¡":2350,"à§ĥà¦¥à¦ķ":2351,"à§Įà¦²à¦¤":2352,"à¦¾à¦®à¦Ĺà¦¡":2353,"Ġhttp":2354,"outu":2355,"link":2356,"à¦¼à§Ĥ,":2357,"Ġà¦Ĩà¦ľà¦®à¦²":2358,"Ġtits":2359,"Ġsongs":2360,"ĠPHONE":2361,"à¦¼à¦¯à¦¨":2362,"Ġà¦¤à§İà¦ªà¦°à¦¤":2363,"Ġtamil":2364,"ĠPHONEKY":2365,")-":2366,")/":2367,"-f":2368,"-à¦Ł":2369,".f":2370,"/à¦¨":2371,"/à¦¡":2372,"AC":2373,"IC":2374,"NE":2375,"Un":2376,"ab":2377,"ay":2378,"az":2379,"bad":2380,"ds":2381,"du":2382,"day":2383,"ig":2384,"ly":2385,"oc":2386,"po":2387,"por":2388,"ption":2389,"qu":2390,"rgin":2391,"ure":2392,"ust":2393,"ya":2394,"youtu":2395,"ĉRead":2396,"ĠG":2397,"ĠK":2398,"ĠV":2399,"Ġo":2400,"Ġen":2401,"Ġit":2402,"ĨĴ":2403,"à§ĩ...":2404,"à§įâĢĮ":2405,"à§įâĢį":2406,"à¦¿à§İ":2407,"à¦¿...":2408,"à¦¿âĢ¦":2409,"à¦¿)à¥¤":2410,"à¦¨à¦¤":2411,"à¦¨à¦°à¦¸":2412,"à¦¼à¦ĵ":2413,"à¦¼à¦¿à¦Ĥ":2414,"à¦¾à¦°à¦«à¦°à¦®":2415,"Ġà¦¸à¦²":2416,"Ġà¦¸à¦¸":2417,"Ġà¦¸à¦ĵ":2418,"à¦²à¦ª":2419,"Ġà¦¬à¦Ł":2420,"Ġà¦¬à¦¶":2421,"Ġà¦¬à¦ī":2422,"à¦¤à¦²":2423,"à§ĭ?":2424,"Ġà¦ªà¦Ł":2425,"à§įà¦°à¦·":2426,"à§įà¦°à¦ªà¦ķ":2427,"à§įà¦°à¦Ĺà¦¤":2428,"à¥¤\"":2429,"à§įà¦¯à¦²":2430,"à§įà¦¯à¦¥":2431,"à§įà¦¯à¦Ļ":2432,"à§Ģà¦ĺ":2433,"Ġà¦Ĩà¦Ļ":2434,"Ġà¦Ĩà¦ķà¦°":2435,"Ġà¦®à¦¶":2436,"à¦¾à¦¨à¦°":2437,"à¦¸à¦Ļ":2438,"Ġà¦ıà¦ıà¦«à¦ª":2439,"Ġà¦¨à¦°":2440,"Ġà¦¨à¦ĩ":2441,"Ġà¦¨à¦ĵà¦Ĺ":2442,"Ġà¦¹à¦Ł":2443,"à¦¦à¦ķ":2444,"à¦ªà¦Ł":2445,"à¦ªà¦ŀ":2446,"à¦Łà¦¸":2447,"à¦¼à¦¾)":2448,"Ġà¦ħà¦·":2449,"à§ĩà¦¨à¦¸":2450,"à§ĩà¦¨à¦ª":2451,"à¦Ĺà¦¨":2452,"à¦¾à¦®à¦¬":2453,"à¦¾à¦®à¦ª":2454,"à¦¾à¦®à¦Ĺà¦ŀ":2455,"à¦¿à¦¨à¦ĩ":2456,"à¦¿à¦ķà¦¶":2457,"à¦¿à¦ķà¦Ĺà¦ŀ":2458,"à¦¿à¦ķà¦Ľà¦¡":2459,"à¦¿à¦°à¦²":2460,"à¦¿à¦°à¦Ń":2461,"à¦¿à¦°à¦¸à¦¨":2462,"Ġà¦°à¦¥":2463,"à¦¹à¦°":2464,"à¦¾à¦ķà¦Ł":2465,"à¦¾à¦ķà¦Ľ":2466,"à¦¾à¦ķà¦¶à¦¨":2467,"à¦Ľà¦¬":2468,"à¦ĩà¦¤":2469,"à§įà¦Łà¦ľ":2470,"à¦¿à¦¤à¦°à¦£":2471,"Ġà¦¶à¦¯":2472,"à¦¾à¦ĩà¦¹":2473,"Ġà¦ĵà¦¸":2474,"à¦¡à¦¬":2475,"à§ģà¦°à¦Ĺ":2476,"à¦¾à¦¬à¦ķ":2477,"à¦¾à¦¬à¦Ł":2478,"à¦¾à¦¬à¦¶":2479,"à§ģà¦²à¦ķ":2480,"à¦¾à¦¤à¦¤":2481,"à¦¾à¦¤à¦Ł":2482,"à¦¾à¦¤à¦ķà¦°à¦£":2483,"âĢĵ":2484,"à¦¾à¦¦à¦®":2485,"à¦¿à¦²à¦¤":2486,"à¦¿à¦²à¦¬":2487,"à¦¾à¦¸à¦¤":2488,"Ġà¦īà¦·":2489,"Ġà¦ªà¦°à¦®":2490,"Ġà¦ªà¦°à¦ĵ":2491,"à§ĩà¦¶à¦ľ":2492,"à§ĩà¦ķà¦¦":2493,"à§ĩà¦ķà¦¶à¦¨":2494,"à§ĩà¦²à¦²":2495,"à§ĩà¦²à¦«":2496,"Ġà¦«à¦¨":2497,"Ġà¦«à¦¤":2498,"à¦¾à¦ľà¦°":2499,"à¦¾à¦ľà¦ª":2500,"à¦¾à¦ľà¦Ĺà¦ŀ":2501,"Ġà¦¸à¦®à¦ķ":2502,"Ġà¦¹à¦¯à¦°à¦¤":2503,"Ġà¦²à¦®":2504,"à§įà¦®à¦°":2505,"à§įà¦®à¦°à¦£":2506,"à§įà¦®à¦¹à¦¤":2507,"à§ĥà¦Ł":2508,"à§ĥà¦Ĥ":2509,"à§ĥà¦¢":2510,"Ġà¦ĸà¦¸":2511,"à§įà¦¦à¦¬":2512,"à§įà¦¦à¦®":2513,"Ġà¦Ľà¦¹":2514,"à§įà¦ªà¦Ł":2515,"à§įà¦¥à¦¤":2516,"à¦ĵà¦Ł":2517,"à¦¿à¦¬à¦²":2518,"à¦¿à¦¬à¦Ľà¦°":2519,"à¦¿à¦¸à¦Ń":2520,"à¦¾à¦Ĺà¦¸":2521,"à§ĩà¦ĩà¦¸":2522,"Ġà¦ľà¦¨à¦¤":2523,"Ġà¦ľà¦¨à¦¸à¦Ń":2524,"à§ģà¦¨à¦¤":2525,"à§ģà¦¨à¦¬":2526,"à¦¾à¦¡à¦Ń":2527,"à¦«à¦²":2528,"à§įà¦Ĺà¦¨":2529,"à§įà¦Ĺà¦²":2530,"à§įà¦¡à¦ķ":2531,"à§įà¦¡à¦¬":2532,"à§įà¦¡à¦¸":2533,"Ġà¦Łà¦¨":2534,"à§Ģà¦°à¦¬":2535,"à¦¿à¦ľà¦¦":2536,"âĢĻ,":2537,"à§ĭà¦°à¦Ĺ":2538,"à¦¾à¦ļà¦ķ":2539,"à§įà¦¸à¦ķ":2540,"à§įà¦¸à¦ļ":2541,"à¦¿à¦®à¦¦":2542,"à§įà¦ľà¦¯":2543,"à¦¿à¦Łà¦²":2544,"à§įà¦¨à¦¬":2545,"à¦Ĩà¦¯":2546,"à¦Ĩà¦¦":2547,"à¦Ĩà¦¸à¦¨":2548,"à§Įà¦¹":2549,"à¦ıà¦¤":2550,"à¦ıà¦Ł":2551,"à¦ıà¦ķà¦Ł":2552,"à§įà¦ķà¦®à¦°":2553,"à§ĩà¦®à¦¸":2554,"à¦¾à¦Łà¦Ĺ":2555,"Ġà¦īà¦ªà¦²à¦¬":2556,"à¦¼à¦¨à¦ķ":2557,"à¦¿à¦ªà¦¸":2558,"à§įà¦ļà¦°":2559,"à§įà¦ļà¦¨":2560,"à¦¾à¦ĵà¦¨":2561,"à§ģà¦¦à¦ķ":2562,"à§ģà¦®à¦°":2563,"à§ģà¦®à¦¦":2564,"Ġà¦ıà¦°à¦ĩ":2565,"à§Ģà¦¨à¦¸":2566,"à¦īà¦¨":2567,"à¦īà¦ķ":2568,"ĠâĢĺâĢĺ":2569,"à§ĩà¦ľà¦ķ":2570,"à§ĩà¦ľà¦Ľ":2571,"à§ĭà¦ķà¦¦":2572,"à§ģà¦·à¦¦":2573,"à§įà¦łà¦ª":2574,"Ġà¦ħà¦¬à¦¦":2575,"à¦¾à¦£à¦¬":2576,"Ġà¦ķà¦®à¦²":2577,"Ġà¦ķà¦®à¦¤":2578,"Ġà¦¸à¦¬à¦ķ":2579,"Ġà¦¸à¦¬à¦ľ":2580,"Ġà¦ıà¦¸à¦ıà¦®":2581,"à¦¿à¦Ľà¦¨":2582,"à§ģà¦Łà¦ª":2583,"Ġà¦¸à¦Ļà¦ĺ":2584,"à§ĭà¦²à¦ķ":2585,"Ġà¦¦à¦²à¦Ł":2586,"à§ģà¦ĩà¦¸":2587,"à¦Ĥà¦¸à¦°":2588,"à§įà¦¯à¦®à¦¯":2589,"Ġà¦Ĩà¦ĩà¦¡":2590,"Ġà¦Ĩà¦ĩà¦Ń":2591,"Ġà¦Ĩà¦ĩà¦ıà¦¸":2592,"Ġà¦ıà¦²à¦ľ":2593,"ind":2594,"Ġà¦Ĩà¦ľà¦¬":2595,"Ġà¦Ĩà¦ľà¦¹":2596,"à¦ģà¦ķ":2597,"à¦¿à¦ĵà¦Ł":2598,"Ġà¦ĩà¦¨à¦Ń":2599,"à§ĭà¦¹à¦£":2600,"à¦¾à¦Ļà¦¤":2601,"à¦¾à¦ĩà¦Łà¦¸":2602,"Ġà¦ĩà¦īà¦ľ":2603,"à§ĭà¦·à¦ľà¦¨à¦ķ":2604,"Ġtime":2605,"à¦ħà¦ª":2606,"Ġà¦ħà¦¸à¦¹":2607,"Ġà¦ħà¦¬à¦¸à¦°":2608,"à¦¿à¦ĸà¦¤":2609,"à§İà¦¸à¦°":2610,"Ġà¦Ĩà¦¶à¦ª":2611,"à§Īà¦°à¦¬":2612,"à¦°à¦ķà¦®":2613,"à¦Ĥà¦Ĺà¦ł":2614,"Ġà¦ħà¦ªà¦®":2615,"ovies":2616,"ata":2617,"ĠSI":2618,"ĠSaf":2619,"à§ĥà¦¹à¦¬à¦§":2620,"à§ĩà¦īà¦²":2621,"à§ĩà¦īà¦ĩ":2622,"rect":2623,"Ġà¦ķà¦¨à¦«":2624,"Ġà¦īà¦łà¦¬":2625,"Ġà¦ªà¦¥à¦ļ":2626,"Ġà¦ĩà¦®à¦¦":2627,"ĠPro":2628,"Ġà¦Ĩà¦ªà¦¡":2629,"Ġà¦Ĺà¦£à¦¤":2630,"Ġà¦¸à¦«à¦°à¦ķ":2631,"à¦Ĺà¦¤à¦ķ":2632,"ĠAdd":2633,"à¦¿à¦ĩà¦ī":2634,"Ġab":2635,"Ġam":2636,"Ġcap":2637,"Ġà¦Ńà¦¬à¦¨à¦Ł":2638,"ori":2639,"Ġà¦¦à¦°à¦ľ":2640,"Ġbun":2641,"âĢĿà¥¤":2642,"à¦Ĩà¦ĩà¦¸":2643,"à¦Ĩà¦ĩà¦«":2644,"ades":2645,"à§ģà¦Ńà¦¬":2646,"Ġà¦¤à¦ĸà¦¨à¦ĩ":2647,"Ġà¦īà¦ĩà¦²":2648,"Ġmovies":2649,"à¦ıà¦ķà¦ĩ":2650,"à§ĩà¦ļà¦¨":2651,"à¦ıà¦ĩà¦ļ":2652,"une":2653,"Ġfor":2654,"à§ģà¦¸à¦²à¦®":2655,"à¦¾à¦ĩà¦¡à¦²":2656,"à§įà¦Ńà¦¬à¦¤":2657,"agra":2658,"ĠDe":2659,"ĠData":2660,"à¦¾à¦Ĺà¦ľà¦¹":2661,"à¦¾à¦°à¦ªà¦°à¦ĵ":2662,"Ġà¦Īà¦¦à¦Ĺ":2663,"ĠâĨĴ":2664,"Ġà¦·à¦·":2665,"Ġà¦ĩà¦²à¦®":2666,"à¦¾à¦¶à¦ķà¦¤":2667,"ĠWin":2668,"Ġvirgin":2669,"ÂłĠÂł":2670,"direct":2671,"ists":2672,"à¦¿à¦Ĩà¦°à¦Ł":2673,"à§ĩà¦ıà¦¸":2674,"à¦īà¦ªà¦ľ":2675,"à¦ħà¦¬à¦¶":2676,"ĠSelect":2677,"tern":2678,"Ġà¦¹à¦ĩà¦¬":2679,"à§įà¦®à¦ĺà¦Ł":2680,"à¦ģà¦ļà¦¡":2681,"omi":2682,"à§ĭà¦ĵà¦²":2683,"à¦¾à¦ĩà¦¦à¦¹":2684,"Ġfree":2685,"Ġsuahm":2686,"à¦¿à¦Ĩà¦ĩà¦¡à¦¬":2687,"ave":2688,"hipping":2689,"Ġà¦ıà¦ıà¦¸à¦ª":2690,"Ġà¦¸à¦«à¦Łà¦ĵà¦¯":2691,"United":2692,"à§įâĢįâĢĮ":2693,"Ġà¦¸à¦Ļà¦ĺà¦¬à¦¦":2694,"Ġvirgins":2695,"Ġsuahmed":2696,"'à¦¸":2697,"-à¦¹":2698,"-à¦ĵ":2699,"-à¦ī":2700,"-à¦¢":2701,"/à¦°":2702,"/à¦®":2703,"/à¦ĵà¦¯":2704,":-":2705,"@k":2706,"AN":2707,"Ah":2708,"EC":2709,"ION":2710,"OL":2711,"SY":2712,"ac":2713,"ak":2714,"ach":2715,"ace":2716,"boo":2717,"cre":2718,"dle":2719,"eg":2720,"ff":2721,"go":2722,"gor":2723,"gal":2724,"if":2725,"ide":2726,"ke":2727,"ll":2728,"lic":2729,"less":2730,"ml":2731,"mAh":2732,"ned":2733,"os":2734,"ox":2735,"paper":2736,"res":2737,"so":2738,"ss":2739,"sw":2740,"sit":2741,"tw":2742,"tain":2743,"ul":2744,"uck":2745,"uage":2746,"went":2747,"wjo":2748,"||":2749,"ĉà¦¬":2750,"Ġj":2751,"Ġv":2752,"Ġat":2753,"Ġre":2754,"Ġlo":2755,"Ġ>>":2756,"Ġlink":2757,"Ġ||":2758,"Ķà¦·":2759,"Ġà¦Ĭ":2760,"Ġà¦Ķà¦·":2761,"à¦¾âĢĮ":2762,"à¦¾),":2763,"à¦°à¦¯":2764,"à¦°à¦ĩ":2765,"à§ĩâĢĶ":2766,"à¦¿;":2767,"à¦¿=":2768,"à¦¨à¦ķ":2769,"à¦¨à¦Ł":2770,"à¦¨à¦ĵà¦Ĺ":2771,"à¦¼;":2772,"à¦¼à¦Ļ":2773,"à¦¾à¦°à¦ļ":2774,"à¦ķà¦¥":2775,"Ġà¦ķà¦Ł":2776,"Ġà¦ķà¦ĩ":2777,"Ġà¦ķà¦¡":2778,"Ġà¦ķà¦Ń":2779,"Ġà¦ķà¦ļ":2780,"Ġà¦ķà¦¦à¦°":2781,"Ġà¦¬à¦§":2782,"Ġà¦¬à¦ļ":2783,"à¦¤à¦¤":2784,"à§ĭà¦Ľà¦¨":2785,"Ġà¦ªà¦¨":2786,"Ġà¦ªà¦¹":2787,"Ġà¦ªà¦¤à¦¨":2788,"à¦¬à¦¯":2789,"à¦¬à¦¦à¦°":2790,"à§ĩà¦°à¦°":2791,"à§įà¦°à¦ĸ":2792,"à§įà¦°à¦ľà¦¨":2793,"à¦¯à¦®":2794,"à¥¤à¦¨":2795,"à¥¤à¦¤":2796,"à¥¤à¥¤":2797,"à§įà¦¯à¦Ĺ":2798,"à§įà¦¯à¦Ń":2799,"à§įà¦¯à¦Łà¦ķ":2800,"à§įà¦¯à¦°à¦¤":2801,"à§įà¦¯à¦Łà¦¨":2802,"à§Ģ'":2803,"à§Ģ)":2804,"à§Ģà¦Ľà¦¡":2805,"Ġà¦Ĩà¦Ń":2806,"Ġà¦®à¦²":2807,"Ġà¦®à¦®à¦¤":2808,"Ġà¦®à¦ļà¦ķ":2809,"à¦¾à¦¨à¦ª":2810,"à¦¾à¦¨à¦¡":2811,"à¦¾à¦¨à¦Ń":2812,"à¦¾à¦¨à¦¸à¦¹":2813,"à¦¸à¦°à¦ķ":2814,"Ġà¦¦à¦¯":2815,"à¦¦à¦¶":2816,"à§įà¦¤à¦²":2817,"à§įà¦¤à¦ļ":2818,"à¦ªà¦¬":2819,"Ġà¦ľà¦Ł":2820,"Ġà¦ľà¦Ĺà¦¤":2821,"Ġà¦¤à¦¨":2822,"Ġà¦ħà¦®à¦¨":2823,"à§ĩà¦¨à¦®":2824,"à§ĩà¦¨à¦Ĺ":2825,"à§ĩà¦¨à¦ĩ":2826,"à§ĩà¦¨à¦¶à¦¨":2827,"à¦Ĺà¦¦":2828,"à¦Ĺà¦łà¦¨":2829,"à¦¾à¦²à¦¸":2830,"à¦¾à¦²à¦Ĺà¦°":2831,"à¦¾à¦®à¦¦":2832,"à¦¿à¦¨à¦²":2833,"à¦¿à¦ķà¦¨":2834,"à¦¿à¦ķà¦°à¦£":2835,"à¦¿à¦°à¦®":2836,"à¦¿à¦°à¦Ł":2837,"à¦¿à¦°à¦Ĺà¦ŀ":2838,"à§įà¦¬à¦Ł":2839,"à§įà¦¬à¦ľ":2840,"à§įà¦¬à¦Ń":2841,"Ġà¦°à¦ĵ":2842,"Ġà¦°à¦ľà¦¤":2843,"à¦¹à¦¬":2844,"à¦¹à¦£":2845,"à¦¾à¦ķà¦¨":2846,"à¦ĩà¦Ľà¦²":2847,"à§įà¦Łà¦²":2848,"à¦¿à¦¤à¦Ń":2849,"Ġà¦¶à¦Ļ":2850,"Ġà¦Ĺà¦¯":2851,"Ġà¦Ĺà¦¦":2852,"Ġà¦Ĺà¦ª":2853,"Ġà¦ļà¦®":2854,"à¦¾à¦ĩà¦¶":2855,"à¦¾à¦ĩà¦ĺ":2856,"Ġà¦ĵà¦ª":2857,"Ġà¦ĵà¦·":2858,"Ġà¦ĵà¦ıà¦¸":2859,"Ġà¦ĵà¦®à¦°":2860,"à¦¡à¦Łà¦ķà¦®":2861,"à¦¾à¦¬à¦®":2862,"à¦¾à¦¬à¦Ľ":2863,"à¦¾à¦¬à§İ":2864,"à§ģà¦²à¦ª":2865,"à§ģà¦²à¦Ľ":2866,"à§ģà¦²à¦Ń":2867,"à§ģà¦²à¦«":2868,"à¦¾à¦¤à¦²":2869,"à¦¾à¦¦à¦¤":2870,"à¦¿à¦²à¦Ļ":2871,"à¦¾à¦¸à¦Ł":2872,"à¦¾à¦¸à¦¡":2873,"à¦¾à¦¸à¦«":2874,"à§įà¦·à¦¸":2875,"à§įà¦·à¦¦":2876,"à§įà¦·à¦ª":2877,"Ġà¦Ńà¦Ł":2878,"Ġà¦ªà¦°à¦°":2879,"à§ĩà¦¶à¦Ĺ":2880,"à§ĩà¦¶à¦ĸ":2881,"à§ĩà¦ķà¦ķ":2882,"à¦ļà¦®":2883,"à§ĩà¦²à¦ľ":2884,"à§ĩà¦²à¦ĸ":2885,"à§ĩà¦²à¦ĵà¦¯":2886,"Ġà¦ıà¦ķà¦¤":2887,"Ġà¦ıà¦ķà¦¥":2888,"Ġà¦ıà¦ķà¦ªà¦°":2889,"Ġà¦«à¦¸à¦²":2890,"à¦¾à¦ľà¦ķà¦²":2891,"Ġà¦ĩà¦¸à¦®":2892,"à§įà¦®à¦ľ":2893,"à§įà¦®à¦Ń":2894,"à§įà¦®à¦ĵ":2895,"à§ĥà¦ľà¦¨":2896,"Ġà¦ĸà¦¤":2897,"Ġà¦ĸà¦¤à¦®":2898,"Ġà¦ĸà¦¸à¦°":2899,"à§įà¦¦à¦¦":2900,"à§Ĥà¦ķ":2901,"à§Ĥà¦ªà¦ķ":2902,"à¦¾à¦¹à¦°à¦£":2903,"à§įà¦ªà¦ķà¦²":2904,"à§įà¦¥à¦ķ":2905,"à§įà¦¥à¦ĸà¦²":2906,"à¦ĵà¦ķ":2907,"à¦¿à¦¬à¦¹à¦£":2908,"à¦¿à¦¸à¦°":2909,"à§įà¦§à¦Ń":2910,"à¦¾à¦Ĺà¦¨":2911,"à¦¾à¦Ĺà¦ĩ":2912,"à§ĩà¦ĩà¦ķ":2913,"à§ĩà¦ĩà¦®":2914,"Ġà¦ħà¦¨à¦¨":2915,"à§ģà¦¨à¦ķ":2916,"à§ģà¦¨à¦²":2917,"à§įà¦Ĺà¦ķ":2918,"à§įà¦Ĺà¦®":2919,"à§įà¦Ĺà¦¦":2920,"à¦·à¦®":2921,"à§įà¦¡à¦®":2922,"Ġà¦Łà¦¸":2923,"à¦¿à¦¦à¦®":2924,"à§Ģà¦°à¦¤":2925,"à¦¿à¦ľà¦¨":2926,"à¦¿à¦ľà¦®":2927,"à¦¿à¦ľà¦¡":2928,"âĢĻs":2929,"à§ĩà¦ĸà¦¯":2930,"à§ĭà¦°à¦¦":2931,"à¦¾à¦ļà¦Ł":2932,"à§ĩà¦Łà¦ľ":2933,"à§ĩà¦Łà¦ĵà¦¯":2934,"à§įà¦¸à¦Ĺ":2935,"à¦¿à¦®à¦°":2936,"à¦¿à¦®à¦Ĺ":2937,"à¦¿à¦®à¦§":2938,"à¦¿à¦®à¦īà¦¦":2939,"à§įà¦ľà¦²":2940,"à§įà¦¨à¦®":2941,"Ġà¦¡à¦Łà¦ķà¦®":2942,"à¦Ĩà¦ī":2943,"à¦Ĩà¦ĩà¦¨":2944,"à¦¿à¦Ńà¦ķ":2945,"à§ĭà¦Ĺà¦Ł":2946,"à§Įà¦¬à¦¨":2947,"à§Įà¦¤à¦®":2948,"à¦ıà¦Ń":2949,"à¦ıà¦®à¦¨":2950,"à§įà¦ķà¦¯":2951,"ĠâĢį":2952,"Ġà¦ĺà¦·":2953,"Ġà¦īà¦ªà¦¨":2954,"Ġà¦īà¦ªà¦¹":2955,"Ġà¦īà¦ªà¦¶":2956,"à¦¿à¦ªà¦¦":2957,"à¦¼à¦¿âĢĻ":2958,"à§ĩà¦·à¦Ń":2959,"à§įà¦ļà¦Ĺà¦¡":2960,"à§ĥà¦¤à¦°":2961,"à§ĥà¦¤à¦¦":2962,"à§ģà¦¦à¦¹":2963,"à§ģà¦®à¦¡":2964,"à§ĩà¦¬à¦ķ":2965,"à§ĩà¦¬à¦¤":2966,"à§ĩà¦¬à¦¦":2967,"à¦ĥ)":2968,"à§ĩà¦¦à¦ªà¦¤":2969,"Ġà¦Ĩà¦¸à¦ķ":2970,"Ġà¦Ĩà¦²à¦¤":2971,"Ġà¦ıà¦°à¦¶":2972,"à§įà¦¤à¦°à¦£":2973,"à¦¾à¦ĸà¦Ľ":2974,"à§Īà¦²":2975,"à§Īà¦¦":2976,"à§Īà¦ĸ":2977,"à§Īà¦ķà¦¤":2978,"à§Īà¦·à¦®":2979,"à¦¾à¦°à¦£à¦Ń":2980,"à§Ģà¦¨à¦¦":2981,"à¦īà¦°":2982,"à§įà¦¬à¦°à¦Ĺà¦ŀ":2983,"Ġà¦¸à¦°à¦¦":2984,"Ġà¦¸à¦°à¦ŀ":2985,"à§ģà¦¬à¦¤":2986,"à§ģà¦¬à¦Ĺ":2987,"Ġà¦ħà¦¬à¦Ĺà¦¤":2988,"Ġà¦ħà¦¬à¦²à¦®":2989,"Ġà¦ķà¦®à¦ªà¦ķ":2990,"Ġà¦¸à¦¬à¦¸à¦®à¦¯":2991,"Ġà¦ıà¦¸à¦Ĩà¦ĩ":2992,"à¦¾à¦Ľà¦Ł":2993,"Ġà¦ļà¦²à¦¨":2994,"Ġà¦ļà¦²à¦²":2995,"Ġà¦ļà¦²à¦®":2996,"à¦¿à¦īà¦®":2997,"à¦¿à¦īà¦¦":2998,"à¦¿à¦īà¦ĩ":2999,"à¦¿à¦īà¦¶à¦¨":3000,"à§ģà¦ĩà¦¬":3001,"à§ģà¦ĩà¦ļ":3002,"à§ģà¦ĩà¦ľà¦¨":3003,"Ġà¦Ĩà¦¨à¦¸":3004,"à§ĭà¦§à¦¯":3005,"à§įà¦°à¦¦à¦ķ":3006,"à§įà¦¯à¦®à¦¤":3007,"Ġà¦Ĩà¦ĩà¦°":3008,"Ġà¦Ĩà¦ĩà¦ĵà¦Ł":3009,"à§ģà¦ĸà¦ª":3010,"à¦¿à¦¡à¦²":3011,"à§ģà¦ªà¦ļ":3012,"à¦¾à¦ĩà¦²à¦Ł":3013,"à§ĩà¦¶à¦¨à¦Ł":3014,"à§įà¦¯à¦ķà¦²":3015,"à¦¾à¦°à¦¤à¦¬à¦°":3016,"à¦ĺà¦¨":3017,"à¦¿à¦Ĺà¦°":3018,"Ġà¦ĩà¦¨à¦«":3019,"à¦¼à§Ģà¥¤":3020,"à§įà¦£à¦¨":3021,"à§įà¦£à¦§":3022,"à¦¾à¦łà¦Ł":3023,"Ġà¦ķà¦²à¦Ļ":3024,"Ġà¦ķà¦²à¦ķà¦¬":3025,"ant":3026,"à§Įà¦¨à¦ķ":3027,"à§įà¦°à¦¬à¦£":3028,"Ġtwent":3029,"Ġà¦ªà¦¦à¦Ł":3030,"à§įà¦°à¦¥à¦®à¦¤":3031,"erk":3032,"à¦ħà¦¤":3033,"à¦ħà¦§":3034,"Ġà¦ħà¦¬à¦¸à¦°à¦ª":3035,"à§ĭà¦¤à¦²":3036,"Ġà¦ıà¦¤à¦ķ":3037,"Ġà¦ıà¦¤à¦Ł":3038,"à§įà¦·à¦£à¦ĩ":3039,"Ġà¦¸à¦¨à¦¦à¦ªà¦¤":3040,"à§Ģà¦²à¦¨":3041,"à§Ģà¦²à¦Ļ":3042,"à¦¿à¦«à¦Ł":3043,"Ġà¦Ĩà¦¹à¦¸":3044,"à§Ģà¦®à¦Ļ":3045,"à§ĭà¦ªà¦ļ":3046,"à¦¾à¦²à¦¤à¦ķ":3047,"âĢĮà¦°":3048,"âĢĮà¦¯":3049,"à§Ģà¦¬à¦¨à¦°":3050,"Ġà¦ħà¦ªà¦¬":3051,"Ġà¦ħà¦ªà¦¹":3052,"Ġà¦ħà¦ªà¦ļ":3053,"Ġà¦ħà¦ªà¦¶à¦¨":3054,"à§įà¦ĺà¦®":3055,"à§įà¦¦à¦°à¦¬à¦¨":3056,"atur":3057,"à§ĥà¦¹à§İ":3058,"âĢ¦]":3059,"red":3060,"ill":3061,"à§ģà¦¶à¦ķ":3062,"à¦¾à¦ľà¦¨à¦ķ":3063,"Ġà¦ķà¦¬à¦²":3064,"Ġshipping":3065,"Ġà¦ķà¦¨à¦Ń":3066,"oun":3067,"à¦¾à¦¨à¦¬à¦ľ":3068,"Ġà¦¶à¦¤à¦ķà¦°":3069,"à§įà¦°à¦¹à¦£à¦¯":3070,"ĠPaper":3071,"Ġà¦Ŀà¦¡":3072,"ĠCer":3073,"ĠChe":3074,"à¦¿à¦ĩà¦¸":3075,"Ġà¦¨à¦¬à¦ľ":3076,"à§įà¦¬à¦ķà¦ķ":3077,"ari":3078,"art":3079,"ith":3080,"Ġch":3081,"Ġà¦īà¦²à¦Ļ":3082,"ork":3083,"Ġà¦Īà¦Ĺà¦²":3084,"à§Ĥà¦ļà¦ķ":3085,"Ġà¦¸à¦¦à¦°à¦ĺ":3086,"Ġblo":3087,"Ġpm":3088,"Ġpla":3089,"Ġpack":3090,"Ġhour":3091,"Ġhave":3092,"ional":3093,"rain":3094,"ĠMa":3095,"ĠMi":3096,"à¦ıà¦ķà¦¬":3097,"unt":3098,"Ġfro":3099,"angl":3100,"angbad":3101,"anguage":3102,"lored":3103,"-à¦ªà¦¶":3104,"ice":3105,"ici":3106,"à¦¿à¦¤à¦°à¦¨":3107,"ame":3108,"Ġâĺ":3109,"Ġà¦Ĩà¦«à¦°":3110,"Ġà¦Ĩà¦«à¦¸":3111,"Ġà¦Ĩà¦«à¦Ĺ":3112,"ĠTrain":3113,"Ġà¦ľà¦¨à¦ªà¦¦":3114,"Ġà¦ħà¦ľà¦¯":3115,"à§Įà¦¶à¦²à¦Ĺà¦¤":3116,"app":3117,"ash":3118,"Ġà¦®à¦ľà¦²":3119,"Ġà¦¤à¦¤à¦ĩ":3120,"à¦Ĥà¦²à¦Ĺ":3121,"à¦Ĩà¦¨à¦¨":3122,"Ġà¦ĭà¦¤":3123,"à¦¾à¦ĥ-":3124,"à¦®à¦¹à¦²":3125,"Ġà¦¯à¦¤à¦ĩ":3126,"Ġà¦īà§İà¦ªà¦¤":3127,"à¦¾à¦ĵà¦²à¦ª":3128,"ida":3129,"ĠNo":3130,"ĠReg":3131,"Ġà¦ıà¦ķà¦¦à¦®":3132,"à§ĩà¦Łà¦°à¦°":3133,"ateur":3134,"ategor":3135,"Ġà¦¸à¦«à¦²à¦¤":3136,"Ġnewspaper":3137,"hopping":3138,"à§įà¦Ńà¦°à¦¶":3139,"à¦¿à¦Ĩà¦°à¦¡":3140,"à¦¾à¦¯à¦¥à¦Ń":3141,"à¦ļà¦²à¦ļ":3142,"Ġà¦ĩà¦¹à¦ķ":3143,"à¦Ĩà¦ľà¦ķ":3144,"iaomi":3145,"Ġcon":3146,"Ġcolored":3147,"âĢ¦âĢ¦âĢ¦âĢ¦":3148,"ĠAny":3149,"Ġ[âĢ¦]":3150,"à§ĩà¦°à¦¤à¦¯":3151,"à§Ģà¦·à¦£":3152,"Ġà¦¨à¦Ĺà¦¦":3153,"Ġà¦¹à¦ĩà¦¤":3154,"Ġà¦īà¦ĩà¦¨à¦ļ":3155,"Ġthat":3156,"ATION":3157,"uman":3158,"à¦¿à¦®à¦¬à¦Ļ":3159,"Ġteen":3160,"ĠProf":3161,".COM":3162,"ebsit":3163,"rib":3164,"ĠXiaomi":3165,"endra":3166,"Ġsex":3167,"à§Įà¦²à¦¤à¦ª":3168,"-four":3169,"/à¦¨à¦¨à¦Ł":3170,"port":3171,"Ġà¦¸à¦ĵà¦ľ":3172,"à§įà¦¯à¦²à¦¯":3173,"Ġà¦«à¦¨à¦¸":3174,"ĠSIM":3175,"ĠSafari":3176,"Ġabout":3177,"Ġamateur":3178,"Ġbundle":3179,"ĠWindow":3180,"ternet":3181,"@kal":3182,"aceboo":3183,"wjob":3184,"Ġà¦Ķà¦·à¦§":3185,"Ġà¦ķà¦ĩà¦·":3186,"à§ĥà¦ľà¦¨à¦¶":3187,"à¦Ĩà¦īà¦Ł":3188,"Ġtwenty":3189,"ĠPaperless":3190,"Ġblowjob":3191,"Ġhours":3192,"Ġfrom":3193,"acebook":3194,"!)":3195,"!âĢĿ":3196,"'à¦īà¦²":3197,"(à¦ª":3198,"(à¦ıà¦ķ":3199,"):":3200,",à¦¸à¦¬":3201,",à¦¶à¦°":3202,"-à¦Ľ":3203,"-à¦ĩ":3204,"-à¦«":3205,"-à¦ķà¦°":3206,"-à¦ªà¦¨":3207,"-à¦¬à¦°":3208,"-à¦¸à¦®":3209,"-à¦¸à¦¹":3210,"-mail":3211,"-à¦ħà¦°":3212,"-à¦¸à¦¹à¦ķ":3213,".à¦ķ":3214,".à¦¬":3215,".in":3216,".dos":3217,".be":3218,".direct":3219,"/A":3220,"/à¦ķ":3221,"/à¦¬":3222,"/à¦¯":3223,"/à¦Ł":3224,"/à¦ĩ":3225,"/à¦¶":3226,"/à¦ıà¦¸":3227,"/à¦ıà¦ķ":3228,"/im":3229,"::":3230,"?âĢĿ":3231,"@bd":3232,"@ya":3233,"AR":3234,"AS":3235,"Bangla":3236,"CC":3237,"DF":3238,"EM":3239,"GY":3240,"HN":3241,"IV":3242,"KI":3243,"Mov":3244,"OC":3245,"OT":3246,"OGY":3247,"PH":3248,"PR":3249,"Po":3250,"Qu":3251,"ST":3252,"Tag":3253,"TER":3254,"TSY":3255,"WS":3256,"YT":3257,"aw":3258,"bangla":3259,"baz":3260,"cy":3261,"cure":3262,"der":3263,"des":3264,"ding":3265,"ee":3266,"ew":3267,"ga":3268,"ge":3269,"gy":3270,"ger":3271,"hy":3272,"hal":3273,"ham":3274,"hns":3275,"ix":3276,"ian":3277,"ike":3278,"ken":3279,"ln":3280,"lis":3281,"mer":3282,"mation":3283,"na":3284,"news":3285,"now":3286,"oS":3287,"oil":3288,"odi":3289,"ober":3290,"ohns":3291,"pr":3292,"ple":3293,"put":3294,"que":3295,"ron":3296,"ren":3297,"rim":3298,"rist":3299,"ration":3300,"rue":3301,"rdu":3302,"sa":3303,"sion":3304,"sattar":3305,"sbaz":3306,"te":3307,"tz":3308,"tin":3309,"tra":3310,"tim":3311,"tro":3312,"tiv":3313,"tml":3314,"ub":3315,"up":3316,"uy":3317,"ues":3318,"uma":3319,"ule":3320,"ude":3321,"uth":3322,"uel":3323,"uida":3324,"xx":3325,"yn":3326,"Ãĳ":3327,"Åĵ":3328,"Ġ&":3329,"ĠZ":3330,"Ġ_":3331,"Ġhe":3332,"Ġor":3333,"ĠĠÂł":3334,"Ġle":3335,"Ġra":3336,"Ġqu":3337,"İâ":3338,"Ġà¦ĥ":3339,"à¦¾âĢĿ":3340,"à¦¾)à¥¤":3341,"à¦¾à§İà¦¸à¦°":3342,"à¦°à¦°":3343,"à¦°à¦¦":3344,"à¦°à¦ĵ":3345,"à§ĩ/":3346,"à§ĩâĢ¦":3347,"à§įà¥¤":3348,"à¦¾à¦Ĩ":3349,"à¦¿à¦¾":3350,"à¦¿âĢĮ":3351,"à¦¿à¦ŀ":3352,"à¦¨à¦°":3353,"à¦¨à¦¦":3354,"à¦¨à¦Ń":3355,"à¦¼)":3356,"à¦¼à¦¹":3357,"à¦¼à¦ľ":3358,"à¦¼à¦ĸ":3359,"à¦¼à¦¿à¥¤":3360,"à¦¼à¦ľà¦¨":3361,"à¦¼à¦ĺ":3362,"à§ĩà¦ĥ":3363,"à§ĩà¦Ŀ":3364,"à§ĩà¦ł":3365,"à§ģ!":3366,"à§ģà§į":3367,"à§ģà§ģ":3368,"à§ģà¦Ĥ":3369,"à§ģà¦¬à¦°":3370,"à§ģà¦¹à¦®":3371,"à§ģà§İà¦¸":3372,"à¦¾à¦°à¦¹":3373,"à¦¾à¦°à¦¶":3374,"à¦¾à¦°à¦·":3375,"à¦¾à¦°à¦ľà¦¨":3376,"à¦¾à¦°à¦ķà¦°":3377,"à¦¾à¦°à¦¸à¦®":3378,"à¦¾à¦°à¦¸à¦¹":3379,"à¦¾à¦°à¦¸à¦¨":3380,"à¦¾à¦°à¦«à¦°":3381,"à¦ķà¦ķ":3382,"à¦ķà¦¯":3383,"à¦ķà¦Ĺ":3384,"Ġà¦ķà¦¦":3385,"Ġà¦ķà¦®à¦¨":3386,"Ġà¦ķà¦¸à¦®":3387,"Ġà¦¸à¦ĩ":3388,"Ġà¦¸à¦¶":3389,"Ġà¦¸à¦¬à¦¨":3390,"à¦²à¦¤":3391,"Ġà¦¬à¦®":3392,"Ġà¦¬à¦ŀ":3393,"Ġà¦¬à§İà¦¸à¦°":3394,"à¦¤à¦¦":3395,"à¦¤à¦¥":3396,"à§ĭà¦Ľ":3397,"à§ĭà¦£":3398,"à§ĭà¦Ļ":3399,"à§ĭà¦ªà¦°":3400,"à§ĭà¦ĩà¦¨":3401,"Ġà¦ªà¦ª":3402,"Ġà¦ªà¦Ĺ":3403,"Ġà¦ªà¦ľ":3404,"à¦¬à¦¤":3405,"à¦¬à¦®":3406,"à¦¬à¦ª":3407,"à¦¬à¦£":3408,"à¦¬à¦Ļ":3409,"à¦®à¦¶":3410,"à§ĩà¦°à¦¸":3411,"à§įà¦°à¦°":3412,"à§įà¦°à¦¬à¦°":3413,"à§įà¦°à¦²à¦¬":3414,"à¦¯à¦¦":3415,"à¥¤[":3416,"à¥¤à¦ķ":3417,"à¥¤à¦¸":3418,"à¥¤à¦ª":3419,"à¥¤à¦¤à¦¬":3420,"à¥¤à¦Ĩà¦¬":3421,"à§įà¦¯à¦Ł":3422,"à§įà¦¯à¦ľ":3423,"à§Ģ;":3424,"à§Ģ?":3425,"à§Ģà¦Ľ":3426,"à§Ģà¦ľà¦¨":3427,"Ġà¦Ĩà¦ªà¦¤":3428,"Ġà¦®à¦ĩà¦¨":3429,"Ġà¦®à¦ķà¦¬":3430,"Ġà¦®à¦²à¦¨":3431,"à¦¾à¦¨à¦®":3432,"à¦¾à¦¨à¦ĩ":3433,"à¦¾à¦¨à¦ĵ":3434,"à¦¸à¦ĩ":3435,"à¦¸à¦¡":3436,"Ġà¦ıà¦«":3437,"Ġà¦ıà¦«à¦Ł":3438,"Ġà¦¨à¦¹":3439,"Ġà¦¨à¦ĵ":3440,"Ġà¦¨à¦¬à¦°":3441,"Ġà¦¨à¦°à¦¸":3442,"Ġà¦¨à¦«à¦²":3443,"Ġà¦¦à¦Ĺ":3444,"Ġà¦¹à¦ĩà¦²":3445,"à¦¦à¦¶à¦ķ":3446,"à§įà¦¤à¦¹":3447,"à§įà¦¤à¦ĩ":3448,"à§įà¦¤à¦ľ":3449,"à§įà¦¤à¦Ń":3450,"à¦¼à§ĩ-":3451,"à¦ªà¦®":3452,"Ġà¦ķà¦°à¦¨":3453,"Ġà¦ķà¦°à¦£":3454,"à¦Łà¦®":3455,"à¦¼à¦¾âĢĻ":3456,"à¦¼à¦¾âĢ¦":3457,"Ġà¦ľà¦ľ":3458,"Ġà¦ľà¦ĸ":3459,"Ġà¦¤à¦¦":3460,"à§ĩà¦¨à¦¬":3461,"à¦Ĺà¦Ļ":3462,"à¦Ĺà¦ł":3463,"à¦¾à¦²à¦¶":3464,"à¦¾à¦²à¦Ļ":3465,"à¦¾à¦²à¦®à¦¨":3466,"à¦¾à¦®à¦ĩ":3467,"à¦¾à¦®à¦ķà¦°à¦£":3468,"à¦¿à¦¨à¦¦":3469,"à¦¿à¦¨à¦ª":3470,"à¦¿à¦¨à¦¶":3471,"à¦¿à¦¨à¦ĵ":3472,"à¦¿à¦¨à¦ľà¦¨":3473,"à¦¿à¦ķà¦¸":3474,"à¦¿à¦ķà¦ª":3475,"à¦¿à¦ķà¦Ĺà¦£":3476,"à¦¿à¦°à¦°":3477,"à¦¿à¦°à¦¹":3478,"à¦¿à¦°à¦¶":3479,"à¦¿à¦°à¦ĵ":3480,"à§įà¦¬à¦¹":3481,"à§įà¦¬à¦ļ":3482,"à§įà¦¬à¦ľà¦¨":3483,"à§įà¦¬à¦ªà¦¨":3484,"à§įà¦¬à¦¬à¦°":3485,"à§įà¦¬à¦¸à¦®":3486,"à§įà¦¬à¦¸à¦®à¦ķ":3487,"Ġà¦°à¦®":3488,"Ġà¦°à¦¡":3489,"Ġà¦°à¦£":3490,"Ġà¦°à¦ī":3491,"Ġà¦°à¦¤à¦¨":3492,"Ġà¦°à¦ĩà¦²":3493,"à¦¹à¦¸":3494,"à¦¹à¦¶":3495,"à¦¾à¦ķà¦¸":3496,"à¦¾à¦ķà¦¡":3497,"à¦¾à¦ķà¦¥":3498,"à¦¾à¦ķà¦¸à¦¨":3499,"Ġà¦¯à¦ķ":3500,"à¦ĩà¦¬":3501,"à¦ĩà¦Ĺ":3502,"à¦ĩà¦ĵ":3503,"à¦ĩà¦īà¦ª":3504,"à¦¿à¦¤à¦¤":3505,"à¦ľà¦°":3506,"Ġà¦¶à¦®":3507,"Ġà¦¶à¦ª":3508,"Ġà¦¶à¦¶":3509,"Ġà¦¶à¦ªà¦¥":3510,"Ġà¦Ĺà¦ľ":3511,"Ġà¦Ĺà¦«à¦°":3512,"Ġà¦ļà¦¡":3513,"Ġà¦ļà¦£":3514,"Ġà¦ļà¦ĸ":3515,"Ġà¦ļà¦®à¦ķ":3516,"à¦Ĥ,":3517,"à¦Ĥ:":3518,"à¦Ĥà¦ľ":3519,"à¦Ĥà¦ķà¦°":3520,"à¦Ĥà¦¹à¦¤":3521,"à§ĩà¥¤'":3522,"à§ĩà¥¤âĢĿ":3523,"Ġà¦ĵà¦¨":3524,"Ġà¦ĵà¦²":3525,"Ġà¦ĵà¦Ĺ":3526,"Ġà¦ĵà¦ĸ":3527,"à§ģà¦°à¦¤":3528,"à§ģà¦°à¦ľ":3529,"à¦¾à¦¬à¦¬":3530,"à¦¾à¦¬à¦ľ":3531,"à¦¾à¦¬à¦¡":3532,"à¦¾à¦¬à¦£":3533,"à§ģà¦²à¦Ł":3534,"à§ģà¦²à¦Ĺ":3535,"à§ģà¦²à¦¶":3536,"à§ģà¦²à¦ĵ":3537,"à¦¾à¦¤à¦¦":3538,"à¦¾à¦¤à¦ĩ":3539,"âĢ¢":3540,"à¦¾à¦¦à¦°":3541,"à¦¾à¦¦à¦ª":3542,"à¦¾à¦¦à¦Ł":3543,"à¦¾à¦¦à¦ªà¦¤":3544,"à¦¾à¦¦à¦¬à¦ª":3545,"à¦¿à¦²à¦¸":3546,"à¦¿à¦²à¦ªà¦¤":3547,"à¦¾à¦¸à¦¦":3548,"à¦¾à¦¸à¦ĵ":3549,"à¦¾à¦¸à¦«à¦Ł":3550,"à§įà¦·à¦ĩ":3551,"à§įà¦·à¦°à¦¤":3552,"à§įà¦·à¦¦à¦°":3553,"Ġà¦īà¦®":3554,"Ġà¦īà¦Ĺ":3555,"Ġà¦īà¦ľ":3556,"Ġà¦īà¦¸à¦®":3557,"Ġà¦īà§İà¦ķ":3558,"à¦¶à¦ª":3559,"à¦¶à¦Ĺ":3560,"à¦¶à¦ĩ":3561,"Ġà¦ªà¦°à¦¨":3562,"Ġà¦ªà¦°à¦¦":3563,"Ġà¦ªà¦°à¦ĩ":3564,"Ġà¦ªà¦°à¦¶":3565,"Ġà¦ªà¦°à¦ªà¦°":3566,"à§ĩà¦¶à¦¤":3567,"à§ĩà¦¶à¦ª":3568,"à§ĩà¦¶à¦ªà¦¥":3569,"à¦Ńà¦°":3570,"à¦Ńà¦ľà¦¨":3571,"à§ĩà¦ķà¦Ĺ":3572,"à§ĩà¦ķà¦ľà¦¨":3573,"à¦§à¦²":3574,"à¦§à¦°à¦£":3575,"à¦§à¦¬à¦Ĺ":3576,"à¦ļà¦¦":3577,"à¦ļà¦Ĺ":3578,"à§ĩà¦²à¦ķ":3579,"à§ĩà¦²à¦®":3580,"à§ĩà¦²à¦Ł":3581,"à§ĩà¦²à¦Ĺ":3582,"à§ĩà¦²à¦ī":3583,"à§ĩà¦²à¦ĸà¦¨":3584,"Ġà¦ıà¦ķà¦¨":3585,"Ġà¦ıà¦ķà¦¶":3586,"à¦¾à¦ľà¦²":3587,"à¦¾à¦ľà¦¯":3588,"à¦¾à¦ľà¦īà¦ķ":3589,"Ġà¦¸à¦®à¦Ŀ":3590,"Ġà¦ĩà¦¦":3591,"Ġà¦ĩà¦¬à¦¨":3592,"Ġà¦²à¦¨":3593,"Ġà¦²à¦¤":3594,"Ġà¦²à¦ľ":3595,"Ġà¦²à¦Ń":3596,"Ġà¦²à¦ĩà¦¯":3597,"Ġà¦²à¦¬à¦£":3598,"à¦¿à¦¶à¦¬":3599,"à§ĥà¦§":3600,"Ġà¦ĸà¦¡":3601,"à§įà¦¦à¦¯":3602,"à§įà¦¦à¦Ł":3603,"à§Ĥà¦¯":3604,"à§Ĥà¦Ń":3605,"à§Ĥà¦Łà¦¨":3606,"à¦¾à¦¹à¦ĵ":3607,"à¦¾à¦ªà¦ļ":3608,"à¦¾à¦ªà¦Ĺà¦ŀ":3609,"à¦¾à¦ªà¦ľà¦²":3610,"Ġà¦Ľà¦Ł":3611,"à§įà¦ªà¦®":3612,"à§įà¦¥à¦¬":3613,"à§įà¦¥à¦¦":3614,"à§įà¦¥à¦Ń":3615,"à§įà¦¥à¦ķà¦¦":3616,"à¦ĸà¦¸":3617,"à¦ĸà¦ľà¦¨à¦ķ":3618,"à¦ĵà¦¡":3619,"à¦ĵà¦·":3620,"à¦¿à¦¬à¦ķ":3621,"à¦¿à¦¬à¦¦":3622,"à¦¿à¦¬à¦Ĺà¦ŀ":3623,"à¦¿à¦¸à¦¤":3624,"à¦¿à¦¸à¦Ļ":3625,"à§įà¦§à¦®":3626,"à§įà¦§à¦¦":3627,"à§įà¦§à¦ķà¦°à¦£":3628,"à¦¾à¦Ĺà¦ķ":3629,"à¦¾à¦Ĺà¦¦":3630,"à¦¾à¦Ĺà¦Ł":3631,"à¦¾à¦Ĺà¦Ĺ":3632,"à§ĩà¦ĩà¦«à¦Ł":3633,"Ġà¦ħà¦¨à¦¬à¦¦":3634,"à§ĭà¦¨à¦ķ":3635,"à¦¥à¦ļ":3636,"Ġà¦Ĩà¦®à¦ľ":3637,"Ġà¦ľà¦¨à¦¨":3638,"Ġà¦ľà¦¨à¦¶à¦ķ":3639,"Ġà¦ľà¦¨à¦¸à¦®à¦ķ":3640,"à§ģà¦¨à¦¦":3641,"à§ģà¦¨à¦Ĺ":3642,"à§ģà¦¨à¦¤à¦®":3643,"à¦¾à¦¡à¦®":3644,"à¦·à¦¤":3645,"à§įà¦¡à¦¦":3646,"à§įà¦¡à¦Ń":3647,"à§Ģà¦°à¦Ń":3648,"âĢĻà¦ķ":3649,"âĢĻà¦Ĩà¦°":3650,"à§ĭà¦°à¦ķà¦®":3651,"à§įà¦²à¦¸":3652,"à¦¾à¦ļà¦Ĺ":3653,"à¦¾à¦ļà¦ĸ":3654,"à¦¾à¦ļà¦ĵ":3655,"à§ĩà¦Łà¦ķ":3656,"à§ģà¦ķà¦¤":3657,"à§ģà¦ķà¦¸":3658,"à§ģà¦ķà¦Ł":3659,"à§ģà¦ķà¦Ľ":3660,"à§įà¦¸à¦¦":3661,"à§įà¦¸à¦«":3662,"à§įà¦¸à¦Ĩà¦°":3663,"à¦¿à¦®à¦ķ":3664,"à¦¿à¦®à¦¸":3665,"à¦¿à¦®à¦£":3666,"à¦¾à¦¶à¦Ł":3667,"à¦¿à¦Łà¦°":3668,"Ġà¦¡à¦ľà¦¨":3669,"à¦Ĩà¦¡":3670,"à¦Ĩà¦¸à¦²":3671,"à¦Ĩà¦¹à¦®":3672,"à¦Ĩà¦²à¦¬":3673,"à¦Ĩà¦¬à¦¦":3674,"à§ĭà¦Ĺà¦²":3675,"à§ĭà¦Ĺà¦¦":3676,"à§ĭà¦Ĺà¦ľ":3677,"à§Įà¦ļ":3678,"à§Įà¦«":3679,"à¦ıà¦ª":3680,"à¦ıà¦ĸ":3681,"à¦ıà¦ıà¦«à¦ª":3682,"à§įà¦ķà¦¸":3683,"à¦¾à¦ģ,":3684,"à¦¿à¦·à¦Ł":3685,"à¦¿à¦·à¦£":3686,"Ġà¦ıà¦ĩà¦¬":3687,"Ġà¦ıà¦ĩà¦ľà¦¨":3688,"ĠâĢĭ":3689,"ĠâĢĮ":3690,"ĠâĢĶ":3691,"Ġà¦ĺà¦¡":3692,"à¦¾à¦Łà¦Ł":3693,"à¦¾à¦Łà¦ķà¦Ł":3694,"Ġà¦īà¦ªà¦¤":3695,"Ġà¦īà¦ªà¦ªà¦°":3696,"Ġà¦īà¦ªà¦®à¦¹":3697,"Ġà¦īà¦ªà¦ķà¦°à¦¨":3698,"à¦¼à¦¨à¦®":3699,"Ġà¦®à¦¨à¦ľ":3700,"à¦¿à¦ªà¦¯":3701,"à¦¿à¦ªà¦¶à¦¨":3702,"à§ĩà¦·à¦¤":3703,"à§įà¦ļà¦¬":3704,"à§įà¦ļà¦²à¦ķ":3705,"à§ĥà¦¤à¦ķ":3706,"à§ĥà¦¤à¦ªà¦ķ":3707,"à¦¾à¦ĵà¦°":3708,"à§ģà¦¦à¦īà¦²":3709,"à§ĩà¦¬à¦¨":3710,"à¦ľà¦¨à¦¸à¦Ń":3711,"à§įà¦¯à¦¬à¦¤":3712,"à§Ĥà¦°à¦ķ":3713,"à§Ĥà¦°à¦¤":3714,"à¦¿à¦Ĥ)":3715,"à§ĭà¦Łà¦¨":3716,"à§ĭà¦Łà¦ķ":3717,"à§ĭà¦Łà¦¬":3718,"à§ĭà¦Łà¦ĸ":3719,"à§ĭà¦Łà¦ªà¦°":3720,"à§ĭà¦Łà¦Ĺà¦²":3721,"à§įà¦¤à¦°à¦¥":3722,"à§Īà¦ķ":3723,"à§Īà¦¥":3724,"à§ĩà¦¸à¦°":3725,"à§ĩà¦¸à¦®":3726,"à§ĩà¦¸à¦ªà¦¨":3727,"à¦¾à¦°à¦£à¦ķ":3728,"à¦¾à¦°à¦£à¦¬":3729,"à§Ģà¦¨à¦ķ":3730,"à§Ģà¦¨à¦¬":3731,"à§Ģà¦¨à¦Ń":3732,"Ġà¦īà¦¦à¦ĺ":3733,"à¦īà¦¤":3734,"à¦īà¦ªà¦¦":3735,"Ġà¦Ĩà¦¬à¦¹":3736,"à§įà¦¬à¦°à¦ķ":3737,"à§įà¦¬à¦°à¦¦":3738,"Ġà¦¸à¦°à¦²":3739,"à§ĭà¦®à¦ª":3740,"à¦ªà¦°à¦¬à¦°":3741,"à§ĩà¦ľà¦®":3742,"à§ĩà¦ľà¦Ń":3743,"à§ĩà¦ľà¦ķà¦¤":3744,"à§ĭà¦ķà¦²":3745,"à§ĭà¦ķà¦¸":3746,"à§ĭà¦ķà¦ª":3747,"Ġà¦§à¦°à¦²":3748,"à§ģà¦·à¦¤":3749,"à§ģà¦·à¦Ł":3750,"à§ģà¦·à¦Ļ":3751,"à§ģà¦·à¦®à¦¨":3752,"à§įà¦łà¦ķ":3753,"à§įà¦łà¦¶":3754,"à¦¿à¦ıà¦¬":3755,"à¦¿à¦ıà¦¸à¦ľ":3756,"Ġà¦ħà¦¬à¦ķ":3757,"à¦¾à¦£à¦°":3758,"à¦¾à¦£à¦ķ":3759,"à¦¾à¦£à¦ª":3760,"à¦¾à¦£à¦¹":3761,"à¦¾à¦£à¦®à¦¨":3762,"Ġà¦ķà¦®à¦°":3763,"Ġà¦ķà¦®à¦¬":3764,"Ġà¦ķà¦®à¦ĩ":3765,"Ġà¦¸à¦¬à¦§à¦°à¦£":3766,"à§ĩà¦¡à¦²":3767,"Ġà¦ıà¦¸à¦¡":3768,"à¦¿à¦Ľà¦ķ":3769,"à§ģà¦Łà¦¹":3770,"à§Ģà¦¤à¦ķ":3771,"à¦¾à¦ļà¦¨à¦Ĺ":3772,"à§ĭà¦²à¦¸":3773,"à§ĭà¦²à¦ª":3774,"à¦¾à¦«à¦Ł":3775,"à¦¾à¦«à¦«":3776,"à¦¾à¦Ĥ,":3777,"à¦¾à¦Ĥ-":3778,"à§ģà¦¤à¦ĩ":3779,"à¦¾à¦¥à¦²":3780,"Ġà¦¦à¦²à¦¨":3781,"Ġà¦¦à¦²à¦ĩ":3782,"Ġà¦¦à¦²à¦¬à¦¦":3783,"Ġ:-":3784,"à§ģà¦ĩà¦ľ":3785,"à§ģà¦ĩà¦ªà¦®":3786,"Ġà¦Ĩà¦¨à¦²":3787,"Ġà¦Ĩà¦¨à¦¬":3788,"Ġà¦Ĩà¦¨à¦ĩà¦¨":3789,"à¦¿à¦§à¦¬":3790,"à§ĭà¦§à¦ķ":3791,"à§Ģà¦Ĺà¦¡":3792,"Ġà¦¬à¦°à¦£":3793,"à§įà¦¯à¦®à¦ķ":3794,"à§įà¦°à¦®à¦¶":3795,"Ġà¦ĺà¦Łà¦¤":3796,"Ġà¦Ĩà¦ĩà¦¯":3797,"Ġà¦Ĩà¦ĩà¦Ł":3798,"à§ģà¦ĸà¦°":3799,"Ġà¦¸à¦¹à¦¬":3800,"Ġà¦¸à¦¹à¦ª":3801,"Ġà¦¸à¦¹à¦ķà¦°":3802,"à¦¿à¦¡à¦«":3803,"Ġà¦Ĩà¦¦à¦¤":3804,"à§ģà¦ªà¦ķ":3805,"Ġà¦®à¦¹à¦¡":3806,"à¦¾à¦īà¦¸":3807,"à¦¾à¦īà¦Ł":3808,"à¦¾à¦īà¦¥":3809,"à§ĭà¦¬à¦¸":3810,"à§ĭà¦¬à¦Ł":3811,"Ġà¦ıà¦²à¦Ĩà¦°":3812,"à§ĩà¦ªà¦£":3813,"à§ĩà¦¶à¦¨à¦ķ":3814,"à§įà¦ŀà¦°":3815,"ink":3816,"indi":3817,"inha":3818,"Ġà¦¬à¦Ľà¦°à¦ĸ":3819,"Ġà¦Ĩà¦ľà¦Ĺà¦°":3820,"à¦¾à¦¦à¦ķà¦¦":3821,"à¦ģà¦¤":3822,"à¦ģà¦¦":3823,"à¦ģà¦Ł":3824,"à¦ģà¦§":3825,"à¦¿à¦ĵà¦¨":3826,"à¦¿à¦ĵà¦¤":3827,"à¦¿à¦ĵà¦Ĺ":3828,"à¦¼à¦ķà¦ķ":3829,"Ġà¦ĩà¦¨à¦²":3830,"Ġà¦ĩà¦¨à¦ľ":3831,"Ġà¦ĩà¦¨à¦ļ":3832,"à§įà¦£à¦®":3833,"à§įà¦£à¦¯":3834,"à§įà¦£à¦Ń":3835,"Ġà¦ıà¦¨à¦¡":3836,"Ġà¦ıà¦¨à¦Ĩà¦ĩ":3837,"Ġà¦ıà¦¨à¦ĵà¦¸":3838,"à¦¾à¦Ļà¦¨":3839,"Ġà¦®à¦¤à¦ĩ":3840,"à¦¾à¦łà¦ªà¦°":3841,"Ġà¦¸à¦ķà¦²à¦ķ":3842,"Ġà¦ķà¦²à¦®":3843,"Ġà¦ķà¦²à¦Ĺ":3844,"Ġà¦ķà¦²à¦¹":3845,"à§įà¦¤à¦¬à¦¤":3846,"ano":3847,"aner":3848,"anth":3849,"ance":3850,"à§Įà¦¨à¦°":3851,"à§Įà¦¨à¦¤":3852,"à§Įà¦¨à¦ª":3853,"à§įà¦°à¦¶à¦¸":3854,"Ġà¦¬à¦¨à¦¸":3855,"à§įà¦°à¦¬à¦²":3856,"Ġti":3857,"Ġtag":3858,"Ġtus":3859,"à§ĩà¦¦à¦¨à¦ķ":3860,"à§ĩà¦¦à¦¨à¦Ł":3861,"à§ĩà¦¦à¦¨à¦¶":3862,"à§įà¦°à¦¸à¦°":3863,"à§ĭà¦¡à¦ķ":3864,"ere":3865,"à¦ħà¦ķ":3866,"à¦ħà¦¸":3867,"à¦ħà¦«":3868,"à¦ħà¦¬à¦¸":3869,"à¦ħà¦¥à¦ļ":3870,"Ġà¦ħà¦¸à¦¨":3871,"à¦¾à¦ªà¦¨à¦ĵ":3872,"à§įà¦°à¦¹à¦¨":3873,"à¦¿à¦ĸà¦Ľ":3874,"à¦¾à¦Ńà¦¬":3875,"à¦¾à¦Ńà¦ľà¦¨à¦ķ":3876,"à¦¾à¦²à¦ķà¦ķ":3877,"à¦¿à¦ıà¦¨à¦¸":3878,"à§ĩà¦¹à¦¤":3879,"à§ĩà¦¹à¦®":3880,"à§ĩà¦¹à¦¦":3881,"à§įà¦·à¦£à¦¶":3882,"à§Ģà¦¬à¦¬":3883,"à¦®à¦¤à¦ª":3884,"à§Ģà¦²à¦¤":3885,"à§Ģà¦²à¦«":3886,"à¦¾à¦ĩà¦ķà¦¸":3887,"onth":3888,"onlin":3889,"ontin":3890,"Ġà¦Ĩà¦¹à¦°à¦£":3891,"à¦¾à¦°à¦ķà¦ļà¦ķ":3892,"----":3893,"Ġà¦«à¦²à¦¨":3894,"Ġà¦ħà¦¤à¦ıà¦¬":3895,"Ġà¦ĵà¦ĩà¦¸à¦¬":3896,"ense":3897,"engal":3898,"à§ģà¦ľà¦¤":3899,"âĢĮà¦¨":3900,"âĢĮà¦ľ":3901,"Ġà¦Ĳà¦¶":3902,"Ġà¦ħà¦ªà¦ķà¦°":3903,"Ġà¦ıà¦®à¦¦":3904,"Ġà¦ıà¦®à¦ı":3905,"à¦ıà¦¸à¦Ł":3906,"à¦ıà¦¸à¦ıà¦¨":3907,"à¦ıà¦¸à¦ıà¦¸à¦¸":3908,"à¦ıà¦¸à¦ĩà¦ĵ":3909,"à§ĩà¦«à¦Ł":3910,"ated":3911,"ĠSE":3912,"ĠSon":3913,"ĠSam":3914,"ĠSur":3915,"ĠSMS":3916,"ĠSatur":3917,"ĠSinha":3918,"à¦¼à¦¸à¦¸":3919,"à¦Ĥà¦ķà¦²à¦¨":3920,"ream":3921,"à¦¾à¦²à¦¨à¦ķ":3922,"ilid":3923,"à§ģà¦Ĺà¦Ľ":3924,"à§ģà¦¶à¦²":3925,"mage":3926,"Ġsha":3927,"Ġsame":3928,"Ġsoil":3929,"ough":3930,"ought":3931,"à§ĭà¥¤âĢĻ":3932,"à§ĭà¥¤âĢĿ":3933,"Ġà¦ĸà¦¬à¦°à¦Ł":3934,"Ġà¦ĸà¦¬à¦°à¦Ĺ":3935,"à§ĩà¦®à¦¨à¦ĩ":3936,"à¦¼à¦°à¦¨":3937,"Ġà¦ªà¦¥à¦ļà¦²":3938,"Ġà¦ıà¦ķà¦ľà¦¨à¦ķ":3939,"à¦¿à¦īà¦ľà¦ļ":3940,"ĠPDF":3941,"Ġà¦Ĩà¦Łà¦ķà¦ķ":3942,"Ġà¦Ĺà¦£à¦¹":3943,"à¦¾à¦ĩà¦°à¦¹":3944,"Ġà¦ĺà¦°à¦¬":3945,"Ġà¦Ŀà¦Ĺà¦¡":3946,"à§ĭà¦ľà¦ķ":3947,"ĠAc":3948,"ĠAp":3949,"ĠAOR":3950,"ĠCo":3951,"ĠCart":3952,"ĠCategor":3953,"ĠContin":3954,"à¦¾à¦Ŀà¦ĸ":3955,"Ġà¦¨à¦¬à¦Ĺà¦ł":3956,"ard":3957,"arNE":3958,"ity":3959,"itco":3960,"itter":3961,"Ġad":3962,"Ġal":3963,"Ġare":3964,"Ġapp":3965,"Ġcho":3966,"ors":3967,"ormation":3968,"Ġà¦Īà¦®":3969,"Ġà¦ĩà¦¸à¦°":3970,"-à¦¸à¦¨":3971,"Ġà¦Ĩà¦¤à¦Ļ":3972,"Ġà¦¦à¦°à¦ªà¦¤":3973,"Ġ''":3974,"Ġbal":3975,"à§Īà¦¨à¦¨":3976,"alo":3977,"als":3978,"alth":3979,"à¦Ĩà¦ĩà¦Ł":3980,"à¦¾à¦°à¦Łà¦¨":3981,"Ġà¦ļà¦Łà¦Ĺ":3982,"à¦Ĥà¦ĺà¦Ł":3983,"à§įà¦¶à¦¨à¦ķ":3984,"Ġniv":3985,"à¦¾à¦¬à¦²à¦®":3986,"à§įà¦·à¦ķà¦¦":3987,"Ġà¦īà¦ĩà¦¥":3988,"ings":3989,"Ġhd":3990,"Ġhab":3991,"Ġhindi":3992,"leaner":3993,"stagra":3994,"Ġà¦®à¦°à¦¨":3995,"Ġà¦¨à¦Ĺà¦°à¦¬":3996,"à§įà¦¬à¦¨à¦°à¦¤":3997,"à¦¾à¦ĩà¦®à¦²":3998,"ions":3999,"racy":4000,"Ġme":4001,"Ġmp":4002,"Ġmu":4003,"Ġmodi":4004,"à¦Ĩà¦°à¦ı":4005,"ĠMag":4006,"ĠMMS":4007,"ĠMonth":4008,"Ġà¦ıà¦¡à¦Ń":4009,"Ġà¦¤à¦°à¦²":4010,"Ġà¦¤à¦°à¦«":4011,"Ġà¦¤à¦°à¦Ļ":4012,"-à¦¬à¦¡":4013,"à§įà¦¬à¦²à¦¨":4014,"à§įà¦¬à¦²à¦Ľ":4015,"à§ĩà¦Ĺà¦®à¦ķ":4016,"Ġfe":4017,"à¦¿à¦ıà¦¸à¦Ł":4018,"à¦¿à¦ıà¦¸à¦ıà¦«":4019,"à§ĭà¦²à¦¨à¦ķ":4020,"ages":4021,"ĠDem":4022,"ĠDoS":4023,"ĠDream":4024,"ick":4025,"icate":4026,"ĠBu":4027,"ĠBro":4028,"ĠEn":4029,"ĠETSY":4030,"Ġà¦ķà¦¤à¦ķ":4031,"Ġà¦ķà¦¤à¦¦":4032,"à§įà¦¯à¦¸à¦ļ":4033,"Ġà¦ľà¦¨à¦Ĺà¦£à¦ķ":4034,"à¦¿à¦Ĺà¦¤à¦Ń":4035,"Ġà¦Īà¦¦à¦ª":4036,"viron":4037,"ĠIN":4038,"ĠIm":4039,"à¦¾à¦°à¦ĩà¦¸":4040,"à¦¾à¦¤à¦¨à¦ķ":4041,"à§įà¦¸à¦Łà¦²":4042,"à§ĭà¦ķà¦ľà¦¨à¦ĵ":4043,"ĠThe":4044,"ĠTEC":4045,"Ġà¦ħà¦²à¦°":4046,"Ġà¦ħà¦²à¦Ļ":4047,"à§įà¦§à¦¨à¦¦":4048,"Ġà¦ľà¦¨à¦ªà¦¥":4049,"ctg":4050,"ctober":4051,"tha":4052,"ther":4053,"Ġà¦ħà¦®à¦°":4054,"Ġà¦ħà¦®à¦²":4055,"à§įà¦Łà¦®à¦¸":4056,"à§įà¦¨à¦¤à¦ĵ":4057,"à¦Ĥà¦Ĺà¦łà¦¨à¦Ł":4058,"cha":4059,"rop":4060,"Ġà¦¬à¦ĩà¦¯":4061,"Ġà¦¬à¦ĩà¦Ł":4062,"à§Ĥà¦°à¦£à¦ķ":4063,"elle":4064,"ĠWork":4065,"Ġviagra":4066,"Ġà¦¦à¦«à¦¤à¦°":4067,"Ġà¦¤à¦¤à¦ķ":4068,"à¦¾à¦ĩà¦«à¦¸":4069,"à¦ıà¦¨à¦ľ":4070,"ttings":4071,"ĠFor":4072,"ĠHT":4073,"ĠHAC":4074,"ĠHuman":4075,"à¦¿.)":4076,"à¦¿.,":4077,"à§įà¦¬à¦¶à¦°":4078,"Ġà¦¯à¦¤à¦¦":4079,"Ġà¦¯à¦¤Åĵ":4080,"âĢĶà¦¶":4081,"à¦¾à¦ľà¦¤à¦ķ":4082,"Ġà¦Ĩà¦īà¦Łà¦ª":4083,"Âłà¦°":4084,"Âłà¦¨":4085,"ĠLanguage":4086,"ĠLaw":4087,"à§ĩâĢĻà¥¤":4088,"à¦¨à¦®à¦¸":4089,"à¦¾à¦łà¦ķà¦¬à¦°":4090,"idad":4091,"ĠRight":4092,"ĠRule":4093,"Ġwill":4094,"Ġwith":4095,"Ġwebsit":4096,"à§ģà¦ļà¦ķ":4097,"à§ģà¦ļà¦¦":4098,"Ġà¦Ĩà¦§à¦ĺ":4099,"à¦¾à¦¨à¦Ĺà¦®à¦¨":4100,"dia":4101,"hoo":4102,"istan":4103,"istration":4104,"à¦Īà¦¶":4105,"à¦¸à¦ķà¦²à¦ķ":4106,"Ġà¦¹à¦ľà¦®":4107,"à¦¿à¦ķà¦Łà¦¬à¦°":4108,"Ġà¦ķà¦ĸà¦¨à¦ĵà¦ĩ":4109,"Ġex":4110,"Ġeach":4111,"Ġeff":4112,"Ġà¦ľà¦²à¦¸":4113,"âĢľà¦Ĩà¦Ĺ":4114,"Ġà¦ĩà¦īà¦ıà¦¸à¦¬":4115,"ency":4116,"ational":4117,"Ġà¦īà§İà¦ªà¦²":4118,"-à¦¦à¦²":4119,"ive":4120,"lines":4121,"ollect":4122,"ood":4123,"uego":4124,"ĠJust":4125,"Ġgrou":4126,"Ġà¦¨à¦ķà¦Ĩà¦īà¦Ł":4127,"Ġà¦Łà¦®à¦¸à¦¨":4128,"ersangbad":4129,"ĠSee":4130,"ĠSettings":4131,"Ġyou":4132,"à§ĩà¦ĺà¦¨":4133,"Ġà¦Ĩà¦Łà¦Ł":4134,"Ġà¦ıà¦ķà¦¸à¦Ļ":4135,"à¦ıà¦²à¦¡":4136,"Ġthrou":4137,"ĠInternet":4138,"Ġà¦Ĩà¦ļà¦°à¦£à¦¬":4139,"Ġdes":4140,"Ġdon":4141,"Ġdem":4142,"à¦¾à¦Īà¦¦":4143,"à¦¼à¦¾à¦Ĥà¥¤":4144,"Ġà¦¹à¦°à¦Ńà¦ľà¦¨":4145,"à¦¾à¦ªà¦¸à¦Ĺ":4146,"à§Įà¦¥à¦Ń":4147,"Ġtitt":4148,"Ġfreind":4149,"fied":4150,"ĠOctober":4151,"Ġknow":4152,"Ġmass":4153,"à§ģà¦¥à¦ª":4154,"à§Ģà¦ķà¦°à¦£à¦¤à¦¨":4155,"Ġà¦Ĩà¦ĸà¦¤":4156,"âĢįà§į":4157,"à§Īà¦§à¦Ń":4158,"Ġteam":4159,"ĠPriv":4160,"Ġinfo":4161,"Ġinfoc":4162,"à§ĩà¦ıà¦®à¦¬":4163,"-à¦Ĩà¦ª":4164,".Com":4165,"SSattar":4166,"Ġxxx":4167,"Ġlaws":4168,"à§Ģà¦¶à¦Ļ":4169,"à§ĭà¦ķà¦¨à¦ª":4170,"Ġsecure":4171,"ĠChrist":4172,"à¦¿à¦ıà¦¸à¦ĩà¦°":4173,".facebook":4174,"duct":4175,"ocracy":4176,"youtube":4177,"ĠKuma":4178,"ĠVi":4179,"Ġother":4180,"Ġenviron":4181,"Ġits":4182,"à§įâĢĮ,":4183,"Ġà¦¹à¦Łà¦²":4184,"à¦Łà¦¸à¦ħ":4185,"Ġà¦ĸà¦¸à¦ĸà¦¸":4186,"Ġà¦ıà¦°à¦ĩà¦®à¦§":4187,"Ġà¦ıà¦¸à¦ıà¦®à¦ª":4188,"Ġà¦ıà¦¸à¦ıà¦®à¦ıà¦¸":4189,"à§Īà¦°à¦¬à¦ĺ":4190,"Ġcaptiv":4191,"orial":4192,"adesh":4193,"à§ĩà¦ıà¦¸à¦¸":4194,"OLOGY":4195,"akistan":4196,"creen":4197,"lication":4198,"oxsbaz":4199,"twitter":4200,"Ġlos":4201,"Ġà¦Ĭà¦°":4202,"Ġà¦¬à¦ļà¦¸":4203,"à§įà¦¯à¦Łà¦ķà¦¦":4204,"Ġà¦°à¦ĵà¦¨":4205,"à§įà¦Łà¦²à¦Ł":4206,"Ġà¦ļà¦®à§İà¦ķ":4207,"à§Ĥà¦ªà¦ķà¦²":4208,"Ġà¦īà¦ªà¦¶à¦®":4209,"erkanth":4210,"à§Ģà¦¬à¦¨à¦°à¦¹à¦¸":4211,"Ġà¦ħà¦ªà¦¹à¦°à¦£":4212,"ĠCerti":4213,"ĠCheck":4214,"Ġplay":4215,"Ġpackages":4216,"angladesh":4217,"icient":4218,"Ġâĺİâ":4219,"ĠTraining":4220,"ĠRegistration":4221,"hoppingdirect":4222,"ĠProfess":4223,"ribune":4224,"portant":4225,"@kalerkanth":4226,"/ASSattar":4227,"/imsattar":4228,"@bdtim":4229,"@yahoo":4230,"HNOLOGY":4231,"IVE":4232,"Tags":4233,"lnk":4234,"lish":4235,"ohnson":4236,"puter":4237,"uidado":4238,"Ġhealth":4239,"Ġà¦ľà¦ĸà¦®":4240,"à¦¿à¦ķà¦Ĺà¦£à¦ķ":4241,"Ġà¦°à¦īà¦«":4242,"Ġà¦Ĺà¦«à¦°à¦Ĺ":4243,"Ġà¦ªà¦°à¦ªà¦°à¦ĩ":4244,"à§ĩà¦²à¦īà¦¡":4245,"à§ĩà¦ľà¦ķà¦¤à¦¤":4246,"Ġà¦ıà¦²à¦Ĩà¦°à¦¬":4247,"Ġà¦ıà¦¨à¦Ĩà¦ĩà¦¡":4248,"à¦ħà¦¬à¦¸à¦°":4249,"online":4250,"engali":4251,"à¦ıà¦¸à¦ıà¦¨à¦ıà¦¨":4252,"ĠSamuel":4253,"ĠSurendra":4254,"ĠSaturday":4255,"ilidades":4256,"ĠContinue":4257,"arNEWS":4258,"Ġbalance":4259,"Ġnivel":4260,"Ġhabilidades":4261,"stagram":4262,"ĠDemocracy":4263,"ĠBroken":4264,"ĠTECHNOLOGY":4265,"ĠRights":4266,"Ġefficient":4267,"ollected":4268,"ĠJustice":4269,"Ġthrough":4270,"Ġfreindly":4271,"Ġinfocn":4272,"ĠKumar":4273,"Ġenvironment":4274,"Ġcaptivated":4275,"oxsbazarNEWS":4276,"@kalerkantho":4277,"@bdtimes":4278,"!à¦¸":4279,"#à¦ªà¦°à¦¬à¦°":4280,"%,":4281,"''":4282,"'m":4283,"'s":4284,"'à¦°":4285,"'à¥¤":4286,"'à¦¹":4287,"'à¦Ń":4288,"'à¦ľà¦¨":4289,"'à¦Ĩà¦°":4290,"(E":4291,"(Q":4292,"(à¦°":4293,"(à¦®":4294,"(à¦¹":4295,"(à¦¶":4296,"(à¦ĸ":4297,"(à¦ķà¦®":4298,"(!)":4299,")\"":4300,").":4301,");":4302,")M":4303,")à¦ķ":4304,")à¦¬":4305,")à¦ª":4306,")à¦¶":4307,"*)":4308,"*à¦¬":4309,",C":4310,",P":4311,",S":4312,",c":4313,",p":4314,",à¦¦":4315,",à¦Ľ":4316,",à¦Ń":4317,",à¦ĸ":4318,",à¦Ĩ":4319,",à¦ı":4320,",à¦¸à¦¹":4321,",com":4322,",à¦Ĩà¦®":4323,",à¦ıà¦®":4324,",âĢĺ":4325,",à¦¸à¦¨":4326,",âĢĶ":4327,",à¦Ĩà¦¬":4328,",à¦ªà¦²":4329,",à¦¨à¦¤":4330,",à¦ªà¦ŀ":4331,",à¦ıà¦ķà¦Ł":4332,"-à¦ľ":4333,"-à¦§":4334,"-à¦ĵà¦¯":4335,"-à¦ł":4336,"-à¦ªà¦¤":4337,"-à¦ħ":4338,"-à¦ıà¦¸":4339,"-do":4340,"-à¦Ĩà¦®":4341,"-à¦ıà¦®":4342,"-à¦ķà¦²":4343,"-âĢĺ":4344,"-à¦ıà¦ĩ":4345,"-à¦¤à¦°":4346,"-à¦¨à¦¬":4347,"-à¦Ĩà¦¨":4348,"-à¦ħà¦¨":4349,"-à¦¹à¦¤":4350,"-à¦ĩà¦¸":4351,"-à¦īà¦²":4352,"-à¦Ĩà¦Ĺ":4353,"-à¦Ĩà¦²":4354,"-à¦§à¦°":4355,"-à¦ĺà¦°":4356,"-à¦ħà¦Ń":4357,"-à¦ħà¦§":4358,"-à¦Ĩà¦¨à¦¨":4359,"-Bangla":4360,"-ee":4361,".A":4362,".S":4363,".d":4364,".r":4365,".s":4366,".à¦®":4367,".à¦ı":4368,".à¦ıà¦¨":4369,".ds":4370,".ude":4371,".youtube":4372,"/%":4373,"/B":4374,"/C":4375,"/G":4376,"/H":4377,"/Q":4378,"/W":4379,"/c":4380,"/g":4381,"/à¦¸":4382,"/à¦¦":4383,"/à¦Ĺ":4384,"/à¦Ľ":4385,"/à¦ľ":4386,"/à¦«":4387,"/à¦ħà¦¨":4388,"/à¦®à¦ľ":4389,"/à¦ĩà¦ī":4390,"/à¦¸à¦¹à¦ķ":4391,"/à¦ıà¦ĩà¦ļ":4392,"/à¦®à¦¹à¦²":4393,"/à¦Ĩà¦°à¦ı":4394,":S":4395,":à¦¨":4396,":âĢĺ":4397,":news":4398,"=?":4399,"@c":4400,"@ho":4401,"AB":4402,"AL":4403,"Al":4404,"Ar":4405,"App":4406,"Auth":4407,"BE":4408,"BO":4409,"BS":4410,"Bus":4411,"Bangladesh":4412,"CP":4413,"CR":4414,"Cl":4415,"Co":4416,"Categor":4417,"Cleaner":4418,"Collected":4419,"CoxsbazarNEWS":4420,"DG":4421,"Di":4422,"DOM":4423,"DSS":4424,"ET":4425,"Em":4426,"Eà¦Ł":4427,"ESI":4428,"ESS":4429,"EBO":4430,"FOR":4431,"FIC":4432,"Fren":4433,"GM":4434,"How":4435,"In":4436,"Ich":4437,"INE":4438,"Image":4439,"IBE":4440,"IFIC":4441,"Johnson":4442,"KER":4443,"LA":4444,"LE":4445,"LT":4446,"Le":4447,"Ll":4448,"Like":4449,"LINE":4450,"ML":4451,"MO":4452,"MY":4453,"Mu":4454,"Man":4455,"Mor":4456,"Met":4457,"MATION":4458,"MAR":4459,"MDSS":4460,"NG":4461,"NP":4462,"NSI":4463,"NMu":4464,"OK":4465,"OU":4466,"OKI":4467,"PP":4468,"PAN":4469,"RC":4470,"Ro":4471,"Ronline":4472,"ROU":4473,"SB":4474,"Se":4475,"Si":4476,"To":4477,"The":4478,"TOR":4479,"TPH":4480,"TIVE":4481,"TNMu":4482,"UV":4483,"Urdu":4484,"UBS":4485,"Vis":4486,"Why":4487,"Xc":4488,"Yem":4489,"YST":4490,"ZCP":4491,"[à¦Ń":4492,"]\"":4493,"].":4494,"]à¥¤":4495,"]]\"":4496,"_rue":4497,"ax":4498,"are":4499,"ama":4500,"ast":4501,"aid":4502,"aha":4503,"air":4504,"bm":4505,"bs":4506,"bon":4507,"bar":4508,"bing":4509,"ble":4510,"bas":4511,"bol":4512,"bori":4513,"bos":4514,"box":4515,"bangl":4516,"bian":4517,"bama":4518,"cm":4519,"cu":4520,"cin":4521,"can":4522,"ced":4523,"cal":4524,"cri":4525,"card":4526,"dw":4527,"dy":4528,"dro":4529,"das":4530,"dren":4531,"dctg":4532,"eo":4533,"ev":4534,"ey":4535,"eer":4536,"eed":4537,"ele":4538,"elo":4539,"eight":4540,"each":4541,"eQu":4542,"eRonline":4543,"fin":4544,"fà¦ĩà¦¨":4545,"fur":4546,"ffer":4547,"ful":4548,"fuck":4549,"formation":4550,"ficate":4551,"gan":4552,"ged":4553,"gar":4554,"gle":4555,"gra":4556,"goo":4557,"get":4558,"gain":4559,"gpo":4560,"gust":4561,"gso":4562,"gues":4563,"gency":4564,"glish":4565,"hon":4566,"hat":4567,"had":4568,"hang":4569,"hic":4570,"hur":4571,"hjo":4572,"hists":4573,"hork":4574,"html":4575,"iU":4576,"iz":4577,"iÃ":4578,"ied":4579,"ifi":4580,"iport":4581,"image":4582,"ieQu":4583,"jv":4584,"jin":4585,"jhal":4586,"kar":4587,"kla":4588,"ket":4589,"kash":4590,"kjhal":4591,"ld":4592,"les":4593,"ling":4594,"lia":4595,"lus":4596,"lied":4597,"my":4598,"min":4599,"mes":4600,"ming":4601,"mem":4602,"mist":4603,"mbian":4604,"mdctg":4605,"nes":4606,"nse":4607,"nel":4608,"nia":4609,"night":4610,"nya":4611,"nAl":4612,"nifi":4613,"oma":4614,"ost":4615,"ock":4616,"otar":4617,"oti":4618,"otha":4619,"ody":4620,"okjhal":4621,"pt":4622,"py":4623,"per":4624,"pen":4625,"plo":4626,"pel":4627,"pment":4628,"pir":4629,"pow":4630,"part":4631,"pions":4632,"paid":4633,"pdas":4634,"pful":4635,"qun":4636,"rd":4637,"ran":4638,"rov":4639,"rar":4640,"ral":4641,"rad":4642,"ring":4643,"rof":4644,"run":4645,"rent":4646,"rid":4647,"right":4648,"rune":4649,"rder":4650,"rket":4651,"sia":4652,"sday":4653,"sapp":4654,"sense":4655,"shoppingdirect":4656,"tc":4657,"td":4658,"ton":4659,"ted":4660,"the":4661,"tit":4662,"tmail":4663,"tps":4664,"tate":4665,"time":4666,"tend":4667,"tbol":4668,"tgpo":4669,"tokjhal":4670,"ued":4671,"use":4672,"uide":4673,"ugust":4674,"ver":4675,"vic":4676,"velo":4677,"vtps":4678,"won":4679,"wor":4680,"wood":4681,"xem":4682,"yment":4683,"yfuck":4684,"ymbian":4685,"zed":4686,"zul":4687,"£à¦¦à¦°":4688,"¦à¦¾":4689,"¯â":4690,"³n":4691,"¸ı":4692,"ºà¦¿":4693,"ºtbol":4694,"½...":4695,"¿½...":4696,"Â·":4697,"Âķ":4698,"Â¦à¦¾":4699,"ÃŃ":4700,"Ãºtbol":4701,"Å¸":4702,"âĻ":4703,"ïģ":4704,"ï¸ı":4705,"ï¿½...":4706,"ðŁ":4707,"Ġ>":4708,"Ġ`":4709,"ĠâĢĻ":4710,"Ġ..":4711,"Ġov":4712,"Ġdo":4713,"Ġed":4714,"Ġem":4715,"Ġess":4716,"Ġel":4717,"Ġis":4718,"Ġout":4719,"Ġol":4720,"Ġres":4721,"Ġque":4722,"Ġrim":4723,"Ġought":4724,"ĠYem":4725,"Ġimage":4726,"Ġqun":4727,"Ġrun":4728,"Ġuse":4729,"Ġïģ":4730,"ĠðŁ":4731,"ĥ,":4732,"Ħĥ,":4733,"Ĭà¦¦":4734,"Ĭà¦ī":4735,"ĳï¸ı":4736,"Ĵ¬":4737,"Ĵ»":4738,"ĺĳï¸ı":4739,"ľħ":4740,"ŀ¤":4741,"à¦Ĭà¦ī":4742,"à¦¾=":4743,"à¦¾à¦¾à¥¤":4744,"à¦¾..":4745,"à¦¾âĢ¦":4746,"à¦¾âĢĺ":4747,"à¦¾ï¿½...":4748,"à¦°à¦Ł":4749,"à¦°à¦¡":4750,"à¦°à¦¶":4751,"à¦°à¦Ļ":4752,"à¦°à¦¹à¦®":4753,"à¦°à¦Ŀ":4754,"à¦°à¦¨à¦Ĺà¦°":4755,"à§ĩ\"":4756,"à§ĩ[":4757,"à§ĩà§Ģ":4758,"à§ĩ..":4759,"à§ĩà§İ":4760,"à§ĩâĢĮ":4761,"à§ĩâĢĿ":4762,"à§ĩ)à¥¤":4763,"à§ĩ),":4764,"à§ĩâĢ¦âĢ¦":4765,"à§ĩÃĳ":4766,"à§į-":4767,"à§įâĢĻ":4768,"à¦¾à¦¿":4769,"à¦¾à¦Ĭà¦¦":4770,"à¦¿\"":4771,"à¦¿_":4772,"à¦¿à§ĩ":4773,"à¦¿à§ģ":4774,"à¦¿âĢĺ":4775,"à¦¿âĢĵ":4776,"à¦¿âĢ¦âĢ¦âĢ¦âĢ¦":4777,"à¦¿Eà¦Ł":4778,"à§įà¦¹":4779,"à¦¨à¦¨":4780,"à¦¨à¦ª":4781,"à¦¨à¦ľ":4782,"à¦¨à¦¥":4783,"à¦¨à¦ķà¦°":4784,"à¦¼(":4785,"à¦¼.":4786,"à¦¼à¦¶":4787,"à¦¼à¦§":4788,"à¦¼âĢĻ":4789,"à¦¼à¦ĥ":4790,"à¦¼à¦ĸà¦¨":4791,"à¦¼à§ĭâĢĻ":4792,"à¦¼à¦°à¦£":4793,"à¦¼à¦Ŀ":4794,"à¦¼à¦ĩà¦¨":4795,"à¦¼)à¥¤":4796,"à¦¼à¦ľà¦¨à¦ķ":4797,"à¦¼âĢĻà¥¤":4798,"à§ĩà¦Ĥ":4799,"à§ģ.":4800,"à§ģ:":4801,"à§ģà¦ĵà¦¯":4802,"à§ģà¦ī":4803,"à§ģ...":4804,"à§ģà¦ĺ":4805,"à§ģà¦¸à¦®":4806,"à§ģà¦Ĺà¦ŀ":4807,"à§ģà¦¢":4808,"à§ģâĢĺ":4809,"à§ģà¦ļà¦¨":4810,"à§ģà¦Ĩà¦²":4811,"à§ģà¦Īà¦¨":4812,"à¦¾à¦°à¦¯":4813,"à¦¾à¦°à¦¡":4814,"à¦¾à¦°à¦«":4815,"à¦¾à¦°à¦Ĺà¦ŀ":4816,"à¦¾à¦°à¦Ŀ":4817,"à¦¾à¦°à¦Ľà¦¡":4818,"à¦¾à¦°à¦«à¦¤":4819,"à¦ķà¦¸":4820,"à¦ķà¦ª":4821,"à¦ķà¦Ľ":4822,"à¦ķà¦Ń":4823,"à¦ķà¦·":4824,"à¦ķà¦¬à¦°":4825,"à¦ķà¦ĵà¦¯":4826,"à¦ķà¦²à¦ķ":4827,"à¦ķà¦ľà¦¨à¦ķ":4828,"Ġà¦ķà¦¸":4829,"Ġà¦ķà¦Ľ":4830,"Ġà¦ķà¦«":4831,"Ġà¦ķà¦Ļ":4832,"Ġà¦ķà¦ķà¦Ł":4833,"Ġà¦ķà¦¸à¦¬":4834,"Ġà¦ķà¦¸à¦ķ":4835,"Ġà¦¸à¦¯":4836,"Ġà¦¸à¦ĸ":4837,"Ġà¦¸à¦ªà¦°":4838,"Ġà¦¸à¦¹à¦®":4839,"Ġà¦¸à¦¤à¦¨":4840,"Ġà¦¸à¦ĩà¦¤":4841,"Ġà¦¸à¦Ĺà¦¦":4842,"à¦²à¦¸":4843,"à¦²à¦ĩ":4844,"à¦²à¦¡":4845,"à¦²à¦Ń":4846,"à¦²à¦¥":4847,"à¦²à¦«":4848,"à¦²Tags":4849,"Ġà¦¬à¦£":4850,"Ġà¦¬à¦ĸ":4851,"Ġà¦¬à¦ķà¦°":4852,"Ġà¦¬à¦¸à¦²":4853,"à¦¤à¦ķ":4854,"à¦¤à¦ĩ":4855,"à¦¤à¦¡":4856,"à¦¤à¦Ĺà¦ŀ":4857,"à¦¤à¦°à¦£":4858,"à¦¤à¦¦à¦¨":4859,"à¦¤à¦«à¦¸":4860,"à§ĭà¦ŀ":4861,"à§ĭà¦ĵà¦¯":4862,"à§ĭà¦¸à¦²":4863,"à§ĭà§İà¦¸":4864,"à§ĭâĢĮ":4865,"à§ĭâĢĿ":4866,"à§ĭ)à¥¤":4867,"à§ĭÂ»":4868,"à§ĭà¦ħà¦ª":4869,"à§ĭÃĳ":4870,"Ġà¦ªà¦ļ":4871,"Ġà¦ªà¦¬à¦¨":4872,"Ġà¦ªà¦Ĺà¦¬":4873,"à¦¬à¦ķ":4874,"à¦¬à¦¡":4875,"à¦¬à¦Ń":4876,"à¦¬à¦¹à¦¤":4877,"à¦¬à¦ĩà¦Ł":4878,"à¦®à¦²":4879,"à¦®à¦¦":4880,"à¦®à¦ĩ":4881,"à¦®à¦¥":4882,"à¦®à¦ŀ":4883,"à¦®à§İà¦¸":4884,"à§ĩà¦°à¦¨":4885,"à§ĩà¦°à¦¡":4886,"à§ĩà¦°à¦¥":4887,"à§įà¦°à¦¸à¦®":4888,"à¦¯à¦¤":4889,"à¥¤)":4890,"à¥¤-":4891,"à¥¤à¦²":4892,"à¥¤à¦®":4893,"à¥¤à¦¯":4894,"à¥¤à¦¦":4895,"à¥¤à¦Ĺ":4896,"à¥¤à¦Ľ":4897,"à¥¤à¦Ń":4898,"à¥¤à¦ļ":4899,"à¥¤à¦®à¦¨":4900,"à¥¤à¦ªà¦°":4901,"à¥¤à¦ıà¦°":4902,"à¥¤à¦Ŀ":4903,"à¥¤âĢĺ":4904,"à¥¤à¦ıà¦ĩ":4905,"à¥¤à¦ķà¦¬":4906,"à¥¤à¦ľà¦¯":4907,"à¥¤à¦ĵà¦ĩ":4908,"à¥¤à¦ıà¦Ł":4909,"à¥¤à¦Ĺà¦¤à¦ķ":4910,"à¥¤à¦Ĩà¦ĩà¦¸":4911,"à¥¤à¦ħà¦¥à¦ļ":4912,"à¥¤à¦¸à¦ķà¦²à¦ķ":4913,"à¥¤''":4914,"à¥¤bangl":4915,"à§įà¦¯à¦¹":4916,"à§įà¦¯à¦ĸ":4917,"à§įà¦¯à¦ŀ":4918,"à§įà¦¯à¦ľà¦¨":4919,"à§įà¦¯à§İ":4920,"à§įà¦¯à¦¸à¦¹":4921,"à§įà¦¯à¦ľà¦¨à¦ķ":4922,"à§įà¦¯à¦¹à¦¤":4923,"à§įà¦¯à¦°à¦ķà¦®":4924,"à§Ģ!":4925,"à§Ģ\"":4926,"à§Ģ.":4927,"à§Ģà¦¸":4928,"à§Ģà¦ĥ":4929,"à§Ģà¦ķà¦°":4930,"à§Ģà¦ł":4931,"à§Ģà¦¸à¦®":4932,"à§ĢâĢĿ":4933,"à§Ģà¦¹à¦¤":4934,"à§ĢâĢĻà¥¤":4935,"à§Ģà¦ķà¦°à¦¨":4936,"à§ĢâĢĿà¥¤":4937,"à§Ģ----":4938,"Ġà¦®à¦®":4939,"Ġà¦®à¦Ĺ":4940,"Ġà¦®à¦ĵ":4941,"Ġà¦®à¦ľà¦¨":4942,"Ġà¦®à¦¸à¦²":4943,"Ġà¦®à¦°à¦£":4944,"Ġà¦®à¦°à¦¸":4945,"Ġà¦®à¦ĸà¦²":4946,"Ġà¦®à¦«à¦¸":4947,"Ġà¦®à¦Ĺà¦¬":4948,"Ġà¦®à¦Ĺà¦¡":4949,"Ġà¦®à¦ļà¦®":4950,"Ġà¦®à¦ĵà¦ķ":4951,"Ġà¦®à¦ķà¦¸":4952,"à¦¾à¦¨à¦²":4953,"à¦¾à¦¨à¦¹":4954,"à¦¾à¦¨à¦¶":4955,"à¦¾à¦¨à¦¥":4956,"à¦¾à¦¨à¦«":4957,"à¦¾à¦¨à¦¸à¦®":4958,"à¦¾à¦¨à¦°à¦¤":4959,"à¦¾à¦¨à¦Ľà¦¡":4960,"à¦¾à¦¨à¦ľà¦¨à¦ķ":4961,"à¦¸à¦¦":4962,"à¦¸à¦Ł":4963,"à¦¸à¦ĵ":4964,"à¦¸à¦ŀ":4965,"à¦¸à¦ķà¦²":4966,"à¦¸à¦¤à¦°":4967,"Ġà¦ıà¦¹":4968,"Ġà¦ıà¦ĵ":4969,"Ġà¦ıà¦ıà¦«":4970,"Ġà¦¨à¦¸":4971,"Ġà¦¨à¦ļ":4972,"Ġà¦¨à¦ĸ":4973,"Ġà¦¨à¦¬à¦¨":4974,"Ġà¦¹à¦®":4975,"Ġà¦¹à¦°à¦¸":4976,"à¦¦à¦ĩ":4977,"à¦¦à¦¹à¦¨":4978,"à¦¦à¦®à¦ľ":4979,"à§įà¦¤à¦¯":4980,"à§įà¦¤à¦ĵ":4981,"à§įà¦¤à¦¬à¦°":4982,"à§įà¦¤à¦ķà¦°à¦£":4983,"à¦¼à§ĩ;":4984,"à¦¼à§ĩ...":4985,"à¦¼à§ĩâĢĶ":4986,"à¦ªà¦¯":4987,"à¦ªà¦¸":4988,"à¦ªà¦£":4989,"à¦ªà¦¶":4990,"à¦ªà§İ":4991,"à¦ªà¦Ľà¦¨":4992,"Ġà¦ķà¦°à¦¦":4993,"à¦Łà¦²":4994,"à¦Łà¦Ľ":4995,"à¦Łà¦Ľà¦¡":4996,"à¦¼à¦¾!":4997,"à¦¼à¦¾\"":4998,"à¦¼à¦¾:":4999,"à¦¼à¦¾;":5000,"à¦¼à¦¾...":5001,"à¦¼à¦¾âĢĮ":5002,"à¦¼à¦¾Â»":5003,"Ġà¦ľà¦Ĺ":5004,"Ġà¦ľà¦¶":5005,"Ġà¦ľà¦ĵà¦¯":5006,"Ġà¦ľà¦²à¦ķ":5007,"Ġà¦ľà¦²à¦¬":5008,"Ġà¦ľà¦ĺà¦¨":5009,"Ġà¦¤à¦®":5010,"Ġà¦¤à¦ª":5011,"Ġà¦¤à¦ªà¦¨":5012,"Ġà¦¤à¦¸à¦²":5013,"Ġà¦¤à¦²à¦¬":5014,"Ġà¦¤à¦ķà¦®":5015,"Ġà¦¤à¦Ľà¦¨":5016,"Ġà¦¤à¦¹à¦¬":5017,"Ġà¦¤à¦¹à¦¶":5018,"Ġà¦ħà¦ĩ":5019,"Ġà¦ħà¦ļ":5020,"Ġà¦ħà¦¬à¦¨":5021,"Ġà¦ħà¦¶à¦¨":5022,"Ġà¦ħà¦ļà¦²":5023,"Ġà¦ħà¦¹à¦°":5024,"à§ĩà¦¨à¦°":5025,"à§ĩà¦¨à¦Ł":5026,"à§ĩà¦¨à¦ľ":5027,"à§ĩà¦¨à¦¶":5028,"à§ĩà¦¨à¦ĵ":5029,"à§ĩà¦¨à¦¸à¦¹":5030,"à§ĩà¦¨à¦¬à¦²":5031,"à¦Ĺà¦Ń":5032,"à¦Ĺà¦°à¦®":5033,"à¦Ĺà¦ĩà¦¨":5034,"à¦¾à¦²à¦²":5035,"à¦¾à¦²à¦Ĺ":5036,"à¦¾à¦²à¦ĩ":5037,"à¦¾à¦²à¦ļ":5038,"à¦¾à¦²à¦ĵ":5039,"à¦¾à¦²à¦ķà¦°":5040,"à¦¾à¦²à¦ĵà¦¯":5041,"à¦¾à¦²à¦ĺ":5042,"à¦¾à¦®à¦¹":5043,"à¦¾à¦®à¦ĸ":5044,"à¦¾à¦®à¦«":5045,"à¦¾à¦®à¦ķà¦°":5046,"à¦¾à¦®à¦ªà¦¤":5047,"à¦¾à¦®à¦ĩà¦¨":5048,"à¦¾à¦®à¦¤à¦°":5049,"à¦¾à¦®à¦ļà¦¨":5050,"à¦¾à¦®à¦ķà¦°à¦¨":5051,"à¦¿à¦¨à¦®":5052,"à¦¿à¦¨à¦Ĺ":5053,"à¦¿à¦¨à¦¥":5054,"à¦¿à¦¨à¦Ĺà¦¤":5055,"à¦¿à¦¨à¦Ĺà¦£":5056,"à¦¿à¦¨à¦ľà¦¨à¦ķ":5057,"à¦¿à¦¨à¦Ńà¦°":5058,"à¦¿à¦ķà¦ĩ":5059,"à¦¿à¦ķà¦£":5060,"à¦¿à¦ķà¦¥":5061,"à¦¿à¦ķà¦ªà¦ķ":5062,"à¦¿à¦ķà¦¤à¦®":5063,"à¦¿à¦ķà¦¤à¦°":5064,"à¦¾à¦¯à¦¨":5065,"à¦¿à¦°à¦¨":5066,"à¦¿à¦°à¦Ĺ":5067,"à¦¿à¦°à¦Ľ":5068,"à¦¿à¦°à¦ļ":5069,"à¦¿à¦°à¦ĸ":5070,"à¦¿à¦°à¦ĩà¦²":5071,"à¦¿à¦°à¦īà¦¦":5072,"à§įà¦¬à¦®":5073,"à§įà¦¬à¦§":5074,"à§įà¦¬à¦¦à¦°":5075,"Ġà¦°à¦¤":5076,"Ġà¦°à¦ĩ":5077,"Ġà¦°à¦ľ":5078,"Ġà¦°à¦ļ":5079,"Ġà¦°à¦ŀ":5080,"Ġà¦°à¦ľà¦¨":5081,"Ġà¦°à¦¨à¦¬":5082,"à¦¹à¦¯":5083,"à¦¹à¦Ł":5084,"à¦¹à¦¹":5085,"à¦¹à¦ľ":5086,"à¦¹à¦Ń":5087,"à¦¹à¦°à¦¤":5088,"à¦¹à¦¤à¦°":5089,"à¦¾à¦ķà¦ķ":5090,"à¦¾à¦ķà¦ľ":5091,"à¦¾à¦ķà¦¶":5092,"à¦¾à¦ķà¦ĵ":5093,"à¦¾à¦ķà¦ĵà¦¯":5094,"à¦¾à¦ķà¦¬à¦²":5095,"à¦¾à¦ķà¦¸à¦¬":5096,"à¦¾à¦ķà¦ĺà¦°":5097,"Ġà¦¯à¦¬":5098,"Ġà¦¯à¦¯":5099,"Ġà¦¯à¦·":5100,"Ġà¦¯à¦¤à¦¬":5101,"Ġà¦¯à¦Ī":5102,"Ġà¦¯fà¦ĩà¦¨":5103,"Ġà¦¯à¦¹à¦°à¦¤":5104,"à¦Ľà¦®":5105,"à¦Ľà¦¯":5106,"à¦Ľà¦Ł":5107,"à¦ĩà¦°":5108,"à¦ĩà¦ķ":5109,"à¦ĩà¦®":5110,"à¦ĩà¦ª":5111,"à¦ĩà¦¹":5112,"à¦ĩà¦Ľ":5113,"à¦ĩà¦¡":5114,"à¦ĩà¦Ń":5115,"à¦ĩà¦ļà¦Ł":5116,"à¦ĩà¦®à¦°":5117,"à¦ĩà¦«à¦¤":5118,"à¦ĩà¦īà¦ľ":5119,"à§įà¦Łà¦¬":5120,"à§įà¦Łà¦ª":5121,"à§įà¦Łà¦¡":5122,"à§įà¦Łà¦ĵ":5123,"à§įà¦Łà¦ľà¦¨":5124,"à§įà¦Łà¦ĵà¦¯":5125,"à§įà¦Łà¦¤à¦ĩ":5126,"à¦¿à¦¤à¦ķ":5127,"à¦¿à¦¤à¦²":5128,"à¦¿à¦¤à¦¸":5129,"à¦¿à¦¤à¦¦":5130,"à¦¿à¦¤à¦Ĺ":5131,"à¦¿à¦¤à¦£":5132,"à¦¿à¦¤à¦ĵ":5133,"à¦¿à¦¤à¦ķà¦²":5134,"à¦¿à¦¤à¦ķà¦°à¦£":5135,"à¦¿à¦¤à¦¸à¦ķ":5136,"à¦¿à¦¤à¦ķà¦°à¦¨":5137,"à¦ľà¦ķ":5138,"à¦ľà¦®":5139,"à¦ľà¦§":5140,"à¦ľà¦ĸ":5141,"à¦ľà¦ĩà¦²":5142,"à¦ľà¦ķà¦¦":5143,"Ġà¦¶à¦Ł":5144,"Ġà¦¶à¦°à¦®":5145,"Ġà¦¶à¦®à¦°":5146,"Ġà¦¶à¦ĵà¦ķ":5147,"Ġà¦Ĺà¦®":5148,"Ġà¦Ĺà¦ľà¦¨":5149,"Ġà¦Ĺà¦®à¦¨":5150,"Ġà¦Ĺà§İ":5151,"Ġà¦Ĺà¦®à¦°":5152,"Ġà¦Ĺà¦Ĺà¦¨":5153,"Ġà¦ļà¦ŀ":5154,"Ġà¦ļà¦Łà¦ķ":5155,"Ġà¦ļà¦ĵà¦¡":5156,"à¦Ĥ)":5157,"à¦Ĥ;":5158,"à¦ĤF":5159,"à¦Ĥà¦®":5160,"à¦Ĥà¦¹":5161,"à¦Ĥà¦¬à¦°":5162,"à¦ĤâĢ¦":5163,"à¦Ĥà¦łà¦¨":5164,"à§ĩà¥¤\"":5165,"à§ĩà¥¤...":5166,"à§ĩà¥¤âĢľ":5167,"à¦¾à¦ĩà¦ĵ":5168,"à¦¾à¦ĩà¦ķà¦°":5169,"à¦¾à¦ĩà¦ªà¦°":5170,"Ġà¦ĵà¦Ł":5171,"Ġà¦ĵà¦¡":5172,"Ġà¦ĵà¦²à¦®":5173,"à¦¡à¦¸":5174,"à¦¡à¦¬à¦²":5175,"à§ģà¦°à¦ª":5176,"à§ģà¦°à¦¶":5177,"à§ģà¦°à¦·":5178,"à§ģà¦°à¦°à¦¹à¦®":5179,"à¦¾à¦¬à¦Ĺ":5180,"à¦¾à¦¬à¦ĩ":5181,"à¦¾à¦¬à¦ıà¦¨":5182,"à¦¾à¦¬à¦ķà¦¦":5183,"à§ģà¦²à¦°":5184,"à§ģà¦²à¦¸":5185,"à§ģà¦²à¦ĩ":5186,"à§ģà¦²à¦¸à¦¹":5187,"à¦¾à¦¤à¦ª":5188,"à¦¾à¦¤à¦Ľ":5189,"à¦¾à¦¤à¦ľ":5190,"à¦¾à¦¤à¦ľà¦¨":5191,"à¦¾à¦¤à¦ªà¦°":5192,"à¦¾à¦¤à¦®à¦¯":5193,"âĢºà¦¿":5194,"à¦¾à¦¦à¦¸":5195,"à¦¾à¦¦à¦ľ":5196,"à¦¾à¦¦à¦ķà¦°":5197,"à¦¾à¦¦à¦¬à¦°":5198,"à¦¾à¦¦à¦ªà¦¦":5199,"à¦¿à¦²à¦¦":5200,"à¦¿à¦²à¦ª":5201,"à¦¿à¦²à¦Ĺ":5202,"à¦¿à¦²à¦Ľ":5203,"à¦¿à¦²à¦ĵ":5204,"à¦¿à¦²à¦¸à¦¹à¦ķ":5205,"à¦¾à¦¸à¦²":5206,"à¦¾à¦¸à¦Ĺ":5207,"à¦¾à¦¸à¦Ľ":5208,"à¦¾à¦¸à¦Ń":5209,"à¦¾à¦¸à¦Ļ":5210,"à¦¾à¦¸à¦ĵà¦¯":5211,"à¦¾à¦¸à¦¸à¦¹":5212,"à¦¾à¦¸à¦°à¦¤":5213,"à¦¾à¦¸à¦®à¦¯":5214,"à¦¾à¦¸à¦¬à¦¹":5215,"à§įà¦·à¦¬":5216,"à§įà¦·à¦Ł":5217,"à§įà¦·à¦ĵ":5218,"à§įà¦·à¦ķà¦°":5219,"à§įà¦·à¦°à¦£":5220,"Ġà¦īà¦¸":5221,"Ġà¦īà¦¶":5222,"Ġà¦īà¦ĸ":5223,"Ġà¦īà¦Ĺà¦°":5224,"Ġà¦īà¦®à¦¤":5225,"Ġà¦īà¦²à¦ķ":5226,"Ġà¦īà¦Ī":5227,"Ġà¦īà¦¸à¦ķ":5228,"à¦¶à¦¹":5229,"à¦¶à¦ĸ":5230,"à¦¶à¦Ŀ":5231,"à¦¶à¦¹à¦°":5232,"Ġà¦Ńà¦²":5233,"Ġà¦Ńà¦¸":5234,"Ġà¦Ńà¦¦":5235,"Ġà¦Ńà¦Ļ":5236,"Ġà¦Ńà¦ľà¦¨":5237,"Ġà¦Ńà¦°à¦£":5238,"Ġà¦Ńà¦Ĺà¦¤":5239,"Ġà¦Ńà¦Ĺà¦¬":5240,"Ġà¦ªà¦°à¦ķ":5241,"Ġà¦ªà¦°à¦ª":5242,"Ġà¦ªà¦°à¦¬à¦¤":5243,"à§ĩà¦¶à¦®":5244,"à§ĩà¦¶à¦¯":5245,"à§ĩà¦¶à¦¹":5246,"à§ĩà¦¶à¦ĩ":5247,"à§ĩà¦¶à¦ĵ":5248,"à§ĩà¦¶à¦ªà¦¤":5249,"à§ĩà¦¶à¦¸à¦¹":5250,"à§ĩà¦¶à¦ķà¦Ł":5251,"à¦Ńà¦¬":5252,"à§ĩà¦ķà¦ľ":5253,"à§ĩà¦ķà¦Ń":5254,"à§ĩà¦ķà¦ĸ":5255,"à§ĩà¦ķà¦®à¦¤":5256,"à§ĩà¦ķà¦¸à¦¹":5257,"à§ĩà¦ķà¦¸à¦ĩ":5258,"à¦ļà¦°":5259,"à¦ļà¦¤":5260,"à¦ļà¦ľà¦¨":5261,"à§ĩà¦²à¦°":5262,"à§ĩà¦²à¦¦":5263,"à§ĩà¦²à¦¹":5264,"à§ĩà¦²à¦¡":5265,"à§ĩà¦²à¦Ń":5266,"à§ĩà¦²à¦ĵ":5267,"à§ĩà¦²à¦¥":5268,"à§ĩà¦²à¦®à¦¨":5269,"à§ĩà¦²à¦¬à¦¨":5270,"à§ĩà¦²à¦¸à¦¹":5271,"à§ĩà¦²à¦¸à¦ķ":5272,"à§ĩà¦²à¦ªà¦¥":5273,"Ġà¦ıà¦ķà¦¯":5274,"Ġà¦ıà¦ķà¦ª":5275,"Ġà¦ıà¦ķà¦Ĺ":5276,"Ġà¦ıà¦ķà¦ªà¦ķ":5277,"Ġà¦ıà¦ķà¦¬à¦Ľà¦°":5278,"Ġà¦ıà¦ķà¦¤à¦°":5279,"Ġà¦ıà¦ķà¦¸à¦®à¦¯":5280,"Ġà¦ıà¦ķà¦°à¦ķà¦®":5281,"Ġà¦«à¦ķ":5282,"Ġà¦«à¦ľ":5283,"Ġà¦«à¦ķà¦°":5284,"Ġà¦«à¦Łà¦ķ":5285,"Ġà¦«à¦¸à¦ķ":5286,"à¦¾à¦ľà¦Ĺ":5287,"à¦¾à¦ľà¦Ľ":5288,"à¦¾à¦ľà¦ĩ":5289,"à¦¾à¦ľà¦Ń":5290,"à¦¾à¦ľà¦ĵ":5291,"à¦¾à¦ľà¦ķà¦°":5292,"à¦¾à¦ľà¦¸à¦¹":5293,"à¦¾à¦ľà¦ĺà¦°":5294,"Ġà¦¸à¦®à¦¤":5295,"Ġà¦¸à¦®à¦Ĺ":5296,"Ġà¦¸à¦®à¦Ń":5297,"Ġà¦¸à¦®à¦·":5298,"Ġà¦ĩà¦¬":5299,"Ġà¦ĩà¦Ĺ":5300,"Ġà¦ĩà¦¡":5301,"Ġà¦ĩà¦ķà¦°":5302,"Ġà¦ĩà¦®à¦¤":5303,"Ġà¦ĩà¦§à¦°":5304,"Ġà¦ĩà¦ĩà¦ī":5305,"Ġà¦ĩà¦¶à¦°":5306,"Ġà¦²à¦°":5307,"Ġà¦²à¦²":5308,"Ġà¦²à¦¯":5309,"Ġà¦²à¦¸":5310,"Ġà¦²à¦ŀ":5311,"Ġà¦²à¦ĩà¦¤":5312,"Ġà¦²à¦ĩà¦¬":5313,"Ġà¦²à¦Ĺà¦ĩà¦¨":5314,"Ġà¦¥à¦®à¦ķ":5315,"Ġà¦¥à¦®à¦¥":5316,"à§įà¦®à¦¨":5317,"à§įà¦®à¦²":5318,"à§įà¦®à¦®":5319,"à§įà¦®à¦¹":5320,"à§įà¦®à¦¶":5321,"à§įà¦®à¦§":5322,"à§įà¦®à¦¥":5323,"à§įà¦®à¦«":5324,"à§įà¦®à¦¬à¦°":5325,"à§įà¦®à¦ªà¦°":5326,"à§įà¦®à¦¸à¦¹":5327,"à§įà¦®à¦¨à¦¬":5328,"à¦¿à¦¶à¦¤":5329,"à¦¿à¦¶à¦¦":5330,"à¦¿à¦¶à¦Ĺ":5331,"à¦¿à¦¶à¦§":5332,"à¦¿à¦¶à¦ªà¦¤":5333,"à§ĥà¦°":5334,"à§ĥà¦®":5335,"à§ĥà¦¸":5336,"à§ĥà¦Ĺ":5337,"à§ĥà¦ľ":5338,"à§ĥà¦Ń":5339,"à§ĥà¦¬à¦¨":5340,"à§ĥà§İ":5341,"Ġà¦ĸà¦£":5342,"Ġà¦ĸà¦°à¦®":5343,"à§įà¦¦à¦ĵ":5344,"à§įà¦¦à¦Ĺà¦ŀ":5345,"à§įà¦¦à¦®à¦¤":5346,"à§įà¦¦à¦¶à¦¨":5347,"à§įà¦¦à¦¸à¦ĩ":5348,"à§Ĥà¦¸":5349,"à§Ĥà¦Ł":5350,"à§Ĥà¦ªà¦¤":5351,"à§Ĥà¦ģ":5352,"à§Ĥà¦Łà¦ķ":5353,"à§Ĥà¦ĸà¦°":5354,"à§Ĥà¦ĩà¦¯":5355,"à§Ĥà¦¸à¦°":5356,"à¦¾à¦¹à¦¯":5357,"à¦¾à¦¹à¦¦":5358,"à¦¾à¦¹à¦ļ":5359,"à¦¾à¦¹à¦ĸ":5360,"à¦¾à¦¹à¦ªà¦°":5361,"à¦¾à¦¹à¦īà¦¦":5362,"à¦¾à¦¹à¦Ĺà¦²":5363,"à¦¾à¦ªà¦¯":5364,"à¦¾à¦ªà¦ª":5365,"à¦¾à¦ªà¦Ĺ":5366,"à¦¾à¦ªà¦Ľ":5367,"à¦¾à¦ªà¦ĵ":5368,"à¦¾à¦ªà¦¥":5369,"Ġà¦Ľà¦¨":5370,"Ġà¦Ľà¦²":5371,"Ġà¦Ľà¦¤":5372,"Ġà¦Ľà¦¦":5373,"à§įà¦ªà¦²":5374,"à§įà¦ªà¦¸":5375,"à§įà¦ªà¦¹":5376,"à§įà¦ªà¦§":5377,"à§įà¦ªà¦«":5378,"à§įà¦ªà¦Łà¦¨":5379,"à§įà¦ªà¦ķà¦¬":5380,"à§įà¦ªà¦īà¦¦":5381,"à§įà¦¥à¦°":5382,"à§įà¦¥à¦¶":5383,"à§įà¦¥à¦ĵ":5384,"à§įà¦¥à¦ķà¦°":5385,"à§įà¦¥à¦ªà¦°":5386,"à§įà¦¥à¦ªà¦¤":5387,"à§įà¦¥à¦ªà¦¥":5388,"à¦ĸà¦£":5389,"à¦ĸà¦¬à¦°":5390,"à¦ĸà¦²à¦ķ":5391,"à¦ĵà¦°":5392,"à¦ĵà¦¬":5393,"à¦ĵà¦¹":5394,"à¦ĵà¦¸à¦®":5395,"à¦ĵà¦²à¦®":5396,"à¦¿à¦¬à¦ĵ":5397,"à¦¿à¦¸à¦¨":5398,"à¦¿à¦¸à¦Ĺ":5399,"à¦¿à¦¸à¦ĸ":5400,"à¦¿à¦¸à¦«":5401,"à§įà¦§à¦Ł":5402,"à§įà¦§à¦ľ":5403,"à§įà¦§à¦¶":5404,"à§įà¦§à¦ĵ":5405,"à§įà¦§à¦¬à¦¨":5406,"à§įà¦§à¦¸à¦®":5407,"à§įà¦§à¦¤à¦¨":5408,"à¦¾à¦Ĺà¦£":5409,"à¦¾à¦Ĺà¦§":5410,"à¦¾à¦Ĺà¦ĵ":5411,"à¦¾à¦Ĺà¦®à¦¨":5412,"à§ĩà¦ĩà¦ª":5413,"à§ĩà¦ĩà¦Ł":5414,"à§ĩà¦ĩà¦ıà¦ķ":5415,"à§ĩà¦ĩà¦¸à¦¬":5416,"Ġà¦ħà¦¨à¦®":5417,"Ġà¦ħà¦¨à¦Ł":5418,"Ġà¦ħà¦¨à¦¡":5419,"Ġà¦ħà¦¨à¦®à¦¨":5420,"Ġà¦ħà¦¨à¦¬à¦°":5421,"à§ĭà¦¨à¦²":5422,"à§ĭà¦¨à¦¸":5423,"à§ĭà¦¨à¦¦":5424,"à§ĭà¦¨à¦ĩ":5425,"à§ĭà¦¨à¦Ń":5426,"Ġà¦Ĩà¦®à¦¡":5427,"Ġà¦Ĩà¦®à¦¤à¦²":5428,"Ġà¦ľà¦¨à¦ľ":5429,"Ġà¦ľà¦¨à¦ĵ":5430,"Ġà¦ľà¦¨à¦¸à¦®":5431,"Ġà¦ľà¦¨à¦®à¦¤":5432,"Ġà¦ľà¦¨à¦¬à¦²":5433,"Ġà¦ľà¦¨à¦ķà¦²":5434,"Ġà¦ľà¦¨à¦¸à¦¨":5435,"à§ģà¦¨à¦Ľ":5436,"à§ģà¦¨à¦¶":5437,"à§ģà¦¨à¦Ń":5438,"à§ģà¦¨à¦·":5439,"à§ģà¦¨à¦¸à¦¹":5440,"à¦¾à¦¡à¦¨":5441,"à¦¾à¦¡à¦Ĺ":5442,"à¦¾à¦¡à¦°à¦Ł":5443,"à¦«à¦Ĺ":5444,"à§įà¦Ĺà¦¸":5445,"à§įà¦Ĺà¦£":5446,"à§įà¦Ĺà¦«":5447,"à§įà¦Ĺà¦¸à¦¹":5448,"à§įà¦¡à¦¯":5449,"à§įà¦¡à¦Ł":5450,"à§įà¦¡à¦Ĺ":5451,"à§įà¦¡à¦ļ":5452,"à§įà¦¡à¦«":5453,"à§įà¦¡à¦¸à¦¹":5454,"à§įà¦¡à¦Ĺà¦¤":5455,"Ġà¦Łà¦ķ":5456,"Ġà¦Łà¦¬":5457,"Ġà¦Łà¦¯":5458,"à¦¿à¦¦à¦ķ":5459,"à¦¿à¦¦à¦ĵà¦¯":5460,"à§Ģà¦°à¦ķ":5461,"à§Ģà¦°à¦ĩ":5462,"à§Ģà¦°à¦¶":5463,"à§Ģà¦°à¦¸à¦°":5464,"à§Ģà¦°à¦¨à¦Ĺà¦°":5465,"à¦¿à¦ľà¦ķ":5466,"à¦¿à¦ľà¦¬":5467,"à¦¿à¦ľà¦Ĺ":5468,"à¦¿à¦ľà¦ĵà¦¯":5469,"à¦¿à¦ľà¦¸à¦¹":5470,"à¦¿à¦ľà¦°à¦¤":5471,"âĢĻt":5472,"âĢĻà¦¤":5473,"âĢĻà¦¸":5474,"âĢĻà¦Ł":5475,"âĢĻà¦Ń":5476,"âĢĻà¦ı":5477,"âĢĻà¦ľà¦¨":5478,"âĢĻà¦ıà¦°":5479,"âĢĻâĢĶ":5480,"âĢĻis":5481,"âĢĻà¦¶à¦¤":5482,"à§įà¦°à¦¤à¦°":5483,"à§įà¦°à¦¤à¦®":5484,"à§ĩà¦ĸà¦ĺ":5485,"à§ĩà¦ĸà¦°à¦¨à¦Ĺà¦°":5486,"à§ĩà¦¯à¦¬":5487,"à§ĭà¦°à¦®":5488,"à§ĭà¦°à¦¶":5489,"à§ĭà¦°à¦ĸ":5490,"à§ĭà¦°à¦ĵ":5491,"à§ĭà¦°à¦Ĩà¦¨":5492,"à§ĭà¦°à¦ķà¦¦":5493,"à§įà¦²à¦²":5494,"à§įà¦²à¦ľ":5495,"à§įà¦²à¦¥":5496,"à§įà¦²à¦«":5497,"à§įà¦²à¦Łà¦¨":5498,"à¦¾à¦ļà¦°":5499,"à¦¾à¦ļà¦°à¦£":5500,"à§ĩà¦Łà¦®":5501,"à§ĩà¦Łà¦¸":5502,"à§ĩà¦Łà¦¸à¦¹":5503,"à§ģà¦ķà¦¨":5504,"à§ģà¦ķà¦ķ":5505,"à§ģà¦ķà¦ĵ":5506,"à§įà¦¸à¦°":5507,"à§įà¦¸à¦¨":5508,"à§įà¦¸à¦²":5509,"à§įà¦¸à¦¡":5510,"à§įà¦¸à¦¬à¦¸":5511,"à§įà¦¸à¦°à¦¯":5512,"à¦¿à¦®à¦ª":5513,"à¦¿à¦®à¦Ł":5514,"à¦¿à¦®à¦¶":5515,"à¦¿à¦®à¦ĵà¦¯":5516,"à¦¿à¦®à¦¤à¦®":5517,"à¦¾à¦¶à¦¤":5518,"à¦¾à¦¶à¦¯":5519,"à¦¾à¦¶à¦ª":5520,"à¦¾à¦¶à¦Ĺ":5521,"à¦¾à¦¶à¦ļ":5522,"à¦¾à¦¶à¦ªà¦¥":5523,"à¦¾à¦¶à¦Ĺà¦Ļ":5524,"à§įà¦ľà¦ķ":5525,"à§įà¦ľà¦¤":5526,"à§įà¦ľà¦¬":5527,"à§įà¦ľà¦ľ":5528,"à§įà¦ľà¦£":5529,"à¦¿à¦Łà¦Ł":5530,"à¦¿à¦Łà¦ĵ":5531,"à¦¿à¦Łà¦«":5532,"à¦¿à¦Łà¦¸à¦¹":5533,"à¦¿à¦Łà¦¸à¦¬":5534,"à¦¿à¦Łà¦®à¦¹":5535,"à§įà¦¨à¦ķ":5536,"à§įà¦¨à¦¸":5537,"à§įà¦¨à¦¦":5538,"à§įà¦¨à¦Ł":5539,"à§įà¦¨à¦Ĺ":5540,"à§įà¦¨à¦¶":5541,"à§įà¦¨à¦Ń":5542,"à§įà¦¨à¦ĵ":5543,"à§įà¦¨à¦®à¦¤":5544,"Ġà¦¡à¦°":5545,"Ġà¦¡à¦¨":5546,"Ġà¦¡à¦®":5547,"Ġà¦¡à¦¯":5548,"Ġà¦¡à¦Ĺ":5549,"à¦Ĩà¦ķ":5550,"à¦Ĩà¦¤":5551,"à¦Ĩà¦¸":5552,"à¦Ĩà¦ª":5553,"à¦Ĩà¦¶":5554,"à¦Ĩà¦ļ":5555,"à¦Ĩà¦ŀ":5556,"à¦Ĩà¦Ĺà¦°":5557,"à¦Ĩà¦Łà¦ķ":5558,"à¦Ĩà¦°à¦¸":5559,"à¦Ĩà¦¹à¦¤à¦°":5560,"à¦Ĩà¦«à¦Ĺ":5561,"à§ĭà¦Ĺà¦®":5562,"à§ĭà¦Ĺà¦¯":5563,"à§ĭà¦Ĺà¦ª":5564,"à§ĭà¦Ĺà¦ĩ":5565,"à§Įà¦¬":5566,"à§Įà¦Ł":5567,"à§Įà¦Ľ":5568,"à§Įà¦Ń":5569,"à§Įà¦ľà¦¨":5570,"à§Įà¦®à¦¨":5571,"à§Įà¦¶à¦¨":5572,"à§Įà¦Ĺà¦²":5573,"à¦ıà¦¶":5574,"à¦ıà¦ľà¦¨":5575,"à¦ıà¦¨à¦¬":5576,"à¦ıà¦«à¦¸":5577,"à¦ıà¦¸à¦®à¦¯":5578,"à¦ıà¦ıà¦²":5579,"à¦ıà¦°à¦ķà¦®":5580,"à¦ıà¦Ĩà¦°à¦ı":5581,"à¦ıà¦Ĩà¦°à¦¸":5582,"à§įà¦ķà¦ķ":5583,"à§įà¦ķà¦²":5584,"à§įà¦ķà¦¬":5585,"à§įà¦ķà¦¶":5586,"à§įà¦ķà¦ĵ":5587,"à§įà¦ķà¦°à¦£":5588,"à§įà¦ķà¦Ĩà¦īà¦Ł":5589,"à§įà¦ķà¦¨à¦¦":5590,"à§įà¦ķà¦¶à¦ª":5591,"Ġà¦Ĩà¦°à¦¨":5592,"Ġà¦Ĩà¦°à¦¤":5593,"Ġà¦Ĩà¦°à¦Ł":5594,"Ġà¦Ĩà¦°à¦¶":5595,"à¦¾à¦ģ-":5596,"à¦¾à¦ģâĢĿ":5597,"à§ĩà¦¤à¦ķà¦°":5598,"à¦¾à¥¤'":5599,"à¦¾à¥¤[":5600,"à¦¿à¦·à¦ķ":5601,"à¦¾à¦§à¦Ĺ":5602,"Ġà¦ıà¦ĩà¦°":5603,"Ġà¦ıà¦ĩà¦®":5604,"Ġà¦ıà¦ĩà¦ľ":5605,"Ġà¦ıà¦ĩà¦ļà¦Ł":5606,"Ġà¦ıà¦ĩà¦¡à¦¸":5607,"Ġà¦§à¦ķ":5608,"Ġà¦§à¦²":5609,"Ġà¦§à¦¡":5610,"Ġà¦§à¦¨à¦¬":5611,"Ġà¦§à¦®à¦ķ":5612,"Ġà¦ĺà¦°à¦ķ":5613,"à§ĩà¦®à¦°":5614,"à§ĩà¦®à¦ķ":5615,"à§ĩà¦®à¦¦":5616,"à§ĩà¦®à¦§":5617,"à§ĩà¦®à¦¬à¦¨":5618,"à¦¾à¦Łà¦²":5619,"à¦¾à¦Łà¦¬":5620,"à¦¾à¦Łà¦¸":5621,"à¦¾à¦Łà¦¦":5622,"à¦¾à¦Łà¦ª":5623,"à¦¾à¦Łà¦Ľ":5624,"à¦¾à¦Łà¦«à¦°à¦®":5625,"à¦¾à¦Łà¦²à¦Ĺ":5626,"Ġà¦īà¦ªà¦Ń":5627,"Ġà¦īà¦ªà¦®à¦¨":5628,"Ġà¦īà¦ªà¦ªà¦¤":5629,"Ġà¦īà¦ªà¦ķà¦®":5630,"Ġà¦īà¦ªà¦²à¦¡":5631,"à¦¼à¦¨à¦Ł":5632,"à¦¼à¦¨à¦Ĺ":5633,"à¦¼à¦¨à¦¶":5634,"à¦¼à¦¨à¦ĵ":5635,"Ġà¦®à¦¨à¦¸":5636,"à¦¿à¥¤'":5637,"à¦¿à¥¤âĢĿ":5638,"à¦¿à¦ªà¦²":5639,"à¦¿à¦ªà¦ª":5640,"à¦¿à¦ªà¦Ł":5641,"à¦¿à¦ªà¦¥":5642,"à¦¼à¦¿-":5643,"à§ĩà¦·à¦°":5644,"à§ĩà¦·à¦¦":5645,"à§ĩà¦·à¦Ł":5646,"à§ĩà¦·à¦ªà¦°":5647,"à§ĩà¦·à¦ķà¦¦":5648,"à§įà¦ļà¦ķ":5649,"à§įà¦ļà¦ª":5650,"à§įà¦ļà¦Ń":5651,"à§įà¦ļà¦ªà¦°":5652,"à§įà¦ļà¦Ĺà¦¤":5653,"à§įà¦ļà¦¤à¦®":5654,"à§įà¦ļà¦ªà¦¦":5655,"à§ĥà¦¤à¦¤":5656,"à§ĥà¦¤à¦ª":5657,"à¦¾à¦ĵà¦ķ":5658,"à¦¾à¦ĵà¦¬":5659,"à¦¾à¦ĵà¦Ń":5660,"à¦¾à¦ĵà¦«":5661,"ĠÂ©":5662,"ĠÂ¿":5663,"à§įà¦Ľà¦²":5664,"à§įà¦Ľà¦²à¦¤":5665,"à§ģà¦¦à¦°":5666,"à§ģà¦¦à¦¯":5667,"à§ģà¦¦à¦¸":5668,"à§ģà¦¦à¦ª":5669,"à§ģà¦¦à¦°à¦¤":5670,"à§ĩ,\"":5671,"à§ģà¦®à¦ĵ":5672,"à§ĩà¦¬à¦°":5673,"à§ĩà¦¬à¦ª":5674,"à§ĩà¦¬à¦¹":5675,"à¦ĥ-":5676,"à¦ĥà¦¨":5677,"à¦ĥà¦ª":5678,"à¦ĥà¦ľ":5679,"à¦ĥà¦®à¦¨":5680,"à¦ĥà¦ªà¦°":5681,"à¦ĥà¦Ńà¦°":5682,"à¦ĥgso":5683,"à¦ĥnse":5684,"à¦ĥà¦¤à¦«à¦¸":5685,"à¦ĥà¦Ĩà¦ŀ":5686,"..]":5687,"à§ĩà¦¦à¦°":5688,"à§ĩà¦¦à¦Ł":5689,"à§ĩà¦¦à¦¡":5690,"Ġà¦Ĩà¦¸à¦ĵà¦¯":5691,"à¦ľà¦¨à¦ª":5692,"à¦ľà¦¨à¦Ł":5693,"Ġà¦Ĩà¦²à¦¦":5694,"Ġà¦Ĩà¦²à¦Ĺ":5695,"Ġà¦Ĩà¦²à¦Ń":5696,"à§įà¦¯à¦¬à¦°":5697,"à§įà¦¯à¦¬à¦ĩà¦¯":5698,"à§Ĥà¦°à¦¨":5699,"à§Ĥà¦°à¦ľ":5700,"à§Ĥà¦°à¦Ń":5701,"à¦¿à¦ĤâĢĿ":5702,"à¦¿à¦ĤâĢĻ-":5703,"à¦¿à¦Ĥ:-":5704,"à§ĭà¦Łà¦°":5705,"à§ĭà¦Łà¦ª":5706,"à§ĭà¦Łà¦Ł":5707,"à§ĭà¦Łà¦Ĺ":5708,"à§ĭà¦Łà¦¬à¦¦":5709,"à§ĭà¦Łà¦°à¦¬":5710,"Ġà¦ıà¦°à¦®à¦§":5711,"à§įà¦¤à¦°à¦°":5712,"à§įà¦¤à¦°à¦ª":5713,"à§įà¦¤à¦°à¦ĸ":5714,"à§įà¦¤à¦°à¦ķà¦°à¦¨":5715,"à§įà¦¤à¦°à¦«à¦²":5716,"à§įà¦¤à¦°à¦¬à¦Ļ":5717,"à¦¿à¦ļà¦°":5718,"à¦¿à¦ļà¦ķ":5719,"à¦¿à¦ļà¦²":5720,"à§ģà¦¯à¦ķ":5721,"à§Ī,":5722,"à§Īà¦¬":5723,"à§Īà¦ª":5724,"à§Īà¦Ńà¦¬":5725,"à¦ªà¦¨à¦°":5726,"à¦¬à¦°à¦ķà¦¤":5727,"à§ĩà¦¸à¦¨":5728,"à§ĩà¦¸à¦²":5729,"à§ĩà¦¸à¦Ĺ":5730,"à§ĩà¦¸à¦¹":5731,"Ġà¦Ĩà¦Ĺà¦®à¦¨":5732,"à¦¾à¦°à¦£à¦¦":5733,"Ġà¦īà¦¦à¦Ń":5734,"à§įà¦¬à¦°à¦ª":5735,"à§įà¦¬à¦°à¦Ĺ":5736,"à§įà¦¬à¦°à¦ĩ":5737,"à§įà¦¬à¦°à¦¸à¦¹":5738,"Ġà¦¸à¦°à¦¬":5739,"Ġà¦¸à¦°à¦¸":5740,"Ġà¦¸à¦°à¦£":5741,"Ġà¦¸à¦°à¦«à¦°":5742,"Ġà¦¸à¦°à¦°à¦°":5743,"Ġà¦¸à¦°à¦ľà¦®":5744,"à§ĭà¦®à¦ķ":5745,"à§ĭà¦®à¦¤":5746,"à§ĭà¦®à¦¶":5747,"à§ĭà¦®à¦²à¦¤":5748,"à§ĩà¦ľà¦ª":5749,"à§ĩà¦ľà¦Ł":5750,"à§ĩà¦ľà¦ĩ":5751,"à§ĩà¦ľà¦¶":5752,"à§ĩà¦ľà¦®à¦¯":5753,"à§ĭà¦ķà¦ķ":5754,"à§ĭà¦ķà¦¤":5755,"à§ĭà¦ķà¦®":5756,"à§ĭà¦ķà¦Ĺ":5757,"à§ĭà¦ķà¦ĩ":5758,"à§ĭà¦ķà¦¬à¦²":5759,"à§ĭà¦ķà¦¸à¦Ń":5760,"à§ĭà¦ķà¦Ľà¦Ł":5761,"à§ģà¦·à¦°":5762,"à§ģà¦·à¦ĩ":5763,"à§ģà¦·à¦¡":5764,"à§ģà¦·à¦ĵ":5765,"à§ģà¦·à¦ľà¦¨":5766,"à§ģà¦·à¦¹à¦¤":5767,"Ġà¦¹à¦²à¦°":5768,"Ġà¦¹à¦²à¦¨":5769,"Ġà¦¹à¦²à¦¦":5770,"à§ģà¦¬à¦¦":5771,"à§ģà¦¬à¦ķà¦°":5772,"à§ģà¦¬à¦¸à¦®":5773,"Ġà¦¹à¦¤à¦¬":5774,"Ġà¦¹à¦¤à¦¦à¦°":5775,"à¦¬à¦¨à¦§":5776,"à§įà¦łà¦°":5777,"à§įà¦łà¦¤":5778,"à§įà¦łà¦¸":5779,"à§įà¦łà¦¤à¦®":5780,"à¦¿à¦ıà¦¡":5781,"à¦¿à¦ıà¦«à¦°":5782,"à¦¿à¦ıà¦ĩà¦¸":5783,"à¦¿à¦ıà¦ĩà¦ļà¦Ł":5784,"Ġà¦ħà¦¬à¦²":5785,"Ġà¦ħà¦¬à¦§":5786,"Ġà¦ħà¦¬à¦¤à¦°à¦£":5787,"à¦¾à¦£à¦¸":5788,"à¦¾à¦£à¦ĵ":5789,"à¦¾à¦£à¦ĺ":5790,"à¦¾à¦£à¦®à¦¤":5791,"à¦łà¦¯":5792,"à§Ģà¦ķà¦¨":5793,"à§Ģà¦ķà¦ķ":5794,"Ġà¦ķà¦®à¦Ľ":5795,"Ġà¦¸à¦¬à¦²":5796,"Ġà¦¸à¦¬à¦®":5797,"Ġà¦¸à¦¬à¦¦":5798,"Ġà¦¸à¦¬à¦Ĺ":5799,"Ġà¦¸à¦¬à¦ĩ":5800,"Ġà¦¸à¦¬à¦¶":5801,"Ġà¦¸à¦¬à¦ĸ":5802,"Ġà¦¸à¦¬à¦¥":5803,"à§įà¦Ńà¦®":5804,"à§įà¦Ńà¦ª":5805,"à§įà¦Ńà¦§":5806,"à§įà¦Ńà¦°à¦¤":5807,"à§ĩà¦¡à¦¨":5808,"à§ĩà¦¡à¦¸":5809,"à§ĩà¦¡à¦¸à¦¹":5810,"à¦¾à¦Ľà¦¨":5811,"à¦¾à¦Ľà¦ķ":5812,"à¦¾à¦Ľà¦Ĺ":5813,"à¦¾à¦Ľà¦¡":5814,"à¦¾à¦Ľà¦ĵ":5815,"à¦¿à¦Ľà¦²":5816,"à¦¿à¦Ľà¦ª":5817,"à§ģà¦Łà¦Ľ":5818,"à§ģà¦Łà¦ĺ":5819,"Ġà¦¸à¦¨à¦ľ":5820,"à§Ģà¦¤à¦²":5821,"à§Ģà¦¤à¦®":5822,"à§Ģà¦¤à¦¶":5823,"à§Ģà¦¤à¦¬à¦¸":5824,"à¦¾à¦ļà¦¨à¦ĩ":5825,"à¦¾à¦ļà¦¨à¦ĵ":5826,"à§ĭà¦²à¦Ł":5827,"à§ĭà¦²à¦¡":5828,"à§ĭà¦²à¦°à¦ķ":5829,"à§ĭà¦²à¦¡à¦Łà¦ķà¦®":5830,"à§Ģà¦¦à¦¦":5831,"à§Ģà¦¦à¦ľ":5832,"à¦¾à¦«à¦¸":5833,"à¦¾à¦Ĥà¥¤":5834,"à§ģà¦¤à¦¨":5835,"à§ģà¦¤à¦²":5836,"à§ģà¦¤à¦¦":5837,"à¦¾à¦¥à¦¨":5838,"à¦¾à¦¥à¦ķ":5839,"Ġà¦¦à¦²à¦ĵ":5840,"Ġà¦¦à¦²à¦¸à¦¹":5841,"Ġà¦ªà¦¡à¦ķ":5842,"à¦¿à¦īà¦ķ":5843,"à¦¿à¦īà¦ļ":5844,"à¦¿à¦īà¦²à¦ķ":5845,"à¦¿à¦īà¦¬à¦¸":5846,"à¦¿à¦īLe":5847,"Ġà¦¢à¦²":5848,"à§ģà¦ĩà¦¯":5849,"à§ģà¦ĩà¦Ļ":5850,"à§ģà¦ĩà¦¶à¦¤":5851,"Ġà¦Ĩà¦¨à¦¯":5852,"Ġà¦Ĩà¦¨à¦Ľ":5853,"à¦¿à¦§à¦°":5854,"à¦¿à¦¹à¦¬":5855,"à¦¿à¦¹à¦¸":5856,"à¦¿à¦¹à¦Ł":5857,"à¦¿à¦¹à¦°à¦ª":5858,"à§ĭà¦§à¦ª":5859,"à§ĭà¦§à¦¶à¦ķ":5860,"à§Ģà¦Ĺà¦¨":5861,"à§Ģà¦Ĺà¦ķ":5862,"à§Ģà¦Ĺà¦£":5863,"à¦Ĥà¦¸à¦¤":5864,"à¦Ĥà¦¸à¦¸":5865,"à§įà¦°à¦¦à¦²":5866,"Ġà¦¬à¦°à¦ŀ":5867,"à§įà¦¯à¦®à¦Ĺ":5868,"à§įà¦¯à¦®à¦£":5869,"à§Ĥà¦²à¦¸":5870,"à§ĭà¦¸à¦®":5871,"à§įà¦°à¦®à¦¤":5872,"à§įà¦°à¦®à¦¬à¦°":5873,"Ġà¦ĺà¦Łà¦²":5874,"Ġà¦ĺà¦Łà¦¬":5875,"Ġà¦Ĩà¦ĩà¦²":5876,"Ġà¦Ĩà¦ĩà¦ļ":5877,"Ġà¦Ĩà¦ĩà¦Ĩà¦°":5878,"Ġà¦Ĩà¦ĩà¦ıà¦Ĩà¦°à¦¸":5879,"Ġ--":5880,"à§ģà¦ĸà¦®":5881,"Ġà¦¸à¦¹In":5882,"à¦¿à¦¡à¦¨":5883,"à¦¿à¦¡à¦®":5884,"Ġà¦Ĩà¦¦à¦¨":5885,"Ġà¦Ĩà¦¦à¦¬":5886,"Ġà¦Ĩà¦¦à¦®à¦¦":5887,"Ġà¦ķà¦¥à¦¨":5888,"Ġà¦ħà¦°à¦¨":5889,"Ġà¦ħà¦°à¦¬":5890,"Ġà¦ħà¦°à¦«":5891,"à§ģà¦ªà¦¤":5892,"à§ģà¦ªà¦¯":5893,"à§ģà¦ªà¦¸":5894,"à§ģà¦ªà¦¦":5895,"à§ģà¦ªà¦ĩ":5896,"à§ģà¦ªà¦§":5897,"Ġà¦®à¦¹à¦²":5898,"Ġà¦®à¦¹à¦¸":5899,"à¦¾à¦ĩà¦²à¦¸":5900,"à¦¾à¦ĩà¦²à¦¦":5901,"à¦¾à¦īà¦ĩ":5902,"à§ĭà¦¬à¦²":5903,"à§ĭà¦¬à¦¹":5904,"Ġà¦ıà¦²à¦¬":5905,"à§ĩà¦ªà¦¨":5906,"à§ĩà¦ªà¦ķ":5907,"à§ĩà¦ªà¦Ł":5908,"à§ĩà¦ªà¦¥":5909,"à§ĩà¦¶à¦¨à¦¸":5910,"à§ĩà¦¶à¦¨à¦ĵ":5911,"à§ĩà¦¶à¦¨à¦ıà¦°":5912,"ina":5913,"ine":5914,"inch":5915,"iness":5916,"inut":5917,"intain":5918,"inals":5919,"Ġà¦¬à¦Ľà¦°à¦Ł":5920,"Ġà¦¬à¦Ľà¦°à¦Ĺ":5921,"Ġà¦¬à¦Ľà¦°à¦ĩ":5922,"Ġà¦īà¦ªà¦ľà¦²":5923,"Ġà¦Ĩà¦ľà¦¦":5924,"Ġà¦Ĩà¦ľà¦ª":5925,"Ġà¦ħà¦§à¦®":5926,"Ġà¦ħà¦§à¦¸":5927,"à§įà¦°à¦¯à¦¤":5928,"à§įà¦°à¦§à¦°":5929,"à¦¾à¦¦à¦ķà¦¸à¦¹":5930,"à§įà¦¶à¦ĩ":5931,"à§įà¦¶à¦£":5932,"à§įà¦¶à¦ķà¦°":5933,"à§įà¦¶à¦Ĺà¦¤":5934,"à¦¾à¦°à¦¤à¦®":5935,"Ġà¦Ĺà¦¤à¦¬à¦Ľà¦°":5936,"à¦¿à¦ĵà¦¯":5937,"à¦¿à¦ĵà¦¸":5938,"à¦¿à¦ĵà¦°à¦ķ":5939,"à¦¿à¦ĵà¦¨à¦ķ":5940,"à¦¿à¦ĵà¦°à¦°":5941,"à¦¿à¦ĵà¦ªà¦¸":5942,"à¦¿à¦Ĺà¦¨":5943,"à¦¿à¦Ĺà¦ķ":5944,"à¦¿à¦Ĺà¦²":5945,"à¦¿à¦Ĺà¦¡":5946,"à¦¿à¦Ĺà¦®à¦¨":5947,"à¦¼à¦ķà¦²":5948,"à¦¼à¦ķà¦¸":5949,"à¦¼à¦ķà¦Ĺ":5950,"Ġà¦ĩà¦¨à¦Ł":5951,"Ġà¦ĩà¦¨à¦«à¦°à¦®":5952,"à¦¼à§Ģ'":5953,"à¦¼à§Ģ-":5954,"à§ĭà¦¹à¦²":5955,"à§ĥà¦·à¦ķà¦°":5956,"à§įà¦£à¦¤":5957,"à§įà¦£à¦Ĺ":5958,"à§įà¦£à¦«":5959,"à§įà¦£à¦¸à¦¹":5960,"Ġà¦ıà¦¨à¦°":5961,"Ġà¦ıà¦¨à¦ľ":5962,"Ġà¦ıà¦¨à¦ĩà¦¡":5963,"à¦¾à¦Ļà¦¬":5964,"Ġà¦¸à¦¦à¦ķ":5965,"à¦¾à¦·à¦£":5966,"Ġà¦®à¦¤à¦Ń":5967,"Ġà¦ıà¦ĸà¦¨à¦ķ":5968,"à¦¾à¦ĩà¦Łà¦ĵà¦¯":5969,"Ġà¦ĩà¦īà¦ķ":5970,"Ġà¦ĩà¦īà¦ıà¦¨":5971,"à¦¾à¦łà¦¶":5972,"à§ĭà¦ļà¦¬":5973,"à¦¾à¦ĩà¦¨à¦°":5974,"à¦¾à¦ĩà¦¨à¦Ĺ":5975,"à¦¾à¦ĩà¦¨à¦ļ":5976,"à¦¾à¦ĩà¦¨à¦Ĺà¦°":5977,"à¦¾à¦ĩà¦¨à¦¸à¦¹":5978,"à¦¾à¦ĩà¦¨à¦īà¦¦":5979,"à¦¾à¦ĩà¦¨à¦Ĩà¦ª":5980,"Ġà¦ķà¦²à¦Ł":5981,"à§įà¦¤à¦¬à¦¯":5982,"à§įà¦¤à¦¬à¦ľ":5983,"à¦Ĥà¦¶à¦ķ":5984,"à¦Ĥà¦¶à¦¬":5985,"à¦Ĥà¦¶à¦¯":5986,"à¦Ĥà¦¶à¦Ł":5987,"à¦Ĥà¦¶à¦Ĺà¦¤":5988,"à¦Ĥà¦¶à¦§à¦°":5989,"and":5990,"anar":5991,"anag":5992,"anding":5993,"annel":5994,"à§Įà¦¨à¦¸":5995,"à§Įà¦¨à¦¦":5996,"à§Įà¦¨à¦¸à¦®":5997,"à§Įà¦¨à¦īà¦¤":5998,"à§ĭà¦·à¦¨":5999,"à§ĭà¦·à¦ķ":6000,"à§ĭà¦·à¦Ł":6001,"à§ĭà¦·à¦ķà¦¤":6002,"à§ĭà¦·à¦ľà¦ķ":6003,"à§įà¦°à¦¶à¦¨":6004,"Ġà¦¬à¦¨à¦Ĺ":6005,"Ġà¦¬à¦¨à¦¶":6006,"à§įà¦°à¦¬à¦¤":6007,"Ġtar":6008,"Ġtho":6009,"Ġtak":6010,"Ġtrib":6011,"Ġtrue":6012,"Ġtough":6013,"Ġtrad":6014,"Ġà¦ªà¦¦à¦¬":6015,"Ġà¦ªà¦¦à¦¯":6016,"à§ģà¦§à¦ĩ":6017,"à§įà¦°à¦¸à¦¨":6018,"à§įà¦°à¦¸à¦¹":6019,"à¦¾à¦Ĺà¦°à¦ª":6020,"à§ĭà¦¡à¦²":6021,"à§ĭà¦¡à¦¶":6022,"à§ĩà¦ĩà¦²à¦°":6023,"à§ĩà¦ĩà¦²à¦Ĩà¦¦":6024,"ery":6025,"erma":6026,"eric":6027,"eria":6028,"erment":6029,"ertain":6030,"ercard":6031,"ervic":6032,"à¦ħà¦²":6033,"à¦ħà¦¦":6034,"à¦ħà¦ľ":6035,"à¦ħà¦¡":6036,"à¦ħà¦¶":6037,"Ġà¦ħà¦¸à¦¹à¦¨":6038,"à¦¾à¦ªà¦¨à¦Ĺ":6039,"à§ģà¦¸à¦«":6040,"à§įà¦°à¦¹à¦¸":6041,"Ġà¦īà¦¨à¦ķ":6042,"à§Ģà¦ªà¦ķ":6043,"à§Ģà¦ªà¦Ł":6044,"à§Ģà¦ªà¦£":6045,"à§Ģà¦ªà¦Ļ":6046,"Ġà¦Ĩà¦ķà¦¨":6047,"Ġà¦Ĩà¦ķà¦Ľ":6048,"Ġà¦Ĩà¦ķà¦ļ":6049,"Ġà¦°à¦¹à¦®à¦¤à¦Ĺà¦ŀ":6050,"à¦¿à¦ĸà¦°":6051,"à¦¿à¦ĸà¦¨":6052,"à¦¿à¦ĸà¦²":6053,"à¦¿à¦ĸà¦¬":6054,"Ġà¦¬à¦¸à¦Ľ":6055,"à¦¾à¦Ńà¦°":6056,"à¦¾à¦Ńà¦²":6057,"à¦¾à¦Ńà¦¸":6058,"à§ģà¦¡à¦¸":6059,"Ġà¦ıà¦¤à¦Ĺ":6060,"Ġà¦ıà¦¤à¦¬à¦¡":6061,"esig":6062,"esul":6063,"esional":6064,"esÃŃ":6065,"à¦°à¦®à¦£":6066,"à¦¾à¦²à¦ķà¦Ł":6067,"à¦¾à¦²à¦ķà¦ĵ":6068,"à¦Ĥà¦¬à¦²":6069,"à¦¿à¦ıà¦¨à¦ľ":6070,"à¦¿à¦ıà¦¨à¦Ń":6071,"à¦¿à¦ıà¦¨à¦ıà¦¸":6072,"à¦¿à¦ıà¦¨à¦ıà¦¨":6073,"à¦¿à¦ıà¦¨CoxsbazarNEWS":6074,"à§ĩà¦Ĺà¦Ļ":6075,"à§ĩà¦Ĺà¦ľà¦¨à¦ķ":6076,"à§ĩà¦¹à¦ķ":6077,"à§ĩà¦¹à¦Ń":6078,"à§ĩà¦¹à¦¤à¦¤":6079,"à§įà¦·à¦£à¦ķ":6080,"à§įà¦·à¦£à¦¬":6081,"à§įà¦·à¦£à¦Ĺ":6082,"à§įà¦·à¦£à¦ķà¦°":6083,"Ġà¦¸à¦¨à¦¦à¦ª":6084,"Ġà¦¸à¦¨à¦¦à¦§":6085,"Ġà¥¤âĢĿ":6086,"count":6087,"à§Ģà¦¬à¦¶":6088,"à¦®à¦¤à¦²":6089,"à§Ģà¦²à¦®":6090,"à§Ģà¦²à¦¸à¦¹":6091,"à¦¾à¦ĩà¦ķà¦ª":6092,"à¦¿à¦«à¦ķ":6093,"à¦¿à¦«à¦²à¦¨":6094,"Ġà¦Ĩà¦ĩà¦¨à¦¤":6095,"Ġà¦Ĩà¦¹à¦¯":6096,"Ġà¦Ĩà¦¹Å¸":6097,"à¦¿à¦¹à¦¤à¦°":6098,"à¦¾à¦°à¦ķà¦ķ":6099,"à¦¾à¦°à¦ķà¦²":6100,"à§įà¦¯à¦¤à¦¬":6101,"à§Ģà¦®à¦ķ":6102,"à§Ģà¦®à¦°à¦¤":6103,"Ġà¦«à¦²à¦¬à¦¤":6104,"à§ĭà¦ªà¦ľ":6105,"à§ĭà¦ªà¦¡":6106,"à§ĭà¦ªà¦£":6107,"à§ĭà¦ªà¦¥":6108,"à§ĭà¦ªà¦ķà¦¥":6109,"à§Ĥà¦¤à¦°":6110,"à¦ıà¦°à¦¶":6111,"à¦¾à¦°à¦¬à¦£":6112,"enes":6113,"enPo":6114,"enger":6115,"à§ģà¦ľà¦¬":6116,"à§ģà¦ľà¦°à¦Ļ":6117,"à¦Ĥà¦Ĺà¦¬à¦¨":6118,"âĢĮà¦¹":6119,"Ġà¦²à¦ķà¦¡":6120,"Ġà¦²à¦ķà¦²à¦ķ":6121,"à§ĥà¦¦à¦°":6122,"à§ĥà¦¦à¦¸":6123,"Ġà¦Ĩà¦¯à¦¹":6124,"Ġà¦ħà¦ªà¦¯":6125,"Ġà¦ħà¦ªà¦ª":6126,"Ġà¦ħà¦ªà¦Ł":6127,"Ġà¦ħà¦ªà¦¸à¦¨":6128,"Ġà¦ħà¦ªà¦Ľà¦¨":6129,"à§įà¦ĺà¦¸":6130,"à§įà¦ĺà¦¸à¦®à¦¯":6131,"Ġà¦ıà¦®à¦¬":6132,"Ġà¦ıà¦®à¦Ĩà¦ĩ":6133,"à¦ıà¦¸à¦¬":6134,"à¦ıà¦¸à¦Ĩà¦ĩ":6135,"à§įà¦°à¦£à¦°":6136,"à§įà¦°à¦£à¦¯":6137,"à§įà¦°à¦£à¦ªà¦¤":6138,"à§įà¦¦à¦°à¦ª":6139,"à§įà¦¦à¦°à¦¸à¦ľ":6140,"dows":6141,"dores":6142,"dorid":6143,"à§įà¦°à¦ļà¦¨":6144,"ater":6145,"atad":6146,"ating":6147,"atch":6148,"ature":6149,"atribune":6150,"ĠSD":6151,"ĠSou":6152,"ĠSha":6153,"ĠSAT":6154,"ĠSum":6155,"ĠSattar":6156,"ĠSig":6157,"ĠShipping":6158,"ĠShopping":6159,"ĠScreen":6160,"ĠSMAR":6161,"ĠSUBS":6162,"ĠSYST":6163,"ĠScal":6164,"ĠShork":6165,"ĠSoma":6166,"ĠSpel":6167,"à¦¼à¦¸à¦ľà¦¨":6168,"Ġà¦¬à¦ķà¦¸à¦¹":6169,"Ġà¦¬à¦ķà¦²à¦®":6170,"à§ĭà¦Ńà¦°":6171,"à§ĭà¦Ńà¦Ł":6172,"à§ĭà¦Ńà¦ĵ":6173,"à§ĭà¦Ńà¦°à¦¤":6174,"à§ĭà¦¬à¦°à¦ķ":6175,"à§ĥà¦¹à¦¯":6176,"à§ĥà¦¹à¦ªà¦°":6177,"Ġà¦¹à¦ķà¦ķ":6178,"Ġà¦¹à¦ķà¦¦":6179,"à§ĩà¦īà¦¨":6180,"à§ĩà¦īà¦¬":6181,"à§ĩà¦īà¦¡":6182,"à§Ģà¥¤âĢĻ":6183,"à¦¾à¦®à¦¨à¦ļà¦¨":6184,"âĢ¦.":6185,"âĢ¦à¦¤":6186,"âĢ¦âĢĻ":6187,"âĢ¦à¦²à¦Ĺ":6188,"à¦Ĩà¦®à¦²":6189,"à¦Ĩà¦®à¦²à¦ķ":6190,"à¦Ĩà¦®à¦¦à¦ĩ":6191,"read":6192,"ilit":6193,"ilding":6194,"ildren":6195,"iland":6196,"à§ģà¦Ĺà¦¤":6197,"à§ģà¦Ĺà¦£":6198,"à§ģà¦Ĺà¦¤à¦¦":6199,"à§ģà¦Ĺà¦ªà§İ":6200,"à§ģà¦£à¦ķ":6201,"à§ģà¦£à¦¬":6202,"à§ģà¦£à¦¦":6203,"à§ģà¦¶à¦¤":6204,"à§ģà¦¶à¦®à¦¨":6205,"à¦¾à¦ľà¦¨à¦ªà¦Ł":6206,"mas":6207,"maoun":6208,"Ġsa":6209,"Ġshe":6210,"Ġsof":6211,"Ġsem":6212,"Ġsel":6213,"Ġsum":6214,"Ġsaf":6215,"Ġshal":6216,"Ġste":6217,"Ġscreen":6218,"Ġshoppingdirect":6219,"Ġspir":6220,"Ġstate":6221,"Ġsymbian":6222,"Ġservic":6223,"à¦¼à¦¦à¦ª":6224,"Ġà¦ķà¦¨à¦¡":6225,"Ġà¦ķà¦¨à¦ķà¦¨":6226,"à¦°à¦¤à¦²":6227,"à§ģà¦¹à¦°":6228,"à§ģà¦¹à¦ķ":6229,"à§ģà¦¹à¦ĵ":6230,"à¦¿à¦ĥà¥¤":6231,"à¦¾à¦¨à¦¬à¦²":6232,"Ġà¦īà¦łà¦Ľ":6233,"à¦¼à¦®à¦ķ":6234,"Ġà¦ªà¦¥à¦¨":6235,"Ġà¦ªà¦¥à¦ĩ":6236,"Ġà¦ıà¦ªà¦¸":6237,"Ġà¦ħà¦ªà¦°à¦¦":6238,"Ġà¦ħà¦ªà¦°à¦ľà¦¨":6239,"à¦ĩà¦¨à¦ķ":6240,"Ġà¦¶à¦¤à¦ķ":6241,"Ġà¦¶à¦¤à¦Ń":6242,"Ġà¦¶à¦¤à¦¬à¦°":6243,"Ġà¦¶à¦¤à¦¶à¦¤":6244,"Ġà¦¶à¦¹à¦°à¦ķ":6245,"Ġà¦¶à¦¹à¦°à¦¤à¦²":6246,"Ġà¦ĩà¦®à¦®":6247,"Ġà¦ĩà¦®à¦ª":6248,"à§Īà¦¤à¦°à¦£":6249,"à¦¿à¦īà¦ľà¦ķ":6250,"à¦¿à¦īà¦ľà¦¬":6251,"à§įà¦°à¦¹à¦£à¦°à¦¤":6252,".gl":6253,".gal":6254,".gle":6255,".gso":6256,"ĠPO":6257,"ĠPla":6258,"ĠPur":6259,"ĠPUR":6260,"ĠPol":6261,"ĠPack":6262,"ĠPage":6263,"ĠPAN":6264,"ĠPink":6265,"ĠPakistan":6266,"ĠPerma":6267,"Ġà¦Ĩà¦ªà¦£":6268,"Ġà¦Ĺà¦£à¦¸":6269,"Ġà¦Ĺà¦£à¦ª":6270,"Ġà¦Ĺà¦£à¦ªà¦°":6271,"Ġà¦Ĺà¦£à¦¹à¦¤":6272,"Ġà¦Ĺà¦£à¦ķà¦¬à¦°":6273,"à§įà¦ªà¦¨à¦Ĺà¦°":6274,"à¦¿à§İà¦¸à¦ķà¦°":6275,"à¦¾à¦ĩà¦°à¦¯":6276,"Ġà¦ıà¦ķà¦ĩà¦¸à¦Ļ":6277,"Ġà¦ĺà¦°à¦¦":6278,"Ġà¦ĺà¦°à¦Ł":6279,"Ġà¦Ŀà¦°à¦Ŀ":6280,"Ġà¦Ŀà¦²à¦¸":6281,"Ġà¦¸à¦«à¦°à¦¸":6282,"ĠAin":6283,"ĠAde":6284,"ĠApp":6285,"ĠAust":6286,"ĠAff":6287,"ĠAll":6288,"ĠACC":6289,"ĠAPP":6290,"ĠAbori":6291,"ĠAsia":6292,"ĠAthe":6293,"ĠAugust":6294,"ĠCan":6295,"ĠCur":6296,"ĠCap":6297,"ĠCho":6298,"ĠCoo":6299,"ĠCour":6300,"ĠCOR":6301,"ĠCOM":6302,"ĠCab":6303,"ĠComi":6304,"ĠClic":6305,"ĠCss":6306,"ĠCup":6307,"ĠCity":6308,"ĠCuidado":6309,"ĠCollected":6310,"ĠCoxsbazarNEWS":6311,"ĠCCleaner":6312,"à¦¾à¦Ŀà¦°":6313,"à¦¾à¦Ŀà¦ķ":6314,"à¦¾à¦Ŀà¦ªà¦¥":6315,"à¦¿à¦ĩà¦ĵ":6316,"à¦¿à¦ĩà¦īà¦ľ":6317,"edia":6318,"ednes":6319,"à¦¾à¦¨à¦¤à¦¦":6320,"Ġà¦¨à¦¬à¦¬":6321,"Ġà¦¨à¦¬à¦¬à¦°":6322,"Ġà¦¨à¦¬à¦¬à¦§":6323,"à§įà¦ľà¦¨à¦ķ":6324,"Ġà¦īà¦ªà¦¸à¦°":6325,"à§įà¦ļà¦²à¦Ĺ":6326,"à§įà¦ļà¦²à¦Ń":6327,"ara":6328,"ary":6329,"arer":6330,"arit":6331,"arter":6332,"arack":6333,"argo":6334,"arned":6335,"arendra":6336,"arfur":6337,"itor":6338,"itut":6339,"Ġact":6340,"Ġads":6341,"Ġapo":6342,"Ġall":6343,"Ġayn":6344,"Ġagain":6345,"Ġamaoun":6346,"Ġcur":6347,"Ġcut":6348,"Ġcuidado":6349,"Ġctgpo":6350,"Ġcertain":6351,"à¦¾à¦°à¦¨à¦¤":6352,"Ġà¦Ńà¦¬à¦¨à¦Ĺ":6353,"à§ĭà¦§à¦¨à¦ķ":6354,"orn":6355,"orash":6356,"orld":6357,"Ġà¦Īà¦°":6358,"Ġà¦Īà¦ķ":6359,"à§įà¦°à¦¨à¦²":6360,"à¦¾à¦ķà¦°à¦ĩà¦ķ":6361,"à¦¾à¦¸à¦¨à¦ķ":6362,"Ġà¦ĩà¦¸à¦¤":6363,"-à¦¸à¦ļ":6364,"à§ĩà¦ģà¦ģ":6365,"Ġà¦¦à¦°à¦¬":6366,"Ġà¦¦à¦°à¦¸":6367,"Ġà¦¦à¦°à¦Ĺ":6368,"à¦¾à¦¬à¦°à¦ĩ":6369,"à¦¾à¦¬à¦°à¦¸à¦¹":6370,"à¦ļà¦Łà¦Ł":6371,"à§ĭà¦¨à¦ĵà¦Ł":6372,"à§ĭà¦¨à¦ĵà¦Ń":6373,"Ġà¦Ĩà¦¸à¦¨à¦Ł":6374,"Ġà¦Ĩà¦¸à¦¨à¦Ĺ":6375,"Ġà¦Ĩà¦¸à¦¨à¦¸à¦¹":6376,"Ġbang":6377,"Ġbut":6378,"Ġbangla":6379,"Ġbol":6380,"Ġboo":6381,"Ġbuy":6382,"Ġbelle":6383,"Ġbody":6384,"Ġbrune":6385,"Ġbarack":6386,"à§įà¦¤à¦¨à¦ĵ":6387,"à§įà¦¤à¦¨à¦ľà¦¨":6388,"âĢĿ-":6389,"aling":6390,"alersangbad":6391,"Ġpc":6392,"Ġpun":6393,"Ġpro":6394,"Ġpur":6395,"Ġpha":6396,"Ġpers":6397,"Ġprou":6398,"Ġpds":6399,"Ġpres":6400,"Ġpunt":6401,"Ġpub":6402,"Ġpakistan":6403,"Ġpast":6404,"Ġpeo":6405,"Ġphon":6406,"Ġplus":6407,"Ġppdas":6408,"Ġprof":6409,"Ġpued":6410,"Ġpatad":6411,"Ġpara":6412,"Ġporn":6413,"à§ģà¦Ŀà¦²":6414,"à§ģà¦Ŀà¦¬":6415,"à¦¾à¦¨à¦ķà¦¡":6416,"à¦Ĺà¦£à¦®":6417,"à¦Ĺà¦£à¦ª":6418,"à¦Ĺà¦£à¦¤à¦¨":6419,"à§Ĥà¦ªà¦¸":6420,"à§Ĥà¦ªà¦Ł":6421,"à§Ĥà¦ªà¦®à¦¨":6422,"à¦Ĩà¦ĩà¦Ĩà¦°":6423,"à¦ıà¦®à¦¸":6424,"à¦ıà¦®à¦ıà¦®":6425,"à¦ıà¦®à¦ıà¦¨":6426,"Ġà¦¶à¦¹à¦°à¦Ĺ":6427,"ading":6428,"à¦¾à¦°à¦Łà¦ª":6429,"à¦¼à¦¾,âĢĺ":6430,"Ġà¦ľà¦¬à¦Ł":6431,"à§Ĥà¦®à¦ª":6432,"à¦¿à¦·à¦¦à¦¸":6433,"à¦¿à¦·à¦¦à¦ĵ":6434,"Ġà¦Ĩà¦²à¦®à¦¡":6435,"à§įà¦¶à¦¨à¦ª":6436,"Ġno":6437,"Ġnum":6438,"Ġnew":6439,"Ġnude":6440,"Ġnational":6441,"Ġneed":6442,"Ġnarendra":6443,"à¦¾à§İà¦ķà¦°":6444,"à¦¾à§İà¦ªà¦°":6445,"à§ģà¦Ńà¦°":6446,"à§ģà¦Ńà¦®":6447,"à§ģà¦Ńà¦¦":6448,"à§ģà¦Ńà¦²à¦ķ":6449,"Ġà¦ķà¦ĸà¦¨à¦ĩ":6450,"Ġà¦¤à¦ĸà¦¨à¦ĵ":6451,"à§įà¦·à¦ķà¦ķ":6452,"à§įà¦·à¦ķà¦Ĺà¦£":6453,"Ġà¦īà¦ĩà¦®":6454,"Ġà¦īà¦ĩà¦¦":6455,"Ġà¦īà¦ĩà¦ľ":6456,"ingbd":6457,"inging":6458,"ington":6459,"offer":6460,"see":6461,"sealing":6462,"Ġhic":6463,"Ġhas":6464,"Ġhol":6465,"Ġhapp":6466,"Ġhuman":6467,"à§ĩà¦°à¦ķà¦®à¦ĩ":6468,"ĠÂłĠÂł":6469,"lete":6470,"legar":6471,"sted":6472,"stnews":6473,"stercard":6474,"stitut":6475,"à§ĩà¦Ńà¦¡":6476,"à§ģâĢĻ-":6477,"à§ĭà¦ĸà¦Ł":6478,"à¥¤âĢĻâĢĻ":6479,"Ġà¦®à¦°à¦¦":6480,"à§įà¦¬à¦¨à¦¬":6481,"à¦¾à¦ĩà¦Ńà¦·":6482,"Ġà¦«à¦°à¦ľ":6483,"@gso":6484,"raq":6485,"ray":6486,"Ġmis":6487,"Ġmid":6488,"Ġmore":6489,"Ġmight":6490,"Ġmmdctg":6491,"Ġminut":6492,"Ġmanag":6493,"Ġmature":6494,"à§ĩ?(":6495,"à§ĩ?âĢĻ":6496,"à§ĭà¦¶à¦¤":6497,"à§ĭà¦¶à¦¬":6498,"à§ĭà¦¦à¦¨à¦ķà¦°à¦¨":6499,"à¦Ĩà¦°à¦ĵ":6500,"à¦¿à¦ıà¦®à¦¸":6501,"à¦¿à¦ıà¦®à¦ª":6502,"à¦¿à¦ıà¦®à¦ıà¦²":6503,"à¦¿à¦īà¦Łà¦¸à¦®":6504,"ĠMis":6505,"ĠMEM":6506,"ĠMOT":6507,"ĠMano":6508,"ĠMatch":6509,"ĠMarit":6510,"à¦¿);":6511,"à¦¿)=":6512,"à§ĭà¦¦à¦°":6513,"à§ĭà¦¦à¦®":6514,"à§įà¦¯à¦¦à¦¬à¦¸":6515,"Ġà¦ıà¦¡à¦¸":6516,"à§įà¦®à¦ķà¦Ń":6517,"à§Ĥà¦¹à¦ķ":6518,"à§Ĥà¦¹à¦¤":6519,"à¦ıà¦ķà¦¤":6520,"à¦ıà¦ķà¦ľà¦¨":6521,"à¦ıà¦ķà¦¸à¦®à¦¯":6522,"Ġthey":6523,"Ġtheapp":6524,"dega":6525,"à¦ķà¦²à¦®":6526,"à§įà¦¬à¦²à¦¤":6527,"âĢĺà¦¨":6528,"âĢĺà¦¬":6529,"âĢĺà¦¯":6530,"âĢĺà¦¸":6531,"âĢĺà¦ĸ":6532,"âĢĺà¦¬à¦¨":6533,"âĢĺà¦ħà¦ªà¦°":6534,"âĢĺà¦ıà¦Ń":6535,"âĢĺà¦®à¦¤à¦ª":6536,"âĢĺà¦¹à¦ľ":6537,"âĢĺà¦Ĩà¦ļ":6538,"âĢĺà¦Ĺà¦£à¦¤à¦¨":6539,"à¦¾à¦¹à¦²à¦Ń":6540,"à¦ıà¦ĩà¦ĸ":6541,"una":6542,"undega":6543,"Ġintern":6544,"Ġinternet":6545,"Ġinbox":6546,"Ġinver":6547,"Ġà¦¯à¦ĸà¦¨à¦ĩ":6548,"Ġà¦ĸà¦¨à¦¨":6549,"à§ĩà¦Ĺà¦®à¦Ĺà¦ŀ":6550,"Ġfas":6551,"Ġfind":6552,"Ġfuck":6553,"Ġfacebook":6554,"Ġfood":6555,"ĠfÃºtbol":6556,"Ġanal":6557,"Ġanch":6558,"Ġanotar":6559,"à¦¾:)":6560,"Ġà¦¹à¦¨à¦¨":6561,"Ġà¦¹à¦¨à¦²":6562,"à¦ĩà¦²à¦ĵ":6563,"à¦¾à¦ĩà¦ľà¦ľ":6564,"à¦¾à¦ĩà¦ľà¦¡":6565,"à¦¾à¦ĩà¦¡à¦¦":6566,"à§įà¦·à¦¤à¦Ń":6567,"à¦¿à¦ıà¦¸à¦¬":6568,"à¦¿à¦ıà¦¸à¦¸":6569,"à¦¿à¦ıà¦¸à¦ĩà¦¸":6570,"à¦¿à¦ıà¦¸à¦Ĩà¦ĩà¦Ĩà¦°":6571,"à¦¿à¦ıà¦¸à¦ıà¦®à¦ıà¦®":6572,"à§įà¦Ńà¦¬à¦ªà¦°":6573,"à§įà¦°à¦®à¦£à¦ķ":6574,"à§įà¦°à¦®à¦£à¦Ń":6575,"Ġà¦¸à¦¹à¦ľà¦¬":6576,"Ġà¦¸à¦¹à¦ľà¦Ń":6577,"Ġà¦¸à¦¹à¦ľà¦¤à¦°":6578,"Ġà¦¸à¦¹à¦ľà¦²à¦Ń":6579,"angel":6580,"ague":6581,"agged":6582,"laide":6583,"lock":6584,"logy":6585,"ĠDic":6586,"ĠDel":6587,"ĠDead":6588,"ĠDow":6589,"ĠDET":6590,"ĠDesig":6591,"ĠDarfur":6592,"à¦¿à¦ķà¦¦à¦£":6593,"à¦¾à¦¤à¦ķà¦¡":6594,"à¦¾à¦Ĺà¦ľà¦Ĺ":6595,"Ġà¦¨à¦ľà¦°à¦¦":6596,"-à¦ªà¦ŀ":6597,"icy":6598,"imited":6599,"imists":6600,"Ġ?âĢĻ":6601,"ĠBas":6602,"ĠBut":6603,"ĠBAT":6604,"ĠBos":6605,"ĠBitco":6606,"ĠBelle":6607,"ĠBangladesh":6608,"ĠBengali":6609,"ĠBaha":6610,"ĠBeach":6611,"ĠBlock":6612,"ĠEns":6613,"ĠEgy":6614,"ĠEmer":6615,"ĠExem":6616,"à¦¿:-":6617,"à¦¿::":6618,"Ġà¦ľà¦¨à¦Ĺà¦£à¦ĵ":6619,"Ġà¦ľà¦¨à¦Ĺà¦£à¦¨à¦°":6620,"à§ĩà¦¤à¦¨à¦¤":6621,"à§ģà¦¬à¦ķà¦ķ":6622,"à§ģà¦¬à¦ķà¦¦":6623,"ampions":6624,"amuna":6625,"vides":6626,"vision":6627,"ĠIsra":6628,"ĠILT":6629,"ĠIMO":6630,"ĠIran":6631,"ĠIraq":6632,"ĠâĦĥ,":6633,"ĠâĴ»":6634,"à§ĩà¦§à¦ķ":6635,"à§ģà¦«à¦°":6636,"à§ģà¦«à¦¤":6637,"à§ģà¦ľà¦¨à¦ķ":6638,"à§ģà¦ľà¦¨à¦ĩ":6639,"Ġà¦¸à¦ļà¦²":6640,"Ġà¦Ĩà¦«à¦ľ":6641,"à§ĭà¦ķà¦ľà¦¨à¦ķ":6642,"à§ĭà¦ķà¦ľà¦¨à¦ĩ":6643,"ĠTo":6644,"ĠTur":6645,"ĠTut":6646,"ĠTha":6647,"ĠTime":6648,"ĠTER":6649,"ĠTig":6650,"ĠTrop":6651,"ĠTribune":6652,"ĠTele":6653,"ĠThur":6654,"Ġà¦·à¦£":6655,"à¦¾à¦°à¦Ńà¦¬":6656,"à¦¿à¦²à¦¨à¦ķ":6657,"à¦¿à¦²à¦¨à¦¸":6658,"à§įà¦§à¦¨à¦Ĺà¦Ļ":6659,"Ġà¦ľà¦¨à¦ķà¦¨":6660,"Ġà¦ľà¦¨à¦ķà¦£":6661,"ems":6662,"ement":6663,"thro":6664,"though":6665,"à¦¼à¦¬à¦¦":6666,"à¦¼à¦¬à¦¹":6667,"à¦¼à¦¬à¦¡":6668,"à§įà¦¯à¦°à¦°":6669,"Ġà¦Ĩà¦īà¦¨":6670,"Ġà¦Ĩà¦īà¦¯":6671,"Ġà¦Ĩà¦īà¦¡":6672,"Ġà¦ħà¦®à¦°à¦¤":6673,"à¦¾à¦¦à¦¨à¦ķ":6674,"à¦¾à¦ªà¦°à¦ļ":6675,"à§įà¦ªà¦¦à¦ķ":6676,"à§įà¦ªà¦¦à¦¸à¦¹":6677,"à¦¿à¦¬à¦¸à¦ĵ":6678,"à§įà¦¨à¦¤à¦¤à¦°":6679,"Ġà¦ĺà¦¨à¦®":6680,"ento":6681,"ents":6682,"à¦Ĥà¦Ĺà¦łà¦¨à¦ķ":6683,"à¦Ĥà¦Ĺà¦łà¦¨à¦¸à¦¹":6684,"chain":6685,"chham":6686,"chnya":6687,"changel":6688,"à¦¾à¦ĺà¦¬":6689,"à¦¾à¦ĺà¦°à¦ĵ":6690,"Ġà¦¬à¦ĩà¦¤":6691,"Ġà¦¬à¦ĩà¦Ľ":6692,"à¦¾à¦®à¦Ĺà¦¦":6693,"à¦ĩà¦ıà¦«":6694,"à¦¾à¦¶à¦°à¦¥":6695,"à§Įà¦¶à¦²à¦ĵ":6696,"-à¦ķà¦¯":6697,"-à¦ķà¦·":6698,"apcha":6699,"asan":6700,"ason":6701,"ased":6702,"ashm":6703,"assw":6704,"elpful":6705,"ĠWAT":6706,"ĠWeb":6707,"ĠWith":6708,"ĠWebsit":6709,"ĠWeight":6710,"ĠWhat":6711,"ĠWater":6712,"ĠWednes":6713,"ĠWorld":6714,"Ġvisa":6715,"Ġviento":6716,"à§ĩà¦Ĩà¦ľ":6717,"Ġà¦®à¦ľà¦¬":6718,"à§įà¦¤à¦ķà¦¨":6719,"à§įà¦¤à¦ķà¦¤":6720,"Ġà¦¤à¦¤à¦¦":6721,"Ġà¦¤à¦¤à¦Ł":6722,"à§Įà¦°à¦Ń":6723,"à§Įà¦°à¦¶à¦ķ":6724,"à§Įà¦°à¦¶à¦¹à¦°":6725,"à¦ıà¦¨à¦ª":6726,"à¦ıà¦¨à¦ĵà¦¸":6727,"à¦ıà¦¨à¦ıà¦Ń":6728,"pside":6729,"ttes":6730,"ĠFL":6731,"ĠFahm":6732,"ĠFAC":6733,"ĠFac":6734,"ĠFix":6735,"ĠFargo":6736,"ĠHD":6737,"ĠHom":6738,"ĠHind":6739,"ĠHtml":6740,"ĠHub":6741,"ĠHere":6742,"ĠHasan":6743,"ĠHelpful":6744,"à§Ģà¦ľà¦Ł":6745,"à§Ģà¦ľà¦Ĺà¦£":6746,"Ġà¦¯à¦¤à¦ķ":6747,"Ġà¦¯à¦¤à¦Ł":6748,"Ġà¦Ĺà¦łà¦¨à¦®":6749,"Ġà¦Ĺà¦łà¦¨à¦Ĺà¦¤":6750,"Ġà¦ļà¦ķà¦¬à¦°à¦ķà¦¤":6751,"âĢĶà¦¬":6752,"âĢĶà¦¸":6753,"âĢĶà¦Ĩà¦®":6754,"âĢĶà¦Ĺà¦¨":6755,"à¦¾à¦Ĺà¦¤à¦Ń":6756,"Ġà¦ıà¦ĩà¦ļà¦¡":6757,"Ġà¦ıà¦ĩà¦ļà¦ıà¦«à¦¸":6758,"à¦¿à§İà¦¸à¦ķà¦¦":6759,"isal":6760,"isha":6761,"iscre":6762,"isingbd":6763,"Âłà¦¸":6764,"ÂłÂł":6765,"Âłà¦Ĩà¦ľ":6766,"Âłà¦Ĩà¦¦":6767,"ĠLOC":6768,"ĠLike":6769,"ĠLyn":6770,"ĠLink":6771,"ĠLev":6772,"ĠLock":6773,"ĠLtd":6774,"ĠLundega":6775,"ĠLimited":6776,"à§ĩâĢĻ,":6777,"Ġà¦¸à¦ľà¦²":6778,"à¦ªà¦¦à¦¤":6779,"à§ĩà¦ĩà¦¨à¦¸":6780,"Ġà¦¡à¦ķà¦ĩà¦¯":6781,"à§ĭà¦¹à¦°à¦¯":6782,"à¦¾à¦łà¦ķà¦ķ":6783,"à¦ħà¦¨à¦²":6784,"iding":6785,"ĠNig":6786,"ĠNOKI":6787,"ĠRead":6788,"ĠRAN":6789,"ĠRESI":6790,"ĠRiport":6791,"ĠResul":6792,"Ġwas":6793,"Ġwho":6794,"Ġwant":6795,"Ġwash":6796,"Ġwhic":6797,"Ġwarned":6798,"à¦¿à¦łà¦¤":6799,"à§ģà¦ļà¦®":6800,"à§Ģà¦Ńà§İà¦¸":6801,"Ġà¦ıà¦ķà¦¦à¦²":6802,"à¦¾à¦¹à¦ķà¦ķ":6803,"à¦¾à¦¹à¦ķà¦¦":6804,"à§ĩà¦Łà¦°à¦¦":6805,"à¦¾à¦Łà¦ķà¦ĵ":6806,"à¦¾à¦īà¦ľà¦«":6807,"Ġà¦¸à¦«à¦°à¦°à¦¤":6808,"Ġà¦¸à¦«à¦²à¦Ń":6809,"ONIC":6810,"ONLINE":6811,"utpr":6812,"utorash":6813,"Ġ!!":6814,"Ġ\"(":6815,"à¦Īà¦Ĭà¦ī":6816,"Ġà¦Ĩà¦ļà¦®à¦ķ":6817,"Ġà¦ıà¦ľà¦²":6818,"Ġà¦¹à¦ľà¦¯":6819,"Ġà¦¹à¦ľà¦°à¦¤":6820,"à§Ĥà¦¨à¦Ń":6821,"à§Ĥà¦¨à¦¤à¦®":6822,"Ġà¦§à¦¨à¦ķ":6823,"Ġà¦§à¦¨à¦¤":6824,"Ġà¦§à¦¨à¦ŀ":6825,"Ġà¦§à¦¨à¦ľà¦ĩà¦²":6826,"à§Īà¦¶à¦¬":6827,"à¦¿à¦īà¦¡à¦ķ":6828,"à¦¿à¦Ĩà¦°à¦ıà¦²":6829,"à¦¿à¦Ĩà¦°à¦ĩà¦ī":6830,"Ġà¦ĭà¦£à¦®":6831,"Ġà¦ĭà¦£à¦¦":6832,"Ġà¦ĭà¦£à¦ĸ":6833,"Ġemail":6834,"ĠePo":6835,"Ġebon":6836,"Ġetc":6837,"à¦¿à¦Ŀà¦°":6838,"à¦¿à¦Ŀà¦¡":6839,"à¦¾à¦°à¦Ĺà¦Ł":6840,"Ġà¦ľà¦²à¦¨":6841,"à¦¾à¦¬à¦¤à¦ķ":6842,"à¦¾à¦¬à¦¤à¦ĩ":6843,"âĢľà¦¨":6844,"âĢľà¦¦":6845,"âĢľà¦£":6846,"âĢľà¦ļ":6847,"âĢľà¦Ĩà¦®":6848,"âĢľà¦ĩà¦¸à¦²":6849,"âĢľà¦ıà¦Ł":6850,"à¦ļà¦²à¦¤":6851,"à¦ļà¦²à¦Ľ":6852,"à¦¾à¦¹à¦¬à¦¹":6853,"à¦¾à¦¹à¦¸à¦Ł":6854,"à¦¿à¦¬à¦°à¦£à¦Ł":6855,"à§ĩà¦ĸà¦ķà¦Ĺà¦£":6856,"à¦Ĩà¦ľà¦²":6857,"à¦Ĩà¦ľà¦ĵ":6858,"à¦īà¦ªà¦¶":6859,"à¦īà¦ªà¦ķà¦°à¦£":6860,"à¦¾à¦īà¦¦à¦ķ":6861,"Ġà¦¬à¦¸à¦¤à¦ĺà¦°":6862,"ence":6863,"enciÃ":6864,"à¦Ĥà¦ķà¦Łà¦ľà¦¨":6865,"-à¦¨à¦¤":6866,"ivers":6867,"nsists":6868,"olpo":6869,"oogle":6870,"ĠJews":6871,"ĠJack":6872,"ĠJav":6873,"ĠJune":6874,"ĠJohnson":6875,"ĠJamuna":6876,"ĠJutorash":6877,"Ġgum":6878,"Ġgame":6879,"Ġguy":6880,"Ġganar":6881,"Ġgagged":6882,"Ġgolpo":6883,"Ġgoogle":6884,"Ġcoup":6885,"Ġcopy":6886,"Ġconsists":6887,"à§Ģà¦ļà¦ŀ":6888,"à§įà¦®à¦¤à¦Ń":6889,"à¦¾à¦¹à¦¨à¦ķ":6890,"Ġà¦Łà¦®à¦Łà¦®":6891,"à¦Ĩà¦²à¦¤":6892,"à§įà¦ķà¦°à¦¬":6893,"Ġà¦Ĩà¦ľà¦®à¦²à¦ķ":6894,"ersham":6895,"à¦ħà¦¬à¦¤":6896,"à¦ħà¦¬à¦¹":6897,"ĠSein":6898,"âĢ¦âĢ¦..":6899,"ourwon":6900,"ĠAnna":6901,"ĠAndro":6902,"ĠAndorid":6903,"ĠAnimists":6904,"ĠAnthro":6905,"-à¦¶à¦°":6906,"-à¦¶à¦¤":6907,"-à¦¶à¦¸":6908,"ORY":6909,"OROL":6910,"mentation":6911,"Ġ[[":6912,"Ġ[..]":6913,"Ġyoutu":6914,"Ġyoun":6915,"Ġyourwon":6916,"à¦¾?...":6917,"à§ĩà¦ĺà¦¹":6918,"à§ĩà¦ĺà¦ĸà¦£":6919,"à§ģà§İà¦ļ":6920,"à§ģà§İà¦«":6921,"à§ģà§İà¦«à¦°":6922,"à¦ķà¦¨à¦¸":6923,"à¦ķà¦¨à¦ľ":6924,"à¦²à¦¨à¦Ĺà¦°":6925,"Ġà¦Ĩà¦Łà¦²":6926,"à¦¾à¦¨à¦ľà¦Ł":6927,"à¦ªà¦¡à¦ķ":6928,"à¦¿à¦°à¦¬à¦ļ":6929,"Ġà¦ıà¦ķà¦¸à¦ª":6930,"à¦¾à¦ªà¦Łà¦ª":6931,"à§ĭà¦¨à¦®à¦ķ":6932,"à¦ıà¦²à¦ľ":6933,"à¦ıà¦²à¦ıà¦¨à¦ľ":6934,"à¦ĺà¦°à¦Ĺ":6935,"Ġthis":6936,"Ġthir":6937,"Ġthought":6938,"ovements":6939,"Ġcanbe":6940,"Ġcansee":6941,"deos":6942,"ĠIntro":6943,"ĠIndia":6944,"ĠInstagram":6945,"ĠInformation":6946,"ĠIntend":6947,"ĠInstitut":6948,"Ġà¦Ĩà¦ļà¦°à¦£à¦Ĺà¦¤":6949,"&Fà¦¨":6950,"-à¦¯à¦®":6951,"ATAL":6952,"beenPo":6953,"tionary":6954,"Ġdds":6955,"Ġdsw":6956,"Ġdiscre":6957,"Ġdefi":6958,"ĠYoucan":6959,"à¦¾...-":6960,"à¦¾à¦Īà¦°":6961,"à¦¾à¦Īà¦®":6962,"à¦¾à¦Īà¦ľ":6963,"Ġà¦ķà¦¬à¦°à¦¸":6964,"Ġà¦¬à¦ľà¦°":6965,"Ġà¦¬à¦¹à¦¨à¦¸à¦¹":6966,"à§ĭà¦ĵà¦ľ":6967,"à§ĢâĢĻÂ»":6968,"Ġà¦®à¦¦à¦¦":6969,"Ġà¦¹à¦°à¦¹":6970,"Ġà¦ĵà¦ķà¦¸à¦ķ":6971,"à¦¾à¦¬à¦¸à¦¯":6972,"à§Ĥà¦¦à¦ĸ":6973,"à§Įà¦¥à¦¬":6974,"à¦¿à¥¤âĢĻâĢĻ":6975,"à¦¿à¦ıà¦«à¦ª":6976,"à¦¿à¦ıà¦«à¦ıà¦¸":6977,"à¦¿à¦ıà¦«à¦ĩà¦īà¦ľ":6978,"à§ĭà¦¹à¦¨à¦ķ":6979,"à§ĭà¦¹à¦¨à¦Ĺà¦ŀ":6980,"à¦ħà¦ªà¦°à¦¦":6981,"ĠPHP":6982,"ĠPHOT":6983,"ĠPrepaid":6984,"Ġfreeb":6985,"Ġà¦īà§İà¦¸à¦¬à¦ķ":6986,"-à¦°à¦¶":6987,"-à¦Ĺà¦¦":6988,"fie":6989,"fiqu":6990,"ginals":6991,"gineer":6992,"iring":6993,"irse":6994,"jog":6995,"joy":6996,"roups":6997,"usa":6998,"ĠOption":6999,"ĠOffer":7000,"ĠOrder":7001,"ĠUSS":7002,"ĠUna":7003,"ĠUrdu":7004,"ĠUSB":7005,"ĠUpside":7006,"Ġkill":7007,"Ġkey":7008,"Ġkotha":7009,"Ġkalersangbad":7010,"Ġlt":7011,"Ġluck":7012,"Ġlanguage":7013,"Ġluego":7014,"Ġlanding":7015,"Ġllegar":7016,"Ġmade":7017,"Ġmake":7018,"Ġmarket":7019,"Ġmaintain":7020,"Ġunder":7021,"Ġunidad":7022,"Ġunsealing":7023,"Ġunivers":7024,"Ġunirse":7025,"à¦¼à¦Ĥà¥¤":7026,"à§ģà¦¥à¦Ĺ":7027,"à¦²à¦Ĺà¦Ł":7028,"à¦²à¦Ĺà¦ĵ":7029,"à§įà¦°à¦ĩà¦¡":7030,"Ġà¦Ĩà¦ĸà¦¡":7031,"à¦ĩà¦Łà¦ĵà¦¯":7032,"à¦¾à¦ľà¦ķà¦ķ":7033,"à¦¾à¦ľà¦ķà¦¸à¦¹":7034,"Ġà¦ĩà¦Ńà¦²":7035,"Ġà¦ľà¦¨à¦¸à¦ļ":7036,"à§įà¦ļà¦®à¦¬":7037,"à§Īà¦§à¦¤":7038,"à§ģà¦ĸà¦¬à¦°à¦Ł":7039,"Ġsubm":7040,"ĠsubeenPo":7041,"ĠPress":7042,"Ġbeen":7043,"Ġinformation":7044,"Ġinfring":7045,"ĠanySI":7046,"à¦¿à¦Ĩà¦ĩà¦°":7047,"à¦¾.)âĢĻ":7048,"-à¦Ĩà¦ķ":7049,"-à¦Ĩà¦¯":7050,"-à¦Ĩà¦¦à¦®à¦ľ":7051,"SID":7052,"ddhists":7053,"hikar":7054,"riate":7055,"ĠXR":7056,"ĠXS":7057,"Ġcomo":7058,"Ġcomment":7059,"Ġcomputer":7060,"Ġcombos":7061,"Ġlaw":7062,"Ġlast":7063,"Ġimo":7064,"Ġimpr":7065,"Ġimple":7066,"Ġimportant":7067,"Ġimmem":7068,"à¦¾à¦°à¦°à¦«":7069,"à§ĭà¦ľà¦¨à¦ĩ":7070,"Ġà¦ıà¦ıà¦¸à¦Ĩà¦ĩ":7071,"Ġà¦¦à¦®à¦ķà¦²":7072,"à¦ĩà¦īà¦¨":7073,"à¦¿à¦²à¦°à¦¦":7074,"à§ĩà¦²à¦ªà¦®":7075,"Ġà¦ıà¦ķà¦ķà¦¥":7076,"Ġà¦ĩà¦Łà¦Ń":7077,"à§Ĥà¦ĸà¦£":7078,"à§įà¦ķà¦Łà¦²":7079,"à§įà¦ķà¦Łà¦ª":7080,"à¦¿à¦ıà¦ĩà¦ļà¦ı":7081,"Ġà¦Ĩà¦ķà¦¬à¦°à¦ķ":7082,"ĠChat":7083,"ĠChildren":7084,"ĠChampions":7085,"à§ģà¦«à¦²à¦ĩ":7086,"à§ģà¦«à¦²à¦Ń":7087,"à§Įà¦²à¦¤à¦¦":7088,"-finals":7089,"-à¦Łà¦¯":7090,"-à¦Łà¦ĩ":7091,".fb":7092,".four":7093,"ACSI":7094,"ICE":7095,"NET":7096,"aze":7097,"azine":7098,"badhikar":7099,"lywood":7100,"pology":7101,"porter":7102,"quiring":7103,"yadores":7104,"ĠGPR":7105,"ĠGMDSS":7106,"ĠGROU":7107,"ĠGuide":7108,"ĠKick":7109,"ĠKashm":7110,"ĠVol":7111,"ĠVGM":7112,"Ġobama":7113,"Ġopen":7114,"Ġenjoy":7115,"à¦¿à§İà¦·à¦¤":7116,"Ġà¦¸à¦²à¦¤":7117,"Ġà¦¸à¦ĵà¦¦":7118,"Ġà¦¬à¦Łà¦¤à¦²":7119,"Ġà¦¬à¦¶à¦¬à¦°":7120,"Ġà¦¬à¦īà¦®":7121,"Ġà¦ªà¦Łà¦Ń":7122,"à¦¿à¦°à¦²à¦¸":7123,"à¦¿à¦°à¦¸à¦¨à¦ķà¦²":7124,"à§ģà¦²à¦ķà¦ª":7125,"à§įà¦®à¦°à¦£à¦¸à¦Ń":7126,"Ġà¦ĸà¦¸à¦¡":7127,"à¦¾à¦Ĺà¦¸à¦ĩ":7128,"à§Ģà¦°à¦¬à¦¤":7129,"à¦¼à¦¨à¦ķà¦ķ":7130,"à§įà¦ļà¦¨à¦ª":7131,"Ġà¦ķà¦®à¦²à¦Ĺà¦ŀ":7132,"Ġà¦Ĩà¦ĩà¦Ńà¦°":7133,"Ġà¦Ĩà¦ĩà¦ıà¦¸à¦¬":7134,"Ġà¦Ĩà¦ĩà¦ıà¦¸à¦ª":7135,"Ġà¦Ĩà¦ĩà¦ıà¦¸à¦Ĩà¦ĩ":7136,"à¦Ĥà¦Ĺà¦łà¦ķà¦°":7137,"ĠSID":7138,"ĠSafe":7139,"ĠProduct":7140,"ĠProkash":7141,"à¦¿à¦ĩà¦īà¦¤":7142,"Ġable":7143,"Ġameric":7144,"Ġcaption":7145,"Ġcaptha":7146,"orized":7147,"Ġbunch":7148,"à¦ıà¦ķà¦ĩà¦¦":7149,"à¦ıà¦ĩà¦ļà¦¡":7150,"à¦ıà¦ĩà¦ļà¦ıà¦®":7151,"à¦ıà¦ĩà¦ļà¦ıà¦¸à¦¸":7152,"ĠDefin":7153,"ĠDepart":7154,"ĠDevelo":7155,"ĠDelete":7156,"ĠWindows":7157,"à§ĩà¦ıà¦¸à¦ıà¦¸":7158,"à§ĩà¦ıà¦¸à¦ıà¦«":7159,"ĠSelections":7160,"-à¦ĵà¦²":7161,"-à¦ĵà¦®à¦°":7162,"-à¦īà¦ªà¦¨":7163,"-à¦īà¦¤à¦°":7164,"-à¦īà¦§à¦°":7165,"ECTOR":7166,"acy":7167,"acity":7168,"ifU":7169,"ify":7170,"ifur":7171,"swinging":7172,"tware":7173,"tains":7174,"Ġjerk":7175,"ĠjQu":7176,"Ġjuego":7177,"Ġvs":7178,"Ġvalo":7179,"ĠatenciÃ":7180,"Ġrejin":7181,"Ġreading":7182,"Ġreason":7183,"Ġlost":7184,"Ġà¦Ĭà¦ªà¦¦":7185,"à¦¨à¦ķà¦ª":7186,"à¦¤à¦¤à¦ķ":7187,"à§įà¦¯à¦Łà¦ķà¦Ĺà¦£":7188,"Ġà¦®à¦²à¦¦":7189,"à§įà¦¤à¦ļà¦°":7190,"à§įà¦¤à¦ļà¦°à¦ķ":7191,"à§įà¦¤à¦ļà¦°à¦¬":7192,"à¦¿à¦ķà¦°à¦£à¦¸à¦¹":7193,"Ġà¦°à¦ĵà¦¶à¦¨":7194,"Ġà¦īà¦ªà¦¶à¦¹à¦°":7195,"Ġà¦ħà¦¬à¦Ĺà¦¤à¦ķà¦°à¦¨":7196,"à¦¿à¦īà¦ĩà¦°":7197,"à¦¿à¦īà¦ĩà¦¦":7198,"à¦¾à¦ĩà¦²à¦Łà¦°":7199,"à§įà¦°à¦¬à¦£à¦¤":7200,"Ġà¦ħà¦ªà¦ļà¦¯":7201,"atures":7202,"ounce":7203,"à¦¾à¦¨à¦¬à¦ľà¦®":7204,"ĠCertit":7205,"ĠChechnya":7206,"Ġchina":7207,"Ġchannel":7208,"Ġchased":7209,"Ġplace":7210,"Ġpackage":7211,"ĠMail":7212,"ĠMahad":7213,"ĠMastercard":7214,"unta":7215,"icebd":7216,"iciency":7217,"Ġâĺ¯â":7218,"ĠTrainers":7219,"ĠRegional":7220,"Ġcontains":7221,"ĠAnytime":7222,"Ġteens":7223,"ĠProficiency":7224,"@kalersangbad":7225,"Ġà¦Ķà¦·à¦§à¦¸à¦®":7226,",à¦¶à¦°à¦¹":7227,"-à¦ĩà¦®":7228,".instagram":7229,"/à¦ıà¦¸à¦ıà¦ĩà¦ļà¦ıà¦®":7230,"ARMY":7231,"ASONIC":7232,"CCleaner":7233,"KING":7234,"Moved":7235,"MovieQu":7236,"OCATAL":7237,"PHP":7238,"PRICE":7239,"STIVE":7240,"TERY":7241,"TERNET":7242,"YTE":7243,"YTIC":7244,"deskla":7245,"gajog":7246,"ixsense":7247,"ians":7248,"mery":7249,"rimere":7250,"saifur":7251,"tras":7252,"uestras":7253,"uthorized":7254,"ĠZend":7255,"ĠZNP":7256,"Ġ__":7257,"Ġlegal":7258,"Ġleague":7259,"Ġrael":7260,"Ġrace":7261,"Ġquick":7262,"Ġquarter":7263,"à§ĩâĢ¦!":7264,"à¦¾à¦Ĩà¦²":7265,"à¦¾à¦Ĩà¦ķà¦Ľ":7266,"à¦¿à¦¾à§ĩ":7267,"à§ģà¦¬à¦°à¦£":7268,"Ġà¦ķà¦¦à¦²à¦ª":7269,"Ġà¦ķà¦¦à¦®à¦¤à¦²":7270,"Ġà¦ķà¦®à¦¨à¦ĵà¦¯":7271,"Ġà¦¸à¦¶à¦¬":7272,"Ġà¦¸à¦¶à¦¸":7273,"à§ĭà¦£à¦ł":7274,"Ġà¦ıà¦«à¦ı":7275,"Ġà¦¨à¦ĵà¦°":7276,"Ġà¦¨à¦ĵà¦¹":7277,"Ġà¦ľà¦ľà¦ķ":7278,"Ġà¦°à¦£à¦¤à¦°":7279,"Ġà¦°à¦£à¦¸à¦Ļ":7280,"Ġà¦ļà¦®à¦ķà¦ª":7281,"Ġà¦īà§İà¦ķà¦£":7282,"à¦¾à¦¹à¦ĵà¦¬":7283,"Ġà¦Ľà¦Łà¦«à¦Ł":7284,"à¦Ĩà¦¹à¦®à¦¦":7285,"à§įà¦ļà¦¬à¦Ł":7286,"à¦¾à¦°à¦£à¦¬à¦¶à¦¤":7287,"à§ģà¦ĸà¦°à¦ŀ":7288,"Ġtips":7289,"Ġtienes":7290,"Ġà¦ıà¦®à¦ıà¦ľ":7291,"à§ĩà¦«à¦Łà¦¬":7292,"ĠSENSI":7293,"ĠSons":7294,"Ġshah":7295,"Ġshare":7296,"ĠAccount":7297,"ĠAcquiring":7298,"ĠApps":7299,"ĠApunta":7300,"ĠCoque":7301,"ĠCategory":7302,"ĠCategories":7303,"Ġadmin":7304,"Ġadvtps":7305,"Ġalread":7306,"Ġapplication":7307,"Ġapplied":7308,"Ġchose":7309,"Ġchoti":7310,"alogues":7311,"Ġmuch":7312,"Ġmuzul":7313,"Ġmodified":7314,"ĠMagnifi":7315,"ĠMagazine":7316,"Ġà¦¤à¦°à¦«à¦¦":7317,"Ġfear":7318,"Ġfeatures":7319,"ĠBuilding":7320,"ĠBuddhists":7321,"ĠEnglish":7322,"ĠEngineer":7323,"ĠINFOR":7324,"ĠINTERNET":7325,"ĠImportant":7326,"ĠImsaifur":7327,"ĠThemes":7328,"Ġà¦ħà¦®à¦°à¦¨":7329,"chase":7330,"ropriate":7331,"ĠWorks":7332,"ĠHTC":7333,"ĠHTML":7334,"ĠHACKER":7335,"ĠHACKING":7336,"Ġà¦¯à¦¤Åĵà¦¶":7337,"Ġwebsite":7338,"Ġwebsites":7339,"Ġà¦Ĩà¦§à¦ĺà¦£":7340,"Ġà¦¹à¦ľà¦®à¦ľà¦¨":7341,"Ġexam":7342,"Ġextra":7343,"Ġgroup":7344,"Ġgroups":7345,"Ġà¦Łà¦®à¦¸à¦¨à¦ķ":7346,"Ġdescri":7347,"Ġdeshjo":7348,"Ġdonde":7349,"Ġdemost":7350,"Ġdemuestras":7351,"Ġtitties":7352,"Ġtittyfuck":7353,"Ġmassive":7354,"ĠPrivate":7355,"ĠPrivacy":7356,"ĠChristmas":7357,"ĠChristians":7358,"duction":7359,"ĠView":7360,"ĠVideos":7361,"ĠCertified":7362,"ĠCertificate":7363,"ĠCheckout":7364,"Ġplayed":7365,"Ġpackagesoffer":7366,"Ġâĺİâĺĳï¸ı":7367,"Ġâĺİâľħ":7368,"ĠProfessional":7369,"ĠProfessors":7370,"lished":7371,"(Edi":7372,"(Qt":7373,"(à¦ķà¦®à¦²à¦¨à¦Ĺà¦°":7374,")Maze":7375,",Chang":7376,",PM":7377,",SMS":7378,",capcha":7379,",passw":7380,",à¦Ĩà¦ķà¦¤":7381,",à¦¸à¦¹à¦ľ":7382,",computer":7383,"-à¦ħà¦¬à¦°":7384,"-eee":7385,".All":7386,".djv":7387,".risingbd":7388,".dsw":7389,".udemy":7390,"/Bengali":7391,"/COR":7392,"/GXc":7393,"/Hdw":7394,"/QifU":7395,"/WeRonline":7396,"/cutpr":7397,"/groups":7398,"/à¦ĩà¦īà¦¬":7399,":SRo":7400,":newsdeskla":7401,"@crimere":7402,"@hotmail":7403,"ABYTE":7404,"Archangel":7405,"Approv":7406,"Author":7407,"Business":7408,"Bangladesher":7409,"CRIBE":7410,"Clixsense":7411,"CoP":7412,"Category":7413,"Dialogues":7414,"Empow":7415,"EBOOK":7416,"FrenesÃŃ":7417,"Ichchham":7418,"IFICATION":7419,"Morgan":7420,"Meta":7421,"PANY":7422,"SiO":7423,"ToT":7424,"Thein":7425,"TPHONE":7426,"Vision":7427,"ZCPE":7428,"_ruet":7429,"axy":7430,"airs":7431,"barisal":7432,"basar":7433,"cups":7434,"cinating":7435,"gram":7436,"misti":7437,"nAlthough":7438,"peration":7439,"ployment":7440,"ralia":7441,"tokjhalmisti":7442,"word":7443,"âĻ£à¦¦à¦°":7444,"Ġ..'":7445,"Ġovers":7446,"Ġdoa":7447,"Ġeditor":7448,"Ġemployment":7449,"Ġessbarisal":7450,"Ġolvides":7451,"Ġresiding":7452,"Ġrimming":7453,"ĠYemen":7454,"Ġqunut":7455,"Ġruns":7456,"Ġïģ¬":7457,"ĠðŁĴ¬":7458,"à¦¾....":7459,"à¦¿âĢ¦âĢ¦âĢ¦âĢ¦âĢ¦âĢ¦âĢ¦âĢ¦":7460,"à¦¨à¦ķà¦°à¦ķà¦®":7461,"à§ģà¦īà¦ļ":7462,"à§ģà¦ĺà¦²à¦ª":7463,"à¦¾à¦°à¦Ŀà¦¡":7464,"Ġà¦ķà¦¸à¦ķà¦¨à¦ķà¦ª":7465,"Ġà¦¸à¦¹à¦®à¦°":7466,"à§ĭà§İà¦¸à¦¬":7467,"à¥¤banglatribune":7468,"à§Ģ------":7469,"Ġà¦®à¦Ĺà¦ľà¦§":7470,"Ġà¦®à¦ĵà¦¦":7471,"Ġà¦®à¦ļà¦®à¦ļ":7472,"à¦¸à¦ĵà¦ľ":7473,"Ġà¦¨à¦ĸà¦¦à¦¨":7474,"Ġà¦ľà¦Ĺà§İ":7475,"Ġà¦¤à¦Ľà¦¨à¦Ľ":7476,"Ġà¦ħà¦¬à¦¨à¦¤":7477,"Ġà¦ħà¦¹à¦°à¦¹":7478,"à§ĩà¦¨à¦¬à¦²à¦Ľ":7479,"Ġà¦°à¦ĩà¦ľ":7480,"à¦¾à¦ķà¦¸à¦¬à¦ľ":7481,"Ġà¦¯à¦Īà¦«":7482,"à§įà¦Łà¦ľà¦¨à¦¦":7483,"Ġà¦Ĺà§İà¦¬":7484,"Ġà¦Ĺà¦Ĺà¦¨à¦ļ":7485,"Ġà¦ļà¦Łà¦ķà¦¦":7486,"à¦¾à¦ĩà¦ĵà¦°à¦ª":7487,"à¦¾à¦¸à¦Ńà¦¬à¦¨":7488,"Ġà¦īà¦Īà¦¦":7489,"Ġà¦ıà¦ķà¦¤à¦°à¦«":7490,"Ġà¦¥à¦®à¦¥à¦®":7491,"à§įà¦®à¦¥à¦ķà¦°":7492,"Ġà¦ĸà¦°à¦®à¦ª":7493,"à§Ĥà¦Łà¦ķà¦ļ":7494,"à¦¾à¦ªà¦¥à¦ĵ":7495,"à¦ĸà¦¬à¦°ONLINE":7496,"à¦¾à¦Ĺà¦®à¦¨à¦ķ":7497,"Ġà¦ħà¦¨à¦¬à¦°à¦¤":7498,"à§įà¦Ĺà¦¸à¦¹à¦¯":7499,"à¦¿à¦Łà¦®à¦¹à¦²à¦Ĺ":7500,"à¦Ĩà¦Ĺà¦°à¦¤à¦²":7501,"à¦ıà¦ıà¦²à¦¸":7502,"à§ĭà¦ķà¦¬à¦²à¦¸":7503,"à¦¿à¦ıà¦ĩà¦¸à¦ĵ":7504,"à¦¿à¦īLeave":7505,"Ġà¦Ĩà¦ĩà¦Ĩà¦°à¦ľ":7506,"Ġà¦¸à¦¹India":7507,"Ġà¦ĩà¦īà¦ıà¦¨à¦ĵ":7508,"à¦Ĥà¦¶à¦§à¦°à¦¦":7509,"Ġtarget":7510,"Ġthose":7511,"Ġtaken":7512,"Ġtribbing":7513,"Ġtougher":7514,"Ġtrade":7515,"à§ĭà¦ªà¦ķà¦¥à¦¨":7516,"Ġà¦ıà¦®à¦Ĩà¦ĩà¦¬":7517,"ĠSouth":7518,"ĠShare":7519,"ĠSumon":7520,"ĠSigned":7521,"ĠSMARTPHONE":7522,"ĠSUBSCRIBE":7523,"ĠSYSTEM":7524,"ĠScale":7525,"ĠShorkarer":7526,"ĠSomalia":7527,"ĠSpelling":7528,"à§ĭà¦Ńà¦°à¦¤à¦¦":7529,"ilitate":7530,"Ġsheersham":7531,"Ġsoftware":7532,"Ġsemis":7533,"Ġselfie":7534,"Ġsummery":7535,"Ġsafe":7536,"Ġshall":7537,"Ġsteps":7538,"Ġspirit":7539,"Ġservices":7540,".galaxy":7541,"ĠPlaced":7542,"ĠPurify":7543,"ĠPURIFICATION":7544,"ĠPolicy":7545,"ĠPackage":7546,"ĠPANASONIC":7547,"ĠPermalink":7548,"Ġà¦Ŀà¦°à¦Ŀà¦°":7549,"ĠAdelaide":7550,"ĠAppropriate":7551,"ĠAustralia":7552,"ĠAffairs":7553,"ĠACCESS":7554,"ĠAPPLE":7555,"ĠAboriginals":7556,"ĠAtheists":7557,"ĠCurrent":7558,"ĠCapacity":7559,"ĠChoti":7560,"ĠCooperation":7561,"ĠCourse":7562,"ĠCOMPANY":7563,"ĠCable":7564,"ĠComience":7565,"ĠClick":7566,"Ġactive":7567,"Ġadsense":7568,"Ġapoyadores":7569,"Ġaynun":7570,"Ġagainst":7571,"Ġamaount":7572,"Ġcures":7573,"Ġcuties":7574,"Ġctgpost":7575,"Ġcertainly":7576,"Ġbollywood":7577,"Ġboobs":7578,"Ġbrunettes":7579,"Ġpunisha":7580,"Ġpros":7581,"Ġpurchase":7582,"Ġphase":7583,"Ġperson":7584,"Ġproud":7585,"Ġpdsonline":7586,"Ġprestar":7587,"Ġpuntos":7588,"Ġpublished":7589,"Ġpaste":7590,"Ġpeople":7591,"Ġphone":7592,"Ġprofesional":7593,"Ġpuede":7594,"Ġpatadas":7595,"Ġnumber":7596,"Ġhiccups":7597,"Ġholy":7598,"Ġhappy":7599,"stnewsbd":7600,"Ġmiss":7601,"Ġmidnight":7602,"Ġmmdctgbd":7603,"Ġminutes":7604,"Ġmanagement":7605,"ĠMission":7606,"ĠMEMORY":7607,"ĠMOTOROL":7608,"ĠManobadhikar":7609,"ĠMaritime":7610,"Ġtheapplication":7611,"Ġinternational":7612,"Ġinverted":7613,"Ġfascinating":7614,"Ġanchor":7615,"à¦¿à¦ıà¦¸à¦ıà¦®à¦ıà¦®à¦ĩà¦ī":7616,"ĠDictionary":7617,"ĠDelray":7618,"ĠDown":7619,"ĠDETECTOR":7620,"ĠDesignAlthough":7621,"ĠBasic":7622,"ĠBATTERY":7623,"ĠBosnia":7624,"ĠBitcoin":7625,"ĠBlockchain":7626,"ĠEnsure":7627,"ĠEgypt":7628,"ĠEmergency":7629,"ĠExemption":7630,"ĠIsrael":7631,"ĠILTS":7632,"ĠTurned":7633,"ĠTutorial":7634,"ĠThailand":7635,"ĠTERABYTE":7636,"ĠTigers":7637,"ĠTrophy":7638,"ĠTelevision":7639,"ĠThursday":7640,"ĠWATER":7641,"ĠWebsite":7642,"ĠWhatsapp":7643,"ĠWednesday":7644,"ĠFahmida":7645,"ĠFACEBOOK":7646,"ĠFacilitate":7647,"ĠHome":7648,"ĠHindus":7649,"ĠLOCATION":7650,"ĠLynch":7651,"ĠLevenger":7652,"ĠLundegaard":7653,"ĠNigeria":7654,"ĠNOKIA":7655,"ĠRANDOM":7656,"ĠRESISTIVE":7657,"ĠResult":7658,"Ġwashington":7659,"Ġwhich":7660,"à¦Īà¦Ĭà¦īà¦ħà¦¡":7661,"ĠePoems":7662,"Ġebony":7663,"ĠJava":7664,"ĠJutorashtro":7665,"Ġgumption":7666,"Ġcouples":7667,"Ġcopyright":7668,"ĠAndroid":7669,"ĠAnthropology":7670,"Ġyoutube":7671,"Ġyounger":7672,"Ġthird":7673,"Ġthoughts":7674,"ĠIntroduction":7675,"ĠIntended":7676,"ĠInstitute":7677,"Ġdswctg":7678,"Ġdiscretion":7679,"ĠPHOTOCATAL":7680,"Ġfreebitco":7681,"fiquer":7682,"ĠUSSR":7683,"ĠUnauthorized":7684,"Ġkeyword":7685,"Ġunderlines":7686,"Ġuniversidad":7687,"Ġsubmit":7688,"ĠsubeenPosted":7689,"Ġinfringes":7690,"ĠanySIM":7691,"Ġimprovements":7692,"Ġimplementation":7693,"Ġimmemorial":7694,"ĠGPRS":7695,"ĠGROUP":7696,"ĠGuidelines":7697,"ĠKicker":7698,"ĠKashmir":7699,"Ġopening":7700,"ĠProkashon":7701,"Ġamericano":7702,"ĠDefined":7703,"ĠDepartment":7704,"ĠDevelopment":7705,"Ġjerking":7706,"ĠjQuery":7707,"Ġvalobasar":7708,"ĠatenciÃ³n":7709,"Ġrejinab":7710,"ĠCertiticate":7711,"ĠMahadi":7712,"Ġâĺ¯âŀ¤":7713,"MovieQuiz":7714,"ĠSENSITIVE":7715,"Ġadvtpsangbad":7716,"Ġalready":7717,"Ġmuzulfiquer":7718,"ĠMagnifiers":7719,"ĠINFORMATION":7720,"Ġdescription":7721,"Ġdeshjogajog":7722,"Ġdemostrar":7723,"Ġtittyfucking":7724,"Ġpackagesoffered":7725,",Change":7726,",passwors":7727,".djvu":7728,"/GXcTNMu":7729,"/WeRonlineARMY":7730,"/cutpricebd":7731,":SRoy":7732,":newsdesklastnewsbd":7733,"@crimereporter":7734,"Approval":7735,"Empowerment":7736,"Ichchhamoti":7737,"Ġsheershamedia":7738,"Ġpunishable":7739,"ĠMOTOROLLA":7740,"ĠPHOTOCATALYTIC":7741}