{"<|endoftext|>":0,"<|im_start|>":1,"<|im_end|>":2,"!":3,"\"":4,"#":5,"$":6,"%":7,"&":8,"'":9,"(":10,")":11,"*":12,"+":13,",":14,"-":15,".":16,"/":17,"0":18,"1":19,"2":20,"3":21,"4":22,"5":23,"6":24,"7":25,"8":26,"9":27,":":28,";":29,"<":30,"=":31,">":32,"?":33,"@":34,"A":35,"B":36,"C":37,"D":38,"E":39,"F":40,"G":41,"H":42,"I":43,"J":44,"K":45,"L":46,"M":47,"N":48,"O":49,"P":50,"Q":51,"R":52,"S":53,"T":54,"U":55,"V":56,"W":57,"X":58,"Y":59,"Z":60,"[":61,"\\":62,"]":63,"^":64,"_":65,"`":66,"a":67,"b":68,"c":69,"d":70,"e":71,"f":72,"g":73,"h":74,"i":75,"j":76,"k":77,"l":78,"m":79,"n":80,"o":81,"p":82,"q":83,"r":84,"s":85,"t":86,"u":87,"v":88,"w":89,"x":90,"y":91,"z":92,"{":93,"|":94,"}":95,"~":96,"¡":97,"¢":98,"£":99,"¤":100,"¥":101,"¦":102,"§":103,"¨":104,"©":105,"ª":106,"«":107,"¬":108,"®":109,"¯":110,"°":111,"±":112,"²":113,"³":114,"´":115,"µ":116,"¶":117,"·":118,"¸":119,"¹":120,"º":121,"»":122,"¼":123,"½":124,"¾":125,"¿":126,"Â":127,"Ã":128,"Ä":129,"Å":130,"Æ":131,"Ç":132,"È":133,"É":134,"Ê":135,"Ë":136,"Ì":137,"Í":138,"Î":139,"Ï":140,"Ð":141,"Ñ":142,"Ò":143,"Ó":144,"Ô":145,"Õ":146,"Ö":147,"×":148,"Ø":149,"Ù":150,"Ú":151,"Û":152,"Ü":153,"Ý":154,"Þ":155,"ß":156,"à":157,"á":158,"â":159,"ã":160,"ä":161,"å":162,"æ":163,"ç":164,"è":165,"é":166,"ê":167,"ë":168,"ì":169,"í":170,"î":171,"ï":172,"ð":173,"ñ":174,"ò":175,"ó":176,"ô":177,"Ā":178,"ā":179,"Ă":180,"ă":181,"Ą":182,"ą":183,"Ć":184,"ć":185,"Ĉ":186,"ĉ":187,"ċ":188,"Č":189,"Ď":190,"ď":191,"Đ":192,"đ":193,"Ē":194,"ē":195,"Ĕ":196,"ĕ":197,"Ė":198,"ė":199,"Ę":200,"ę":201,"Ě":202,"ě":203,"Ĝ":204,"ĝ":205,"Ğ":206,"ğ":207,"Ġ":208,"ġ":209,"Ģ":210,"ģ":211,"Ĥ":212,"ĥ":213,"Ħ":214,"ħ":215,"Ĩ":216,"ĩ":217,"Ī":218,"ī":219,"Ĭ":220,"ĭ":221,"Į":222,"į":223,"İ":224,"ı":225,"Ĳ":226,"ĳ":227,"Ĵ":228,"ĵ":229,"Ķ":230,"ķ":231,"ĸ":232,"Ĺ":233,"ĺ":234,"Ļ":235,"ļ":236,"Ľ":237,"ľ":238,"Ŀ":239,"ŀ":240,"Ł":241,"ł":242,"Ń":243,"¾à":244,"¦¾à":245,"à¦¾à":246,"à¦¾à¦":247,"§ĩ":248,"à§ĩ":249,"¦°":250,"à¦°":251,"§į":252,"à§į":253,"¦¿":254,"à¦¿":255,"à§įà":256,"à§įà¦":257,"¦¨":258,"à¦¨":259,"¦ķ":260,"à¦ķ":261,"à¦¿à":262,"¦¬":263,"à§":264,"à¦¬":265,"à¦¿à¦":266,"¦¸":267,"à¦¸":268,"¦¼":269,"à¦¼":270,"¦®":271,"à¦®":272,"¯à¦¼":273,"à§ĩà":274,"à§ĩà¦":275,"¦ª":276,"à¦ª":277,"¦¤":278,"à¦¤":279,"à¦¾à¦°":280,"à§ģ":281,"¦²":282,"à¦²":283,"Ġà¦ķ":284,"Ġà¦¸":285,"Ġà¦¬":286,"¦¦":287,"à¦¦":288,"à§ĩà¦°":289,"à§ĭ":290,"Ġà¦ª":291,"à§įà¦°":292,"¦¹":293,"à¦¹":294,"à§įà¦¯":295,"¦Ĩ":296,"à¦Ĩ":297,"¦¯à¦¼":298,"à¦¯à¦¼":299,"à§Ģ":300,"à¦¾à¦¨":301,"¦ı":302,"à¦ı":303,"à¥":304,"à¥¤":305,"Ġà¦Ĩ":306,"¦ľ":307,"à¦ľ":308,"Ġà¦®":309,"Ġà¦ı":310,"¦Ĺ":311,"à¦Ĺ":312,"Ġà¦¨":313,"Ġà¦¹":314,"¦Ł":315,"à¦Ł":316,"à§įà¦¤":317,"Ġà¦¦":318,"¦¶":319,"à¦¶":320,"Ġà¦ķà¦°":321,"¦ħ":322,"à¦ħ":323,"Ġà¦¤":324,"à§ĩà¦¨":325,"¦ļ":326,"à¦ļ":327,"¦ĩ":328,"à¦ĩ":329,"Ġà¦ħ":330,"Ġà¦ľ":331,"¦Ń":332,"à¦Ń":333,"à¦¿à¦ķ":334,"à¦¾à¦²":335,"à¦¿à¦¯à¦¼":336,"à¦¾à¦¯à¦¼":337,"¦¯":338,"à¦¯":339,"à¦¿à¦¨":340,"¦ĵ":341,"à¦ĵ":342,"à¦¾à¦®":343,"à¦°à§įà¦":344,"Ġà¦ªà§įà¦°":345,"Ġà¦°":346,"¦¡":347,"à¦¡":348,"Ġà§":349,"Ġà¦¶":350,"à¦¿à¦¤":351,"¦¥":352,"à¦¥":353,"à¦¾à¦ķ":354,"¦Ľ":355,"à¦Ľ":356,"Ġà¦¯":357,"¦ĸ":358,"à¦ĸ":359,"à§ĩà¦Ľ":360,"¦§":361,"à¦§":362,"Ġà¦Ĺ":363,"à¦¾à¦¦":364,"à§įà¦Ł":365,"¦ī":366,"à¦ī":367,"Ġà¦ļ":368,"à§įà¦¬":369,"¦«":370,"à¦«":371,"à¦¾à¦¤":372,"à¦¿à¦°":373,"à¦¾à¦¬":374,"Ġà¦¬à¦¿à¦":375,"à¦¾à¦¸":376,"¦Ĥ":377,"à¦Ĥ":378,"¦£":379,"à¦£":380,"à¦¾à¦ĩ":381,"Ġà¦ĵ":382,"à¦ķà§ĩ":383,"Ġà¦ī":384,"à¦¿à¦²":385,"à§ģà¦²":386,"Ġà¦Ń":387,"à§ĩà¦²":388,"à§ĩà¦¶":389,"à§ģà¦°":390,"à§įà¦·":391,"à¦¾à¦ľ":392,"Ġà¦¹à¦¯à¦¼":393,"âĢ":394,"à¦¤à§ĩ":395,"Ġà¦ªà¦°":396,"à¦¨à§įà¦":397,"Ġà¦¥":398,"Ġà¦ıà¦ķ":399,"à§¦":400,"à¦¡à¦¼":401,"Ġà¦²":402,"Ġà¦¸à¦®":403,"à§ĩà¦Ľà§ĩ":404,"à¦¾à¦¹":405,"à¦¿à¦¯à¦¼à§ĩ":406,"à¦Łà¦¿":407,"Ġà¦«":408,"Ġà¦ĩ":409,"à§Ĥ":410,"à§ĥ":411,"§à§":412,"à¦¬à§ĩ":413,"à§ĩà¦ĩ":414,"à¦¿à¦¬":415,"à¦¾à¦ª":416,"à§įà¦ª":417,"Ġà¦ĸ":418,"¦·":419,"à¦·":420,"Ġà¦Ľ":421,"à§įà¦¥":422,"Ġà¦¬à¦²":423,"Ļà§įà¦":424,"Ġà¦ħà¦¨":425,"à¦¿à¦¸":426,"Ġà¦Ĩà¦®":427,"à§ĩà¦ķ":428,"Ġà¦ķà¦°à§ĩ":429,"Ġà¦Ł":430,"à§ĩà¦ĸ":431,"¡à¦¼":432,"à¦¨à§įà¦¤":433,"Ġà¦¬à¦¾à¦":434,"à§ģà¦¨":435,"Ġà¦ľà¦¨":436,"à¦¿à¦¶":437,"à§ĭà¦¨":438,"Ļà§įà¦Ĺ":439,"¦ĺ":440,"à¦ĺ":441,"à¦ķà§įà¦·":442,"à§ĩà¦¯à¦¼":443,"Ġà¦¬à§įà¦¯":444,"à§įà¦²":445,"à§Ģà¦°":446,"ĠĠ":447,"à§ĩà¦ķà§ĩ":448,"Ġà¦¨à":449,"Ġà¦¨à¦":450,"Ġà¦¨à¦¾":451,"Ġà§¨":452,"à¦ķà§įà¦¤":453,"à¦¾à¦Ĺ":454,"à§įà¦®":455,"à§ĭà¦Ĺ":456,"à§ĩà¦Ł":457,"à¦¦à§ĩà¦°":458,"Ġà¦¡":459,"Ġà¦¥à§ĩà¦ķà§ĩ":460,"à¦¾à¦¶":461,"Ġà¦¸à¦Ĥ":462,"à¦²à§ĩ":463,"Ġà¦¤à¦¾à¦°":464,"Ġà¦ıà¦¬":465,"à§ĩà¦¤":466,"à¦¾à¦¦à§ĩà¦°":467,"à¦ķà¦¾à¦°":468,"Ġà¦ªà§įà¦°à¦¤":469,"à¦¦à§įà¦":470,"Ġà¦§":471,"Ġà¦ĺ":472,"à¦¨à§ĩ":473,"à¦¿à¦ľ":474,"à¦¾à¦ļ":475,"à¦¿à¦®":476,"Ġà¦ıà¦ĩ":477,"à¦¿à¦Ł":478,"Ġà¦Ĩà¦°":479,"¦Ļà§įà¦Ĺ":480,"à¦Ļà§įà¦Ĺ":481,"à§Ģà¦¯à¦¼":482,"à¦¨à§ĩà¦°":483,"à§§à§":484,"à¦¾à¦§":485,"à¦¾à¦ģ":486,"Ġà¦ıà¦¬à¦Ĥ":487,"à¦¾à¦Ł":488,"Ġ(":489,"à¦¿à¦¤à§ĩ":490,"à¦¿à¦¦":491,"à§įà¦¨":492,"Ġà¦ľà¦¾à¦¨":493,"Ġà¦ªà¦¾à¦°":494,"à¦¬à¦¾à¦°":495,"à§ĩà¦ĵ":496,"Ġà¦īà¦ª":497,"à§įà¦ķ":498,"Ġà¦ķà¦°à":499,"Ġà¦ķà¦°à¦":500,"Ġà¦ķà¦°à¦¾":501,"¦ł":502,"à¦ł":503,"à¦°à§įà¦¬":504,"à§įà¦Ľ":505,"à§ĩà¦®":506,"à¦¾à¦ĵ":507,"à§ĩà¦Ľà§ĩà¦¨":508,"à¦¾à¦¡à¦¼":509,"à¦°à":510,"à¦°à¦":511,"à§ĩà¦·":512,"à¦¨à":513,"à¦¨à¦":514,"à§įà¦ļ":515,"à¦¨à¦¾":516,"à§ĭà¦°":517,"ĠâĢ":518,"à¦°à¦¾":519,"à§įà¦¡":520,"Ġà¦¦à§ģ":521,"à¦¯à¦¼à¦¾à¦°":522,"à¦¤à¦¿":523,"Ġà¦®à§ģ":524,"à¦¸à§įà¦¥":525,"à§¨":526,"Ġà§§à§":527,"âĢĻ":528,"Ġà¦ľà¦¨à§įà¦¯":529,"à§Į":530,"à§ģà¦·":531,"à§Ī":532,"à§ĩà¦¸":533,"à¦Ľà§ĩ":534,"à§įà¦¸":535,"à¦¾à¦¬à§ĩ":536,"à¦ªà§įà¦°":537,"Ĥà¦²":538,"Ġà¦¤à¦¿à¦¨":539,"à¦¦à§įà¦§":540,"à¦¾à¦ķà§ĩ":541,"à¦Łà":542,"à¦Łà¦":543,"à¦Łà¦¾":544,"Ġà¦ķà¦¾à¦°":545,"à¦¯à¦¼à":546,"à¦¯à¦¼à¦":547,"à¦¨à§įà¦¦":548,"à¦¿à¦·":549,"à§įà¦¯à¦¾à¦¨":550,"à¦¯à¦¼à¦¾":551,"à¦°à§ĩ":552,"Ġà¦¨à¦¿":553,"à¦¨à§įà¦¤à§įà¦°":554,"Ġà¦Ĩà¦²":555,"Ġà¦¹à¦¬à§ĩ":556,"Ġà¦¹à¦¯à¦¼à§ĩà¦Ľà§ĩ":557,"à§įà¦¦":558,"à¦ĸà¦¨":559,"à¦®à¦¾à¦¨":560,"à¦§à§įà¦¯":561,"Ġà§¨à§¦":562,"à¦°à§įà¦¤":563,"à¦¿à¦Ĥ":564,"Ġà¦¬à¦¿à¦¶":565,"à§ĥà¦¤":566,"Ġà¦¦à§ĩà¦ĸ":567,"Ġà¦Ĩà¦¸":568,"à§ĩà¦¦":569,"à§įà¦ľ":570,"à¦ľà¦¨":571,"Ġà¦®à§ĭ":572,"à¦¾à¦ķà":573,"à¦¾à¦ķà¦":574,"à¦¾à¦ķà¦¾":575,"Ġà¦®à¦¾à¦¨":576,"à¦¾à¦ĸ":577,"à¦ªà¦°":578,"Ġà¦¸à§įà¦¬":579,"Ġà¦¬à¦¾à¦Ĥà¦²":580,"à§įà¦ł":581,"Ġà¦Ĩà¦Ĺ":582,"Ġà¦ıà¦°":583,"à§ģà¦®":584,"Ġà¦ħà¦¬":585,"Ġà¦ķà§ĭà¦¨":586,"à¦¾à¦¦à§ĩà¦¶":587,"Ġà¦ķà¦°à¦¤à§ĩ":588,"..":589,"à¦¨à¦¿":590,"Ġà¦¨à¦¿à¦¯à¦¼à§ĩ":591,"à¦¿à¦ª":592,"Ġà¦Ĩà¦ª":593,"Ġà¦ıà¦ķà¦Łà¦¿":594,"à¦¤à":595,"à¦¤à¦":596,"à¦¾à¦¤à§ĩ":597,"à¦¾à¦¨à§ĩ":598,"Ġà¦¸à§ģ":599,"Ġà¦Ĺà§įà¦°":600,"à§ĩà¦¬":601,"Ġà¦ħà¦Ń":602,"Ġà¦¤à¦¿à¦¨à¦¿":603,"à¦¾à¦¥":604,"à¦¨à§įà¦§":605,"à¦¿à¦¯à¦¼à":606,"à¦¿à¦¯à¦¼à¦":607,"Ġà¦¸à¦®à§įà¦ª":608,"à¦¿à¦¯à¦¼à¦¾":609,"à¦¾à¦Ĥ":610,"Ġà¦¸à¦®à¦¯à¦¼":611,"à§ĩà¦ľ":612,"à¦¤à¦¾":613,"à¦¿à¦ķà§įà¦·":614,"à¦¨à¦¾à¦°":615,"à¦¸à§įà¦¤":616,"à¦¿à¦ī":617,"à¦¾à¦¤à§įà¦°":618,"Ġà¦ķà¦®":619,"à¦¿à¦Ľ":620,"¦ŀ":621,"à¦ŀ":622,"Ġà¦®à¦§à§įà¦¯":623,"ĠâĢĺ":624,"à§ĭà¦²":625,"à¦¾à¦¨à§įà¦¤":626,"à¦¿à¦ļ":627,"à¦¾à¦Ľ":628,"à§ģà¦ķ":629,"Ġà¦¸à¦¬":630,"Ġà¦¸à¦°":631,"Ġà¦¯à§ĩ":632,"in":633,"à§ĭà¦®":634,"à§įà¦Ľà§ĩ":635,"Ġà¦¬à§įà¦¯à¦¬":636,"à¦¾à¦ľà¦¾à¦°":637,"Ġà¦Ľà¦¿à¦²":638,"à¦ªà§ģà¦°":639,"Ġà¦¬à¦¿à¦Ń":640,"à¦¤à§įà¦¤":641,"Ġà¦¦à§ĩà¦¶":642,"Ġà¦¬à¦¾à¦Ĥà¦²à¦¾à¦¦à§ĩà¦¶":643,"à§įà¦¯à¦¾à¦²":644,"à§«":645,"Ġà¦¬à¦²à§ĩà¦¨":646,"an":647,"à§ĩà¦Ľà¦¿à¦²":648,"à¦¿à¦ķà§ĩ":649,"Ġà¦¥à¦¾à¦ķ":650,"Ġà¦ķà¦°à§ĩà¦¨":651,"à§ģà¦ķà§įà¦¤":652,"à§ĩà¦²à":653,"à§ĩà¦²à¦":654,"à§©":655,"à§ĩà¦²à¦¾":656,"Ġà§¨à§¦à§§à§":657,"à¦Ļà§įà¦Ĺà§ĩ":658,"à¦§à¦¾à¦¨":659,"Ġà¦¹à¦¯à¦¼à§ĩ":660,"Ġà¦ªà¦¡à¦¼":661,"à§ģà¦¬":662,"¦¢":663,"à¦¢":664,"à¦¿à¦¨à§įà¦¤":665,"à¦Ĺà§įà¦°":666,"à§ª":667,"¦ģ":668,"à¦ģ":669,"à§ģà¦°à§ģ":670,"Ġà¦ķà¦¥":671,"à¦¤à§įà¦¯":672,"à¦¾à¦£":673,"à§ĭà¦ķ":674,"à¦°à§ĩà¦°":675,"à§ĭà¦Ł":676,"à¦¾à¦²à§ĩ":677,"Ġà¦°à¦¾à¦ľ":678,"Ġà¦Ĩà¦¬":679,"à¦¾à¦°à":680,"à¦¾à¦°à¦":681,"er":682,"à¦¾à¦°à¦¾":683,"à¦¾à¦®à§Ģ":684,"à¦°à§įà¦®":685,"à¦¿à¦¯":686,"Ġà¦ķà¦¾à¦ľ":687,"à¦°à§įà¦¥":688,"Ġà¦¨à¦¾à¦®":689,"à¦¾à¦°à§ĩà¦°":690,"Ġà¦¬à¦¿à¦¶à§įà¦¬":691,"Ġà¦ıà¦¸":692,"à¦¸à¦²":693,"à¦¿à¦Ľà§ģ":694,"à¦¾à¦·":695,"Ġà¦ªà§įà¦°à¦ķ":696,"à§§":697,"à§ĩà¦¨à§įà¦Ł":698,"à¦¯à¦¼à§ĩ":699,"à§Ģà¦¨":700,"à§Ģà¦¬":701,"Ġà¦®à¦§à§įà¦¯à§ĩ":702,"à¦¿à¦¡":703,"Ġà¦¸à¦Ļà§įà¦Ĺà§ĩ":704,"Ġà¦¬à¦Ľ":705,"Ġà¦¹à¦²":706,"Ġà¦¯à¦¾à¦¯à¦¼":707,"à§įà¦ŀ":708,"Ġà¦ĺà¦Ł":709,"à¦¸à§įà¦¯":710,"Ġà¦¦à¦¿à¦¨":711,"Ġà¦ıà¦®":712,"à§įà¦¬à¦°":713,"Ġà¦¸à¦¹":714,"Ġà¦¤à¦¾à¦¦à§ĩà¦°":715,"à¦¾à¦¨à§ĩà¦°":716,"à§°":717,"Ġà¦ķà¦°à§įà¦®":718,"Ġà¦¶à¦¿à¦ķà§įà¦·":719,"Ġà¦ķà§ĭ":720,"Ġà¦¬à¦²à§ĩ":721,"à§įà¦Łà§įà¦°":722,"à¦¬à¦¾à¦¦":723,"on":724,"à¦¾à¦ī":725,"à¦¿à¦¨à§įà¦¤à§ģ":726,"Ġà¦¬à¦¿à¦·":727,"¦Ŀ":728,"à¦Ŀ":729,"Ġà¦ķà¦¿à¦Ľà§ģ":730,"Ġà¦¸à¦°à¦ķà¦¾à¦°":731,"à¦°à¦£":732,"à¦¯à¦¼à§ĩà¦°":733,"Ġà¦ķà§įà¦·":734,"Ġà¦¦à¦¿à¦¯à¦¼à§ĩ":735,"à§ĩà¦ª":736,"à¦¤à§įà¦°":737,"à¦¾à¦«":738,"à¦¿à¦¹":739,"à¦Ĺà§ģà¦²":740,"Ġà¦¨à¦¿à¦°à§įà¦¬":741,"à¦·à§įà¦Ł":742,"Ġ:":743,"à¦¤à§ĭ":744,"at":745,"ar":746,"Ġà¦Ĩà¦ĩ":747,"à¦¤à¦¾à¦°":748,"à¦¿à¦ĵ":749,"à§ģà¦¦à§įà¦§":750,"à§Ĥà¦²":751,"à¦¿à¦Ń":752,"Ġà¦ķà¦¥à":753,"Ġà¦ķà¦¥à¦":754,"Ġà¦ķà¦¥à¦¾":755,"à¦²à":756,"à¦²à¦":757,"Ġà¦¬à§ĩà¦¶":758,"Ġà¦¢":759,"Ġà§§":760,"Ġà¦®à¦¹":761,"Ġà¦®à¦¾à¦¨à§ģà¦·":762,"Ġ2":763,"à¦¬à¦°":764,"à§ĩà¦¡":765,"à¦ķà§įà¦°":766,"à§İ":767,"à§ĭà¦§":768,"à¦¿à¦ı":769,"Ġà¦¬à":770,"Ġà¦¬à¦":771,"à¦¾à¦°à¦£":772,"à§ĭà¦¸":773,"Ġà¦¬à¦¾":774,"à¦°à§įà¦£":775,"à¦¾à¦°à§ĩ":776,"à§Ģà¦¦à§ĩà¦°":777,"Ġà¦¨à¦¿à¦ľ":778,"Ġà§©":779,"Ġà¦ħà¦¨à§ĩà¦ķ":780,"à§įà¦¯à¦®":781,"Ġà¦¬à¦¾à¦¡à¦¼":782,"à§®":783,"Ġà¦ļà¦²":784,"Ġà¦¦à¦²":785,"à¦¬à§įà¦¯":786,"Ġà¦ķà¦°à¦¾à¦°":787,"à¦¿à¦Ĺ":788,"à¦ŀà§įà¦ľ":789,"à§Ń":790,"à¦ĵà¦¯à¦¼":791,"Ġà¦¹à¦¾à¦¸":792,"Ġt":793,"à¦¾à¦¨à":794,"à¦¾à¦¨à¦":795,"Ġà¦¹à¦ļ":796,"Ġà¦¸à¦¾à¦®":797,"à¦¾à¦¨à¦¾":798,"Ġà¦ķà¦¿à¦¨à§įà¦¤à§ģ":799,"à¦ķà§ĩà¦°":800,"à¦²à¦¾":801,"Ġà¦¤à¦¾à¦ģ":802,"à¦¨à§įà¦¤à§įà¦°à§Ģ":803,"à§Ģà¦Ĺ":804,"Ġà¦ªà§įà¦°à¦§à¦¾à¦¨":805,"à§¬":806,"à¦¨à§įà¦¨":807,"à§ģà¦²à¦¿à¦¶":808,"Ġà¦¨à¦¿à¦¯à¦¼":809,"Ġà¦Ĩà¦®à¦¿":810,"à¦²à§įà¦ª":811,"Ġà¦Ĩà¦®à¦¾à¦°":812,"à¦Ńà¦¾à¦¬à§ĩ":813,"Ġà¦ªà¦°à¦¿à¦¬":814,"Ġà¦ĩà¦ī":815,"à§Ģà¦¤":816,"à¦¾à¦ł":817,"Ġà¦Ĩà¦¹":818,"Ġà¦°à¦¾à¦ĸ":819,"à§¯":820,"Ġà¦Ńà¦¾à¦°":821,"Ġà¦¸à§įà¦¥":822,"es":823,"Ġà¦¶à§ģà¦°à§ģ":824,"à¦¿à¦¨à§įà¦¨":825,"or":826,"à¦¿à¦ĸ":827,"à§ĩà¦²à§ĩ":828,"à§ĩà¦¯à¦¼à§ĩ":829,"Ġà¦ıà¦²":830,"à¦¾à¦°à§įà¦¥":831,"Ġà¦ıà¦ĸà¦¨":832,"Ġ-":833,"à¦¾à¦²à§ĭ":834,"§İ":835,"en":836,"Ġà¦ķà§ĩà¦¨":837,"à¦¥à¦®":838,"Ġà¦¨à§ĩà¦¤":839,"Ġà¦ªà¦°à§įà¦¯":840,"Ġ|":841,"Ġà¦¹à¦¿à¦¸":842,"Ġà¦¬à¦¿à¦°":843,"Ġà¦¨à¦¿à¦°à§įà¦¬à¦¾à¦ļ":844,"Ġà¦ªà§ģà¦²à¦¿à¦¶":845,"Ġà¦¸à¦¦":846,"Ġà¦Ĩà¦®à¦¾à¦¦à§ĩà¦°":847,"Ġà¦¹à¦ļà§įà¦Ľà§ĩ":848,"à¦¸à¦®":849,"Ġà¦°à¦¯à¦¼":850,"Ġà¦®à¦¾à¦°":851,"Ġà¦Ĩà¦ľ":852,"Ġà¦¸à¦Ń":853,"à§ĩà¦¯à¦¼à¦¾à¦°":854,"Ġà¦¤à":855,"Ġà¦¤à¦":856,"Ġà¦¤à¦¾":857,"Ġà¦ľà¦¾à¦¤":858,"Ġà¦ªà§įà¦°à¦¶":859,"à¦¾à¦¥à§ĩ":860,"à¦°à§įà¦·":861,"om":862,"Ġà¦ķà¦¾à¦°à¦£":863,"Ġà¦ķà¦¾à¦Ľ":864,"à¦¬à§ĩà¦¨":865,"à¦¿à¦¯à¦¼à¦¾à¦°":866,"à¦°à§įà¦ķ":867,"Ùİ":868,"à§ģà¦Ł":869,"Ġà¦¸à§ĩà¦ĩ":870,"à¦¯à§ĭà¦Ĺ":871,"à§ģà¦§":872,"Ġà¦ħà¦Ńà¦¿à¦¯":873,"à§ĩà¦¬à§ĩ":874,"Ġà¦īà¦ªà¦ľ":875,"à¦¾à¦Ń":876,"¦ĥ":877,"à¦ĥ":878,"à¦¾à¦¡à¦¼à":879,"à¦¾à¦¡à¦¼à¦":880,"à¦¾à¦¡à¦¼à¦¾":881,"Ġà¦Ĩà¦Ľà§ĩ":882,"à¦ķà¦¾à¦²":883,"à§ĭà¦°à§įà¦":884,"Ġà¦Ĩà¦®à¦°à¦¾":885,"Ġà¦ķà¦¿":886,"Ġà¦ªà¦¾à¦°à§ĩ":887,"à§ģà¦·à§įà¦ł":888,"à¦Ľà§ĩà¦¨":889,"Ġà¦¤à¦¾à¦°à":890,"Ġà¦¤à¦¾à¦°à¦":891,"Ġà¦¤à¦¾à¦°à¦¾":892,"Ġà¦ķà¦²":893,"Ġà¦¸à¦¾à¦¥à§ĩ":894,"Ġà¦Ĩà¦¦":895,"Ġà¦¶à§ĩà¦·":896,"à§ĩà¦®à§įà¦¬à¦°":897,"Ġà¦ķà¦°à§ĩà¦Ľà§ĩ":898,"Ġà¦ķà§ĭà¦¨à§ĭ":899,"à¦¾à¦¨à§ĭ":900,"Ġà¦ĩà¦¸à¦²":901,"à¦¨à§įà¦¡":902,"Ġà¦ķà§įà¦°":903,"Ġà¦ªà§įà¦°à¦¥à¦®":904,"Ġà¦¨à¦¯à¦¼":905,"à¦¹à¦¾à¦°":906,"à¦¦à¦¿à¦¨":907,"al":908,"Ġà¦¸à§ĩ":909,"à¦¾à¦§à§įà¦¯à¦®":910,"Ġà¦¬à¦Ľà¦°":911,"à§įà¦§":912,"Ġà¦¬à§ĩà¦":913,"à§ģà¦¦":914,"Ġà¦¬à¦¾à¦¸":915,"Ġà¦Łà§įà¦°":916,"à¦°à¦¿":917,"Ġ1":918,"Ġà¦¤à¦¬à§ĩ":919,"à§ĭà¦ª":920,"à¦¾à¦ĵà¦¯à¦¼à¦¾":921,"Ġà¦Łà¦¾à¦ķà¦¾":922,"à¦¿à¦§":923,"à¦¤à§ģà¦¨":924,"à¦¾à¦ĩà¦²":925,"à¦¾à¦¦à¦ķ":926,"à§ĭà¦·":927,"Ġà¦¬à¦¿à¦ľ":928,"Ġà¦¨à§ĩà¦ĩ":929,"à¦¾à¦¨à¦¿":930,"Ġà¦Ĺà¦¤":931,"01":932,"à¦¿à¦¬à¦¾à¦°":933,"Ġà¦¶à§įà¦°":934,"Ġà¦¦à§ģà¦ĩ":935,"Ġà¦¬à¦¿à¦Ńà¦¾à¦Ĺ":936,"Ġà¦°à¦¯à¦¼à§ĩà¦Ľà§ĩ":937,"Ġà¦¦à§ĩà¦¯à¦¼":938,"Ġà§«":939,"Ġà¦°à¦¹":940,"...":941,"Ġà¦¬à¦¿à¦¦":942,"à§¨à§¦":943,"à¦¯à¦¼à§ĭ":944,"à¦°à§įà¦ľ":945,"§°":946,"Ġà¦¹à¦¾à¦ľà¦¾à¦°":947,"Ġà¦¦à¦¿à¦¯à¦¼":948,"Ġà¦Ĩà¦Ĺà§ĩ":949,"Ġà¦ķà¦°à§ĩà¦Ľà§ĩà¦¨":950,"à¦¾à¦°à§Ģ":951,"à¦¦à¦¿":952,"Ġà¦ªà§įà¦°à¦ķà¦¾à¦¶":953,"à¦¾à¦²à§ĩà¦°":954,"Ġà¦ıà¦®à¦¨":955,"Ġà¦ħà¦¨à§ģ":956,"à¦¿à¦Łà¦¿":957,"Ġà¦ĩà¦¸à¦²à¦¾à¦®":958,"à¦¸à§įà¦ķ":959,"à¦¦à§įà¦¦":960,"à¦¾à¦·à§įà¦Łà§įà¦°":961,"à¦°à§įà¦¶":962,"à¦¾à¦ĩà¦¨":963,"Ġà¦¬à¦¿à¦Ńà¦¿à¦¨à§įà¦¨":964,"à¦¨à¦¾à¦¯à¦¼":965,"Ġà¦¬à¦¿à¦ķ":966,"Ġà¦īà¦¦":967,"Ġà¦ªà¦°à¦¿à¦ļ":968,"Ġà¦¹à¦¤à§ĩ":969,"Ġà¦¬à¦¡à¦¼":970,"Ġà§ª":971,"à§ģà¦¤":972,"Ġà¦¦à§ĩà¦ĵ":973,"Ġà¦ħà¦°à§įà¦¥":974,"à§ĭà¦ļ":975,"Ġà¦ļà¦¾à¦²":976,"à§įà¦Ń":977,"Ġà¦ħà¦¨à§įà¦¯":978,"à§ĩà¦¹":979,"Ġà¦ĵà¦¯à¦¼":980,"Ġà¦¬à§ĥ":981,"à§ĩà¦²à¦¾à¦°":982,"Ġà¦ªà§ģà¦°":983,"à¦¿à¦·à§įà¦ł":984,"à¦¨à§įà¦¯":985,"à¦¸à¦¹":986,"Ġà¦¨à¦¤à§ģà¦¨":987,"à¦¿à¦ķà¦¾à¦°":988,"Ġà¦®à¦¾à¦¸":989,"he":990,"Ġà¦¬à¦¾à¦°":991,"Ġs":992,"à¦¬à¦¿":993,"Ġà¦ªà§Ĥ":994,"Ġà¦Ĩà¦¶":995,"à¦¿à¦¤à§įà¦°":996,"à¦ķà¦²":997,"à¦®à¦¿à¦ķ":998,"it":999,"à§įà¦²à¦¾à¦¹":1000,"à§įà¦Łà¦¾à¦°":1001,"à¦Ĩà¦®":1002,"à§įà¦¦à§įà¦°":1003,"Ġà¦ħà¦¨à§ģà¦·à§įà¦ł":1004,"Ġà¦ħà¦§":1005,"Ġà¦¬à¦¿à¦·à¦¯à¦¼":1006,"is":1007,"à¦¾à¦ķà¦¾à¦°":1008,"Ġà¦ł":1009,"à¦ªà¦¿":1010,"Ġà¦Ńà¦¾à¦°à¦¤":1011,"à¦°à§įà¦¦":1012,"Ġà¦ķà¦¾à¦Ľà§ĩ":1013,"Ġà¦Ĩà¦ªà¦¨à¦¾à¦°":1014,"à¦ªà§įà¦¤":1015,"Ġà¦®à§ģà¦ĸ":1016,"Ġà¦®à¦¨à§ĩ":1017,"Ġà¦Ĩà¦¨":1018,"à¦¾à¦¯":1019,"Ġà¦ħà¦¬à¦¸à§įà¦¥":1020,"à¦Ĺà§ģà¦²à§ĭ":1021,"Ġà¦®à¦¾à¦®":1022,"Ġà¦®à¦¾à¦§à§įà¦¯à¦®":1023,"Ġà¦ľà¦¾à¦¨à¦¾à¦¨":1024,"Ļà§įà¦ķ":1025,"Ġà¦¹à¦¿à¦¸à§ĩà¦¬à§ĩ":1026,"Ġà¦¤à¦¥":1027,"le":1028,"Ġà¦ĩà¦¨":1029,"à¦¤à¦¿à¦ķ":1030,"Ġà¦®à¦¨":1031,"à¦¾à¦ĩà¦Ł":1032,"Ġà¦ľà§Ģà¦¬":1033,"à§įà¦Łà":1034,"à§įà¦Łà¦":1035,"à§įà¦Łà¦¾":1036,"ou":1037,"Ġà¦¬à¦¨à§įà¦§":1038,"Ġà¦¤à§ģà¦²":1039,"Ġà¦¦à§įà¦¬":1040,"Ġà¥¤":1041,"à§ĩà¦¤à§ĩ":1042,"à¦¸à§įà¦Ł":1043,"Ġà¦ħà§įà¦¯":1044,"à¦Ĥà¦¶":1045,"Ġb":1046,"à¦¿à¦«":1047,"Ġà¦ıà¦ķà¦Łà¦¾":1048,"à¦ŀà§įà¦ļ":1049,"à¦¬à¦¿à¦¦":1050,"Ġà¦¨à¦¿à¦°":1051,"Ġà§§à§¦":1052,"à¦®à¦¨à§įà¦¤à§įà¦°à§Ģ":1053,"à§Ģà¦°à":1054,"à§Ģà¦°à¦":1055,"à§Ģà¦°à¦¾":1056,"Ġà¦īà¦¤à§įà¦¤":1057,"Ġà¦¸à¦¾à¦§":1058,"à¦¾à¦®à§ĩà¦°":1059,"Ġà¦ĵà¦ĩ":1060,"à¦¸à§įà¦¬":1061,"à§ģà¦¯à¦¼à¦¾à¦°":1062,"Ġà¦®à§įà¦¯":1063,"Ġà¦§à¦°":1064,"Ġà¦¹à¦¾à¦°":1065,"Ġà¦®à§ĥà¦¤":1066,"à§ĭà¦¯à¦¼":1067,"à§įà¦¯à¦¾à¦¨à§įà¦¡":1068,"Ġà¦¸à¦¾à¦°":1069,"Ġà¦°à¦¹à¦®à¦¾à¦¨":1070,"à§ģà¦¦à§įà¦§à§ĩ":1071,"à§ĭà¦¹":1072,"Ġà¦¬à§ĩà¦¶à¦¿":1073,"Ġà¦īà¦ł":1074,"Ġà¦ľà¦¾à¦¤à§Ģà¦¯à¦¼":1075,"à¦¿à¦¸à§įà¦¤":1076,"Ġà¦¸à¦¦à¦¸à§įà¦¯":1077,"Ġà¦¬à¦¸":1078,"Ġà¦ªà¦°à§įà¦¯à¦¨à§įà¦¤":1079,"Ġà¦Ńà¦¾à¦²à§ĭ":1080,"Ġà¦¦à§ĩà¦ĸà":1081,"Ġà¦¦à§ĩà¦ĸà¦":1082,"Ġà¦¦à§ĩà¦ĸà¦¾":1083,"ĠS":1084,"ĠB":1085,"à§ĩà¦¤à§įà¦°":1086,"à¦¬à¦¾à¦¸":1087,"re":1088,"ĠĠĠ":1089,"Ġà¦¹à¦ĵ":1090,"Ġà¦¤à¦¾à¦ĩ":1091,"Ġà¦¬à§įà¦°":1092,"Ġà¦Ŀ":1093,"Ġà¦¯à":1094,"Ġà¦¯à¦":1095,"à¦¤à§įà¦¬":1096,"à§ĩà¦¶à¦¨":1097,"à¦¾à¦¯à¦¼à§Ģ":1098,"Ġà¦Ĺà§ĩà¦Ľà§ĩ":1099,"Ġà¦¯à¦¾":1100,"Ġà¦¤à§ĭ":1101,"Ġà¦ħà¦ªà¦°":1102,"Ġà¦Ľà¦¾à¦¤à§įà¦°":1103,"à§ģà¦¡à¦¼":1104,"à§Ģà¦ķà§įà¦·":1105,"ĠA":1106,"à¦¨à§Ģ":1107,"Ġà¦¬à¦¿à¦ı":1108,"Ġà¦¤à§Ī":1109,"Ġà¦¹à§ĭà¦¸":1110,"à¦ķà§įà¦·à§ĩ":1111,"à§ĩà¦Ľà¦¿à¦²à§ĩà¦¨":1112,"Ġà¦ħà¦Ńà¦¿à¦¯à§ĭà¦Ĺ":1113,"Ġà¦¤à¦¾à¦ģà¦°":1114,"à§įà¦¯à":1115,"à§įà¦¯à¦":1116,"Ġà¦ĩà¦īà¦¨":1117,"à§įà¦¯à¦¾":1118,"Ġà¦ħà¦ª":1119,"à¦ķà¦®":1120,"Ġà¦¯à§ĭà¦Ĺ":1121,"Ġà¦ªà¦¾à¦²":1122,"à§ģà¦ģ":1123,"Ġà¦¦à§ĩà¦¶à§ĩà¦°":1124,"à§ĩà¦Ľà¦¿":1125,"ed":1126,"Ġà¦¸à¦Ĥà¦¬à¦¾à¦¦":1127,"ic":1128,"à¦ªà¦¾à¦¤":1129,"à§įà¦¯à§ĩ":1130,"Ġà¦ķà¦°à§ģà¦¨":1131,"Ġp":1132,"Ġc":1133,"à¦¿à¦ķà":1134,"à¦¿à¦ķà¦":1135,"à¦¿à¦ķà¦¾":1136,"à¦²à¦¾à¦°":1137,"Ġà¦¢à¦¾à¦ķà¦¾":1138,"Ġà¦¸à§įà¦Ł":1139,"Ġà¦¦à¦¾à¦¬":1140,"Ġà¦ªà§įà¦°à¦¤à¦¿à¦¬":1141,"Ġà¦¬à§įà¦¯à¦¬à¦¹à¦¾à¦°":1142,"à§ģà¦ľ":1143,"à¦²à§ĩà¦¨":1144,"Ġà¦¥à¦¾à¦ķà§ĩ":1145,"Ġà§¬":1146,"à¦¯à¦¼à¦¨":1147,"Ġà¦ªà§įà¦°à¦¤à¦¿à¦·à§įà¦ł":1148,"Ġà¦Ľà¦¿à¦²à§ĩà¦¨":1149,"Ġà¦¬à¦¿à¦ª":1150,"Ġà¦®à¦¤à§ĭ":1151,"Ġà§¦":1152,"à§ģà¦£":1153,"Ġà¦ķà§įà¦¯":1154,"à¦¿à§İ":1155,"Ġà¦®à§ģà¦ķà§įà¦¤":1156,"Ġà¦¸à¦Ńà¦¾à¦ª":1157,"Ġà¦ªà¦¦":1158,"Ġa":1159,"Ġà¦¸à§įà¦ķ":1160,"Ġà¦ķà¦¯à¦¼":1161,"Ġà¦¸à¦°à§įà¦¬":1162,"à¦¿à¦·à§įà¦Ł":1163,"Ġà¦¶à¦¹":1164,"à§ĭà¦°à§įà¦Ł":1165,"Ġà¦¯à¦¾à¦ļ":1166,"Ġà¦¸à¦®à§įà¦ªà¦¾à¦¦à¦ķ":1167,"Ġà¦ķà¦°à§įà¦®à¦ķ":1168,"Ġ201":1169,"Ġà¦īà¦ļ":1170,"à¦¾à¦¯à¦¼à§ĩà¦°":1171,"Ġà¦¤à¦¥à§įà¦¯":1172,"Ġà¦¹à¦²à§ĩ":1173,"à¦¿à¦¤à§įà¦¬":1174,"à§įà¦¯à§ģ":1175,"à§¦à§¦":1176,"Ġà¦¸à¦¾à¦¹":1177,"Ġà¦ªà¦¾à¦¶":1178,"Ġà¦ħà¦Ĥà¦¶":1179,"à¦¾à¦Ļà§įà¦Ĺ":1180,"à¦²à§įà¦²":1181,"Ġà¦¬à¦¿à¦¨":1182,"à¦¸à":1183,"à¦¸à¦":1184,"Ġà¦¦à¦¿à¦ķà§ĩ":1185,"âĢĮ":1186,"Ġà¦¦à¦¿à¦¤à§ĩ":1187,"Ġà¦®à§Ĥà¦²":1188,"à§Ĥà¦°à§įà¦£":1189,"Ġà¦¯à¦¦à¦¿":1190,"à¦¾à¦¡":1191,"Ġà¦ļà¦¾à¦°":1192,"Ġà¦®à¦¾à¦§à§įà¦¯à¦®à§ĩ":1193,"Ġà¦ĸà§ģà¦¬":1194,"à¦¯à§ģà¦ķà§įà¦¤":1195,"ĠP":1196,"à¦¸à¦¾":1197,"à§ĩà¦Ĺ":1198,"Ġà¦²à¦¾à¦Ĺ":1199,"à¦Ĺà¦ŀà§įà¦ľ":1200,"à¦ĵà¦¯à¦¼à¦¾à¦®à§Ģ":1201,"Ġà¦¦à¦¿à¦²":1202,"Ġà¦¹à§ĭà¦¸à§ĩà¦¨":1203,"à¦¿à¦¨à¦¿":1204,"Ġà¦¸à¦®à§įà¦ªà¦°à§įà¦ķ":1205,"à¦¯à¦¼à§ĭà¦ľà¦¨":1206,"à§Ģà¦¤à§ĩ":1207,"Ġà¦ªà¦¾à¦°à§ĩà¦¨":1208,"à¦¾à¦¸à§įà¦¤":1209,"Ġà§Ń":1210,"Ġà¦¬à¦¿à¦°à§ģà¦¦à§įà¦§à§ĩ":1211,"Ġà¦īà¦¨à§įà¦¨":1212,"Ġà¦ķà§Ģ":1213,"à¦¾à¦®à§įà¦ª":1214,"Ġà¦¬à§Ī":1215,"Ġà¦¬à¦¿à¦ıà¦¨":1216,"à¦¾à¦¸à§įà¦¥":1217,"à§ģà¦ĸ":1218,"Ġà¦ªà§įà¦°à¦¾à¦¯à¦¼":1219,"Ġà¦Ĩà¦°à¦ĵ":1220,"Ġà¦ħà¦«":1221,"à§Ģà¦Ĺà§ĩà¦°":1222,"la":1223,"Ġà¦Ĩà¦ªà¦¨à¦¿":1224,"à¦¸à§įà¦¥à":1225,"à¦¸à§įà¦¥à¦":1226,"à¦¸à§įà¦¥à¦¾":1227,"à¦¾à¦ĵà¦¯à¦¼à¦¾à¦°":1228,"Ġà¦¸à¦¾à¦§à¦¾à¦°à¦£":1229,"à§Ģà¦²":1230,"Ġà¦¶à¦¤":1231,"à¦¹à¦£":1232,"Ġà¦²à§ĩà¦ĸ":1233,"Ġà¦¤à¦¾à¦ķà§ĩ":1234,"Ġà¦ľà§ĩà¦²à¦¾":1235,"Ġà¦¶à¦¿à¦¶":1236,"Ġà¦¬à¦¿à¦¶à§ĩà¦·":1237,"Ġà¦®à¦¿à¦²":1238,"à¦ķà¦¾à¦°à§Ģ":1239,"ĠĠĠĠ":1240,"Ġà¦¯à¦¾à¦¬à§ĩ":1241,"à¦¨à§įà¦®":1242,"à§ĥà¦·à§įà¦Ł":1243,"Ġà¦¸à¦¾à¦Ĥ":1244,"Ġà¦¬à§įà¦¯à¦ķà§įà¦¤":1245,"ĠØ":1246,"à¦²à§ĩà¦°":1247,"à¦ıà¦°":1248,"Ġà¦®à¦¤":1249,"ew":1250,"Ġà¦Ĩà¦Ł":1251,"à§·":1252,"Ġà¦ķà§ĩà¦":1253,"Ġà¦Ńà¦¾à¦ĩ":1254,"à¦¾à¦ķà¦¾à¦¯à¦¼":1255,"Ġà¦ķà§ĩà¦¨à§įà¦¦à§įà¦°":1256,"Ġà¦¤à¦ĸà¦¨":1257,"à¦¬à¦¿à¦¦à§įà¦¯à¦¾à¦²":1258,"à¦¿à¦īà¦ľ":1259,"Ġà¦ħà¦¤":1260,"Ġà¦ªà¦¾à¦ł":1261,"Ġà¦Ĺà¦£":1262,"Ġà¦¦à§ĩà¦ĵà¦¯à¦¼à¦¾":1263,"à§įà¦¯à§ĩà¦°":1264,"ĠM":1265,"Ġà¦ªà¦°à§Ģà¦ķà§įà¦·":1266,"Ġà§®":1267,"à¦£à":1268,"à¦£à¦":1269,"à§ĩà¦ĸà¦¾à¦¨à§ĩ":1270,"à¦£à¦¾":1271,"Ġà¦¶à§ĩà¦ĸ":1272,"Ġà¦ħà¦¸":1273,"à¦¿à¦¤à":1274,"à¦¿à¦¤à¦":1275,"à¦¿à¦¤à¦¾":1276,"Ġà¦ªà§įà¦°à¦¦":1277,"à§ĭà¦ľ":1278,"st":1279,"Ġà¦Ĩà¦ĵà¦¯à¦¼à¦¾à¦®à§Ģ":1280,"à§ĥà¦·":1281,"Ġà¦¸à§ĩà¦Ł":1282,"Ġà¦īà¦¦à§įà¦¦":1283,"Ġà¦²à¦ķà§įà¦·":1284,"Ġà¦®à§ĩà¦¯à¦¼":1285,"Ġà¦ķà¦°à§įà¦®à¦ķà¦°à§įà¦¤":1286,"Ġà¦²à§ĭà¦ķ":1287,"Ġà¦ķà¦¯à¦¼à§ĩà¦ķ":1288,"à¦°à§įà¦ĺ":1289,"à§ģà¦Ĺ":1290,"Ġà¦ĸà¦¬à¦°":1291,"à§ĩà¦®à¦¨":1292,"à¦¡à¦¼à":1293,"à¦¡à¦¼à¦":1294,"à¦¡à¦¼à¦¾":1295,"ĠC":1296,"Ġà§§à§¯":1297,"Ġà¦¸à¦®à§įà¦®":1298,"à¦ķà¦°":1299,"Ġà¦¹à¦¤à§įà¦¯":1300,"Ġà¦¬à§įà¦¯à¦¾à¦ª":1301,"Ġà¦īà§İ":1302,"Ġà¦ĺà§ĭà¦·":1303,"à§ģà¦ª":1304,"Ġà¦¬à¦¿à¦¸":1305,"ing":1306,"à¦Łà§įà¦Ł":1307,"Ġà¦ıà¦ķà¦ľà¦¨":1308,"à¦®à":1309,"à¦¿à¦¨à":1310,"à¦¿à¦¨à¦":1311,"à¦®à¦":1312,"à¦¿à¦¨à¦¾":1313,"Ġà¦¸à§Ĥ":1314,"à¦®à¦¾":1315,"Ġm":1316,"à¦¬à":1317,"à¦¿à¦£":1318,"Ġà¦¬à¦¿à¦¶à§įà¦¬à¦¬à¦¿à¦¦à§įà¦¯à¦¾à¦²":1319,"à¦¬à¦":1320,"Ġà¦ķà§įà¦²":1321,"à¦¬à¦¾":1322,"Ġà¦¬à¦¿à¦ļ":1323,"Ġà¦§à¦°à§ĩ":1324,"Ġf":1325,"à¦¸à§įà¦ª":1326,"à¦°à¦®":1327,"Ġà¦ķà¦¾à¦°à¦£à§ĩ":1328,"Ġà¦Ĩà¦ĩà¦¨":1329,"à¦ıà¦¸":1330,"Ġw":1331,"Ġà§¨à§¦à§§à§®":1332,"Ġà¦¬à¦°":1333,"Ġà¦¸à¦¾à¦²à§ĩ":1334,"Ġà¦ªà¦°à§ĩ":1335,"à¦¾à¦Ĥà¦¶":1336,"à¦Ĺà§įà¦°à¦¾à¦®":1337,"à¦¸à¦¿":1338,"Ġà¦¸à§įà¦¥à¦¾à¦¨":1339,"Ġà¦ķà¦°à¦Ľà§ĩ":1340,"Ġà¦¹à¦¾à¦®":1341,"Ġà¦®à¦¾à¦²":1342,"Ġà¦Ĩà¦¬à¦¾à¦°":1343,"à¦¿à¦¯à¦¼à¦¾à¦¨":1344,"Ġà¦«à¦¿à¦°":1345,"à¦¬à¦°à§įà¦¤":1346,"Ġà¦®à¦¾à¦¨à§ģà¦·à§ĩà¦°":1347,"Ġà¦Ĺà§ĩà¦²":1348,"à¦ļà¦¾à¦°":1349,"Ġà¦ªà§įà¦°à¦¤à¦¿":1350,"à¦¿à¦¯à¦¼à§ĩà¦Ľà§ĩ":1351,"Ġà¦ļà¦¿à¦ķ":1352,"à§ĩà¦«":1353,"âĢ¦":1354,"à¦Łà¦¿à¦°":1355,"ÙĦ":1356,"Ġà¦¤à¦¾à¦¹":1357,"Ġà¦ªà¦°à¦¿à¦ļà¦¾à¦²":1358,"à§įà¦¤à¦¾à¦°":1359,"à¦²à§ĭ":1360,"à¦¿à¦¦à§įà¦§":1361,"¦Ĳ":1362,"à¦Ĳ":1363,"à¦ıà¦ĩ":1364,"à¦¾à¦¹à§Ģ":1365,"Ġà¦ļà¦¾à¦ĩ":1366,"Ġà§¯":1367,"âĢĿ":1368,"Ġà¦¬à¦¾à¦¬":1369,"à§ĭà¦¬":1370,"Ġà¦¬à¦¾à¦Ĥà¦²à¦¾à¦¦à§ĩà¦¶à§ĩà¦°":1371,"Ġà¦¸à¦®à§įà¦Ń":1372,"Ġà¦¹à¦¾à¦¤":1373,"à¦¿à¦¹à¦¤":1374,"Ġà¦īà¦ªà¦ľà§ĩà¦²à¦¾":1375,"Ġà¦¹à¦²à§ĭ":1376,"Ġà¦¸à¦¾à¦¬":1377,"00":1378,"à¦¨à§įà¦¤à§įà¦°à¦£":1379,"Ġà¦ĸà§ĩà¦²":1380,"à¦°à§įà¦§":1381,"à¦Ńà¦¾à¦°":1382,"à¦¾à§İ":1383,"ĠT":1384,"Ġà¦¤à§Īà¦°à¦¿":1385,"¦Ī":1386,"à¦Ī":1387,"à§ģà¦¯à¦¼à¦¾à¦°à¦¿":1388,"à¦ıà¦ķ":1389,"Ġà¦¨à¦¿à¦°à§įà¦¬à¦¾à¦ļà¦¨":1390,"Ġà¦ªà§Į":1391,"Ġà¦ķà§ĩà¦ī":1392,"à¦Ĺà¦°":1393,"il":1394,"à¦¶à§įà¦¯":1395,"Ġà¦Ĩà¦¹à¦®":1396,"à§ģà¦¯à¦¼":1397,"Ġà¦¦à¦¾à¦¯à¦¼":1398,"à¦¨à¦¿à¦ķ":1399,"à¦¸à¦Ĥ":1400,"à§įà¦ŀà¦¾à¦¨":1401,"âĢĺ":1402,"à¦¾à¦ģà¦ļ":1403,"Ġà¦¯à§ģà¦ķà§įà¦¤":1404,"Ġà¦²à¦¾à¦ĸ":1405,"à¦¤à¦®":1406,"à¦¾à¦ªà§įà¦¤":1407,"à¦¬à¦¨à§įà¦§":1408,"à§ĩà¦·à§įà¦Łà¦¾":1409,"Ġà¦¸à§įà¦ª":1410,"à¦°à§įà¦¨":1411,"à¦¾à¦Ĥà¦²":1412,"Ġà¦¨à¦¿à¦°à§įà¦¦":1413,"à¦¾à¦¹à¦¿à¦¨":1414,"à¦®à¦¨":1415,"à¦¿à¦¶à§įà¦ļ":1416,"Ġà¦¬à¦¿à¦·à¦¯à¦¼à§ĩ":1417,"à¦¾à¦¤à":1418,"à¦¾à¦¤à¦":1419,"Ġà¦¸à¦Ńà¦¾à¦ªà¦¤à¦¿":1420,"Ġà¦ĩà¦¤":1421,"Ġà¦ªà§Ĥà¦°à§įà¦¬":1422,"Ġà¦¶à§ģà¦§":1423,"à¦¿à¦ķà§ĩà¦Ł":1424,"Ġà¦łà¦¿à¦ķ":1425,"à¦¾à¦¤à¦¾":1426,"Ġà¦ļà§ĩà¦¯à¦¼à¦¾à¦°":1427,"ad":1428,"à§ĩà¦°à":1429,"à§ĩà¦°à¦":1430,"Ġà¦Ĳ":1431,"à§ĭà¦¦":1432,"à§Ĥà¦ª":1433,"à¦°à¦¾à¦·à§įà¦Łà§įà¦°":1434,"à¦¡à¦¼à§ĩ":1435,"à§ĩà¦°à¦¾":1436,"à¦®à§įà¦¯à¦¾à¦¨":1437,"Ġà¦¬à¦²à":1438,"Ġà¦¬à¦²à¦":1439,"Ġà¦¬à¦²à¦¾":1440,"Ġà¦¸à§įà¦¤":1441,"Ġà¦¦à§Ĥ":1442,"Ġà¦Ĩà¦°à§ĭ":1443,"Ġà¦ªà§įà¦°à¦¶à§įà¦¨":1444,"à¦Łà¦¾à¦°":1445,"ĠN":1446,"à¦£à§ĩà¦°":1447,"Ġà¦¬à¦¿à¦¬":1448,"Ġà¦®à§įà¦¯à¦¾à¦ļ":1449,"à¦¾à¦Ŀ":1450,"Ġà¦¹à¦¾à¦¸à¦ªà¦¾à¦¤":1451,"Ġà¦ªà¦¾à¦ĵà¦¯à¦¼à¦¾":1452,"à¦¿à¦²à§įà¦ª":1453,"Ġà¦¬à§ģ":1454,"à¦ªà¦¾à¦°":1455,"Ġà¦ļà¦¿à¦ķà¦¿à§İ":1456,"à¤":1457,"ÙİØ":1458,"à¦ķà¦¿":1459,"Ġà¦¬à§įà¦¯à¦¾à¦Ĥ":1460,"Ġà¦īà¦ªà¦¸à§įà¦¥":1461,"Ġà¦ķà¦²à§ĩà¦ľ":1462,"Ġà¦ħà¦«à¦¿à¦¸":1463,"Ġà¦¸à¦ķà¦²":1464,"à§įà¦¯à¦¾à¦ķ":1465,"Ġà¦Ĩà¦²à§ĭà¦ļ":1466,"à¦¨à§įà¦¦à¦°":1467,"à§Īà¦¤à¦¿à¦ķ":1468,"ent":1469,"Ġà¦¸à¦¾à¦²":1470,"Ġà¦¨à¦¿à¦¹à¦¤":1471,"Ġà¦ľà¦¾à¦®":1472,"Ġà¦¤à¦¾à¦²":1473,"à§ĩà¦ķà§įà¦¸":1474,"Ġà¦ķà¦¾à¦®":1475,"à¦¿à¦¥":1476,"Ġà¦Ńà§Ĥ":1477,"Ġà¦°à§ĩà¦ĸ":1478,"Ġà¦¨à¦¿à¦ľà§ĩà¦°":1479,"à¦¾à¦°à¦¿":1480,"Ġà¦ªà¦¡à¦¼à§ĩ":1481,"Ġà¦ªà¦¥":1482,"Ġà¦¬à¦¹":1483,"Ġà¦¶à¦°":1484,"à§įà¦°à§Ģ":1485,"Ġà¦ªà§įà¦°à¦§à¦¾à¦¨à¦®à¦¨à§įà¦¤à§įà¦°à§Ģ":1486,"à¦Ľà¦¿":1487,"Ġà¦ĸà¦¾à¦¨":1488,"à¦¾à§°":1489,"ĠâĢĵ":1490,"Ġà¦¦à§ĩà¦¨":1491,"Ġà¦ķà§ĭà¦Łà¦¿":1492,"Ġd":1493,"à¦¬à¦¾à¦Ĥà¦²":1494,"Ġà¦ļà§Į":1495,"Ġà¦Łà¦¿":1496,"Ġà¦²à¦¿à¦ĸ":1497,"à¦¾à¦Łà¦¿":1498,"à§ĩà¦¸à§įà¦Ł":1499,"Ġà¦Ĩà¦¤":1500,"Ġà¦¦à¦²à§ĩà¦°":1501,"à¦¾à¦¨à§ĭà¦°":1502,"Ġà§§à§¨":1503,"ion":1504,"Ġà¦ķà¦¾à¦°à§įà¦¯":1505,"à§ĩà¦¦à¦¨":1506,"à¦¸à¦¦":1507,"à§ĩà¦¤à§įà¦°à§ĩ":1508,"à¦Ĺà¦¤":1509,"à§ģà¦ĩ":1510,"ews":1511,"à§ĩà¦¦à§ĩà¦°":1512,"Ġà¦ªà¦¾à¦ķ":1513,"à¦ķà":1514,"à¦ķà¦":1515,"à¥¤âĢĻ":1516,"à¦°à¦¾à¦ľ":1517,"à¦¾à¦ªà¦¨":1518,"Ġà¦ıà¦Łà¦¾":1519,"Ġà¦ķà¦°à¦¬à§ĩ":1520,"à¦ķà¦¾":1521,"à¦°à¦¿à¦ķ":1522,"à¦¾à¦§à§Ģà¦¨":1523,"à¦Ĩà¦°":1524,"Ġà¦īà¦ªà¦°":1525,"Ġh":1526,"Ġà¦Ńà§ĭà¦Ł":1527,"à¦¾à¦®à§įà¦®":1528,"ĠD":1529,"à¦¾à¦²à§Ģ":1530,"à¦ķà¦¾à¦¶":1531,"à¦ªà¦¿à¦°":1532,"à¦¸à¦¬":1533,"Ġà¦¡à¦¿à¦¸":1534,"à¦¦à¦¿à¦ķà§ĩ":1535,"id":1536,"à§įà¦£":1537,"Ġà¦Ĺà¦¿à¦¯à¦¼à§ĩ":1538,"Ġà¦ıà¦Łà¦¿":1539,"Ġo":1540,"à¦¿à¦¯à¦¼à§ĩà¦Ľà§ĩà¦¨":1541,"Ġà¦¦à§ĩà¦¯à¦¼à":1542,"Ġà¦¦à§ĩà¦¯à¦¼à¦":1543,"Ġà¦¦à§ĩà¦¯à¦¼à¦¾":1544,"Ġà¦ħà¦ķ":1545,"Ġà¦ªà§įà¦°à¦¸à§įà¦¤":1546,"à¦ķà§įà¦°à¦¾à¦¨à§įà¦¤":1547,"à¦¤à¦¾à¦¯à¦¼":1548,"à§ĭà¦¨à":1549,"à§ĭà¦¨à¦":1550,"à§ĭà¦¨à¦¾":1551,"à§ĩà¦¸à¦¬":1552,"à¦¾à¦°à§įà¦¥à§Ģ":1553,"Ġà¦Ĺà§ģà¦°à§ģ":1554,"Ġà¦ªà¦°à¦¿à¦·":1555,"à¦¾à¦ĩà¦ķ":1556,"Ġà¦¯à¦ĸà¦¨":1557,"Ġà¦¬à¦²à§ĩà¦Ľà§ĩà¦¨":1558,"Ġà¦¬à¦Ľà¦°à§ĩà¦°":1559,"Ġà¦¨à¦¿à¦¶à§įà¦ļ":1560,"Ġà¦¸à¦«":1561,"Ġà¦ªà§įà¦°à¦¤à§įà¦¯":1562,"Ġà¦ĩà¦īà¦¨à¦¿à¦¯à¦¼":1563,"Ġà¦Ĩà¦¦à¦¾à¦²":1564,"à§ĩà¦ķà§įà¦·":1565,"à¦¿à¦ĩ":1566,"à¦¿à¦¨à§įà¦¦":1567,"ang":1568,"à§ĩà¦¨à§įà¦¸":1569,"lo":1570,"à¦°à§įà¦Ń":1571,"Ġà¦®à¦¾à¦¹":1572,"à¦¬à¦¿à¦°":1573,"à§įà¦¯à¦¾à¦°":1574,"Ġà¦¬à¦¾à¦ľà¦¾à¦°":1575,"à¦ķà§įà¦°à¦®":1576,"à¦Ĩà¦ª":1577,"à§ģà¦°à§Ģ":1578,"Ġà¦¹à¦ĵà¦¯à¦¼à¦¾à¦°":1579,"Ġà¦®à¦¾à¦Ŀ":1580,"Ġà¦ªà¦¾à¦¨":1581,"à¦¸à¦¾à¦°":1582,"com":1583,"Ġà¦¨à¦¿à¦°à§įà¦®":1584,"à¦¨à§Īà¦¤à¦¿à¦ķ":1585,"à§ĭà¦Ń":1586,"Ġà¦īà¦¤à§įà¦¤à¦°":1587,"Ġà¦¬à¦ķà§įà¦¤":1588,"Ġà§¨à§¦à§§à§¯":1589,"Ġà¦ıà¦ĸ":1590,"Ġà¦¬à¦¯à¦¼":1591,"Ġà¦¸à¦Ĥà¦ĸ":1592,"à¦¨à§įà¦¸":1593,"Ġà¦ĵà¦ªà¦°":1594,"Ġà¦Ńà¦¾à¦²":1595,"Ġà¦¸à¦®à¦¸à§įà¦¯":1596,"Ġà¦¸à¦¾à¦²à§ĩà¦°":1597,"Ġà¦¶à¦¾à¦¹":1598,"Ġà¦¤à§ĭà¦®":1599,"à¦¿à¦¡à¦¿à¦ĵ":1600,"à¦²à¦¾à¦®":1601,"à¦¾à¦¸à§įà¦¥à§įà¦¯":1602,"à¦¸à§Ĥ":1603,"Ġà¦¦à§ĩà¦¶à§ĩ":1604,"à¦¿à¦¦à§ĩà¦°":1605,"Ġà¦īà¦ªà¦ľà§ĩà¦²à¦¾à¦°":1606,"Ġà¦ľà¦¾à¦¨à":1607,"Ġà¦ľà¦¾à¦¨à¦":1608,"Ġà¦ľà¦¾à¦¨à¦¾":1609,"à§ģà¦²à§ĭ":1610,"am":1611,"à¦Ļà§įà¦Ĺà¦²":1612,"Ġà¦Ī":1613,"Ġà¦Ľà¦¬à¦¿":1614,"à¦¸à¦°":1615,"à§įà¦Łà§ĭ":1616,"à§ĩà¦Łà§ĩ":1617,"Ġà¦¨à¦¾à¦°":1618,"Ġà¦īà¦¦à§įà¦§":1619,"Ġà¦¦à¦¿à¦¬":1620,"Ġà¦¬à¦¾à¦ģ":1621,"à¦¾à¦¡à¦¼à¦¿":1622,"à¦¿à¦Ļà§įà¦Ĺ":1623,"Ġà¦¦à¦°":1624,"à§ĩà¦¨à§ĩ":1625,"à¦Ĺà¦ł":1626,"Ġà¦§à¦°à§įà¦®":1627,"à¦¾à¦Łà":1628,"à¦¾à¦Łà¦":1629,"à¦¾à¦Łà¦¾":1630,"Ġà¦ĸà¦¾à¦²":1631,"Ġà¦ıà¦¸à¦¬":1632,"Ġà¦¦à¦¾à¦¬à¦¿":1633,"Ġthe":1634,"à§įà¦Ľà§ĩà¦¨":1635,"à§ĩà¦Ń":1636,"Ġà¦ķà¦°à§įà¦¤":1637,"Ġà¦ıà¦ķà¦ĩ":1638,"Ġà¦Ńà¦¾à¦¬":1639,"à¦¡à¦¼à¦¿à¦¯à¦¼à§ĩ":1640,"Ġà¦¥à¦¾à¦¨":1641,"ĠI":1642,"Ġà¦Ľà§ĭà¦Ł":1643,"à¦®à¦¾à¦°":1644,"à¦£à§įà¦¡":1645,"Ġà¦ħà¦¨à§ģà¦·à§įà¦łà¦¿à¦¤":1646,"Ġà¦ħà¦Ńà¦¿à¦¨":1647,"à¦²à¦¾à¦¯à¦¼":1648,"Ġà¦¯à¦¾à¦ļà§įà¦Ľà§ĩ":1649,"Ġà¦ķà§ĩ":1650,"Ġà¦ªà§įà¦°à¦¯à¦¼à§ĭà¦ľà¦¨":1651,"Ġà¦ľà§Ģà¦¬à¦¨":1652,"Ġ/":1653,"à§ĭà¦ģ":1654,"ĠâĢľ":1655,"Ġà¦¸à§įà¦®":1656,"Ġà¦īà¦ĩ":1657,"à§įà¦¯à¦¾à¦¯à¦¼":1658,"Ġà¦®à¦¿à¦¨":1659,"Ġà¦¸à¦¿à¦¨":1660,"ÙİÙ":1661,".com":1662,"Ġà¦¬à¦°à§įà¦¤":1663,"Ġà¦°à¦¾à¦·à§įà¦Łà§įà¦°":1664,"Ġà¦¶à¦¿à¦¶à§ģ":1665,"ÙĲ":1666,"Ġà¦ªà§įà¦°à¦¬":1667,"Ġà¦¶à§ģà¦¨":1668,"Ġà¦¦à¦¾à¦ģ":1669,"Ġà¦¬à§ĩà¦°":1670,"Ġà¦Ĺà§ĭà¦²":1671,"à¦¸à§ĩ":1672,"à§ĩà¦ļ":1673,"Ġà¦Ńà¦¾à¦·":1674,"à¦¾à¦¸à§ĩà¦°":1675,"à¦¾à¦īà¦¨":1676,"Ġà¦¨à¦¾à¦®à§ĩ":1677,"and":1678,"Ġà¦¯à§ĩà¦¨":1679,"Ġà¦¬à¦°à§įà¦¤à¦®à¦¾à¦¨":1680,"Ġà¦¸à§įà¦ķà§ģà¦²":1681,"à¦¾à¦ķà§įà¦·":1682,"Ġà¦¦à¦ķà§įà¦·":1683,"à¦¬à¦¾à¦¯à¦¼":1684,"Ġà§§à§ª":1685,"à¦¾à¦¤à¦¿à¦ķ":1686,"Ġà¦ļà§Įà¦§":1687,"à¦¿à¦¤à§įà¦¤":1688,"Ġà¦¥à§ĩà¦ķ":1689,"Ġà¦ļà¦²à§ĩ":1690,"Ġà¦ļà§ĩà¦¯à¦¼à¦¾à¦°à¦®à§įà¦¯à¦¾à¦¨":1691,"Ġà¦Ľà¦¾à¦¡à¦¼à¦¾":1692,"à§ģà¦²à¦¾à¦ĩ":1693,"Ġà¦īà¦ªà¦¸à§įà¦¥à¦¿à¦¤":1694,"Ġà¦®à¦¾à¦°à§įà¦ķ":1695,"Ġà¦¸à¦¿à¦²":1696,"Ġà¦Ľà¦¾à¦¡à¦¼":1697,"ro":1698,"Ġà¦ľà¦®":1699,"et":1700,"Ġà¦¬à¦¾à¦ĩ":1701,"Ġà¦¯à§ĩà¦¤à§ĩ":1702,"Ġà¦¹à¦¯à¦¼à§ĩà¦Ľà¦¿à¦²":1703,"à¦ªà§ģà¦°à§ĩ":1704,"¡à¦¼à§ĩ":1705,"Ġà¦§à¦°à¦¨à§ĩà¦°":1706,"Ġà¦¸à¦¿à¦°":1707,"Ġà¦¶à§ģà¦§à§ģ":1708,"à§įà¦°à¦¿":1709,"Ġà¦¸à¦¾à¦®à¦¨à§ĩ":1710,"Ġà¦¸à¦°à¦ķà¦¾à¦°à§ĩà¦°":1711,"Ġà¦¯à§ģà¦¬":1712,"Ġà¦¨à¦¾à¦°à§Ģ":1713,"Ġà§§à§§":1714,"à¦Ńà¦¾à¦¬":1715,"Ġà¦ķà§ĥà¦·":1716,"Ġà¦¯à¦¾à¦¨":1717,"Ġà¦ıà¦¬à¦¾à¦°":1718,"à¦¾à¦¬à¦¾à¦°":1719,"Ġà¦Ĩà¦¨à§įà¦¤":1720,"Ġà¦ļà§ĩà¦·à§įà¦Łà¦¾":1721,"Ġà¦¨à¦Ń":1722,"à§ĩà¦ªà§įà¦Ł":1723,"à§ĩà¦¸à§įà¦ķ":1724,"à§¨à§¦à§§à§":1725,"Ġà¦¨à¦¿à¦°à¦¾à¦ª":1726,"ay":1727,"à§ĥà¦¤à¦¿":1728,"à¦Łà§įà¦Łà¦Ĺà§įà¦°à¦¾à¦®":1729,"Ġà¦°à¦¾à¦¤":1730,"à¦¬à¦¾à¦¨":1731,"à¦¹à¦¾à¦®à§įà¦®":1732,"Ġà¦¸à¦¿à¦¦à§įà¦§":1733,"Ġà¦¦à§Ģ":1734,"à¦ķà¦¦à§ĩà¦°":1735,"Ġà¦Ĺà§įà¦°à¦¹à¦£":1736,"ĠR":1737,"Ġà¦¤à§ģà¦²à§ĩ":1738,"à¦¾à¦®à§ĩ":1739,"Ġà¦¬à§ģà¦Ŀ":1740,"à§įà§°":1741,"Ġà¦¬à¦¾à¦Ĥà¦²à":1742,"Ġà¦¬à¦¾à¦Ĥà¦²à¦":1743,"Ġà¦¬à¦¾à¦Ĥà¦²à¦¾":1744,"à¦¦à§ģà¦²":1745,"Ġà¦Ĩà¦¤à§įà¦®":1746,"à¦Ĩà¦ĩ":1747,"Ġin":1748,"Ġà¦ķà§įà¦°à¦¿à¦ķà§ĩà¦Ł":1749,"Ġà¦¹à¦¾à¦¤à§ĩ":1750,"Ġà¦¯à§Į":1751,"Ġà¦«à¦²à§ĩ":1752,"Ġà¦¬à§įà¦¯à¦¬à¦¸à§įà¦¥à¦¾":1753,"à¦¶à§ĩà¦·":1754,"à§ĭà¦ĸ":1755,"à¦¦à¦¾à¦°":1756,"à¦¬à¦¾à¦¦à¦¿à¦ķ":1757,"Ġà¦ĺà§ĭà¦·à¦£à¦¾":1758,"à¦®à§įà¦¬":1759,"à¦ļà§įà¦Ľ":1760,"Ġà¦ķà¦°à¦¬à§ĩà¦¨":1761,"à¦¾à¦¯à¦¼à§ĩ":1762,"Ġà¦ªà§įà¦°à§ĩà¦¸":1763,"Ġà¦¨à§ĩà¦¤à":1764,"Ġà¦¨à§ĩà¦¤à¦":1765,"Ġà¦¨à§ĩà¦¤à¦¾":1766,"Ġà¦¶à¦¿à¦ķà§įà¦·à":1767,"Ġà¦¶à¦¿à¦ķà§įà¦·à¦":1768,"Ġà¦¶à¦¿à¦ķà§įà¦·à¦¾":1769,"à§įà¦¯à¦¾à¦Ł":1770,"Ġà¦ľà§ģà¦¨":1771,"Ġà¦°à§ĭà¦Ĺ":1772,"à¦¿à¦Łà¦¿à¦°":1773,"Ġà¦¨à¦¿à¦°à§įà¦¦à§ĩà¦¶":1774,"Ġà¦ķà¦°à¦¿":1775,"à¦¦à§Ģ":1776,"à¦¨à§įà¦¤à¦¬à§įà¦¯":1777,"Ġà¦ıà¦²à¦¾à¦ķà¦¾à¦¯à¦¼":1778,"as":1779,"à¦¬à¦°à§įà¦¤à§Ģ":1780,"à¦¤à§ĩà¦°":1781,"Ġà¦ľà¦¾à¦¯à¦¼":1782,"Ġà¦Ĩà¦ªà¦¨":1783,"à¦¶à¦¨":1784,"à¦¦à§ĩà¦¶":1785,"Ġà¦īà¦ļà§įà¦ļ":1786,"Ġà¦®à§ĥà¦¤à§įà¦¯à§ģ":1787,"Ġà¦«à§ĩà¦°":1788,"Ġà¦ıà¦¨":1789,"Ġà¦¬à¦¿à¦ļà¦¾à¦°":1790,"Ġà¦¸à§ĩà¦ĸà¦¾à¦¨à§ĩ":1791,"à¦²à§įà¦²à§ĩà¦ĸ":1792,"Ġà¦ľà¦¨à§įà¦®":1793,"Ġà¦ķà¦°à¦Ľà§ĩà¦¨":1794,"Ġà§§à§«":1795,"Ġà¦®à§ĭà¦Ł":1796,"Ġà¦¨à¦¿à¦¤à§ĩ":1797,"à¦¸à§ĩà¦°":1798,"Ġà¦ķà¦°à§įà¦®à¦ķà¦°à§įà¦¤à":1799,"Ġà¦ķà¦°à§įà¦®à¦ķà¦°à§įà¦¤à¦":1800,"Ġà¦ķà¦°à§įà¦®à¦ķà¦°à§įà¦¤à¦¾":1801,"Ġà¦¬à¦Ļà§įà¦Ĺ":1802,"Ġà¦®à¦¾à¦°à§įà¦ļ":1803,"Ġà¦¸à§ģà¦¯à§ĭà¦Ĺ":1804,"à¦ķà¦¾à¦²à§ĩ":1805,"Ġà¦¶à¦¿à¦²à§įà¦ª":1806,"à¦¬à¦¿à¦¶":1807,"Ġà¦¬à§įà¦²":1808,"Ġà¦¬à§ĥà¦¹":1809,"à§įà¦°à¦®":1810,"Ġà¦¤à¦¾à¦¹à¦²à§ĩ":1811,"Ġà¦°à¦¾à¦¨":1812,"Ġà¦ªà§įà¦²":1813,"Ġà¦®à¦¾à¦¤à§įà¦°":1814,"à¦¿à¦¨à¦¿à¦§":1815,"à¦°à§įà¦ľà¦¾à¦¤à¦¿à¦ķ":1816,"à¦¿à¦ľà§įà¦ŀ":1817,"à¦¿à¦Ĩ":1818,"à¦°à§įà¦Ĺ":1819,"Ġà¦¸à¦ļ":1820,"à¦¬à¦¿à¦§":1821,"ĠÙ":1822,"Ġ0":1823,"Ġà¦ªà§įà¦°à¦¶à¦¾à¦¸":1824,"Ġà¦«à§ģà¦Ł":1825,"Ġà¦Ĩà¦²à¦®":1826,"Ġà¦Ĩà¦Łà¦ķ":1827,"à§ĩà¦¬à§įà¦°":1828,"Ġà¦ĺà¦Łà¦¨à¦¾":1829,"Ġà¦¬à¦¾à¦¨":1830,"Ġà¦®à¦¾à¦¨à¦¬":1831,"Ġà¦¨à§ĩà¦ĵ":1832,"Ġà¦¨à¦¿à¦īà¦ľ":1833,"à¦ħà¦¨":1834,"th":1835,"ÙĴ":1836,"à¦Ľà¦¿à¦²":1837,"Ġà¦¬à¦ĩ":1838,"Ġà¦«à¦²":1839,"Ġà¦¸à¦¡à¦¼":1840,"Ġà¦ĩà¦®":1841,"Ġ\"":1842,"ch":1843,"à¦ıà¦®":1844,"Ġà¦ħà¦¨à§įà¦¤":1845,"à¦¿à¦¤à§Ģà¦¯à¦¼":1846,"Ġà¦¸à§įà¦¥à¦¾à¦¨à§Ģà¦¯à¦¼":1847,"Ġof":1848,"à§ģà¦§à¦¬à¦¾à¦°":1849,"Ġà¦ªà§ĩà¦¯à¦¼":1850,"Ġà¦ķà§ĭà¦®":1851,"à¦Łà§ģ":1852,"à¦ķà§įà¦¸":1853,"à¦¾à¦¯à¦¼à¦ķ":1854,"Ġà¦¤à¦°":1855,"à¦¦à¦¨à§įà¦¤":1856,"Ġà¦ķà§įà¦·à¦®":1857,"ŀà§įà¦ľ":1858,"Ġn":1859,"à¦¸à§įà¦ªà¦¤":1860,"à¦¾à¦¶à¦¿":1861,"Ġà¦Ĩà¦Ĺà¦¾à¦®à§Ģ":1862,"Ġà¦ķà§įà¦·à§ĩà¦¤à§įà¦°à§ĩ":1863,"Ġà¦¨à§ĩà¦¯à¦¼":1864,"Ġà¦¸à¦¿à¦¦à§įà¦§à¦¾à¦¨à§įà¦¤":1865,"Ġà¦ıà¦¤à§ĩ":1866,"Ġà¦¶à§ģà¦ķ":1867,"Ġà¦¸à§ĩà¦¨":1868,"Ġà¦ľà¦¯à¦¼":1869,"Ġà¦¦à¦¿à¦¯à¦¼à§ĩà¦Ľà§ĩ":1870,"Ġà¦ľà§ģà¦²à¦¾à¦ĩ":1871,"Ġà¦ªà¦¾à¦ķà¦¿à¦¸à§įà¦¤":1872,"à§ĭà¦®à¦¬à¦¾à¦°":1873,"Ġà¦Ńà¦¿à¦¡à¦¿à¦ĵ":1874,"Ġ,":1875,"im":1876,"Ġà¦¸à¦®à§įà¦ªà¦°à§įà¦ķà§ĩ":1877,"Ġà¦ªà§įà¦°à¦ļ":1878,"Ġà¦īà¦¦à§įà¦¯":1879,"ex":1880,"à¦¿à¦¸à§įà¦Ł":1881,"Ġà¦Ńà¦¬":1882,"Ġà¦¬à¦ķà§įà¦¤à¦¬à§įà¦¯":1883,"à§įà¦¯à¦¾à¦¤":1884,"Ġà¦ªà¦¾à¦ģà¦ļ":1885,"à§įà¦Łà§ĭà¦¬à¦°":1886,"Ġà¦¸à¦¾à¦Ĥà¦¬à¦¾à¦¦à¦¿à¦ķ":1887,"Ġà¦ķà¦¾à¦²":1888,"Ġà¦ªà¦°à¦¿à¦¸":1889,"à¦¿à¦ıà¦®":1890,"Ġà¦²à§Ģà¦Ĺà§ĩà¦°":1891,"Ġà¦ªà¦°à¦¿à¦¬à¦°à§įà¦¤":1892,"Ġà¦¸à§Į":1893,"ŀà§įà¦ļ":1894,"Ġà¦¦à¦¾à¦¯à¦¼à¦¿à¦¤à§įà¦¬":1895,"Ġà¦¡à¦¾à¦ķ":1896,"ct":1897,"à¦Ļà§įà¦Ĺà¦²à¦¬à¦¾à¦°":1898,"à¦¾à¦ĵà¦¯à¦¼":1899,"à§ĩà¦ªà§įà¦Łà§ĩà¦®à§įà¦¬à¦°":1900,"à§ģà¦¶":1901,"à¦¸à§įà¦ªà¦¤à¦¿à¦¬à¦¾à¦°":1902,"Ġà¦Ĩà¦¨à§įà¦¦":1903,"Ġà¦ķà¦®à¦¿à¦¶":1904,"Ġà¦ĩà¦Ĥ":1905,"Ġà¦¸à¦¬à¦¾à¦ĩ":1906,"à¦¾à¦¦à":1907,"à¦¾à¦¦à¦":1908,"à¦¾à¦¦à¦¾":1909,"Ġà¦Ĩà¦²à§įà¦²à¦¾à¦¹":1910,"à§ĩà¦²à¦¾à¦¯à¦¼":1911,"à¦ķà§įà¦·à¦£":1912,"à¦ļà§ĩà¦¯à¦¼à§ĩ":1913,"à¦¾à¦¯à§ĭà¦Ĺ":1914,"Ġà¦¯à¦¾à¦°à¦¾":1915,"Ġà¦Ĩà¦¯à¦¼":1916,"Ġà¦ħà¦§à§įà¦¯":1917,"à§įà¦¯à¦¾à¦¨à§įà¦¯":1918,"Ġà¦Ĺà§ģà¦°à§ģà¦¤à§įà¦¬":1919,"Ġà¦®à§ģà¦¸à¦²":1920,"à§ģà¦Ń":1921,"ur":1922,"Ġ'":1923,"à¦¬à¦¾à¦ľà¦¾à¦°":1924,"Ġà¦ķà¦ĸà¦¨":1925,"à¦ªà§įà¦°à¦¿à¦²":1926,"Ġà¦¸à¦¤à§įà¦¯":1927,"à¦¹à¦¾à¦®à§įà¦®à¦¦":1928,"Ġà¦ħà¦¥":1929,"Ġà¦¹à¦¯à¦¼à¦¨à¦¿":1930,"Ġà¦ļà§Įà¦§à§ģà¦°à§Ģ":1931,"Ġà¦¥à¦¾à¦ķà¦¾":1932,"Ġà¦īà¦¦à§įà¦§à¦¾à¦°":1933,"Ġà¦¨à¦Ńà§ĩà¦®à§įà¦¬à¦°":1934,"Ġà¦¶à¦ķà§įà¦¤":1935,"Ġà¦®à§ĩ":1936,"à¦ªà¦¤à§įà¦°":1937,"Ġà¦¦à§ĩà¦ĸà§ĩ":1938,"Ġà¦¬à¦¿à¦®":1939,"à¦²à§ĩà¦ĵ":1940,"Ġà¦°à¦¿à¦ª":1941,"Ġà¦ķà§ĭà¦¨à¦ĵ":1942,"Ġà¦«à§ĭà¦¨":1943,"à§ĩà¦²à§ĩà¦°":1944,"Ġà¦¹à¦¨":1945,"Ġà¦¸à§ĥà¦·à§įà¦Ł":1946,"Ġà¦ķà¦¤":1947,"Ġà¦¨à¦¬":1948,"à¦°à§ģà¦²":1949,"Ġà¦¬à§įà¦¯à¦¬à¦¸":1950,"Ġà¦ļà§ĭà¦ĸ":1951,"¦Ļà§įà¦ķ":1952,"à¦Ļà§įà¦ķ":1953,"Ġà¦¸à¦®à¦¾à¦ľ":1954,"Ġà¦¬à¦¿à¦²":1955,"Ġà¦¸à§įà¦¬à¦¾à¦¸à§įà¦¥à§įà¦¯":1956,"Ġà¦¹à¦ķ":1957,"à§§à§¯":1958,"Ġà¦¦à¦¶":1959,"Ġà¦¨à¦¿à¦¶à§įà¦ļà¦¿à¦¤":1960,"Ġà¦ªà§įà¦°à¦¤à¦¿à¦¨à¦¿à¦§":1961,"Ġà¦ıà¦¤":1962,"Ġà¦¸à¦¨à§įà¦¤":1963,"Ġà¦®à¦¾à¦¥":1964,"à¦¬à¦¾à¦Ĥà¦²à¦¾à¦¦à§ĩà¦¶":1965,"Ġà¦ľà¦¾à¦¯à¦¼à¦Ĺ":1966,"à§ĥà¦¹":1967,"à¦¾à¦§à¦¿à¦ķ":1968,"à¦¾à¦¬à¦²":1969,"Ġà¦¶à¦¤à¦¾à¦Ĥà¦¶":1970,"à¦°à¦¤":1971,"Ġà¦ıà¦Ĺ":1972,"Ġà¦¸à¦®à§įà¦Ńà¦¬":1973,"Ġà¦ķà¦°à§įà¦¤à§ĥ":1974,"Ġà¦¡à§ĩà¦¸à§įà¦ķ":1975,"à§Ģà¦ķà§ĩ":1976,"Ġà¦®à":1977,"Ġà¦®à¦":1978,"Ġà¦ıà¦ĸà¦¾à¦¨à§ĩ":1979,"Ġà¦®à¦¨à§įà¦¤à¦¬à§įà¦¯":1980,"à¦¾à¦ķà¦¿":1981,"Ġà¦ıà¦¸à§ĩ":1982,"Ġà¦¸à¦¬à¦ļà§ĩà¦¯à¦¼à§ĩ":1983,"Ġ...":1984,"Ġà¦¸à¦°à¦ķà¦¾à¦°à¦¿":1985,"Ġà¦®à¦¾":1986,"Ġà¦¦à§ĩà¦ĸà¦¤à§ĩ":1987,"à¦¾à¦¨à§įà¦¡":1988,"Ġà¦¸à¦ķà¦¾à¦²":1989,"à¦¾à¦°à§įà¦¸":1990,"à¦¿à¦¯à¦¼à¦¾à¦¯à¦¼":1991,"à§įà¦°à¦¬à¦¾à¦°":1992,"Ġà¦¶à¦¿à¦ķà§įà¦·à¦ķ":1993,"Ġà¦¦à¦¿à¦¯à¦¼à§ĩà¦Ľà§ĩà¦¨":1994,"Ġà¦Ĺà§ģà¦²":1995,"Ġà¦Ĩà¦¨à§įà¦¦à§ĭà¦²":1996,"Ġà¦¥à¦¾à¦ķà¦¬à§ĩ":1997,"-à¦¬":1998,"Ġà¦¶à¦¨":1999,"à§ĭà¦¡":2000,"à§Ģà¦ķ":2001,"Ġà¦¦à§ĩà¦¬":2002,"Ġà¦ĩà¦¯à¦¼":2003,"Ġà¦¥à§ĩà¦ķà§ĩà¦ĩ":2004,"Ġà¦¸à¦Ĥà¦¸à¦¦":2005,"âĢĻà¦°":2006,"Ġà¦ªà§įà¦°à¦¯à§ģà¦ķà§įà¦¤":2007,"Ġà¦ªà§įà¦°à¦®":2008,"Ġà¦¬à¦¿à¦¤":2009,"à¦¬à¦²":2010,"Ġà¦«à§ĩà¦¬à§įà¦°":2011,"à§ģà¦¸":2012,"),":2013,"Ġà¦¡à¦¿à¦¸à§ĩà¦®à§įà¦¬à¦°":2014,"Ġà¦Ľà§ĩà¦²à§ĩ":2015,"Ġà¦®à¦¾à¦®à¦²à¦¾":2016,"Ġà¦¦à§įà¦¬à¦¿à¦¤à§Ģà¦¯à¦¼":2017,"ag":2018,"Ġà¦¬à§ĥà¦¦à§įà¦§":2019,"à¦¬à§įà¦¦":2020,"Ġà¦¬à¦¿à¦ıà¦¨à¦ªà¦¿":2021,"Ġà¦¸à¦¾à¦¬à§ĩà¦ķ":2022,"Ġà¦ħà¦ķà§įà¦Łà§ĭà¦¬à¦°":2023,"el":2024,"à¦°à§įà¦¤à¦¿":2025,"ĠL":2026,"Ġà¦¶à§Ģ":2027,"Ġà¦¹à¦¤à§įà¦¯à":2028,"Ġà¦¹à¦¤à§įà¦¯à¦":2029,"Ġà¦¹à¦¤à§įà¦¯à¦¾":2030,"Ġà¦«à§ĩà¦²":2031,"Ġà¦Ĩà¦¬à§įà¦¦":2032,"à§ģà¦°à¦¿":2033,"Ġà¦Ńà§ģà¦²":2034,"Ġà¦Ĩà¦ķ":2035,"à¦¤à¦¿à¦¨à¦¿":2036,"ĠÂ":2037,"Ġà¦ľà¦¾à¦¨à¦¿à¦¯à¦¼à§ĩà¦Ľà§ĩà¦¨":2038,"un":2039,"Ġà¦®à¦¾à¦ł":2040,"Ġà¦¬à¦¾à¦¸à§įà¦¤":2041,"ol":2042,"Ġà¦¤à¦¾à¦°à¦¿à¦ĸ":2043,"Ġà¦¸à§ĩà¦ªà§įà¦Łà§ĩà¦®à§įà¦¬à¦°":2044,"Ġà¦ħà¦¨à§įà¦¯à¦¾à¦¨à§įà¦¯":2045,"Ġà¦ķà§ĭà¦®à§įà¦ª":2046,"Ġà¦«à¦°":2047,"à¦ľà§įà¦ŀ":2048,"Ġà¦ķà¦¨":2049,"Ġà§¨à§¦à§§à§Ń":2050,"Ġà¦Ńà¦¾à¦°à¦¤à§ĩà¦°":2051,"à§ĥà¦¥":2052,"Ġà¦Ĩà¦²à§Ģ":2053,"à¦¯à¦¾à¦¯à¦¼à§Ģ":2054,"à¦¾à¦¬à§ĩà¦¨":2055,"Ġà¦¸à§Ĥà¦¤à§įà¦°":2056,"à¦ľà¦¾à¦¤":2057,"à¦¿à¦ıà¦¸":2058,"Ġà¦Ĩà¦¨à§įà¦¤à¦°à§įà¦ľà¦¾à¦¤à¦¿à¦ķ":2059,"Ġà¦¦à§įà¦°":2060,"à§ĭà¦¶":2061,"Ġà¦īà¦¦à§įà¦¬":2062,"Ġto":2063,"Ġà¦ķà¦°à¦²à§ĩ":2064,"Ġà¦°à¦¬":2065,"Ġà¦ıà¦ªà§įà¦°à¦¿à¦²":2066,"Ġà¦¬à§įà¦¯à¦¾à¦Ĥà¦ķ":2067,"à¦¾à¦¤à§ĩà¦°":2068,"Ġà¦īà¦²à§įà¦²à§ĩà¦ĸ":2069,"ĠH":2070,"à¦°à§įà¦¯":2071,"à¦Ĺà§įà¦°à¦¹":2072,"à¦²à¦¾à¦ĩà¦¨":2073,"Ġà¦ĸà§ģà¦²":2074,"Ġà¦ªà¦°à¦¿à¦®":2075,"Ġà¦®à¦¿à¦¨à¦¿à¦Ł":2076,"Ùı":2077,"Ġà¦¸à¦Ĥà¦Ĺà¦ł":2078,"à¦¸à¦Ń":2079,"Ġà¦¨à¦¿à¦ļ":2080,"à¦¾à¦²à":2081,"à¦¾à¦²à¦":2082,"Ġà¦ªà§įà¦°à¦¤à¦¿à¦·à§įà¦łà¦¾à¦¨":2083,"Ġà¦Ĩà¦²à§ĭà¦ļà¦¨à¦¾":2084,"ĠF":2085,"vi":2086,"Ġà¦¬à¦¿à¦ľà§įà¦ŀ":2087,"Ġà¦Ĩà¦¹à¦¤":2088,"à¦¾à¦²à¦¾":2089,"à¦Łà¦¾à¦ĩ":2090,"à§ĥà¦¤à§įà¦¬":2091,"ot":2092,"em":2093,"angla":2094,"Ġà¦ľà¦°":2095,"Ġ_":2096,"Ġà¦ªà§ģà¦²à¦¿à¦¶à§ĩà¦°":2097,"Ġà¦¸à¦¹à¦ľ":2098,"Ġà¦ķà§ģà¦®":2099,"Ġà¦ļà¦¾à¦ķ":2100,"à¦¿à¦¹à¦¾à¦¸":2101,"Ġà¦®à¦¹à¦¿à¦²":2102,"Ġà¦¸à¦¦à¦°":2103,"-à¦®":2104,"Ġà¦¬à¦¾à¦¦":2105,"Ġà¦¸à§Ģ":2106,"Ġà¦Ĺà§įà¦°à§ĩà¦«":2107,"Ġà¦ĵà¦¯à¦¼à¦¾à¦°":2108,"à¦¤à§ĩà¦ĩ":2109,"à¦¤à¦°":2110,"Ġà¦¹à¦ĵà¦¯à¦¼à¦¾":2111,"à¦¿à¦Łà¦¾à¦°":2112,"à¦¸à¦®à§įà¦ª":2113,"Ġà¦Ĩà¦®à¦¾à¦ķà§ĩ":2114,"à¦ªà§Ĥà¦°à§įà¦£":2115,"Ġà¦ªà¦¾à¦¯à¦¼":2116,"Ġà¦¸à¦®à¦¯à¦¼à§ĩ":2117,"Ġà¦Ĺà¦²à§įà¦ª":2118,"Ġà¦Ĺà¦¾à¦¨":2119,"Ġà¦¯à§ĩà¦®à¦¨":2120,"Ġà¦ħà¦¨à§ģà¦¯à¦¾à¦¯à¦¼à§Ģ":2121,"à¦ľà§Ģà¦¬":2122,"à§ĩà¦¦à":2123,"à§ĩà¦¦à¦":2124,"à§ĩà¦¦à¦¾":2125,"Ġà¦¨à¦¿à¦¯à¦¼à¦®":2126,"à§ĭà¦°à§įà¦¡":2127,"Ġ3":2128,"à¦¯à¦¼à§ĭà¦ľ":2129,"à¦¾à¦¡à¦¼à§ĩ":2130,"Ġà¦¸à¦Ĥà¦¶":2131,"Ġà¦Ĺà§įà¦°à¦¾à¦®à§ĩà¦°":2132,"Ġà¦¬à¦¾à¦§":2133,"Ġà¦ķà¦¬":2134,"Ġà¦¯à¦¾à¦°":2135,"Ġà¦¬à¦¿à¦ıà¦¨à¦ªà¦¿à¦°":2136,"à¦¾à¦°à§įà¦®":2137,"Ġà¦¦à¦ķà§įà¦·à¦¿à¦£":2138,"Ġà¦°à¦¾à¦¯à¦¼":2139,"Ġà¦¦à§Ģà¦°à§įà¦ĺ":2140,"Ġà¦¸à¦Ĥà¦¸à§įà¦ķ":2141,"Ġà¦¹à¦¯à¦¼à§ĩà¦Ľà§ĩà¦¨":2142,"Ġà¦®à§ĭà¦¬":2143,"à¦¤à¦¿à¦°":2144,"à¦¾à¦ªà¦¾à¦¶à¦¿":2145,"à¦®à§Ĥà¦²":2146,"Ġà¦¯à¦¾à¦¤à§įà¦°":2147,"à¦¶à§įà¦ļ":2148,"Ġà¦īà¦¨à§įà¦¨à¦¯à¦¼à¦¨":2149,"à§ģà¦ķà§ĩ":2150,"Ġà¦Ĺà¦ł":2151,"Ġà¦ľà¦²":2152,"Ġà¦®à¦ľ":2153,"Ġà¦¬à¦²à¦¤à§ĩ":2154,"Ġà¦°à¦¾à¦¸à§įà¦¤":2155,"Ġà§§à§®":2156,"Ġà¦®à¦¾à¦Ŀà§ĩ":2157,"Ġà¦¨à¦¿à¦¬":2158,"Ġà¦¸à¦¨à§įà¦§":2159,"Ġà¦¯à§ĭà¦Ĺà¦¾à¦¯à§ĭà¦Ĺ":2160,"à¦¨à§įà¦¦à§įà¦°":2161,"Ġà¦¨à¦¾à¦¨à¦¾":2162,"ul":2163,"Ġà¦¸à¦®à§įà¦®à§ĩà¦²":2164,"Ġà¦¨à¦¿à¦·":2165,")à¥¤":2166,"Ġà¦Ńà¦¾à¦Ĺ":2167,"à¦¿à¦ķà¦²à§įà¦ª":2168,"Ġà¦ļà¦²à¦Ľà§ĩ":2169,"Ġà¦īà¦¦à§įà¦¯à§ĭà¦Ĺ":2170,"Ġà¦¸à¦®à¦¸à§įà¦¯à":2171,"Ġà¦¸à¦®à¦¸à§įà¦¯à¦":2172,"Ġà¦¸à¦®à¦¸à§įà¦¯à¦¾":2173,"à¦¬à§ĩà¦·":2174,"Ġà¦ħà¦¬à¦¶à§įà¦¯":2175,"à¦ľà§įà¦ľ":2176,"Ġà¦¸à¦®à§įà¦ªà§įà¦°":2177,"Ġà¦ªà§ĥà¦¥":2178,"Ġà¦¨à¦¾à¦Ĺ":2179,"à§ĩà¦¤à¦¨":2180,"à§§à§¦":2181,"Ġà¦¹à¦¾à¦¸à¦ªà¦¾à¦¤à¦¾à¦²à§ĩ":2182,"Ġà¦®à§Į":2183,"Ġà¦ļà¦Łà§įà¦Łà¦Ĺà§įà¦°à¦¾à¦®":2184,"Ġà¦°à¦¿à¦ªà§ĭà¦°à§įà¦Ł":2185,"Ġà¦¶à§ĩà¦·à§ĩ":2186,"à§ģà¦ģà¦ľ":2187,"Ġà¦¨à¦®":2188,"à¦ªà¦ķà§įà¦·":2189,"Ġà¦«à§įà¦°":2190,"à¦¸à§įà¦¤à§įà¦°":2191,"Ġà¦ªà§įà¦°à¦¾à¦£":2192,"à¦ķà¦°à§įà¦®":2193,"Ġà¦Ĺà§ĭ":2194,"Ġà¦Ĩà¦¸à§ĩ":2195,"Ġà¦°à§ĩà¦ĸà§ĩ":2196,"Ġà¦Ĩà¦Ĺà¦¸à§įà¦Ł":2197,"Ġà¦Ĩà¦«":2198,"Ġà¦¹à¦²à§ĩà¦ĵ":2199,"Ġà¦ªà¦°à§Ģà¦ķà§įà¦·à":2200,"Ġà¦ªà¦°à§Ģà¦ķà§įà¦·à¦":2201,"Ġà¦ªà¦°à§Ģà¦ķà§įà¦·à¦¾":2202,"Ġà¦¸à¦Ĥà¦ĸà§įà¦¯à¦¾":2203,"Ġà¦ķà¦¿à¦Ĥ":2204,"Ġà¦ªà¦ķà§įà¦·":2205,"Ġà¦ıà¦ķà¦Łà§ģ":2206,"Ġà¦¬à§ģà¦§à¦¬à¦¾à¦°":2207,"à§ĩà¦£":2208,"à¦Ĩà¦ľ":2209,"Ġà¦ªà§įà¦°à¦ķà¦²à§įà¦ª":2210,"--":2211,"à¦ķà§įà¦¯":2212,"Ġà¦²à§Ģà¦Ĺ":2213,"Ġ[":2214,"à¦¦à§įà¦°":2215,"ig":2216,"Ġà¦¸à§ĩà¦Łà":2217,"Ġà¦¸à§ĩà¦Łà¦":2218,"Ġà¦¸à§ĩà¦Łà¦¾":2219,"à¦²à§Ģà¦Ĺà§ĩà¦°":2220,"à¦¬à¦¾à¦¬":2221,"Ġà¦¨à¦ľ":2222,"à¦¸à§Ĥà¦ļ":2223,"Ġà¦¬à¦¿à¦Ńà¦¾à¦Ĺà§ĩà¦°":2224,"Ġand":2225,"Ġà¦¸à§ĭà¦®à¦¬à¦¾à¦°":2226,"Ġà¦¸à§įà¦¬à¦¾à¦§à§Ģà¦¨":2227,"Ġà¦¶à¦¿à¦ķà§įà¦·à¦¾à¦°à§įà¦¥":2228,"Ġà¦ļà§ĩà¦¯à¦¼à§ĩ":2229,"Ġà¦¬à¦¾à¦¡à¦¼à¦¿":2230,"Ġà¦°à¦¾à¦¤à§ĩ":2231,"Ġà¦°à¦¾à¦ľà¦¨à§Īà¦¤à¦¿à¦ķ":2232,"Ġà¦ĺà¦Łà¦¨à¦¾à¦¯à¦¼":2233,"Ġà¦¬à¦¿à¦·à¦¯à¦¼à¦Łà¦¿":2234,"Ġg":2235,"à¦¾à¦Ļ":2236,"Ġà¦ªà§įà¦°à¦¦à¦¾à¦¨":2237,"Ġà¦ªà¦¾à¦¶à¦¾à¦ªà¦¾à¦¶à¦¿":2238,"Ġà¦¯à¦¤":2239,"Ġà§§à§©":2240,"Ġà¦ªà¦¾à¦²à¦¨":2241,"Ġà¦¨à¦¿à¦°à¦¾à¦ªà¦¤à§įà¦¤":2242,"à¦¿à¦¨à§ĩà¦°":2243,"à¦¿à¦¤à¦¿":2244,"Ġà¦Ĺà§įà¦°à§ĩà¦«à¦¤à¦¾à¦°":2245,"ĠJ":2246,"à§ģà¦®à¦¿":2247,"à§ĭà¦¯à¦¼à¦¾à¦°":2248,"Ġà§§à§¬":2249,"à¦¨à§Ģà¦¤":2250,"Ġà¦¤à¦¦à¦¨à§įà¦¤":2251,"à¦¿à¦¸à¦¿":2252,"Ġà¦®à¦Ļà§įà¦Ĺà¦²à¦¬à¦¾à¦°":2253,"Ġà¦ķà¦¾à¦Ł":2254,"Ġà¦¯à§ģà¦Ĺ":2255,"à¦¾à¦¸à§įà¦Ł":2256,"Ġà¦ľà¦¾à¦¹":2257,"à¦¾à¦ľà¦¿à¦ķ":2258,"Ġà¦¨à¦¿à¦°à§įà¦¬à¦¾à¦ļà¦¨à§ĩ":2259,"à§ĭà¦¸à§įà¦Ł":2260,"ir":2261,"Ġà¦¸à¦¾à¦¤":2262,"Ġà¦ľà¦¨à¦Ĺ":2263,"Ġà¦§à¦¾à¦°":2264,"Ġà¦°à¦¾à¦ĸà":2265,"Ġà¦°à¦¾à¦ĸà¦":2266,"Ġà¦°à¦¾à¦ĸà¦¾":2267,"Ġà¦®à§ģà¦ķà§įà¦¤à¦¿à¦¯":2268,"Ġà¦¬à§ĥà¦¹à¦¸à§įà¦ªà¦¤à¦¿à¦¬à¦¾à¦°":2269,"Ġà¦¬à§įà¦¯à¦¾à¦Ł":2270,"Ġà¦ħà¦¨à§ģà¦®":2271,"Ġà¦¸à¦¿à¦²à§ĩà¦Ł":2272,"à¦Ĩà¦®à¦¿":2273,"à¦¾à¦ģà¦¦":2274,"Ġà¦¬à¦Ļà§įà¦Ĺà¦¬à¦¨à§įà¦§":2275,"à¦¾à¦²à¦¿":2276,"à¦ķà¦¾à¦ª":2277,"à¦¾à¦£à§įà¦¡":2278,"à¦²à¦¿":2279,"Ġà¦¨à§ĩà¦¤à§ĥà¦¤à§įà¦¬":2280,"Ġà¦¬à¦¿à¦¶à§įà¦¬à¦¬à¦¿à¦¦à§įà¦¯à¦¾à¦²à¦¯à¦¼à§ĩà¦°":2281,"Ġà¦ķà¦¾à¦ī":2282,"à§ĩà¦¬à":2283,"à§ĩà¦¬à¦":2284,"à§ĩà¦¬à¦¾":2285,"Ġà¦¶à¦°à§Ģà¦°":2286,"Ġà¦¬à¦¿à¦§":2287,"Ġà¦Ńà¦¯à¦¼":2288,"à§Ģà¦¤à¦¿":2289,"Ġà¦¬à¦¦":2290,"à¦ªà§įà¦°à¦¿à¦¯à¦¼":2291,"à¦¨à§įà¦¤à§įà¦°à¦£à¦¾à¦²":2292,"à¦¿à¦°à":2293,"à¦¿à¦°à¦":2294,"Ġà¦ļà¦¿à¦ķà¦¿à§İà¦¸":2295,"à¦¿à¦°à¦¾":2296,"à¦¿à¦ıà¦¨":2297,"à§ģà¦Łà¦¿":2298,"Ġà¦Ĩà¦¹à¦®à§ĩà¦¦":2299,"Ġà¦ıà¦Ľ":2300,"à¦¨à§įà¦¤à§įà¦°à§Ģà¦°":2301,"à§ĭà¦²à":2302,"à§ĭà¦²à¦":2303,"à§ĭà¦²à¦¾":2304,"à§Ģà¦¦":2305,"Ġà¦Ĺà¦¬à§ĩà¦·":2306,"Ġà¦ıà¦°à¦ªà¦°":2307,"Ġà¦ħà¦ªà¦°à¦¾à¦¹":2308,"ĠO":2309,"Ġà¦ıà¦Ĺà¦¿à¦¯à¦¼à§ĩ":2310,"Ġà§©à§¦":2311,"Ġà¦®à¦¾à¦¦":2312,"Ġà¦ĵà¦ł":2313,"à§±":2314,"Ġà¦¬à§ĩà¦Ĺ":2315,"Ġà¦¸à¦ªà§įà¦¤":2316,"Ġà¦¯à¦¾à¦ĵà¦¯à¦¼à¦¾à¦°":2317,"Ġà¦ķà§ĭà¦¥":2318,"Ġà¦īà¦ªà¦²":2319,"à¦ªà§įà¦°à¦ķà¦¾à¦¶":2320,"Ġà¦®à§ĭà¦¹à¦¾à¦®à§įà¦®à¦¦":2321,"à¦¾à¦¸à§Ģ":2322,"à¦¬à§įà¦°":2323,"à¦°à§įà¦¡":2324,"Ġà¦¦à¦¾à¦ģà¦¡à¦¼":2325,"Ġà¦¥à¦¾à¦ķà¦¤à§ĩ":2326,"à¦¾à¦¨à¦¿à¦°":2327,"Ġà¦īà¦¦à§įà¦¦à§ĩà¦¶":2328,"iv":2329,"Ġà¦¹à¦¾à¦¸à¦¾à¦¨":2330,"Ġà¦ıà¦²à¦¾à¦ķà¦¾à¦°":2331,"Ġà¦¬à¦¿à¦¦à§įà¦¯à¦¾à¦²":2332,"à¦¾à¦ķà§įà¦¤":2333,"à§ĩà¦ģ":2334,"Ġà¦ıà¦ķà§ĩ":2335,"Ġà¦ļà¦¾à¦ª":2336,"Ġà¦¶à§ģà¦ķà§įà¦°à¦¬à¦¾à¦°":2337,"à¦°à¦¾à¦¸":2338,"Ġon":2339,"Ġà§¨à§ª":2340,"Ġà¦ľà¦¾à¦¨à§ģà¦¯à¦¼à¦¾à¦°à¦¿":2341,"à¦¾à¦¥à¦®à¦¿à¦ķ":2342,"Ġà¦°à¦¾à¦ľà¦§à¦¾à¦¨":2343,"Ġà¦ªà§Įà¦ģ":2344,"Ġà¦ªà¦¾à¦¨à¦¿":2345,"Ġà¦ªà§įà¦°à¦¸":2346,"Ġà¦ªà§įà¦°à¦ķà¦¾à¦¶à¦¿à¦¤":2347,"à¦¸à§Ģ":2348,"à¦ĵà¦¯à¦¼à¦¾à¦°":2349,"ĠG":2350,"à¦¡à§ĩà¦Ł":2351,"Ġà¦¦à¦¾à¦®":2352,"Ġà¦¬à§ĭ":2353,"à¦¿à¦¤à§įà¦¯":2354,"à¦¾à¦®à¦¾à¦¨":2355,"Ġà¦°à¦¾à¦ĸà¦¤à§ĩ":2356,"Ġà¦ªà¦°à¦¿à¦¸à§įà¦¥":2357,"à¦¬à§ĭ":2358,"Ġà¦īà¦ĩà¦ķ":2359,"Ġà¦ĵà¦¯à¦¼à§ĩà¦¬":2360,"Ġà¦¸à§ģà¦°":2361,"Ġà¦®à§ĭà¦¬à¦¾à¦ĩà¦²":2362,"Ġà¦®à¦¨à§įà¦¤à§įà¦°à¦£à¦¾à¦²":2363,"à§įà¦ķà¦¾à¦°":2364,"Ġà¦¸à§įà¦¤à§įà¦°à§Ģ":2365,"Ġà¦¬à¦¿à¦®à¦¾à¦¨":2366,"Ġà¦®à¦¹à¦¾à¦¨":2367,"à¦¤à§ĩà¦¨":2368,"Ġà¦¦à§ģà¦Łà¦¿":2369,"à¦ªà§Ĥ":2370,"à¦Łà§ĩ":2371,"à¦ļà§įà¦ļ":2372,"Ġà¦¦à¦¿à¦¨à§ĩà¦°":2373,"Ġà¦¬à§įà¦¯à¦¾à¦ªà¦¾à¦°à§ĩ":2374,"Ġà¦¶à¦¾à¦¨à§įà¦¤":2375,"Ġà¦ªà¦°à¦¿à¦ķà¦²à§įà¦ª":2376,"Ġà¦¯à§Įà¦¨":2377,"Ġà¦®à¦¿à¦¡":2378,"Ġà¦¸à§ģà¦¨à§įà¦¦à¦°":2379,"à¦¿à¦¯à¦¼à¦¨":2380,"Ġà¦¬à§Īà¦ł":2381,"Ġà¦¶à§Ģà¦°à§įà¦·":2382,"us":2383,"Ġà¦¬à¦¾à¦¤":2384,"à§ĭà¦¹à¦¿à¦Ļà§įà¦Ĺ":2385,"Ġà¦²à¦¾à¦Ń":2386,"Ġ.":2387,"Ġà¦ľà¦¾à¦¨à¦¤à§ĩ":2388,"Ġà¦¬à¦¿à¦¦à§ĩà¦¶":2389,"Ġà¦¶à§įà¦°à¦®à¦¿à¦ķ":2390,"Ġà¦ļà¦¾à¦¨":2391,"Ġà¦¹à¦ĩ":2392,"Ġà¦²à¦¾à¦ĩ":2393,"Ġà¦¸à¦¡à¦¼à¦ķ":2394,"à§įà¦°à¦¯à¦¼":2395,"Ġà¦ķà¦®à¦¿à¦Łà¦¿à¦°":2396,"Ġà¦Ĩà¦¬à§ĩà¦¦à¦¨":2397,"Ġà¦¬à§ĩà¦¡à¦¼":2398,"Ġà¦īà¦¦à§įà¦¦à¦¿à¦¨":2399,"Ġà¦¬à¦¨à§įà¦¦":2400,"Ġà¦¸à¦¹à¦¯à§ĭà¦Ĺ":2401,"Ġà¦¬à¦¾à¦¹à¦¿à¦¨":2402,"âĢĵ":2403,"Ġà¦¬à¦¿à¦°à§ĭà¦§":2404,"à¦¾à¦ļà¦¾à¦°":2405,"à¦°à§Ģ":2406,"ut":2407,"Ġà§§à§Ń":2408,"à¦°à¦£à§ĩà¦°":2409,"Ġà¦¬à¦¿à¦¸à§įà¦¤à¦¾à¦°":2410,"Ġà¦¬à¦¾à¦¬à":2411,"Ġà¦¬à¦¾à¦¬à¦":2412,"Ġà¦¬à¦¾à¦¬à¦¾":2413,"Ġà¦ªà§įà¦°à¦¤à¦¿à¦¦":2414,"Ġà¦ªà¦°à¦¿à¦¬à¦¾à¦°à§ĩà¦°":2415,"Ġà¦ªà§ĩà¦¯à¦¼à§ĩ":2416,"Ġà¦¶à¦¨à¦¿à¦¬à¦¾à¦°":2417,"Ġà¦ªà¦¾à¦°à¦¬à§ĩà¦¨":2418,"art":2419,"Ġà¦«à¦¿à¦°à§ĩ":2420,"Ġà¦ªà¦¯à¦¼":2421,"à¦¾à¦ªà¦ķ":2422,"Ġà¦ħà¦¨à§ģà¦¸":2423,"à§Įà¦¶":2424,"à¦¿à¦ķà§įà¦¤":2425,"Ġà¦¨à¦¾à¦ĩ":2426,"Ġà¦Ĩà¦ķà§įà¦°à¦¾à¦¨à§įà¦¤":2427,"Ġà¦§à¦¾à¦°à¦£":2428,"Ġà¦ħà¦ªà¦°à¦¾à¦§":2429,"Ġà¦ªà§įà¦°à¦¤à¦¿à¦¨à¦¿à¦§à¦¿":2430,"Ġà§¨à§¦à§¨à§¦":2431,"à¦¢à¦¾à¦ķà¦¾":2432,"Ġà§¨à§«":2433,"Ġà¦®à§ĩà¦¡":2434,"ob":2435,"Ġà¦¯à¦¥":2436,"Ġà¦¯à§ģà¦ķà§įà¦¤à¦°à¦¾à¦·à§įà¦Łà§įà¦°":2437,"à§ĩà¦¨à§įà¦¦à§įà¦°":2438,"Ġà¦Ĺà¦¤à¦ķà¦¾à¦²":2439,"Ġat":2440,"Ġà¦¨à¦¿à¦°à§įà¦®à¦¾à¦£":2441,"Ġà¦¦à§įà¦°à§ģà¦¤":2442,"Ġà¦¸à§ģà¦ªà¦¾à¦°":2443,"Ġà¦²à§ĩà¦ĸà":2444,"Ġà¦²à§ĩà¦ĸà¦":2445,"Ġà¦²à§ĩà¦ĸà¦¾":2446,"Ġà¦¸à§ĥà¦·à§įà¦Łà¦¿":2447,"ment":2448,"Ġà¦Ľà¦¬":2449,"ow":2450,"Ġà¦¸à¦ķà¦¾à¦²à§ĩ":2451,"Ġà¦ªà¦°à¦¿à¦¬à¦¾à¦°":2452,"Ġth":2453,"Ġà¦¬à¦¿à¦¶à§įà¦¬à¦¾à¦¸":2454,"§ÙĦ":2455,"Ġà¦¬à¦¾à¦ľ":2456,"Ġà¦ªà§įà¦°à§ĩà¦®":2457,"Ġà¦°à¦ķà§įà¦·":2458,"à¦®à¦¾à¦¤à§įà¦°":2459,"à§įà¦¯à¦¾à¦¸":2460,"Ġà¦¯à¦¾à¦ĵà¦¯à¦¼à¦¾":2461,"à¦¿à¦¯à¦¼à¦¾à¦²":2462,"à¦¿à¦¯à§ĭà¦Ĺ":2463,"à¦ĸà¦¾à¦¨":2464,"Ġà¦ķà¦ł":2465,"ĠE":2466,"Ġà¦Ńà¦°à§įà¦¤à¦¿":2467,"à¦ľà¦¿":2468,"Ġà¦®à¦¨à§ĭà¦¨":2469,"Ġà¦ķà§ĩà¦¨à§įà¦¦à§įà¦°à§Ģà¦¯à¦¼":2470,"à¦¾à¦¦à¦¿":2471,"à¦²à¦¾à¦ĩ":2472,":à§©":2473,"à§Ĥà¦¹":2474,"à¦°à¦¸":2475,"à¦¿à¦ł":2476,"Ġà¦ªà¦°à¦¿à¦¬à§ĩà¦¶":2477,"à¦¶à§įà¦ļà¦¿à¦®":2478,"Ġà¦ļà¦¿à¦¨à§įà¦¤":2479,"Ġà¦ªà§ģà¦¨":2480,"Ġà¦«à§ĩà¦¬à§įà¦°à§ģà¦¯à¦¼à¦¾à¦°à¦¿":2481,"ht":2482,"à¦¾à¦ļà§įà¦Ľà§ĩ":2483,"Ġà¦¬à¦¾à¦£":2484,"Ġà¦¥à¦¾à¦¨à¦¾à¦°":2485,"à§Ģà¦ª":2486,"à¦ķà¦°à¦¾":2487,"Ġà¦ķà§ĭà¦°":2488,"Ġà¦®à¦¾à¦²à¦¿à¦ķ":2489,":à§«":2490,"Ġà¦¦à¦¿à¦ļ":2491,"à§ĩà¦°à§ĩ":2492,"Ġà¦ħà¦¬à¦¸à§įà¦¥à¦¾à¦¯à¦¼":2493,"à§įà¦¬à¦¾à¦¸":2494,"Ġà¦ªà¦£":2495,"Ġà¦ħà¦¬à¦¸à§įà¦¥à¦¾à¦¨":2496,"Ġà¦ªà§įà¦°à¦¯à§ģà¦ķà§įà¦¤à¦¿":2497,"Ġà¦¸à§įà¦¬à¦ª":2498,"à§ĩà¦ķà§įà¦Ł":2499,"à¦ľà¦¨à§ĩà¦°":2500,"à¦°à§įà¦·à¦£":2501,"Ġà¦ķà¦¾à¦ľà§ĩ":2502,"Ġà¦Ĩà¦§":2503,":à§ª":2504,"Ġà¦ķà¦¾à¦ª":2505,"Ġà¦ĩà¦¨à§įà¦Łà¦¾à¦°":2506,"Ġà¦¦à§ĩà¦ĵà¦¯à¦¼à¦¾à¦°":2507,"Ġà¦¶à§ģà¦Ń":2508,"Ġà¦Ńà¦¾à¦¬à§ĩ":2509,"¦ĭ":2510,"à¦²à§Ģ":2511,"à¦ĭ":2512,"Ġà¦¸à¦®à¦°à§įà¦¥":2513,"Ġà¦ıà¦ķà§įà¦¸":2514,"Ġà¦ªà¦¤à§įà¦°":2515,"Ġà¦Ńà¦¾à¦°à¦¤à§Ģà¦¯à¦¼":2516,"à¦¦à¦¾à¦¨":2517,"ĠW":2518,"à§ĩà¦¨à§įà¦¡":2519,"à¦¿à¦¡à§ĩà¦¨à§įà¦Ł":2520,"à¦®à¦¯à¦¼":2521,"à§§à§¨":2522,"Ġà¦®à¦¿à¦¶":2523,"Ġà¦Ńà¦¿à¦¤à§įà¦¤":2524,"Ġà¦¨à§ĩà¦ĵà¦¯à¦¼à¦¾":2525,"Ġà¦ªà¦¾à¦°à§įà¦Ł":2526,"Ġà¦¸à¦¾à¦¹à¦¾à¦¯":2527,"Ġà¦¤à¦¾à¦°à¦ªà¦°":2528,"Ġà¦ªà¦°à¦¿à¦¬à¦°à§įà¦¤à¦¨":2529,"Ġà¦¬à¦¾à¦²":2530,"Ġà¦ħà¦¤à¦¿à¦¥":2531,"ck":2532,"Ġà¦¶à¦¬à§įà¦¦":2533,"à§įà¦¤à":2534,"à§įà¦¤à¦":2535,"à§įà¦¤à¦¾":2536,"Ġà¦ķà¦¾à¦°à§įà¦¯à¦¾à¦²":2537,"à¦¾à¦¬à§ĩà¦°":2538,"à¦¬à¦¾à¦¡à¦¼":2539,"Ġà¦ªà§įà¦°à¦¾à¦¥à¦®à¦¿à¦ķ":2540,"Ġà¦¬à§įà¦¯à¦¬à¦¸à§įà¦¥":2541,"Ġà¦ªà¦°à¦¿à¦ļà¦¾à¦²à¦ķ":2542,"ra":2543,"à¦Łà§įà¦°":2544,"Ġà¦ĺà¦Łà¦¨":2545,"Ġà¦¬à¦¿à¦¶à§įà¦¬à¦¬à¦¿à¦¦à§įà¦¯à¦¾à¦²à¦¯à¦¼":2546,"Ġà¦¸à¦ªà§įà¦¤à¦¾à¦¹":2547,"à¦¾à¦¬à¦¾à¦¦":2548,"à¦Ĺà§įà¦¨":2549,"Ġà¦¤à§įà¦°":2550,"à¦Ĺà§ģà¦²à¦¿":2551,"à¦°à§įà¦Ł":2552,"24":2553,"à¦¾à¦¸à¦¨":2554,"Ġà¦¸à¦Ĥà¦ĺ":2555,"Ġà¦«à§ĩà¦¸à¦¬":2556,"Ġà¦¡à¦¿à¦ľ":2557,"à¦¨à§įà¦¥":2558,"Ġà¦¶à§ĩà¦¯à¦¼à¦¾à¦°":2559,"Ġà¦¸à¦¾à¦ĩ":2560,"Ġà¦¸à¦¾à¦ľ":2561,"à¦¨à§Ģà¦¤à¦¿":2562,"Ġà¦¸à¦Ĥà¦Ĺà§įà¦°à¦¹":2563,"Ġà¦®à¦¸":2564,"à¦¤à¦¬à§ĩ":2565,"ome":2566,"à¦ķà¦¿à¦¨à§įà¦¤à§ģ":2567,"à§ĩà¦¶à¦¨à§ĩà¦°":2568,"Ġà¦ªà§įà¦°à¦¾à¦°à§įà¦¥à§Ģ":2569,"Ġà¦ħà¦¨à§ģà¦·à§įà¦łà¦¾à¦¨à§ĩ":2570,"Ġà¦¨à¦¿à¦¯à¦¼à§ĭà¦Ĺ":2571,"à¦ªà§ģà¦°à§ĩà¦°":2572,"à¦ķà¦¾à¦°à¦¿":2573,"Ġà¦ķà¦¾à¦¨":2574,"à¦¿à¦Ĥà¦¹":2575,"Ġà¦Ĺà§ĩà¦²à§ĩ":2576,"Ġà¦¸à§Ī":2577,"Ġà¦Ĺà§įà¦°à§ģà¦ª":2578,"Ġà§¨à§¦à§¦":2579,"à¦¿à¦¨à¦¾à¦°":2580,"à¦¾à¦°à§įà¦Ł":2581,"Ġà¦°à¦ķà§įà¦¤":2582,"à¦°à§įà¦ĺà¦Ł":2583,"à¦¡à¦¼à¦¿":2584,"Ġà¦¬à¦¾à¦ĩà¦°à§ĩ":2585,"à§ģà¦°à§ĩ":2586,"Ġà¦ĸà¦¾à¦²à§ĩà¦¦à¦¾":2587,"Ġà¦°à§Ĥà¦ª":2588,"à¦¿à¦Ĩà¦ĩ":2589,"Ġà¦¨à¦¾à¦Ł":2590,"à¦Ĺà§ģà¦²à§ĭà¦°":2591,"Ġà¦®à¦°":2592,"à§Ģà¦ķà¦¾à¦°":2593,"Ġà¦¸à¦¾à¦ķà§įà¦·":2594,"Ġà¦Łà¦¾à¦ķà¦¾à¦°":2595,"Ġà¦¯à§ģà¦¦à§įà¦§":2596,"à¦¡à¦¼à¦¾à¦ĩ":2597,"Ġà¦ªà§ģà¦°à§ĭ":2598,"Ġà¦®à§ģà¦¹":2599,"Ġà¦ªà¦ķà§įà¦·à§ĩ":2600,"Ġà¦¬à¦¸à§ĩ":2601,"Ġà¦°à¦¾à¦¶":2602,"à¦¾à¦°à¦¿à¦¤":2603,"Ġà¦¬à¦²à¦²à§ĩà¦¨":2604,"à§ĭà¦§à¦¨":2605,"Ġà¦ĺà¦Łà§ĩ":2606,"Ġà¦¡à§įà¦°":2607,"ak":2608,"à¦²à§Ģà¦Ĺ":2609,"Ġà¦Ĩà¦¯à¦¼à§ĭà¦ľ":2610,"Ġà¦Ĩà¦¬à§įà¦¦à§ģà¦²":2611,"Ġà¦²à¦¾à¦²":2612,"Ġà¦ķà¦°à§įà¦®à¦¸à§Ĥà¦ļ":2613,"Ġà¦®à§ĥà¦¤à§įà¦¯":2614,"à¦ķà§įà¦·à§ĩà¦ª":2615,"à§ģà¦¹":2616,"âĢĶ":2617,"Ġà¦ľà§ĩà¦²à¦¾à¦°":2618,"à¦®à¦¿":2619,"Ġà¦¤à¦°à§ģà¦£":2620,"à¦¿à¦ĥ":2621,"Ġà¦ĸà¦¾à¦¦":2622,"à¦ªà§įà¦°à¦¾à¦ªà§įà¦¤":2623,"Ġà¦ķà§°":2624,"Ġà¦¨à¦¿à¦ľà§ĩà¦¦à§ĩà¦°":2625,"Ġà¦«à¦¾à¦ģ":2626,"Ġà¦¬à¦¾à¦Ĥà¦²à¦¾à¦¦à§ĩà¦¶à§ĩ":2627,"Ġà¦ĺà¦¨":2628,"Ġà¦Ĺà§ģà¦°à§ģà¦¤à§įà¦¬à¦ªà§Ĥà¦°à§įà¦£":2629,"Ġà¦ķà¦¿à¦Ĥà¦¬à¦¾":2630,"-à¦¸":2631,":à§¦":2632,"à¦¿à¦ľà§įà¦¯":2633,"Ġà¦ªà§ģà¦°à§ģà¦·":2634,"à¦¶à§Ģà¦²":2635,"Ġà¦®à§ģà¦ĸà§ĩ":2636,"Ġà¦Ńà§Ĥà¦®à¦¿à¦ķ":2637,"à§ĩà¦ľà¦¿":2638,"Ġà¦¸à§ģà¦¬à¦¿à¦§":2639,"à§ģà¦¡à¦¼à§ĩ":2640,"Ġà¦¹à¦¾à¦¸à¦¿à¦¨à¦¾":2641,"Ġà¦¬à¦°à§įà¦£":2642,"à¦¿à¦¶à§ĭà¦°":2643,"Ġà¦ĩà¦īà¦¨à¦¿à¦¯à¦¼à¦¨à§ĩà¦°":2644,"Ġà¦Ĩà¦°à§ĩà¦ķ":2645,"à§ĩà¦§":2646,"Ġà¦ħà¦°à§įà¦ľ":2647,"à¦ªà¦¤à¦¿":2648,"Ġà¦ªà¦¾à¦¶à§ĩ":2649,"Ġà¦ıà¦¸à§ĩà¦Ľà§ĩ":2650,"à¦¿à¦¯à¦¼à¦¾à¦®":2651,"Ġà¦®à§ĩà¦¯à¦¼à§ĩ":2652,"-à§¦":2653,"à¦«à¦¿à¦ķ":2654,"Ġà¦ħà¦§à¦¿à¦ķ":2655,"ÙĨ":2656,"à§ĭà¦¯à¦¼à¦¾":2657,"à¦¤à§įà¦¤à§įà¦¬":2658,"Ġà¦ļà¦¾à¦¯à¦¼":2659,"à¦¾à¦ĥ":2660,"Ġà¦®à§ĩà¦¡à¦¿à¦ķ":2661,"Ġà¦¶à§įà¦°à§ĩà¦£":2662,"Ġà¦Ĩà¦Ľà§ĩà¦¨":2663,"Ġà¦Ĺà¦¡à¦¼à§ĩ":2664,"à¦«à§ĭà¦¨":2665,"Ġà¦¸à¦¾à¦¡à¦¼à§ĩ":2666,"Ġà¦¦à§Ĥà¦°":2667,"à¦Ńà§Ĥ":2668,"Ġà¦ħà¦¥à¦¬à¦¾":2669,"Ġà¦ľà¦Ļà§įà¦Ĺ":2670,"à§ĩà¦¡à¦¼à§ĩ":2671,"à¦²à§įà¦¯à¦¾à¦¨à§įà¦¡":2672,"ub":2673,"Ġà¦®à¦¾à¦°à§įà¦ķà¦¿à¦¨":2674,"à§ĩà¦Łà§ĩà¦°":2675,":à§¨":2676,"Ġà¦¨à¦¿à¦¨":2677,");":2678,"Ġà¦ħà¦ŀà§įà¦ļ":2679,"à¦¾à¦¦à¦¾à¦°":2680,"20":2681,"à¦¹à¦¨":2682,"Ġà¦ªà¦¥à§ĩ":2683,"Ġà¦¬à§ĩà¦Ĺà¦®":2684,"Ġà¦ªà§ĭà¦¸à§įà¦Ł":2685,"à¦°à§įà¦¶à¦¨":2686,"Ġà¦¨à¦®à§įà¦¬à¦°":2687,"Ġà¦¦à¦¿à¦¬à¦¸":2688,"à¦¿à¦Ńà¦¾à¦¬à§ĩ":2689,"Ġà¦ĭ":2690,"à§§à§Ń":2691,"Ġà¦ĺà¦£":2692,"Ġà¦¬à¦¿à¦ķà§įà¦°à¦¿":2693,"Ġà¦®à¦¹à¦¾à¦¸":2694,"Ġà¦¬à¦¾à¦¡à¦¼à¦¿à¦¤à§ĩ":2695,"à¦¿à¦Ĺà§įà¦°":2696,"-à¦ª":2697,"Ġà¦¸à¦¾à¦®à¦¾à¦ľà¦¿à¦ķ":2698,"à¦łà¦¿à¦ķ":2699,"Ġà¦¬à¦¿à¦¸à§įà¦¤à¦¾à¦°à¦¿à¦¤":2700,"à¦Ĺà§įà¦°à¦¹à¦£":2701,"Ġà¦Ĩà¦¨à¦¨à§įà¦¦":2702,"Ġà¦ķà¦¾à¦°à§įà¦¯à¦ķà§įà¦°à¦®":2703,"ia":2704,"est":2705,"Ġà¦¨à¦¿à¦¯à¦¼à¦¨à§įà¦¤à§įà¦°à¦£":2706,"Ġà¦®à§Ĥà¦²à§įà¦¯":2707,"à¦¾à¦¨à§Ģ":2708,"Ġà¦īà¦ļà¦¿à¦¤":2709,"Ġà¦®à§ĭà¦ĥ":2710,"Ġà¦īà§İà¦ª":2711,"??":2712,"Ġà¦Łà¦¾à¦ĩ":2713,"à§ĩà¦¸à¦°":2714,"à¦¾à¦®à§Ĥà¦²":2715,"Ġà¦¥à¦¾à¦ķà¦¾à¦°":2716,"Ġà¦°à¦¾à¦¸":2717,"à¦¾à¦«à¦²":2718,"à¦ªà§įà¦°à¦¤":2719,"Ġà¦¨à§Į":2720,"Ġà¦¬à¦¿à¦ľà§įà¦ŀà¦¾à¦¨":2721,"¦Ļ":2722,"à¦Ļ":2723,"Ġà¦ķà¦°à§įà¦¤à§ĥà¦ªà¦ķà§įà¦·":2724,"à¦¾à¦ľà§Ģ":2725,"Ġà¦«à§ģà¦²":2726,"Ġà¦ķà¦°à¦²à§ĩà¦¨":2727,"Ġà¦ªà§įà¦°à§ĩà¦¸à¦¿à¦¡à§ĩà¦¨à§įà¦Ł":2728,"à§įà¦¯à¦¾à¦®":2729,"Ġà¦ªà§ĥà¦¥à¦¿à¦¬":2730,"if":2731,"Ġà¦ªà§įà¦°à¦Ńà¦¾à¦¬":2732,"Ġà¦°à§ĭà¦¹à¦¿à¦Ļà§įà¦Ĺ":2733,"à¦¾à¦īà¦¨à§įà¦¡":2734,"Ġà¦¬à§ĭà¦°à§įà¦¡":2735,"Ġà¦®à§ģà¦¸à¦²à¦¿à¦®":2736,"à§ĭà¦¦à¦¨":2737,"Ġà¦ªà¦°à¦¿à¦®à¦¾à¦£":2738,"Ġà¦°à§ĩà¦ľ":2739,"Ġà¦¹à¦¤":2740,"!!":2741,"Ġà¦Ĩà¦¶à":2742,"Ġà¦Ĩà¦¶à¦":2743,"ate":2744,"Ġà¦Ĩà¦¶à¦¾":2745,"Ġà¦ĵà¦°":2746,"-à¦ıà¦°":2747,"Ġà¦ĸà¦¾à¦¬à¦¾à¦°":2748,"à¦¥à":2749,"à¦¥à¦":2750,"à¦¥à¦¾":2751,"Ġà¦¦à¦¿à¦ķ":2752,"ĠK":2753,"à¦¾à¦ŀà§įà¦ļ":2754,"Ġà¦¸à§ĩà¦²":2755,"à¦¿à¦īà¦Ł":2756,"Ġà¦Ĺà§ĭà¦ª":2757,"Ġà§¨à§¨":2758,"Ġà¦¸à¦¹à¦¾à¦¯à¦¼":2759,"Ġà¦«à§įà¦²":2760,"ce":2761,"Ġà¦Ĩà¦¦à¦¾à¦²à¦¤":2762,"Ġà¦¸à¦Ļà§įà¦Ĺ":2763,"à¦¾à¦Ńà¦¾à¦¬":2764,"Ġà¦®à¦¾à¦°à¦¾":2765,"Ġà¦¸à§įà¦¬à¦ªà§įà¦¨":2766,"ext":2767,"à¦Ĺà¦¾à¦ģ":2768,"Ġà¦¨à¦¾à¦Ĺà¦°à¦¿à¦ķ":2769,"à¦Łà¦¾à¦¯à¦¼":2770,"à¦®à§ĩà¦¨à§įà¦Ł":2771,"Ġà¦®à¦¾à¦¦à¦ķ":2772,"Ġà¦Łà§ĩà¦¸à§įà¦Ł":2773,"Ġà¦¸à¦¨à§įà¦¤à¦¾à¦¨":2774,"à§ĩà¦¨à¦¾à¦°":2775,"à§ģà¦¤à¦¿":2776,"Ġà¦ĩà¦īà¦¨à¦¿à¦¯à¦¼à¦¨":2777,"à§ĩà¦®à§ĩ":2778,"Ġà¦ħà¦Ńà¦¿à¦¯à¦¾à¦¨":2779,"à¦²à§ĩà¦ĩ":2780,"Ġà¦¹à§ģà¦®":2781,"Ġà¦¨à¦¿à¦°à§įà¦¬à¦¾à¦¹à§Ģ":2782,"Ġà¦¹à¦¾à¦®à¦²à¦¾":2783,"Ġà¦¬à¦¿à¦¶à§įà¦¬à¦ķà¦¾à¦ª":2784,"à¦¾à¦¸à¦¹":2785,"Ġà¦ļà¦°":2786,"Ġà¦¸à¦ļà¦¿à¦¬":2787,"à§įà¦¯à¦¾à¦¨à§įà¦¸":2788,"Ġà¦¦à¦¾à¦°":2789,"Ġà¦¤à¦¾à¦ģà¦¦à§ĩà¦°":2790,"à¦®à§ģà¦¦":2791,"à¦®à¦¨à§įà¦¤à§įà¦°à§Ģà¦°":2792,"à¦¦à§įà¦§à":2793,"à¦¦à§įà¦§à¦":2794,"Ġà¦®à¦¾à¦Ľ":2795,"à¦¦à§įà¦§à¦¾":2796,"Ġà¦ĩà¦¤à¦¿à¦¹à¦¾à¦¸":2797,"à¦¿à¦¬à¦¿":2798,"à§ģà¦ľà§įà¦ľ":2799,"Ġà¦Ĩà¦¯à¦¼à§ĭà¦ľà¦¨":2800,"Ġà¦¹à¦¿à¦¸à¦¾à¦¬à§ĩ":2801,"à§ĥà¦¤à¦¿à¦ķ":2802,"ri":2803,"à§įà¦¯à¦¾à¦ª":2804,"à¦°à¦¬":2805,"Ġà¦ªà§ĩà¦²":2806,"Ġà¦¸à¦Ńà":2807,"Ġà¦¸à¦Ńà¦":2808,"Ġà¦¸à¦Ńà¦¾":2809,"à¦ľà¦¾à¦°":2810,"Ġà¦ªà§ĩà¦¤à§ĩ":2811,"à¦®à¦¤":2812,"Ġà¦¦à§Ī":2813,"Ġà¦¦à¦¿à¦¨à§ĩ":2814,"Ġà§¨à§§":2815,"Ġl":2816,"Ġà¦Ĺà§įà¦°à¦¾à¦®":2817,"Ġà¦¸à¦¬à¦¾à¦°":2818,"Ġà¦ľà¦¨à§ĩà¦°":2819,"Ġà¦ľà¦¡à¦¼":2820,"Ġà¦ĩà¦²":2821,"Ġà¦¤à§ģà¦®à¦¿":2822,"à§ĩà¦¨à§ĩà¦°":2823,"¦Ļà§įà¦":2824,"à¦Ļà§įà¦":2825,"à¦¿à¦°à¦¿à¦ķà§įà¦¤":2826,"à¦®à¦¿à¦¨":2827,"Ġà¦Ĩà¦¹à§įà¦¬":2828,"Ġà¦®à¦¸à¦ľ":2829,").":2830,"Ġà¦īà¦łà§ĩ":2831,"à¦¬à¦¿à¦¶à§įà¦¬":2832,"à¦¿à¦²à§įà¦²":2833,"Ġà¦ħà§įà¦¯à¦¾à¦ª":2834,"à§ĭà¦ļà§įà¦ļ":2835,"à¦ļà§įà¦ļà¦¿à¦¤à§įà¦°":2836,"Ġà¦¬à¦¿à¦¶à§įà¦¬à§ĩà¦°":2837,"à¦ĩà¦ī":2838,"à¦¿à¦²à§ĩà¦°":2839,"Ġà§¨à§¦à§§à§¬":2840,"à¦®à¦¾à¦§à§įà¦¯à¦®":2841,"à§ĭà¦¨à¦¾à¦°":2842,"à¦¿à¦ªà¦¿":2843,"Ġà¦®à¦¾à¦łà§ĩ":2844,"Ġ4":2845,"à¦ļà§ĩ":2846,"Ġà¦¦à§įà¦¬à¦¾à¦°à¦¾":2847,"à¦ıà¦¨":2848,"à¦ªà§įà¦²":2849,"à¦¶à¦¿à¦ķà§įà¦·":2850,"ĠÂ»":2851,"à¦¡à¦¿":2852,"à§ĩà¦¬à¦²":2853,"Ġà¦¨à¦¿à¦²":2854,"Ġà¦Ńà§ĩà¦":2855,"Ġà¦¸à¦®à§įà¦Ńà¦¾à¦¬":2856,"à§ĩà¦·à§įà¦Ł":2857,"Ġk":2858,"Ġà¦ķà¦°à¦Ľà¦¿":2859,"Ġà¦ªà¦¶à§įà¦ļà¦¿à¦®":2860,"Ġà¦¸à¦¨à§įà¦¤à§įà¦°":2861,"oo":2862,"Ġà¦Ĩà¦®à§ĩà¦°":2863,"Ġà¦ķà¦°à§ĩà¦Ľà¦¿à¦²à§ĩà¦¨":2864,"Ġà¦¬à¦°à§įà¦¤à¦®à¦¾à¦¨à§ĩ":2865,"à¦°à¦¾à¦¨":2866,"à§ĩà¦ŀà§įà¦ľ":2867,"Ġà¦ľà¦¾à¦¨à¦¿à¦¯à¦¼à§ĩà¦Ľà§ĩ":2868,"à¦ľà":2869,"à¦ľà¦":2870,"à¦ľà¦¾":2871,"Ġà¦¨à¦¿à¦°à§įà¦§":2872,"à¦¿à¦Ĺà¦¤":2873,"Ġà¦¦à§ģà¦°à§įà¦ĺà¦Ł":2874,"à¦¯à§ĭà¦Ĺà§įà¦¯":2875,"Ġà¦ĺà¦°à§ĩ":2876,"Ġà¦ªà§ĩà¦¶":2877,"ĠNews":2878,"Ġà¦ªà§įà¦°à¦¤à¦¿à¦¬à§ĩà¦¦":2879,"Ġà¦Ĺà¦¾à¦Ľ":2880,"à§įà¦°à¦¿à¦ķ":2881,"Ġà¦¨à¦¿à¦°à¦¾à¦ªà¦¤à§įà¦¤à":2882,"Ġà¦¨à¦¿à¦°à¦¾à¦ªà¦¤à§įà¦¤à¦":2883,"Ġà¦¨à¦¿à¦°à¦¾à¦ªà¦¤à§įà¦¤à¦¾":2884,"à¦¸à§įà¦ķà¦¾à¦°":2885,"à¦ķà§įà¦¸à¦¬à¦¾à¦ľà¦¾à¦°":2886,"Ġà¦ľà¦¨à¦ªà§įà¦°à¦¿à¦¯à¦¼":2887,"Ġà¦¹à¦¾à¦²":2888,"Ġà¦Ĩà¦¨à§įà¦¦à§ĭà¦²à¦¨":2889,"Ġà¦īà¦²":2890,"à¦ªà§Ĥà¦°à§įà¦¬":2891,"Ġà¦®à§ģà¦ľ":2892,"Ġà¦¤à§ĭà¦®à¦¾à¦°":2893,"Ġà¦®à¦¾à¦¸à§ĩ":2894,"Ġà¦ħà¦¤à¦¿à¦°à¦¿à¦ķà§įà¦¤":2895,"à§ģà¦·à§įà¦Ł":2896,"à§įà¦²à¦¿à¦·à§įà¦Ł":2897,"Ġà¦ķà¦°à§ĩà¦Ľà¦¿à¦²":2898,"Ġà¦¬à§įà¦¯à¦ķà§įà¦¤à¦¿":2899,"Ġà¦¦à§ĭà¦ķ":2900,"Ġà¦Ĩà¦¸à¦Ľà§ĩ":2901,"à¦¸à§ģ":2902,"à¦¾à¦ķà¦¿à¦¬":2903,"ĠU":2904,"Ġà¦¯à¦¾à¦¤à§ĩ":2905,"Ġà§¨à§©":2906,"à¦¦à§įà¦¦à¦¿à¦¨":2907,"Ġà¦ħà¦¤à§įà¦¯":2908,"Ġà¦¬à§įà¦¯à¦¬à¦¹":2909,"Ġà¦¸à¦¿à¦°à¦¿à¦ľ":2910,"à¦¾à¦Ĺà¦¤":2911,"Ġà¦Ĺà¦¿à¦¯à¦¼":2912,"à¦¾à¦¦à¦¨":2913,"Ġà¦ķà¦¿à¦¨":2914,"ous":2915,"ÙĬ":2916,"à¦¾à¦Ļà§įà¦ķ":2917,"Ġà¦¸à¦¤":2918,"Ġà¦Łà§ĩà¦ķ":2919,"à§Ĥà¦°":2920,"à§ĥà¦¤à§įà¦¤":2921,"Ġà¦¬à¦¿à¦¯à¦¼à§ĩ":2922,"à¦¬à¦¿à¦ľ":2923,"à¦¸à¦®à¦¯à¦¼":2924,"Ġà¦ľà¦¾à¦¨à¦¾à¦¯à¦¼":2925,"Ġà¦¬à¦¿à¦ľà§ĩà¦ª":2926,"ation":2927,"à¦¸à§įà¦¥à¦¾à¦¨":2928,"Ġà¦ľà§ĭà¦°":2929,"Ġà¦²à¦ķà§įà¦·à§įà¦¯":2930,"Ġà¦°à¦ķà¦®":2931,"Ġà¦¯à§ĩà¦ĸà¦¾à¦¨à§ĩ":2932,"Ġà¦ªà§įà¦°à¦¤à¦¿à¦¬à¦¾à¦¦":2933,"Ġà¦¸à¦¿à¦¨à§ĩà¦®":2934,"Ġà¦ĸà§ģà¦ģà¦ľ":2935,"Ġà¦¨à¦¦":2936,"Ġà¦ĸà§ĩà¦²à¦¾":2937,"Ġà¦ķà¦®à¦¿à¦Łà¦¿":2938,"Ġà¦Ĩà¦ªà¦¨à¦¾à¦ķà§ĩ":2939,"à¦Łà¦¿à¦¤à§ĩ":2940,"Ġà¦ªà§įà¦°à¦¤à¦¿à¦°":2941,"à¦¨à§Ģà¦¯à¦¼":2942,"à¦¾à¦¤à¦¾à¦°":2943,"Ġà¦¨à§ĩà¦¯à¦¼à":2944,"Ġà¦¨à§ĩà¦¯à¦¼à¦":2945,"Ġà¦¨à§ĩà¦¯à¦¼à¦¾":2946,"Ø§":2947,"Ġà¦¥à¦¾à¦ķà¦²à§ĩ":2948,"Ġà¦ļà¦²à¦ļà§įà¦ļà¦¿à¦¤à§įà¦°":2949,"Ġà¦ħà¦¨à§įà¦¯à¦¤à¦®":2950,"Ġà¦¬à¦¨":2951,"ĠBangla":2952,"Ġà¦ĺà¦Łà¦¨à¦¾à¦°":2953,"Ġà¦Ľà§ĩà¦¡à¦¼à§ĩ":2954,"à¦ľà¦¾à¦¨":2955,"Ġà¦Ńà§ĩà¦¤":2956,"Ġà¦Ĺà¦Ń":2957,"à§ĩà¦ĸà¦¾à¦¨":2958,"à¦¾à¦Ńà¦¾à¦¬à¦¿à¦ķ":2959,"à§ĥà¦¤à§Ģà¦¯à¦¼":2960,"Ġà¦Ĩà¦Ĺà§ģà¦¨":2961,"à¦Łà§ĭ":2962,"our":2963,"Ġà¦¸à¦Ĥà¦°":2964,"à¦Ľà¦¨à§įà¦¦":2965,"//":2966,"à§įà¦«":2967,"à§įà¦¯à¦¾à¦Ĺ":2968,"Âł":2969,"à¦¦à¦¿à¦ĵ":2970,"Ġà¦¤à¦¾à¦ģà¦ķà§ĩ":2971,"Ġà¦ķà¦°à§ĩà¦Ľà¦¿":2972,"ail":2973,"Ġà¦Ĺà§įà¦°à§ĩà¦ª":2974,"Ġà¦Ĩà¦Ĺà§ĩà¦°":2975,"Ġà¦Ĩà¦²à§ĭ":2976,"à¦Łà¦¨":2977,"Ġà¦Ĩà¦¸à":2978,"Ġà¦Ĩà¦¸à¦":2979,"Ġà¦Ĩà¦¸à¦¾":2980,"Ġà¦¸à¦®à¦¾à¦§":2981,"à¦¿à¦¯à¦¼à§ĭà¦Ĺ":2982,"Ġà¦Ĩà¦¬à¦¦à§ģà¦²":2983,"Ġà¦īà¦ªà¦²à¦ķà§įà¦·à§ĩ":2984,"à¦«à":2985,"à¦«à¦":2986,"Ġà¦¨à¦¾à¦®à§ĩà¦°":2987,"Ġà¦¥à¦¾à¦ķà§ĩà¦¨":2988,"à¦«à¦¾":2989,"à¦¹à¦¾à¦Ł":2990,"Ġà¦®à¦¾à¦®à¦²à¦¾à¦¯à¦¼":2991,"à¦¯à¦¼à¦¦":2992,"Ġà¦ķà¦ĸà¦¨à§ĭ":2993,"Ġà¦¸à§ĩà¦¨à§įà¦Ł":2994,"Ġà¦Łà§ĩà¦²":2995,"à¦Ĩà¦²":2996,"à¦ªà¦¥":2997,"Ġà¦®à¦¨à§ĭà¦¨à¦¯à¦¼à¦¨":2998,"Ġà¦ħà¦§à§įà¦¯à¦¾à¦ªà¦ķ":2999,"à§įà¦·à¦¿à¦ķ":3000,"Ġà¦ļà§ģà¦ķà§įà¦¤":3001,"ik":3002,"Ġà¦ªà¦²":3003,"Ġà¦ķà¦®à§įà¦ª":3004,"Ġà¦®à§įà¦¯à¦¾à¦ļà§ĩ":3005,"à§§à§®":3006,"Ġà¦¬à§ĭà¦Ŀ":3007,"Ġ5":3008,"à¦¦à§ģ":3009,"Ġà¦ªà¦¾à¦¹":3010,"à§ĥà¦£":3011,"Ġà¦¹à§ĭà¦ķ":3012,"à¦Ńà¦¾à¦Ĺ":3013,"Ġà¦²à¦¾à¦¶":3014,"à¦¿à¦°à§ĩ":3015,"à¦¸à¦¾à¦ĩà¦Ł":3016,"à¦¿à¦ķà¦¾à¦¯à¦¼":3017,"à¦ļà¦¨à¦¾":3018,"Ġà¦ķà¦²à¦ķ":3019,"ap":3020,"à¦¸à¦¿à¦ķ":3021,"à¦¿à¦¤à¦¾à¦°":3022,"à§ģà¦¦à§įà¦°":3023,"Ġà¦¬à¦¾à¦ķ":3024,"Ġà¦ĩà¦¨à§įà¦¡":3025,"Ġà¦ıà¦ĸà¦¨à¦ĵ":3026,"Ġà¦Ĩà¦Ĺà§ĩà¦ĩ":3027,"Ġà¦®à¦¾à¦¹à¦®à§ģà¦¦":3028,"à§ĩà¦ļà§įà¦Ľ":3029,"à¦Ĩà¦Ĺ":3030,"à¦Ĩà¦®à¦¾à¦¦à§ĩà¦°":3031,"Ġà¦¸à¦¿à¦Łà¦¿":3032,"à¦Ĩà¦®à¦¾à¦°":3033,"Ġà¦ħà¦§à¦¿à¦ķà¦¾à¦°":3034,"ab":3035,"Ġà¦Ĺà¦¾à¦¡à¦¼":3036,"Ġà¦«à¦¿à¦²":3037,"Ġà¦¨à¦¿à¦ķ":3038,"Ġà¦¬à¦Ļà§įà¦Ĺà¦¬à¦¨à§įà¦§à§ģ":3039,"Ġà¦¸à¦Ĥà¦ķ":3040,"Ġà¦Ľà¦¯à¦¼":3041,"à§ĭà¦ģà¦ľ":3042,"à¦¶à¦¾à¦¹à§Ģ":3043,"Ùħ":3044,"Ġà¦ªà§ģ":3045,"Ġà¦ªà¦¯à¦¼à§ĩà¦¨à§įà¦Ł":3046,"à§ĩà¦¤à§ģ":3047,"à§§à§«":3048,"Ġà¦¦à§ĥà¦·à§įà¦Ł":3049,"Ġà¦¸à¦¾à¦¹à¦¾à¦¯à§įà¦¯":3050,"Ġà¦¤à¦¾à¦¤à§ĩ":3051,"Ġà¦ªà¦¦à§įà¦§":3052,"ter":3053,"Ġà¦®à¦¨à§įà¦¤à§įà¦°à§Ģ":3054,"à¦¦à§įà¦Ń":3055,"à¦¿à¦īà¦¨":3056,"Ġà¦ĺà§ģà¦®":3057,"-à¦ķ":3058,"Ġà¦ªà¦°à§įà¦¬":3059,"à¦®à§įà¦ª":3060,"tp":3061,"Ġà¦®à§įà¦¯à¦¾à¦¨":3062,"à¦¾à¦¨à§įà¦¸":3063,"Ġà¦ļà¦¿à¦ķà¦¿à§İà¦¸à¦¾":3064,"Ġà¦ħà¦¨à¦²à¦¾à¦ĩà¦¨":3065,"à¦¾à¦īà¦¨à§įà¦Ł":3066,"Ġà¦®à¦¾à¦®à¦²à¦¾à¦°":3067,"Ġà¦®à¦¡":3068,"Ġà¦¸à¦®à¦¯à¦¼à§ĩà¦°":3069,"Ġà¦ªà¦¾à¦ĩ":3070,"à§įà¦¯à§ģà§İ":3071,"Ġà¦ħà¦¸à§įà¦¤à§įà¦°":3072,"Ġ+":3073,"Ġà¦ıà¦ĸà¦¨à§ĭ":3074,"à¦¾à¦¹à¦¿à¦¦":3075,"Ġà¦ķà¦¿à¦¶à§ĭà¦°":3076,"Ġà¦ķà§įà¦¯à¦¾à¦®à§įà¦ª":3077,"Ġà¦ªà¦£à§įà¦¯":3078,"Ġà¦ªà¦¾à¦¸":3079,"Ġà¦Ĩà¦¸à¦¾à¦®":3080,"à§įà¦Ľà¦¿à¦²":3081,"à§ģà¦ľà§įà¦ľà¦¾à¦®à¦¾à¦¨":3082,"Ġv":3083,"Ġà¦ªà§įà¦°à¦¬à§ĩà¦¶":3084,"à¦§à§įà¦¯à§ĩ":3085,"Ġà¦®à¦¹à¦¿à¦²à":3086,"Ġà¦®à¦¹à¦¿à¦²à¦":3087,"Ġà¦®à¦¹à¦¿à¦²à¦¾":3088,"Ġà¦ķà¦¾à¦¦à§ĩà¦°":3089,"Ġà¦ĸà¦°":3090,"Ġà¦ľà¦¿à¦¨":3091,"à§ĩà¦¨à¦¿":3092,"Ġà¦¨à¦¿à¦¬à¦¨à§įà¦§":3093,"Ġà¦«à¦¾à¦°":3094,"Ġà¦¸à§ĩà¦¬à¦¾":3095,"Ġà¦ªà§įà¦°à¦®à¦¾à¦£":3096,"à¦¤à§įà¦¤à¦°":3097,"à§įà¦¯à¦¾à¦¬":3098,"Ġà¦ıà¦Ľà¦¾à¦¡à¦¼à¦¾":3099,"Ġà¦¹à¦²à§ĩà¦¨":3100,"Ġà¦¶à¦¹à¦°à§ĩà¦°":3101,"Ġà¦¬à¦¾à¦¸à§įà¦¤à¦¬à¦¾à¦¯à¦¼":3102,"Ġà¦ªà§įà¦°à¦ļà¦¾à¦°":3103,"Ġ=":3104,"Ġà¦ĺà¦°":3105,"Ġà¦ıà¦¶":3106,"Ġà¦¶à¦¾à¦ĸ":3107,"Ġà¦ħà¦²":3108,"201":3109,"Ġà¦¸à¦Ńà¦¾à¦¯à¦¼":3110,"à¦¾à¦ĺ":3111,"Ġà¦¹à¦ĵà¦¯à¦¼":3112,"Ġà¦¹à¦¯à¦¼à¦¤à§ĭ":3113,"Ġà¦¸à¦°à§įà¦¬à§ĭà¦ļà§įà¦ļ":3114,"Ġà¦ªà¦°à¦¿à¦ķà¦²à§įà¦ªà¦¨à¦¾":3115,"Ġà¦¬à¦¾à¦ľà¦¾à¦°à§ĩ":3116,"Ġà¦¸à¦¾à¦°à¦¾":3117,"à§Ģà¦°à§ĩ":3118,"Ġà¦ªà§įà¦°à¦¾à¦°à§įà¦¥":3119,"Ġà¦ħà§įà¦¯à¦¾à¦¨à§įà¦¡":3120,"à¦ĩà¦¨":3121,"....":3122,"Ġà¦¹à¦¾à¦ĩ":3123,"à§ĭà¦¬à¦¬à¦¾à¦°":3124,"Ġà¦ķà¦°à§ĭà¦¨à¦¾":3125,"Ġà¦ªà§įà¦°à¦¤à¦¿à¦¯à§ĭà¦Ĺ":3126,"à¦¾à¦¯à¦¼à¦£":3127,"Ġà¦¸à§ĩà¦°à¦¾":3128,"à§ĩà¦®à§įà¦¬":3129,"à¦¾à¦¸à§ĩ":3130,"ĠØ§ÙĦ":3131,"à¦¾à¦¨à§įà¦¤à¦°":3132,"Ġà¦īà§İà¦¸":3133,"ly":3134,"Ġà¦ħà¦¬à¦¸à§įà¦¥à":3135,"Ġà¦ħà¦¬à¦¸à§įà¦¥à¦":3136,"Ġà¦ħà¦¬à¦¸à§įà¦¥à¦¾":3137,"Ġà¦Ĺà§ĥà¦¹":3138,"Ġà¦¦à§ĩà¦¯à¦¼à¦¾à¦°":3139,"âĢĻà¥¤":3140,"Ġà¦¬à§ĥà¦¦à§įà¦§à¦¿":3141,"Ġà¦¸à¦«à¦²":3142,"Ġà¦®à§ģà¦ķà§įà¦¤à¦¿":3143,"Ġà¦¬à§ĥà¦·à§įà¦Ł":3144,"Ġà¦ľà§įà¦¬":3145,"Ġà¦¸à§Ģà¦®à¦¾à¦¨":3146,"Ġà¦ľà¦¿à¦ľà§įà¦ŀ":3147,"Ġà¦¸à¦Ĥà¦¶à§įà¦²à¦¿à¦·à§įà¦Ł":3148,"Ġà¦¦à§ĥ":3149,"à§ĩà¦¤à":3150,"Ġà¦Ĺà¦¡à¦¼":3151,"à§ĩà¦¤à¦":3152,"à§ĩà¦¤à¦¾":3153,"à§ĩà¦ĩà¦²":3154,"Ġà¦ĩà¦¤à§įà¦¯":3155,"Ġà¦ĸà¦¾à¦°":3156,"à¦¨à¦¿à¦ľ":3157,"à¦¦à§ĩ":3158,"Ġà¦ļà¦¾à¦²à§ģ":3159,"Ġà¦ªà¦°à¦¿à¦·à¦¦à§ĩà¦°":3160,"Ġà¦§à¦°à¦¾":3161,"Ġà¦¹à¦¿à¦¨à§įà¦¦":3162,"à§ģà¦²à§ĩà¦°":3163,"ers":3164,"à¦¶à":3165,"à¦£à§ĩ":3166,"à¦¶à¦":3167,"à¦¶à¦¾":3168,"Ġà¦¸à¦łà¦¿à¦ķ":3169,"Ġà¦¨à¦Ĺà¦°":3170,"Ġà¦ķà¦¾à¦ľà§ĩà¦°":3171,"à¦ªà§įà¦°à¦§à¦¾à¦¨":3172,"Ġà¦¨à¦¾à¦ķà¦¿":3173,"ost":3174,"Ġà¦ªà§įà¦°à¦¸à§įà¦¤à¦¾à¦¬":3175,"Ġà¦ħà§įà¦¯à¦¾à¦ķ":3176,"Ġà¦¬à¦¨à§įà¦§à§ģ":3177,"Ġà¦®à¦¾à¦¸à§ĩà¦°":3178,"Ġà¦ªà¦¾à¦°à¦¿":3179,"Ġà¦ħà¦«à¦¿à¦¸à¦¾à¦°":3180,"Ġà¦¸à¦Ĥà¦Ĺà¦łà¦¨":3181,"Ġà¦ıà¦²à¦¾à¦ķà¦¾":3182,"Ġà¦ħà¦ªà§ĩà¦ķà§įà¦·":3183,"Ġà¦¦à§ģà¦°à§įà¦¨":3184,"Ġà¦ľà¦¾à¦¨à¦¾à¦¨à§ĭ":3185,"à§įà¦Ľà¦¿":3186,"Ġà¦ļà¦¿à¦¤à§įà¦°":3187,"Ġà¦ªà§įà¦°à¦ķà§įà¦°":3188,"Ġà¦¸à¦Ĥà¦¸à§įà¦¥":3189,"Ġà¦¬à¦¿à¦ªà¦ķà§įà¦·à§ĩ":3190,"à¥¤âĢĿ":3191,"Ġà¦ªà§įà¦°à¦¤à¦¿à¦¬à§ĩà¦¦à¦¨":3192,"Ġà¦¬à¦¿à¦ķà§įà¦·":3193,"Ġà¦¯à¦¾à¦¬":3194,"Ġà¦ªà§įà¦°à¦¤à¦¿à¦Łà¦¿":3195,"Ġà¦Ĩà¦ªà¦¡à§ĩà¦Ł":3196,"Ġà¦ªà¦Ľà¦¨à§įà¦¦":3197,"Ġà¦¬à¦¾à¦Ĺ":3198,"à§įà¦¯à¦¾à¦®à§įà¦ª":3199,"Ġà¦¦à¦°à¦ķà¦¾à¦°":3200,"Ġà¦ķà¦¯à¦¼à§ĩà¦ķà¦Łà¦¿":3201,"Ġà¦Łà§ģ":3202,"Ġà¦¤à¦¾à¦ķ":3203,"à§įà¦°à¦¾à¦®":3204,"à§Ĥà¦°à§įà¦¤":3205,"à¦®à¦¹":3206,"Ġà¦¶à¦¿à¦°":3207,"à¦ķà§įà¦·à¦®":3208,"à¦¾à¦¶à¦¨":3209,"Ġà¦ªà¦¾à¦°à¦¬à§ĩ":3210,"Ġà¦¬à§įà¦¯à¦¬à¦¸à¦¾à¦¯à¦¼":3211,"Ġà¦ĩà¦īà¦°":3212,"Ġà¦ľà¦¾à¦¨à¦¿à¦¯à¦¼à§ĩ":3213,"ĠV":3214,"Ġà¦Ĩà¦¹à¦®à¦¦":3215,"à¦¤à¦¨à§įà¦¤à§įà¦°":3216,"Home":3217,"Ġà¦¬à¦¿à¦ľà¦¯à¦¼":3218,"Ġà¦Ĺà§įà¦°à§ĩà¦ªà§įà¦¤à¦¾à¦°":3219,"Ġà¦¥à¦¾à¦¨à¦¾à¦¯à¦¼":3220,"Ġà¦¸à¦¾à¦ĩà¦Ł":3221,"à¦¬à§ģ":3222,"Ġà¦¨à¦Ĥ":3223,"à¦¿à¦Ĥà¦¸":3224,"Ġ2018":3225,"à¦Ĥà¦¸":3226,"Ġà¦ĸà§ģà¦¨":3227,"Ġà¦ªà¦¾à¦ķà¦¿à¦¸à§įà¦¤à¦¾à¦¨":3228,"à¦¾à¦®à¦°à§įà¦¶":3229,"Ġà¦«à§ĩà¦²à§ĩ":3230,"Ġà¦¸à§įà¦¬à¦¾à¦®à§Ģ":3231,"Ġà¦ļà¦¾à¦²à¦¿à¦¯à¦¼à§ĩ":3232,"Ġà¦«à§ĩà¦¸à¦¬à§ģà¦ķ":3233,"Ġà¦ħà¦¨à§ģà¦·à§įà¦łà¦¾à¦¨":3234,"à¦ķà§ĥà¦¤":3235,"à¦¿à¦·à§įà¦¯":3236,"à§ĭà¦²à¦¾à¦°":3237,"://":3238,"Ġà¦¶à¦¹à¦°":3239,"os":3240,"Ġà¦¶à¦¿à¦ķà¦¾à¦°":3241,"à§§à§§":3242,"Ġà¦¸à¦®à§įà¦ªà§Ĥà¦°à§įà¦£":3243,"Ġà¦Ĩà¦¬à§ģ":3244,"Ġà¦¨à¦¿à¦®":3245,"Ġà¦¬à¦¿à¦¤à¦°à¦£":3246,"Ġà¦ªà§ĩà¦°":3247,"à§ģà¦¯à¦¼à¦¾":3248,"Ġy":3249,"à¦¦à§įà¦¬":3250,"à¦¦à¦²":3251,"Ġà¦ħà¦®":3252,"Ġà¦¤à§ĥà¦¤à§Ģà¦¯à¦¼":3253,"âĨ":3254,"Ġà¦ķà¦¿à¦Ńà¦¾à¦¬à§ĩ":3255,"Ġà¦Ĺà¦łà¦¨":3256,"Ġà¦ªà¦¿à¦Ľ":3257,"à¦¸à¦¿à¦²":3258,"Ùĩ":3259,"Ġà¦¨à¦¿à¦°à§įà¦¯à¦¾à¦¤":3260,"Ġà¦ªà¦¾à¦ĵà¦¯à¦¼à¦¾à¦°":3261,"Ġà¦ªà§įà¦°à¦¿à¦¯à¦¼":3262,"Ġà¦¨à¦¿à¦°à§įà¦¬à¦¾à¦ļà¦¨à§ĩà¦°":3263,"Ġà¦¨à§ĩà¦¨":3264,"Ġà¦¬à¦¾à¦£à¦¿à¦ľà§įà¦¯":3265,"Ġà¦¦à¦°à§įà¦¶":3266,"Ġà¦Ĩà¦Ĺà§įà¦°":3267,"ep":3268,"Ġà¦ªà§įà¦°à¦¶à¦¿à¦ķà§įà¦·":3269,"Ġà¦¬à¦¿à¦¨à¦¿à¦¯à¦¼à§ĭà¦Ĺ":3270,"Ġà¦°à§ĭà¦¡":3271,"Ġà¦Ĩà¦¦à¦¾à¦²à¦¤à§ĩ":3272,"Ġà¦¹à¦¾à¦ľ":3273,"Ġà¦Ĩà¦¸à¦²à§ĩ":3274,"Ġà¦¤à¦¾à¦ģà¦°à¦¾":3275,"Ġà¦°à¦Ĥ":3276,"Ġà¦¸à§ĩà¦ķà§įà¦¸":3277,"ov":3278,"Ġà¦ªà¦°à¦¾à¦®à¦°à§įà¦¶":3279,"Ġà¦ļà§ĩà¦¯à¦¼":3280,"à¦¸à¦¨":3281,"à¦²à§ĭà¦¡":3282,"Ġà¦ªà¦¦à§ĩ":3283,"Ġà¦¸à¦Ĥà¦¸à§įà¦¥à¦¾":3284,"Ġà¦¹à¦¾à¦°à¦¿à¦¯à¦¼à§ĩ":3285,"Ġà¦¶à¦¿à¦ķà§įà¦·à¦¾à¦°à§įà¦¥à§Ģ":3286,"Ġà¦¸à¦¹à¦ķà¦¾à¦°à§Ģ":3287,"Ġà¦Ľà§ĩà¦²":3288,"Ġà¦¶à¦¿à¦ķà§įà¦·à¦¾à¦°à§įà¦¥à§Ģà¦¦à§ĩà¦°":3289,"Ġà¦ªà¦¡à¦¼à§ĩà¦Ľà§ĩ":3290,"Ġà¦ªà§Įà¦ģà¦Ľ":3291,"Ġà¦ĸà¦¾à¦¦à§įà¦¯":3292,"Ġà¦ħà¦¨à§ģà¦°":3293,"Ġà¦Ĳà¦¤":3294,"Ġà¦¬à¦Ľà¦°à§ĩ":3295,"Ġà¦¦à§ģà¦ªà§ģà¦°à§ĩ":3296,"Ġà¦¬à¦¿à¦·à¦¯à¦¼à¦ķ":3297,"-à¦°":3298,"Ġà¦¸à¦¾à¦°à§įà¦Ń":3299,"Ġà¦¬à¦¹à§ģ":3300,"Ġà¦ªà§įà¦°à¦¤à¦¿à¦¦à¦¿à¦¨":3301,"Ġà¦ĵà¦¯à¦¼à¦¾à¦°à§įà¦¡":3302,"à¦°à¦¾à¦«":3303,"Ġà¦ĵà¦¯à¦¼à§ĩà¦¬à¦¸à¦¾à¦ĩà¦Ł":3304,"Ġà¦ªà¦°à¦¿à¦ļà¦¯à¦¼":3305,"Ġà¦¬à§įà¦¯à¦¾à¦ªà¦ķ":3306,"à§įà¦¯à¦¾à¦¨à§įà¦Ł":3307,"à¦¾à¦¹à¦¾à¦°":3308,"à§¨à§ª":3309,"ore":3310,"ess":3311,"à¦¾à¦¬à§ĩà¦¶":3312,"âĢľ":3313,"Ġà¦¸à¦Ńà¦¾à¦ªà¦¤":3314,"Ġà¦Ĺà¦°":3315,"Ġà§«à§¦":3316,"à§ģà¦ļ":3317,"Ġà¦¸à§įà¦¥à¦¾à¦¨à§ĩ":3318,"Ġà¦ĸà§ģà¦¬à¦ĩ":3319,"Ġà¦°à§ĩà¦²":3320,"Ġà§¨à§¬":3321,"Ġà¦ªà§ģà¦°à¦¸à§įà¦ķà¦¾à¦°":3322,"à¦¨à§įà¦Ł":3323,"à§ģà¦°à":3324,"à§ģà¦°à¦":3325,"à§ģà¦°à¦¾":3326,"Ġà¦Łà§įà¦°à¦¾à¦®à§įà¦ª":3327,"à¦¿à¦¯à¦¼à¦°":3328,"Ġ2019":3329,"Ġà¦ħà¦¶":3330,"à§§à§¬":3331,"Ġre":3332,"Ġà¦¶à¦¾à¦°":3333,"à¦¿à¦¤à¦¿à¦°":3334,"Ġà¦Ĺà¦¾à¦¡à¦¼à¦¿":3335,"ind":3336,"Ġ20":3337,"à¦ķà¦¿à¦Ľà§ģ":3338,"nd":3339,"Ġà¦®à§ģà¦ľà¦¿à¦¬":3340,"Ġà¦¬à§įà¦¯à¦¬à¦¸à¦¾à¦¯à¦¼à§Ģ":3341,"ww":3342,"à¦Ĺà¦¾à¦°":3343,"à¦Łà§ĩà¦°":3344,"Ġà¦¬à¦¯à¦¼à¦¸":3345,"Ġà¦¬à§ĩà¦¡à¦¼à§ĩ":3346,"Ġà¦¡à¦Ł":3347,"à¦¾à¦²à¦ķ":3348,"Ġà¦ľà§Ģà¦¬à¦¨à§ĩà¦°":3349,"op":3350,"Ġà¦®à§ĩà¦¯à¦¼à¦°":3351,"à¦°à¦¿à¦°":3352,"Ġà¦Ĩà¦°à§įà¦¥":3353,"Ġà¦¬à¦¿à¦¦à§įà¦¯à§ģà§İ":3354,"Ġà¦²à¦¿à¦®":3355,"um":3356,"Ġà¦ħà¦¬à¦¶à§įà¦¯à¦ĩ":3357,"Ġà¦ķà¦¾à¦®à¦¾à¦²":3358,"Ġà¦®à¦¸à¦ľà¦¿à¦¦":3359,"à¦¾à¦¹à¦¤":3360,"Ġà¦¬à¦¾à¦ļ":3361,"à§§à§©":3362,"à¦¾à¦ĩà¦Ń":3363,"à¦¿à¦²à§ĩ":3364,"à¦¬à¦¨":3365,"Ġà¦·":3366,"à¦¾à¦ĩà¦¡":3367,"Ġà¦Ĩà¦°à¦¬":3368,"Ġà¦¬à¦¾à¦Ļ":3369,"Ġà¦¬à§ĩà¦ģ":3370,"Ġà¦ķà§ģà¦®à¦¾à¦°":3371,"Ġà¦ľà¦¿à¦¯à¦¼à¦¾à¦°":3372,"Ġà¦ªà¦°à¦¿à¦ļà¦¾à¦²à¦¨à¦¾":3373,"à§¨à§«":3374,"Ġà¦¦à¦¿à¦²à§ĩà¦¨":3375,"à¦¾à¦¦à§Ģ":3376,"Ġà¦¢à¦¾à¦ķà¦¾à¦°":3377,"Ġà¦¸à§ĩà¦ĸà¦¾à¦¨":3378,"ber":3379,"Ġà¦¡à¦²à¦¾à¦°":3380,"à§įà¦Łà§įà¦°à§ĩà¦²":3381,"à¦¸à¦¿à¦Ĥà¦¹":3382,"à¦¾à¦¨à¦¿à¦ķ":3383,"à¦¤à¦¾à¦ĩ":3384,"à¦¿à¦ļà¦¾à¦°":3385,"Ġà¦Ĩà¦¸à¦¤à§ĩ":3386,"Ġà¦ħà¦Ĺà§įà¦°":3387,"à¦¾à¦§à¦¿à¦ķà¦¾à¦°":3388,"Ġà¦¶à¦¿à¦¬":3389,"Ġà¦Ńà¦¾à¦²à§ĭà¦¬à¦¾à¦¸":3390,"Ġà¦ıà¦¡":3391,"à§ĭà¦ªà¦¾à¦§":3392,"Ġà¦īà¦¨à§įà¦¨à¦¯à¦¼":3393,"Ġà¦ªà¦°à§Ģà¦ķà§įà¦·à¦¾à¦°":3394,"à¦¸à¦°à§įà¦¬":3395,"à¦¿à¦¸à¦Ĥ":3396,"à¦¿à¦¶à¦¨":3397,"icle":3398,"Ġà¦¬à¦°à§įà¦·":3399,"à§įà¦Ĺ":3400,"Ġà¦ªà§Ĥà¦°à§įà¦£":3401,"Ġà¦īà¦¦à§įà¦¬à§ĭà¦§à¦¨":3402,"ec":3403,"à§įà¦¯à¦®à¦¨à§įà¦¤à§įà¦°à§Ģ":3404,"Ġà¦®à¦¿à¦¯à¦¼à¦¾":3405,"Ġà¦¹à¦ĵà¦¯à¦¼à¦¾à¦¯à¦¼":3406,"Ġà¦°à¦¾à¦ĸà¦¾à¦°":3407,"à¦ļà¦¿à¦¤à§įà¦°":3408,"à¦¤à¦¾à¦¬":3409,"à¦¾à¦®à¦¤":3410,"à§ģà¦¯à¦¼à¦¾à¦°à§Ģ":3411,"ÙİØ§":3412,"Ġà¦¦à¦ĸ":3413,"à¦¾à¦¸à":3414,"à¦¾à¦¸à¦":3415,"à¦¾à¦¸à¦¾":3416,"Ġà¦¸à§įà¦¬à¦¾à¦Ńà¦¾à¦¬à¦¿à¦ķ":3417,"à¦«à§įà¦°":3418,"à§ģà¦°à§ĩà¦°":3419,"à¦¾à¦ªà¦¨à¦¾":3420,"Ġà¦ķà§įà¦·à¦¤":3421,"Ġà¦¸à§ģà¦¨":3422,"Ġà¦ħà¦¤à¦¿à¦¥à¦¿":3423,"Ġà¦®à§ĩà¦¡à¦¿à¦ķà§ĩà¦²":3424,"Ġà¦ªà§ĩà¦Ľ":3425,"à¦¬à¦¿à¦¨":3426,"Ġà¦¬à§įà¦¯à¦¾à¦Ĥà¦ķà§ĩà¦°":3427,"à¦¿à¦¶à¦¾à¦²":3428,"Ġà¦¶à¦¹à§Ģà¦¦":3429,"à¦ĺà¦¾à¦¤":3430,"Ġà¦ªà¦°à§įà¦¯à¦¾à¦¯à¦¼à§ĩ":3431,"à§ĭà¦¨à§ĭ":3432,"Ġà¦°à¦¾à¦®":3433,"Ġà¦Ńà§Ĥà¦®à¦¿à¦ķà":3434,"Ġà¦Ńà§Ĥà¦®à¦¿à¦ķà¦":3435,"Ġà¦Ńà§Ĥà¦®à¦¿à¦ķà¦¾":3436,"à¦¸à¦Ļà§įà¦Ĺ":3437,"Ġà¦ıà¦Ł":3438,"Ġà¦ªà§įà§°":3439,"Ġà¦ķà¦łà¦¿à¦¨":3440,"Ġà¦Łà§įà¦°à§ĩà¦¡":3441,"Ġà¦®à§ģà¦ķà§įà¦¤à¦¿à¦¯à§ĭ":3442,"à¦¨à¦¾à¦¥":3443,"Ġà¦¸à¦Ĥà¦ķà§įà¦°à¦¾à¦¨à§įà¦¤":3444,"Ġà¦Ĳà¦ķà§įà¦¯":3445,"revi":3446,"Ġà¦°à¦¾à¦ĸà§ĩà¦¨":3447,"Ġà¦ĵà¦ª":3448,"à§Ĥà¦¤":3449,"Ġà¦ªà§įà¦°à¦§à¦¾à¦¨à¦®à¦¨à§įà¦¤à§įà¦°à§Ģà¦°":3450,"ï¿":3451,"à¦Ļà§įà¦ĸ":3452,"Ġà¦ªà¦°à¦¿à¦¸à§įà¦¥à¦¿à¦¤à¦¿":3453,"Ġà¦¨à¦¿à¦¯à¦¼à§ĩà¦Ľà§ĩ":3454,"à¦¾à¦ļà§įà¦Ľà§ĩà¦¨":3455,"Ġà¦¬à¦¿à¦ķà§įà¦·à§ĭà¦Ń":3456,"ï¿½":3457,"à¦¸à¦¾à¦®":3458,"Ġà¦¬à§įà¦¯à¦¾à¦ªà¦¾à¦°":3459,"à¦¤à¦¾à¦®":3460,"à¦¾à¦ĩà¦ľ":3461,"Ġà¦ªà§įà¦°à¦¯à¦¼à§ĭà¦ľà¦¨à§Ģà¦¯à¦¼":3462,"à¦£à§įà¦ł":3463,"à¦¬à¦¨à§įà¦¦":3464,"Ġà§·":3465,"à§ģà¦²à¦¿":3466,"à§§à§ª":3467,"18":3468,"Ġà¦ªà§Įà¦°":3469,"Ġà¦ľà¦¾à¦¯à¦¼à¦Ĺà¦¾à¦¯à¦¼":3470,"Ġà¦°à¦¾à¦ľà¦¨à§Ģà¦¤":3471,"Ġà¦¸à¦®à§įà¦®à¦¾à¦¨":3472,"Ġà¦ĩà¦¤à§įà¦¯à¦¾à¦¦à¦¿":3473,"à¦Ĩà¦ªà¦¨à¦¾à¦°":3474,"Ġà¦īà§İà¦¸à¦¬":3475,"§·":3476,"Ġà¦¦à§ĩà¦¬à§ĩ":3477,"Ġà¦¨à¦¿à¦ľà§ĩà¦ķà§ĩ":3478,"à§įà¦¯à¦¾à¦£":3479,"Ġà¦ĸà¦°à¦ļ":3480,"à§ĩà¦ķà¦°à§įà¦¡":3481,"à¦¹à¦¤à§įà¦¯":3482,"Ġà¦ļà¦¾à¦·":3483,"Ġà¦Ĩà¦¹à§įà¦¬à¦¾à¦¨":3484,"Ġà¦¶à¦¾à¦¸à§įà¦¤":3485,"Ġà¦¸à§Ĥà¦¤à§įà¦°à§ĩ":3486,"Ġà¦¹à¦¾à¦ģ":3487,"à¦¨à¦¿à¦°à§įà¦¬":3488,"Ġà¦ķà¦Ĥ":3489,"Ġà¦§à¦¾à¦°à¦£à":3490,"Ġà¦§à¦¾à¦°à¦£à¦":3491,"Ġà¦§à¦¾à¦°à¦£à¦¾":3492,"ine":3493,"Ġà¦¬à§ģà¦Ŀà¦¤à§ĩ":3494,"à¦Ĩà¦¨":3495,"Ġà¦ķà§ĩà¦¬à¦²":3496,"Ġ6":3497,"Ġà¦¨à¦¿à¦¯à¦¼à¦®à¦¿à¦¤":3498,"Ġfor":3499,"à¦¨à§įà¦¯à¦¬à¦¾à¦¦":3500,"revious":3501,"ÙĴØ":3502,"Ġà¦ķà¦¾à¦īà¦¨à§įà¦¸":3503,"à¦¬à¦Ļà§įà¦Ĺ":3504,"Ġà¦ļà¦¾à¦ģà¦¦":3505,"Ġà¦Ŀà§ģà¦ģ":3506,"à§Įà¦¶à¦²":3507,"Ġà¦®à¦¯à¦¼":3508,"Ġà¦Ĺà§įà¦°à¦¾à¦®à§ĩ":3509,"Ġà¦¶à§įà¦°à§Ģ":3510,"à¦ıà¦«":3511,"Ġà¦ªà§įà¦°à¦¤à¦¿à¦°à§ĭà¦§":3512,"Ġà¦ªà¦¡à¦¼à¦¤à§ĩ":3513,"esh":3514,"à¦¿à¦Łà§ĩà¦¡":3515,"Ġà¦ªà¦¤":3516,"à§ĥà¦¦à§įà¦§":3517,"Ġà¦¸à¦®à¦¸à§įà¦¤":3518,"à¦¾à¦¤à§įà¦®":3519,"Ġà¦ĩà¦Ĥà¦°":3520,"Ġà¦¯à¦¦à¦¿à¦ĵ":3521,"Ġà¦ªà¦°à¦¿à¦·à¦¦":3522,"à¦¿à¦ķà§ĩà¦°":3523,"Ġà¦¨à¦¿à¦°à§įà¦¬à¦¾à¦ļà¦¿à¦¤":3524,"Ġà¦¸à¦Ĥà¦ĺà¦°à§įà¦·":3525,"à¦Ĺà§įà¦°à§ĩà¦¸":3526,"à¦¿à¦¯à¦¼à§ĩà¦°":3527,"à¦®à§ĩà¦°":3528,"Ġà§¨à§Ń":3529,"à¦īà¦ª":3530,"Ġà¦ĸà¦¾à¦°à¦¾à¦ª":3531,"à§Īà¦§":3532,"Ġà§¨à§®":3533,"Ġà¦ħà¦¨à§ĩà¦ķà§ĩà¦ĩ":3534,"Ġà¦¸à¦¨à§įà¦¦":3535,"Ġà¦°à¦¾à¦ľà§įà¦¯":3536,"Ġà¦ķà§ĭà¦ļ":3537,"à¦¨à¦¾à¦®":3538,"à¦¿à¦īà¦¡":3539,"Ġà¦ªà¦°à¦¿à¦£":3540,"à¦¸à¦¿à¦°":3541,"Ġà¦ªà¦¡à¦¼à":3542,"Ġà¦ªà¦¡à¦¼à¦":3543,"Ġà¦ªà¦¡à¦¼à¦¾":3544,"Ġà¦°à¦¾à¦ľà¦§à¦¾à¦¨à§Ģà¦°":3545,"à¦¬à¦¿à¦¤à§įà¦°":3546,"à¦¾à¦Ĺà§ģà¦²à§ĭ":3547,"Ġà¦ªà§įà¦°à¦¯à¦¼":3548,"à¦¤à§Ģ":3549,"Ġà¦Ľà¦¡à¦¼à¦¿à¦¯à¦¼à§ĩ":3550,"à§ģà¦¨à":3551,"à§ģà¦¨à¦":3552,"à§ģà¦¨à¦¾":3553,"Ġà¦®à¦¿":3554,"à§įà¦²à¦¾à¦®":3555,"Ġà¦¦à¦²à§Ģà¦¯à¦¼":3556,"à§ģà¦¡":3557,"Ġà¦¬à§Īà¦¶":3558,"Ġà¦ħà¦¬à§įà¦¯":3559,"Ġà¦°à§ĭà¦¬à¦¬à¦¾à¦°":3560,"Ġà¦¬à¦¾à¦¹":3561,"Ġà¦ªà¦¾à¦¬à§ĩà¦¨":3562,"Ġ//":3563,"Ġà¦ļà¦¿à¦¨à§įà¦¤à":3564,"Ġà¦ļà¦¿à¦¨à§įà¦¤à¦":3565,"Ġà¦ļà¦¿à¦¨à§įà¦¤à¦¾":3566,"à§ĩà¦Ľà¦¿à¦²à¦¾à¦®":3567,"Ġà¦ľà¦¡à¦¼à¦¿à¦¤":3568,"à¦¾à¦ķà¦°à§įà¦®":3569,"ÙİÙĳ":3570,"Ġà¦ķà¦ķà§įà¦¸à¦¬à¦¾à¦ľà¦¾à¦°":3571,"Ġà¦ħà¦°à§įà¦¥à¦¾à§İ":3572,"Ġà¦¨à¦¿à¦ī":3573,"Ġà¦ļà¦¾à¦ĩà¦²à§ĩ":3574,"Ġà¦ħà¦Ńà¦¿à¦¨à¦¯à¦¼":3575,"à¦¾à¦¨à§įà¦¦":3576,"Ġà¦ķà§įà¦·à¦®à¦¤à¦¾":3577,"à¦ªà§įà¦°à¦¥à¦®":3578,"Ġà¦¸à¦Ńà¦¾à¦ªà¦¤à¦¿à¦¤à§įà¦¬":3579,"à§ĭà¦¡à¦¼":3580,"Ġà¦¬à¦¾à¦ģà¦ļ":3581,"à¦Ĺà¦£":3582,"à§ĥà¦¦":3583,"Ġà¦°à¦¸":3584,"Ġà¦¬à¦¿à¦ľà§įà¦ŀà¦ªà§įà¦¤":3585,"à¦¾à¦¬à§įà¦¦":3586,"Ġà¦ªà§Ĥà¦°à§įà¦¬à¦¾à¦¹":3587,"Ġà¦Ĩà¦¬à§ģà¦²":3588,"Ġà¦ªà¦¾à¦łà¦¾à¦¨à§ĭ":3589,"à¦¿à¦ķà§įà¦¸":3590,"Ġà¦«à§ģà¦Łà¦¬à¦²":3591,"à¦¾à¦²à§ĩà¦¨":3592,"à§ģà¦²à§įà¦²à¦¾à¦¹":3593,"Ġà¦¸à§ģà¦¬à¦¿à¦§à":3594,"Ġà¦¸à§ģà¦¬à¦¿à¦§à¦":3595,"Ġà¦¸à§ģà¦¬à¦¿à¦§à¦¾":3596,"à§ģà¦¨à¦¿à¦ķ":3597,"Ġà¦ªà§įà¦°à¦¸à§įà¦¤à§ģà¦¤":3598,"eng":3599,"Ġà¦ķà¦·à§įà¦Ł":3600,"Ġà¦ĩà¦°":3601,"Ġà¦¤à¦¾à¦²à¦¿à¦ķà¦¾":3602,"à¦¹à§Ģà¦¨":3603,"à¦¿à¦Łà¦¾à¦²":3604,"à§ĭà¦ķà§įà¦¤":3605,"Ġà¦¬à¦²à¦Ľà§ĩà¦¨":3606,"Ġà¦¸à§Ģà¦®à¦¾à¦¨à§įà¦¤":3607,"Ġà¦Ńà¦¾à¦Ļ":3608,"ve":3609,"Ġà¦ļà§Ģ":3610,"à¦¸à¦¾à¦¨":3611,"ist":3612,"à¦łà¦¾à§İ":3613,"Ġà¦®à¦¾à¦¥à¦¾à¦¯à¦¼":3614,"Ġà¦ķà¦®à¦¿à¦¶à¦¨":3615,"Ġà¦ıà¦ķà¦¾à¦§à¦¿à¦ķ":3616,"Ġà¦²à¦¡à¦¼à¦¾à¦ĩ":3617,"Ġà¦®à¦¿à¦¥":3618,"Ġà¦ıà¦ķà¦¬à¦¾à¦°":3619,"Ġà¦¤à§ĩà¦®à¦¨":3620,"10":3621,"Ġ?":3622,"à¦ªà¦¾à¦¶":3623,"Ġà¦Ńà¦¾à¦·à":3624,"Ġà¦Ńà¦¾à¦·à¦":3625,"Ġà¦Ńà¦¾à¦·à¦¾":3626,"Ġà¦ľà§ĩà¦¨à¦¾à¦°":3627,"à¦®à¦¨à¦¸à¦¿à¦Ĥà¦¹":3628,"Ġà¦¬à¦¿à¦¶à¦¾à¦²":3629,"Ġà¦®à¦¨à§įà¦¦":3630,"are":3631,"Ġà¦Ńà¦¬à¦¿à¦·à§įà¦¯":3632,"Ġà¦īà¦ĩà¦ķà§ĩà¦Ł":3633,"Ġà¦®à§ĥà¦¤à§įà¦¯à§ģà¦°":3634,"Ġà¦¦à§ģà¦ĥ":3635,"à¦Ĩà¦®à¦°à¦¾":3636,"Ġà¦²à¦¿à¦®à¦¿à¦Łà§ĩà¦¡":3637,"-à§¨":3638,"à¦¬à¦¾à¦¹":3639,"Ġà¦°à§ĩà¦ķà¦°à§įà¦¡":3640,"à¦¾à¦¸à¦°à¦¿":3641,"Ġà¦°à¦¯à¦¼à§ĩà¦Ľà§ĩà¦¨":3642,"à§ĩà¦¡à¦¼":3643,"à¦¬à§Ģ":3644,"Ġà¦®à§ĩà¦¨à§ĩ":3645,"Ġà¦¹à¦¤à§įà¦¯à¦¾à¦°":3646,"Ġà¦ĩà¦ļà§įà¦Ľ":3647,"Ġà¦ªà§ĭà¦¶":3648,"à¦¾à¦ªà§Ģ":3649,"Ġà¦īà¦łà§ĩà¦Ľà§ĩ":3650,"Ġà¦ķà¦¿à¦¨à¦¾":3651,"Ġà¦Ĩà¦ĩà¦¨à¦ľà§Ģà¦¬":3652,"Ġà¦°à¦¬à¦¿à¦¬à¦¾à¦°":3653,"Ġà¦¤à§ĩà¦²":3654,"Ġà¦īà¦ªà¦¾à¦¯à¦¼":3655,"à¦¬à¦Ľ":3656,"Next":3657,"Ġà¦ħà¦§à¦¿à¦¦":3658,"Ġà¦Ĩà¦ĵ":3659,"Ġà¦Ĺà¦°à¦®":3660,"Ġà¦ħà¦Ńà¦¿à¦ľà§įà¦ŀ":3661,"à¦¬à¦°à¦¾à¦¹":3662,"Ġà¦ķà§ĩà¦®à¦¨":3663,"Ġà¦¸à¦¹à¦¾à¦¯à¦¼à¦¤à¦¾":3664,"Ġà¦®à¦¾à¦ĩ":3665,"à¦ļà¦¿à¦¬":3666,"Ġà¦¬à¦¾à¦§à§įà¦¯":3667,"Ġà¦¬à¦¾à¦¡à¦¼à¦¿à¦°":3668,"à¦¿à¦¦à§įà¦°":3669,"Ġà¦¬à¦¿à¦°à§ĭà¦§à§Ģ":3670,"à¦ķà¦¬":3671,"Ġà¦¬à¦¾à¦ļà§įà¦ļ":3672,"à¦¾à¦¦à¦¶":3673,"Ġà¦«à¦¾à¦ĩà¦¨":3674,"Ġà¦¨à¦¾à¦ľ":3675,"à§ĥà¦£à¦®à§Ĥà¦²":3676,"od":3677,"à§ģà¦ķà§ģ":3678,"Ġà¦ľà¦®à¦¾":3679,"Ġis":3680,"Ġà¦ľà¦¾à¦¯à¦¼à¦Ĺà":3681,"Ġà¦ľà¦¾à¦¯à¦¼à¦Ĺà¦":3682,"Ġà¦ľà¦¾à¦¯à¦¼à¦Ĺà¦¾":3683,"Ġà¦ªà¦ŀà§įà¦ļ":3684,"Ġà¦ħà¦ªà¦°à¦¾à¦¹à§įà¦£":3685,"Ġà¦Ĩà¦ģ":3686,"Ġà¦ħà¦°à§įà¦ľà¦¨":3687,"Ġà¦¹à¦¾à¦®à¦²à¦¾à¦°":3688,"Ġà¦¬à¦²à¦²":3689,"à§ĭà¦·à§įà¦ł":3690,"à¦ıà¦¦à¦¿à¦ķà§ĩ":3691,"Ġà¦ķà§ĥà¦·à¦¿":3692,"Ġà¦ħà¦Ĥà¦¶à¦Ĺà§įà¦°à¦¹à¦£":3693,"Ġà¦Ĩà¦Ĺà§įà¦°à¦¹":3694,"Ġà¦ªà§įà¦°à¦¬à¦¾à¦¸":3695,"Ġà¦ħà¦Ńà¦¿à¦¯à§ĭà¦Ĺà§ĩ":3696,"Ġà¦ľà§ĩà¦²":3697,"Previous":3698,"Ġ10":3699,"à¦¿à¦®à":3700,"à¦¿à¦®à¦":3701,"à¦¿à¦®à¦¾":3702,"Ġà¦¸à¦®à¦¾à¦¬à§ĩà¦¶":3703,"Ġà¦¹à§ĩà¦²":3704,"à¦¨à¦¿à¦īà¦ľ":3705,"à¦¿à¦¡à¦¼":3706,"Ġà¦ļà¦°à¦¿à¦¤à§įà¦°":3707,"Ġà¦¸à¦®à§įà¦®à§ĩà¦²à¦¨à§ĩ":3708,"à§ĩà¦¨à§įà¦¦":3709,"Ġà¦Ĺà¦Ńà§Ģà¦°":3710,"à¦Ľà¦¾à¦¤à§įà¦°":3711,"à¦°à§įà¦Ńà¦°":3712,"à¦¸à¦Ńà":3713,"à¦¸à¦Ńà¦":3714,"à¦¸à¦Ńà¦¾":3715,"Ġà¦¥à¦¾à¦¨à¦¾":3716,"Ġà¦¬à§įà¦¯à¦¬à¦¸à¦¾":3717,"Ġà¦¹à¦¸à§įà¦¤":3718,"à¦¾à¦Łà¦¿à¦°":3719,"Ġà¦ķà¦¿à¦Ľà§ģà¦ĩ":3720,"Ġà¦ıà¦®à¦¨à¦ķà¦¿":3721,"Ġà¦Ĩà¦ķà¦¾à¦¶":3722,"Ġà¦ľà§ĭà¦Ł":3723,"à¦ķà§įà¦²":3724,"à¦¬à¦¾à¦°à§ĩà¦°":3725,"Ġà¦¨à§ĩà¦®à§ĩ":3726,"Ġà¦Ĩà¦¸à¦¾à¦°":3727,"à¦ķà¦°à¦£":3728,"à¦¶à¦¾à¦¹":3729,"à¦¿à¦¸à§ĩà¦°":3730,"Ġà¦¬à¦¾à¦°à§įà¦¤à¦¾":3731,"à¦ķà§ģà¦®":3732,"à¦¾à¦¤à¦¿":3733,"Ġà¦¬à§ĭà¦¨":3734,"Ġà¦¸à¦®à§įà¦ªà¦¨à§įà¦¨":3735,"Ġà¦ªà§įà¦°à¦¶à¦¾à¦¸à¦¨":3736,"Ġà¦ħà¦ªà¦¾à¦°":3737,"à§ĥà¦Ļà§įà¦ĸ":3738,"Ġà¦Ńà¦¿à¦¨à§įà¦¨":3739,"Ġà¦Ĩà¦²à§įà¦²à¦¾à¦¹à¦°":3740,"à§ĩà¦Łà":3741,"à§ĩà¦Łà¦":3742,"à§ĩà¦Łà¦¾":3743,"Ġà¦ļà¦¿à¦ł":3744,"à¦¿à¦Ńà¦¿":3745,"Ġà§¨à§¦à§§à§«":3746,"Ġà¦¸à§Įà¦¦à¦¿":3747,"Ġà¦ľà¦¬":3748,"Ġà¦ľà¦¾à¦¤à¦¿à¦°":3749,"à¦¾à¦¦à§įà¦¦":3750,"Ġà¦®à¦¿à¦¡à¦¿à¦¯à¦¼à¦¾":3751,"Ġà¦¤à¦¿à¦¨à¦Łà¦¿":3752,"Ġà¦¹à§ĭà¦Ł":3753,"à¦²à¦¿à¦ķ":3754,"Ġà¦²à¦¾à¦Ĺà§ĩ":3755,"Ġà¦®à¦¾à¦¦à§įà¦°":3756,"Ġà¦ħà¦ªà¦°à¦¾à¦¹à§įà¦¨":3757,"Ġà¦¬à§ĩà¦¸à¦°":3758,"Ġà¦ªà¦°à¦¿à¦ļà¦¿à¦¤":3759,"Ġà¦²à¦¿à¦ĸà§ĩà¦Ľà§ĩà¦¨":3760,"Ġà¦ħà¦¸à§įà¦¬":3761,"Ġà¦ļà¦¾à¦®":3762,"Ġà¦Ĩà¦ī":3763,"Ġà¦¸à¦®à§įà¦ªà§įà¦°à¦¤à¦¿":3764,"Ġà¦ħà¦¬à§Īà¦§":3765,"Ġà¦ķà¦¾à¦°à§įà¦¯à¦ķà¦°":3766,"Ġà¦¸à¦°à¦¬à¦°à¦¾à¦¹":3767,"à¦¦à¦¿à¦¨à§ĩà¦°":3768,"Ġà¦ķà¦°à§ĭà¦¨":3769,"à¦ķà¦¾à¦²à§Ģà¦¨":3770,"à¦Ĥà¦ĸ":3771,"Ġà¦¶à¦¿à¦ĸ":3772,"Ġà¦Ľà§ģà¦Ł":3773,"Ġst":3774,"Ġà¦ķà§ĭà¦¥à¦¾à¦¯à¦¼":3775,"Ġà¦¦à§ĩà¦ĸà§ģà¦¨":3776,"à¦°à§įà¦ļ":3777,"à¦¦à":3778,"Ġà¦Ĩà¦ĩà¦¸":3779,"à¦¦à¦":3780,"à¦¦à¦¾":3781,"à¦Ĺà¦¾à¦¨":3782,"Ġà¦®à§ĩà¦Ł":3783,"à¦¿à¦®à§ĩà¦°":3784,"Ġà¦§à§įà¦¬":3785,"à§įà¦¯à§ģà¦¤":3786,"Ġà¦¸à¦¤à¦°à§įà¦ķ":3787,"à¦¾à¦¹à¦¿à¦¨à§Ģ":3788,"Ġà¦ªà¦¦à¦ķà§įà¦·à§ĩà¦ª":3789,"à¦¨à§įà¦¯à":3790,"à¦¨à§įà¦¯à¦":3791,"à¦¨à§įà¦¯à¦¾":3792,"Ġà¦ªà¦°à¦¿à¦¦":3793,"Ġà¦ķà¦¿à¦²":3794,"Ġà¦¯à¦¾à¦ĩ":3795,"à¦¤à§įà¦¤à¦¿":3796,"article":3797,"à§ĩà¦ĩà¦¨":3798,"Ġà¦¥à¦¾à¦ķà¦¾à¦¯à¦¼":3799,"Ġà¦ħà¦§à¦¿à¦¨":3800,"à¦ķà¦¾à¦°à§ĩ":3801,"Ġà¦¬à§įà¦°à¦¿à¦Ł":3802,"à¦¨à§įà¦¬":3803,"Ġà¦®à¦¡à§ĩà¦²":3804,"Ġà¦ĩà¦¨à§įà¦Łà¦¾à¦°à¦¨":3805,"Ġà¦ķà¦Ĥà¦Ĺà§įà¦°à§ĩà¦¸":3806,"à¦«à¦¤":3807,"Ġà¦ħà¦¨à§įà¦¤à¦¤":3808,"Ġà¦ªà§ĩà¦¯à¦¼à§ĩà¦Ľà§ĩ":3809,"Ġà¦¹à¦¤à§ĭ":3810,"Ġà¦ªà§įà¦°à¦ľ":3811,"à¦¾à¦¤à¦¾à¦¯à¦¼":3812,"Ġà¦ķà¦°à¦²":3813,"Ġà¦¨à§ĩà¦¤à§ĥà¦¤à§įà¦¬à§ĩ":3814,"Ġà¦Ĺà¦¿à¦¯à¦¼à§ĩà¦Ľà§ĩ":3815,"Ġà¦ľà¦¾à¦ª":3816,"ĠâĢ¦":3817,"à¦¾à¦Ĺà¦°":3818,"Ġà¦Ĺà§ĩà¦Ľà§ĩà¦¨":3819,"Ġà§¨à§¯":3820,"eb":3821,"Ġà¦ªà¦¡à¦¼à§ģà¦¨":3822,"Ġà¦ķà¦²à§ĩà¦ľà§ĩà¦°":3823,"à¦ķà§įà¦·à¦¿à¦¤":3824,"à§©à§¦":3825,"Ġà¦Ĩà¦¦à§ĩà¦¶":3826,"à¦¾à¦¯à¦¼à¦¾à¦°":3827,"Ġà¦¦à¦¿à¦ļà§įà¦Ľà§ĩ":3828,"à§ĩà¦¨à":3829,"à§ĩà¦¨à¦":3830,"à§ĩà¦¨à¦¾":3831,"se":3832,"à¦¨à¦¿à¦°":3833,"Ġà¤":3834,"Ġà¦®à¦¹à¦¾à¦¨à¦Ĺà¦°":3835,"Ġà¦ªà¦°à¦¬à¦°à§įà¦¤à§Ģ":3836,"Ġà¦¦à§Īà¦¨à¦¿à¦ķ":3837,"Ġà¦¸à¦°à¦¾à¦¸à¦°à¦¿":3838,"Ġà¦ķà¦¾à¦²à§ĭ":3839,"Ġà¦ĸà§ģà¦ģà¦ľà§ĩ":3840,"Ġà¦Ĩà¦°à§įà¦¥à¦¿à¦ķ":3841,"Ġà¦ķà¦°à¦¬":3842,"à¦¿à¦ªà§įà¦°":3843,"à¦¾à¦§à¦¾à¦°à¦£":3844,"Ġà¦Ńà§ĩà¦Ļ":3845,"Ġà¦Ľà¦¿à¦²à§ĭ":3846,"Ġà¦¬à¦°à¦Ĥ":3847,"Ġà¦Īà¦¦":3848,"Ġà¦ķà¦°à§įà¦¤à§ĥà¦ķ":3849,"Ġà¦¦à¦¾à¦¬à¦¿à¦¤à§ĩ":3850,"Ġà¦®à§ĩà¦¹":3851,"Ġà¦¨à¦¦à§Ģ":3852,"Ġà¦¬à¦¾à¦ģà¦§":3853,"Ġà¦¸à¦®à¦¾à¦²à§ĭ":3854,"Ġà¦¨à§ĩà¦¤à¦¾à¦ķà¦°à§įà¦®":3855,"Ġà¦¦à§ģà¦°à§įà¦¬":3856,"Ġà¦¡à":3857,"Ġà¦¡à¦":3858,"Ġà¦®à¦¾à¦¯à¦¼à§ĩà¦°":3859,"Ġà¦¡à¦¾":3860,"à¦¾à¦ľà§ĩà¦°":3861,"Ġà¦ķà¦¿à¦Ľà§ģà¦Łà¦¾":3862,"à¦ķà¦¾à¦°à§Ģà¦¦à§ĩà¦°":3863,"Ġà¦¸à§ĭà¦¹":3864,"Ġà¦ªà":3865,"Ġà¦¸à§ĩà¦ķ":3866,"Ġà¦ªà§įà¦°à¦ķà§ĥà¦¤":3867,"Ġà¦ķà¦¬à¦¿à¦°":3868,"ip":3869,"Ġà¦ķà¦®à¦¿à¦¶à¦¨à¦¾à¦°":3870,"à¦¬à¦¿à¦ľà§įà¦ŀà¦¾à¦¨":3871,"Ġà¦ªà¦":3872,"Ġà¦ªà¦¾":3873,"Ġà¦īà¦¦à§įà¦¯à§ĭà¦Ĺà§ĩ":3874,"à§ĩà¦¤à§įà¦°à§Ģ":3875,"à§ĩà¦Ńà¦¾à¦¬à§ĩ":3876,"Ġà¦Ĩà¦²à¦¾à¦¦à¦¾":3877,"Ġà¦ķà¦¾à¦ł":3878,"Ġà¦¦à¦¾à¦¯à¦¼à§ĩà¦°":3879,"Ġà¦ħà¦Ļà§įà¦Ĺ":3880,"à¦¤à§ģ":3881,"à¦¾à¦ķà§įà¦ķ":3882,"ÙĪ":3883,"à§įà¦¬à¦²":3884,"Ġà¦®à¦¾à¦¨à§ĩ":3885,"à¦Ĺà§ģà¦²à§ĭà¦¤à§ĩ":3886,"Ġà¦¢à¦¾à¦ķà¦¾à¦¯à¦¼":3887,"Ġà¦Ĺà§ģà¦²à¦¿":3888,"Ġà¦¬à¦¿à¦¬à§ĩà¦ļ":3889,"Ġà¦§à¦¨à§įà¦¯à¦¬à¦¾à¦¦":3890,"à¦Ĺà¦¾à¦ģà¦ĵ":3891,"Ġà¦¸à§įà¦¬à§Ģà¦ķà¦¾à¦°":3892,"Ġà¦ħà¦¸à§įà¦Łà§įà¦°à§ĩà¦²":3893,"Ġà¦²à§ĩà¦¨":3894,"ember":3895,"à§ĩà¦·à§įà¦ł":3896,"à¦Ĺà¦ŀà§įà¦ľà§ĩ":3897,"Ġà¦®à¦¿à¦Ľ":3898,"Ġà¦Ĺà§ģà¦£":3899,"à¦¾à¦ĵà¦²":3900,"à¦«à§ģà¦²":3901,"Ġà¦¸à¦¾à¦¹à¦¿à¦¤à§įà¦¯":3902,"Ġà¦¹à¦¾à¦¸à¦ªà¦¾à¦¤à¦¾à¦²":3903,"Ġà¦ħà¦ľ":3904,"Ġà¦¨à§įà¦¯":3905,"Ġà¦ªà¦¿à¦ıà¦®":3906,"Ġà¦ıà¦ĩà¦ļ":3907,"à§įà¦¶":3908,"Ġà¦Ľà¦¬à¦¿à¦°":3909,"Ġà¦ĵà¦łà§ĩ":3910,"Ġà¦ªà§įà¦°à¦¸à§įà¦¤à§ģà¦¤à¦¿":3911,"-à¦ı":3912,"Ġà¦Ĩà¦¸à¦¬à§ĩ":3913,"ah":3914,"Ġà¦¨à§Ģà¦¤":3915,"Ġà¦°à¦®":3916,"Ġà¦ľà¦¿à¦¯à¦¼à¦¾":3917,"Ġà¦ķà¦¾à¦¶":3918,"Ġà¦¸à¦®à§įà¦®à§ĩà¦²à¦¨":3919,"à¦Ľà¦²":3920,"à¦ľà¦¨à¦ķ":3921,"Ġà¦Łà":3922,"Ġà¦Łà¦":3923,"Ġà¦Łà¦¾":3924,"Ġà¦°à¦ķà§įà¦·à":3925,"Ġà¦°à¦ķà§įà¦·à¦":3926,"Ġà¦°à¦ķà§įà¦·à¦¾":3927,"Ġà¦¸à§Īà¦¯à¦¼à¦¦":3928,"à¦¿à¦¨à§Ģ":3929,"Ġà¦ķà¦¾à¦ģ":3930,"-à§¨à§¦à§§à§":3931,"Ġà¦Ľà¦¾à¦¤à§įà¦°à¦²à§Ģà¦Ĺà§ĩà¦°":3932,"Ġà¦Ĩà¦ļ":3933,"Ġà¦®à¦¾à¦¥à":3934,"Ġà¦®à¦¾à¦¥à¦":3935,"Ġà¦®à¦¾à¦¥à¦¾":3936,"à¦¾à¦¤à§ĩà¦ĩ":3937,"Ġà¦®à¦¾à¦¤":3938,"Ġà¦ļà§ģà¦²":3939,"à¦ķà§ĭ":3940,"Ġà¦¬à§Īà¦łà¦ķ":3941,"à§Ģà¦Ĺà¦ŀà§įà¦ľ":3942,"à¦ķà¦¾à¦¬":3943,"Ġà¦¸à¦ļà§ĩà¦¤à¦¨":3944,"à¦ķà§įà¦°à¦®à¦£":3945,"Ġà¦ħà§įà¦¯à¦¾à¦¡":3946,"à§įà¦¨à":3947,"à§įà¦¨à¦":3948,"à§įà¦¨à¦¾":3949,"Ġà¦¬à¦¿à¦ķà¦²à§įà¦ª":3950,"Ġà¦¨à¦¾à¦¸":3951,"Ġà¦¸à§ĩà¦Ĺ":3952,"Ġà¦°à¦¹à¦®à¦¾à¦¨à§ĩà¦°":3953,"à¦®à¦¾à¦¨à§ĩà¦°":3954,"Ġà¦ļà¦²à¦¾à¦ļ":3955,"Ġà¦¶à¦ķà§įà¦¤à¦¿":3956,"Ġà¦¬à§įà¦²à¦Ĺ":3957,"Ġà¦²à§ĩà¦Ĺ":3958,"à§Ĥà¦¡à¦¼":3959,"Ġà¦¤à§ĥà¦£à¦®à§Ĥà¦²":3960,"à¦Ńà¦¾à¦¬à§ĩà¦ĩ":3961,"Ġà¦®à§ĩà¦¸":3962,"Ġà¦°à¦Ļ":3963,"Ġà¦ªà¦°à¦¿à¦¶":3964,"à¦¾à¦¡à¦¼à¦¾à¦ĵ":3965,"Ġà¦ľà¦¨à§įà¦¯à§ĩ":3966,"Ġ7":3967,"Ġà¦¥à¦¾à¦ķà¦²à§ĩà¦ĵ":3968,"Ġà¦ļà§ĭà¦ĸà§ĩ":3969,"Ġà¦¨à§ģà¦°":3970,"Ġà¦ľà¦¾à¦¨à¦¿":3971,"Ġà¦®à¦¾à¦¨à§ģà¦·à¦ķà§ĩ":3972,"Ġà¦ªà§ĭà¦¶à¦¾à¦ķ":3973,"Ġà¦®à¦¿à¦¯à¦¼à¦¾à¦¨":3974,"ith":3975,"Ġà¦®à¦§à§įà¦¯à§ĩà¦ĩ":3976,"à¦®à§ģà¦ķà§įà¦¤":3977,"à¦¿à¦Ĥà¦¯à¦¼à§ĩà¦°":3978,"Ġà¦ĭà¦£":3979,"à¦¦à§ĩà¦¶à§ĩà¦°":3980,"11":3981,"à§įà¦¬à¦¿à¦ķ":3982,"Ġ!":3983,"Ġà§°":3984,"Ġà¦ļà¦®":3985,"Ġà¦ķà§ģ":3986,"Ġà¦Ĩà¦ªà¦¨à¦¾à¦¦à§ĩà¦°":3987,"Ġà¦ªà§įà¦°à¦¤à§įà¦¯à§ĩà¦ķ":3988,"Ġà¦¹à¦łà¦¾à§İ":3989,"Ġà¦ªà§įà¦°à¦¿à¦¨":3990,"Ġà¦ĩà¦īà¦°à§ĭà¦ª":3991,"à¦ľà¦²":3992,"omment":3993,"Ġà¦Ĺà§ģ":3994,"Ġà¦¸à¦®à¦¨à§įà¦¬":3995,"Ġà¦ķà¦¾à¦°à¦¾à¦Ĺ":3996,"Ġà¦ľà¦¾à¦²":3997,"Ġà¦ħà¦¨à§ĩà¦ķà§ĩ":3998,"Ġà¦®à¦¤à§ĩ":3999,"Ġà¦ħà¦¨à§ģà¦®à¦¤à¦¿":4000,"25":4001,"Ġr":4002,"Ġà¦¸à¦¾à¦Ĥà¦¬à¦¾à¦¦à¦¿à¦ķà¦¦à§ĩà¦°":4003,"Ġà¦ķà¦®à§ĩ":4004,"Ġà¦ªà¦¾à¦ķà¦¿à¦¸à§įà¦¤à¦¾à¦¨à§ĩà¦°":4005,"à§ģà¦¤à§ĩ":4006,"à¦¬à§įà¦¯à¦¾à¦ªà§Ģ":4007,"Ġà¦īà¦¨à§įà¦¨à¦¤":4008,"Ġ2017":4009,"Ġà¦¦à¦¿à¦²à§ĩ":4010,"Ġà¦°à¦¾à¦ľà¦¨à§Ģà¦¤à¦¿":4011,"Ġà§ªà§¦":4012,"Ġà¦®à§ģà¦¹à§Ĥà¦°à§įà¦¤":4013,"à¦¾à¦īà¦¨à¦²à§ĭà¦¡":4014,"Ġà¦Ńà¦°":4015,"Ġà¦¦à§ĩà¦¹":4016,"à¦¦à¦¾à¦¯à¦¼":4017,"Ġà¦Ĩà¦ĸ":4018,"à§ĭà¦ªà¦¾à¦§à§įà¦¯à¦¾à¦¯à¦¼":4019,"Ġà¦ıà¦ķà¦®à¦¾à¦¤à§įà¦°":4020,"Ġà¦¸à§įà¦¬à¦¾à¦§à§Ģà¦¨à¦¤à¦¾":4021,"Ġà¦¬à¦¾à¦ķà¦¿":4022,"Ġà¦¯à¦¾à¦¯à¦¼à¦¨à¦¿":4023,"Ġà¦¤à¦¾à¦®":4024,"Ġà¦ķà¦°à§ĩà¦ĩ":4025,"à§ĭà¦¨à¦¾à¦²":4026,"Ġà¦¦à¦²à§ĩ":4027,"Ġà¦®à§ĩà¦":4028,"Ġà¦¬à§įà¦¯à¦ķà§įà¦¤à¦¿à¦Ĺà¦¤":4029,"à¦¸à§ģà¦®":4030,"Ġà¦¬à¦¾à¦¹à¦¿à¦¨à§Ģà¦°":4031,"Ġà¦ħà¦¥à¦ļ":4032,"à¦¾à¦Ĺà¦ľ":4033,"Ġà¦¸à§ģà¦ĸ":4034,"Ġà¦²à§ĩà¦ĸà¦ķ":4035,"Ġà¦ħà¦¤à§įà¦¯à¦¨à§įà¦¤":4036,"à¦¹à¦¿":4037,"Ġà¦Ńà§ĩà¦Ļà§ĩ":4038,"Ġà¦®à¦¨à§įà¦¤à§įà¦°à¦£à¦¾à¦²à¦¯à¦¼à§ĩà¦°":4039,"Ġà¦ľà§ĩà¦¨à¦¾à¦°à§ĩà¦²":4040,"Ġà¦ķà¦®à¦¾à¦¨":4041,"Ġà¦¹à§ĥà¦¦":4042,"Ġà¦§à¦°à§įà¦·":4043,"Ġj":4044,"Ġà¦¸à¦¨à§įà¦¦à§ĩà¦¹":4045,"à¦¿à¦Ĩà¦°":4046,"Ġà¦ıà¦¦à§ĩà¦°":4047,"à¦¦à§ĩà¦¹":4048,"Ġà¦ıà¦¨à§įà¦¡":4049,"Ġà¦¨à§ĩà¦ĵà¦¯à¦¼à¦¾à¦°":4050,"Ġà¦ķà¦¾à¦°à§įà¦¡":4051,"à¦¿à¦¸à¦Ĥà¦ĺ":4052,"Ġà¦¸à§įà¦¨":4053,"Ġà¦§à¦¾à¦¨":4054,"Ġà¦®à§ĭà¦¸à§įà¦¤":4055,"up":4056,"Ġà¦²à¦¿à¦Ĺ":4057,"Ġà¦ķà§ĭà¦¥à¦¾à¦ĵ":4058,"Ġà¦ķà§ģà¦°":4059,"à¦¿à¦¹à§įà¦¨":4060,"Ġà¦Ĺà§įà¦°à¦¾à¦¹":4061,"à¦¨à§ĭ":4062,"Ġà¦¡à¦¾à¦¯à¦¼":4063,"Ġà¦¬à¦¾à¦¤à¦¿à¦²":4064,"à§ĥà¦·à§įà¦ł":4065,"à¦¶à¦¿à¦²à§įà¦ª":4066,"à§įà¦¡à¦¾à¦°":4067,"Ġà¦ķà§Ģà¦Ńà¦¾à¦¬à§ĩ":4068,"Ġà¦¦à§ĭà¦ķà¦¾à¦¨":4069,"Ġà¦®à¦¨à§įà¦¤à§įà¦°à¦£à¦¾à¦²à¦¯à¦¼":4070,"à¦¨à¦Ĺà¦°":4071,"à§įà¦¯à¦¾à¦¨à§ĩà¦²":4072,"Ġà¦®à¦¾à¦¨à¦¸à¦¿à¦ķ":4073,"Ġà¦ľà§ĩà¦¨à§ĩ":4074,"à¥¥":4075,"à¦¶à¦¾à¦°":4076,"Ġà¦ľà¦¿à¦¤":4077,"à¦¶à§įà¦°":4078,"Ġà¦ªà§įà¦°à¦¶à§įà¦¨à§ĩà¦°":4079,"à¦¾à¦®à§Ĥà¦²à¦ķ":4080,"Ġà¦ªà§įà¦°à¦¤à¦¿à¦ķ":4081,"Ġà¦ļà§Ĥà¦¡à¦¼":4082,"Ġà¦¨à¦¾à¦¨":4083,"à¦®à§ĩ":4084,"à§įà¦¯à¦¬":4085,"Ġà¦¨à§ĭà¦Ł":4086,"à¦ľà¦¾à¦¤à§Ģà¦¯à¦¼":4087,"Ġà¦¬à§ĩà¦²":4088,"Ġà¦ļà¦ķà§įà¦°":4089,"Ġà¦ªà§įà¦°à¦¥à¦®à§ĩ":4090,"à¦Łà¦¿à¦ķà§ĩ":4091,"Ġà¦ĺà¦£à§įà¦Łà¦¾":4092,"à¦¿à¦²à":4093,"à¦¿à¦²à¦":4094,"à¦¿à¦²à¦¾":4095,"Ġà¦¬à¦²à¦Ľà§ĩ":4096,"Ġ8":4097,"Ġà¦°à§ģà¦®":4098,"Ġà¦ªà¦¬à¦¿à¦¤à§įà¦°":4099,"ain":4100,"à¦¸à¦®à§Ĥà¦¹":4101,"à¦¿à¦¤à¦¾à¦¯à¦¼":4102,"Ġà¦ľà¦¾à¦°à§įà¦®":4103,"Ġà¦ķà¦¬à¦¿":4104,"Ġà¦ĩà¦ŀà§įà¦ľ":4105,"Ġà¦ľà§Ģà¦¬à¦¨à§ĩ":4106,"Ġà¦īà§İà¦ªà¦¾à¦¦à¦¨":4107,"Ġarticle":4108,"Ġà¦¬à¦¿à¦¦à§įà¦¯à¦¾à¦²à¦¯à¦¼":4109,"à¦¿à¦¸à§įà¦Łà§įà¦°":4110,"Ġà¦¬à§įà¦¯à¦°à§įà¦¥":4111,"à¦¨à¦¿à¦°à§įà¦¬à¦¾à¦ļ":4112,"Ġà¦ħà¦§à¦¿à¦¨à¦¾à¦¯à¦¼à¦ķ":4113,"à¦¬à¦¿à¦ıà¦¨":4114,"à¦¶à§ĭà¦°":4115,"à¦¯à§ĩ":4116,"Ġà¦¬à¦¿à¦¤à¦°à§įà¦ķ":4117,"Ġà¦®à§ģà¦¦à§įà¦°":4118,"Ġà¦¬à¦¾à¦¯à¦¼":4119,"Ġà¦ĸà§ģà¦¶":4120,"ime":4121,"à¦¿à¦¨à§įà¦¦à":4122,"à¦¿à¦¨à§įà¦¦à¦":4123,"à¦¿à¦¨à§įà¦¦à¦¾":4124,"Ġà¦¸à¦°à§įà¦¬à¦¶à§ĩà¦·":4125,"Ġà¦Ńà¦¾à¦°à¦ªà§įà¦°à¦¾à¦ªà§įà¦¤":4126,"à¦¾à¦¶à¦¨à¦¾à¦²":4127,"Ġà¦²à¦ķà§įà¦·à§įà¦¯à§ĩ":4128,"à¦Ĺà¦ŀà§įà¦ľà§ĩà¦°":4129,"Ġà¦ĩà¦¸à¦²à¦¾à¦®à§ĩà¦°":4130,"Ġà¦Łà¦¾à¦°":4131,"à¦¾à¦«à¦¿à¦ľ":4132,"Ġà¦ķà¦°à¦¾à¦¯à¦¼":4133,"à¦¿à¦īà¦Łà¦¾à¦°":4134,"Ġà¦®à¦¨à§įà¦¤à§įà¦°":4135,"Ġà¦Ĺà¦¬à§ĩà¦·à¦£à¦¾":4136,"à¦¿à¦®à¦¯à¦¼":4137,"Ġà¦¬à§Ģà¦°":4138,"Ġ9":4139,"Ġà¦¸à¦®à¦¾à¦§à¦¾à¦¨":4140,"ï»":4141,"Ġà¦Ńà¦¬à¦¨":4142,"Ġà¦ķà¦°à§įà¦®à¦¸à§Ĥà¦ļà¦¿":4143,"Ġà¦ľà¦¿à¦¯à¦¼":4144,"à¦¬à¦¾à¦Ĺ":4145,"Ġà¦Ĺà§ĭà¦¯à¦¼":4146,"à¦Ńà¦¯à¦¼":4147,"Ġà¦ħà¦¨à§ģà¦°à§ĭà¦§":4148,"Ġà¦¹à¦¾à¦¸à¦¿à¦¨à¦¾à¦°":4149,"Ġà¦ªà¦¾à¦¬à§ĩ":4150,"Ġà¦°à§ĭà¦¹à¦¿à¦Ļà§įà¦Ĺà":4151,"Ġà¦°à§ĭà¦¹à¦¿à¦Ļà§įà¦Ĺà¦":4152,"Ġà¦°à§ĭà¦¹à¦¿à¦Ļà§įà¦Ĺà¦¾":4153,"à¦¾à¦¹à¦¿à¦ķ":4154,"Ġà¦ľà¦¨à¦Ĺà¦£à§ĩà¦°":4155,"Ġà¦ªà§įà¦°à¦¶à¦¿à¦ķà§įà¦·à¦£":4156,"desh":4157,"Ġà¦¦à¦¾à¦ģà¦¡à¦¼à¦¿à¦¯à¦¼à§ĩ":4158,"ont":4159,"Ġà¦¸à§įà¦Łà§įà¦°":4160,"-à§§":4161,"à§įà¦°à¦¤à¦¿à¦ķ":4162,"Ġà¦ľà¦¨à¦ķà§ĩ":4163,"à¦¾à¦ĩà¦ķà§ĩà¦²":4164,"Ġà¦¨à¦¿à¦ļà§ĩ":4165,"Ġà¦¸à§ĩà¦¦":4166,"Ġà¦¹à¦¿à¦¨à§įà¦¦à§ģ":4167,"Ġà¦¯à§ĩà¦ķ":4168,"Ġà¦ķà¦²à§įà¦¯à¦¾à¦£":4169,"Ġà¦¹à¦¾à¦ĩà¦ķ":4170,"Ġà¦ıà¦®à¦ªà¦¿":4171,"Ġà¦¸à§ģà¦¸à§įà¦¥":4172,"Ġà¦¶à§ĭà¦ķ":4173,"Ġà¦Ĩà¦¦à¦¾à¦¯à¦¼":4174,"Ġà¦ķà¦£à§įà¦ł":4175,"lis":4176,"Ġà¦¯à§ģà¦¬à¦ķ":4177,"Ġà¦ªà§įà¦°à¦®à§ģà¦ĸ":4178,"Ġà¦ļà§įà¦¯à¦¾à¦®à§įà¦ª":4179,"Ġà¦ĩà¦¸à¦²à¦¾à¦®à§Ģ":4180,"Ġà¦¸à§įà¦®à¦¾à¦°à§įà¦Ł":4181,"Ġà¦ĺà§ģà¦°à§ĩ":4182,"Ġe":4183,"Ġà¦ħà¦¸à¦®":4184,"à¦·à§ģà¦§":4185,"à¦Ľà¦¿à¦²à§ĩà¦¨":4186,"à¦®à§įà¦®":4187,"à¦¿à¦¤à§ĩà¦ĩ":4188,"à¦ķà§įà¦¤à¦¿":4189,"Ġà¦ķà§ĩà¦Łà§ĩ":4190,"Ġà¦¬à¦¿à¦ľà§ĩà¦ªà¦¿":4191,"Ġà¦Ĩà¦¸à§ĩà¦¨":4192,"à¦ļà¦Łà§įà¦Łà¦Ĺà§įà¦°à¦¾à¦®":4193,"à§Ģà¦®":4194,"à¦°à§įà¦¸":4195,"Ġà¦ªà¦¾à¦¹à¦¾à¦¡à¦¼":4196,"à¦¾à¦ªà§ģà¦°":4197,"Ġà¦Ĩà§°":4198,"Ġà¦¨à¦¿à¦ķà¦Ł":4199,"à¦ħà¦Ń":4200,"Ġà¦¸à¦¾à¦ª":4201,"Ġà¦Ĩà¦¨à¦¾":4202,"Ġà¦ħà¦°à§įà¦¥à¦¨à§Īà¦¤à¦¿à¦ķ":4203,"Ġà¦ĵà¦¯à¦¼à¦¾à¦¨":4204,"Ġà¦Ĩà¦¸à¦¨à§ĩ":4205,"Ġà¦ķà§ĭà¦°à§įà¦Ł":4206,"à¦¾à¦ªà§įà¦°":4207,"Ġà¦¤à¦¾à¦ª":4208,"à¦¶à¦¤":4209,"Ġà¦ªà§°":4210,"Ġà¦ķà¦¾à¦īà¦¨à§įà¦¸à¦¿à¦²":4211,"à¦¿à¦Łà":4212,"à¦¿à¦Łà¦":4213,"à¦¿à¦Łà¦¾":4214,"à¦¬à¦¿à¦ķ":4215,"Ġà¦¸à¦¨":4216,"ort":4217,"Ġà¦¬à¦¾à¦¹à¦¿à¦¨à§Ģ":4218,"Ġà¦ļà":4219,"Ġà¦ļà¦":4220,"Ġà¦ļà¦¾":4221,"Ġà¦¬à¦¸à§įà¦¤":4222,"Ġà¦¸à¦¿à¦¨à¦¿à¦¯à¦¼à¦°":4223,"Ġà¦¬à¦¿à¦ľà§įà¦ŀà¦¾à¦ªà¦¨":4224,"log":4225,"à¦Ĺà§ģà¦¡à¦¼":4226,"à¦ħà¦¬":4227,"Ġà¦¦à§ģà¦ªà§ģà¦°":4228,"-à¦ĩ":4229,"Ġà¦¸à¦ķà§įà¦·à¦®":4230,"Ġà¦¨à¦ľà¦°à§ģà¦²":4231,"Ġà¦®à§ĩà¦¶":4232,"à¦ķà¦¤":4233,"Ġà¦¤à§İ":4234,"Ġà¦Ńà¦¿à¦¤":4235,"Ġà¦ľà§įà¦ŀà¦¾à¦¨":4236,"à¦¾à¦¬à":4237,"Ġà¦°à¦¶":4238,"à¦¾à¦¬à¦":4239,"à¦¾à¦¬à¦¾":4240,"Ġà¦ªà§ĩà¦¯à¦¼à§ĩà¦Ľà§ĩà¦¨":4241,"Ġà¦¶à§Ģà¦¤":4242,"Ġà¦Ĩà¦¶à¦Ļà§įà¦ķ":4243,"Ġà¦¬à§ģà¦¦à§įà¦§":4244,"Ġà¦ļà§ģà¦ķà§įà¦¤à¦¿":4245,"Ġà¦ªà§įà¦°à¦¤à¦¿à¦¬à§ĩà¦¦à¦ķ":4246,"Ġà¦¬à§ĩà¦²à¦¾":4247,"à¦¡à¦¼à¦¾à¦°":4248,"à¦¿à§°":4249,"Ġà¦®à§ģà¦°":4250,"Ġà¦¸à§įà¦¥à¦¾à¦¯à¦¼à§Ģ":4251,"Ġà¦¬à¦¿à¦ķà§įà¦°":4252,"à¦Ĺà§įà¦°à¦¾à¦®à§ĩà¦°":4253,"Ġà¦ķà§ĥà¦¤":4254,"Ġà¦ķà¦°à§įà¦®à§Ģ":4255,"à¦ªà§įà¦°à¦¶":4256,"à§ģà¦²à¦¤":4257,"à¦¸à¦Ļà§įà¦Ĺà§ĩ":4258,"Ġà¦¬à¦¾à¦¸à¦¾à¦¯à¦¼":4259,"à¦¾à¦¦à¦¾à¦¨":4260,"ĠThe":4261,"Ġà¦¨à¦¿à¦°à§įà¦Ńà¦°":4262,"12":4263,"Ġà¦ıà¦ķà§ĩà¦¬à¦¾à¦°":4264,"Ġà¦¬à¦¿à¦¯à¦¼à§ĩà¦°":4265,"Ġà¦¯à§ģà¦ķà§įà¦¤à¦°à¦¾à¦·à§įà¦Łà§įà¦°à§ĩà¦°":4266,"Ġà¦ªà¦°à¦¿à¦£à¦¤":4267,"Ġ$":4268,"Ġà¦¯à§ģà¦Ĺà§įà¦®":4269,"Ġà¦¹à¦¾à¦¬":4270,"à¦ľà¦¨à¦ķà§ĩ":4271,"Ġà¦®à§ĩà¦°":4272,"à¦¿à¦Ĺà¦ŀà§įà¦ľ":4273,"Ġà¦ıà¦ľ":4274,"Ġà¦ļà§Ĥà¦¡à¦¼à¦¾à¦¨à§įà¦¤":4275,"à¦¬à§įà¦¯à¦¬":4276,"Ġà¦ªà§įà¦°à¦¾à¦ªà§įà¦¤":4277,"Ġà¦ĺà¦Łà§ĩà¦Ľà§ĩ":4278,"Ġà¦¹à¦ľ":4279,"Ġà¦¸à¦¨à§įà¦¤à§įà¦°à¦¾à¦¸":4280,"Ġà¦¶à¦¹à¦°à§ĩ":4281,"Ġà¦īà¦¤":4282,"Ġà¦ķà¦¾à¦Ĺà¦ľ":4283,"à¦ķà§ĭà¦°":4284,"ide":4285,"à§ĩà¦ı":4286,"à¦ĸà¦¾à¦¨à§ĩ":4287,"à¦¬à¦¨à§ĩ":4288,"Ġà¦¯à§ĩà¦¸à¦¬":4289,"Ġà¦ľà¦°à§ģà¦°à¦¿":4290,"Ġà¦ļà¦°à¦®":4291,"Ġà¦ĸà¦¾à¦¤":4292,"Ġà¦¸à¦®à§įà¦Ńà¦¾à¦¬à¦¨à¦¾":4293,"Ġà¦®à§ģà¦¸à¦²à¦®à¦¾à¦¨":4294,"à¦«à§ĩ":4295,"Ġà¦¸à§ĩà¦¨à¦¾à¦¬":4296,"Ġà¦¸à¦¾à¦®à§įà¦ª":4297,"à¦¤à¦¨":4298,"à§ĭà¦§à§Ģ":4299,"à§ģà¦ĸà¦¿":4300,"Ġà¦ĩà¦¨à¦¸à§įà¦Ł":4301,"Ġà¦¬à§ĩà¦¸à¦°à¦ķà¦¾à¦°à¦¿":4302,"Ġà¦¨à¦¿à¦·à§ĩà¦§":4303,"Ġà¦ıà¦ķà¦¦à¦¿à¦¨":4304,"à¦¿à¦¸à§įà¦¤à¦¾à¦°à¦¿à¦¤":4305,"Ġà¦¹à¦¾à¦ĩà¦ķà§ĭà¦°à§įà¦Ł":4306,"Ġà¦Ńà§ĭà¦°":4307,"Ġà¦ľà¦¾à¦®à¦¾à¦¯à¦¼":4308,"Ġà¦ĺà¦Łà¦¨à¦¾à¦¸à§įà¦¥":4309,"à§ĥà¦¨à§įà¦¦":4310,"à¦®à§ģ":4311,"Ġà¦¨à¦¿à¦®à§įà¦¨":4312,"à¦ļà¦²":4313,"Ġà¦¸à§ĩà¦®":4314,"Ġà¦ªà§įà¦°à¦£":4315,"Ġà¦ľà¦Ĺ":4316,"à¦°à§Ĥà¦ª":4317,"à¦¾à¦¡à§ĩà¦®":4318,"ary":4319,"Ġà¦¦à§ģà¦§":4320,"Ġà¦¸à¦®à¦°à§įà¦¥à¦¨":4321,"Ġà¦¶à¦¾à¦®":4322,"à¦¾à¦¯à¦¼à¦¨":4323,"Ġà¦¸à§ĩà¦Łà¦¿":4324,"Ġà¦ļà¦¨à§įà¦¦à§įà¦°":4325,"Ġà¦ľà¦®à¦¿":4326,"Ġà¦ĩà¦īà¦¨à¦¿à¦Ł":4327,"à§ģà¦¸à§įà¦¥":4328,"à´":4329,"Ġà¦¬à§įà¦¯à¦¯à¦¼":4330,"Ġà¦ļà¦²à¦¤à¦¿":4331,"à¦«à¦¾à¦°":4332,"Ġà¦ĸà§ģà¦²à§ĩ":4333,"Ġà¦ķà§įà¦¯à¦¾à¦®à§ĩà¦°":4334,"Ø±":4335,"à§«à§¦":4336,"Ġà¦¬à¦¾à¦§à":4337,"Ġà¦¬à¦¾à¦§à¦":4338,"Ġà¦¬à¦¾à¦§à¦¾":4339,"à§ģà¦®à¦¾à¦¤à§įà¦°":4340,"Ġà¦Ńà¦¿à¦¤à§įà¦¤à¦¿à¦¤à§ĩ":4341,"Ġà¦Łà§įà¦°à§ĩà¦¨":4342,"Ġà¦Ńà¦¾à¦·à¦¾à¦¯à¦¼":4343,"Ġà¦Ľà¦¾à¦¡à¦¼à¦¾à¦ĵ":4344,"à¦¾à¦¹à¦¿à¦¤":4345,"à¦¬à§ĥà¦¹":4346,"Ġà¦¯à¦¾à¦ļà§įà¦Ľà§ĩà¦¨":4347,"à¦¾à¦°à§įà¦ľ":4348,"Ġà¦®à¦¿à¦¨à¦¿à¦Łà§ĩ":4349,"Ġà¦ľà¦¿à¦¨à¦¿à¦¸":4350,"à¦ıà¦²":4351,"its":4352,"à¦°à§įà¦ª":4353,"Ġà¦¬à§ĩà¦¡à¦¼à§ĩà¦Ľà§ĩ":4354,"à¦¾à¦²à§įà¦²à¦¾à¦¹":4355,"Ġà¦ªà¦¾à¦¤à¦¾":4356,"Ġà¦¨à¦¿à¦ľà¦¸à§įà¦¬":4357,"Ġà¦¸à¦Ńà¦¾à¦ªà¦¤à¦¿à¦¤à§įà¦¬à§ĩ":4358,"Ġà¦ķà¦¬à¦¿à¦¤à¦¾":4359,"à¦ªà§ģ":4360,"à¦¿à¦īà¦²":4361,"Ġà¦īà¦ªà¦ľà§ĩà¦²à¦¾à¦¯à¦¼":4362,"Ġà¦ĵà¦·à§ģà¦§":4363,"Ġà¦¯à§ĩà¦¤":4364,"Ġà¦®à¦¿à¦°":4365,"à¦¾à¦°à§įà¦¡":4366,"à¦¿à¦īà¦°":4367,"à§¦à§¦à§¦":4368,"Ġà¦ķà§įà¦·à¦¤à¦¿":4369,"Ġà¦¬à§ģà¦ķ":4370,"Ġà¦ķà§ĭà¦®à§įà¦ªà¦¾à¦¨à¦¿":4371,"Ġà¦ªà§įà¦°à¦Ń":4372,"bd":4373,"à¦¾à¦¤à¦ķ":4374,"à¦ľà¦¨à§įà¦¯":4375,"Ġà¦Ĩà¦¯à¦¼à§ĭà¦ľà¦¿à¦¤":4376,"Ġà¦¦à§Ĥà¦°à§ĩ":4377,"Ġà¦¨à§ĩà¦Ł":4378,"à¦¾à¦Ńà¦¾à¦ĩ":4379,"à¦¾à¦¨à§įà¦¯":4380,"Ġà¦®à§ģà¦ķà§įà¦¤à¦¿à¦¯à§ģà¦¦à§įà¦§":4381,"Ġà¦¸à§įà¦¥à¦¾à¦ªà¦¨":4382,"Ġà¦ķà¦ĸà¦¨à¦ĵ":4383,"Ġà¦°à§ĭà¦ľ":4384,"Ġà¦°à¦¿à¦ªà§ĭà¦°à§įà¦Łà¦¾à¦°":4385,"à¦ªà§įà¦°à¦¯à§ģà¦ķà§įà¦¤":4386,"à¦°à¦¾à¦¯à¦¼":4387,"Ġà¦¨à¦¿à¦°à¦¾à¦ªà¦¦":4388,"Ġà¦ªà§ĥà¦¥à¦¿à¦¬à§Ģà¦°":4389,"à¦¬à§įà¦²":4390,"Ġby":4391,"Ġà¦¬à¦¿":4392,"Ġà¦ļà§Ģà¦¨":4393,"Ġà¦ĩà¦ŀà§įà¦ľà¦¿à¦¨":4394,"Ġà¦ķà¦°à¦¤à§ĩà¦¨":4395,"Ġà¦īà¦¦à§įà¦Ń":4396,"Ġà¦¸à¦¹à¦¯à§ĭà¦Ĺà¦¿à¦¤à¦¾":4397,"ĠÙĪ":4398,"Ġà¦¸à¦¾à¦ķà§įà¦·à¦¾à§İ":4399,"Ġà¦ķà¦¾à¦°à§ĭ":4400,"Ġà¦ªà§ĭ":4401,"à§ĭà¦®à":4402,"à§ĭà¦®à¦":4403,"à§ĭà¦®à¦¾":4404,"Ġà¦ħà¦¬à§įà¦¯à¦¾à¦¹à¦¤":4405,"Ġà¦ªà§įà¦°à¦¤à¦¿à¦·à§įà¦łà¦¾à¦¨à§ĩà¦°":4406,"Ġà¦Ĩà¦ľà¦ķà§ĩà¦°":4407,"Ġà¦īà¦¦à§įà¦¦à§ĩà¦¶à§įà¦¯":4408,"Ġà¦ħà¦¸à§ģà¦¸à§įà¦¥":4409,"Ġà¦¨à§Ģà¦²":4410,"Ġà¦Ĩà¦¸à¦¨":4411,"Ġà¦Ĩà¦§à§ģà¦¨à¦¿à¦ķ":4412,"Ġà¦¨à¦¦à§Ģà¦°":4413,"à¦ĸà¦¾à¦¨à¦¾":4414,"à§įà¦¯à¦¾à¦ķà§įà¦¸":4415,"à¦¿à¦¶à¦¾à¦²à§Ģ":4416,"à¦Ńà¦¾à¦°à¦¤":4417,"Ġà¦Ĩà¦ĩà¦¨à§ĩà¦°":4418,"à¦¾à¦ªà¦°":4419,"Ġà¦ħà¦§à¦¿à¦¦à¦ªà§įà¦¤":4420,"Ġà¦¨à¦¿à¦°à§įà¦§à¦¾à¦°à¦£":4421,"Ġà¦¨à¦¾à¦Łà¦ķ":4422,"Ġà¦Ĺà¦£à¦®à¦¾à¦§à§įà¦¯à¦®":4423,"Ġà¦¸à¦®à§įà¦ªà¦¦":4424,"Ġà¦Ĩà¦ķà§įà¦¤":4425,"Ġà¦¸à§ĭà¦¨":4426,"Ġà¦¨à¦¾à¦°à§Ģà¦°":4427,"Ġà¦¯à¦¾à¦¦à§ĩà¦°":4428,"Ġà¦Ĩà¦®à¦¿à¦°":4429,"engal":4430,"à¦¾à¦¦à§ģ":4431,"Ġà¦¯à¦¨à§įà¦¤à§įà¦°":4432,"Ġà¦²à§ĩà¦¨à¦¦":4433,"à¦¿à¦ªà§Ĥà¦°à§įà¦£":4434,"Ġà¦¦à§ĩà¦ĸà¦¾à¦°":4435,"Ġà¦ķà§įà¦¯à¦¾à¦°":4436,"Ġà¦¬à¦²à§ĩà¦ĵ":4437,"ick":4438,"Ġà¦¦à¦ĸà¦²":4439,"Ġà¦¸à¦¾à¦ķà¦¿à¦¬":4440,"Ġà¦¸à¦¿à¦¸à§įà¦Ł":4441,"Ġà¦¹à¦¬à§ĩà¦¨":4442,"Ġ>":4443,"Ġà¦®à§įà¦¯à¦¾à¦¨à§ĩà¦ľ":4444,"Ġà¦¬à¦ľ":4445,"Ġà¦¨à¦¿à¦·à¦¿à¦¦à§įà¦§":4446,"à§Ģà¦¬à§įà¦°":4447,"Ġà¦¬à¦¿à¦ķà§ĩà¦²à§ĩ":4448,"Ġà¦Ĩà¦®à¦¿à¦¨":4449,"Ġà¦¸à§įà¦²":4450,"Ġà¦§à¦°à§įà¦·à¦£":4451,"Ġà¦¡à¦¿à¦Ń":4452,"à¦²à¦Ļà§įà¦ķ":4453,"ĠCh":4454,"Ġà¦ªà¦°à¦¿à¦¬à¦¹à¦¨":4455,"Ġà¦¡à¦¾à¦īà¦¨à¦²à§ĭà¦¡":4456,"Ġ12":4457,"à¦¬à¦¿à¦¸à§įà¦¤à¦¾à¦°à¦¿à¦¤":4458,"à¦¾à¦¶à":4459,"à¦¾à¦¶à¦":4460,"à§ĩà¦Łà¦¿à¦Ĥ":4461,"à¦¾à¦¶à¦¾":4462,"Ġà¦¹à¦¾à¦¨":4463,"Ġà¦¬à¦¾à¦Ĥà¦²à¦¾à¦¦à§ĩà¦¶à¦¿":4464,"Ġà¦¸à¦Ĥà¦Ĺà¦łà¦¨à§ĩà¦°":4465,"Ġà¦®à§ģà¦ĸà§ĭà¦®":4466,"Ġà¦¦à§ĥà¦¶à§įà¦¯":4467,"à§ĥà¦Ļà§įà¦ĸà¦²à¦¾":4468,"à¦¾à¦ľà¦¨":4469,"Ġà¦ļà¦¾à¦¹à¦¿à¦¦":4470,"Ġà¦¬à§ĩà¦¶à¦¿à¦°":4471,"Ġà¦¬à§Īà¦łà¦ķà§ĩ":4472,"Ġà¦Łà¦¿à¦ª":4473,"Ġà¦¦à§įà¦¯":4474,"Ġà¦ļà¦¿à¦¹à§įà¦¨":4475,"à¦¿à¦¸à¦¹":4476,"Ġà¦ªà§įà¦°à¦¸à¦Ļà§įà¦Ĺà§ĩ":4477,"à¦ķà§įà¦ķ":4478,"à¦®à¦¸":4479,"à¦¨à§įà¦¦à§įà¦¬":4480,"ust":4481,"Ġà¦¸à¦¾à¦¨":4482,"à¦¸à§ĩà¦ĩ":4483,"Ġà¦ªà§įà¦°à¦¾à¦ķ":4484,"à¦¯à¦¼à§ĩà¦¶":4485,"Ġà¦ıà¦¯à¦¼à¦¾à¦°":4486,"à§ĩà¦ķà§įà¦Łà¦°":4487,"à¦¾à¦¨à§įà¦¤à§įà¦°à¦¿à¦ķ":4488,"Ġà¦¨à¦¿à¦°à§įà¦¦à¦¿à¦·à§įà¦Ł":4489,"Ġà¦ļà¦²à§ĩà¦Ľà§ĩ":4490,"Ġà¦¬à§įà¦¯à¦ķà§įà¦¤à¦¿à¦°":4491,"à¦ªà§ĭà¦°à§įà¦Ł":4492,"Ġà¦Ĺà§įà¦²":4493,"Ġà¦¸à§įà¦¬à¦¾à¦°à§įà¦¥":4494,"sh":4495,"Ġà¦¶à¦°à§įà¦¤":4496,"Ġà¦°à¦¾à¦¸à§įà¦¤à¦¾à¦¯à¦¼":4497,"Ġà¦¸à¦Ĥà¦Ĺ":4498,"à§ĭà¦¯à¦¼à¦¾à¦¡à¦¼":4499,"Ġà¦Ĺà¦¾à¦ľà§Ģ":4500,"Ġbe":4501,"à¦¿à¦¦à§įà¦¦":4502,"Ġà¦¬à¦¿à¦¶à§ĩà¦·à¦ľà§įà¦ŀ":4503,"Ġà¦°à¦¾à¦ľà¦¶à¦¾à¦¹à§Ģ":4504,"à§ĩà¦Łà¦°":4505,"Ġà¦¡à¦¾à¦ķà§įà¦¤à¦¾à¦°":4506,"Ġà¦ķà¦¿à¦²à§ĭà¦®":4507,"Ġà¦¯à§ĭà¦Ĺà§įà¦¯":4508,"Ġà¦ķà§įà¦²à¦¿à¦ķ":4509,"Ġà¦ħà§įà¦¯à¦¾à¦²":4510,"Ġà¦ļà¦Łà§įà¦Ł":4511,"Ġà¦§à§Ģà¦°à§ĩ":4512,"**":4513,"Ġà¦¨à¦ľà¦°":4514,"à¦¾à¦Łà§ĩ":4515,"Ġà¦ľà¦¬à¦¾à¦¬":4516,"Ġà¦¦à¦¾à¦¸":4517,"Ġà¦¬à¦¾à¦¸à§įà¦¤à¦¬":4518,"Ġà¦ªà§ĥà¦·à§įà¦ł":4519,"Ġà¦¦à§ĩà¦¶à¦Łà¦¿à¦°":4520,"à§ĩà¦Ļà§įà¦Ĺ":4521,"ant":4522,"Ġà¦ªà§įà¦°à¦¤à¦¿à¦®":4523,"Ġà¦ĸà§ĭà¦ģà¦ľ":4524,"%a":4525,"à¦¾à¦ķà§ģà¦°":4526,"Ġà¦Ĺà§ĩà¦®":4527,"à¦¾à¦ķà§ĩà¦°":4528,"Ġà¦¤à¦¤":4529,"Ġà¥¥":4530,"Ġà¦ĸà§ĩà¦²à¦¾à¦°":4531,"Ġà¦¤à¦¾à¦¦à§ĩà¦°à¦ķà§ĩ":4532,"Ġà¦Łà¦¿à¦ķ":4533,"à¦ıà¦ĸà¦¨":4534,"à¦ķà§ĩà¦ĩ":4535,"Ġà¦¸à¦¾à¦«à¦²":4536,"à§įà¦«à§ĭà¦°":4537,"Ġà¦®à§ĭà¦ķà¦¾à¦¬":4538,"Ġà¦¬à§įà¦¯à¦¸à§įà¦¤":4539,"Ġà§©à§§":4540,"à¦¸à¦¾à¦²":4541,"Ġà¦¶à¦ķà§įà¦¤à¦¿à¦¶à¦¾à¦²à§Ģ":4542,"Ġà¦¡à¦¿à¦ľà¦¿à¦Łà¦¾à¦²":4543,"Ġà¦īà¦¨à§įà¦®":4544,"Ġà¦ķà¦¾à¦ľà§Ģ":4545,"Ġà¦ªà¦¾à¦°à§ĩà¦¨à¦¿":4546,"Ġà§¨à§¦à§§à§ª":4547,"Ġà¦®à§ģà¦ķà§įà¦¤à¦¿à¦¯à§ĭà¦¦à§įà¦§à¦¾":4548,"Ġà¦®à§ģà¦ĸà§ĭà¦®à§ģà¦ĸà¦¿":4549,"à¦ľà§ĩà¦²à¦¾":4550,"Ġà¦ªà¦¾à¦°à§įà¦Łà¦¿à¦°":4551,"Ġà¦ľà¦¾à¦¨à§ĩà¦¨":4552,"Ġà¦¦à¦¿à¦²à§įà¦²":4553,"à¦ĩà¦¯à¦¼":4554,"Ġà¦¸à¦¾à¦¦":4555,"Ġà¦®à¦®":4556,"ead":4557,"Ġà¦ķà§ĭà¦®à§įà¦ªà¦¾à¦¨à¦¿à¦°":4558,"à¦ķà§įà¦°à¦¿à¦¯à¦¼":4559,"Ġà¦¹à¦¾à¦¸à¦ªà¦¾à¦¤à¦¾à¦²à§ĩà¦°":4560,"Ġà¦¬à¦¿à¦¦à§įà¦¯à¦¾à¦²à¦¯à¦¼à§ĩà¦°":4561,"Ġà¦¦à§Į":4562,"Ġà¦ıà¦Ńà¦¾à¦¬à§ĩ":4563,"Ġà¦¬à¦¿à¦Ńà¦¾à¦Ĺà§ĩ":4564,"Ġà¦°à¦¾à¦¸à§įà¦¤à":4565,"Ġà¦°à¦¾à¦¸à§įà¦¤à¦":4566,"Ġà¦°à¦¾à¦¸à§įà¦¤à¦¾":4567,"Ġà¦¸à§įà¦®à¦°à¦£":4568,"Ġà¦«à¦²à¦¾à¦«à¦²":4569,"Ġà¦®à¦¹à¦¾à¦¸à¦ļà¦¿à¦¬":4570,"Ġà¦ľà¦¾à¦¤à¦¿à¦¸à¦Ĥà¦ĺ":4571,"Ġà¦®à§ģà¦¨":4572,"à¦ıà¦¬à¦¾à¦°":4573,"age":4574,"out":4575,"Ġà¦¬à¦¿à¦ľà§įà¦ŀà¦ªà§įà¦¤à¦¿":4576,"à¦¿à¦¨à§ĩ":4577,"Ġà¦¤à¦¥à":4578,"Ġà¦¤à¦¥à¦":4579,"Ġà¦¤à¦¥à¦¾":4580,"Ġà¦ĩà¦Ĥà¦²à§įà¦¯à¦¾à¦¨à§įà¦¡":4581,"à¦¾à¦¬à¦¹":4582,"à¦ªà§įà¦°à¦ķà¦¾à¦¶à¦¿à¦¤":4583,"Ġà¦¬à§ĩà¦°à¦¿à¦¯à¦¼à§ĩ":4584,"Ġà¦®à¦¿à¦¸":4585,"Ġà¦ļà¦¿à¦°":4586,"à§ģà¦¯à¦¼à§ĩ":4587,"à¦¿à¦®à¦¾à¦¨":4588,"Ġà¦®à§Ĥà¦²à¦¤":4589,"à¦¹à¦¾à¦¨":4590,"à¦Ĩà¦ªà¦¨à¦¿":4591,"Ġà¦Ĩà¦¦à¦¾à¦²à¦¤à§ĩà¦°":4592,"ight":4593,"ï¿½ï¿½":4594,"à¦¬à¦¾à¦Ĥà¦²à":4595,"à¦¬à¦¾à¦Ĥà¦²à¦":4596,"à¦¬à¦¾à¦Ĥà¦²à¦¾":4597,"all":4598,"Ġà¦°à¦¾à¦¹":4599,"Ġà¦¤à§įà¦¬":4600,"-à¦Ĩ":4601,"Ġà¦ķà¦¯à¦¼à§ĩà¦ķà¦ľà¦¨":4602,"Ġà¦¦à¦¶à¦®à¦¿à¦ķ":4603,"Ġà¦Ĺà§ģà¦²à§ĭ":4604,"Ġà¦¶à¦¿à¦¶à§ģà¦¦à§ĩà¦°":4605,"à¦¯à¦¨à§įà¦¤à§įà¦°":4606,"à¦®à§ģà¦ĸ":4607,"Ġà¦¨à¦¨":4608,"Ġà¦¸à§įà¦ªà¦·à§įà¦Ł":4609,"à§Ģà¦·":4610,"----":4611,"Ġà¦¨à¦¿à¦¯à¦¼à§ĩà¦Ľà§ĩà¦¨":4612,"à¦ķà¦¿à¦°":4613,"à¦ħà¦°à§įà¦¥":4614,"à¦¾à¦Ī":4615,"Ġà¦¹à§įà¦¯":4616,"Ġà¦Ńà¦¾à¦°à¦¤à§ĩ":4617,"Ġà¦ķà§įà¦·à¦®à¦¤à¦¾à¦¯à¦¼":4618,"Ġà¦ĸà§ĩà¦¤à§ĩ":4619,"à¦¯à¦¾à¦¤à§įà¦°":4620,"à¦¿à¦Ĥà¦¯à¦¼à§ĩ":4621,"à¦¾à¦¬à¦¿":4622,"à§ĩà¦¸à§ĩ":4623,"Ġà¦²à§ĭà¦ķà¦ľà¦¨":4624,"Ġà¦¸à§įà¦¬à¦°à§įà¦£":4625,"Ġà¦ĸà§ĩà¦²à§ĭà¦¯à¦¼à¦¾à¦¡à¦¼":4626,"('":4627,"Ġà¦¤à§Ģà¦¬à§įà¦°":4628,"à¦®à§įà¦¯":4629,"Ġà¦¸à¦¬à¦¾à¦ĩà¦ķà§ĩ":4630,"Ġà¦ıà¦«":4631,"à¦¸à§įà¦ķà§ĥà¦¤à¦¿à¦ķ":4632,"à¦¶à§ĩà¦·à§ĩ":4633,"pr":4634,"Ġà¦ļà¦¾à¦ķà¦°à¦¿":4635,"Ġà¦īà¦¦à§įà¦¦à§ĩà¦¶à§įà¦¯à§ĩ":4636,"à§Ĥà¦¨à§įà¦¯":4637,"Ġà¦ķà¦¾à¦īà¦ķà§ĩ":4638,"à¦¯à¦¼à¦¾à¦²":4639,"ff":4640,"Ġà¦¹à§ģà¦®à¦ķà¦¿":4641,"Ġà¦ķà¦®à§įà¦ªà¦¿à¦īà¦Łà¦¾à¦°":4642,"Ġà¦¬à¦¿à¦§à¦¾à¦¨":4643,"Ġà¦¸à¦¾à¦®à¦°à¦¿à¦ķ":4644,"Ġà¦¬à¦¾à¦Ĥà¦²à¦¾à¦°":4645,"Ġà¦ªà§Įà¦ģà¦Ľà§ĩ":4646,"à§¨à§¨":4647,"Ġà¦¸à¦¾à¦°à§įà¦Ńà¦¿à¦¸":4648,"à¦¹à¦¤à§įà¦¯à":4649,"à¦¹à¦¤à§įà¦¯à¦":4650,"à¦¹à¦¤à§įà¦¯à¦¾":4651,"Ġà¦ıà¦ķà¦¾à¦¡à§ĩà¦®":4652,"Ġà¦¨à¦¿à¦ĸ":4653,"à¦¾à¦¬à¦²à¦¿à¦ķ":4654,"Ġà¦ħà¦¨à§įà¦§":4655,"Ġà¦ľà¦¾à¦°à¦¿":4656,"Ġà¦ħà¦ªà§ĩà¦ķà§įà¦·à":4657,"Ġà¦ħà¦ªà§ĩà¦ķà§įà¦·à¦":4658,"Ġà¦ħà¦ªà§ĩà¦ķà§įà¦·à¦¾":4659,"Ġà¦¦à¦¾à¦¨":4660,"Ġ}":4661,"Ġà¦¤à§ģà¦²à¦¨à¦¾à¦¯à¦¼":4662,"Ġà¦Łà§ģà¦ĩ":4663,"à¦ĸà§ģà¦²":4664,"à¦¿à¦ĺ":4665,"à¦¾à¦ĵà¦¯à¦¼à¦¾à¦¯à¦¼":4666,"Ġà¦¸à¦®à¦¿à¦¤à¦¿à¦°":4667,"Ġà¦ªà¦¾à¦ĸ":4668,"Ġà¦¸à¦Ĥà¦²":4669,"qu":4670,"Ġà¦®à§Įà¦¸à§ģà¦®":4671,"Ġà¦ļà¦¿à¦ķà¦¿à§İà¦¸à¦ķ":4672,"Ġà¦¨à¦·à§įà¦Ł":4673,"Ġà¦¸à¦Ĥà¦¸à§įà¦¥à¦¾à¦°":4674,"Ġà¦Ńà¦¾à¦ĩà¦°à¦¾à¦¸":4675,"Ġà¦ªà¦¡à¦¼à¦¾à¦°":4676,"Ġà¦¹à¦¾à¦®à¦²à¦¾à¦¯à¦¼":4677,"orn":4678,"Ġà¦¦à§ĩà¦ĸà¦¿":4679,"Ġà¦¹à¦¾à¦°à§įà¦¡":4680,"Ġà¦¬à¦²à§ĩà¦ĩ":4681,"Ġà¦ıà¦ķà¦¾à¦¦à¦¶":4682,"à§ĩà¦¶à¦¨à§ĩ":4683,"Ġà¦ķà§ĭà¦®à§įà¦ªà¦¾à¦¨":4684,"à¦¯à¦¼à¦¾à¦ľ":4685,"Ġà¦¬à¦¸à¦¬à¦¾à¦¸":4686,"Ġà¦¹à¦¿à¦¸à¦¾à¦¬":4687,"Ġà¦¹à¦¾à¦ī":4688,"à¦¬à¦¾à¦¯à¦¼à¦¦à§ģà¦²":4689,"Ġà¦°à¦¿à¦ľ":4690,"Ġà¦ªà§įà¦°à¦ķà¦²à§įà¦ªà§ĩà¦°":4691,"Ġà¦¸à¦ŀà§įà¦ļ":4692,"Ġà¦ıà¦ĸà¦¾à¦¨":4693,"%A":4694,"Ġà¦ħà¦²à§įà¦ª":4695,"http":4696,"Ġà¦¶à¦¿à¦¶à§ģà¦°":4697,"Ġà¦¦à§ģà¦ĥà¦ĸ":4698,"Ġà¦ħà¦¨à§ģà¦¸à¦¾à¦°à§ĩ":4699,"à¦ķà§įà¦·à":4700,"à¦ķà§įà¦·à¦":4701,"à¦ķà§įà¦·à¦¾":4702,"à§įà¦²à§ĩà¦·":4703,"Ġà¦¤à¦¾à¦²à¦¿à¦ķà¦¾à¦¯à¦¼":4704,"Ġà¦¬à§ĭà¦§":4705,"Ġà¦¤à§ĭà¦®à¦¾à¦¦à§ĩà¦°":4706,"Ġà¦ıà¦¨à§ĩ":4707,"ive":4708,"Ġà¦¸à¦Ĥà¦°à¦ķà§įà¦·à¦¿à¦¤":4709,"oc":4710,"Ġà¦¨à¦°":4711,"Ġà¦Ĩà¦ĵà¦¤à¦¾à¦¯à¦¼":4712,"Ġà¦ķà§įà¦°à¦¿à¦ķà§ĩà¦Łà¦¾à¦°":4713,"à§Ģà¦¨à§įà¦¦à§įà¦°":4714,"Ġà¦¨à¦¾à¦°à¦¾à¦¯à¦¼à¦£":4715,"Ġà¦°à§ĩà¦¡":4716,"à¦¾à¦ĩà¦¸":4717,"Ġà¦°à¦¾à¦¨à§ĩà¦°":4718,"Ġà¦¬à¦¾à¦¸à§įà¦¤à¦¬à¦¾à¦¯à¦¼à¦¨":4719,"Ġà¦ªà§ĩà¦Ł":4720,"à¦¬à§ģà¦¬":4721,"Ġà¦ħà¦Ńà§įà¦¯":4722,"low":4723,"à§¨à§§":4724,"Ġà¦¬à§įà¦¯à¦¬à¦¸à§įà¦¥à¦¾à¦ªà¦¨à¦¾":4725,"Ġà¦«à§ĭà¦°":4726,"Ġà¦ħà¦¨à§ģà¦®à§ĭà¦¦à¦¨":4727,"Ġà¦Ńà¦¾à¦¸":4728,"Ġà¦Ĩà¦ĩà¦¨à¦ľà§Ģà¦¬à§Ģ":4729,"-à¦¶":4730,"Ġà¦®à¦¿à¦Ľà¦¿à¦²":4731,"Ġà¦ħà§įà¦¯à¦¾à¦¸":4732,"Ġà¦Ĺà§ĭà¦ªà¦¨":4733,"Ġà¦ªà§įà¦°à¦¾à¦¨à§įà¦¤":4734,"Ġà¦¬à¦¯à¦¼à¦¸à§Ģ":4735,"à¦¬à§ĩà¦°":4736,"à¦ĸà¦¾à¦²":4737,"à¦¿à¦ªà§įà¦¤":4738,"à¦¾à¦ļà¦¾à¦°à§įà¦¯":4739,"Ġà¦Ĩà¦ķà§įà¦¤à¦¾à¦°":4740,"Ġà¦ĸà§įà¦°":4741,"Ġà§§à§¦à§¦":4742,"Ġà¦ħà¦°à§įà¦§":4743,"Ġà¦¬à¦¾à¦¡à¦¼à¦Ľà§ĩ":4744,"Ġà¦ķà§ģà¦®à¦¿à¦²à§įà¦²":4745,"à¦¾à¦®à¦¾à¦°":4746,"à¦¿à¦ıà¦²":4747,"Ġà¦«à¦ĸ":4748,"Ġà¦¦à§ģà¦°à§įà¦¨à§Ģà¦¤à¦¿":4749,"Ġà¦ļà§įà¦¯à¦¾à¦®à§įà¦ªà¦¿à¦¯à¦¼à¦¨":4750,"à¦²à¦¾à¦ĩà¦¨à§ĩ":4751,"Ġà¦ħà¦°":4752,"à§Ģà¦ľ":4753,"Ġà¦Ĩà¦¶à§įà¦°à¦¯à¦¼":4754,"Ġà¦¡à¦¿":4755,"Ġà¦ķà§įà¦²à¦¾à¦¬":4756,"Ġà¦ķà§ĩà¦ľà¦¿":4757,"Ġà¦¬à¦¿à¦¸à§įà¦«à§ĭà¦°":4758,"Ġà¦²à¦¾à¦ĩà¦¨":4759,"Ġà¦¸à¦¿à¦¸à§įà¦Łà§ĩà¦®":4760,"Ġà¦ªà¦°à§Ģà¦ķà§įà¦·à¦¾à¦¯à¦¼":4761,"à¦ĵà¦¯à¦¼à§įà¦¯à¦¾à¦°":4762,"Ġà¦¸à§ģà¦ĩ":4763,"Ġà¦¸à§įà¦¤à§įà¦°":4764,"à¦¬à§ĩà¦¶":4765,"Ġà¦¨à¦¿à¦°à§įà¦¬à¦¾à¦ļà¦¨à§Ģ":4766,"Ġà¦ªà§ĩà¦Ľà¦¨à§ĩ":4767,"Ġà¦¦à§ģà¦°":4768,"Ġà¦ªà¦¾à¦Ł":4769,"à§Ģà¦°à¦¿à¦ķ":4770,"à§ĩà¦¹à§ĩà¦¤à§ģ":4771,"à¦¾à¦¨à§įà¦¤à¦¿":4772,"à¦ªà§ģà¦²à¦¿à¦¶":4773,"à¦®à§ĭ":4774,"Ġà¦ķà¦¾à¦°à§įà¦¯à¦¾à¦²à¦¯à¦¼à§ĩ":4775,"line":4776,"à¦¸à§įà¦¬à¦¾à¦¸à§įà¦¥à§įà¦¯":4777,"Ġà¦¦à§ģà¦°à§įà¦Ĺ":4778,"Ġ||":4779,"Ġà¦Ńà§ĭà¦Ĺ":4780,"Ġà§§à§¯à§Ń":4781,"Ġà¦ľà§ĩà¦²à¦¾à¦¯à¦¼":4782,"Ġà¦ĺà¦°à§ĩà¦°":4783,"Ġà¦¶à§ģà¦¨à§ĩ":4784,"Ġà¦īà¦ªà¦°à§ĩ":4785,"ĠâĢĺâĢĺ":4786,"Ġà¦ľà¦¨à¦Ĺà¦£":4787,"Ġà¦¬à¦¾à¦°à§įà¦·à¦¿à¦ķ":4788,"Ġà¦ĵà¦¸à¦¿":4789,"à¦¨à¦¤à§ģà¦¨":4790,"Ġ11":4791,"à¦¤à§įà¦¯à¦¾à¦Ĺ":4792,"Ġà¦Ĩà¦¬à¦¹":4793,"à¦§à¦°à§įà¦®":4794,"Ġà¦¹à¦°":4795,"Ġà¦«à¦°à¦®":4796,"Ġà¦ªà¦°à¦¿à¦·à§įà¦ķà¦¾à¦°":4797,"Ġà¦ĩà¦¨à§įà¦Łà¦¾à¦°à¦¨à§ĩà¦Ł":4798,"Ġà¦Ĩà¦¨à§įà¦¦à§ĭà¦²à¦¨à§ĩà¦°":4799,"ill":4800,"Ġà¦ķà¦łà§ĭà¦°":4801,"Ġà¦Ĩà¦«à§įà¦°":4802,"Ġà¦ªà§Ĥà¦°à¦£":4803,"Ġà¦ļà¦²à¦¾à¦ļà¦²":4804,"à¦¾à¦ľà":4805,"à¦¾à¦ľà¦":4806,"à¦¾à¦ľà¦¾":4807,"Ġà¦Ĺà§Į":4808,"Ġà¦°à¦¿à¦¯à¦¼":4809,"Ġà¦ľà§įà¦¬à¦¾à¦²":4810,"à¦£à¦¾à¦°":4811,"à¦Ĺà§ģà¦²à¦¿à¦°":4812,"Ġà¦ķà¦°à¦¿à¦®":4813,"Ġà¦ªà¦¦à§įà¦§à¦¤à¦¿":4814,"ast":4815,"à¦Ńà§ĭà¦Ĺ":4816,"à¦¿à¦°à§ĩà¦°":4817,"Ġà¦ļà¦²à¦¬à§ĩ":4818,"Ġà¦Ĳà¦¤à¦¿à¦¹":4819,"Ġà¦¸à¦¬à§ģà¦ľ":4820,"à¦¯à¦°à¦¤":4821,"à¦ªà¦°à§ĩ":4822,"Ġà¦Ĩà§°à§ģ":4823,"Ġà¦Ńà§įà¦°à¦®":4824,"Ġà¦ĸà§ĩà¦¯à¦¼à§ĩ":4825,"à¦¹à":4826,"à¦®à¦¾à¦¸":4827,"Ġà¦Łà§įà¦¯":4828,"à¦¹à¦":4829,"à¦¹à¦¾":4830,"Ġà¦ªà§įà¦°à¦¤à¦¿à¦ª":4831,"à¦¾à¦Ļà§įà¦Ĺà":4832,"à¦¾à¦Ļà§įà¦Ĺà¦":4833,"à¦¾à¦Ļà§įà¦Ĺà¦¾":4834,"Ġà¦¸à¦¿à¦°à¦¾à¦ľ":4835,"Ġà¦§à¦°à§įà¦®à§Ģà¦¯à¦¼":4836,"ÙĲÙĬ":4837,"Ġch":4838,"Ġà¦Ľà¦¬à¦¿à¦¤à§ĩ":4839,"Ġà¦¯à§ĩà¦Ńà¦¾à¦¬à§ĩ":4840,"à¦¾à¦°à¦¨":4841,"Ġà¦ķà¦¾à¦°à§įà¦¯à¦¾à¦²à¦¯à¦¼":4842,"ĠPM":4843,"Ġà¦ªà¦°à¦°à¦¾à¦·à§įà¦Łà§įà¦°":4844,"Ġà¦¸à¦¦à¦¸à§įà¦¯à¦°à¦¾":4845,"à¦¬à¦¿à¦¶à§ĩà¦·":4846,"Ġà¦ªà§įà¦°à¦¶à¦¾à¦¸à¦¨à§ĩà¦°":4847,"Ġà¦ķà¦¿à¦²à§ĭà¦®à¦¿à¦Łà¦¾à¦°":4848,"Ġà¦¬à¦¿à¦ļà¦¾à¦°à¦ªà¦¤à¦¿":4849,"Ġà¦¸à¦Ĥà¦¬":4850,"Ġ2020":4851,"à¦¾à¦ĵà¦²à¦¾à¦¨à¦¾":4852,"à¦Ĺà¦łà¦¨à¦¿à¦ķ":4853,"Ġà¦¸à¦¾à¦Ĥà¦¸à§įà¦ķà§ĥà¦¤à¦¿à¦ķ":4854,"Ġà¦¸à¦¿":4855,"Ġà¦ªà§ģà¦¤à§įà¦°":4856,"Ġà¦ªà§įà¦¯à¦¾à¦°":4857,"à¦°à§įà¦ľà":4858,"à¦°à§įà¦ľà¦":4859,"à¦°à§įà¦ľà¦¾":4860,"âĢĻ,":4861,"Ġà¦ķà§įà¦·à§ĩà¦¤à§įà¦°":4862,"à¦¿à¦¡à¦¿":4863,"Ġà¦Ĩà¦¦à¦°à§įà¦¶":4864,"Ġà¦¸à§ģà¦®":4865,"à§ģà¦ķà§ģà¦°":4866,"-à¦ľ":4867,"Ġà¦°à¦¾à¦ĸà§ĩ":4868,"à¦Łà¦¿à¦²":4869,"Ġà¦¸à§įà¦¬à§Ģà¦ķ":4870,"ug":4871,"Ġà¦¹à¦¾à¦ľà¦¿à¦°":4872,"Ġà¦¢à§ģà¦ķ":4873,"à¦¨à§įà¦¦à¦¨":4874,"Ġà¦ħà¦¬à¦¸à§įà¦¥à¦¿à¦¤":4875,"ud":4876,"Ġà¦¡à¦¿à¦Ĺ":4877,"âĢį":4878,"à¦«à¦¿":4879,"Ġà¦¸à¦¾à¦¹à§ĩà¦¬":4880,"à¦¦à¦°":4881,"Ġà¦¨à¦¿à¦ľà§ĩ":4882,"Ġà¦īà¦Ńà¦¯à¦¼":4883,"Ġ19":4884,"19":4885,"Ġà¦¸à¦¾à¦¦à¦¾":4886,"à¦§à¦°":4887,"Ġà¦¬à¦¦à¦²à§ĩ":4888,"à¦«à¦¿à¦²":4889,"Ġà¦¨à¦¾à¦¯à¦¼":4890,"à¦¾à¦ľà§įà¦ŀ":4891,"ST":4892,"à§ĩà¦ŀà§įà¦ļ":4893,"à¦§à§ĩ":4894,"Ġag":4895,"Ġà¦īà¦¤à§įà¦¤à§ĩà¦ľ":4896,"Ġà¦Łà§ĩà¦ķà¦¨":4897,"à¦ªà§įà¦°à§ĩà¦¸":4898,"Ġà¦§à¦¾à¦°à¦¾à¦¬":4899,":à§¦à§¦":4900,"Ġà¦ĩà¦®à¦¾à¦®":4901,"à¦¾à¦®à§ĩà¦¨à§įà¦Ł":4902,"Ġà¦®à¦¾à¦¨à¦¬à¦¬à¦¨à§įà¦§":4903,"à¦®à¦°":4904,"Ġà¦¸à¦Ĥà¦¸":4905,"à¦¾à¦¤à§įà¦¤":4906,"Ġà¦ıà¦¸à¦®à¦¯à¦¼":4907,"à¦ķà§ĩà¦¨à§įà¦¦à§įà¦°":4908,"à¦Ĺà§Ģà¦°":4909,"Ġà¦¸à¦«à¦°":4910,"à¦®à§įà¦Ń":4911,"Ġà¦°à¦¾à¦ľà¦§à¦¾à¦¨à§Ģ":4912,"à§ĭà¦°à§įà¦¸":4913,"Ġà¦§à§įà¦¬à¦Ĥà¦¸":4914,"-à¦¨":4915,"Ġà¦¸à§ĩà¦¬":4916,"à¦¯à¦¾à¦ªà¦¨":4917,"à¦¾à¦ģà¦ª":4918,"-à¦ħ":4919,"Ġà¦¸à¦¿à¦¦à§įà¦¦":4920,"Ġà¦ªà¦¾à¦°à§įà¦ķ":4921,"Ġà¦ªà¦¿à¦¤à¦¾":4922,"Ġà¦¤à¦¾à¦°à¦ķà¦¾":4923,"Ġà¦ĸà§ĩà¦²à¦¤à§ĩ":4924,"Ġ#":4925,"à¦ĸà¦¾à¦¨à§ĩà¦ķ":4926,"à¦«à§ĩà¦°":4927,"à¦Ĺà¦¿à¦¤":4928,"à¦¾à¦Łà¦¿à¦¤à§ĩ":4929,"Ġà¦¸à§ĩà¦¨à":4930,"Ġà¦¸à§ĩà¦¨à¦":4931,"Ġà¦¸à§ĩà¦¨à¦¾":4932,"à¦ıà¦Ľ":4933,"Ġà¦¤à¦¬à§ģ":4934,"Ġà¦ĩà¦¤à¦¿à¦®":4935,"Ġà¦Ĩà¦²à¦¾à¦ĩ":4936,"Ġà¦ľà¦Ļà§įà¦Ĺà¦¿":4937,"Ġà¦ĸà§ĭà¦²à¦¾":4938,"Ġà¦ıà¦²à¦¾à¦ķ":4939,"Ġà¦Ĺà§ĩà¦²à§ĩà¦¨":4940,"à¦¨à¦¿à¦ľà¦¸à§įà¦¬":4941,"Ġà¦ħà§įà¦¯à¦¾à¦ķà¦¾à¦īà¦¨à§įà¦Ł":4942,"à¦¦à§įà¦¯":4943,"Ġà¦¨à¦¿à¦°à§įà¦¯à¦¾à¦¤à¦¨":4944,"Ġà¦¬à§ĩà¦¤à¦¨":4945,"Ġà¦¸à¦®à§ģà¦¦à§įà¦°":4946,"à¦łà¦¿à¦¤":4947,"à¦¢à¦¼":4948,".)":4949,"à¦ıà¦ķà¦Łà¦¿":4950,"Ġà¦¶à¦¾à¦¨à§įà¦¤à¦¿":4951,"Ġà¦Ĩà¦¸à¦¾à¦®à¦¿":4952,"Ġà¦¸à§įà¦¬à¦¾à¦ķà§įà¦·":4953,"Ġà¦¸à¦¿à¦ķ":4954,"Ġà¦¹à¦¾à¦¯à¦¼":4955,"à¦«à¦²":4956,"Ġà¦®à¦§":4957,"Ġà¦ªà§įà¦°à¦ļà§ģà¦°":4958,"Ġà¦ķà¦¥à¦¾à¦¯à¦¼":4959,"Ġà¦ªà¦¾à¦¥":4960,"Ġà¦Ĺà§ĭà¦¯à¦¼à§ĩà¦¨à§įà¦¦":4961,"à¦ľà¦¾à¦¨à¦¾":4962,"à¦ķà§ģà¦²":4963,"Ġà¦¨à¦Ĺ":4964,"à§ģà¦¡à¦¼à¦¿":4965,"à¦¾à¦¦à¦¨à¦¾":4966,"Ġà¦ħà¦Ĺà§įà¦¨":4967,"à¦¿à¦¤à§įà¦¤à¦¿à¦ķ":4968,"à¦¾à¦ĩà¦®":4969,"Ġà¦¨à§ĩà¦¯à¦¼à¦¾à¦°":4970,"Ġà¦ªà§įà¦°à¦¶à¦¾à¦¸à¦ķ":4971,"à¦¦à¦²à§ĩà¦°":4972,"Ġà¦Ĩà¦īà¦Ł":4973,"Ġà¦Ĩà¦ĺà¦¾à¦¤":4974,"Ġà¦®à¦ŀà§įà¦ļ":4975,"à¦Ĩà¦ªà¦¡à§ĩà¦Ł":4976,"Ġà¦¬à§ĩà¦¶à§Ģ":4977,"à¦¾à¦¦à§ĩ":4978,"Ġà¦¬à§įà¦°à¦¿à¦Łà¦¿à¦¶":4979,"à§¨à§¦à§¦":4980,"Ġà¦Ĩà¦¨à§ĭà¦¯à¦¼à¦¾à¦°":4981,"à¦¸à¦®à§įà¦ªà¦¾à¦¦à¦ķ":4982,"Ġà¦ªà§įà¦°à¦¯à¦¼à§ĭà¦Ĺ":4983,"ction":4984,"Ġà¦¶à¦¾à¦°à§Ģà¦°à¦¿à¦ķ":4985,"Ġà¦Ńà§ĩà¦¤à¦°à§ĩ":4986,"Ġà¦¸à¦¨à§įà¦§à§įà¦¯à¦¾à¦¯à¦¼":4987,"à¦¾à¦®à§Ĥà¦²à§įà¦¯à§ĩ":4988,"Ġà¦īà¦ªà¦¾à¦¦à¦¾à¦¨":4989,"news":4990,"Ġà¦«à¦¿à¦°à¦¿à¦¯à¦¼à§ĩ":4991,"Ġà¦§à¦°à¦£à§ĩà¦°":4992,"Ġà¦Ľà¦¾à¦¤à§įà¦°à¦²à§Ģà¦Ĺ":4993,"Ġà¦ªà§įà¦°à§ĭà¦Ĺ":4994,"à¦ķà¦¾à¦°à§ĩà¦°":4995,"-à§©":4996,"à¦ªà§ĭà¦°":4997,"à¦¿à¦ģ":4998,"Ġà¦°à¦¾à¦¨à§ĩ":4999,"à¦¾à¦²à§įà¦²à¦¾à¦¹à§ģ":5000,"Ġà¦ĩà¦Ĥà¦°à§ĩà¦ľà¦¿":5001,"Ġà¦ªà¦¶":5002,"à¦¥à§įà¦¯":5003,"Ġà¦¨à¦¿à¦¶à§įà¦ļà¦¯à¦¼":5004,"à¦¡à§ĩ":5005,"Ġà¦¬à¦²à¦¾à¦°":5006,"Ġà¦¬à¦¿à¦ªà¦°":5007,"Ġà¦¸à¦¦à¦¸à§įà¦¯à¦¦à§ĩà¦°":5008,"Ġà¦Ĩà¦¨à¦¤à§ĩ":5009,"à¦¬à§Ģà¦°":5010,"Ġà¦¬à¦¿à¦¶à§įà¦¬à¦¬à¦¿à¦¦à§įà¦¯à¦¾à¦²à¦¯à¦¼à§ĩ":5011,"Ġà¦ªà§įà¦°à¦¯":5012,"-à¦Ł":5013,"Ġà¦Łà§ĩà¦¬":5014,"à§ĩà¦ļà§įà¦Ľà":5015,"à§ĩà¦ļà§įà¦Ľà¦":5016,"à§ĩà¦ļà§įà¦Ľà¦¾":5017,"Ġà¦ªà§ĩà¦ģ":5018,"à¦¶à§ĩ":5019,"à¦ªà¦°à¦¿à¦¬":5020,"à¦¾à¦ªà§ĩà¦°":5021,"à¦¸à¦Ĥà¦ĸ":5022,"Ġà¦ıà¦Ľà¦¾à¦¡à¦¼à¦¾à¦ĵ":5023,"Ġà§§à§¯à§¯":5024,"Ġà¦®à¦¾à¦¶":5025,"ong":5026,"Ġà¦īà¦ªà¦¦":5027,"à¦¾à¦ŀà§įà¦ľ":5028,"à¦¾à¦¤à§įà¦®à¦ķ":5029,"Ġà¦ħà¦Ł":5030,"Ġà¦īà¦¨à§įà¦¨à¦¯à¦¼à¦¨à§ĩà¦°":5031,"à¦¹à¦°":5032,"Ġà¦ķà¦¾à¦°à¦¾à¦Ĺà¦¾à¦°à§ĩ":5033,"à¦²à¦Ń":5034,"Ġà¦«à¦ĸà¦°à§ģà¦²":5035,"Ġà¦ľà¦¾à¦Ĺ":5036,"Ġà¦Ńà¦¾à¦¡à¦¼à¦¾":5037,"à¦ªà¦¦":5038,"Ġà¦¯à¦¾à¦¬à§ĩà¦¨":5039,"à¦¾à¦²à¦¾à¦²":5040,"Ġà¦Ľà¦¡à¦¼":5041,"Ġà¦¸à¦®à¦¾à¦ľà§ĩà¦°":5042,"Ġà¦¸à§Ĥà¦ļ":5043,"à§ĭà¦¤":5044,"Ġà¦¸à§ĩà¦¤":5045,"Ġà¦ļà§įà¦¯à¦¾à¦²":5046,"Ġà¦Īà¦¦à§ĩà¦°":5047,"Ġà¦ªà§įà¦°à¦ķà§įà¦°à¦¿à¦¯à¦¼à¦¾":5048,"Ġà¦¸à¦¿à¦¨à§ĩà¦®à":5049,"Ġà¦¸à¦¿à¦¨à§ĩà¦®à¦":5050,"Ġà¦¸à¦¿à¦¨à§ĩà¦®à¦¾":5051,"Ġà¦ķà§Įà¦¶à¦²":5052,"Ġà¦¯à¦¾à¦ķ":5053,"Ġà¦ĩà¦īà¦ªà¦¿":5054,"ity":5055,"Ġà¦ķà§ĩà¦¨à§įà¦¦à§įà¦°à§ĩ":5056,"Ġà¦¦à§ĩà¦¡à¦¼":5057,"à¦¬à§ģà¦§à¦¬à¦¾à¦°":5058,"à¦¤à¦ĥ":5059,"Ġà¦®à§ĩà¦ĺ":5060,"à¦®à¦¾à¦°à§įà¦ķ":5061,"Ġà¦Ĺà§įà¦¯à¦¾à¦¸":5062,"Ġà¦Ĩà¦¬à§ĩà¦¦":5063,"Ġwh":5064,"Ġà¦°à¦¾à¦·à§įà¦Łà§įà¦°à¦ªà¦¤à¦¿":5065,"Ġà¦ħà¦¨à§įà¦¯à¦¦à¦¿à¦ķà§ĩ":5066,"Ġà¦¹à¦¤à§įà¦¯à¦¾à¦ķ":5067,"Ġà¦¬à¦¾à¦¬à¦¾à¦°":5068,"Ġà¦¹à¦¬":5069,"Ġà¦ªà¦¾à¦²à¦¿à¦¯à¦¼à§ĩ":5070,"Ø¨":5071,"Ġà¦ªà§įà¦°à¦¾à¦ļ":5072,"à¦¿à¦īà¦¬":5073,"Ġà¦ķà¦°à¦²à§ĩà¦ĵ":5074,"à¦¦à§ģà¦°":5075,"Ġà¦¸à§ģà¦²à¦¤":5076,"Ġà¦ļà¦¿à¦łà¦¿":5077,"Ġà¦¶à§ģà¦§à§ģà¦®à¦¾à¦¤à§įà¦°":5078,"à¦®à§Ĥà¦²à¦ķ":5079,"Ġà¦¸à§įà¦¥à¦Ĺà¦¿à¦¤":5080,"à§ģà¦°à§ģà¦°":5081,"Ġà¦Ĺà§ĭà¦²à¦¾à¦®":5082,"Ġà¦¬à¦¿à¦ķà¦¾à¦¶":5083,"à¦°à§įà¦§à§įà¦¬":5084,"à¦¬à¦¾à¦Ĥà¦²à¦¾à¦¦à§ĩà¦¶à§ĩà¦°":5085,"Ġà¦«à¦°à¦¿à¦¦":5086,"Ġà¦¸à¦¾à¦®à¦Ĺà§įà¦°":5087,"à¦ķà§ĭà¦¨":5088,"Ġà¦ľà¦¿à¦®":5089,"Ġà¦¬à§ĭà¦²":5090,"Ġà¦¬à¦¿à¦¶à¦¿à¦·à§įà¦Ł":5091,"Ġà¦¨à¦¿à¦ľà§ĩà¦ĩ":5092,"à§įà¦ªà§ĭà¦°":5093,"Ġà¦¤à§ĭà¦²à¦¾":5094,"Ġà¦¨à¦¿à¦ĥ":5095,"à¦®à¦¾à¦°à§ĩà¦°":5096,"à¦¿à¦¶à§įà¦°":5097,"Ġ)":5098,"Ġà¦ķà§įà¦·à¦¤à¦¿à¦Ĺà§įà¦°":5099,"à¦Ńà¦¿à¦¡à¦¿à¦ĵ":5100,"Ġà¦¸à¦®à¦¸à§įà¦¯à¦¾à¦°":5101,"à¦ĵà¦¯à¦¼à¦¾à¦°à§įà¦ķ":5102,"à¦ªà¦¾à¦¡à¦¼à¦¾":5103,"Ġà¦²à§ģà¦ķ":5104,"à¦¾à¦¹à¦¿à¦¨à§Ģà¦°":5105,"Ġà¦ķà§įà¦°à¦®":5106,"Ġà¦ĵà¦¬à¦¾à¦¯à¦¼à¦¦à§ģà¦²":5107,"Ġà¦Ĺà§įà¦°à¦¨à§įà¦¥":5108,"Ġà¦¬à¦¿à¦Ĺ":5109,"Ġà¦Ńà§ĩà¦¤à¦°":5110,"Ġà¦¯à¦¥à§ĩà¦·à§įà¦Ł":5111,"à¦²à§ĩà¦ĸ":5112,"Ġà¦ĩà¦ķà¦¬":5113,"Ġà¦¹à§ĭà¦®":5114,"à¦ħà¦¨à§įà¦¯":5115,"Ġà¦¤à¦®":5116,"Ġà¦¸à¦Ĥà¦¯à§ĭà¦Ĺ":5117,"Ġà¦¬à¦¿à¦¡":5118,"Ġà¦ļà§įà¦¯à¦¾à¦²à§ĩà¦ŀà§įà¦ľ":5119,"Ġà¦²à¦¨à§įà¦¡":5120,"Ġà¦¤à§įà¦¯à¦¾à¦Ĺ":5121,"Ġà¦§à¦¾à¦ķà§įà¦ķ":5122,"âĢĻ-":5123,"Ġà¦ķà§įà¦°à§Ģ":5124,"ĠØ¹":5125,"Ġà¦ĺà§ģà¦°":5126,"à¦Łà§ģà¦ķà§ģ":5127,"à¦¾à§·":5128,"à§ģà¦·à§įà¦łà¦¾à¦¨à¦¿à¦ķ":5129,"à¦¿à¦ļà§įà¦Ľ":5130,"à§¨à§©":5131,"Ġà¦®à¦¹à¦¾à¦¸à¦¡à¦¼":5132,"17":5133,"Ġà¦®à¦¾à¦ĵà¦²à¦¾à¦¨à¦¾":5134,"à¦¾à¦ªà§ĩ":5135,"à¦¶à§įà¦¬à¦°":5136,"Ġà¦¨à§ĩà¦¤à¦¾à¦°à¦¾":5137,"Ġà¦ľà§įà¦¯":5138,"Ġà¦¶à¦°à§Ģà¦°à§ĩà¦°":5139,"à¦ķà¦¾à¦®":5140,"à¦¾à¦ªà¦¤à¦¿":5141,"Ġà¦®à¦¾à¦¹à¦¬à§ģà¦¬":5142,"à¦¿à¦Ĥà¦ķ":5143,"Ġà¦¸à¦¾à¦Ĥà¦Ĺà¦łà¦¨à¦¿à¦ķ":5144,"Ġà¦Łà¦¿à¦Ńà¦¿":5145,"Ġà¦Ĩà¦¸à§įà¦¤":5146,"Ġà¦Ńà¦¯à¦¼à¦¾à¦¬à¦¹":5147,"à¦ªà§įà¦°à¦¯à§ģà¦ķà§įà¦¤à¦¿":5148,"Ġà¦ļà§ĩà¦¯à¦¼à¦¾à¦°à¦ªà¦¾à¦°":5149,"Ġà¦¨à¦¾à¦°à§Ģà¦¦à§ĩà¦°":5150,"à§ĭà¦¯à¦¼à§ĩà¦¨à§įà¦Ł":5151,"Ġà¦ļà¦¤à§ģ":5152,"à¦¬à¦¹":5153,"ave":5154,"Ġà¦¬à§įà¦¯à¦¬à¦¹à¦¾à¦°à§ĩà¦°":5155,"Ġà¦¸à§įà¦ķà§ģà¦²à§ĩà¦°":5156,"à¦¿à¦ıà¦¸à¦ĩ":5157,"Ġà¦ĸà¦¾à¦ĵà¦¯à¦¼à¦¾":5158,"Ġà¦Ĩà¦¸à¦¨à§ĩà¦°":5159,"Ġà¦«à¦¾à¦°à§ģà¦ķ":5160,"day":5161,"Ġà¦Łà¦¾à¦¨":5162,"à¦¬à§ĥà¦¹à¦¸à§įà¦ªà¦¤à¦¿à¦¬à¦¾à¦°":5163,"Ġà¦ħà¦Ńà¦¿à¦¯à§ģà¦ķà§įà¦¤":5164,"à§ĩà¦Łà¦¿":5165,"ĠIn":5166,"à¦¤à¦¿à¦ķà§įà¦°à¦®":5167,"Ġà¦°à¦¾à¦ľà§įà¦¯à§ĩà¦°":5168,"à¦®à¦Ļà§įà¦Ĺà¦²à¦¬à¦¾à¦°":5169,"Ġà¦Łà¦¾à¦ķà¦¾à¦¯à¦¼":5170,"Ġà¦ĸà§ĩà¦²à§ĩ":5171,"Ġà¦¥à¦¾à¦ķà¦¬à§ĩà¦¨":5172,"à¦«à¦¿à¦ķà§ģà¦²":5173,"ĠĠĠĠĠĠĠĠ":5174,"Ġà¦§à¦¾à¦°à¦¾à¦¬à¦¾à¦¹à¦¿à¦ķ":5175,"Ġ&":5176,"Ġà¦¬à§ģà¦²":5177,"Ġà¦¬à¦¿à¦ªà§ģà¦²":5178,"iz":5179,"Ġà¦Ĺà¦£à¦¤à¦¨à§įà¦¤à§įà¦°":5180,"Ġà¦ªà¦°à§ĩà¦°":5181,"Ġwith":5182,"Ġà¦ĸà§ģà¦¶à¦¿":5183,"Ġà¦¯à¦¿à¦¨à¦¿":5184,"Ġà¦¦à§ĩ":5185,"âĨĳ":5186,"à§įà¦®à¦£":5187,"à§ĭà¦¤à§ĩ":5188,"Ġà¦¬à¦¿à¦¶à§įà¦²à§ĩà¦·":5189,"à¦īà¦¤à§įà¦¤à¦°":5190,"Ġà¦¨à¦¿à¦°à§įà¦§à¦¾à¦°à¦¿à¦¤":5191,"à¦¸à§ĭà¦®à¦¬à¦¾à¦°":5192,"ies":5193,"ĠY":5194,"Ġà¦°à§ĩà¦¸":5195,"Ġà¦¸à¦¨à§įà¦§à§įà¦¯à¦¾":5196,"one":5197,"à¦¿à¦Ńà¦¾à¦¬":5198,"à¦¾à¦®à§Ģà¦°":5199,"Ġà¦¸à¦¿à¦®":5200,"Ġà¦¨à¦¿à¦°à§įà¦¦à§ĩà¦¶à¦¨à¦¾":5201,"15":5202,"à¦«à§įà¦°à¦¨à§įà¦Ł":5203,".à¦ķà¦®":5204,"Ġà¦¸à§ģà¦ªà§įà¦°":5205,"Ġà¦«à§ĩà¦°à¦¤":5206,"Ġà¦ĺà¦¿à¦°à§ĩ":5207,"Ġà¦ħà¦§à¦¿à¦ķà¦¾à¦Ĥà¦¶":5208,"à§¨à§¬":5209,"Ġà¦¬à§ĩà¦ģà¦ļà§ĩ":5210,"Ġà¦¯à§Įà¦¥":5211,"à¦¿à¦Ńà¦¾à¦°à§įà¦¸":5212,"à§ĩà¦ľà§ĩ":5213,"Ġà¦ªà§įà¦°à§ĩà¦°":5214,"az":5215,"Ġà¦¶à¦¿à¦ķà§įà¦·à¦¾à¦°à§įà¦¥à§Ģà¦°à¦¾":5216,"Ġà¦ħà¦¸à§įà¦¥":5217,"à¦ħà¦¨à¦²à¦¾à¦ĩà¦¨":5218,"Ġà¦ķà¦°à§įà¦ªà§ĭà¦°":5219,"à§įà¦¬à¦¾à¦°":5220,"à¦¿à¦®à¦¾à¦¨à¦¾":5221,"Ġà¦ľà¦¾à¦®à¦¿à¦¨":5222,"Ġà¦ľà¦¨à§įà¦¯à¦ĩ":5223,"Ġà¦¡à§ĩà¦Ń":5224,"Ġà¦Ĩà¦Łà¦ķà§ĩ":5225,"Ġà¦®à¦¿à¦²à§ĩ":5226,"Ġà¦®à¦¾à¦§à§įà¦¯à¦®à¦¿à¦ķ":5227,"Ġ::":5228,"Ġà¦ĵà¦Ń":5229,"à§Ģà¦¨à§ĩ":5230,"à¦¿à¦¡à¦¿à¦¯à¦¼à¦¾":5231,"Ġà¦ªà§įà¦°à¦¾à¦ķà§ĥà¦¤à¦¿à¦ķ":5232,"à¦Ĩà¦¸":5233,"Ġà¦ħà¦Ńà¦¿à¦¨à§ĩà¦¤à§įà¦°à§Ģ":5234,"Ġà¦ĩà¦¸à¦°":5235,"ver":5236,"14":5237,"Ġà¦¨à§ĩà¦¤à¦¾à¦¦à§ĩà¦°":5238,"Ġà¦¬à§ĥà¦·à§įà¦Łà¦¿":5239,"Ġà¦ķà¦°à¦ªà§ĭà¦°":5240,"Ġà¦¦à§ĭà¦¯à¦¼à¦¾":5241,"Ġà¦ªà¦¾à¦°à§įà¦Łà¦¿":5242,"à§ªà§¦":5243,"à¦¬à§ĥà¦¨à§įà¦¦":5244,"Ġà¦¤à§ĩ":5245,"à¦ģà¦ļ":5246,"Ġà¦Ĺà§ĭà¦Łà¦¾":5247,"à¦¾à¦Łà§ĩà¦°":5248,"Ġà¦¶à¦°à§Ģà¦°à§ĩ":5249,"Ġà¦¤à¦¾à¦°à¦¿à¦ĸà§ĩ":5250,"Ġà¦Ĺà§įà¦°à§ģà¦ªà§ĩà¦°":5251,"Ġà¦Łà¦¿à¦®":5252,"à¦ªà¦ķà§įà¦·à§ĩ":5253,"Ġà¦®à§ģà¦¹à¦¾à¦®à§įà¦®à¦¦":5254,"Ġà¦ħà¦¸à¦¹":5255,"Ġà¦¹à¦ļà§įà¦Ľà§ĩà¦¨":5256,"à¦¾à¦¯à¦¼à":5257,"à¦¾à¦¯à¦¼à¦":5258,"à¦¾à¦¯à¦¼à¦¾":5259,"à¦«à¦°":5260,"Ġà¦¬à¦²à¦¿à¦īà¦¡":5261,"Ġà¦¬à¦¿à¦ķà§ĩà¦²":5262,"Ġà¦ķà¦°à¦¬à§ĭ":5263,"à¦Ńà§ĭà¦ķ":5264,"à¦¦à¦ķà§įà¦·":5265,"Ġà¦¤à§ģà¦²à¦¤à§ĩ":5266,"Ġà¦¦à¦¾à¦°à§ģà¦£":5267,"Ġà¦Ĩà¦ļà¦°à¦£":5268,"Ġà¦¬à¦¿à¦ªà§įà¦²":5269,"Ġà¦®à¦°à§įà¦¯":5270,"à§įà¦®à":5271,"à§įà¦®à¦":5272,"à§įà¦®à¦¾":5273,"à¦ªà¦¾à¦²":5274,"Ġà¦¦à§ĩà¦¬à§ĩà¦¨":5275,"Ġà¦«à§įà¦°à¦¾à¦¨à§įà¦¸":5276,"Ġà¦¨à¦¿à¦·à§ĩà¦§à¦¾à¦ľà§įà¦ŀ":5277,"end":5278,"à¦¤à¦¿à¦¤à§ĩ":5279,"à¦¬à¦°à§įà¦·":5280,"Ġà¦ªà¦łà¦¿à¦¤":5281,"Ġà¦Ĩà¦ĩà¦¨à§ĩ":5282,"à¦¾à¦®à":5283,"à¦¾à¦®à¦":5284,"à¦¾à¦®à¦¾":5285,"à§Ģà¦¬à¦¾à¦ľà¦¾à¦°":5286,"à§ĩà¦ī":5287,"à¦¿à¦¯à¦¼à¦¾à¦¸":5288,"Ġà¦ķà¦²à¦ķà¦¾à¦¤à¦¾":5289,"Ġà¦ķà¦®à¦¿à¦īà¦¨":5290,"Ġà¦Ĩà¦ķà¦°à§įà¦·à¦£":5291,"à¦¾à¦īà¦²":5292,"Ġ24":5293,"Ġà¦¦à¦¿à¦¯à¦¼à§ĩà¦Ľà¦¿à¦²à§ĩà¦¨":5294,"Ġà¦ıà¦Łà¦¾à¦ĩ":5295,"Ġà¦ķà¦®à¦¿à¦¶à¦¨à§ĩà¦°":5296,"à¦°à§įà¦¶à¦ķ":5297,"Ġà¦¸à§Ģà¦®":5298,"Ġà¦°à§ĭ":5299,"à§Ģà¦¤à¦¿à¦°":5300,"Ġà¦¸à§įà¦¬à¦°à¦¾à¦·à§įà¦Łà§įà¦°":5301,"à¦ķà§Ģ":5302,"à¦°à¦Ĥ":5303,"Ġà¦¶à¦¾à¦¸":5304,"Ġà¦Ńà¦¾à¦ĩà¦°":5305,"Ġas":5306,"à¦¸à§įà¦¥à¦¾à¦¨à§Ģà¦¯à¦¼":5307,"Ġà¦®à¦¿à¦²à¦¿à¦¯à¦¼à§ĩ":5308,"Ġà¦ªà§įà¦°à¦ľà¦¨à§įà¦®":5309,"à¦¿à¦Ŀ":5310,"Ġà¦¸à¦®à¦¾à¦¨":5311,"Ġà¦®à§įà¦¯à¦¾à¦ļà§ĩà¦°":5312,"à¦¾à¦Ļà§įà¦Ĺà§Ģà¦°":5313,"Ġà¦¶à§ģà¦Ńà§ĩà¦ļà§įà¦Ľà¦¾":5314,"Ġà¦¸à¦ªà§įà¦¤à¦¾à¦¹à§ĩ":5315,"à¦¾à¦ļà¦ķ":5316,"Ġà¦®à¦¾à¦Ĥ":5317,"Ġà¦ıà¦Ĺà§ģà¦²à§ĭ":5318,"Ġà¦ķà¦°à¦¤":5319,"Ġà¦®à¦¿à¦ľ":5320,"à¦¸à§Ĥà¦¤à§įà¦°":5321,"Ġà¦¨à§Ģ":5322,"Ġà¦¡à¦Łà¦ķà¦®":5323,"Ġà¦°à¦¾à¦¸à§Ĥà¦²":5324,"Ġà¦¬à¦°à¦¾à¦¦à§įà¦¦":5325,"uck":5326,"à¦ħà¦ªà¦°":5327,"Ġà¦ħà¦Ńà¦¿à¦ľà§įà¦ŀà¦¤à¦¾":5328,"Ġà¦ªà¦¾à¦¬":5329,"à¦Ńà¦¾à¦·":5330,"Ġà¦¸à§įà¦ķà§ģà¦²à§ĩ":5331,"Ġà¦ħà¦Ńà¦¿à¦¬":5332,"à§įà¦¯à¦ķ":5333,"Ġà¦īà¦ľà§įà¦ľ":5334,"Ġà¦Łà§įà¦°à¦¾à¦ķ":5335,"Ġà¦¸à¦°à¦ķà¦¾à¦°à§Ģ":5336,"à§įà¦¯à¦¾à¦¡":5337,"à¦¶à§ģà¦ķ":5338,"à¦¿à¦²à§įà¦¯à¦¾à¦¨à§įà¦¡":5339,"Ġà¦®à§ģà¦ľà¦¿à¦¬à§ģà¦°":5340,"Ġà¦¦à§ģà¦°à§įà¦ĺà¦Łà¦¨à¦¾à¦¯à¦¼":5341,"Ġà¦ĸà§ĩà¦¯à¦¼":5342,"Ġà¦Ĩà¦ķà§įà¦°à¦®à¦£":5343,"Ġà¦«à¦¾à¦īà¦¨à§įà¦¡":5344,"ĠĠĠĠĠ":5345,"Ġà¦Ĩà¦ªà¦¨à¦¾à¦°à":5346,"Ġà¦Ĩà¦ªà¦¨à¦¾à¦°à¦":5347,"Ġà¦Ĩà¦ªà¦¨à¦¾à¦°à¦¾":5348,"Ġà¦Ńà§ĭà¦Łà¦¾à¦°":5349,"Ġà¦¶à¦¾à¦¹à¦ľ":5350,"Ġà¦®à¦¨à§ĩà¦°":5351,"à¦ķà§ĩà¦ĵ":5352,"Ġà¦ĸà§ģà¦²à¦¨à¦¾":5353,"à§®à§¦":5354,"Ġà¦¬à¦²à§ĩà¦Ľà¦¿à¦²à§ĩà¦¨":5355,"Ġ2016":5356,"ld":5357,"Ġà¦ľà¦°à¦¿à¦®à¦¾à¦¨à¦¾":5358,"Ġà¦ĸà§ĭà¦ķ":5359,"Ġà¦ĩà¦¸à§įà¦¯":5360,"Ġà¦ľà¦¾à¦¨à§ĩ":5361,"à¦¿à¦ķà§įà¦¯à¦¾à¦²":5362,"Ġà¦ľà¦Łà¦¿à¦²":5363,"à¦Ńà§ĭà¦ķà§ĩà¦Ł":5364,"Ġpro":5365,"Ġà¦¯à¦¾à¦¤à§įà¦°à§Ģ":5366,"Ġà¦¶à¦°à§Ģ":5367,"Ġà¦Ĩà¦¬à¦¾à¦°à¦ĵ":5368,"ublis":5369,"à§ģà¦¦à§ĩà¦°":5370,"à¦§à¦¾à¦¨à§ĩ":5371,"Ġà¦¶à¦¾à¦¸à§įà¦¤à¦¿":5372,"à¦¿à¦ķà¦°":5373,"à¦¦à¦¹":5374,"Ġà¦ħà¦¤à¦¿":5375,"Ġà¦®à§ĩà¦§":5376,"à¦²à¦¿à¦¤":5377,"Ġà¦°à¦¿à¦¸":5378,"Ġà¦¬à¦¾à¦®":5379,"Ġà¦®à§Ĥ":5380,"Ġà¦®à¦¿à¦¥à§įà¦¯à¦¾":5381,"à¦¸à¦°à§įà¦¬à¦¶à§ĩà¦·":5382,"Ġà¦¸à§ĩà¦Ĺà§ģà¦²à§ĭ":5383,"à¦¤à¦¾à¦¨à§įà¦¤à§įà¦°à¦¿à¦ķ":5384,"à¦¤à¦Ļà§įà¦ķ":5385,"à¦ıà¦¬":5386,"à¦Ĩà¦Ĺà¦¾à¦®à§Ģ":5387,"à¦®à¦¾à¦£":5388,"30":5389,"Ġà¦ıà¦°à¦ĩ":5390,"Ġà¦¸à¦¾à¦®à¦¾à¦¨à§įà¦¯":5391,"Ġan":5392,"Ġà¦¨à¦¿à¦¯à¦¼à§ĩà¦ĩ":5393,"à¦ªà¦¾à¦ķ":5394,"à¦¿à¦Ĺà§ģà¦²à§ĭ":5395,"Ġà¦®à§ĩà¦¯à¦¼à§ĩà¦¦à§ĩà¦°":5396,"Ġà¦¸à§įà¦Łà§ĩà¦¡":5397,"Ġà¦¨à§Ģà¦¤à¦¿":5398,"Ġà¦Ńà¦ķà§įà¦¤":5399,"à§ĭà¦¸à¦¿à¦¯à¦¼":5400,"Ġà¦ªà¦¾à¦°à§ĩà¦¨à¦¨à¦¿":5401,"Ġà¦Ĩà¦Ľà¦¿":5402,"Ġà¦Ĩà¦²à§ĭà¦ķ":5403,"Ġà¦¸à¦¿à¦¦à§įà¦¦à¦¿à¦ķ":5404,"à¦¾à¦ĸà¦¾à¦²à§Ģ":5405,"Ġà¦¦à§ĭà¦·":5406,"Ġà¦¨à§ĩà¦ª":5407,"à¦¿à¦ļà¦¾à¦²à¦ķ":5408,"à¦¿à¦·à¦¯à¦¼":5409,"Ġà¦Ńà¦¾à¦ĩà¦¸":5410,"Ġà¦ªà¦¾à¦¤":5411,"à¦¦à§ĩà¦¶à§ĩ":5412,"à¦«à¦¾à¦¯à¦¼":5413,"Ġà¦ªà¦°à¦¾à¦ľ":5414,"Ġà¦ªà¦¤à§įà¦°à¦¿à¦ķà¦¾":5415,"à§ģà¦²à§ĭà¦°":5416,"à§ĭà¦¡à¦¼à¦¾":5417,"à¦ıà¦¸à¦¸à¦¿":5418,"à¦°à§įà¦¨à¦¾à¦®à§ĩà¦¨à§įà¦Ł":5419,"Ġà¦¬à¦¿à¦ļà§įà¦Ľ":5420,"Ġà¦ªà¦¡à¦¼à§ĩà¦¨":5421,"Ġà¦Ŀà¦¡à¦¼":5422,"Ġà¦¦à§Ģà¦°à§įà¦ĺà¦¦à¦¿à¦¨":5423,"Ġà¦®à¦¤à¦¾à¦®à¦¤":5424,"Ġà¦¬à§įà¦¯à¦¬à¦¹à§ĥà¦¤":5425,"Ġà¦ķà¦°à¦²à¦¾à¦®":5426,"Ġà¦Ĺà§ģà¦Ĺ":5427,"Ġà¦¬à§įà¦¯à¦¾à¦ĸ":5428,"Ġà¦ķà¦¾à¦°à¦£à§ĩà¦ĩ":5429,"Ġà¦®à§ĩà¦¯à¦¼à§ĩà¦°":5430,"Ġà¦¸à¦Ĥà¦ķà¦Ł":5431,"Ġà¦ļà¦¾à¦¹à¦¿à¦¦à":5432,"Ġà¦ļà¦¾à¦¹à¦¿à¦¦à¦":5433,"Ġà¦ļà¦¾à¦¹à¦¿à¦¦à¦¾":5434,"Ġà¦ķà§įà¦²à¦¾à¦¸":5435,"Ġà¦®à§ĩà¦ľ":5436,"Ġà¦®à¦¾à¦®à§ģà¦¨":5437,"à¦¿à¦·à§įà¦ķ":5438,"Ġà¦Ĩà¦¡à¦¼":5439,"/à§¦":5440,"Ġà¦ªà¦°à¦¿à¦ļà¦¾à¦²à¦¿à¦¤":5441,"Ġà¦¬à¦Ľà¦°à¦ĸà¦¾à¦¨à§ĩà¦ķ":5442,"__":5443,"Ġà¦Ĩà¦¨à§ģà¦·à§įà¦łà¦¾à¦¨à¦¿à¦ķ":5444,"Ġà¦¸à¦«à¦Ł":5445,"à§ĩà¦¶à§Ģ":5446,"à¦Ĥà¦ķ":5447,"Ġà¦ªà¦¾à¦²à¦¿à¦¤":5448,"à¦¾à¦ķà§įà¦¸":5449,"âĢ¦âĢ¦":5450,"Ġà¦ªà§įà¦¯à¦¾à¦ķ":5451,"Ġà¦ķà§ĥà¦·à¦ķ":5452,"à¦¿à¦¹à¦¾à¦¸à¦¿à¦ķ":5453,"Ġà¦ªà¦¾à¦¡à¦¼":5454,"à§ĩà¦®à¦¨à¦¿":5455,"à¦ĵà¦¯à¦¼à¦¾à¦°à§įà¦¡":5456,"Ġà§¬à§¦":5457,"ee":5458,"Ġà¦ķà¦®à¦ªà§įà¦²":5459,"à¦¿à¦¶à§Ģà¦²":5460,"à¦¶à¦¾à¦¦":5461,"à¦¸à¦Ńà¦¾à¦¯à¦¼":5462,"ĠSh":5463,"Ġà¦ĩà¦²à§ĩà¦ķ":5464,"Ġà¦®à§ģà¦ĸà§įà¦¯à¦®à¦¨à§įà¦¤à§įà¦°à§Ģ":5465,"Ġâ":5466,"à¦¹à¦¾à¦ľ":5467,"Ġà¦¬à¦Ļà§įà¦Ĺà¦¬à¦¨à§įà¦§à§ģà¦°":5468,"ard":5469,"à¦°à¦¾à¦ľà¦¶à¦¾à¦¹à§Ģ":5470,"Ġ15":5471,"Ġà¦ªà§įà¦°à¦¤à¦¿à¦ķà§įà¦°":5472,"Ġà¦Łà§ĩà¦²à¦¿à¦Ń":5473,"Ġà¦¬à§įà¦°à¦¾à¦ľ":5474,"ated":5475,"Ġà¦Ĺà¦¿à¦¯à¦¼à§ĩà¦Ľà¦¿à¦²":5476,"à¦®à¦¾à¦²":5477,"Ġyou":5478,"Ġà¦ıà¦¦à¦¿à¦ķà§ĩ":5479,"à§įà¦²à¦¾à¦²à§įà¦²à¦¾à¦¹à§ģ":5480,"Ġà¦¤à§ĭà¦®à¦°à¦¾":5481,"Ġà¦ªà§įà¦°à¦«":5482,"Ġà¦¬à¦¾à¦Ľ":5483,"Ġà¦«à§ģà¦Łà¦¬":5484,"Ġà¦¨à§ģà¦°à§ģà¦²":5485,"Ġà¦ľà¦¯à¦¼à§ĩà¦°":5486,"Ġà¦¹à¦¯à¦°à¦¤":5487,"à¦¸à¦®à§įà¦¯à¦¾à¦¨":5488,"ink":5489,"à¦¿à¦Łà¦¨":5490,"Ġà¦¬à¦¾à¦¡à¦¼à¦¿à¦¯à¦¼à§ĩ":5491,"Ġà¦¸à§įà¦¬à¦¾à¦ķà§įà¦·à¦°":5492,"Ġà¦¶à¦¿à¦²à§įà¦ªà§Ģ":5493,"Ġà¦¬à¦²à§ĩà¦Ľà§ĩ":5494,"à§ĭà§±":5495,"Ġà¦®à§ģà¦Ľà¦²":5496,"Ġà¦ĩà¦ļà§įà¦Ľà":5497,"Ġà¦ĩà¦ļà§įà¦Ľà¦":5498,"Ġà¦ĩà¦ļà§įà¦Ľà¦¾":5499,"Ġà¦¤à¦¾à¦¡à¦¼":5500,"Ġà¦¦à¦ªà§įà¦¤":5501,"Ġà¦¸à§įà¦¥à¦¾à¦ª":5502,"16":5503,"og":5504,"Ġà¦ªà§įà¦°à¦¤à¦¿à¦¬à¦¾à¦¦à§ĩ":5505,"à¦¿à¦¦à§ģà¦²":5506,"Ġà¦ħà¦¨à§įà¦¤à¦°à§įà¦Ń":5507,"à¦¾à¦ŀà§įà¦ļà¦²":5508,"hed":5509,"à¦¸à¦¾à¦°à¦£":5510,"à§ĩà¦°à¦¿":5511,"Ġà¦¦à§ģà¦ľà¦¨":5512,"à§ĥà¦¤à¦¿à¦°":5513,"Ġà¦¥à¦¾à¦ķà§ģà¦¨":5514,"Ġà¦¯à¦¾à¦¤à§įà¦°à":5515,"Ġà¦¯à¦¾à¦¤à§įà¦°à¦":5516,"Ġà¦¯à¦¾à¦¤à§įà¦°à¦¾":5517,"Ġà¦ĩà¦Ń":5518,"à¦¾à¦¬à§Ģ":5519,"Ġà¦Ĩà¦²à¦¾à¦ĩà¦¹à¦¿":5520,"à¦¿à¦¸à§įà¦Łà¦¾à¦°":5521,"à¦¬à¦¦à§įà¦§":5522,"à§ĩà¦¦à¦¾à¦°":5523,"Ġà¦®à§ĩà¦¶à¦¿à¦¨":5524,"engali":5525,"Ġà¦¤à§Īà¦°à¦¿à¦°":5526,"Ġà¦¤à¦¤à§įà¦¤à§įà¦¬":5527,"à¦Łà¦ª":5528,"Ġà¦°à¦¿à¦®":5529,"à¦¤à¦¥à§įà¦¯":5530,"à¦¸à¦®à¦¾à¦¨":5531,"à¦¶à¦¨à¦¿à¦¬à¦¾à¦°":5532,"Ġà¦ķà§įà¦¯à¦¾à¦²":5533,"Ġà¦ıà¦°à¦ķà¦®":5534,"Ġà¦ļà§ĭà¦ĸà§ĩà¦°":5535,"Ġx":5536,"à§Ģà¦¯à¦¼à":5537,"à§Ģà¦¯à¦¼à¦":5538,"à§Ģà¦¯à¦¼à¦¾":5539,"Ġà¦Łà¦¾à¦¨à¦¾":5540,"à¦¾à¦¹à§įà¦®à¦£":5541,"Ġà¦¦à§ģà¦¨":5542,"Ġà¦ħà¦¬à¦¦à¦¾à¦¨":5543,"à§įà¦Łà¦¿":5544,"ÙİÙĨ":5545,"Ġà¦Ĩà¦°à§ĩà¦ķà¦Łà¦¿":5546,"Ġà¦¤à¦¾à¦°à§ĩà¦ķ":5547,"Ġà¦®à¦¾à¦¨à¦¬à¦¬à¦¨à§įà¦§à¦¨":5548,"Ġà¦°à¦¬à§Ģà¦¨à§įà¦¦à§įà¦°":5549,"Ġà¦ľà¦¡à¦¼à¦¿à¦¯à¦¼à§ĩ":5550,"Ġà¦ªà§įà¦°à¦¤à¦¿à¦®à¦¨à§įà¦¤à§įà¦°à§Ģ":5551,"Ġà¦¶à§įà¦°à¦¦à§įà¦§à¦¾":5552,"ory":5553,"Ġà¦¨à¦¾à¦®à¦¾à¦ľ":5554,"à¦Ĩà¦°à¦ĵ":5555,"Ġà¦ĩà¦¨à§įà¦¸":5556,"à§įà¦¬à¦¤à§įà¦¯":5557,"ĠBangladesh":5558,"Ġà¦ķà¦°à§ĭà¦¨à¦¾à¦Ńà¦¾à¦ĩ":5559,"Ġà¦Ńà¦¾à¦²à¦¬à¦¾à¦¸":5560,"Ġà¦²à§ĩà¦¨à¦¦à§ĩà¦¨":5561,"Ġht":5562,"Ġà¦ªà¦¾à¦°à§įà¦¥":5563,"Ġà¦§à¦¾à¦°à¦¾":5564,"Ġà¦¬à¦°à§įà¦£à¦¨à¦¾":5565,"à¦ıà¦®à¦¨":5566,"Ġà¦Ĩà¦¤à¦Ļà§įà¦ķ":5567,"Ġà¦§à¦°à§įà¦·à¦£à§ĩà¦°":5568,"Ġà¦ªà§Ĥà¦°à§įà¦¬à¦¾à¦¹à§įà¦£":5569,"Ġà§¨à§¦à§§à§©":5570,"à§ĥà¦¤à¦¿à¦¤à§ĩ":5571,"ook":5572,"Ġà¦ħà¦ŀà§įà¦ļà¦²":5573,"Ġà¦ļà§Ģà¦¨à§ĩà¦°":5574,"Ġà¦¤à§ĩà¦®à¦¨à¦¿":5575,"à¦¦à¦®":5576,"à¦¿à¦¹à§Ģà¦¨":5577,"Ġà¦ĩà¦īà¦¨à¦¿à¦Ńà¦¾à¦°à§įà¦¸":5578,"Ġà¦ĩà¦ķà¦¬à¦¾à¦²":5579,"à¦¤à¦¾à¦ģ":5580,"Ġà¦ľà¦¬à¦¾à¦¬à§ĩ":5581,"Ġà¦Ĩà¦¶à¦Ļà§įà¦ķà":5582,"Ġà¦Ĩà¦¶à¦Ļà§įà¦ķà¦":5583,"Ġà¦Ĩà¦¶à¦Ļà§įà¦ķà¦¾":5584,"Ġà¦ľà§ģà¦¡à¦¼à§ĩ":5585,"Ġsh":5586,"Ġà¦¨à¦ķ":5587,"Ġà¦ªà§įà¦°à¦¿à¦¨à§įà¦Ł":5588,"ure":5589,"Ġà¦¦à§ģà¦°à§įà¦ĺà¦Łà¦¨à¦¾":5590,"Ġà¦Łà§ģà¦°à§įà¦¨à¦¾à¦®à§ĩà¦¨à§įà¦Ł":5591,"Ġà¦ļà¦¾à¦²à¦ķ":5592,"à¦²à§ĭà¦ķ":5593,"Ġà¦¸à§ĭà¦¨à¦¾à¦°":5594,"à§ĭà¦¶à§įà¦¯à¦¾à¦²":5595,"Ġà¦®à¦¯à¦¼à¦®à¦¨à¦¸à¦¿à¦Ĥà¦¹":5596,"à¦¾à¦ļà§įà¦Ľà¦¿":5597,"à¦īà¦²à§įà¦²à§ĩà¦ĸ":5598,"à¦¦à¦¾à¦¤à¦¾":5599,"ice":5600,"Ġà¦²à¦¾à¦Ĺà¦¬à§ĩ":5601,"Ġà¦¸à¦¿à¦Ĥ":5602,"Ġà¦¬à¦°à¦¿à¦¶à¦¾à¦²":5603,"Ġà¦Ĩà¦®à¦¦":5604,"à¦ªà§įà¦°à¦§à¦¾à¦¨à¦®à¦¨à§įà¦¤à§įà¦°à§Ģ":5605,"Ġà¦¸à¦¾à¦°à§įà¦ķ":5606,"Ġà§©à§«":5607,"Ġà¦ķà¦¾à¦¯à¦¼":5608,"à¦¿à¦¬à¦¾à¦ļà¦ķ":5609,"Ġà¦¯à§ĩà¦¹à§ĩà¦¤à§ģ":5610,"à¦°à¦¨":5611,"Ġà¦ļà¦¿à¦¨":5612,"à¦ľà§ĩà¦°":5613,"Ġà¦¦à§ĩà¦ĸà¦¿à¦¯à¦¼à§ĩ":5614,"Ġà¦¬à¦²à¦¿":5615,"à¦¸à§ĩà¦¨à§įà¦¸":5616,"à¦¡à¦¼à¦¯à¦¨à§įà¦¤à§įà¦°":5617,"Ġà¦¬à§ĭà¦°à§įà¦¡à§ĩà¦°":5618,"Ġà¦ĸà¦¾à¦¤à§ĩ":5619,"Ġà¦®à§ĩà¦²":5620,"à¦¸à§įà¦Łà¦¾à¦«":5621,"à§ģà¦¨à¦¿":5622,"à¦ĵà¦¯à¦¼à¦¾à¦¨":5623,"à¦¿à¦¯à¦¼à¦®":5624,"Ġà¦¸à¦¾à¦¯à¦¼":5625,"Ġà¦¸à§įà¦¬à§ĩà¦ļà§įà¦Ľ":5626,"ac":5627,"Ġà¦īà¦ªà¦¹à¦¾à¦°":5628,"Ġà¦ªà§įà¦°à¦¤à¦¿à¦·à§įà¦łà":5629,"Ġà¦ªà§įà¦°à¦¤à¦¿à¦·à§įà¦łà¦":5630,"Ġà¦ªà§įà¦°à¦¤à¦¿à¦·à§įà¦łà¦¾":5631,"Ġà¦ªà¦Ł":5632,"ial":5633,"ere":5634,"-à¦ļ":5635,"à¦°à§ĭà¦§":5636,"Ġà¦¦à§ĩà¦ĵà¦¯à¦¼":5637,"Ġà¦¸à§įà¦®à¦¾à¦°à§įà¦Łà¦«à§ĭà¦¨":5638,"Ġà¦¶à¦¾à¦¸à¦¨":5639,"Ġà¦ļà¦¾à¦²à¦¾à¦¨à§ĭ":5640,"Ġà¦¨à¦¬à§Ģ":5641,"ĠSt":5642,"Ġà¦ªà¦¾à¦¨à¦¿à¦°":5643,"Ġà¦°à¦¹à¦¸à§įà¦¯":5644,"Ġà¦ķà¦¾à¦°à¦¾à¦¦":5645,"Ġà¦īà¦ªà¦¦à§ĩà¦·à§įà¦Łà¦¾":5646,"Ġà¦¹à§Ī":5647,"à¦¾à¦ĩà¦²à§ĩ":5648,"Ġà¦²à¦¿à¦ĸà¦¿à¦¤":5649,"Ġà¦ªà§ģà¦ģà¦ľ":5650,"Ġà¦¸à¦ķà¦²à§ĩà¦°":5651,"Ġà¦¨à¦¾à¦®à¦ķ":5652,"Ġà¦®à§ĩà¦²à¦¾":5653,"Ġà¦¬à¦ķà§įà¦¤à¦¬à§įà¦¯à§ĩ":5654,"Ġà¦®à§ĭà¦¡à¦¼":5655,"Ġà¦Ĩà¦«à¦Ĺà¦¾à¦¨":5656,"Ġà¦Ĩà¦ľà¦¿à¦ľ":5657,"Ġà¦¶à¦¾à¦ĸà":5658,"Ġà¦¶à¦¾à¦ĸà¦":5659,"Ġà¦¶à¦¾à¦ĸà¦¾":5660,"Ġà¦ªà§įà¦°à¦¯à§ĭà¦ľ":5661,"Ġà¦¹à¦¬à¦¾à¦°":5662,"Ġà¦ªà¦°à¦ĵ":5663,"Ġà¦¬à¦¾à¦Ļà¦¾à¦²à¦¿":5664,"ĠÙħ":5665,"Ġà¦ķà¦¾à¦ģà¦ļ":5666,"Ġà¦¸à¦°à¦¿à¦¯à¦¼à§ĩ":5667,"à¦¿à¦·à§įà¦ķà¦¾à¦°":5668,"à¦¿à¦¸à§įà¦¤à¦¾à¦¨":5669,"Ġà¦¬à¦¾à¦Ł":5670,"Ġà¦ľà¦¾à¦®à¦¾à¦²":5671,"Ġà¦¸à¦¾à¦§à¦¾à¦°à¦£à¦¤":5672,"Ġà¦¨à§ĩà¦¤à§ĥ":5673,"à¦¤à§ĭà¦®":5674,"Ġà¦ªà§įà¦°à§ĩà¦ķà§įà¦·":5675,"Ġhttp":5676,"Ġà¦®à¦¿à¦°à§įà¦ľà¦¾":5677,"Ġà¦ªà¦¾à¦¬à¦²à¦¿à¦ķ":5678,"Ġà¦¯à§ĩà¦ķà§ĭà¦¨à§ĭ":5679,"Ġà¦¶à¦¾à¦ĸà¦¾à¦°":5680,"Ġà¦®à§ģà¦¹à§Ĥà¦°à§įà¦¤à§ĩ":5681,"Ġà¦ıà¦°à¦¾":5682,"/à§¨à§¦à§§à§":5683,"Ġà¦Ńà§ģà¦²à§ĩ":5684,"à§ģà¦²à":5685,"à§ģà¦²à¦":5686,"à§ģà¦²à¦¾":5687,"Ġà¦¬à§Į":5688,"Ġà¦ħà¦¨à§ģà¦·à§įà¦łà¦¾à¦¨à§ĩà¦°":5689,"Ġà¦Ĺà§ĭà¦¯à¦¼à§ĩà¦¨à§įà¦¦à":5690,"Ġà¦Ĺà§ĭà¦¯à¦¼à§ĩà¦¨à§įà¦¦à¦":5691,"Ġà¦Ĺà§ĭà¦¯à¦¼à§ĩà¦¨à§įà¦¦à¦¾":5692,"Ġà¦¸à¦Ĥà¦¸à§įà¦ķà§ĥà¦¤à¦¿":5693,"à¦¾à¦Łà¦¾à¦°":5694,"Ġà¦ķà§įà¦·à¦®à¦¤":5695,"Ġà¦®à§ģà¦¶":5696,"Ġà¦ªà§Ĥà¦°à§įà¦¬à§ĩ":5697,"Ġà¦ĸà¦¾à¦¨à§ĩà¦°":5698,"Ġà¦®à§ģà¦ķà§įà¦¤à¦¿à¦°":5699,"Ġà¦¬à¦¿à¦¦à§ĩà¦¶à¦¿":5700,"Ġà¦¶à¦¿à¦°à§ĭà¦¨":5701,"oy":5702,"à¦¿à¦ıà¦«":5703,"Ġà¦Ĺà¦°à§įà¦Ń":5704,"Ġà¦ļà¦¤à§ģà¦°à§įà¦¥":5705,"Ġà¦¸à¦¬à¦ķà¦¿à¦Ľà§ģ":5706,"Ġà¦¬à¦¨à§įà¦¯":5707,"Ġà¦¸à¦Ĥà¦°à¦ķà§įà¦·à¦£":5708,"à¦¾à¦Ľà¦¿":5709,"Ġà¦¡à¦¿à¦®":5710,"own":5711,"Ġà¦ªà§įà¦°à¦¬à¦¾à¦¸à§Ģ":5712,"ru":5713,"Ġà¦¦à§ģà¦Łà§ĭ":5714,"à¦¶à§ģà¦ķà§įà¦°à¦¬à¦¾à¦°":5715,"à¦¸à¦Ļà§įà¦Ĺà¦®":5716,"à¦¡à¦¿à¦¸":5717,"Ġà¦¸à¦¬à¦¸à¦®à¦¯à¦¼":5718,"à¦¸à§įà¦®":5719,"à¦ĸà§ģà¦²à¦¨à¦¾":5720,"Ġà¦ļà§ĩà¦ķ":5721,"à¦¾à¦¤à¦¨":5722,"à¦¾à¦²à¦¿à¦°":5723,"ph":5724,"13":5725,"à¦²à§ĩà¦Ł":5726,"à¦ĵà¦¯à¦¼à§ĩ":5727,"à¦¶à§Ģ":5728,"Ġà¦ĺà¦¾à¦Ł":5729,"Ġà¦¹à§ĭà¦Łà§ĩà¦²":5730,"Ġà¦¶à§įà¦°à§ĩà¦£à¦¿à¦°":5731,"04":5732,"Ġà¦¬à¦¿à¦¨à¦¾à¦®à§Ĥà¦²à§įà¦¯à§ĩ":5733,"à¦¿à¦Łà¦¿à¦īà¦Ł":5734,"à§¨à§Ń":5735,"rom":5736,"à¥¤[":5737,"à¦¸à¦¾à¦Ĥ":5738,"Ġà¦¬à¦¿à¦Ł":5739,"Ġà¦ķà¦°à§ĩà¦¨à¦¿":5740,"¦Ĭ":5741,"09":5742,"à¦Ĭ":5743,"Time":5744,"Ġà¦¤à¦¾à¦ĵ":5745,"ian":5746,"Ġà¦Ŀà§ģà¦ģà¦ķà¦¿":5747,"-à¦¦":5748,"à¦§à¦¾à¦°":5749,"Ġà¦°à¦¾à¦ĸà§ģà¦¨":5750,"Ġà¦¬à§ĭà¦®à¦¾":5751,"à¦¾à¦¹à¦¾à¦¨":5752,"Ġà¦ħà¦Ńà¦¿à¦¯à¦¾à¦¨à§ĩ":5753,"à¦¾à¦®à¦¿à¦¨":5754,"Ġam":5755,"Ġà¦Ĺà§ģà¦°à§ģà¦¤à¦°":5756,"à¦ĩà¦¸à¦²":5757,"Ġà¦ıà¦¬à¦¾à¦°à§ĩà¦°":5758,"à¦ķà¦¾à¦°à§Ģà¦°à¦¾":5759,"à§ģà¦¬à¦¾à¦¦":5760,"ays":5761,"à¦¸à¦Ĥà¦¬à¦¾à¦¦":5762,"à¦¿à¦¬à¦¿à¦°":5763,"Ġà¦Ĩà¦²à¦®à¦Ĺà§Ģà¦°":5764,"Ġà¦¸à¦¾à¦°à¦¾à¦¦à§ĩà¦¶":5765,"Ġà¦¸à¦¾à¦®à§įà¦ªà§įà¦°à¦¤à¦¿à¦ķ":5766,"à¦¸à¦Ńà¦¾à¦ªà¦¤à¦¿":5767,"ĠØ£":5768,"Ġà¦°à§ģà¦Ł":5769,"Ġà¦ıà¦ķà§ĩà¦¬à¦¾à¦°à§ĩ":5770,"Ġà¦Łà¦¾à¦¯à¦¼":5771,"Ġà¦®à¦®à¦¤à¦¾":5772,"Ġà¦¤à§ģà¦°":5773,"à¦¾à¦Ĥà¦ķ":5774,"à¦¾à¦ĩà¦²à§ĩà¦°":5775,"Ġà¦¨à§Ĥà¦°":5776,"Ġà¦¯à¦¶à§ĭà¦°":5777,"Ġà¦Ľà¦¾à¦ª":5778,"Ġà¦Ńà¦Ĺ":5779,"à¦¾à¦¬à¦°":5780,"ite":5781,"Ġà¦ªà§įà¦°à¦¦à¦°à§įà¦¶":5782,"à§ĭà¦§à¦¨à§Ģ":5783,"Ġà¦®à§ĭà¦°":5784,"Ġà¦īà¦ķà§įà¦¤":5785,"à¦¾à¦ķà§įà¦¤à¦¨":5786,"Ġà¦ĩà¦ľ":5787,"Ġà¦ķà¦¾à¦¬":5788,"à¦«à¦°à§įà¦®":5789,"à¦ķà¦¾à¦²à§ĩà¦°":5790,"Ġà¦¬à¦¾à¦¸à¦¿à¦¨à§įà¦¦à¦¾":5791,"ĠAr":5792,"à¦ĺà¦¾à¦Ł":5793,"à¦¸à§ģà¦°":5794,"Ġà¦¹à¦¾à¦¦":5795,"Ġà¦Ĩà¦¶à¦°à¦¾à¦«":5796,"Ġà¦ħà¦¨à§ĩà¦ķà§ĩà¦°":5797,"Ġà¦ħà¦ŀà§įà¦ļà¦²à§ĩà¦°":5798,"à¦¿à¦Ļà§įà¦ķ":5799,"Ġà¦¬à§Īà¦¶à¦¿à¦·à§įà¦Ł":5800,"Ġà¦ªà§ĥà¦¥à¦ķ":5801,"à¦ľà¦¯à¦¼":5802,"Ġà¦¸à¦¨à§įà¦¤à§įà¦°à¦¾à¦¸à§Ģ":5803,"à¦Ĩà¦¨à§įà¦¤":5804,"Ġà¦¶à¦¿à¦ķà§įà¦·à¦¾à¦°":5805,"Ġà¦ħà¦«à¦¿à¦¸à§ĩ":5806,"Ġà¦ķà¦°à¦²à§ĭ":5807,"Ġà¦¹à§ĭà¦¸à§ĩà¦¨à§ĩà¦°":5808,"à¦īà¦²":5809,"Ġà¦¦à§ģà¦°à§įà¦¬à¦²":5810,"à¦ħà¦¨à§ĩà¦ķ":5811,"Ġà¦¨à§ĩà¦Łà¦ĵà¦¯à¦¼à¦¾à¦°à§įà¦ķ":5812,"Ġà¦Ńà¦¿à¦ľ":5813,"Ġà¦¸à¦Ĥà¦¸à§įà¦ķà¦°à¦£":5814,"Ġà¦¸à§ĩà¦¤à§ģ":5815,"Ġà¦¢à§ģà¦ķà§ĩ":5816,"Ġà¦·à¦¡à¦¼à¦¯à¦¨à§įà¦¤à§įà¦°":5817,"Ġà¦ªà§įà¦°à¦ķà¦¾à¦¶à§ĩà¦°":5818,"Ġà¦¤à§Īà¦°à§Ģ":5819,"à¦ªà¦°à¦¬à¦°à§įà¦¤à§Ģ":5820,"Ġà¦ªà¦¡à¦¼à¦¾à¦¶":5821,"Ġà¦®à¦¾à¦²à¦¯à¦¼à§ĩà¦¶":5822,"te":5823,"Ġà¦ķà§ĩà¦¨à§įà¦¦à§įà¦°à§ĩà¦°":5824,"Ġà¦¹à¦¾à¦¤à§ĩà¦°":5825,"Ġà¦ħà¦¨à§ģà¦¸à¦°à¦£":5826,"Ġà¦ħà¦¬à¦¹":5827,"Ġà¦Ĺà¦łà¦¿à¦¤":5828,"Ġà¦ļà§įà¦¯à¦¾à¦¨à§ĩà¦²":5829,"Ġit":5830,"Ġà¦ķà¦¾à¦¶à§įà¦®":5831,"Ġà¦ĵà¦¦à§ĩà¦°":5832,"Ġà¦ļà¦²à¦¤à§ĩ":5833,"Ġà¦ķà¦¾à¦ªà¦¡à¦¼":5834,"Ġà¦¸à¦Ĥà¦¬à¦¿à¦§":5835,"à¦°à¦ķà¦®":5836,"Ġà¦īà¦łà¦¤à§ĩ":5837,"Ġà¦ľà¦¾à¦¹à¦¾à¦Ļà§įà¦Ĺà§Ģà¦°":5838,"Ġà¦¸à¦®à¦¾à¦²à§ĭà¦ļà¦¨à¦¾":5839,"Ġà¦¸à§ĩà¦¨à§įà¦Łà¦¾à¦°":5840,"Ġà¦°à¦ļà¦¨à¦¾":5841,"à¦ıà¦ĩà¦ļ":5842,"à¦Ĺà¦¿à¦°":5843,"Ġà¦ķà¦¾à¦°à¦ĵ":5844,"à¦¬à¦¾à¦¦à§Ģ":5845,"Ġà¦¬à§įà¦¯à¦¾à¦Łà¦¸à¦®à§įà¦¯à¦¾à¦¨":5846,"à¦ļà¦¾à¦°à§Ģ":5847,"Ġà¦¸à¦¨à§įà¦¤à¦¾à¦¨à§ĩà¦°":5848,"Ġà¦¬à¦¿à¦¦à¦¾à¦¯à¦¼":5849,"Ġà§¦à§¦":5850,"à¦ĺà¦Ł":5851,"à¦·à§įà¦ł":5852,"Ġà¦ķà¦®à¦ªà§įà¦²à§ĩà¦ķà§įà¦¸":5853,"Ġà¦ħà¦§à§Ģà¦¨à§ĩ":5854,"Ġà¦ħà¦Ńà¦¾à¦¬":5855,"Ġà¦ıà¦ľà¦¨à§įà¦¯":5856,"Ġthat":5857,"à§ĩà¦¯à¦¼à":5858,"à§ĩà¦¯à¦¼à¦":5859,"Ġ18":5860,"à§ĩà¦¯à¦¼à¦¾":5861,"Ġà¦Ĩà¦¯à¦¼à§ĭà¦ľà¦¨à§ĩ":5862,"Ġà¦®à¦¨à¦¿à¦°":5863,"ok":5864,"Ġà¦ħà¦ŀà§įà¦ļà¦²à§ĩ":5865,"Ġà¦Łà§įà¦°à§ĩà¦¡à¦¿à¦Ĥ":5866,"Ġà¦Ľà¦¾à¦¤à§įà¦°à§Ģ":5867,"Ġà¦ĩà¦ŀà§įà¦ľà¦¿à¦¨à¦¿à¦¯à¦¼à¦¾à¦°":5868,"à¦¨à§įà¦ł":5869,"à¦¾à¦¨à¦¾à¦¯à¦¼":5870,"Ġà¦ļà¦¾à¦°à¦Łà¦¿":5871,"Ġà¦ĵà¦¯à¦¼à¦¾à¦²":5872,"à¦ıà¦°à¦ªà¦°":5873,"à¦¿à¦¨à¦¾à¦ĩ":5874,"Ġà¦ķà¦¾à¦īà¦¨à§įà¦¸à¦¿à¦²à¦°":5875,"Ġà¦ķà¦²à§ĩà¦ľà§ĩ":5876,"Ġà¦ªà¦°à¦¬à¦°à§įà¦¤":5877,"à¦¬à¦¿à¦Ń":5878,"Ġà¦ķà¦¾à¦®à¦¨à¦¾":5879,"à¦ķà¦¾à¦¨":5880,"get":5881,"06":5882,"Ġà¦ĵà¦ľà¦¨":5883,"Ġà¦Ĺà§ĭà¦²à§ĩ":5884,"Ġà¦¬à¦¾à¦ľà§ĩà¦Ł":5885,"Ġà¦¸à§ģà¦¨à¦¾à¦®":5886,"05":5887,"Ġà¦ªà§įà¦°à¦¤à¦¿à¦¬à§ĩà¦¦à¦¨à§ĩ":5888,"à¦¾à¦ľà¦ªà§ģà¦°":5889,"à¦¬à¦°à§įà¦¤à¦®à¦¾à¦¨":5890,"Ġà¦Ĩà¦°à¦¿à¦«":5891,"Ġà¦ķà§ĭà¦°à§įà¦¸":5892,"pt":5893,"Ġà¦¶à§ģà¦°à§ģà¦°":5894,"Ġà¦ķà¦°à§įà¦®à¦ķà¦°à§įà¦¤à¦¾à¦°à¦¾":5895,"Ġà¦łà¦¾à¦ķà§ģà¦°":5896,"Ġà¦ıà¦ıà¦®":5897,"Ġà¦¬à§įà¦¯à¦¾à¦ķ":5898,"à¦ľà§ģà¦¡à¦¼à§ĩ":5899,"à¦¾à¦¨à§ģà¦°":5900,"à¦¤à¦¾à¦°à¦¾":5901,"à¦¸à¦®à§įà¦®":5902,"Ġà¦¬à§įà¦²à¦ķ":5903,"Ġà¦ªà¦°à¦¿à¦¦à¦°à§įà¦¶à¦¨":5904,"'s":5905,"à¦¹à¦²":5906,"Ġà¦ķà§įà¦¯à¦¾à¦ª":5907,"Ġà¦ħà¦§à§įà¦¯à¦ķà§įà¦·":5908,"Ġà¦¸à§Įà¦¨à§įà¦¦à¦°":5909,"Ġà¦ľà¦¨à§įà¦®à¦¦à¦¿à¦¨":5910,"à§©à§«":5911,"à¦¾à¦ĩà¦¯à¦¼à§ĩà¦°":5912,"à§įà¦®à§Ģ":5913,"Ġà¦¹à¦¾à¦¬à¦¿à¦¬":5914,"Ġà¦Ĳà¦¤à¦¿à¦¹à¦¾à¦¸à¦¿à¦ķ":5915,"à¦¬à¦¿à¦°à§ĭà¦§à§Ģ":5916,"à¦ĩà¦Ĥ":5917,"Ġà¦¦à¦¾à¦¯à¦¼à§Ģ":5918,"à¦¿à¦ªà§ģà¦°":5919,"Ġà¦ħà¦¡":5920,"Ġà¦¶à¦¨à¦¾à¦ķà§įà¦¤":5921,"Ġà¦¹à¦¾à¦Ł":5922,"à¦īà¦²à§įà¦²à§ĩà¦ĸà§įà¦¯":5923,"Ġà¦ªà§įà¦°à¦¦à§ĩà¦¶":5924,"Ġà¦ļà¦¾à¦°à§įà¦ľ":5925,"Ġà¦ħà¦°à§įà¦¥à¦¨à§Ģà¦¤":5926,"Ġhe":5927,"Ġà¦ļà¦¿à¦¹à§įà¦¨à¦¿à¦¤":5928,"Ġà¦¦à§ģà¦°à§įà¦¦":5929,"Ġà¦Ĩà¦®à§ĩà¦°à¦¿à¦ķà¦¾":5930,"Ġà¦¬à¦¨à§įà¦¦à§įà¦¯":5931,"Ġà¦Ĩà¦°à§įà¦ľ":5932,"Ġà¦ªà§Ĥà¦°à§įà¦¬à¦¾à¦¹à§įà¦¨":5933,"ÙİÙĦ":5934,"Ġà¦¬à¦¿à¦°à¦¾à¦Ł":5935,"Ġà¦ķà§įà¦·à¦¤à¦¿à¦Ĺà§įà¦°à¦¸à§įà¦¤":5936,"Ġà¦ªà§įà¦°à§ĩà¦¸à¦ķà§įà¦²":5937,"Ġà¦ĸà¦¬":5938,"Ġà¦°à¦Ĥà¦ªà§ģà¦°":5939,"Ġà¦¬à¦¾à¦°à¦¬à¦¾à¦°":5940,"à§įà¦¯à¦®à¦¾à¦¨":5941,"Ġà¦®à§ģà¦Ľà¦²à¦¿à¦®":5942,"à¦ĵà¦ĩ":5943,"Ġà¦ľà¦¨à¦ķ":5944,"à§įà¦¬à¦¨à§įà¦¦à§įà¦¬":5945,"à¦°à§ģà¦®":5946,"à¦ªà¦¾à¦¡à¦¼":5947,"Ġà¦ļà¦¾à¦®à¦ļ":5948,"Ġà¦®à¦¾à¦ĩà¦ķà§įà¦°":5949,"Ġà¦ªà§įà¦°à§ĭà¦Ĺà§įà¦°à¦¾à¦®":5950,"à¦Ĺà§įà¦§":5951,"Ġà¦®à¦ŀà§įà¦ľ":5952,"ib":5953,"à¦īà¦¦à§įà¦¦à¦¿à¦¨":5954,"Ġà¦ªà¦°à§įà¦¦":5955,"Ġà¦®à¦¦":5956,"load":5957,"ile":5958,"Ġà¦¶à§įà¦°à§Ģà¦²à¦Ļà§įà¦ķ":5959,"Ġà¦ħà¦§à¦¿à¦¬":5960,"Ġà¦ªà§įà¦°à¦¤à¦¿à¦¬à¦¨à§įà¦§":5961,"à¦¿à¦¸à¦¿à¦°":5962,"Ġà¦¨à§ĩà¦¤à¦¾à¦°":5963,"Ġà¦¬à¦¸à§ģ":5964,"ĠØ¨":5965,"Ġago":5966,"Ġà¦¬à§ĭà¦Ŀà":5967,"Ġà¦¬à§ĭà¦Ŀà¦":5968,"Ġà¦¬à§ĭà¦Ŀà¦¾":5969,"Ġà¦®à¦¾à¦¸à§įà¦Łà¦¾à¦°":5970,"à¦¬à¦§":5971,"Ġà¦®à¦¾à¦¶à¦°à¦¾à¦«":5972,"ĠOn":5973,"Ġà¦¸à§ģà¦·à§įà¦ł":5974,"Ġà¦ĸà¦¾à¦¬":5975,"à§¨à§®":5976,"Ġà¦ħà¦¨à§ģà¦ªà§įà¦°":5977,"Ġà¦ĩà¦¤à§ĭà¦®":5978,"Ġà¦¦à¦¾à¦ĸ":5979,"Ġà¦¬à§ĩà¦¨":5980,"Ġà¦ĵà¦°à¦¾":5981,"à¦¬à¦¯à¦¼":5982,"Ġà¦ªà¦¾à¦°à¦²à§ĩ":5983,"Ġà¦¸à¦®à§ĥà¦¦à§įà¦§":5984,"Ġà¦ķà§ĩà¦°":5985,"à¦¾à¦°à¦£à":5986,"à¦¾à¦°à¦£à¦":5987,"à¦¾à¦°à¦£à¦¾":5988,"Ġà¦¬à§ĩà¦ķ":5989,"Ġà¦¸à¦¦à¦¸à§įà¦¯à§ĩà¦°":5990,"à¦¤à¦¾à¦°à¦¿à¦ĸ":5991,"Ġà¦Ľà¦¿à¦¨":5992,"à§ģà¦®à¦¾à¦¨":5993,"à¦¤à¦¿à¦¨":5994,"Ġà¦¬à¦²à¦²à¦¾à¦®":5995,"à¦¸à¦¾à¦§à¦¾à¦°à¦£":5996,"Ġà§Ńà§¦":5997,"Ġà¦ªà§ĩà¦²à§ĩ":5998,"Ġà¦īà¦¦à¦¾à¦¹":5999,"à¦ļà¦°":6000,"à¦¾à¦«à¦¿à¦ķ":6001,"à§įà¦°à§ĩà¦Ł":6002,"Ġà¦ħà¦¨à§įà¦¤à¦°à§įà¦Ńà§ģà¦ķà§įà¦¤":6003,"à¦¬à¦¨à§įà¦¦à¦°":6004,"Ġà¦ªà¦¾à¦¨à¦¿à¦¤à§ĩ":6005,"Ġà¦ªà¦¾à¦ļà§įà¦Ľà§ĩ":6006,"à§ĥà¦¤à§įà¦¤à¦¿":6007,"à¦Ńà¦¬":6008,"Ġà¦¨à¦¿à¦ĸà§ĭà¦ģà¦ľ":6009,"à¦¨à§įà¦¯à¦¾à¦¶à¦¨à¦¾à¦²":6010,"Ġà¦ªà¦¾à¦¶à§ĩà¦°":6011,"job":6012,"Ġà¦¨à§ĩà¦¬":6013,"Ġà¦¹à¦¿à¦®":6014,"-à¦ķà¦°à§įà¦®":6015,"à¦¬à¦¾à¦¨à§įà¦§":6016,"à¦¸à¦¿à¦²à§ĩà¦Ł":6017,"à¦¾à¦¨à¦¾à¦°":6018,"à¦¬à¦°à¦¿à¦¶à¦¾à¦²":6019,"Ġà¦¸à¦Ĥà¦ĺà¦°à§įà¦·à§ĩ":6020,"à¦¶à¦¿à¦ķà§įà¦·à":6021,"à¦¶à¦¿à¦ķà§įà¦·à¦":6022,"à¦¶à¦¿à¦ķà§įà¦·à¦¾":6023,"à¦°à§ĭ":6024,"à¦¬à§Ī":6025,"Ġà¦ħà¦¬à¦¾à¦ķ":6026,"Ġà¦«à§ĩà¦¸à¦¬à§ģà¦ķà§ĩ":6027,"Ġà¦¸à¦Ĥà¦Ĺà§įà¦°à¦¹à§ĩà¦°":6028,"Ġpm":6029,"¦Ķ":6030,"à¦Ķ":6031,"Ġà¦¶à§Ĥà¦¨à§įà¦¯":6032,"Ġà¦ªà¦¿à¦Ł":6033,"Ġà¦¶à¦¾à¦®à§Ģ":6034,"Ġà¦¶à¦¾à¦¹à¦°":6035,"Ġà¦ħà¦Ńà¦¿à¦¨à§ĩà¦¤à¦¾":6036,"à¦°à¦ŀà§įà¦ľ":6037,"07":6038,"à¦¹à¦¬":6039,"Ġà¦ĺà¦¨à§įà¦Łà¦¾":6040,"Ġà¦ªà¦°à§įà¦¯à¦¬à§ĩ":6041,"Ġà¦¶à§Ī":6042,"Ġà¦ľà¦¾à¦¨à§ģà¦¯à¦¼à¦¾à¦°à§Ģ":6043,"Ġà¦¦à§įà¦¬à§Ģà¦ª":6044,"Ġà¦ħà¦¨à§ĩà¦ķà¦Łà¦¾":6045,"Ġà¦¨à¦®à§įà¦¬":6046,"Ġà¦®à¦°à¦¦à§ĩà¦¹":6047,"Ġà¦¬à¦Ĺà§ģà¦¡à¦¼":6048,"à¦¸à¦¿à¦¨":6049,"Ġà¦«à¦¸à¦²":6050,"%e":6051,"Ġà¦īà¦¡à¦¼":6052,"Ġà¦¬à¦¿à¦ĸ":6053,"Ġà¦Ľà¦¾à¦¡à¦¼à¦¾à¦ĩ":6054,"Ġà¦¬à¦¿à¦¬à¦¾à¦¹":6055,"à¦¦à§ĩà¦¬":6056,"Ġà¦ħà¦Ńà¦¿à¦Ńà¦¾à¦¬":6057,"Ġà¦Ĩà¦¨à¦¾à¦°":6058,"à¦¬à¦¡à¦¼":6059,"à¦®à§ĭà¦¬":6060,"Ġà¦¸à§ĩà¦¦à¦¿à¦¨":6061,"à¦¤à¦²":6062,"Ġà¦Ĺà§ģà¦ľ":6063,"à¦®à§ĭà¦¹":6064,"Ø³":6065,"à§įà¦²à§Ģà¦²":6066,"Ġà¦¬à¦¾à¦£à¦¿à¦ľà§įà¦¯à¦¿à¦ķ":6067,"Ġà¦®à¦¾à¦¸à§ģà¦¦":6068,"Ġà¦¸à¦¤à§įà¦¯à¦¿":6069,"Ġà¦ħà¦°à§įà¦¥à¦¬à¦Ľ":6070,"Â»":6071,"à®":6072,"Ġà¦¶à¦¤à¦¾à¦§à¦¿à¦ķ":6073,"Ġà¦ħà¦¸à¦Ĥà¦ĸ":6074,"à¦¬à¦¾à¦°à§įà¦·à¦¿à¦ķ":6075,"Ġà¦ıà¦¦à¦¿à¦¨":6076,"Ġà¦¸à¦®à¦¨à§įà¦¬à¦¯à¦¼":6077,"à¦¾à¦¹à§įà¦¨":6078,"ame":6079,"Ġà¦¬à§ĩà¦¸":6080,"Ġà¦¹à¦¿à¦ľ":6081,"à¦¿à¦¯à¦¼à¦¾à¦ķ":6082,"Ġà¦¬à¦¿à¦ĸà§įà¦¯à¦¾à¦¤":6083,"Ġà¦Ŀà§ģà¦²":6084,"Ġà¦¸à§ģà¦ªà§įà¦°à¦¿à¦®":6085,"à§ĭà¦ļà¦¨à¦¾":6086,"-à§§à§¨":6087,"Ġà¦®à¦¿à¦Ł":6088,"à¦«à¦°à¦®":6089,"à¦¿à¦¤à¦¿à¦¤à§ĩ":6090,"26":6091,"à¦¹à¦¾à¦¸":6092,"à¦ªà§įà¦°à§ĩà¦®":6093,"Ġà¦ļà¦²à¦®à¦¾à¦¨":6094,"Ġà¦¸à¦ķà§įà¦°à¦¿à¦¯à¦¼":6095,"à¦Ĺà§ĭà¦²":6096,"pd":6097,"Ġà¦Ĺà¦²":6098,"à§Ĥà¦¨":6099,"Ġà¦¹à¦¾à¦¦à§Ģ":6100,"nt":6101,"Ġà¦ªà§ĩà¦²à§ĩà¦¨":6102,"à¦¿à§":6103,"Ġà¦¬à¦¿à¦¨à§ĭà¦¦à¦¨":6104,"omments":6105,"à¦ªà¦¿à¦°à¦¾à¦ĩà¦Ł":6106,"à¦¾à¦īà¦°":6107,"Ġà¦Ĩà¦ľà¦¾à¦¦":6108,"(\"":6109,"Ġà¦¶à§įà¦¯à¦¾à¦®":6110,"Ġà¦¸à¦¾à¦«à¦²à§įà¦¯":6111,"Ø¯":6112,"à¦®à§ĩà¦¯à¦¼":6113,"à¦¿à§·":6114,"ear":6115,"Ġà¦Ĺà¦¾à¦¨à§ĩà¦°":6116,"à¦¿à¦¯à¦¼à¦¾à¦®à§ĩ":6117,"à¦°à§įà¦ļà":6118,"à¦°à§įà¦ļà¦":6119,"à¦°à§įà¦ļà¦¾":6120,"à¦¿à¦¯à¦¼à§ĩà¦Ł":6121,"Ġà¦¸à§ģà¦¦":6122,"Ġà¦¸à¦®à§įà¦ªà¦°à§įà¦ķà¦¿à¦¤":6123,"à¦¿à¦ľà§ĩà¦°":6124,"Ġà¦ĵà¦¯à¦¼à§ĩà¦¸à§įà¦Ł":6125,"08":6126,"Ġà¦ªà§įà¦°à¦ķà¦¾à¦°":6127,"à¦Łà§ĩà¦ķ":6128,"Ġà¦¨à¦¿à¦·à§ĩà¦§à¦¾à¦ľà§įà¦ŀà":6129,"Ġà¦¨à¦¿à¦·à§ĩà¦§à¦¾à¦ľà§įà¦ŀà¦":6130,"Ġà¦¨à¦¿à¦·à§ĩà¦§à¦¾à¦ľà§įà¦ŀà¦¾":6131,"à§įà¦°à¦¯à¦¼à§ĩà¦¡":6132,"-à§§à§¯":6133,"à¦¿à¦¬à¦¿à¦¦":6134,"Ġà¦īà¦¨à§įà¦¨à¦¯à¦¼à¦¨à§ĩ":6135,"à¦¬à¦¿à¦¬":6136,"à§ĩà¦¡à¦¾à¦°":6137,"Ġà¦¶à¦¤à§įà¦°":6138,"Ġà¦¬à§įà¦¯à¦¾à¦°":6139,"Ġà¦ĵà¦¯à¦¼à¦¾à¦¸":6140,"Ġà¦¦à¦¿à¦ļà§įà¦Ľà§ĩà¦¨":6141,"Ġà¦¸à§įà¦®à§ĥà¦¤à¦¿":6142,"Ġà¦ħà¦¸à¦Ĥà¦ĸà§įà¦¯":6143,"à¦¦à¦ķà§įà¦·à¦¿à¦£":6144,"Ġà¦ªà§ģà¦°à¦¨à§ĭ":6145,"ata":6146,"Ġà¦°à§ĭà¦¹à¦¿à¦Ļà§įà¦Ĺà¦¾à¦¦à§ĩà¦°":6147,"Ġà¦«à¦¾à¦ģà¦¸":6148,"Ġà¦¸à¦Ĥà¦¸à§įà¦ķà¦¾à¦°":6149,"Ġà¦¢à¦¾à¦ķ":6150,"à§įà¦Łà§ĩ":6151,"%E":6152,"Ġà¦ķà§ģà¦²":6153,"Ġà¦ªà§įà¦°à¦¤à¦¿à¦¯à§ĭà¦Ĺà¦¿à¦¤à¦¾":6154,"à¦¾à¦Ĩ":6155,"à¦¾à¦²à¦¾à¦°":6156,"à¦¯à¦¼à¦¿à¦ķ":6157,"à§İà¦ķà¦¾à¦°":6158,"à¦¾à¦¯à¦¼à§ĩà¦¤":6159,"Ġà¦ľà¦¾à¦¨à¦¾à¦²à§ĩà¦¨":6160,"Ġare":6161,"Ġà¦ĩà¦¯à¦¼à¦¾à¦¬à¦¾":6162,"Ġà¦¬à§ĩà¦¶à¦¿à¦°à¦Ńà¦¾à¦Ĺ":6163,"à¦¿à¦Łà¦¿à¦¤à§ĩ":6164,"pp":6165,"Ġà¦¶à§ģà¦Ł":6166,"Ġà¦ħà¦ªà¦¹":6167,"Ġà¦°à§ģà¦¬":6168,"Ġà¦ļà¦¾à¦²à¦¾à¦¯à¦¼":6169,"Ġtits":6170,"Ġà¦ļà¦¿à¦ķà¦¿à§İà¦¸à¦¾à¦°":6171,"Ġà¦ķà§ĭà¦Ł":6172,"Ġà¦«à¦¾à¦ĩà¦²":6173,"Ġà¦¸à¦«à¦°à§ĩ":6174,"à¦¨à¦Ĥ":6175,"à§ĭà¦ķà§ĩ":6176,"Ġà¦ķà¦°à§įà¦®à§Ģà¦¦à§ĩà¦°":6177,"à¦Ĺà§ģà¦²à§ĭà¦ķà§ĩ":6178,"à¦¬à¦¾à¦¡à¦¼à¦¿":6179,"Ġà¦®à¦¾à¦¨à¦¬à¦¾à¦§à¦¿à¦ķà¦¾à¦°":6180,"à§ĩà¦ľà§ĩà¦°":6181,"à¦¾à¦Ĺà¦¡à¦¼":6182,"Ġà¦ħà¦¨à¦²à¦¾à¦ĩà¦¨à§ĩ":6183,"Ġà¦ħà¦¨à§ģà¦¸à¦¨à§įà¦§":6184,"Ġà¦ķà¦¾à¦²à§ĩà¦°":6185,"à¦¨à§ĩà¦¸":6186,"Ġà¦łà§ĩà¦ķ":6187,"à¦¿à¦¸à":6188,"à¦¿à¦¸à¦":6189,"à¦¿à¦¸à¦¾":6190,"Ġà¦ªà¦°à¦ĩ":6191,"à¦¾à¦¯à¦¥":6192,"à¦¬à§įà¦§":6193,"Ġà¦¸à¦¾à¦²à¦¾à¦®":6194,"Ġà¦¦à¦¿à¦¯à¦¼à§ĩà¦Ľà¦¿à¦²":6195,"Ġà¦¬à¦¾à¦¨à§įà¦¦":6196,"à¦ĩà¦²":6197,"Ġà¦¨à¦¿à¦¯à¦¼à¦¨à§įà¦¤à§įà¦°à¦£à§ĩ":6198,"à¦¾à¦¬à¦¾à¦¦à§Ģ":6199,"à¦Ĺà¦¾à¦Ľ":6200,"Ġà¦¬à¦¿à¦Ńà¦¾à¦Ĺà§Ģà¦¯à¦¼":6201,"Ġà¦²à¦Ĺ":6202,"Ġà¦¸à¦¹à¦ľà§ĩà¦ĩ":6203,"à§ĭà¦Ĺà¦¾à¦¨":6204,"à¦®à¦¾à¦¨à§ģà¦·":6205,"Ġà¦¥à§ĩà¦ķà§ĩà¦ĵ":6206,"Ġà¦ªà§įà¦°à¦¾à¦ķà§įà¦¤à¦¨":6207,"Ġà¦¸à¦¡à¦¼à¦ķà§ĩà¦°":6208,"Ġà¦ĵà¦¯à¦¼à¦¾":6209,"Ġà¦°à¦ªà§įà¦¤":6210,"Ġà¦«à§ĩà¦°à¦¾à¦°":6211,"à§ģà¦¬à¦¿à¦§":6212,"Ġà¦ľà§ĩà¦°":6213,"Ġà¦ªà¦¦à¦¤à§įà¦¯à¦¾à¦Ĺ":6214,"Ġà¦Łà§ģà¦ķ":6215,"Ġà¦Ĭ":6216,"Ġà¦¶à§įà¦°à§ĩà¦·à§įà¦ł":6217,"Ġà¦¦à§ĩà¦ĸà¦¾à¦¨à§ĭ":6218,"Ġà¦ªà§įà¦°à¦¤à¦¿à¦·à§įà¦łà¦¿à¦¤":6219,"à§Ģà¦°à§įà¦£":6220,"Ġà¦ªà¦°à¦¿à¦®à¦¾à¦¨":6221,"ĠÙģ":6222,"Ġà¦ĩà¦«":6223,"Ġà¦°à¦¾à¦ľà¦¿":6224,"ss":6225,"Ġà¦°à§ģà¦¹":6226,"Ġà¦²à¦¿à¦ĸà§ĩ":6227,"à¦¬à¦£":6228,"Ġ16":6229,"Ġà§¦à§¨":6230,"Ġà¦Ĩà¦°à§įà¦Ł":6231,"Ġà¦¤à¦²à¦¾":6232,"Ġà¦Ĩà¦¬à¦¾à¦¸":6233,"à¦Ńà¦¾à¦°à¦¤à§ĩà¦°":6234,"à¦¤à§ģà¦²":6235,"Ġà¦ķà¦¾à¦°à¦ĸà¦¾à¦¨":6236,"Ġà¦¬à¦¿à¦ķà¦¾à¦²":6237,"Ġà¦«à§įà¦°à¦¿":6238,"Ġà¦¯à§Įà¦¨à¦¸à¦Ļà§įà¦Ĺà¦®":6239,"à§ĩà¦Ĺà§ĩ":6240,"Ġà¦ķà¦¿à¦Ľà§ģà¦¦à¦¿à¦¨":6241,"Ġà¦¶à§ĭà¦¨à¦¾":6242,"Ġà¦ľà¦¿à¦ľà§įà¦ŀà¦¾à¦¸":6243,"à¦®à§ģà¦²":6244,"Ġà¦Ńà§ĩà¦¬à§ĩ":6245,"à¦¾à¦Ľà¦¾à¦¡à¦¼à¦¾":6246,"Ġà¦¥à¦¾à¦ķà¦Ľà§ĩ":6247,"Ġà¦®à§ĩà¦¨":6248,"à¦ªà§ĩà¦ķà§įà¦·":6249,"Ġà¦ªà§įà¦°à¦¯à¦¼à§ĭà¦ľ":6250,"Ġà¦Ľà§ģà¦Łà¦¿":6251,"Ġif":6252,"Ġà¦¨à¦¿à¦¬à¦¨à§įà¦§à¦¨":6253,"Ġà¦ľà¦¾à¦«":6254,"à¦Ńà¦¿":6255,"à¦¯à§ĭà¦Ĺà§Ģ":6256,"Ġà¦¬à§įà¦¯à¦¾à¦ĸà§įà¦¯à¦¾":6257,"03":6258,"ĠAl":6259,"à¦ļà§įà¦Ľà§ĩ":6260,"Ġà¦®à¦¾à¦¤à§įà¦°à":6261,"Ġà¦®à¦¾à¦¤à§įà¦°à¦":6262,"Ġà¦®à¦¾à¦¤à§įà¦°à¦¾":6263,"à¦¤à§ĩà¦ĵ":6264,"aj":6265,"à¦¸à¦®à§įà¦ªà§įà¦°":6266,"Ġà¦ķà§įà¦¯à¦¾à¦¨à§įà¦¸":6267,"à§ģà¦ªà§įà¦¤":6268,"Ġà¦ªà§ĭà¦·à§įà¦Ł":6269,"Ġà¦°à§ĭà¦Ĺà§Ģ":6270,"à¦ªà¦¾à¦¨":6271,"Ġà¦Ķ":6272,"Ġà¦¸à§ģà¦·à§įà¦łà§ģ":6273,"Ġà§¦à§¯":6274,"Ġà¦¤à¦¾à¦ķà¦¿à¦¯à¦¼à§ĩ":6275,"à§Įà¦¶à¦²à§Ģ":6276,"ï»¿":6277,"Ġà¦¡à¦¿à¦Ĺà§įà¦°à¦¿":6278,"Ġà¦ľà¦¾à¦°à§įà¦®à¦¾à¦¨":6279,"à¦Łà¦ķ":6280,"Ġà¦²à¦¿à¦Ļà§įà¦Ĺ":6281,"Ġà¦¸à¦Ļà§įà¦Ĺà§Ģà¦¤":6282,"Ġà¦ķà§įà¦°à§Ģà¦¡à¦¼à¦¾":6283,"Ġà¦°à¦¾à¦ľà":6284,"Ġà¦°à¦¾à¦ľà¦":6285,"Ġà¦°à¦¾à¦ľà¦¾":6286,"Ġà¦¬à§įà¦¯à¦¾à¦Ĺ":6287,"Ġà¦¸à¦Ĥà¦¯à§ģà¦ķà§įà¦¤":6288,"Ġà¦¶à¦¿à¦ķà§įà¦·à¦¾à¦¬":6289,"Ġà¦ľà¦¾à¦¨à¦¾à¦¤à§ĩ":6290,"à§ģà¦°à§Ģà¦°":6291,"Ġà¦ªà¦°à¦¿à¦¶à§ĭà¦§":6292,"Ġà¦Ĩà¦²à§ĭà¦ļà¦¨à¦¾à¦¯à¦¼":6293,"Ġà¦ķà¦¤à¦Łà¦¾":6294,"à¦¾à¦®à§ĭ":6295,"Ġà¦ªà§įà¦°à¦¦à¦°à§įà¦¶à¦¨":6296,"à¦¾à¦Ĺà¦²":6297,"Ġà¦Ĩà¦¸à¦¾à¦¦":6298,"Ġà¦Ĩà¦ĩà¦ª":6299,"Ġà¦¸à§įà¦¤à§įà¦°à§Ģà¦°":6300,"Ġà¦²à¦®à§įà¦¬":6301,"Ġà¦ļà¦Łà§įà¦Łà¦Ĺà§įà¦°à¦¾à¦®à§ĩà¦°":6302,"Ġà§¦à§§":6303,"à¦¨à§įà¦¦à¦ķà¦¾à¦°":6304,"à¦°à¦Ĥà¦ªà§ģà¦°":6305,"Ġà¦¬à¦ľà¦¾à¦¯à¦¼":6306,"à¦Ĺà¦¤à¦¿":6307,"Ġà¦¬à¦¿à¦¸à§įà¦¤":6308,"Ġà¦¯à¦¥à¦¾à¦¯à¦¥":6309,"à¦¦à¦°à§įà¦¶":6310,"Ġà¦ľà§ĩà¦¨":6311,"Ĩà¦ĩ":6312,"à§Ģà¦¹":6313,"Ġà¦Ĩà¦Ľ":6314,"à¦ªà§ģà¦°à¦¿":6315,"Ġà¦¦à§Ģà¦ª":6316,"Ġà¦ħà¦¨à§ģà¦Ńà§Ĥ":6317,"Ġà¦īà¦¦à¦¯à¦¾à¦ªà¦¨":6318,"Ġà¦¤à§įà¦°à¦¾à¦£":6319,"Ġà¦ķà¦°à§ĭ":6320,"à§ĩà¦°à¦ªà§ģà¦°":6321,"Ġà¦¦à¦²à¦ķà§ĩ":6322,"Ġà¦®à¦¾à¦°à§įà¦ķà§ĩà¦Ł":6323,"à¦Ĩà¦¬":6324,"Ġà¦¯à¦¾à¦ģ":6325,"Ġà¦®à¦¾à¦¨à¦¿à¦ķ":6326,"à¦®à¦¯à¦¼à¦®à¦¨à¦¸à¦¿à¦Ĥà¦¹":6327,"Ġà¦ħà¦°à§įà¦¥à¦¨à§Ģà¦¤à¦¿":6328,"Ġà¦ķà¦°à§įà¦¤à§ĥà¦ªà¦ķà§įà¦·à§ĩà¦°":6329,"Ġà¦ıà¦¶à¦¿à¦¯à¦¼à¦¾":6330,"à¦¬à§ĭà¦§":6331,"Ġà¦ıà¦ķà¦ķ":6332,"à¦ªà§įà¦°à¦¶à§įà¦¨":6333,"Ġ14":6334,"Ġà¦¬à¦¿à¦ıà¦¸":6335,"Ġà¦²à§ĩà¦ĸà¦¾à¦°":6336,"Ġà¦ıà¦¤à§ĭ":6337,"Ġà¦¹à¦¿à¦¸à§ĩà¦¬":6338,"Ġà¦Ńà¦°à§įà¦¤":6339,"Ġà¦ļà§ģà¦°à¦¿":6340,"Ġà¦ªà¦¾à¦°à§įà¦¬à¦¤à§įà¦¯":6341,"Ġà¦ĩà¦®à¦°à¦¾à¦¨":6342,"Ġà¦ªà¦¡à¦¼à¦¬à§ĩ":6343,"Ġà¦¬à¦¯à¦¼à¦¸à§ĩ":6344,"Ġà¦ļà¦¾à¦ĩà¦²":6345,"Ġà¦Ĺà§ģà¦¨":6346,"Ġà¦ķà¦°à§ĩà¦¨à¦¨à¦¿":6347,"Ġà¦¡à¦¿à¦ª":6348,"Ġà¦®à§ĭà¦Łà¦°à¦¸":6349,"Ġà¦Ĩà¦¬à§įà¦¦à§ģà¦°":6350,"Ġà¦¥à¦¾à¦®":6351,"Ġà¦ªà¦¡à¦¼à¦Ľà§ĩ":6352,"à¦¾à¦¬à¦²à§Ģ":6353,"à¦¬à¦¾à¦¸à§Ģ":6354,"à¦¾à¦¢":6355,"Ġà¦²à¦¾à¦ĩà¦¸à§ĩà¦¨à§įà¦¸":6356,"âĢĮà§įà¦¯à¦¾à¦¬":6357,"Ġà¦ķà¦²à§įà¦ª":6358,"à¦¬à¦¾à¦¡à¦¼à§Ģ":6359,"à¦¿à¦¬à¦¾à¦°à¦¿à¦ķ":6360,"Ġà¦¨à¦¿à¦°à§įà¦®à¦¿à¦¤":6361,"à§¨à§¯":6362,"Ġà¦ķà§įà¦·à§ģà¦¦à§įà¦°":6363,"Ġà¦°à§ĩà¦ĸà§ĩà¦Ľà§ĩ":6364,"Ġà¦¸à§ĩà¦²à¦¿à¦®":6365,"Ġà¦®à¦¾à¦¨à§ĩà¦°":6366,"Ġà¦¨à§įà¦¯à¦¾à¦¯à¦¼":6367,"Ġà§¨à§¦à§§à§¨":6368,"Ġà¦¸à¦¹à¦¯à§ĭà¦Ĺà§Ģ":6369,"Ġà¦¤à¦¾à¦¨":6370,"à¦¾à¦ķà¦¾à¦°à§Ģ":6371,"à§įà¦¨à¦¾à¦°":6372,"www":6373,"Ġà¦ıà¦ķà¦¸à¦Ļà§įà¦Ĺà§ĩ":6374,"Ġà¦¬à¦¿à¦¦à§įà¦°":6375,"Ġà¦ľà¦¾à¦ķ":6376,"Ġà¦¬à¦¿à¦¹":6377,"23":6378,"à¦¿à¦¯à§ģà¦ķà§įà¦¤":6379,"Ġà¦ħà¦ķà§įà¦·":6380,"Ġà¦®à¦¾à¦Łà¦¿":6381,"ord":6382,"Ġà¦īà¦ļà§įà¦Ľ":6383,"Ġà¦¸à§Ĥà¦°à§įà¦¯":6384,"Ġle":6385,"Ġà¦īà¦ªà¦¨à§įà¦¯":6386,"à¦£à¦¾à¦¯à¦¼":6387,"ĠPro":6388,"Ġà¦¹à§ĭà¦¯à¦¼":6389,"Ġà¦¸à¦¾à¦²à§įà¦²à¦¾à¦²à§įà¦²à¦¾à¦¹à§ģ":6390,"Ġà¦°à¦¾à¦¸à§įà¦¤à¦¾à¦°":6391,"Ġà¦ªà¦¿à¦Ľà¦¿à¦¯à¦¼à§ĩ":6392,"Ġà¦§à¦¨":6393,"Ġà¦¨à§ĩà¦¤à§ĥà¦¬à§ĥà¦¨à§įà¦¦":6394,"à§ĭà¦¨à¦¾à¦²à§įà¦¡":6395,"à¦¾à¦§à§įà¦¯":6396,"-à¦ªà¦°":6397,"Ġà¦Ĺà¦¾à¦¯à¦¼à§ĩ":6398,"Ġà¦¸à§ģà¦ªà¦¾à¦°à¦¿à¦¶":6399,"Ġà§®à§¦":6400,"Ġà¦ľà¦¾à¦°":6401,"Ġà¦¡à¦¾à¦¨":6402,"à¦°à¦¾à¦ĵ":6403,"à¦¾à¦ľà¦¿":6404,"Ġà¦ıà¦¸à§ĩà¦Ľà§ĩà¦¨":6405,"Ġà¦¬à¦¿à¦¬à§ĩà¦ļà¦¨à¦¾":6406,"Ġà¦®à¦¿à¦²à¦¿à¦¯à¦¼à¦¨":6407,"à¦°à¦¾à¦ľà§įà¦¯":6408,"à¦¾à¦ĩà¦¯à¦¼à¦¾":6409,"à¦ªà§įà¦°à¦¾à¦ļ":6410,"à¦Ĩà¦¨à§įà¦¤à¦°à§įà¦ľà¦¾à¦¤à¦¿à¦ķ":6411,"Ġà¦¦à¦¿à¦¤":6412,"à¦ķà¦¾à¦ł":6413,"à¦²à¦Ńà§Ģà¦¬à¦¾à¦ľà¦¾à¦°":6414,"Ġà¦¸à¦¿à¦Ļà§įà¦Ĺ":6415,"Ġà¦®à§ģà¦¨à§įà¦¸":6416,"Ġà¦¸à¦¿à¦Ĥà¦¹":6417,"Ġà¦¸à¦¾à¦§à¦¾à¦°à¦¨":6418,"à§įà¦Łà¦¾à¦¯à¦¼":6419,"Ġà¦¸à§įà¦ķà§įà¦°":6420,"Ġà¦¬à¦¨à§įà¦¦à§ģà¦ķ":6421,"Ġ*":6422,"Ġà¦Ńà¦¾à¦²à§ĭà¦¬à¦¾à¦¸à":6423,"Ġà¦Ńà¦¾à¦²à§ĭà¦¬à¦¾à¦¸à¦":6424,"Ġà¦Ńà¦¾à¦²à§ĭà¦¬à¦¾à¦¸à¦¾":6425,"à¦¾à¦¸à§ĩà¦¬":6426,"Ġà¦®à¦¾à¦Ĥà¦¸":6427,"Ġà¦¤à¦¾à¦ªà¦®à¦¾à¦¤à§įà¦°":6428,"Ġà¦ķà§ģà¦®à¦¿à¦²à§įà¦²à":6429,"Ġà¦ķà§ģà¦®à¦¿à¦²à§įà¦²à¦":6430,"Ġà¦ķà§ģà¦®à¦¿à¦²à§įà¦²à¦¾":6431,"à§İà¦¸à§įà¦¯":6432,"à¦¾à¦¤à§ĩà¦ĵ":6433,"Ġà¦ªà¦¾à¦¸à¦ªà§ĭà¦°à§įà¦Ł":6434,"à¦Ĺà¦¡à¦¼":6435,"Ġà¦®à¦¸à¦ľà¦¿à¦¦à§ĩ":6436,"à¦Ńà§Ģ":6437,"à§ĭà¦ľà":6438,"à§ĭà¦ľà¦":6439,"à§ĭà¦ľà¦¾":6440,"Ġà¦Ĩà¦ĩà¦ıà¦¸":6441,"Ġà¦¬à§Īà¦¶à¦¿à¦·à§įà¦Łà§įà¦¯":6442,"Ġà¦Ľà¦¿à¦²à¦¾à¦®":6443,"Ġà¦ķà¦°à§įà¦®à¦ķà¦°à§įà¦¤à¦¾à¦¦à§ĩà¦°":6444,"Ġà¦®à¦¿à¦·à§įà¦Ł":6445,"Ġà¦°à¦¾à¦¬":6446,"????":6447,"Ġà¦¬à¦¦à¦²":6448,"à¦ĩà¦¤":6449,"-à¦¹":6450,"Ġà¦ªà¦°à¦¬à¦°à§įà¦¤à§Ģà¦¤à§ĩ":6451,"Ġà¦ªà§ĭà¦°à§įà¦Ł":6452,"Ġà¦ªà¦²à§įà¦²":6453,"Ġà¦ħà¦¤à¦¿à¦¥à¦¿à¦°":6454,"ack":6455,"Ġà¦¥à¦¾à¦ķà¦¿":6456,"Ġà¦ķà§ģà¦¯à¦¼":6457,"Ġà¦ķà§įà¦·à¦®à¦¾":6458,"Ġà¦ľà¦¿à¦ľà§įà¦ŀà¦¾à¦¸à¦¾":6459,"à§ĩà¦¤à¦¾à¦°":6460,",à§¦à§¦à§¦":6461,"à¦ªà¦¨à§įà¦¥":6462,"à¦ŀà§įà¦ļà¦¿à¦¤":6463,"Ġà¦ªà§įà¦°à¦¤à¦¿à¦ªà¦ķà§įà¦·":6464,"Ġà¦īà¦¦à¦¾à¦¹à¦°à¦£":6465,"Ġ13":6466,"Ġà¦¬à§Īà¦§":6467,"Ġi":6468,"Ġà¦¤à§ĭà¦²à¦¾à¦°":6469,"Ġà¦ħà¦Ĺ":6470,"Øª":6471,"Ġà¦ªà§įà¦°à¦¤à§Ģà¦ķ":6472,"Ġà¦¸à§įà¦¬à§Ģà¦ķà§ĥà¦¤à¦¿":6473,"Ġà¦Ĩà¦®à¦¦à¦¾à¦¨à¦¿":6474,"Ġà¦°à¦¿à¦ķ":6475,"Ġà¦ħà¦¸à¦¹à¦¾à¦¯à¦¼":6476,"Ġà¦¬à¦¿à¦¶à§įà¦¬à§ĩ":6477,"Ġà¦¶à§ģà¦¨à¦¾à¦¨à¦¿":6478,"aily":6479,"à¥į":6480,"Ġà¦Ĺà¦°à§ģ":6481,"02":6482,"Ġà¦¸à§įà¦Łà¦¾à¦°":6483,"à§įà¦²à":6484,"à§įà¦²à¦":6485,"à§įà¦²à¦¾":6486,"Ġà¦Ľà§ĩà¦²à§ĩà¦°":6487,"Ġà¦¤à§ĭà¦®à¦¾à¦ķà§ĩ":6488,"à¦īà¦ĩ":6489,"Ġà¦Ĩà¦¤à§įà¦®à¦¹à¦¤à§įà¦¯à¦¾":6490,"à§Ģà¦¬à¦¨":6491,"à§įà¦Łà¦°":6492,"à¦¾à¦£à§įà¦¡à§ĩà¦°":6493,"Ġà¦Ńà§ĭà¦Łà§ĩà¦°":6494,"Ġà¦¨à¦¿à¦¯à¦¼à¦¨à§įà¦¤à§įà¦°":6495,"\"à¥¤":6496,"à¦ķà¦¾à¦°à§Ģà¦°":6497,"Ġà¦¦à¦¾à¦¬à§Ģ":6498,"à¦¾à¦Ĺà§įà¦°":6499,"Ġà¦Ĩà¦¸à¦Ľà§ĩà¦¨":6500,"à¦§à§įà¦¯à§ĩà¦ĩ":6501,"Ġà¦Ĺà¦¾à¦ģ":6502,"Ġà¦¸à¦¾à¦°à§įà¦¬à¦¿à¦ķ":6503,"à§¬à§¦":6504,"à§ģà¦¤à§įà¦¬":6505,"Ġà¦¦à§ģà¦¦":6506,"à¦¾à¦ķà¦¾à¦²":6507,"Ġà¦ļà§ĭà¦°":6508,"ÙıÙĪ":6509,"Ġà¦ıà¦ķà§įà¦·":6510,"Ġà¦Ĩà¦²à§Ģà¦°":6511,"Ġnews":6512,"Ġà¦Ĺà¦¾à¦ĩ":6513,"Ġà¦ªà§įà¦°à¦¤à¦¿à¦¶à§įà¦°":6514,"Ġà¦¨à§ĩà¦¬à§ĩ":6515,"à¦¾à¦¹à§įà¦®à¦£à¦¬à¦¾à¦¡à¦¼":6516,"Ġà¦¨à§Įà¦ķà¦¾":6517,"à§įà¦¨à¦¾à¦¨":6518,"Ġà¦¨à¦Ĺà¦°à§Ģà¦°":6519,"Ġà¦ķà¦°à¦¿à¦¯à¦¼à§ĩ":6520,"Ġà¦¬à¦¨à§įà¦¦à¦°":6521,"à¦°à¦¸à¦Ńà¦¾à¦°":6522,"Ġà¦«à¦°à§ĩà¦ķà§įà¦¸":6523,"à¦¿à¦¯à¦¼à§ĩà¦Ľà¦¿à¦²à§ĩà¦¨":6524,"à¦ĺà¦°":6525,"Ġà¦¸à¦°à¦ķà¦¾à¦°à¦ķà§ĩ":6526,"Ġà¦Ńà¦¿à¦¡à¦¼":6527,"Ġà¦¤à¦²":6528,"à¦ŀà§įà¦ļà¦²à¦¿à¦ķ":6529,"Ġà¦ħà¦Ńà§įà¦¯à¦¨à§įà¦¤":6530,"ĠPr":6531,"Ġà¦°à¦¶à¦¿à¦¦":6532,"à¦¿à¦¯à¦¼à¦¾à¦ķà§ĩ":6533,"Ġà¦ħà¦¨à§ģà¦ª":6534,"Ġà¦¬à¦ķà§įà¦¸":6535,"Ġà¦¸à¦®à¦¾à¦²à§ĭà¦ļ":6536,"lowjob":6537,"Ġà¦¸à¦¤à§įà¦¤à§įà¦¬":6538,"ie":6539,"Ġà¦¬à§ģà¦Ŀà§ĩ":6540,"Ġà¦¸à¦Ĥà¦Ĺà§Ģà¦¤":6541,"à¦²à¦¾à¦²":6542,"Ġà¦¬à¦¹à¦¨":6543,"à¦°à¦¾à¦®":6544,"Ġà¦¨à§ĭ":6545,"Ġà¦Ľà¦¬à¦¿à¦Łà¦¿":6546,"Ġal":6547,"Ġà¦¬à¦¿à¦ľà¦¯à¦¼à§Ģ":6548,"à¦®à¦¿à¦°":6549,"à§ģà¦¦à":6550,"à§ģà¦¦à¦":6551,"à§ģà¦¦à¦¾":6552,"Ġà¦Łà¦¿à¦ķà¦¿à¦Ł":6553,"à¦¾à¦¸à§įà¦¤à§įà¦°":6554,"à¦¯à§ģà¦¦à§įà¦§":6555,"Ġà¦¬à§ĥà¦¦à§įà¦§à¦¿à¦°":6556,"à§įà¦¯à§ĭà¦Ĺ":6557,"Ġà¦°à¦¾à¦¶à¦¿à¦¯à¦¼à¦¾":6558,"Ġà¦ķà¦¾à¦°à":6559,"Ġà¦ķà¦¾à¦°à¦":6560,"Ġà¦ķà¦¾à¦°à¦¾":6561,"Ġà¦īà¦ªà¦ķ":6562,"Ġà¦¸à¦Ĥà¦Ĺà§įà¦°à¦¾à¦®":6563,"Ġà¦Ĩà¦ĵà¦¯à¦¼à¦¾à¦®à§Ģà¦²à§Ģà¦Ĺà§ĩà¦°":6564,"Ġà¦«à¦¾à¦ĩà¦¨à¦¾à¦²à§ĩ":6565,"à§ģà¦°à¦¿à¦°":6566,"à§ĩà¦ķà§ĩà¦°":6567,"-à¦ªà§įà¦°":6568,"à§ĩà¦®à§įà¦¬à¦¾à¦°":6569,"Ġà¦®à§įà¦¯à¦¾à¦ľ":6570,"Ġà¦¤à§ģ":6571,"Ġà¦®à§ģà¦ķà§įà¦¤à¦¿à¦¯à§ģà¦¦à§įà¦§à§ĩà¦°":6572,"à¦¤à¦°à¦¾à¦Ĥ":6573,"Ġà¦¨à§Ģà¦¤à¦¿à¦®":6574,"à§įà¦Łà¦¨":6575,"à¦²à¦ķ":6576,"à¦¸à§ģà¦²":6577,"Ġvi":6578,"à¦¶à§įà¦°à§Ģ":6579,"Ġà¦¸à§ĩà¦ŀà§įà¦ļ":6580,"Ġà¦°à¦¾à¦¯à¦¼à§ĩà¦°":6581,"Ġà¦¸à§įà¦¬à¦¾à¦®à§Ģà¦°":6582,"Ġà¦¬à¦¾à¦°à§įà¦¸":6583,"Ġà¦īà§İà¦ªà¦¾à¦¦":6584,"Ġà¦ķà¦°à¦Ľà¦¿à¦²":6585,"à¦ĩà¦¯à¦¼à¦¾":6586,"à¦°à§įà¦¡à¦¾à¦°":6587,"à¦¡à§ĩà¦¸à§įà¦ķ":6588,"à¦¾à¦¸à§Ģà¦¨":6589,"Ġà¦¸à§įà¦¬à¦¾à¦§à§Ģà¦¨à¦¤à¦¾à¦°":6590,"Ġà¦²à¦ķ":6591,"Ġ17":6592,"Ġà¦°à¦¾à¦¤à§ĩà¦°":6593,"Ġà¦¸à§ģà¦¤à¦°à¦¾à¦Ĥ":6594,"Ġà¦Ĺà§ĩà¦²à§ĭ":6595,"Ġà¦¦à¦¿à¦¯à¦¼à§ĩà¦ĩ":6596,"à§įà¦°à¦¾à¦¨à§įà¦¤":6597,"Ġà¦¸à¦¾à¦°à§įà¦ľ":6598,"Ġthis":6599,"Ġà¦Ĺà§ĭà¦·à§įà¦ł":6600,"à¦¡à§įà¦°":6601,"Ġà¦¶à§įà¦°à¦®à¦¿à¦ķà¦¦à§ĩà¦°":6602,"à¦¿à¦Ńà¦¾à¦°":6603,"Ġà§¦à§©":6604,"Ġà¦¬à¦°à§įà¦ľ":6605,"à¦¿à¦¨à¦¾à¦ĩà¦¦à¦¹":6606,"-à§ª":6607,"Ġà¦ªà¦¾à¦¥à¦°":6608,"Ġà¦Ĩà¦¸à¦²":6609,"à¦°à¦¾à¦ľà¦§à¦¾à¦¨":6610,"Ġà¦¨à¦ĵ":6611,"à¦¯à¦¼à¦Ĥ":6612,"Ġà¦²à¦¾à¦Ĺà¦¿à¦¯à¦¼à§ĩ":6613,"à§Ģà¦¡à¦¼":6614,"Ġà¦¦à¦®à¦¨":6615,"Ġà¦ķà¦¾à¦°à¦¨":6616,"Ġà¦Ĩà¦¤à§įà¦®à§Ģà¦¯à¦¼":6617,"à¦¶à¦¾à¦¨":6618,"Ġà¦¸à§ĭà¦¶à§įà¦¯à¦¾à¦²":6619,"Ġà¦¬à¦¾à¦¬à§ģ":6620,"à¦¾à¦°à¦ķ":6621,"Ġà¦ľà¦¾à¦¤à¦¿":6622,"000":6623,"Ġà¦ħà¦¸à§įà¦¬à§Ģà¦ķà¦¾à¦°":6624,"Ġà¦ªà§įà¦°à¦ľà¦¾à¦¤":6625,"Ġà¦¬à¦¾à¦ĺ":6626,"ng":6627,"Ġà¦Ńà§įà¦°à¦®à¦£":6628,"à¦ıà¦Ľà¦¾à¦¡à¦¼à¦¾":6629,"mail":6630,"Ġà¦ĵà¦Ńà¦¾à¦°":6631,"Ġà¦ĸà¦¾à¦ĵà¦¯à¦¼à¦¾à¦°":6632,"Ġà¦ħà¦¬à¦°à§ĭà¦§":6633,"Ġà¦Łà¦¾à¦Ļà§įà¦Ĺ":6634,"Ġà¦ķà§įà¦¯à¦¾à¦®à§ĩà¦°à":6635,"Ġà¦ķà§įà¦¯à¦¾à¦®à§ĩà¦°à¦":6636,"Ġà¦ķà§įà¦¯à¦¾à¦®à§ĩà¦°à¦¾":6637,"Ġà¦Ĳà¦ķà§įà¦¯à¦«à§įà¦°à¦¨à§įà¦Ł":6638,"à¦ľà¦¿à¦°":6639,"27":6640,"Ġà¦¡à§ĩà¦ķà§ĩ":6641,"Ġà¦ªà§ģà¦ľ":6642,"Ġà¦ªà§Įà¦°à¦¸à¦Ńà¦¾à¦°":6643,"Ġà¦¦à§ģà¦°à§įà¦Ń":6644,"Ġà¦ķà¦¨à§įà¦¯à¦¾":6645,"Ġà¦ªà§ģà¦°à§ĭà¦ªà§ģà¦°à¦¿":6646,"à¦¾à¦¬à§ģ":6647,"-à¦Ń":6648,"Ġà¦¶à§ĭà¦Ń":6649,"à¦¸à¦¾à¦¹":6650,"à¦¾à¦®à¦¾à¦²":6651,"à¦ķà§ĥà¦·":6652,"Ġà¦ªà¦°à§ĩà¦ĩ":6653,"ond":6654,"ublished":6655,"Ġà¦ĩà¦¹":6656,"Ġà¦¹à§ģà¦®à¦¾à¦¯à¦¼":6657,"à§ģà¦¯à¦¼à§ĩà¦²":6658,"Ġà¦²à§ģà¦Ł":6659,"Ġà¦«à¦Ł":6660,"à§ĭà¦²à¦¨":6661,"Ġà¦ªà§įà¦°à¦¤à¦¿à¦¦à§įà¦¬à¦¨à§įà¦¦à§įà¦¬":6662,"à§Ģà¦°à§ĩà¦°":6663,"âĢĮà§įà¦¯":6664,"Ġà¦¦à§ĭ":6665,"à¦¸à§Į":6666,"ry":6667,"Ġà¦¸à¦¾à¦Ĥà¦¸à¦¦":6668,"Ġà¦Ĩà¦ªà¦¿à¦²":6669,"à¦¬à¦¿à¦·à¦¯à¦¼":6670,"Ġà¦«à§ĩà¦¨":6671,"Ġà¦ªà§įà¦°à¦ķà§Įà¦¶à¦²à§Ģ":6672,"Ġà¦¶à§ģà¦°à§ģà¦¤à§ĩ":6673,"Ġà¦¸à§ĩà¦°":6674,"Ġà¦®à§ĩà¦°à§ĩ":6675,"Ġla":6676,"Ġà¦¯à¦¾à¦ļà§įà¦Ľà¦¿à¦²":6677,"à¦°à¦¾à¦¤":6678,"à¦¿à¦Łà¦°":6679,"Ġà¦īà¦ľà§įà¦ľà§įà¦¬à¦²":6680,"à¦¾à¦£à§Ģ":6681,"Ġà¦ªà¦¿à¦¸":6682,"à¦¯à§ģà¦ķà§įà¦¤à¦°à¦¾à¦·à§įà¦Łà§įà¦°":6683,"Ġà¦«à§ĩà¦¬à§įà¦°à§ģà¦¯à¦¼à¦¾à¦°à§Ģ":6684,"Ġà¦ªà§įà¦°à¦¶à¦Ĥ":6685,"Ġà¦¸à¦«à¦Łà¦ĵà¦¯à¦¼à§įà¦¯à¦¾à¦°":6686,"Ġà¦Ĺà§ģà¦Ĺà¦²":6687,"Ġà¦¸à§įà¦¯à¦¾à¦°":6688,"Ġà¦¯à¦¾à¦¨à¦¬à¦¾à¦¹":6689,"Ùĥ":6690,"Ġà¦¶à§ĭ":6691,"à¦¿à¦ķà§ĩà¦¶à¦¨":6692,"Ġà¦ķà¦¾à¦¨à¦¾à¦¡":6693,"Ġà¦¨à¦°à§ĩà¦¨à§įà¦¦à§įà¦°":6694,"Ġà¦¶à§ģà¦¨à¦¤à§ĩ":6695,"Ġà¦¬à¦¿à¦¸à§įà¦®":6696,"Ġà¦®à¦¾à¦Ĺ":6697,"Ġà¦Ńà§Ĥà¦®à¦¿":6698,"Ġà¦ıà¦ķà":6699,"Ġà¦ıà¦ķà¦":6700,"Ġà¦ıà¦ķà¦¾":6701,"Ġà¦Łà¦¾à¦ĩà¦®à¦¸":6702,"Ġà¦¬à¦¿à¦Ľ":6703,"à¦¾à¦ªà¦¿":6704,"Ġà¦¬à¦¾à¦¡à¦¼à¦¤à¦¿":6705,"Ġà¦²à¦ľà§įà¦ľ":6706,"Ġà§¦à§®":6707,"Ġà¦¸à¦¿à¦ª":6708,"Ġà¦ľà¦¹":6709,"à§ģà¦Łà¦¿à¦°":6710,"Ġà¦®à¦¨à§įà¦¦à¦¿à¦°":6711,"à¦¦à§ģà¦ĩ":6712,"Ġà¦ĩà¦Ĥà¦°à§ĩà¦ľ":6713,"Ġà¦ķà¦¾à¦Łà¦¾":6714,"Ġà¦ªà¦¾à¦ļà§įà¦Ľà§ĩà¦¨":6715,"Ġà¦ĸà¦¾à¦¯à¦¼":6716,"Ġà¦¤à§ģà¦°à¦¸à§įà¦ķ":6717,"ha":6718,"Ġà¦®à¦¿à¦²à¦¨":6719,"Ġà¦Ĺà¦¾à¦Ľà§ĩà¦°":6720,"Ġà¦¸à¦¿à¦°à¦¿à¦ľà§ĩà¦°":6721,"à¥įà¤":6722,"Ġà¦¬à§ĩà¦Ľà§ĩ":6723,"Ġà¦Ĺà§ĭà¦ªà¦¾à¦²":6724,"Ġà¦ķà§įà¦·à§ĭà¦Ń":6725,"Ġà¦Ĺà¦¾à¦¡à¦¼à¦¿à¦°":6726,"à¦¾à¦¬à¦¦à§įà¦§":6727,"Ġà¦¤à§ĭà¦²":6728,"Ġà¦§à¦°à¦¤à§ĩ":6729,"Ġà§©à§©":6730,"Ġà¦¸à¦°à§ĩ":6731,"Ġà¦°à¦¾à¦ľà§įà¦¯à§ĩ":6732,"Ġbangla":6733,"Ġà¦īà¦²à§įà¦²à§ĩà¦ĸà¦¯à§ĭà¦Ĺà§įà¦¯":6734,"Ġà¦Ĺà§ĩà¦²à§ĩà¦ĵ":6735,"sp":6736,"Ġà¦Łà¦¨":6737,"Ġà¦¦à§ĥà¦·à§įà¦Łà¦¿":6738,"Ġà¦Ĩà¦°à§įà¦ľà§ĩà¦¨à§įà¦Ł":6739,"Ġà¦¬à¦¿à¦¶à§įà¦¬à¦ķà¦¾à¦ªà§ĩà¦°":6740,"-à§¨à§¦":6741,"Ġà¦®à§ĭà¦¦à§Ģ":6742,"Ġà¦«à¦¾à¦¯à¦¼à¦¾à¦°":6743,"Ġà¦¹à¦¾à¦¸à¦¿":6744,"à¦Łà¦¾à¦ķà§ĩ":6745,"Ġà¦¸à¦¹à¦¿à¦Ĥà¦¸":6746,"Ġà¦¦à¦¤à§įà¦¤":6747,"ĠJan":6748,"Ġà¦®à¦¾à¦Łà¦¿à¦¤à§ĩ":6749,"Ġà¦®à§ģà¦ĸà§ĩà¦°":6750,"Ġà¦ĩà¦Ł":6751,"à¦Ĺà¦¤à¦ķà¦¾à¦²":6752,"Ġà¦Ńà¦¿à¦Ł":6753,"Ġà¦ķà§įà¦²à¦¿à¦¨":6754,"Ġà¦¶à¦¿à¦ķ":6755,"Ġà¦¸à¦Ĥà¦¸à¦¦à§ĩà¦°":6756,"Ġà¦¦à§ĩà¦ĸà§ĩà¦¨":6757,"Ġà¦ķà¦°à§įà¦®à¦ķà¦°à§įà¦¤à¦¾à¦°":6758,"Ġà¦Ĺà§įà¦°à¦¹à¦£à§ĩà¦°":6759,"Ġà¦«à¦¿à¦ļà¦¾à¦°":6760,"Ġà¦¹à§įà¦°":6761,"Ġà¦ĸà¦¾à¦¤à§ģà¦¨":6762,"Ġà¦®à¦¿à¦¯à¦¼à¦¾à¦¨à¦®à¦¾à¦°":6763,"Ġà¦ķà§įà¦¯à¦¾à¦Ł":6764,"à§ĭà¦ľà¦¨":6765,"Ġà¦®à¦¨à§ĭ":6766,"Ġà¦Łà§įà¦°à¦¾à¦¸à§įà¦Ł":6767,"ĠTh":6768,"à¦¿à¦®à§įà¦ª":6769,"Ġà§ªà§«":6770,"Ġà¦¸à¦¾à¦®à¦Ĺà§įà¦°à§Ģ":6771,"Ġà¦ĩà¦¤à¦¿à¦®à¦§à§įà¦¯à§ĩ":6772,"à¦Ĩà¦ĵà¦¯à¦¼à¦¾à¦®à§Ģ":6773,"à¦¿à¦¦à¦¾à¦°":6774,"Ġà¦ļà§ĩà¦¹":6775,"Ġà¦¦à¦®":6776,"Ġà¦¦à¦«à¦¾":6777,"Ġà¦§à¦°à§įà¦®à§ĩà¦°":6778,"Ġà¦¬à¦¿à¦¨à":6779,"Ġà¦¬à¦¿à¦¨à¦":6780,"Ġà¦¬à¦¿à¦¨à¦¾":6781,"Ġà¦®à¦¿à¦¶à§įà¦°":6782,"Ġà¦®à¦¿à¦Łà¦¾à¦°":6783,"à¦¶à¦¿à¦ª":6784,"Ġà¦ľà¦¾à¦¹à¦¾à¦¨":6785,"28":6786,"Ġà¦¶à¦°à¦£":6787,"Ġà¦ķà§ģà¦¡à¦¼":6788,"Ġà¦¸à§įà¦Łà¦ķ":6789,"à¦¾à¦®à§Ģà¦£":6790,"-à§«":6791,"anth":6792,"à¦°à¦¾à¦ĩ":6793,"Ġà¦ķà§ĥà¦·à§įà¦£":6794,"Ġà¦ħà¦«à¦¿à¦¸à§ĩà¦°":6795,"à¦¹à§ĩ":6796,"Ġà¦ªà§įà¦°à¦«à§ĩà¦¸à¦°":6797,"Ġà¦Ńà¦¬à¦¨à§ĩà¦°":6798,"Ġà¦Ńà¦¿à¦¤à§įà¦¤à¦¿":6799,"Ġà¦®à§ĩà¦Łà§įà¦°":6800,"à¦ļà§ģà¦°":6801,"Ġà¦ķà§įà¦°à¦¯à¦¼":6802,"à¦¶à§ģà¦§":6803,"Ġà¦«à¦¯à¦¼":6804,"Ġà¦¤à¦¾à¦²à¦¿à¦ķ":6805,"Ġà¦īà¦ªà¦¸à§įà¦¥à¦¾à¦ªà¦¨":6806,"Ġà¦¬à§įà¦¯à¦¥à¦¾":6807,"à¦Ĩà¦ľà¦ķà§ĩà¦°":6808,"à¦ªà¦¥à§ĩ":6809,"Ġà¦ħà¦¸à§įà¦¤":6810,"à¦¬à¦¾à¦ĩ":6811,"Ġà¦ķà§įà¦²à¦¾à¦¬à§ĩà¦°":6812,"Ġà¦ªà¦¾à¦°à¦¿à¦¬à¦¾à¦°à¦¿à¦ķ":6813,"Ġà¦ķà¦¾à¦°à¦¨à§ĩ":6814,"Ġà¦¬à¦¿à¦¦à§įà¦°à§ĭà¦¹":6815,"à¦¸à¦°à¦ķà¦¾à¦°à¦¿":6816,"à¦¿à¦²à¦¾à¦°":6817,"Ġà¦¹à¦¾à¦¦à¦¿à¦¸":6818,"Ġà¦¬à¦¿à¦ľà§ĩà¦ªà¦¿à¦°":6819,"à¦¾à§":6820,"Ġà¦īà¦¨à§įà¦¨à¦¤à¦¿":6821,"ĠInd":6822,"à¦Ľà¦°":6823,"à§įà¦²à§įà¦¡":6824,"Ġà¦ĩà¦¨à¦¿à¦Ĥà¦¸":6825,"à¦ļà§įà¦Ľà¦¦":6826,"Ġà¦¹à§ĩà¦¡":6827,"à¦¿à¦¸à§įà¦¤à¦¾à¦¨à§ĩà¦°":6828,"Ġà¦ªà¦°à§įà¦¯à¦¾à¦²":6829,"Ġà¦°à§ĭà¦§":6830,"Ġà¦²à¦®à§įà¦¬à":6831,"Ġà¦²à¦®à§įà¦¬à¦":6832,"Ġà¦²à¦®à§įà¦¬à¦¾":6833,"Ġà¦ľà¦¿à¦¤à§ĩ":6834,"à¦¿à¦¬à¦¾à¦ľà¦¾à¦°":6835,"Ġà¦¬à¦¿à¦ªà¦¦":6836,"Ġà¦¡à¦¿à¦ľà¦¾à¦ĩà¦¨":6837,"Ġà¦Ĺà¦¤à¦¿":6838,"Ġà¦ľà¦¾à¦¹à¦¾à¦ľ":6839,"Ġà¦¡à¦¾à¦ķà¦¾à¦¤":6840,"ons":6841,"Ġà¦®à§İà¦¸à§įà¦¯":6842,"Ġà¦®à§ĩà¦Ĺ":6843,"Ġlo":6844,"Ġà¦ķà§ĩà¦¨à¦¨à¦¾":6845,"Ġà¦¸à¦¡à¦¼à¦ķà§ĩ":6846,"Ġà¦ĩà¦ļà§įà¦Ľà§ĩ":6847,"Ġà¦ĺà¦Łà¦¨à¦¾à¦¸à§įà¦¥à¦²à§ĩ":6848,"Ġà¦¸à¦®à§įà¦®à§ģà¦ĸ":6849,"à¦¶à¦¿à¦¶":6850,"à¦¤à¦¾à¦¹":6851,"à¦¡à§įà¦¡":6852,"à¦¸à¦¾à¦¬":6853,"Ġà¦¶à¦¾à¦®à§Ģà¦®":6854,"Ġà¦¹à¦¯à¦¼à§ĩà¦Ľà¦¿à¦²à§ĩà¦¨":6855,"Ġà¦ªà¦¾à¦ª":6856,"Ġà¦«à§ĩà¦²à¦¾":6857,"Ġà¦Ĩà¦ŀà§įà¦ļà¦²à¦¿à¦ķ":6858,"Ġà¦¬à¦¾à¦¸à":6859,"Ġà¦¬à¦¾à¦¸à¦":6860,"Ġà¦¬à¦¾à¦¸à¦¾":6861,"Ġà¦Ľà§ģà¦ģ":6862,"Ġà¦¡à¦²":6863,"Ġà¦¸à§įà¦Łà§ĩà¦¶à¦¨":6864,"Ġà¦¬à¦¿à¦¦à§ĩà¦¶à§ĩ":6865,"Ġà¦ķà¦¾à¦°à¦¾à¦¦à¦£à§įà¦¡":6866,"à¦¬à¦¿à¦¨à¦¿à¦®à¦¯à¦¼":6867,"Ġà¦ªà§įà¦°à¦¤à¦¿à¦ķà§įà¦°à¦¿à¦¯à¦¼à¦¾":6868,"Ġà¦°à¦ļ":6869,"Ġà¦¹à¦¤à¦¾à¦¶":6870,"Ġà¦ķà¦¿à¦¨à§ĩ":6871,"Ġà¦ķà¦¿à¦¨à¦¤à§ĩ":6872,"Ġà¦®à§ĭà¦¸à§įà¦¤à¦«à¦¾":6873,"ĠMar":6874,"Ġà¦§à¦°à§ĩà¦ĩ":6875,"Ġà¦¶à¦¿à¦ķà§įà¦·à¦ķà¦¦à§ĩà¦°":6876,"à¦¾à¦®à¦¿":6877,"Ġà¦ªà¦°à§įà¦¯à¦¾à¦¯à¦¼à§ĩà¦°":6878,"à¦¦à¦¾à¦¯à¦¼à§ĩà¦°":6879,"Ġà¦¸à¦®à§įà¦¬":6880,"Ġà¦¨à¦¾à¦°à¦¾à¦¯à¦¼à¦£à¦Ĺà¦ŀà§įà¦ľ":6881,"à¦ªà§ĩ":6882,"Ġà¦¬à§ģà¦ķà§ĩ":6883,"Ġà¦®à§ĩà¦¡à¦¿à¦ķà§įà¦¯à¦¾à¦²":6884,"Ġfrom":6885,"Ġà§§à§§à§":6886,"à¦¿à¦ķà¦¾à¦¨":6887,"Ġà¦¨à¦¿à¦ļà§įà¦Ľà§ĩ":6888,"à¦ŀà§įà¦ľà¦¨":6889,"à¦ķà§ĩà¦°à":6890,"à¦ķà§ĩà¦°à¦":6891,"à¦ķà§ĩà¦°à¦¾":6892,"à¦ıà¦Łà¦¾":6893,"Ġà¦¸à¦¾à¦¥":6894,"à¦ªà§ģà¦°à§ģà¦·":6895,"Ġà¦ªà¦¡à¦¼à§ĩà¦Ľà§ĩà¦¨":6896,"edia":6897,"Ġà¦¨à¦¾à¦ļ":6898,"Ġà¦¦à¦°à¦ľà¦¾":6899,"ĠNov":6900,"Ġà¦¬à¦¾à¦ľà¦¾à¦°à§ĩà¦°":6901,"à¦¿à¦¹à¦¾à¦¸à§ĩà¦°":6902,"Ġà¦¬à¦Ĥà¦¶":6903,"Ġà¦¯à¦¤à§įà¦¨":6904,"Ġà¦¶à¦°à§Ģà¦«":6905,"Ġà¦Łà¦¿à¦ªà¦¸":6906,"Ġà¦²à§ģ":6907,"Ġà¦¹à¦¾à¦°à§įà¦¡à¦ķà§ĭà¦°":6908,"à¦ļà¦¾à¦ª":6909,"Ġà¦Ńà¦¾à¦ĩà¦¯à¦¼à§ĩà¦°":6910,"Ġà¦ªà¦¾à¦°à¦Ľà§ĩà¦¨":6911,"à§ĩà¦¨à§įà¦¡à¦¾à¦°":6912,"Ġà¦Łà§ģà¦ĩà¦Ł":6913,"Ġà¦¦à¦¾à¦ĸà¦¿à¦²":6914,"Ġnew":6915,"Ġà¦¬à¦°à§įà¦£à¦¿à¦¤":6916,"Ġà¦¶à§įà¦¬":6917,"Ġà¦®à¦¶":6918,"Ġà¦¤à¦¾à¦²à§ģà¦ķ":6919,"Ġà¦¸à¦¹à¦ľà§ĩ":6920,"Ġà¦¨à§ĩà¦®":6921,"Ġà¦ĵà¦¸à¦®à¦¾à¦¨":6922,"Ġà¦°à§ģà¦ª":6923,"Ġà¦®à§ĩà¦¯à¦¼à¦¾à¦¦":6924,"Ġà¦®à¦¤à§ĭà¦ĩ":6925,"Ġà¦¤à¦¾à§İ":6926,"Ġà¦ķà¦²à¦ķà¦¾à¦¤à¦¾à¦°":6927,"Ġà¦¹à¦ļà§įà¦Ľà¦¿à¦²":6928,"Ġà¦ķà§įà¦¯à¦¾à¦¨":6929,"ðŁ":6930,"Ġà¦¸à¦Ĥà¦¸à¦¦à§ĩ":6931,"Ġde":6932,"https":6933,"à¦¯à§ģà¦¦à§įà¦§à§ĩ":6934,"Ġà¦Ĩà¦²à¦¾à¦ª":6935,"à§ĩà¦ªà§ĩ":6936,"Ġà¦Ŀà§ģà¦ģà¦ķ":6937,"Ùĳ":6938,"à¦®à§ĭà¦¬à¦¾à¦ĩà¦²":6939,"Ġà¦ķà¦°à¦¿à¦¯à¦¼à¦¾":6940,"Ġà¦°à¦¾à¦Ĺ":6941,"osted":6942,"à¦¸à¦¾à¦¥à§ĩ":6943,"Ġà¦¤à¦¾à¦ľ":6944,"à¦¦à§ĩà¦ĸ":6945,"Ġà¦¸à¦ªà§įà¦¤à¦¾à¦¹à§ĩà¦°":6946,"Ġà¦¬à§ĩà¦ģà¦§à§ĩ":6947,"à¦¤à¦¾à¦ķà§ĩ":6948,"Ġà¦°à¦¿à¦Ń":6949,"Ġà§¦à§§à§Ń":6950,"Ġà¦¡à§ģ":6951,"Ġà¦ªà§įà¦°à¦¤à§įà¦¯à¦¾à¦¶":6952,"à¦¤à§įà¦¤à¦®":6953,"ish":6954,"Ġà¦¸à§įà¦Łà¦¾à¦ĩà¦²":6955,".C":6956,"Ġà¦¸à¦¾à¦ģ":6957,"Ġà¦¬à¦¿à¦ļà¦¾à¦°à¦ķ":6958,"Ġà¦®à§ĩà¦¯à¦¼à§ĩà¦°à¦¾":6959,"à¦¸à§įà¦Łà¦¾à¦°":6960,"Ġà¦ªà§ģà¦¨à¦°à¦¾à¦¯à¦¼":6961,"Ġà¦Ĩà¦®à§ĩà¦°à¦¿à¦ķà¦¾à¦°":6962,"à¦ķà¦°à§įà¦®à§Ģ":6963,"Ġà¦īà¦¦à§įà¦¦à§ĩà¦¶à§ĩ":6964,"à¦¦à§įà¦¦à§Ģà¦¨":6965,"Ġà¦Ĩà¦¹à¦¸à¦¾à¦¨":6966,"Ġà¦ħà¦®à¦¿à¦¤":6967,"à¦ķà¦¾à¦®à§Ģ":6968,"Ġà¦¹à¦¾à¦ģà¦Ł":6969,"Ġà¦¶à¦ªà¦¥":6970,"Ġà¦ħà¦ľà§įà¦ŀ":6971,"Ġà¦ķà¦°à§ĭà¦¨à¦¾à¦Ńà¦¾à¦ĩà¦°à¦¾à¦¸":6972,"à¦¾à¦Ĺà¦¡à¦¼à¦¾à¦Ľ":6973,"Ġà¦Ĺà¦²à¦¾à¦¯à¦¼":6974,"Ġà¦®à§ĭà¦²à§įà¦²":6975,"Ġà¦¸à¦¾à¦¤à¦ķà§įà¦·":6976,"ace":6977,"Ġà¦°à¦¾à¦ľà¦¨à§Ģà¦¤à¦¿à¦°":6978,"à¦¸à§įà¦¬à¦°":6979,"à¦ªà§įà¦°à¦¤à§įà¦¯":6980,"Ġà¦ħà¦°à§įà¦¥à¦®à¦¨à§įà¦¤à§įà¦°à§Ģ":6981,"Ġà¦«à§įà¦²à¦¾à¦ĩà¦Ł":6982,"Ġà¦ħà¦¸à¦¾à¦§à¦¾à¦°à¦£":6983,"Ġà¦¸à¦²":6984,"Ġà¦ľà§ĭà¦¨":6985,"Ġà¦²à§ĩà¦¬":6986,"Ġà¦¤à§ĭà¦°":6987,"à¥¤à¥¤":6988,"Ġà¦ĩà¦¬à¦¨à§ĩ":6989,"Ġà¦ĩà¦¨à¦¸à§įà¦Łà¦¿à¦Łà¦¿à¦īà¦Ł":6990,"Ġà¦¸à¦¤à§įà¦¤à§įà¦¬à§ĩà¦ĵ":6991,"Ġà¦ħà¦¬à¦¶à§ĩà¦·à§ĩ":6992,"Ġà¦¤à¦ĸà¦¨à¦ĩ":6993,"Ġà¦¨à¦¿à¦·à§įà¦ª":6994,"Ġà¦¹à¦¾à¦®à¦¿à¦¦":6995,"Ġà¦ªà¦ķà§įà¦·à§ĩà¦°":6996,"org":6997,"Ġà¦¸à¦¤à§įà¦¯à¦¿à¦ĩ":6998,"Ġà¦¹à¦¾à¦²à¦ķà¦¾":6999,"Ġà¦ļà§Įà¦§à§ģà¦°à§Ģà¦°":7000,"Ġà¦ıà¦°à¦¶à¦¾à¦¦":7001,"tr":7002,"Ġà¦¸à§ĩà¦ķà§ĩà¦¨à§įà¦¡":7003,"à¦¨à¦¾à¦Ł":7004,"Ġà¦ľà¦¾à¦®à¦¾à¦¯à¦¼à¦¾à¦¤":7005,"Ġà¦¸à§įà¦¬à¦²à§įà¦ª":7006,"Ġà¦ķà§Į":7007,"Ġà¦ļà¦®à§İà¦ķà¦¾à¦°":7008,"Ġà¦ħà§įà¦¯à¦¾à¦Ł":7009,"Ġà¦¸à¦¨à§įà¦§à¦¾à¦¨":7010,"Ġà¦¸à§įà¦¬à¦¾à¦Ĺà¦¤":7011,"Ġà¦ªà§įà¦°à¦¾à¦ļà§Ģà¦¨":7012,"Ġà¦¸à¦¾à¦«":7013,"Ġà¦°à§ĭà¦Ĺà§Ģà¦°":7014,"Ġà¦ĵà¦Ńà¦¾à¦°à§ĩ":7015,"Ġà¦¦à¦¾à¦Ĺ":7016,"Ġ25":7017,"ĠâĢĶ":7018,"Ġà¦¸à§ĩà¦ľ":7019,"Ġà¦ĩà¦¤à§ĭà¦®à¦§à§įà¦¯à§ĩ":7020,"Ġà¦ªà¦°à¦¿à¦¸à§įà¦¥à¦¿à¦¤à¦¿à¦¤à§ĩ":7021,"Ġà¦¬à¦¿à¦ªà¦°à§Ģà¦¤à§ĩ":7022,"à¦¦à§Ĥà¦¤":7023,"Ġà¦¸à¦¾à¦²à¦®à¦¾à¦¨":7024,"Ġà¦°à¦¾à¦·à§įà¦Łà§įà¦°à§Ģà¦¯à¦¼":7025,"Ġà¦ªà§įà¦°à¦¿à¦®":7026,"Ġà¦¨à¦¿à¦īà¦ľà¦¿à¦²à§įà¦¯à¦¾à¦¨à§įà¦¡":7027,"Ġà¦¬à§Ģà¦ľ":7028,"à¦¶à§ĩà¦ĸ":7029,"Ġà¦¬à¦¿à¦ªà¦°à§įà¦¯":7030,"Ġà§©à§Ń":7031,"Ġ{":7032,"Ġà¦¬à¦¾à¦²à¦¿à¦ķà¦¾":7033,"à¦¡à¦¼à¦¿à¦°":7034,"Ġà¦¹à§ĥà¦¦à¦¯à¦¼":7035,"Ġà¦¬à¦¨à§įà¦¦à§įà¦¯à§ĭà¦ªà¦¾à¦§à§įà¦¯à¦¾à¦¯à¦¼":7036,"ank":7037,"Ġà¦®à¦¾à¦ľ":7038,"Ġà¦«à¦¿":7039,"rou":7040,"ĠBengali":7041,"Ġà¦ĸà§įà¦¯à¦¾à¦¤":7042,"à§ģà¦«":7043,"Ġà¦īà¦ĩà¦ķà§ĩà¦Łà§ĩ":7044,"Ġà¦īà¦¦à§įà¦¯à§ĭà¦ķà§įà¦¤":7045,"à¦Ĺà§ĭà¦ª":7046,"Ġà¦ªà§ĩà¦¸":7047,"Ġà¦ĺà¦Łà¦¨à¦¾à¦Łà¦¿":7048,"Ġà¦ĩà¦¤à¦¿à¦¹à¦¾à¦¸à§ĩ":7049,"Ġà¦ķà¦¾à¦°à¦ĸà¦¾à¦¨à¦¾":7050,"à¦Ļà§įà¦ĺ":7051,"Ø¹":7052,"à¦ķà¦¿à¦²":7053,"Ġà¦¸à§Įà¦¨à§įà¦¦à¦°à§įà¦¯":7054,"Ġà¦īà¦ĩà¦¨à§įà¦¡":7055,"Ġà¦ªà¦¾à¦łà¦ķ":7056,"à¦ĵà¦¯à¦¼à¦¾à¦ľ":7057,"à¦ķà¦¤à¦¾":7058,"Ġà¦¸à¦®à§Ĥà¦¹":7059,"Ġà¦«à¦¾à¦°à§įà¦®":7060,"29":7061,"à¦ªà§Ĥà¦°à§įà¦¬à¦¬à¦°à§įà¦¤à§Ģ":7062,"à¦Ńà¦¿à¦¤à§įà¦¤à¦¿à¦ķ":7063,"Ġà¦Ľà§ģà¦Łà§ĩ":7064,"Ġà¦Łà§įà¦°à¦¾à¦®à§įà¦ªà§ĩà¦°":7065,"Ġà¦®à§ģà¦®à§įà¦¬":7066,"Ġà¦¸à¦¾à¦¡à¦¼à¦¾":7067,"Ġà¦®à¦¾à¦¯à¦¼":7068,"Ġà¦¬à¦¿à¦ļà§įà¦Ľà¦¿à¦¨à§įà¦¨":7069,"Ġà¦¬à¦¿à¦®à¦¾à¦¨à¦¬à¦¨à§įà¦¦":7070,"Ġà¦¸à¦®à¦¿à¦¤à¦¿":7071,"Ġà¦ķà§ģà¦ª":7072,"Ġà¦¨à¦¿à¦°à¦¾à¦ªà¦¤à§įà¦¤à¦¾à¦°":7073,"Ġà¦ªà§įà¦°à¦¶à¦Ĥà¦¸à¦¾":7074,"à¦¤à¦¾à¦²":7075,"Ġà¦ªà¦¿à¦ł":7076,"Ġà¦¬à¦¿à¦¶à§įà¦¬à¦ķà¦¾à¦ªà§ĩ":7077,"à¦²à¦¿à¦ĸ":7078,"Ġà¦¬à¦¾à¦Ĥà¦²à¦¾à¦¯à¦¼":7079,"à¦¾à¦Ľà§ĩ":7080,"Ġà§¦à§ª":7081,"à¦ĸà¦¾à¦²à§Ģ":7082,"Ġà¦²à¦¾à¦ĩà¦«":7083,"Ġà¦®à¦¸à§įà¦¤":7084,"Ġà¦ķà¦°à§ĩà¦ĵ":7085,"à§ĩà¦ĩà¦²à¦¿":7086,"Ġà¦¶à§įà¦°à¦®":7087,"à¦¿à¦¯à¦¼à§ĩà¦Ľà¦¿à¦²":7088,"Ġà¦¬à¦ī":7089,"Ġà¦ķà¦¾à¦Ľà¦¾à¦ķ":7090,"Ġà¦¬à¦¾à¦ģà¦¶":7091,"Ġà¦ľà¦¨à¦¾à¦¬":7092,"Ġà¦¬à¦¾à¦Ľà¦¾à¦ĩ":7093,"Ġà¦¬à§įà¦¯à¦¾à¦¬":7094,"à¦¸à§įà¦¬à¦¤à§įà¦¬":7095,"à¦®à§ĭà¦Ł":7096,"à¦¬à¦¿à¦ıà¦¨à¦ªà¦¿":7097,"à¦¾à¦®à§ģà¦²":7098,"Ġà¦ıà¦²à¦¾à¦ķà¦¾à¦¬":7099,"Ġà¦ıà¦ķà§įà¦·à§ĩà¦¤à§įà¦°à§ĩ":7100,"Ġà¦¹à¦¯à¦¼à¦°":7101,"à§İà¦¸":7102,"Ġà¦Ĩà¦²à§ĭà¦ļà¦¨à¦¾à¦°":7103,"à§ĭà¦«":7104,"Ġà¦¤à¦¾à¦Ľà¦¾à¦¡à¦¼à¦¾":7105,"Ġà¦¦à¦£à§įà¦¡":7106,"Ġà¦¸à§įà¦¬à¦¯à¦¼à¦Ĥ":7107,"Ġà¦ĵà¦¯à¦¼à¦¾à¦¨à¦¡à§ĩ":7108,"Ġà¦ľà¦®à¦¿à¦°":7109,"::":7110,"à¦¤à¦¾à¦¦à§ĩà¦°":7111,"003":7112,"Ġà¦ķà§ĭà¦¡":7113,"Ġà¦ªà¦¶à§įà¦ļà¦¿à¦®à¦¬à¦Ļà§įà¦Ĺ":7114,"Ġà¦§à§ĭà¦¨":7115,"Ġà¦¹à¦¯à¦¼à¦¤":7116,"Ġà¦¦à¦¾à¦ĵ":7117,"Ġà¦ħà§įà¦¯à¦¾à¦¨":7118,"Ġà¦ıà¦²à§ĩ":7119,"Ġà¦Ĺà¦¾à¦¨à§įà¦§":7120,"Ġà¦²à§ĩà¦Ĺà§ĩ":7121,"Ġà¦īà¦ªà¦Ńà§ĭà¦Ĺ":7122,"à¦®à§įà¦®à¦¦":7123,"Ġà¦ĩà¦®à§ĩà¦ĩà¦²":7124,"Ġà¦ĸà¦¨à§įà¦¦à¦ķà¦¾à¦°":7125,"Ġà¦ħà¦¦":7126,"à¦ħà¦¨à§ģà¦·à§įà¦ł":7127,"Ġà§©à§¨":7128,"Ġà¦¬à¦°à§įà¦§":7129,"Ġà¦ļà§ĩà¦¤":7130,"Ġà¦°à¦¾à¦¨à§įà¦¨à¦¾":7131,"Ġà¦¸à¦Ĥà¦¬à¦¾à¦¦à¦®à¦¾à¦§à§įà¦¯à¦®":7132,"à¦¹à¦¯à¦¼":7133,"Ġà¦ªà§įà¦°à¦¤à§įà¦¯à¦¾à¦¹à¦¾à¦°":7134,"à¦¿à¦¸à§įà¦¥":7135,"à¦¾à¦¨à§įà¦Ł":7136,"Ġà¦®à¦¹à¦¾à¦ªà¦°":7137,"Ġà¦Łà¦¾à¦ĩà¦Ĺà¦¾à¦°":7138,"Ġà¦ķà¦°à§įà¦®à¦°à¦¤":7139,"Ġà¦®à¦¾à¦¦à§įà¦°à¦¾à¦¸":7140,"Ġà§¨à§¦à§§à§§":7141,"Ġà¦¨à¦¿à¦ļà§ĩà¦°":7142,"Ġà¦ĸà¦¾à¦ģ":7143,"Ġà¦ķà§ģà¦ķ":7144,"à§įà¦¬à¦¸à§įà¦¤":7145,"ĠRead":7146,"Ġà¦ķà¦¾à¦¤":7147,"Ġà¦ªà§įà¦°à¦¯à¦¼à§ĭà¦ľà¦¨à§ĩ":7148,"Ġà¦¬à¦¾à¦Ĥà¦²à¦¾à¦¦à§ĩà¦¶à¦ķà§ĩ":7149,"Ġà¦ĸà¦¾à¦¤à§ĩà¦°":7150,")-":7151,"à§ĩà¦¨à§įà¦Łà§ĩà¦°":7152,"à¦¬à¦¿à¦¸":7153,"à¦¾à¦Ńà§ģà¦ķà§įà¦¤":7154,"âĢĻà¦Łà¦¿":7155,"Ġà¦²à¦ķà§įà¦·à¦£":7156,"Ġà¦®à¦¿à¦¯à¦¼à¦¾à¦¨à¦®à¦¾à¦°à§ĩà¦°":7157,"à¦¯à§Į":7158,"Ġà¦Ńà¦¾à¦·à¦¾à¦°":7159,"ree":7160,"à¦¬à¦Ļà§įà¦Ĺà¦¬à¦¨à§įà¦§":7161,"à§ĭà¦°à§įà¦Łà¦¸":7162,"Ġà¦ľà¦¿à¦¯à¦¼à¦¾à¦ķà§ĩ":7163,"Ġà¦ľà¦¿":7164,"Ġà¦Ĩà¦²à§ĭà¦ļà¦¿à¦¤":7165,"Ġà¦Ĺà§ģà¦ģ":7166,"Ġà¦Łà§ĩà¦¨à§ĩ":7167,"Ġà¦¸à¦®à§įà¦Ńà¦¾à¦¬à§įà¦¯":7168,"à¦ªà¦¾à¦¶à§ĩ":7169,"Ġà¦ķà§ĭà¦¯à¦¼à¦¾à¦°":7170,"à¦¾à§ĩ":7171,"Ġà¦¨à§ĭà¦¯à¦¼":7172,"Ġà¦¯à¦¾à¦ļà¦¾à¦ĩ":7173,"ours":7174,"Ġà¦¸à¦¿à¦²à§ĩà¦Łà§ĩà¦°":7175,"Ġà¦īà¦ªà¦ķà¦¾à¦°":7176,"à¦¶à¦¿à¦²à§įà¦ªà§Ģ":7177,"XX":7178,"Ġà¦ħà¦§à¦¿à¦¦à¦ªà§įà¦¤à¦°à§ĩà¦°":7179,"Ġà¦«à§ĩà¦¡à¦¾à¦°":7180,"à¤¾à":7181,"Ġà¦®à§ģà¦ķà§įà¦¤à¦¿à¦¯à§ĭà¦¦à§įà¦§":7182,"Ġà¦ªà§ĭà¦·":7183,"Ġà¦ħà¦Ńà¦¿à¦·":7184,"à¦¿à¦¹à¦¾à¦°":7185,"Ġà¦°à¦£":7186,"à¦¯à¦¦à¦¿":7187,"à§Ģà¦ķà§įà¦·à":7188,"à§Ģà¦ķà§įà¦·à¦":7189,"à§Ģà¦ķà§įà¦·à¦¾":7190,"Ġà¦ĸà¦¾à¦²à¦¿":7191,"Ġà¦°à¦ĵ":7192,"à¦®à§ĥà¦¤":7193,"à¦¾à¦ĵà¦¯à¦¼à¦¾à¦¤":7194,"Ġà¦Łà§ĩà¦°":7195,"Ġà¦ªà§ĩà¦°à§ĩ":7196,"Ġà¦¶à§Ģà¦°à§įà¦·à¦ķ":7197,"Ġà¦¦à¦¿à¦²à¦¾à¦®":7198,"à¦ªà¦¾à¦ł":7199,"Ġà§§à§¯à§®":7200,"Ġà¦¬à¦Ļà§įà¦Ĺà¦¾à¦¬à§įà¦¦":7201,"à§ģà¦²à¦¾à¦°":7202,"à§ģà¦¯à¦¼à¦¾à¦²":7203,"Ġà¦¨à¦¿à¦ª":7204,"Ġà¦¨à¦¦à§Ģà¦¤à§ĩ":7205,"Ġà¦¹à¦¾à¦ĵ":7206,"Ġà¦ķà¦¾à¦Ľà¦¾à¦ķà¦¾à¦Ľà¦¿":7207,"Ġà¦¸à§įà¦¬à§ĩà¦ļà§įà¦Ľà¦¾à¦¸à§ĩà¦¬":7208,"Ġà¦¯à¦¾à¦¬à¦¤":7209,"Ġblowjob":7210,"à¤¾à¤":7211,"pe":7212,"Ġà¦®à¦¤à¦¬à¦¿à¦¨à¦¿à¦®à¦¯à¦¼":7213,"Ġà¦ķà¦¾à¦ģà¦¦":7214,"à¦¨à¦¾à¦Ĺ":7215,"Ġà¦¬à¦¾à¦¡à¦¼à¦¾à¦¤à§ĩ":7216,"Ġà¦¯à§ģà¦¦à§įà¦§à§ĩ":7217,"Ġà¦Ľà§ĭà¦Łà§įà¦Ł":7218,"Ġà¦ľà¦¿à¦ľà§įà¦ŀà§ĩà¦¸":7219,"Ġà¦īà¦¦à§įà¦¬à§ĩà¦Ĺ":7220,"Ġcom":7221,"Ġà¦ªà¦£à§įà¦¯à§ĩà¦°":7222,"Ġà§¯à§¦":7223,"Ġà¦¦à¦¾à¦ģà¦¡à¦¼à¦¿à¦¯à¦¼à§ĩà¦Ľà§ĩ":7224,"Ġà¦¬à§įà¦°à¦¾à¦ľà¦¿à¦²":7225,"Ġà¦ļà§ĩà¦¯à¦¼à¦¾à¦°à¦ªà¦¾à¦°à¦¸à¦¨":7226,"Ġà¦¤à§İà¦ªà¦°":7227,"à¦ıà¦ķà§įà¦¸":7228,"à§ĩà¦°à¦¹à¦¾à¦Ł":7229,"Ġà¦ĸà§įà¦°à¦¿à¦¸à§įà¦Ł":7230,"-à¦Ĺ":7231,"ash":7232,"à¦¶à§ĩà¦¯à¦¼à¦¾à¦°":7233,"Ġà¦°à§ĩà¦ĸà§ĩà¦Ľà§ĩà¦¨":7234,"à¦«à§ĩà¦¸à¦¬":7235,"Ġà¦ªà§įà¦°à¦¬à¦²":7236,"à¦¿à¦«à§ĭà¦°":7237,"à¦Ńà§Ĥà¦®à¦¿":7238,"Ġà¦ªà¦°à§įà¦¯à¦Łà¦¨":7239,"Ġà¦¸à§įà¦°":7240,"à¦¾à¦¬à¦¨":7241,"à¦Ĩà¦¬à¦¾à¦°":7242,"Ġà¦Ĩà¦ķà¦¾à¦°":7243,"Ġà¦Ĩà¦²à¦¹à¦¾à¦ľ":7244,"à¦ªà¦¤à¦¿à¦°":7245,"Ġà¦¦à§Ĥà¦°à¦¤à§įà¦¬":7246,"Ġà¦łà¦¿à¦ķà¦¾à¦¨à¦¾":7247,"Ġà¦§à¦¾à¦ķà§įà¦ķà":7248,"Ġà¦§à¦¾à¦ķà§įà¦ķà¦":7249,"Ġà¦§à¦¾à¦ķà§įà¦ķà¦¾":7250,"Ġà¦īà¦ªà¦¯à§ģà¦ķà§įà¦¤":7251,"à¦¿à¦Ĺà¦¾à¦°":7252,"Ġà¦®à¦¾à¦®à¦²":7253,"Ġà¦ĩà¦²à§ĩà¦ķà¦Łà§įà¦°":7254,"Ġà¦®à¦¾à¦¨à¦¬à¦¿à¦ķ":7255,"Ġà¦¬à§įà¦°à§įà¦¯à¦¾à¦¨à§įà¦¡":7256,"Ġà¦Ĩà¦Ĺà§ĩà¦ĵ":7257,"Ġà¦ĩà¦¨à¦¿à¦Ĥ":7258,"à§¯à§¯":7259,"Ġà¦ĵà¦ªà¦°à§ĩ":7260,"Ġà¦ªà¦°à¦¿à¦¬à¦°à§įà¦¤à§ĩ":7261,"Ġà¦ħà¦¬à¦²":7262,"Ġà¦ħà¦¨à§ģà¦¬à¦¾à¦¦":7263,"Ġà¦¨à¦¿à¦°à§įà¦¯à¦¾à¦¤à¦¨à§ĩà¦°":7264,"Ġà¦Ĺà¦¾à¦°à§įà¦¡":7265,"à¦¾à¦¸à¦®":7266,"Ġà¦Ĩà¦ĩà¦¨à¦¶":7267,"Ġà¦¨à¦¡à¦¼":7268,"Ġà¦ļà¦¾à¦ķà¦°":7269,"Ġà¦¬à¦¿à¦¨à¦¿à¦®à¦¯à¦¼":7270,"Ġà¦ªà¦°à¦ªà¦°":7271,"âĨĴ":7272,"à§ªà§«":7273,"Ġà¦ħà¦¸à§įà¦Łà§įà¦°à§ĩà¦²à¦¿à¦¯à¦¼à¦¾":7274,"Ġà¦īà¦¨à¦¿":7275,"Ġà¦Ĩà¦Ĺà§įà¦°à¦¹à§Ģ":7276,"Ġà¦ªà§įà¦°à¦ķà¦¾à¦¶à¦ķ":7277,"à¦²à§Ī":7278,"Ġà¦¸à§ģà¦®à¦¨":7279,"Ġà¦°à§ĩà¦ľà¦¿à¦¸à§įà¦Łà§įà¦°":7280,"Ġà¦¸à¦®à¦¾à¦ľà§ĩ":7281,"à§Ĥà¦Ł":7282,"Ġà¦ĺà§ĭà¦·à¦£à¦¾à¦°":7283,"à¦¨à¦¬":7284,"Ġà¦ħà¦¬à¦¸à§įà¦¥à¦¾à¦°":7285,"Ġà¦ķà¦°à§įà¦£":7286,"Ġà¦ĸà§ĩà¦²à¦¾à¦§":7287,"Ġà¦¡à¦¾à¦²":7288,"Ġà¦¸à¦¿à¦¬":7289,"Ġà¦ĵà¦°à¦«à§ĩ":7290,"Ġà¦Ĳà¦¤à¦¿à¦¹à§įà¦¯":7291,"Ġà¦®à¦¿à¦¯à¦¼à¦¾à¦°":7292,"Ġà¦ķà¦¬à¦°":7293,"Ġà¦®à¦¾à¦Ľà§ĩà¦°":7294,"Ġà¦Ĩà¦²à§ĭà¦ķà§ĩ":7295,"Ġà¦¯à§ĩà¦Łà¦¾":7296,"Ġà¦«à§ĭà¦¨à§ĩ":7297,"Ġà¦ªà¦¾à¦ļà¦¾à¦°":7298,"à¦¿à¦®à¦¿":7299,"Ġà¦Łà§ĩà¦¬à¦¿à¦²":7300,"Ġà¦Ńà§Ĥà¦®":7301,"Ġà¦ıà¦¶à¦¿à¦¯à¦¼à¦¾à¦¨":7302,"Ġà¦¬à§ĩà¦¦":7303,"Ġà¦¦à¦¾à¦¯à¦¼à§ĩ":7304,"Ġà¦ªà¦¤à¦¾à¦ķà¦¾":7305,"Ġà¦¸à¦¾à¦Ĺà¦°":7306,"à§ĭà¦¤à¦¾":7307,"av":7308,"Ġà¦¦à§ĩà¦ĸà§ĩà¦Ľà¦¿":7309,"Ġà¦ıà¦¸à¦ıà¦®":7310,"Ġà¦ĩà¦«à¦¤à¦¾à¦°":7311,"Ġà§¦à§«":7312,"Ġà¦ķà¦¾à¦¸à§įà¦Ł":7313,"hri":7314,"à¦¾à¦ĩà¦Ńà§ĩà¦Ł":7315,"Ġà¦īà¦ģà¦ļ":7316,"à¦¦à¦¾à¦¯à¦¼à¦¿à¦ķ":7317,"Ġà¦®à§ĥà¦¤à§įà¦¯à§ģà¦¦":7318,"Ġà¦¬à¦¿à¦¦à§įà¦¯à§ģà¦¤":7319,"Ġà¦¸à§įà¦¬à¦ľà¦¨":7320,"à¦¶à§įà¦¯à¦¾à¦®":7321,"Ġà¦¦à¦¿à¦¯à¦¼à§ĩà¦Ľà¦¿":7322,"Ġà¦®à§ĭà¦¶à¦¾à¦°":7323,"à¦¾à¦°à§įà¦¥à§Ģà¦¦à§ĩà¦°":7324,"Ġà¦ªà¦¾à¦°à¦Ń":7325,"Ġà¦¦à¦°à§įà¦¶à¦ķ":7326,"à¦¸à¦¾à¦®à§įà¦ª":7327,"Ġà¦¨à¦¿à¦°à§įà¦®à¦¾à¦£à§ĩà¦°":7328,"Ġà¦īà¦ªà¦¾à¦ļà¦¾à¦°à§įà¦¯":7329,"Ġà§¦à§Ń":7330,"à§°à§ĩ":7331,"Ġà¦ĸà¦¾à¦ĵà¦¯à¦¼":7332,"Ġà¦ĩà¦²à¦¿à¦¶":7333,"Ġà¦¬à¦¿à¦¨à¦¿à¦®":7334,"Ġà¦°à¦¾à¦¸à§ĩà¦²":7335,"Ġà¦ªà¦¿à¦ª":7336,"à¦Ĩà¦ĩà¦¨":7337,"Ġà¦Ĩà¦¬à§ĩà¦Ĺ":7338,"Ġà¦¸à§ĭà¦¹à§ĩà¦²":7339,"à¦¾à¦¶à§ĩà¦°":7340,"Ġà¦ªà¦¿à¦Ľà¦¨à§ĩ":7341,"Ġà¦ķà¦®à§ĩà¦Ľà§ĩ":7342,"Ġà¦ľà¦¾à¦¨à¦¾à¦°":7343,"à¦¸à¦®à§įà¦ªà§įà¦°à¦¤à¦¿":7344,"à¦ĩà¦ļ":7345,"Ġà¦«à¦ľ":7346,"à¦ĸà¦¬à¦°":7347,"Ġà¦ĺà§Ĥà¦°à§įà¦£":7348,"Ġà¦¬à§Īà¦¶à¦¾à¦ĸ":7349,"Ġà§©à§¬":7350,"Ġà¦ıà¦²à§ĭ":7351,"ĠVi":7352,"à¦ĩà¦¯à¦¼à¦°à§įà¦ķ":7353,"à¦¿à¦Ľà§ģà¦°":7354,"Ġà¦ľà§ĭà¦Łà§ĩà¦°":7355,"une":7356,"Ġà¦Ĺà§įà¦¯à¦¾à¦²":7357,"Ġà¦¸à¦¾à¦®à¦¨à§ĩà¦°":7358,"Ġà¦°à¦¾à¦ľà¦¸à§įà¦¬":7359,"gle":7360,"à¦¬à¦¿à¦¦à§ĩà¦¶":7361,"à¦°à§įà¦ªà¦£":7362,"à¦¾à¦Ĺà¦¾à¦°":7363,"Ġà¦ªà¦¾à¦°à¦¬":7364,"Ġà¦ĵà¦ķà§ĩ":7365,"Ġà¦Ńà§ĩà¦Ļà§įà¦Ĺ":7366,"ach":7367,"Ġà¦Łà§įà¦°à¦¾à¦ĩ":7368,"Ġà¦Īà¦¶à§įà¦¬à¦°":7369,"Ġà¦¦à§ģà¦°à§įà¦¯à§ĭà¦Ĺ":7370,"Ġà¦¹à¦¾à¦°à§ĩ":7371,"Ġà¦ķà¦°à¦¤à§ĩà¦ĩ":7372,"à¦¦à§įà¦Ńà§ģà¦¤":7373,"Ġme":7374,"Ġà¦Ĩà¦¸à¦¾à¦®à§Ģ":7375,"Ġà¦¦à¦°à¦¿à¦¦à§įà¦°":7376,"Ġà¦°à§ģ":7377,"Ġà¦Ľà¦¿à¦Ł":7378,"Ġà¦°à¦¾à¦¨à¦¾":7379,"Ġà¦Ĩà¦¸à§įà¦¤à§ĩ":7380,"à§ģà¦²à§ĩ":7381,"Ġà¦Ĩà¦¯à¦¼à§ĩà¦°":7382,"Ġà¦®à¦¾à¦¤à§ĥ":7383,"à¦¬à¦¾à¦Ĥà¦²à¦¾à¦¦à§ĩà¦¶à§ĩ":7384,"à¦Ńà§ģà¦ķà§įà¦¤":7385,"à¦¾à¦ĩà¦¨à¦¬à¦¾à¦¬":7386,"Ġà¦¤à¦¾à¦®à¦¿à¦®":7387,"Ġà¦°à¦¬à§Ģà¦¨à§įà¦¦à§įà¦°à¦¨à¦¾à¦¥":7388,"âĢ¢":7389,"Ġà¦Łà§įà¦°à¦¾à¦¨à§įà¦¸":7390,"Ġà¦®à§ĩà¦¯à¦¼à§ĩà¦ķà§ĩ":7391,"Ġà¦®à§ĭà¦¹":7392,"Ġà¦°à¦¿à¦®à¦¾à¦¨à§įà¦¡":7393,"Ġà¦ªà§įà¦°à¦¥à¦®à¦¬à¦¾à¦°à§ĩà¦°":7394,"Ġà¦¯à§ģà¦¬à¦²à§Ģà¦Ĺà§ĩà¦°":7395,"Ġà¦¦à¦®à§įà¦ª":7396,"Ġà¦ħà§įà¦¯à¦¾à¦®":7397,"à¦ķà¦ķà§įà¦¸à¦¬à¦¾à¦ľà¦¾à¦°":7398,"à¦ıà¦¤à§ĩ":7399,"Ġà¦¶à§ĭà¦¨":7400,"Ġà¦®à§ģà¦¶à¦«à¦¿à¦ķ":7401,"Ġà¦¨à§Ī":7402,"();":7403,"à¦¦à§Ģà¦°":7404,"Ġà¦ļà¦¿à¦ķà¦¿à§İà¦¸à¦¾à¦§à§Ģà¦¨":7405,"Ġà¦®à¦ľà§ģà¦®":7406,"à¦¶à¦¾à¦²à§Ģ":7407,"Ġà¦¸à§ĩà¦¨à¦¾à¦¬à¦¾à¦¹à¦¿à¦¨à§Ģ":7408,"Ġà¦īà¦¤à§įà¦¥":7409,"à¦¾à¦²à§Ģà¦°":7410,"Ġà¦Ĺà§įà¦¯":7411,"ai":7412,"Ġà¦®à§įà¦¯à¦¾à¦ľà¦¿à¦¸à§įà¦Łà§įà¦°":7413,"Ġà¦¨à¦¿à¦¯à¦¼à§ĩà¦ĵ":7414,"Ġà¦Ĩà¦¬à¦¹à¦¾à¦ĵà¦¯à¦¼à¦¾":7415,"à¦¾à¦®à¦¾à¦°à§Ģ":7416,"à§ĭà¦ķà¦¾à¦°":7417,"Ġà¦¨à§įà¦¯à¦¾à¦¶à¦¨à¦¾à¦²":7418,"à¦¨à¦¿à¦®":7419,"à¦¡à¦¿à¦ľ":7420,"Ġà¦¤à¦¾à¦ªà¦®à¦¾à¦¤à§įà¦°à":7421,"Ġà¦¤à¦¾à¦ªà¦®à¦¾à¦¤à§įà¦°à¦":7422,"Ġà¦¤à¦¾à¦ªà¦®à¦¾à¦¤à§įà¦°à¦¾":7423,"Ġà¦ªà§ģà¦·à§įà¦Ł":7424,"Ġà¦®à¦¾à¦¹à¦«":7425,"à¦¹à§ģà¦®":7426,"Ġ;":7427,"Ð°":7428,"Ġà¦Ńà¦¿à¦¤à¦°à§ĩ":7429,"Ġà¦¬à¦²à¦Ľà¦¿":7430,"ath":7431,"Ġà¦°à¦«à¦¿à¦ķà§ģà¦²":7432,"à§ĭà¦°à§ĩ":7433,"Ġà¦īà¦¤à§įà¦¤à§ĩà¦ľà¦¨à¦¾":7434,"Ġà¦ľà¦®à¦¿à¦¤à§ĩ":7435,"Ġà¦ªà§įà¦°à§ĩà¦®à§ĩà¦°":7436,"Ġà¦ªà¦°à¦¿à¦¶à§įà¦°à¦®":7437,"à¦¿à¦¯à¦¼à¦¤":7438,"Ġà¦ªà§įà¦°à¦ļà¦²à¦¿à¦¤":7439,"22":7440,"Ġà¦¬à§įà¦¯à¦¬à¦§à¦¾à¦¨à§ĩ":7441,"Ġà¦¸à¦¾à¦ĩà¦«":7442,"à¦ľà§Ģà¦¬à¦¨":7443,"Ġ2015":7444,"à¦ķà¦¨":7445,"Ġà¦®à¦¹à¦¿à¦²à¦¾à¦°":7446,"==":7447,"Ġà¦ĩà¦¨à§įà¦Łà¦¾à¦°à¦¨à§įà¦¯à¦¾à¦¶à¦¨à¦¾à¦²":7448,"Ġà¦¸à§ĩà¦¨à¦¾à¦¬à¦¾à¦¹à¦¿à¦¨à§Ģà¦°":7449,"\",":7450,"Ġà¦¸à¦®à¦¾à¦ªà§įà¦¤":7451,"à¦¶à¦°":7452,"à¦°à§Ģà¦£":7453,"Ġà¦¬à¦¾à¦Ĥà¦²à¦¾à¦¦à§ĩà¦¶à§Ģ":7454,"Ġà¦¶à¦¾à¦ķ":7455,"à¦°à¦¬à¦¿à¦¬à¦¾à¦°":7456,"Ġà¦Łà§ĩà¦²à¦¿à¦Ńà¦¿à¦¶à¦¨":7457,"à¦¬à¦Ľà¦°":7458,"âĢ¦]":7459,"à¦ķà¦¯à¦¼":7460,"Ġà¦ķà¦®à¦ªà¦ķà§įà¦·à§ĩ":7461,"Ġà¦ĵà¦¯à¦¼à¦¾à¦°à§įà¦²à§įà¦¡":7462,"Ġà¦¨à¦Ĺà¦¦":7463,"Ġà¦°à¦¹à¦¿à¦®":7464,"Ġà¦ħà¦¨à§įà¦¯à¦¦à§ĩà¦°":7465,"Ġà¦ļà§įà¦¯à¦¾à¦Ł":7466,"Ġà¦ķà¦°à¦£":7467,"Ġà¦¬à¦°à¦¾à¦¬à¦°":7468,"Ġà¦¶à¦Ļà§įà¦ķ":7469,"ans":7470,"Ġà¦ªà¦¾à¦¯à¦¼à§ĩ":7471,"à¦Ńà¦¾à¦ĩ":7472,"à§ĩà¦¶à§įà¦¬à¦°":7473,"à¦¾à¦«à¦¿à¦ľà§ģà¦°":7474,"ell":7475,"Ġà¦Ĩà¦ªà¦¾à¦¤":7476,"à¦¾à¦ģà¦ªà¦¾à¦ĩà¦¨à¦¬à¦¾à¦¬":7477,"Ġà¦¨à¦¿à¦¶":7478,"à¦¯à":7479,"Ġà¦ĩà¦¨à§įà¦¦":7480,"à¦ľà§įà¦ŀà¦¾à¦¨":7481,"Ġà¦ªà§ĥà¦¥à¦¿à¦¬à§Ģ":7482,"Ġà¦Ĺà¦£à¦¤à¦¾à¦¨à§įà¦¤à§įà¦°à¦¿à¦ķ":7483,"Ġà¦²à¦¿à¦ĸà¦¤à§ĩ":7484,"Ġà¦īà¦¤à§įà¦¤à¦®":7485,"à¦¯à¦":7486,"à¦ĸà¦¾à¦²à§ĩà¦¦à¦¾":7487,"à¦¯à¦¾":7488,"Ġà¦ĩà¦°à¦¾à¦¨à§ĩà¦°":7489,"Ġà§¨à§¦à§§à§¦":7490,"Ġà¦ªà¦°à¦¿à¦ª":7491,"à¦®à¦¾à¦®":7492,"Ġà¦®à§ģà¦¸à§įà¦¤":7493,"à¦ľà§ĩ":7494,"ĠComments":7495,"à¦¸à¦ķà¦²":7496,"Ġà¦¤à¦¿à¦¨à¦ľà¦¨":7497,"Ġà§¦à§¬":7498,"Ġà¦¬à§Įà¦¦à§įà¦§":7499,"Ġà¦¹à§įà¦¯à¦¾à¦ģ":7500,"à¦ļà§ĩà¦ŀà§įà¦ľ":7501,"à¦ķà¦¾à¦¯à¦¼":7502,"Ġà¦¶à§įà¦¬à¦¾à¦¸":7503,"à§ĩà¦¶à¦¾à¦¦à¦¾à¦°":7504,"Ġà¦ħà¦§à¦¿à¦¦à¦ªà§įà¦¤à¦°":7505,"Ġà¦¬à¦¿à¦¦à§įà¦¯à¦¾à¦²à¦¯à¦¼à§ĩ":7506,"Ġà¦ªà¦¦à§įà¦§à¦¤à¦¿à¦¤à§ĩ":7507,"Ġà¦ªà¦¾à¦°à¦Ľà§ĩ":7508,"à¦¾à¦²à¦¯à¦¼":7509,"Ġà¦ªà¦°à¦¿à¦¸à§įà¦¥à¦¿à¦¤à¦¿à¦°":7510,"Ġà¦ªà§įà¦°à§ĩà¦°à¦£":7511,"Ġà¦¸à¦°à¦ŀà§įà¦ľ":7512,"Ġà¦®à¦¾à¦°à¦¾à¦¤à§įà¦®à¦ķ":7513,"à§įà¦°à¦¦à¦¾à¦¯à¦¼à¦¿à¦ķ":7514,"à¦¤à¦²à¦¾":7515,"Ġà¦Ĺà§įà¦°à¦¾à¦®à§Ģà¦£":7516,"à¦°à¦ķà§įà¦·":7517,"à¦¬à¦¾à¦°à§įà¦¤à¦¾":7518,"Ġà¦ķà¦¾à¦°à§įà¦¯à¦¾à¦²à¦¯à¦¼à§ĩà¦°":7519,"lam":7520,"Ġà¦¨à§ĩà¦¤à¦¾à¦ķà¦°à§įà¦®à§Ģà¦¦à§ĩà¦°":7521,"Ġà¦Ńà¦¯à¦¼à§ĩ":7522,"Ġà¦ħà¦¶à§įà¦²à§Ģà¦²":7523,"Ġà¦¸à§įà¦®à§ĥà¦¤":7524,"à¦¸à¦¾à¦¤":7525,"Ġà¦¬à§įà¦¯à¦¬à¦¸à¦¾à¦¯à¦¼à§Ģà¦¦à§ĩà¦°":7526,"Ġà¦°à¦Ļà§ĩà¦°":7527,"Ġà¦Ľà¦¾à¦¯à¦¼":7528,"Ġà¦¸à§ĩà¦¸à¦¬":7529,"Ġà¦®à¦¹à¦¾à¦ķ":7530,"Ġnot":7531,"à¦¹à¦¾à¦ľà¦¾à¦°":7532,"Ġà¦¸à§įà¦¬à¦¤à§įà¦¬":7533,"Ġà¦ķà¦°à§įà¦®à¦ļà¦¾à¦°":7534,"à¦ªà§įà¦°à¦¤à¦¿à¦¬":7535,"Ġà¦ªà§ĩà¦ģà¦¯à¦¼à¦¾à¦ľ":7536,"Ġà¦²à¦¾à¦ĩà¦Ń":7537,"Ġà¦®à§įà¦¯à¦¾à¦¨à§ĩà¦ľà¦¾à¦°":7538,"Ġà¦®à¦°à§įà¦®":7539,"à¦¤à¦¨à§ĩ":7540,"à¦¾à¦¸à¦¿":7541,"Ġà¦ķà¦¾à¦°à¦¿à¦Ĺ":7542,"à¦ļà¦¨à§įà¦¦à§įà¦°":7543,"Ġà¦ªà§įà¦°à¦¸à¦Ļà§įà¦Ĺ":7544,"Ġà¦ĩà¦¸à¦²à¦¾à¦®à¦¿à¦ķ":7545,"Ġà¦Ĩà¦¨à§įà¦¦à§ĭà¦²à¦¨à§ĩ":7546,"Ġà¦¯à§ģà¦¦à§įà¦§à§ĩà¦°":7547,"Ġà¦ªà§įà¦°à¦¬à¦¨à§įà¦§":7548,"à¦®à¦¨à§įà¦¡":7549,"Ġà¦ķà¦ª":7550,"à§įà¦Ńà¦¬":7551,"à¦¨à¦Ń":7552,"à¦ļà¦¾à¦°à§įà¦ľ":7553,"Ġà¦ªà¦°à¦¿à¦¬à¦°à§įà¦¤à¦¨à§ĩà¦°":7554,"Ġà¦ļà¦°à¦¿à¦¤à§įà¦°à§ĩ":7555,"Ġà¦ĺà¦£à§įà¦Łà¦¾à¦°":7556,"à¦¾à¦łà¦¿":7557,"à¦īà¦ªà¦ľà§ĩà¦²à¦¾":7558,"Ġà¦¬à¦¿à¦¶à§įà¦²à§ĩà¦·à¦£":7559,"Ġà¦ħà§įà¦¯à¦¾à¦¡à¦Ńà§ĭà¦ķà§ĩà¦Ł":7560,"Ġà¦ªà§įà¦°à¦¯à§ģà¦ķà§įà¦¤à¦¿à¦°":7561,"Ġà¦Łà§ĩà¦ķà¦¨à¦¾à¦«":7562,"à§ģà¦ĸà§Ģ":7563,"Ġà¦Ĩà¦¬à¦¾à¦¸à¦¿à¦ķ":7564,"à¦¶à§ģà¦§à§ģ":7565,"Ġvar":7566,"Ġà¦¹à¦¾à¦«":7567,"Ġà¦Ńà§ĩà¦Ļà§įà¦Ĺà§ĩ":7568,"Ġà¦Ńà¦Ļà§įà¦Ĺ":7569,"à¦¦à§Ī":7570,"Ġà¦¸à§įà¦Łà§ĩà¦¡à¦¿à¦¯à¦¼à¦¾à¦®à§ĩ":7571,"Ġà¦°à¦¾à¦¶à¦¿à¦¯à¦¼à¦¾à¦°":7572,"à¦ªà§ĩà¦°":7573,"Ġà¦®à¦¿à¦ľà¦¾à¦¨à§ģà¦°":7574,"Ġà¦¤à¦¾à¦²à§ģà¦ķà¦¦à¦¾à¦°":7575,"Ġà¦«à¦¿à¦²à§įà¦®":7576,"Ġà¦®à¦°à§įà¦¯à¦¾à¦¦à¦¾":7577,"Ġà¦ľà¦¨à¦¸à¦Ĥà¦ĸ":7578,"Ġà¦¸à¦Ĥà¦¬à¦¾à¦¦à¦¦à¦¾à¦¤à¦¾":7579,"Ġà¦¸à¦¾à¦®à¦¯à¦¼à¦¿à¦ķ":7580,"Ġà¦Ĩà¦¯à¦¼à¦¾à¦¤":7581,"Ġà¦ľà¦¯à¦¼à§Ģ":7582,"Ġà¦Ĩà¦ľà¦ķà§ĩ":7583,"Ġà¦Ĺà¦łà¦¨à§ĩà¦°":7584,"Ġà¦Ńà¦¬à¦¿à¦·à§įà¦¯à¦¤à§ĩ":7585,"Ġà¦¨à¦¾à¦ķ":7586,"Ġà¦¬à§įà¦¯à¦ķà§įà¦¤à¦¿à¦¦à§ĩà¦°":7587,"ens":7588,"Ġà¦ªà¦¾à¦Ľ":7589,"Ġà¦ľà¦¬à§įà¦¦":7590,"Ġà¦ķà¦¾à¦ķ":7591,"Ġà¦ªà¦¾à¦°à§įà¦¥à¦ķà§įà¦¯":7592,"à§ĭà¦ķà":7593,"à§ĭà¦ķà¦":7594,"à§ĭà¦ķà¦¾":7595,"Ġà¦ªà§įà¦°à¦ķà¦¾à¦¶à§įà¦¯à§ĩ":7596,"Ġà¦ĩà¦°à¦¾à¦¨":7597,"Ġà¦¬à¦ķà§įà¦¤à§ĥà¦¤":7598,"old":7599,"à¦ªà¦°à§ĩà¦°":7600,"à¦¾à¦¤à§įà¦°à":7601,"à¦¾à¦¤à§įà¦°à¦":7602,"à¦¾à¦¤à§įà¦°à¦¾":7603,"Ġà¦¸à¦®à§įà¦ªà¦¾à¦¦":7604,"Ġà¦¦à§ĥà¦¢à¦¼":7605,"Ġà¦ªà§ĩà¦¨":7606,"Ġà¦ªà§ģà¦¨à¦°à§įà¦¬":7607,"à¦¾à¦§à":7608,"à§ĭà¦ªà":7609,"à§ĩà¦®à§įà¦¬à¦°à§ĩ":7610,"à§Ĥà¦²à¦ķ":7611,"Ġà¦®à¦¿à¦²à¦¨à¦¾à¦¯à¦¼":7612,"Ġà¦ķà¦¾à¦²à¦¾à¦®":7613,"à¦¦à¦¿à¦ķ":7614,"à¦¸à¦¦à¦¸à§įà¦¯":7615,"à¦®à¦¾à¦°à§įà¦ļ":7616,"à§ĭà¦ªà¦":7617,"à§ĭà¦ªà¦¾":7618,"à¦¾à¦§à¦":7619,"uly":7620,"à¦¾à¦§à¦¾":7621,"Ġà¦ıà¦ķà§ĩà¦°":7622,"à§įà¦Łà§ģ":7623,"Ġà¦ªà§ĥà¦¥à¦¿à¦¬à§Ģà¦¤à§ĩ":7624,"ood":7625,"Ġà¦ªà¦¾à¦ģà¦ļà¦Łà¦¿":7626,"ount":7627,"Ġà¦ĩà¦¤à¦¿à¦¹à¦¾à¦¸à§ĩà¦°":7628,"à¦¾à¦«à":7629,"à¦¾à¦«à¦":7630,"à¦¾à¦«à¦¾":7631,"à¦²à¦ķà§įà¦·":7632,"Ġà¦ķà¦°à§įà¦®à¦¸à¦Ĥ":7633,"Ġà¦®à¦¾à¦¦à¦°à¦¾à¦¸":7634,"):":7635,"Ġà¦§à¦¾à¦¨à§ĩà¦°":7636,"Ġà¦®à§ĩà¦¹à§ĩà¦¦":7637,"Ġà¦ħà¦¸à§įà¦¤à¦¿à¦¤à§įà¦¬":7638,"Ġà¦ķà¦ķà§įà¦·à§ĩ":7639,"Ġà¦ĸà¦¤":7640,"Ġà¦¬à§ĭà¦°":7641,"Ġà¦®à¦ĵ":7642,"Ġà¦ªà§įà¦°à¦¤à¦¿à¦·à§įà¦łà¦¾à¦¤à¦¾":7643,"int":7644,"Ġà¦Ńà¦¾à¦ĩà¦°à¦¾à¦²":7645,"à§ĩà¦°à¦ĵ":7646,"Ġà¦¡à§ģà¦¬à§ĩ":7647,"Ġà¦¸à¦®à§įà¦ªà§įà¦°à¦¦à¦¾à¦¯à¦¼à§ĩà¦°":7648,"âĢ¡":7649,"Ġà¦¨à¦¾à¦¸à¦¿à¦°":7650,"à¦ĵà¦¸à¦¿":7651,"Ġà¦®à¦¸à¦ľà¦¿à¦¦à§ĩà¦°":7652,"Ġà¦¯à§ģà¦¬à¦ķà§ĩà¦°":7653,"Ġà¦¨à§ĭà¦Łà¦¿à¦¶":7654,"Ġà¦Ńà§ĩà¦¸à§ĩ":7655,"Ġmore":7656,"à¦°à§įà¦¤à¦¨":7657,"Ġà¦¸à¦¿à¦Ń":7658,"à¦°à¦¾à¦°":7659,"Ġà¦ħà¦Ļà§įà¦ķ":7660,"à§ĩà¦ıà¦®":7661,"à¦¤à§ģà¦®à¦¿":7662,"Ġà¦¬à¦¾à¦ī":7663,"à§Ģà¦¨à§ĩà¦°":7664,"Ġà¦®à¦¿à¦·à§įà¦Łà¦¿":7665,"Ġà¦ªà¦ŀà§įà¦ļà¦®":7666,"à§ģà¦¨à§įà¦¨":7667,"Ġà¦ĸà§ĩà¦¯à¦¼à¦¾à¦²":7668,"Ġà¦ħà§įà¦¯à¦¾à¦¨à§įà¦Ł":7669,"Ġà¦¹à¦ĩà¦¤à§ĩ":7670,"Ġà¦ħà¦¨à§ģà¦Ńà¦¬":7671,"Ġà¦²à§ĭà¦ķà§ĩà¦°":7672,"Ġad":7673,"Ġà¦ªà¦°à¦¿à¦¸à¦Ĥà¦ĸ":7674,"Ġà¦ĩà¦īà¦Ł":7675,"Ġà¦ľà¦¾à¦«à¦°":7676,"à¦°à§ĭà¦¹à¦¿à¦Ļà§įà¦Ĺ":7677,"à§įà¦¶à§įà¦¬":7678,"Ġà¦«à¦¾à¦ĩà¦¨à¦¾à¦²":7679,"36":7680,"à¦ķà¦¾à¦ľ":7681,"à¦¾à¦ªà¦¨à§ĩà¦°":7682,"ĠØ§ÙĦÙĦ":7683,"à§ĩà¦«à¦¾à¦ľ":7684,"ĠZ":7685,"Ġà¦¹à¦¾à¦ķ":7686,"à¦ķà¦¥":7687,"orm":7688,"Ġà¦¹à§ĩ":7689,"Ġà¦¦à§ĭà¦ķà¦¾à¦¨à§ĩ":7690,"sc":7691,"à¦¸à¦®à§įà¦ªà¦¾à¦¦à¦¨à¦¾":7692,"Ġà¦®à§Ģà¦°":7693,"Ġà¦īà¦łà¦Ľà§ĩ":7694,"Ġà¦¨à¦¿à¦²à§ĩà¦¨":7695,"Ġà¦¬à¦¿à¦ķà§įà¦°à¦¿à¦°":7696,"?âĢĻ":7697,"à§Ĥà¦²à§ĩ":7698,"Ġà¦¸à§įà¦¬à¦¾à¦¸à§įà¦¥":7699,"Ġà¦ªà§įà¦°à¦¤à§įà¦¯à¦ķà§įà¦·":7700,"Ġà¦ľà¦¾à¦¤à¦¿à¦¸à¦Ĥà¦ĺà§ĩà¦°":7701,"ÙİÙĬ":7702,"Ġà¦®à¦¾à¦¶à¦°à¦¾à¦«à¦¿":7703,"Ġà¦ľà¦°à§ģà¦°à§Ģ":7704,"à¦«à¦¤à¦°":7705,"Ġà¦ĩà¦¬à¦¨":7706,"Ġ[âĢ¦]":7707,"ÑĢ":7708,"Ġà¦ıà¦ķà¦Ł":7709,"Ġà¦ªà§Ĥà¦ľà¦¾":7710,"Ġà§«à§¦à§¦":7711,"Ġà¦ķà¦ªà¦¿":7712,"Ġà¦Ńà¦¾à¦¤":7713,"Ġà¦ķà¦ĩ":7714,"Ġà¦ªà¦¤à§įà¦°à¦¿à¦ķà¦¾à¦°":7715,"Ġà¦¨à¦ĩ":7716,"Ġà¦«à¦ľà¦²":7717,"à§Ģà§°":7718,"Ġà¦ķà§ĭà¦²":7719,"Ġà¦Ĺà¦¿à¦¯à¦¼à§ĩà¦Ľà¦¿à¦²à§ĩà¦¨":7720,"Ġà¦¸à¦¾à¦Ī":7721,"Ġà¦ªà¦¾à¦ĩà¦²":7722,"Ġà¦ªà¦°à¦¿à¦¸à¦Ĥà¦ĸà§įà¦¯à¦¾à¦¨":7723,"Ġà¦ªà§ĭà¦²":7724,"Ġà¦Ĺà§įà¦°à¦¾à¦¹à¦ķ":7725,"Ġà¦®à¦¾à¦Łà¦¿à¦°":7726,"à¦¦à§Į":7727,"Ġà§§à§ªà§¨à§«":7728,"xx":7729,"Ġà¦Ńà¦¾à¦Ĺà§įà¦¯":7730,"'à¦°":7731,"à¦²à¦¿à¦¶":7732,"ĠUpd":7733,"Ġà¦¬à¦¿à¦ªà§įà¦²à¦¬":7734,"Ġà¦īà¦łà¦²":7735,"Ġà¦Ĩà¦¸à¦¨à§įà¦¨":7736,"Ġà¦ļà¦¾à¦ķà¦°à¦¿à¦°":7737,"Ġà¦Ĺà§ĩà¦²à¦¾à¦®":7738,"à¦¿à¦ľà§Ģà¦¬":7739,"Ġà¦ħà¦ªà§ĩà¦ķà§įà¦·à¦¾à¦¯à¦¼":7740,"à¦¾à¦Ļà§įà¦Ĺà¦¿à¦¨à§Ģ":7741,"Ġà¦¯à¦¾à¦ļà§įà¦Ľà¦¿":7742,"Ġà¦Ńà§įà¦°à¦¾à¦®":7743,"Ġà¦Łà§ĩà¦ķà§įà¦¸":7744,"Ġà¦Ńà§ģà¦Ĺ":7745,"Ġà¦°à§ģà¦¹à§ģà¦²":7746,"à¦¿à¦°à§įà¦¦":7747,"Ġà¦ķà§ģà¦°à¦Ĩà¦¨":7748,"Ġà¦ªà§ģà¦¡à¦¼":7749,"Ġà¦¸à¦¾à¦¹à¦¸":7750,"à¦¨à§įà¦§à§ĩ":7751,"à¦¬à¦¾à¦¸à§Ģà¦°":7752,"Ġà¦¦à¦°à§įà¦¶à¦¨":7753,"Ġà¦īà¦ªà¦¨à§įà¦¯à¦¾à¦¸":7754,"Ġà¦°à§ĭà¦Ĺà§ĩà¦°":7755,"à¦¾à¦¸à§įà¦Łà§įà¦°":7756,"Ġà¦ķà¦®à¦²":7757,"Ġà¦®à¦ľà¦¾à¦°":7758,"Ġà¦Ĺà¦¾à¦ľà§Ģà¦ªà§ģà¦°":7759,"Ġà¦ªà§įà¦°à¦¤à§įà¦¯à¦¾à¦¶à¦¾":7760,"Ġà¦¯à§ģà¦¬à¦²à§Ģà¦Ĺ":7761,"Ġà¦¦à§ĩà¦ĸà¦²à¦¾à¦®":7762,"Ġà¦¦à¦ķà§įà¦·à¦¤à¦¾":7763,"Ġà¦ħà¦Ĥà¦¶à§ĩ":7764,"Ġà¦¸à¦®à§įà¦Ńà¦¬à¦¤":7765,"Ġà¦ķà¦¬à§ĩ":7766,"à¦¿à¦°à§ĭ":7767,"Ġà¦Ĩà¦¹à¦¬à¦¾à¦¨":7768,"Ġà¦¤à¦«":7769,"Ġà¦¸à¦Ĥà¦¸à¦¾à¦°":7770,"Ġà¦Ĺà¦²à¦¾":7771,"à¦¿à¦²à§ĩà¦¨":7772,"Ġà¦²à¦ŀà§įà¦ļ":7773,"Ġà¦°à¦¿à¦²":7774,"Ġà¦¨à¦¿à¦¹à¦¤à§ĩà¦°":7775,"Ġà¦Łà§ĩà¦¸à§įà¦Łà§ĩ":7776,"-à¦Łà§ĭà¦¯à¦¼à§ĩà¦¨à§įà¦Ł":7777,"à¦¾à¦¦à¦¿à¦°":7778,"Ġà¦¸à¦®à§įà¦ªà¦°à§įà¦ķà§ĩà¦°":7779,"){":7780,"Ġà¦ªà§ģà¦°à§ģà¦·à§ĩà¦°":7781,"Ġse":7782,"à¦ªà¦¾à¦¤à§įà¦°":7783,"Ġà¦ķà¦®à¦¿à¦¯à¦¼à§ĩ":7784,"Ġà¦¦à§ģà¦²":7785,"Ġà¦¸à¦¾à¦ĩà¦«à§ģà¦²":7786,"à§įà¦Łà¦¿à¦«":7787,"à¦¬à¦¸à§įà¦¤":7788,"Ġà¦Ĩà¦¹à§įà¦¬à¦¾à¦¯à¦¼à¦ķ":7789,"44":7790,"Ġà¦ķà§ĭà¦·":7791,"Ġà¦¬à¦ŀà§įà¦ļà¦¿à¦¤":7792,"Ġà¦¸à¦¾à¦°à§įà¦¬":7793,"ue":7794,"Ġà¦ķà¦°à§įà¦®à§Ģà¦°à¦¾":7795,"Ġà¦Ĩà¦¨à¦¿à¦¸":7796,"Ġà¦ķà¦®à¦¿à¦īà¦¨à¦¿à¦Łà¦¿":7797,"Ġà¦ªà¦¦à¦¾à¦°à§įà¦¥":7798,"Ġà¦¬à¦¿à¦Ĺà¦¤":7799,"Ġà¦ªà§įà¦°à¦ķà§Įà¦¶à¦²":7800,"Ġà¦¡à§ĩà¦Ļà§įà¦Ĺ":7801,"Ġà¦®à§ĭà¦Łà¦°à¦¸à¦¾à¦ĩà¦ķà§ĩà¦²":7802,"-à¦¸à¦Ńà¦¾à¦ªà¦¤à¦¿":7803,"Ġà¦¬à¦²à¦²à§ĩ":7804,"Ġà¦¸à¦¿à¦¨à§ĩà¦®à¦¾à¦°":7805,"Ġà¦ıà¦¸à¦Ĩà¦ĩ":7806,"Ġà¦¤à¦¬à§ģà¦ĵ":7807,"Ġà¦ľà¦¨à¦Ĺà§ĭà¦·à§įà¦ł":7808,"Ġà¦ħà¦Ńà¦¿à¦¯à§ĭà¦Ĺà§ĩà¦°":7809,"Ġà¦®à¦¯à¦¼à¦¨":7810,"ĠÐ":7811,"Ġà¦Ĩà¦²à§ĭà¦°":7812,"Ġà¦Ńà¦¿à¦Łà¦¾à¦®à¦¿à¦¨":7813,"Ġà¦¯à¦¾à¦¬à¦¾à¦°":7814,"Ġà¦ļà¦¿à§İ":7815,"Ġà¦ªà§įà¦°à¦¾à¦ĩà¦Ńà§ĩà¦Ł":7816,"Ġwas":7817,"Ġà¦¦à§ĩà¦¶à¦ķà§ĩ":7818,"Ġà¦Ĩà¦¬à¦¾à¦°à§ĭ":7819,"Ġà¦¦à§ģà¦°à§įà¦¨à§Ģà¦¤à¦¿à¦°":7820,"à¦ĺà¦¾à¦¤à§Ģ":7821,"Ġà¦ªà§įà¦°à¦¾à¦°à§įà¦¥à§Ģà¦°":7822,"à§ģà¦¨à§ĩà¦°":7823,"Ġà¦¬à¦¿à¦¬à¦°à¦£":7824,"Ġà¦¸à§ĩà¦Łà¦¾à¦ĩ":7825,"ĠMay":7826,"Ġà¦Ĩà¦®à¦¿à¦ĵ":7827,"Ġà¦²à¦¿à¦Ĥà¦ķ":7828,"à¦¾à¦¨à§įà¦¡à§ĩà¦°":7829,"Ġà¦¹à¦²à§ĩà¦ĩ":7830,"Ġà¦Ĩà¦¡à¦¼à¦¾à¦ĩ":7831,"Ġà¦ªà§įà¦°à¦¦à¦¾à¦¨à§ĩà¦°":7832,"Ġà¦ķà¦°à§ĭà¦¨à¦¾à¦¯à¦¼":7833,"à¦¿à¦ªà§Ĥ":7834,"Ġà¦ıà¦ķà¦¦à¦®":7835,"Ġà¦ĩà¦Ļà§įà¦Ĺ":7836,"à¦¤à¦¾à¦°à¦ªà¦°":7837,"Ġà¦ľà¦°à¦¿à¦ª":7838,"à¦°à¦¾à¦¤à§ĩ":7839,"Ġà¦ĩà¦¸à§įà¦Ł":7840,"Ġà¦īà¦¨à§įà¦®à§ģà¦ķà§įà¦¤":7841,"Ġà¦¸à¦Ĥà¦¶à§ĭà¦§à¦¨":7842,"ĠÙĬ":7843,"Ġà¦¸à¦¿à¦Ł":7844,"Ġà¦ªà§ĩà¦¯à¦¼à§ĩà¦Ľà¦¿":7845,"Ġà¦®à¦¾à¦¦à§įà¦°à¦¾à¦¸à¦¾":7846,"Ġà¦²à¦¿à¦Ļà§įà¦ķ":7847,"Ġà¦ħà¦¬à¦¸à¦°":7848,"Ġà¦¸à§ģà¦¬":7849,"Ġà¦¹à¦Ł":7850,"âĢĿà¥¤":7851,"Ġà¦¬à¦¾à¦¡à¦¼à¦¾à¦¨à§ĭà¦°":7852,"Ġà¦¯à¦¾à¦ķà§ĩ":7853,"Ġà¦¨à¦¿à¦¤":7854,"à¦¶à¦¾à¦²":7855,"Ġà¦ľà¦¾à¦ķà¦¿à¦°":7856,"Ġà¦¬à¦¿à¦¬à§ĥà¦¤à¦¿à¦¤à§ĩ":7857,"Ġà¦ļà§ģà¦ª":7858,"Ġà¦¨à§Ģà¦°":7859,"Ġà¦®à¦¨à§ĭà¦¨à¦¯à¦¼à¦¨à¦ªà¦¤à§įà¦°":7860,"Ġà¦«à§ĩà¦²à¦¤à§ĩ":7861,"à¦ªà¦°à§įà¦¯":7862,"à¦¾à¦¯à¦¼à¦¿à¦¤":7863,"Ġà¦ıà¦¡à¦¼":7864,"Ġà¦¸à¦Ĥà¦²à¦Ĺà§įà¦¨":7865,"Ġà¦«à¦°à§įà¦®":7866,"url":7867,"Ġà¦¨à¦¿à¦¶à§įà¦ļà¦¯à¦¼à¦ĩ":7868,"Ġà§©à§ª":7869,"Ġà¦ħà¦¹":7870,"Ġà¦¬à¦ĩà¦¯à¦¼à§ĩà¦°":7871,"Ġà¦¬à¦ķ":7872,"Ġà¦īà§İà¦¸à¦¾à¦¹":7873,"ox":7874,"Ġà¦¡à§ĩà¦®":7875,"Ġà¦ĵà¦¯à¦¼à¦¾à¦°à§įà¦¡à§ĩà¦°":7876,"à¦¶à§ģà¦°":7877,"à¦¾à¦®à¦¨à§įà¦¤à§įà¦°à§Ģ":7878,"à¦°à§ĭà¦Ĺ":7879,"Ġà¦²à¦¿à¦®à¦¿à¦Łà§ĩà¦¡à§ĩà¦°":7880,"Ġà¦®à§ģà¦¸à¦²à¦®à¦¾à¦¨à¦¦à§ĩà¦°":7881,"Ġà¦¡à§ĩà¦Ńà§ĩà¦²":7882,"Ġà¦¸à¦°à¦ŀà§įà¦ľà¦¾à¦®":7883,"à¦¾à¦¨à§įà¦¡à":7884,"à¦¾à¦¨à§įà¦¡à¦":7885,"à¦¾à¦¨à§įà¦¡à¦¾":7886,"Ġà¦ªà§įà¦°à¦¤à¦¿à¦·à§įà¦łà¦¾à¦¨à§ĩ":7887,"Ġà¦¤à¦¹à¦¬":7888,"Ġà¦ķà§ĥà¦¤à¦ľà§įà¦ŀ":7889,"Ġà¦ĸà¦¾à¦¬à¦¾à¦°à§ĩà¦°":7890,"Ġà¦°à¦¾à¦īà¦¨à§įà¦¡":7891,"aper":7892,"Ġà¦²à¦¿à¦Łà¦¨":7893,"à¦ķà¦²à¦ķ":7894,"Ġà¦Ĺà§ĥà¦¹à¦¬à¦§":7895,"ike":7896,"à¦°à¦¹":7897,"Ġà¦ķà¦¾à¦¹à¦¿à¦¨à§Ģ":7898,"ĠOct":7899,"Ġà¦ªà§įà¦°à¦¾à¦¯à¦¼à¦ĩ":7900,"à¦ķà¦°à§įà¦¤":7901,"Ġà¦Ĩà¦¨à§įà¦¤à¦°à¦¿à¦ķ":7902,"Ġà¦¹à§ĩà¦°à§ĩ":7903,"Ġà¦ĸà¦¾à¦ĩ":7904,"Ġà¦¬à§ĩà¦Ĩà¦ĩ":7905,"Ġà¦¨à¦®à§ģà¦¨à¦¾":7906,"Ġà¦ªà¦¾à¦°à¦Ľà¦¿":7907,"Ġà¦®à§Įà¦²à¦¿à¦ķ":7908,"Ġà¦¸à§Įà¦°":7909,"à§ĩà¦ķà¦¶à¦¨":7910,"port":7911,"Ġà¦¯à¦®":7912,"Ġà¦ıà¦ķà§įà¦¸à¦ļà§ĩà¦ŀà§įà¦ľ":7913,"Ġà¦¦à¦«à¦¾à¦¯à¦¼":7914,"ft":7915,"Ġà¦®à¦¿à¦¡à¦¿à¦¯à¦¼à¦¾à¦¯à¦¼":7916,"à¦ıà¦ķà¦ĩ":7917,"Ġà¦°à¦¾à¦·à§įà¦Łà§įà¦°à§ĩà¦°":7918,"à¦Ĺà¦°à§ĩ":7919,"à¦ķà§ģà¦®à¦¾à¦°":7920,"Ġà¦¸à¦Ļà§įà¦ķ":7921,"Ġà¦Ĺà§ģà¦¦":7922,"Ġà¦¬à¦¾à¦¸à§ĩà¦°":7923,"à¦¨à¦¿à¦°à§įà¦¬à¦¾à¦ļà¦¨":7924,"Ġà¦ħà¦¸à§įà¦Łà§įà¦°à§ĩà¦²à¦¿à¦¯à¦¼à¦¾à¦°":7925,"Ġà¦ªà¦¡à¦¼à¦²":7926,"ĠAM":7927,"Ġà¦īà¦ªà¦¸à§įà¦¥à¦¿à¦¤à¦¿":7928,"Ġà¦¬à¦¾à¦¦à§Ģ":7929,"Ġà¦Ĩà¦ĩà¦¨à¦¶à§ĥà¦Ļà§įà¦ĸà¦²à¦¾":7930,"Ġà¦¸à¦¬à¦ĩ":7931,"Ġà¦°à§Ģà¦¤":7932,"Ġà¦ªà§ģà¦²":7933,"Ġà¦¬à§įà¦¯à¦ķà§įà¦¤à¦¿à¦ķà§ĩ":7934,"Ġà¦Ĺà¦°à§įà¦¬":7935,"Ġà¦¯à¦¾à¦ĵà¦¯à¦¼à¦¾à¦¯à¦¼":7936,"Posted":7937,"à§ģà¦ĸà§ĩ":7938,"Ġus":7939,"Ġà¦¦à§Ĥà¦¤à¦¾à¦¬":7940,"Ġà¦īà¦²à§įà¦²à¦¾à¦¹":7941,"Ġ23":7942,"Ġà¦¬à¦¿à¦ķà§įà¦°à¦¯à¦¼":7943,"Ġà¦Ĩà¦®à¦¾à¦¨":7944,"à¦¸à¦¾à¦®à§įà¦ªà§įà¦°à¦¤à¦¿à¦ķ":7945,"ube":7946,"à¦¤à¦¾à¦ģà¦°":7947,"Ġà¦¸à¦Ĥà¦ĸà§įà¦¯à¦ķ":7948,"Ġà¦®à§Įà¦¸à§ģà¦®à§ĩ":7949,"à¦¾à¦¤à§ĭ":7950,"à¦ħà¦ķ":7951,"Ġà¦¤à§ĭà¦²à§ĩ":7952,"à¦®à§ĩà¦Ł":7953,"Ġà¦¨à¦¾à¦°à§įà¦¸":7954,"Ġà¦®à§ĥ":7955,"Ġà¦¡à§ĭà¦¨à¦¾à¦²à§įà¦¡":7956,"à¦¬à¦¾à¦°à§įà¦·à¦¿à¦ķà§Ģ":7957,"Ġà¦ķà§Ĥà¦Ł":7958,"Ġà¦¦à§Ĥà¦·":7959,"Ġà¦ķà¦°à§įà¦¤à¦¬à§įà¦¯":7960,"Ġà¦ļà¦Łà§įà¦Łà¦Ĺà§įà¦°à¦¾à¦®à§ĩ":7961,"Ġà¦ħà¦¨à§ģà¦¶à§Ģà¦²":7962,"Ġà¦Ľà¦¿à¦¨à¦¤à¦¾à¦ĩ":7963,"Ġà¦ªà§ģà¦¨à¦°":7964,"Ġà¦ħà¦¤à§Ģà¦¤":7965,"Ġà¦¬à¦¿à¦ķà¦¾à¦²à§ĩ":7966,"Ġà§ªà§®":7967,"à§Īà¦°":7968,"Ġà¦¤à§ĩà¦ľ":7969,"Ġà¦ªà¦¿à¦ķ":7970,"à¦Ńà§ĭà¦Ł":7971,"Ġà¦¬à¦¾à¦¡à¦¼à¦¤à§ĩ":7972,"à¦Ĩà¦²à§įà¦²à¦¾à¦¹":7973,"Ġà¦°à¦¿à¦¯à¦¼à¦¾à¦²":7974,"Ġà¦ľà§ģà¦®":7975,"Ġà¦¤à§İà¦ķà¦¾à¦²à§Ģà¦¨":7976,"Ġà¦¹à§ĩà¦ģ":7977,"Ġà¦Ĩà¦¸à§ģà¦¨":7978,"Ġà¦¬à§ĥà¦·à§įà¦Łà¦¿à¦°":7979,"Ġà¦¬à¦¾à¦¡à¦¼à¦¬à§ĩ":7980,"Ġà¦¸à¦Ĥà¦¬à¦°à§įà¦§":7981,"à¦¨à§įà¦¨à¦¾à¦¥":7982,"à§įà¦¬à¦¿à¦°":7983,"Ġà¦¶à§ģà¦Łà¦¿à¦Ĥ":7984,"Ġà¦¦à§ĩà¦ĸà¦²à§ĩ":7985,"Tag":7986,"à¦¿à¦Ŀà¦¡à¦¼":7987,"Ġà¦¸à¦¿à¦ĩ":7988,"Ġà¦¸à§Ģà¦®à¦¾à¦¨à§įà¦¤à§ĩ":7989,"Ġà¦ªà¦¾à¦¯à¦¼à§ĩà¦°":7990,"à¦°à¦¸à¦¿à¦Ĥ":7991,"Ġà¦¬à¦²à¦²à§ĭ":7992,"à¦¦à§įà¦¬à¦¿à¦¤à§Ģà¦¯à¦¼":7993,"à§ĭà¦¹à¦¿à¦¤":7994,"ĠâĢĻ":7995,"Ġà¦¹à§ĭà¦Łà§ĩà¦²à§ĩ":7996,"Ġà¦ķà§įà¦°à¦¿à¦ķà§ĩà¦Łà§ĩ":7997,"ult":7998,"Ġà¦Ńà¦¾à¦°à§Ģ":7999,"à§įà¦¯à¦¾à¦¯à¦¼à¦¨":8000,"Ġà¦®à§įà¦¯à¦¾à¦ľà¦¿à¦¸à§įà¦Łà§įà¦°à§ĩà¦Ł":8001,"Ġà¦¨à§ĩà¦¤à§įà¦°à§Ģ":8002,"Ġà¦Ńà¦¬à¦¨à§ĩ":8003,"à¦®à¦¨à§ĩ":8004,"à§ĥà¦ķà§įà¦¤":8005,"Ġà¦Łà¦ª":8006,"Ġà¦ķà¦ķà§įà¦·":8007,"Ġà¦¸à¦®à¦¾à¦¬à§ĩà¦¶à§ĩ":8008,"à¦¬à¦¿à¦ıà¦¨à¦ªà¦¿à¦°":8009,"Ġà¦¶à§ĩà¦°":8010,"Ġà¦Ĺà§įà¦°à¦¹":8011,"Ġà¦ķà§ĭà¦Łà¦¾":8012,"Ġà¦¬à¦¾à¦Ĺà¦¾à¦¨":8013,"Ġà¦¤à¦¤à§įà¦¤à§įà¦¬à¦¾à¦¬":8014,"Ġà¦ªà¦¾à¦¤à§įà¦°":8015,"Ġà¦«à§įà¦¯":8016,"Ġà¦ľà§ģ":8017,"Ġà¦¶à¦°à§įà¦®":8018,"Ġà¦ļà§ģà¦®":8019,"Ġà¦¶à§ĩ":8020,"Ġà¦ªà¦¡à¦¼à¦²à§ĩ":8021,"Ġà¦¸à§ģà¦°à¦ķà§įà¦·à¦¾":8022,"Ġà¦¬à¦¿à¦¨à¦¿à¦®à¦¯à¦¼à§ĩ":8023,"Ġà¦¸à¦¿à¦ıà¦¨":8024,"à§įà¦Łà§ĩà¦°":8025,"Ġà¦Ĩà¦¦à¦¿à¦¬":8026,"à¦ķà§įà¦·à¦¿à¦ªà§įà¦¤":8027,"Ġà¦¹à§įà¦¯à¦¾à¦¨à§įà¦¡":8028,"ives":8029,"Ġà¦¶à¦¿à¦¶à§ģà¦ķà§ĩ":8030,"Ġà¦¸à¦Ĥà¦ķà§įà¦°à¦®à¦£":8031,"Ġà¦Ĩà¦®à¦²":8032,".à§«":8033,"Ġà¦¸à§ĥ":8034,"à¦£à§įà¦¡à¦²":8035,"à¦ľà§ģà¦²à¦¾à¦ĩ":8036,"Ġà¦Ńà¦¾à¦¬à¦¤à§ĩ":8037,"ÙĤ":8038,"-à¦ī":8039,"à¦¦à¦¾à¦²":8040,"Ġà¦®à§įà¦¯à¦¾à¦Ĺ":8041,"à¦¦à§ģà¦¦":8042,"à¦¾à¦Ĺà§ģà¦²":8043,"Ġà¦ľà§įà¦ŀ":8044,"Ġà¦Ĩà¦®à¦²à§ĩ":8045,"à§Ńà§¦":8046,"à§įà¦°à¦®à§ĩ":8047,"Ġà¦¸à¦¨à¦¦":8048,"à¦¾à¦ªà¦¾à¦¡à¦¼à¦¾":8049,"Ġà¦Ĩà¦ĩà¦¡":8050,"Ġà¦Ĩà¦ĩà¦¨à¦¿":8051,"Ġà¦¸à¦¤à§įà¦¯à¦¤à¦¾":8052,"imes":8053,"Ġà¦īà¦ªà¦¸":8054,"Ġà¦ħà¦ķà§įà¦¸":8055,"Ġà¦ķà§įà¦·à¦®à¦¤à¦¾à¦°":8056,"Ġà¦ªà¦¿":8057,"à§©à§©":8058,"à¦°à¦¾à¦¶":8059,"Ġà¦ªà¦¯à¦¼à¦¸à¦¾":8060,"ĠâĨĴ":8061,"Ġà¦¶à¦¾à¦¹à¦¾à¦¦":8062,"à¦¸à¦Ĥà¦ķà§įà¦°à¦¾à¦¨à§įà¦¤":8063,"à¦¾à¦®à¦¾à¦Łà¦¿":8064,"Ġà¦Łà§ĩà¦®":8065,"-à§¬":8066,"Ġà¦īà¦ªà¦²à¦¬à§įà¦§":8067,"Ġà¦®à¦¿à¦īà¦ľ":8068,"Ġà¦¨à¦¿à¦°à¦ªà§ĩà¦ķà§įà¦·":8069,"à¦¾à¦¡à¦¼à§Ģ":8070,"Ġà¦īà¦²à§įà¦²":8071,"Ġà¦®à¦ľà§ģà¦®à¦¦à¦¾à¦°":8072,"Ġà¦¦à¦¿à¦¨à¦¾à¦ľà¦ªà§ģà¦°":8073,"à¦Ńà":8074,"à¦Ńà¦":8075,"Ġà¦®à¦¨à§įà¦¡":8076,"Ġà¦ªà§ģà¦¤":8077,"Ġà¦ķà§°à":8078,"Ġà¦ķà§°à¦":8079,"Ġà¦ķà§°à¦¾":8080,"à¦Ńà¦¾":8081,"Ġà¦ªà¦¾à¦°à§įà¦¶à§įà¦¬":8082,"Ġà¦°à¦¾à¦Ļ":8083,"à§ĩà¦ªà¦¾à¦°":8084,"Ġà¦Łà¦¿à¦Ń":8085,"Ġà¦¤à§ģà¦ĩ":8086,"Ġà¦®à¦¹à¦¿à¦²à¦¾à¦¦à§ĩà¦°":8087,"à§ĩà¦¨à§įà¦¸à¦¿":8088,"Ġà¦Ńà¦¾à¦¬à¦¨à¦¾":8089,"Ġà¦ĩà¦¤à¦¿à¦¬à¦¾à¦ļà¦ķ":8090,"Ġà¦Ĩà¦Ļ":8091,"Ġà¦ªà¦¾à¦łà¦¿à¦¯à¦¼à§ĩ":8092,"Ġà¦ªà§įà¦°à¦¾à¦°à§įà¦¥à§Ģà¦¦à§ĩà¦°":8093,"Ġà¦¨à¦¾à¦ľà¦®à§ģà¦²":8094,"hat":8095,"Ġà¦¬à§ĩà¦ŀà§įà¦ļ":8096,"Ġà¦°à¦¾à¦¹à§ģà¦²":8097,"Ġà¦¬à§įà¦¯à¦ķà§įà¦¤à¦¿à¦¤à§įà¦¬":8098,"Ġà¦°à¦¿à¦Ł":8099,"Ġà¦¸à¦¶":8100,"ĠÙĦ":8101,"Ġà¦Ńà§įà¦¯à¦¾à¦¨":8102,"Ġà¦¬à§įà¦¯à¦¾à¦Łà¦¿à¦Ĥ":8103,"tar":8104,"Ġà¦¸à¦®à¦Ŀ":8105,"Ġà¦Łà¦¿à¦īà¦¬":8106,"Ġà¦ħà¦ľà§įà¦ŀà¦¾à¦¤":8107,"Ġà¦ªà§įà¦°à¦¤à¦¿à¦¯à§ĭà¦Ĺà¦¿à¦¤à¦¾à¦¯à¦¼":8108,"Ġà¦°à¦¾à¦ĸà¦¬à§ĩà¦¨":8109,"Ġà¦Ńà¦¿à¦¤à§įà¦¤à¦¿à¦ķ":8110,"Ġà¦¡à¦¿à¦ıà¦¸à¦ĩ":8111,"à¦²à¦¨":8112,"Ġà¦Ńà¦Łà§įà¦Ł":8113,"Ġà¦ħà¦¬à¦²à¦®à§įà¦¬":8114,"irst":8115,",,":8116,"Ġà¦¸à§ĩà¦¬à¦¾à¦°":8117,"Ġà¦Ńà§Ģà¦·":8118,"Ġà¦ħà¦¨à¦¿à¦¯à¦¼à¦®":8119,"à¦¬à§ģà¦²":8120,"Ġà¦ľà§ĩà¦°à§ĩ":8121,"Ġà¦ªà§įà¦°à¦¾à¦°à§įà¦¥à¦¨à¦¾":8122,"Ġà¦¦à§ģà¦°à§įà¦¦à¦¾à¦¨à§įà¦¤":8123,"à§įà¦¯à¦¾à¦Łà§ĩà¦²":8124,"à§ĭà¦Ĺà§įà¦°":8125,"à¦Ńà¦¾à¦°à¦¤à§Ģà¦¯à¦¼":8126,"Ġà¦ħà§įà¦¯à¦¾à¦¸à§ĭà¦¸à¦¿à¦¯à¦¼":8127,"Ġà¦¶à¦¾à¦ķà¦¿à¦¬":8128,"Ġà¦ªà¦°à§įà¦¯à¦¬à§ĩà¦ķà§įà¦·à¦£":8129,"Ġà¦ľà¦¿à¦ª":8130,"à¦¾à¦£à§įà¦¡à§ĩ":8131,"Ġà¦ħà¦²à¦¿à¦®à§įà¦ª":8132,"Ġà¦ľà¦¾à¦ªà¦¾à¦¨":8133,"Ġun":8134,"Ġà¦ªà§įà¦°à¦¬à¦£":8135,"Ġà¦ķà¦°à¦¤à§ĭ":8136,"à¦ªà¦¾à¦¶à§ĩà¦°":8137,"à¦ķà¦Ł":8138,"Ġà¦«à§įà¦¯à¦¾à¦ķà§įà¦¸":8139,"à¦®à§ĩà¦¨":8140,"à¦ķà§įà¦·à¦£à¦¿à¦ķ":8141,"21":8142,"à¦¾à¦ļà§įà¦Ľà¦¿à¦²":8143,"Ġà¦¨à¦¾à¦Łà§įà¦¯":8144,"Ġà¦®à¦¾à¦ĩà¦²":8145,"ownload":8146,"ĠâĢ¢":8147,"Ġà§©à§®":8148,"Ġyour":8149,"ĠMore":8150,"à¦·à¦§":8151,"à¦¿à¦²à¦¿":8152,"Ġà¦®à¦Ļà§įà¦Ĺà¦²":8153,"Ġà¦ļà¦ķà§įà¦°à¦¬à¦°à§įà¦¤à§Ģ":8154,"Ġà¦¸à§įà¦¬à¦°à¦¾à¦·à§įà¦Łà§įà¦°à¦®à¦¨à§įà¦¤à§įà¦°à§Ģ":8155,"Ġà¦īà¦¦à§įà¦¬à§ĭà¦§à¦¨à§Ģ":8156,"Ġà¦¹à¦¸à§įà¦¤à¦¾à¦¨à§įà¦¤à¦°":8157,"à¦¦à¦¾à¦¨à§ĩà¦°":8158,"Ġà¦¸à¦¾à¦°à§įà¦Łà¦¿à¦«":8159,"Ġà¦ªà¦°à§įà¦¯à¦¾à¦¯à¦¼":8160,"Ġà¦¬à¦¾à¦¨à¦¿à¦¯à¦¼à§ĩ":8161,"Ġà¦°à§Ĥà¦ªà¦¾à¦¨à§įà¦¤à¦°":8162,"à§ĩà¦Łà¦¿à¦Ń":8163,"Ġà¦¬à¦¾à¦¡à¦¼à¦¾à¦¨à§ĭ":8164,"Ġà¦ĵà¦®à¦°":8165,"Ġà¦¸à¦¦à§įà¦¯":8166,"à¦ķà§ĩà¦¨":8167,"Ġà¦®à¦ľà":8168,"Ġà¦Ĩà¦ľà¦ĵ":8169,"Ġà¦®à¦§à§ģ":8170,"Ġà¦®à¦ľà¦":8171,"Ġà¦®à¦ľà¦¾":8172,"à§ĩà¦ıà¦¸":8173,"Ġab":8174,"Ġpr":8175,"à§ģà¦¬à§įà¦§":8176,"à¦¡à¦¼à¦¾à¦¯à¦¼":8177,"Ġà¦¸à¦¾à¦²à§įà¦²à¦¾à¦®":8178,"Ġmy":8179,"Ġà¦¸à¦ŀà§įà¦ļà¦¾à¦²":8180,"Ġà¦¤à§įà¦¬à¦ķà§ĩà¦°":8181,"Ġà¦Łà¦¾à¦ķ":8182,"Ġà¦¸à§įà¦¬à¦¾à¦¦":8183,"à¦®à§įà¦¬à§ĩ":8184,"Ġà¦¨à§ĩà¦¬à§ĩà¦¨":8185,"50":8186,"Ġà¦¸à§ĭà¦¸":8187,"Ġà¦ķà¦°à§įà¦®à¦¸à§Ĥà¦ļà¦¿à¦°":8188,"Ġà¦ıà¦ķà§ģà¦¶":8189,"à¦«à¦¤à¦°à§ĩà¦°":8190,"Ġà¦Ĺà¦¾à¦¡à¦¼à¦¿à¦¤à§ĩ":8191,"Ġà¦ķà¦¾à¦Łà¦¿à¦¯à¦¼à§ĩ":8192,"Ġà¦¹à¦¾à¦°à§ģà¦¨":8193,"Ġà¦ĵà¦łà":8194,"Ġà¦ĵà¦łà¦":8195,"Ġà¦ĵà¦łà¦¾":8196,"à¦¬à¦¾à¦ľ":8197,"Ġà¦°à¦¾à¦·à§įà¦Łà§įà¦°à¦¦à§Ĥà¦¤":8198,"Ġà¦¬à§ģà¦¡à¦¼":8199,"Ġà¦¶à§įà¦°à§ĩà¦£à§Ģà¦°":8200,"ØŃ":8201,"ØĮ":8202,"Ġà¦¬à¦¾à¦¨à§įà¦§":8203,"à¦°à¦«":8204,"à¦ľà§ģà¦°":8205,"Ġà¦°à¦¾à¦ľà¦¨à§Ģà¦¤à¦¿à¦¤à§ĩ":8206,"Ġà¦®à§ĭà¦ľ":8207,"Ġà¦¶à§Ģà¦°à§įà¦·à§ĩ":8208,"Ġà¦ªà¦°à§ĩà¦ĵ":8209,"Ġà¦Ĩà¦Ĺà¦¾à¦®à§Ģà¦ķà¦¾à¦²":8210,"Ġà¦ªà¦°à§įà¦¯à¦¾à¦ªà§įà¦¤":8211,"Â©":8212,"à¦¸à§įà¦°":8213,"Ġà¦ªà¦°à§įà¦¬à§ĩ":8214,"Ġà¦¸à¦®à¦Ĺà§įà¦°":8215,"Ġà¦¬à¦¿à¦ľà¦¿à¦¬à¦¿":8216,"à§ĩà¦Łà¦¾à¦°":8217,"à¦¨à¦¿à¦®à§įà¦¨":8218,"à¦¿à¦Ľà§ĩ":8219,"Ġà¦®à¦¿à¦¨à¦¿à¦Łà§ĩà¦°":8220,"ase":8221,"Ġà¦¹à¦²à§ģà¦¦":8222,"itt":8223,"Ġà¦ĵà¦¯à¦¼à¦¾à¦¸à¦¾à¦²":8224,"Ġà¦ķà¦°à§įà¦®à¦ļà¦¾à¦°à§Ģ":8225,"Ġà¦Ĺà¦¾à¦°":8226,"Ġà¦¸à§ģà¦²à¦¤à¦¾à¦¨":8227,"Ġà¦¨à¦ķà¦²":8228,"Ġà¦ķà§įà¦·à¦®à¦¤à¦¾à¦¸à§Ģà¦¨":8229,"à§Ĥà¦®":8230,"Ġà¦ľà§ģà¦Łà¦¿":8231,"Ġà¦ªà¦¾à¦łà¦¾à¦¨à§ĭà¦°":8232,"à§įà¦¤à¦¾à¦°à§ĩà¦°":8233,"Ġà¦Łà§ĩà¦¨":8234,"Ġà¦ļà¦¾à¦ĵà¦¯à¦¼à¦¾":8235,"atest":8236,"Ġà¦°à§ĭà¦®":8237,"à¦¸à§ĩà¦¬à¦¾":8238,"Ġà¦²à¦¾à¦Ĺà¦Ľà§ĩ":8239,"Ġà¦ªà§ģà¦²à¦¿à¦¶à¦ķà§ĩ":8240,"Ġà¦īà¦®à§įà¦®":8241,"Ġà¦ħà¦¦à§įà¦Ńà§ģà¦¤":8242,"ire":8243,"Ġà¦²à¦¾à¦Ĺà¦²":8244,"Ġà¦¬à¦¨à§įà¦¯à¦¾":8245,"Ġà¦Ĩà¦¯":8246,"Ġà¦ķà¦Ĥà¦Ĺà§įà¦°à§ĩà¦¸à§ĩà¦°":8247,"à¦Ńà¦¾à¦²à§ĭ":8248,"à¦¾à¦ķà¦¾à¦²à§ĩ":8249,"à¦¶à§įà¦¬":8250,"Ġà¦°à§ĩà¦¡à¦¿à¦ĵ":8251,"à¦¸à¦ĩ":8252,"à¦¡à¦¼à¦¿à¦¤à§ĩ":8253,"âĢĻâĢĻ":8254,"Ġà¦¹à§ĭà¦¸à¦¾à¦ĩà¦¨":8255,"Ġà¦®à¦¿à¦¤à§įà¦°":8256,"Ġà¦ĸà§ĩà¦²à¦¾à¦¯à¦¼":8257,"Ġà¦¨à¦¾à¦¯à¦¼à¦ķ":8258,"à¦¾à¦¶à§ĩ":8259,"Ġà¦ĩà¦Ļà§įà¦Ĺà¦¿à¦¤":8260,"à§ĭà¦°à¦¿à¦¯à¦¼à¦¾à¦²":8261,"Ġà¦®à¦¿à¦²à¦¨à¦¾à¦¯à¦¼à¦¤à¦¨à§ĩ":8262,"Ġà¦Ĩà¦®à¦¨à§įà¦¤à§įà¦°à¦£":8263,"à§ģà¦²à§įà¦ķ":8264,"à¦ªà§įà¦°à¦ļà§įà¦Ľà¦¦":8265,"Ġà¦ħà¦¡à¦¿à¦ĵ":8266,"Ġà¦ķà¦®à¦¾à¦¨à§įà¦¡à¦¾à¦°":8267,"Ġà¦ħà¦«à¦¾à¦°":8268,"Ġà¦¬à§ĩà¦Ĩà¦ĩà¦¨à¦¿":8269,"Ġà¦¯à¦¾à¦¨à¦¬à¦¾à¦¹à¦¨":8270,"à¦¾à¦īà¦¦à§įà¦¦à¦¿à¦¨":8271,"Ġà¦¸à§Ĥà¦ļà¦ķ":8272,"Ġà¦°à§ĩà¦«":8273,"33":8274,"à§ģà¦¬à¦¿à¦§à":8275,"à§ģà¦¬à¦¿à¦§à¦":8276,"à§ģà¦¬à¦¿à¦§à¦¾":8277,"à§Ģà¦£":8278,"Ġà¦¨à¦¾à¦°à§Ģà¦ķà§ĩ":8279,"cc":8280,"à§įà¦¸à¦¨":8281,"Ġà§¨à§¦à§¦à§¯":8282,"ram":8283,"Ġà¦ĩà¦īà¦¨à¦¿à¦¯à¦¼à¦¨à§ĩ":8284,"Ġà¦¹à§ĩà¦°":8285,"Ġà¦¸à¦Ńà§įà¦¯":8286,"-à¦«":8287,"Ġà¦ĺà¦£à§įà¦Łà¦¾à¦¯à¦¼":8288,"Ġà¦¬à¦¿à¦¦à§ĩà¦¶à§Ģ":8289,"pm":8290,"à¦¾à¦ľà¦¨à¦ķ":8291,"ÙİØ§ÙĦ":8292,"à¦Ńà¦¾à¦·à":8293,"à¦Ńà¦¾à¦·à¦":8294,"à¦Ńà¦¾à¦·à¦¾":8295,"Ġà¦Ĭà¦°à§įà¦§à§įà¦¬":8296,"Ġà¦ªà¦°à§įà¦¯à¦¾à¦²à§ĭà¦ļà¦¨à¦¾":8297,"Ġà¦ªà§ģà¦ģà¦ľà¦¿à¦¬à¦¾à¦ľà¦¾à¦°":8298,".à§¦":8299,"Ġà¦¯à¦¾à¦¨à¦ľ":8300,"Ġà¦ħà¦Ńà¦¿à¦¨à¦¨à§įà¦¦à¦¨":8301,"à§ĭà¦ļà¦¨":8302,"à§ĩà¦ĥ":8303,"ll":8304,"à¦®à¦¾à¦¨à¦¬":8305,"Ġà¦¯à§ģà¦ķà§įà¦¤à¦¿":8306,"........":8307,"à¦¿à¦ķà§ĭ":8308,".org":8309,"Ġà¦ľà¦¿à¦®à§įà¦¬":8310,"à¦¿à¦ıà¦ĩà¦ļ":8311,"à¦Ĩà¦¹":8312,"Ġà¦Ĩà¦¶à§įà¦¬à¦¾à¦¸":8313,"à¦Ĺà§ģà¦²à¦¿à¦¤à§ĩ":8314,"à§®à§®":8315,"Ġà¦¸à§įà¦¬à¦ļà§įà¦Ľ":8316,"ÙĴÙĨ":8317,"Ġà¦¦à¦¾à¦¯à¦¼à¦¿à¦¤à§įà¦¬à§ĩ":8318,"Ġà¦ªà§įà¦°à¦¤à¦¿à¦¶à§įà¦°à§ģà¦¤à¦¿":8319,"à§ĩà¦¨à§įà¦Łà§ĩ":8320,"Ġà¦²à¦ķà§įà¦·à§įà¦®à§Ģ":8321,"Ġà¦«à¦¾à¦īà¦¨à§įà¦¡à§ĩà¦¶à¦¨":8322,"à¦Łà§ĩà¦¨":8323,"Ġà¦®à¦¾à¦¨à§ģà¦·à¦¦à§ĩà¦°":8324,"Ġà¦¯à§ģà¦Ĺà§ĩ":8325,"Ġà¦ªà§°à":8326,"Ġà¦ªà§°à¦":8327,"Ġà¦ªà§°à¦¾":8328,"').":8329,"Ġà¦ıà¦ª":8330,"Ġà¦ķà§ĩà¦¨à¦¾à¦°":8331,"Ġà¦²à¦ķà¦¡":8332,"lect":8333,"à¦ħà¦¨à§įà¦¯à¦¦à¦¿à¦ķà§ĩ":8334,"Ġà¦ľà¦¾à¦¨à§įà¦¨":8335,"Ġà¦ªà¦¾à¦ĸà¦¿":8336,"Ġà¦«à§ģà¦Łà¦¬à¦²à¦¾à¦°":8337,"Ġà¦®à§Įà¦²à¦Ńà§Ģà¦¬à¦¾à¦ľà¦¾à¦°":8338,"Ġà¦ħà¦¨à§įà¦¯à¦¾à¦¯à¦¼":8339,"Ġà¦ķà¦¡à¦¼à¦¾":8340,"à¦®à¦¿à¦²":8341,"man":8342,"Ġà¦¬à§Īà¦·":8343,"Ġà¦¬à§įà¦¯à¦¾à¦°à¦¿à¦¸à§įà¦Łà¦¾à¦°":8344,"Ġà¦¦à§ĩà¦ĸà¦¬à§ĩà¦¨":8345,"Ġà¦Ĩà¦°à§ĭà¦ª":8346,"Ġà¦ĩà¦ŀà§įà¦ļ":8347,"Ġà¦¬à¦¿à¦¡à¦¿":8348,"à¦ķà¦¾à¦°à¦£":8349,"Ġà¦¸à§įà¦¬à¦¾à¦°à§įà¦¥à§ĩ":8350,"Ġor":8351,"ĠOff":8352,"Ġà¦¸à§ĩà¦Ń":8353,"à¦®à§Ī":8354,"Ġ26":8355,"Ġà¦Ńà§ĩà¦ľ":8356,"Ġà¦ªà§ĩà¦°à¦¿à¦¯à¦¼à§ĩ":8357,"Ġà¦ĸà¦²":8358,"à¦²à¦¾à¦ĩà¦«":8359,"ild":8360,"Ġà¦ķà¦°à§įà¦¨":8361,"à¦¡à¦¾à¦ķ":8362,"Ġà¦ħà¦¨à§ģà¦¸à¦¨à§įà¦§à¦¾à¦¨":8363,"Ġà¦¸à§ĩà¦ľà¦¨à§įà¦¯":8364,"Ġ200":8365,"Ġà¦°à¦¾à¦ľà§įà¦ľ":8366,"Ġà¦Ĩà¦¬à§ĩà¦¦à¦¨à§ĩà¦°":8367,"Ġà¦ķà§ĭà¦¹":8368,"à¦¾à¦¬à§ĩà¦Ł":8369,"Ùģ":8370,"à¦¬à¦¿à¦ª":8371,"Ġà¦«à¦¿à¦Ł":8372,"à¦¾à¦¤à§ģà¦²":8373,"Ġà¦®à¦¹à¦¾à¦ªà¦°à¦¿à¦ļà¦¾à¦²à¦ķ":8374,"à¦«à¦Ł":8375,"Ġà¦¬à¦¾à¦¸à¦¿à¦¨à§įà¦¦":8376,"à¦¸à¦Ĥà¦¯à§ĭà¦Ĺ":8377,"ĠNovember":8378,"Ġà¦¶à¦¿à¦°à§ĭà¦¨à¦¾à¦®":8379,"Ġà¦ķà§ģà¦ªà¦¿à¦¯à¦¼à§ĩ":8380,"à¦Ńà¦¾à¦²":8381,"Ġà¦«à¦¿à¦²à¦¿à¦¸à§įà¦¤":8382,"Ġà¦Ĺà¦¾à¦²":8383,"Ġà¦Łà¦¾à¦ĩà¦®":8384,"Ġà¦¸à§ĥà¦·à§įà¦Łà¦¿à¦°":8385,"à¦¾à¦Ńà¦¾à¦¬à§ĩ":8386,"Ġà¦ħà¦ªà¦¾à¦°à§ĩà¦¶à¦¨":8387,"à¦¾à¦¬à¦¾à¦¦à§ĩà¦°":8388,"Ġà¦ħà¦Ńà§įà¦¯à¦¾à¦¸":8389,"Ġà¦¸à¦®à§įà¦ªà§ĥà¦ķà§įà¦¤":8390,"Ġà¦Ĩà¦¬à¦¿à¦·à§įà¦ķà¦¾à¦°":8391,"à¦ļà¦¿à¦ķ":8392,"Ġà¦°à§ģà¦¶":8393,"Ġà¦ªà§įà¦°à¦¤à§įà¦¯à¦¾à¦¬":8394,"à¦¾à¦Ĺà¦°à§ĩ":8395,"à§įà¦¬à§ĩà¦·":8396,"Ġà¦®à§ĩà¦¸à¦¿":8397,"Ġà¦ªà¦°à¦¿à¦ļà¦¿à¦¤à¦¿":8398,"Ġà¦¬à¦¿à¦ļà¦¾à¦°à§ĩà¦°":8399,"à¦¿à¦¤à§ĩà¦ĵ":8400,"Ġà¦ªà§įà¦°à¦®à¦¾à¦£à¦¿à¦¤":8401,"Ġà¦¦à§ģà¦°à§įà¦¬à§ĥà¦¤à§įà¦¤":8402,"Ġà¦Ńà¦¬à¦¿à¦·à§įà¦¯à§İ":8403,"Ġà¦¸à§įà¦Łà§ĭà¦°":8404,"à¦¾à¦¯à¦¼à§ĩà¦²":8405,"Ġà¦ķà¦²à¦ķà¦¾à¦¤à¦¾à¦¯à¦¼":8406,"à¦Ĺà¦¾à¦ľà§Ģ":8407,"à¦¾à¦Ńà¦¾à¦°":8408,"Ġà¦ıà¦¡à¦¼à¦¿à¦¯à¦¼à§ĩ":8409,"à¦¨à¦¾à¦ķà§ĩ":8410,"ĠX":8411,"Ġà¦¬à¦²à¦¬":8412,"Ġà¦®à¦¨à§ĭà¦¨à§Ģà¦¤":8413,"à¦ªà¦¿à¦Ĥ":8414,"Ġà¦ľà§ĩà¦²à§ĩ":8415,"Ġà¦Ŀà¦¾à¦®":8416,"Ġà¦¦à¦¾à¦¶":8417,"à¦¯à§ģà¦Ĺ":8418,"Ġà¦¶à¦¿à¦²":8419,"à¦¾à¦¶à¦¿à¦Ĥ":8420,"Ġà¦¬à¦Ĺà§ģà¦¡à¦¼à":8421,"Ġà¦¬à¦Ĺà§ģà¦¡à¦¼à¦":8422,"Ġà¦¬à¦Ĺà§ģà¦¡à¦¼à¦¾":8423,"Ġà¦¦à¦¿à¦¬à§ĩ":8424,"Ġà¦¯à§ĭà¦Ĺà§įà¦¯à¦¤à¦¾":8425,"Ġà¦¯à§ĭà¦Ĺà¦¦à¦¾à¦¨":8426,"Ġà¦Ĺà¦Ļà§įà¦Ĺ":8427,"à¦®à¦¤à§ĭ":8428,"Ġà¦ħà¦¨à§ģà¦·":8429,"Ġà¦¨à¦¿à¦¤à§įà¦¯":8430,"Ġà¦¨à¦®à§įà¦¬à¦°à§ĩ":8431,"à¦¨à¦¾à¦°à¦¿":8432,"à¦£à§įà¦¯":8433,"Ġà¦¬à¦¿à¦·à¦¯à¦¼à§ĩà¦°":8434,"Ġà¦īà¦¨à¦¾à¦°":8435,"ole":8436,"à¦ķà§ĩà¦Ł":8437,"Ġà¦ļà¦¾à¦²à¦¾à¦¨à§ĭà¦°":8438,"Ġà¦¹à¦¬à¦¿à¦Ĺà¦ŀà§įà¦ľ":8439,"Ġà¦¸à§įà¦¬à¦¾à¦Ĺ":8440,"ĠÂ©":8441,"Ġà¦ĵà¦¯à¦¼à¦¾à¦ľ":8442,"ept":8443,"Ġà¦Ńà¦¿à¦¸à¦¾":8444,"à§ĩà¦¶à":8445,"à§ĩà¦¶à¦":8446,"à§ĩà¦¶à¦¾":8447,"à¦¨à¦ķ":8448,"Ġà¦¬à¦¿à¦®à¦¾à¦¨à¦¬à¦¨à§įà¦¦à¦°":8449,"Ġà¦¬à¦¾à¦ª":8450,"Ġà¦ªà§ĩà¦Łà§įà¦°":8451,"Ġà¦Ĩà¦¬à§įà¦¦à§ģà¦²à§įà¦²à¦¾à¦¹":8452,"Ġà¦¨à¦¥":8453,"Ġà¦ªà¦¾à¦ķà¦¿à¦¸à§įà¦¤à¦¾à¦¨à¦¿":8454,"à¦¯à¦¦à¦¿à¦ĵ":8455,"Ġà¦®à¦ŀà§įà¦ľà§ģà¦°":8456,"Ġà¦¸à¦Ńà¦¾à¦°":8457,"Ġà¦Ĩà¦Ļà§įà¦Ĺ":8458,"Ġà¦®à¦¾à¦°à¦§à¦°":8459,"Ġà¦ħà¦¬à¦¸à§įà¦¥à¦¾à¦¨à§ĩ":8460,"Ġà¦¡à§ĩà¦²":8461,"à¦ªà§įà¦°à¦¾à¦¯à¦¼":8462,"Ġà¦ħà¦ļ":8463,"à¦¸à§įà¦¤à¦¿":8464,"Ġà¦°à¦¬à¦¿":8465,"ÙİÙħ":8466,"Ġà¦ªà¦°à¦¾à¦ľà¦¿à¦¤":8467,"ĠApr":8468,"-à§¨à§¦à§§à§®":8469,"Ġà¦ĺà¦¨à¦¿à¦·à§įà¦ł":8470,"à¦¬à§įà¦²à¦¿à¦ī":8471,"Ġà¦Ĩà¦«à§įà¦°à¦¿à¦ķà¦¾":8472,"Ġà¦¹à":8473,"à§ĭà¦¬à§ĩà¦²":8474,"Ġà¦¹à¦":8475,"ork":8476,"Ġà¦ªà¦°à¦¿à¦®à¦¾à¦£à§ĩ":8477,"Ġà¦¹à¦¾":8478,"à¦¦à¦¿à¦°":8479,"à¦®à¦§à§įà¦¯":8480,"Ġà¦ķà¦¿à¦Ľà§ģà¦ķà§įà¦·à¦£":8481,"Ġà¦®à¦¾à¦ķà§ĩ":8482,"Ġà¦ıà¦®à¦¨à¦ĩ":8483,"Ġà¦ªà¦¿à¦°":8484,"Ġà¦ªà§įà¦°à¦¦à¦°à§įà¦¶à¦¨à§Ģ":8485,"Ġà¦īà¦ģà¦ļà§ģ":8486,"à¦¹à¦¤à§įà¦¯à¦¾à¦°":8487,"à¦Ľà¦¡à¦¼à¦¿":8488,"Ġà¦ħà¦Ńà¦¿à¦·à§ĩà¦ķ":8489,"Ġà¦¤à¦¾à¦¹à¦¾à¦°":8490,"han":8491,"Ġà¦ĩà¦¬à§įà¦°":8492,"Ġà¦ķà¦¯à¦¼à§ĩà¦ķà¦¦à¦¿à¦¨":8493,"2018":8494,"à¦¸à¦¨à§ĩà¦°":8495,"Ġà¦ľà§ģà¦²":8496,"Ġà¦¹à§ĩà¦«à¦¾à¦ľ":8497,"Ġà¦®à§ĩà¦ľà¦°":8498,"Ġ21":8499,"Ġà¦¸à¦¾à¦°à§įà¦ļ":8500,"Ġà¦®à¦²":8501,"Ġà¦ªà¦°à¦°à¦¾à¦·à§įà¦Łà§įà¦°à¦®à¦¨à§įà¦¤à§įà¦°à§Ģ":8502,"Ġà¦ķà¦¨à¦Ł":8503,"Ġà¦®à¦¾à¦¹à¦«à¦¿à¦²":8504,"Ġà¦ªà§įà¦°à§ĩà¦®à¦¿à¦ķ":8505,"Ġà¦®à¦¿à¦¶à¦¿à¦¯à¦¼à§ĩ":8506,"à¦¾à¦ĩà¦«":8507,"à§Ģà¦ķà¦°à¦£":8508,"Ġà¦ªà§ĩà¦¤":8509,"Ġà¦¸à§ĩà¦ĸà¦¾à¦¨à§ĩà¦ĩ":8510,"à¦¤à¦¾à¦®à§Ĥà¦²à¦ķ":8511,"Ġà¦¤à¦¾à¦²à¦¿à¦ķà¦¾à¦Ńà§ģà¦ķà§įà¦¤":8512,"Ġà¦¸à¦¾à¦¹à¦¾à¦¯à§įà¦¯à§ĩ":8513,"Ġà¦ķà§įà¦¯à¦¾à¦¨à§įà¦¸à¦¾à¦°":8514,"Ġà¦¦à§ĩà¦ĸà¦¾à¦¤à§ĩ":8515,"Ġà¦Ĺà§ģà¦²à¦¿à¦¤à§ĩ":8516,"Ġà¦ªà¦Ľà¦¨à§įà¦¦à§ĩà¦°":8517,"Ġà¦ıà¦ķà¦¥à¦¾":8518,"Ġ$(":8519,"Ġà¦¬à§ĭà¦²à¦¾à¦°":8520,"Ġà¦ħà¦§à§įà¦¯à¦¾à¦¯à¦¼":8521,"Ġà¦°à¦®à¦ľà¦¾à¦¨":8522,"Ġà¦ĩà¦īà¦°à§ĭà¦ªà§Ģà¦¯à¦¼":8523,"Ġà¦ħà¦¸à¦®à§įà¦Ńà¦¬":8524,"à¦¬à§ĩà¦ĩ":8525,"Ġà¦«à§įà¦²à§įà¦¯à¦¾à¦Ł":8526,"à¦¾à¦¤à¦¾à¦¡à¦¼à¦¿":8527,"Ġà¦ªà¦°à§įà¦¯à¦Ł":8528,"à¦¬à¦¾à¦¬à§ģ":8529,"Ġà¦¤à¦¦à¦¨à§įà¦¤à§ĩà¦°":8530,"ideo":8531,"Ġà¦¬à¦¨à§įà¦§à§ģà¦¦à§ĩà¦°":8532,"Ġà¦¸à¦¿à¦Ńà¦¿à¦²":8533,"Ġà¦ľà¦¯à¦¼à¦¨":8534,"Ġex":8535,"Ġsex":8536,"Ġà¦®à§ĩà¦²à¦¾à¦¯à¦¼":8537,"Ġà¦¯à§ĩà¦ķà§ĭà¦¨":8538,"Ġà¦¸à§İ":8539,"Ġà¦Ĩà¦ĵà¦¯à¦¼à¦¾à¦®à§Ģà¦²à§Ģà¦Ĺ":8540,"Ġà¦¸à§ģà¦¨à§įà¦¨":8541,"Ġà¦ķà¦Ł":8542,"Ġ30":8543,"Ġà¦¬à¦¿à¦¦à§įà¦¯à¦®à¦¾à¦¨":8544,"ĠDaily":8545,"Ġà¦ĵà¦ªà§ĩà¦¨":8546,"Ġà¦ıà¦ķà§ĩà¦¬à¦¾à¦°à§ĩà¦ĩ":8547,"Ġhave":8548,"pl":8549,"Ġà¦®à§ĥà¦¤à§įà¦¯à§ģà¦¦à¦£à§įà¦¡":8550,"Ġà¦ĩà¦¨à¦ļà¦¾à¦°à§įà¦ľ":8551,"ĠDec":8552,"à¦¾à¦ªà¦¿à¦¤":8553,"Ġà¦®à§įà¦¯à¦¾à¦ķ":8554,"à¦¯à¦¼à§Ģ":8555,"à§įà¦¡à¦¿à¦Ĥ":8556,"Ġà¦ķà¦®à¦¾à¦¤à§ĩ":8557,"Ġà¦ıà¦ķà¦¦à¦²":8558,"Ġà¦¬à¦°à§įà¦Ĺ":8559,"à§ĭà¦¨à§įà¦¨":8560,"Ġà¦¬à¦¾à¦ĩà¦°à§ĩà¦°":8561,"Ġà¦ªà¦°à¦¿à¦ļà¦¾à¦²à¦¨à¦¾à¦¯à¦¼":8562,"Ġà¦¬à§įà¦¯à¦¬à¦¸à¦¾à¦¯à¦¼à§Ģà¦°à¦¾":8563,"Ġà¦§à¦¾à¦°à¦¾à¦¯à¦¼":8564,"à¦¾à¦Ĺà§ģà¦²à¦¿":8565,"à¦¸à¦Ļà§įà¦Ĺà¦¤":8566,"à¦Ĥà¦ķà¦°":8567,"Ġà¦°à¦¾à¦ľà¦¶à¦¾à¦¹":8568,"Ġà¦ķà§ĭà¦°à¦¿à¦¯à¦¼à¦¾à¦°":8569,"ance":8570,"Ġà¦®à¦¾à¦¥à¦¾à¦°":8571,"Ġà¦¶à¦¿à¦ķà§įà¦·à¦¾à¦°à§įà¦¥à§Ģà¦°":8572,"à¦¨à¦¿à¦¬":8573,"ĠViews":8574,"à¦¿à¦°à¦¹à¦¾à¦Ł":8575,"Ġà¦Ńà¦¿à¦¤à¦°":8576,"Ġà¦ķà§°à¦¿":8577,"à¦¾à¦ķà§Ģ":8578,"af":8579,"Ġà¦®à§ģà¦ĸà¦ªà¦¾à¦¤à§įà¦°":8580,"Ġà¦¶à¦¾à¦¸à¦ķ":8581,"Ġà¦ļà§ĩà¦ªà§ĩ":8582,"Ġà¦ľà¦¿à¦ľà§įà¦ŀà¦¾à¦¸à¦¾à¦¬à¦¾à¦¦":8583,"Ġà¦ħà§įà¦¯à¦¾à¦ªà§įà¦²":8584,"à§įà¦¯à¦¾à¦ªà¦Łà¦ª":8585,"Ġà¦¹à§įà¦°à¦¾à¦¸":8586,"Ġà¦ľà¦¿à¦¹":8587,"able":8588,"à¦¥à§ģà¦¨":8589,"Ġà¦ħà¦Ńà¦¾à¦¬à§ĩ":8590,"Ġà¦ĵà¦łà¦¾à¦°":8591,"Ġà¦ħà¦¨à¦¨à§įà¦¯":8592,"Ġà¦ķà¦ĸà¦¨à§ĭà¦ĩ":8593,"Ġà¦ķà§ģà¦·à§įà¦Ł":8594,"à§ĩà¦®à§įà¦¬à¦°à§ĩà¦°":8595,"à¦Łà¦¾à¦ĵ":8596,"Ġà¦®à¦¾à¦¨à§įà¦¨à¦¾à¦¨":8597,"ĠAn":8598,"Ġà¦¤à¦¾à¦°à¦ĩ":8599,"Ġà¦ľà¦¨à¦¤à¦¾":8600,"Ġà¦°à¦¾à¦¶à§ĩà¦¦":8601,"Ġà¦ķà¦°à¦Ľà¦¿à¦²à§ĩà¦¨":8602,"à¦¸à¦¾à¦¯à¦¼":8603,"Ġà¦Ĺà§ĭà¦²à§įà¦¡":8604,"Ġà¦ħà¦ªà¦¹à¦°à¦£":8605,"à¦¿à¦ľà¦®":8606,"à¦¦à¦¿à¦¬":8607,"Ġà¦¬à¦¨à§įà¦§à§ĩà¦°":8608,"Ġà¦¨à§Ĥ":8609,"Ġà¦¸à¦¿à¦°à¦¿à¦ľà§ĩ":8610,"45":8611,"à¦¨à¦¾à¦°à¦¾à¦¯à¦¼à¦£":8612,"Ġà¦¹à¦¸à§įà¦¤à¦ķà§įà¦·à§ĩà¦ª":8613,"à¦¤à¦ĸà¦¨":8614,"à¦¾à¦®à¦¾à¦¯à¦¼":8615,"Ġà¦¶à¦¤à¦¾à¦¬à§įà¦¦":8616,"Ġà¦¬à¦¿à¦¡à¦¼":8617,"à§ĩà¦ĸà":8618,"à§ĩà¦ĸà¦":8619,"à§ĩà¦ĸà¦¾":8620,"Ġà¦ħà¦Ńà§įà¦¯à¦¨à§įà¦¤à¦°à§Ģà¦£":8621,"Ġà¦ĩà¦īà¦¨à¦¿à¦Ńà¦¾à¦°à§įà¦¸à¦¿à¦Łà¦¿":8622,"à¦Ļà§įà¦Ĺà¦¿":8623,"à¦ķà¦°à§ĭà¦¨à¦¾":8624,"à¦¿à¦¬à¦¾à¦¦":8625,"Ġà¦¸à§įà¦ªà¦°à§įà¦¶":8626,"à¦¬à¦¿à¦¶à§įà¦¬à¦ķà¦¾à¦ª":8627,"à§§à§§à§":8628,"Ġà¦¡à¦¿à¦«":8629,"Ġà¦¶à¦¿à¦ķà§įà¦·à¦ķà§ĩà¦°":8630,"Ġà¦Īà¦¦à§ģà¦²":8631,"Ġà¦§à¦°à§ĩà¦¨":8632,"Ġà¦ªà¦¾à¦²à§įà¦Łà¦¾":8633,"Ġà¦ªà§įà¦°à§ĩà¦¸à¦ķà§įà¦²à¦¾à¦¬à§ĩà¦°":8634,"Ġà¦ĸà¦¬à¦°à§ĩ":8635,"Ġà¦°à§ģà¦¬à§ĩà¦²":8636,"Ġà¦ªà¦¦à¦ķ":8637,"ïº":8638,"Ġà¦ªà§įà¦¯à¦¾à¦¨à§ĩà¦²":8639,"à¦¿à¦«à":8640,"à¦¿à¦«à¦":8641,"Ġà¦Ńà§įà¦°":8642,"à¦¿à¦«à¦¾":8643,"à§ģà¦¸à¦°":8644,"Ġ22":8645,"Ġà¦¸à¦Ĥà¦ķà§įà¦·à¦¿à¦ªà§įà¦¤":8646,"Ġà¦ķà¦°à¦²à§ĩà¦ĩ":8647,"Ġà¦¸à¦¾à¦¹à":8648,"Ġà¦¸à¦¾à¦¹à¦":8649,"Ġà¦¸à¦¾à¦¹à¦¾":8650,"à¦¾à¦ķà¦¾à¦²à§Ģà¦¨":8651,"Ġà¦¯à¦¾à¦¤à¦¾à¦¯à¦¼":8652,"99":8653,"Ġà¦ľà¦Ĺà¦¤":8654,"à¦¸à¦Ńà¦¾à¦°":8655,"Ġà¦Ĩà¦ªà¦¾à¦¤à¦¤":8656,"Ġà¦«à¦¾à¦¤":8657,"Ġà¦ħà¦¤à¦¿à¦ķà§įà¦°à¦®":8658,"Ġà¦ħà¦¨à§įà¦§à¦ķà¦¾à¦°":8659,"à¦¿à¦īà¦¶à¦¨":8660,"Ġà¦ķà¦°à§ĩà¦Ľà¦¿à¦²à¦¾à¦®":8661,"à¦¤à¦ĥà¦ªà¦°":8662,"Ġà¦®à¦¨à§įà¦¤à§įà¦°à¦¿à¦¸":8663,"Ġà¦Ĩà¦¸à¦°":8664,"Ġà¦¦à§ĩà¦°":8665,"Ġà¦¬à§ĩà¦ķà¦¾à¦°":8666,"à¦¾à¦Łà¦¾à¦ĩ":8667,"Ġà¦ªà§įà¦°à¦¤à¦¿à¦°à§ĭà¦§à§ĩ":8668,"à¦ªà¦ķà§įà¦·à§ĩà¦°":8669,"Ġà¦¥à§ĩà¦®à§ĩ":8670,"à¦ľà¦¿à§İ":8671,"Ġà¦Ľà¦¾à¦¡à¦¼à¦¿à¦¯à¦¼à§ĩ":8672,"\\u":8673,"ober":8674,"Ġà¦ªà§įà¦°à¦¿à¦®à¦¿à¦¯à¦¼à¦¾à¦°":8675,"Ġà¦¬à¦¾à¦°à§įà¦¤":8676,"Ġà¦Ĳà¦ķà§įà¦¯à¦¬à¦¦à§įà¦§":8677,"Ġà¦¦à¦ªà§įà¦¤à¦°":8678,"Ġà¦ıà¦ķà§įà¦¸à¦ªà§įà¦°à§ĩà¦¸":8679,"Ġà¦ķà¦°à¦ªà§ĭà¦°à§ĩà¦¶à¦¨":8680,"à¦¾à¦¶à¦ķ":8681,"ark":8682,"Ġà¦®à§ĭà¦Łà¦¾":8683,"Ġà¦ıà¦ĸà¦¨à¦ĩ":8684,"Ġà¦²à¦¡à¦¼":8685,"Ġà¦ªà¦¶à§ģ":8686,"Ġà¦Ńà§ĩà¦¬":8687,"Ġà¦Ĩà¦ķà¦¾à¦°à§ĩ":8688,"Ġà§ªà§ª":8689,"Ġà¦¨à¦¿à¦¨à§įà¦¦à¦¾":8690,"Ġà¦¸à¦ĩ":8691,"Ġà¦®à§ĭà¦¤à¦¾à¦¯à¦¼":8692,"ĠQ":8693,"Ġà¦ļà¦¾à¦ļ":8694,"à¦¬à§įà¦¯à§ģà¦¨":8695,"Ġà¦²à§ĭà¦Ń":8696,"à¦ĺà¦°à§ĩ":8697,"Ġà¦¨à§Ģà¦¤à¦¿à¦®à¦¾à¦²à¦¾":8698,"ÙĲÙĨ":8699,"Ġà¦®à§ģà¦ł":8700,"Ġà¦Ĩà¦ķà§įà¦°à¦®":8701,"à¦¾à§°à§ĩ":8702,"Ġà¦ļà¦²à¦¾":8703,"à¦¬à¦¿à¦¨à§ĭà¦¦à¦¨":8704,"Ġà¦¸à§įà¦¤à§įà¦°à§Ģà¦ķà§ĩ":8705,"àµ":8706,"Ġà¦Ĺà¦¨à§įà¦§":8707,"Ġà¦¸à¦¬à¦ľà¦¿":8708,"à§ĩà¦¬à¦¾à¦°":8709,"à¦¿à¦°à§įà¦¦à¦¿à¦·à§įà¦Ł":8710,"Ġà¦Ĩà¦¸à§įà¦¥à¦¾":8711,"Ġà¦ķà§ĭà¦°à§įà¦Łà§ĩà¦°":8712,"Ġà¦Ńà§Ĥà¦®à¦¿à¦ķà¦®à§įà¦ª":8713,"Ġà¦¬à¦¿à¦°à¦¤":8714,"Ġà¦ªà§įà¦°à¦¾à¦£à§Ģ":8715,"irl":8716,"Ġà¦Ĩà¦¬à¦¦à§ģà¦²à§įà¦²à¦¾à¦¹":8717,"Ġà¦¸à":8718,"à¦¿à¦¹à¦¿à¦¤":8719,"Ġà¦Ĺà§ģà¦²à¦¿à¦¬":8720,"Ġà¦¡à§ģà¦¬":8721,"Ġcomment":8722,"Ġà¦ªà§įà¦°à¦¶à¦¾à¦¸à¦¨à¦¿à¦ķ":8723,"Ġà¦¬à§įà¦°à¦¾à¦¹à§įà¦®à¦£à¦¬à¦¾à¦¡à¦¼":8724,"Ġà¦ªà§įà¦°à¦ľà¦¨à§įà¦®à§ĩà¦°":8725,"Ġà¦°à¦¾à¦ĸà¦¬à§ĩ":8726,"Ġà¦¹à¦¾à¦¦à§Ģà¦¸":8727,"Ġà¦ĸà§įà¦°à¦¿à¦·à§įà¦Ł":8728,"Ġà¦¸à¦Ĥà¦¬à¦¿à¦§à¦¾à¦¨":8729,"hriTime":8730,"Ġà¦ħà¦¨à§įà¦¯à§ĩà¦°":8731,"Ġà¦ªà§ģà¦°à¦¾à¦¤à¦¨":8732,"Ġà¦¬à¦¯à¦¼à§ĩ":8733,"Ġà¦ªà¦°à§įà¦¨":8734,"Ġà¦ªà§įà¦²à¦¾à¦¸à§įà¦Ł":8735,"à¦ľà¦¨à§įà¦®":8736,"Ġà¦®à§ģà¦²":8737,"Ġà¦ħà¦¨à§ģà¦ķ":8738,"Ġà¦¬à¦¿à¦®à¦¾à¦¨à¦¬à¦¨à§įà¦¦à¦°à§ĩ":8739,"Ġà¦¸à¦":8740,"Ġà¦¶à§ģà¦²à§įà¦ķ":8741,"48":8742,"Ġà¦¸à¦¾":8743,"Ġà¦¹à§ģ":8744,"Ġà¦ħà¦Ĺà§įà¦¨à¦¿à¦ķ":8745,"Ġà¦ļà¦¾à¦²à¦¾à¦¤à§ĩ":8746,"Ġà¦ĸà¦¾à¦Ĺà¦¡à¦¼à¦¾à¦Ľ":8747,"Ġà¦Ńà¦°à§ĩ":8748,"Ġà¦¤à§Īà¦°":8749,"à§ĭà¦¦à¦¿à¦¤":8750,"à¦°à¦¾à¦ľà§įà¦¯à§ĩà¦°":8751,"Ġà¦Ĺà§ģà¦ªà§įà¦¤":8752,"Ġà¦¬à§įà¦¯à¦¾à¦¨":8753,"Ġà¦ıà¦¸à§ĩà¦Ľà¦¿":8754,"Ġà¦°à§ĭà¦Ĺà§Ģà¦¦à§ĩà¦°":8755,"Ġà¦ªà¦¦à§įà¦®à¦¾":8756,"à¦Ńà¦¬à¦¨à§ĩ":8757,"à¦Łà¦¿à¦ĩ":8758,"à¦¸à§ĩà¦°à¦¾":8759,"Ġà¦ĸà§ģà¦ģ":8760,"Ġà¦¬à¦¾à¦ļà§įà¦ļà":8761,"Ġà¦¬à¦¾à¦ļà§įà¦ļà¦":8762,"Ġà¦¬à¦¾à¦ļà§įà¦ļà¦¾":8763,"Ġà¦¦à¦²à¦Łà¦¿à¦°":8764,"35":8765,"Ġà¦¸à§ĭà¦®":8766,"uy":8767,"à¦ıà¦ķà¦Łà¦¾":8768,"Ġà¦²à¦Ļà§įà¦ĺ":8769,"Ġà¦¬à¦²à§ĩà¦Ľà¦¿":8770,"à¦ķà¦²à§ĩ":8771,"à¦¾à¦¹à¦¿à¦®":8772,"Ġà¦¹à§ĩà¦¨":8773,"à§ģà¦ķà§ĩà¦°":8774,"à¦¿à¦ľà§ĩà¦¨":8775,"-à§§à§¦":8776,"Ġà¦ħà¦¬à¦¸":8777,"Ġà§©à§¯":8778,"Ġà¦¡à¦¿à¦Ńà¦¾à¦ĩà¦¸":8779,"Ġà¦²à¦¬à¦£":8780,"Ġà¦ħà¦¨à§ģà¦¦":8781,"Ġà¦¦à§ĩà¦¶à§Ģà¦¯à¦¼":8782,"à¦ķà§ģà¦®à¦¿à¦²à§įà¦²":8783,"à¦¬à¦¿à¦ľà§įà¦ŀ":8784,"Ġà¦®à§ģà¦Ľà§ĩ":8785,"Ġà¦ªà¦°à¦¿à¦¬à¦¾à¦°à¦ķà§ĩ":8786,"Ġà¦ĸà¦¾à¦¨à¦¿à¦ķ":8787,"Ġà¦Ĩà¦«à§įà¦°à¦¿à¦ķà¦¾à¦°":8788,"Ġà¦¨à§ĩà¦¤à¦¾à¦ķà¦°à§įà¦®à§Ģà¦°à¦¾":8789,"à¦¡à¦¿à¦¸à§ĩà¦®à§įà¦¬à¦°":8790,"à¦Ĩà¦°à§ĭ":8791,"Ġà¦¸à¦Ĥà¦¯":8792,"à§ĭà¦ľà¦¿à¦¤":8793,"Ġà¦¸à¦¾à¦°à¦¾à¦¦à§ĩà¦¶à§ĩ":8794,"à¦¤à§įà¦¤à":8795,"à¦¤à§įà¦¤à¦":8796,"à¦¤à§įà¦¤à¦¾":8797,"@g":8798,"/w":8799,"Ġà¦Ńà§Ģà¦·à¦£":8800,"Ġà¦ªà¦¾à¦°à¦«à¦°à¦®":8801,"Ġà¦Ńà§ĭà¦Łà§ĩ":8802,"Ġà¦®à§ĥà¦¤à§įà¦¯à§ģà¦¤à§ĩ":8803,"Ġà¦¸à¦¾à¦¹à¦¿à¦¤":8804,"à¦²à¦¸":8805,"à¦¹à¦¾à¦®":8806,"Ġà¦ķà¦¥à¦¾à¦ĵ":8807,"ÙİØ¨":8808,"Ġà¦¨à¦¿à¦¯à§ģà¦ķà§įà¦¤":8809,"à¦¬à¦¾à¦²":8810,"Ġà¦ķà¦¿à¦¡":8811,"Ġà¦¤à¦²à§įà¦²":8812,"Ġà¦ıà¦ķà¦¾à¦¨à§įà¦¤":8813,"Ġà¦ħà¦¨à§ĩà¦ķà¦Łà¦¾à¦ĩ":8814,"Ġà¦§à¦°à¦¾à¦°":8815,"Ġà§«à§«":8816,"Ġà¦ıà¦¸à§ĩà¦Ľà¦¿à¦²":8817,"Ġà¦¨à¦¿à¦īà¦ĩà¦¯à¦¼à¦°à§įà¦ķ":8818,"à¦ªà¦¿à¦ĵ":8819,"à§ĩà¦ĩà¦¸à¦¬":8820,"à¦ıà¦¨à¦ĵ":8821,"Ġà¦ªà§įà¦°à¦¬à§ĥà¦¦à§įà¦§":8822,"à¦ļà¦¾à¦ģà¦¦":8823,"à§ĩà¦¨à§įà¦¸à§ĩà¦°":8824,"ĠÙĤ":8825,"Ġà¦¦à¦¿à¦¯à¦¼à¦¾":8826,"Ġà¦¬à¦¸à§ģà¦¨à§įà¦§":8827,"Ġà¦¨à¦¿à¦²à§ĩ":8828,"à¦Ńà§Ģà¦°":8829,"à¦¨à¦¾à¦°à§Ģ":8830,"Ġà¦Łà¦¾à¦ĵà¦¯à¦¼à¦¾à¦°":8831,"Ġà¦®à§ĩà¦ķ":8832,"à¦ıà¦ªà§įà¦°à¦¿à¦²":8833,"Ġà¦¤à¦¾à¦°à¦ªà¦°à¦ĵ":8834,"Ð¾":8835,"Ùī":8836,"à¦¿à¦¶à¦¨à§ĩà¦°":8837,"à§įà¦¯à§ģà¦°":8838,"ther":8839,"Ġà¦¶à§įà¦°à¦¦à§įà¦§":8840,"Ġà¦ĸà§ĭà¦²":8841,"Ġà¦ªà§įà¦°à¦¤à¦¿à¦·à§įà¦łà¦¾à¦°":8842,"ĠBD":8843,"ge":8844,"à¦Łà¦¿à¦ĵ":8845,"à¦¸à§ģà¦«":8846,"Ġà¦ķà¦¥à¦¾à¦ĩ":8847,"Ġà¦ªà¦¾à¦¡à¦¼à¦¾":8848,"à¦¹à¦¾à¦¦":8849,"Ġà¦¸à§ĩà¦ķà§įà¦¸à¦¿":8850,"Ġà¦¬à¦¿à¦²à¦¿à¦¯à¦¼à¦¨":8851,"Ġà¦§à¦¾à¦ª":8852,"Ġà¦²à§ĩà¦Ĺà§ĩà¦Ľà§ĩ":8853,"Ġà¦ıà¦ķà¦¤à§įà¦°":8854,"Ġà¦¬à¦¿à¦¬à§ĩà¦ļà¦¨à¦¾à¦¯à¦¼":8855,"à¦¿à¦¸à§ĩ":8856,"Ġà¦ķà¦°à§ĭà¦¨à¦¾à¦°":8857,"à¦ľà§ģà¦¨":8858,"Ġà¦¬à§ĩà¦Ļà§įà¦Ĺ":8859,"Ġà¦ķà§įà¦¯à¦¾à¦¡":8860,"Ġà¦ħà¦ªà§ĩà¦¶à¦¾à¦¦à¦¾à¦°":8861,"Ġà¦¸à¦¿à¦¡":8862,"Ġà¦ĵà¦¯à¦¼à¦¾à¦¸à¦¾à¦²à§įà¦²à¦¾à¦®":8863,"Ġà¦¯à¦¼":8864,"Ġà¦¬à§įà¦¯à¦¾à¦Ļà§įà¦ķ":8865,"Ġà¦¸à¦®à¦¯à¦¼à¦ĩ":8866,"uk":8867,"à¦ªà§įà¦°à¦¤à¦¿":8868,"ĠUn":8869,"Ġà¦¬à¦¯à¦¼à¦¸à§ĩà¦°":8870,"AN":8871,"Ġà¦ľà¦ľ":8872,"Ġà¦Ńà§ģà¦Ł":8873,"à§ĭà¦¨à¦¾à¦²à¦¦":8874,"uary":8875,"@gmail":8876,"Ġà¦°à§ĩà¦ľà":8877,"Ġà¦°à§ĩà¦ľà¦":8878,"Ġà¦°à§ĩà¦ľà¦¾":8879,"Ġà¦ľà¦¾à¦¨à¦¾à¦ĩ":8880,"Ġà¦ĩà¦¨à§įà¦¡à¦¾à¦¸à§įà¦Łà§įà¦°":8881,"Ġà¦¶à¦°à¦¿à¦«":8882,"à¦¾à¦ĩà¦°":8883,"Ġà¦īà§İà¦¸à¦¬à§ĩà¦°":8884,"aler":8885,"Ġà¦ľà¦®à§ĩ":8886,"Ġà¦¤à§ĥà¦£à¦®à§Ĥà¦²à§ĩà¦°":8887,"Ġà¦Ĩà¦ªà¦¤à§įà¦¤à¦¿":8888,"à¦«à§ĩà¦¬à§įà¦°":8889,"à¦¤à¦¿à¦·à§įà¦ł":8890,"Ġà¦¯à§ģà¦ķà§įà¦¤à¦°à¦¾à¦·à§įà¦Łà§įà¦°à§ĩ":8891,"Ġà¦ķà¦¾à¦ľà¦Łà¦¿":8892,"Ġà¦¸à¦¨à§įà¦¤à§ģà¦·à§įà¦Ł":8893,"à¦¿à¦Ĺà¦Ĺà¦¿à¦°":8894,"Ãł":8895,"In":8896,"Ġà¦ªà§įà¦°à§ĭà¦Ł":8897,"Ġà¦Ĺà§įà¦°à¦¹à¦¨":8898,"Ġà¦¨à§ĥ":8899,"By":8900,"ĠArch":8901,"Ġà¦Ĩà¦¬à¦¦à§ģà¦°":8902,"à¦¬à¦¾à¦¯à¦¼à§ģ":8903,"ect":8904,"inut":8905,"à¦¸à¦²à¦¿à¦®":8906,"à¦ĸà¦¾à¦¸à§įà¦¤":8907,"Ġà¦¨à¦¨à§įà¦¦":8908,"Ġà¦ĩà¦¨à¦¿à¦Ĥà¦¸à§ĩ":8909,"Ġà¦®à¦£":8910,"à¦ªà¦¤":8911,"Ġà¦ļà¦ķ":8912,"Ġà¦ļà¦¾à¦²à¦¾à¦¨":8913,"à¦¾à¦ªà¦°à¦¾à¦§":8914,"à¦Ľà§ĭà¦Ł":8915,"Ġà¦¸à¦¹à¦¾à¦¯à¦¼à¦ķ":8916,"à¦²à§ĩà¦®":8917,"à¦ªà§įà¦°à¦¾à¦£":8918,"à¦ķà¦°à§ĭà¦¨":8919,"Ġà¦¦à¦¿à¦¬à¦¸à§ĩ":8920,"Ġà¦Ĩà¦ķà¦°à§įà¦·à¦£à§Ģà¦¯à¦¼":8921,"Ġà¦ĩà¦Ĥà¦²à§įà¦¯à¦¾à¦¨à§įà¦¡à§ĩà¦°":8922,"à¦ªà":8923,"à¦¾à¦¸à¦¿à¦¨":8924,"Ġà¦¦à¦¾à¦°à¦¿à¦¦à§įà¦°":8925,"Ġà¦¸à¦®à¦¸à§įà¦¯à¦¾à¦¯à¦¼":8926,"Ġdo":8927,"à¦ıà¦ĸà¦¾à¦¨à§ĩ":8928,"Ġà¦Ĺà¦¬à§ĩà¦·à¦£à¦¾à¦¯à¦¼":8929,"Ġà¦īà¦¤à§įà¦¤à§ĭà¦²à¦¨":8930,"Ġà¦¸à§ĩà¦ŀà§įà¦ļà§ģà¦°à¦¿":8931,"à¦¶à¦¹":8932,"à¦¾à¦¡à¦¼à¦¾à¦¯à¦¼":8933,"à¦¥à¦¾à¦¯à¦¼":8934,"à¦ªà¦":8935,"à¦ªà¦¾":8936,"!!!!":8937,"Ġà¦ĩà¦īà¦¨à¦¿à¦Łà§ĩà¦°":8938,"à¦¾à¦ĩà¦Łà§ĩà¦¡":8939,"à§ĭà¦²à¦ľà¦¿":8940,"ĠâĢĿ":8941,"Ġà¦ıà¦¸à¦ıà¦¸à¦¸à¦¿":8942,"à¦Łà§įà¦°à¦Ĺà§įà¦°à¦¾à¦®":8943,"à¦ľà¦¾à¦²":8944,"à¦²à§ģ":8945,"Ġà¦¬à¦¨à§įà¦§à§ģà¦¤à§įà¦¬":8946,"Ġà¦¸à¦¿à¦ķà¦¿à¦īà¦°":8947,"à§įà¦¯à¦¾à¦²à¦ĺ":8948,"âĢİ":8949,"Ġà¦¹à¦¯à¦¼à§ĩà¦Ľà¦¿":8950,"Ġà¦ķà¦¾à¦«":8951,"Ġà¦¬à§įà¦¯à¦¾à¦Ĥà¦ķà¦¿à¦Ĥ":8952,"Ġà¦ĩà¦¨à§įà¦¸à¦Ł":8953,"Ġà¦ľà§įà¦¬à¦¾à¦²à¦¾à¦¨à¦¿":8954,"Ġporn":8955,"itle":8956,"per":8957,"à§įà¦°à¦¤":8958,"Ġcan":8959,"Ġà¦¦à¦¿à¦²à§įà¦²à¦¿":8960,"à¦®à¦§à§įà¦¯à§ĩ":8961,"eptember":8962,"Ġà¦Ĩà¦²à¦¹à¦¾à¦ľà§įà¦¬":8963,"à§įà¦¯à¦ķà¦°":8964,"ech":8965,"Ġà¦¸à§įà¦¯à¦¾à¦Łà§ĩà¦²":8966,"à¦¸à¦¿à¦®":8967,"Ġà¦Ĩà¦°à¦¬à§ĩà¦°":8968,"Ġà¦ķà¦ªà¦¿à¦°à¦¾à¦ĩà¦Ł":8969,"Ġà¦Łà§įà¦°à¦¾à¦ĩà¦¬à§įà¦¯à§ģà¦¨":8970,"Ġà¦ħà¦ªà¦°à¦¾à¦§à§ĩ":8971,"à¦¬à§ĩà¦²":8972,"Ġà¦ªà§ģà¦¡à¦¼à§ĩ":8973,"Ġ01":8974,"Ġà¦Ĺà¦¾à¦§à¦¾":8975,"Ġà¦ļà§ĩà¦¨":8976,"Ġà¦¬à§ĩà¦¹":8977,"à¦®à§ĭà¦ĥ":8978,"à¥¤\"":8979,"Ġà¦ļà§Ģà¦¨à¦¾":8980,"Ġà¦¦à§ĥà¦·à§įà¦Łà¦¾à¦¨à§įà¦¤":8981,"Ġà¦ļà¦¾à¦®à¦¡à¦¼à¦¾":8982,"à¦²à§ĩà¦ĸà¦ķ":8983,"Ġà¦ªà¦°à¦¿à¦¬à§ĩà¦¶à¦¨":8984,"Ġà¦ªà¦¡à¦¼à¦¾à¦¶à§ĭà¦¨à¦¾":8985,"Ġà¦ĵà¦¯à¦¼à§ĩà¦¬à¦¸à¦¾à¦ĩà¦Łà§ĩà¦°":8986,"âĢĮà§įà¦¯à¦¾à¦²":8987,"Ġà¦°à§ĩ":8988,"Ġà¦¦à¦²à¦Łà¦¿":8989,"à¦¸à§įà¦¥à¦¾à¦¯à¦¼":8990,"à¦ļà":8991,"Ġà¦īà¦ªà¦ķà§Ĥà¦²":8992,"à¦®à§Īà¦¥à§ģà¦¨":8993,"à¦ļà¦":8994,"à¦ļà¦¾":8995,"Ġà¦¨à¦¾à¦¯à¦¼à¦¿à¦ķà¦¾":8996,"Ġà¦ªà§įà¦°à¦¾à¦Ļà§įà¦Ĺ":8997,"Ġà¦¤à§įà¦¬à¦ķ":8998,"Ġà¦ĵà¦¯à¦¼à§ĩà¦¬à¦¸à¦¾à¦ĩà¦Łà§ĩ":8999,"lay":9000,"Ġà¦īà¦¤à§įà¦¤à¦°à§ĩ":9001,"à¦ıà¦ķà¦ľà¦¨":9002,"à¦¾à¦Ńà¦¾à¦¸":9003,"Ġà¦ļà¦¾à¦ĩà¦¤à§ĩ":9004,"Ġà¦¨à§ĩà¦¤à§įà¦°":9005,"à§ªà§©":9006,"Ġà¦ªà§įà¦¯":9007,"Ġà¦¸à§Ĥà¦°à¦¾":9008,"Ġà¦ħà¦ªà¦¸à¦¾à¦°à¦£":9009,"à¦¾à¦¹à§Ģà¦¨":9010,"à¦¿à¦²à¦®à§įà¦¬à§ĩ":9011,"Ġà¦ķà¦¾à¦®à¦°à§ģà¦²":9012,"Ġà¦Ĩà¦Ĺà¦·à§įà¦Ł":9013,"à¦¬à§ĩà¦²à¦¾":9014,"Ġà¦ıà¦¶à¦¿à¦¯à¦¼à¦¾à¦°":9015,"Ġà¦Ľà§ĭà¦ģ":9016,"Ġà¦¬à¦²à§ģà¦¨":9017,"Ġà¦¸à§įà¦¯à¦¾à¦Łà§ĩà¦²à¦¾à¦ĩà¦Ł":9018,"Ġà¦¨à¦¿à¦°à§įà¦®à¦¾à¦¤à¦¾":9019,"Ġà¦®à¦¾à¦¸à¦¿à¦ķ":9020,"ical":9021,"à¦¸à§įà¦ķà§įà¦°":9022,"Ġà¦īà¦¡à¦¼à¦¿à¦¯à¦¼à§ĩ":9023,"Ġà¦¨à¦¾à¦Ĺà¦¾à¦¦":9024,"à¥¤'":9025,"à¦¦à¦¿à¦¨à§ĩ":9026,"Ġà¦¸à¦¾à¦°à§įà¦Łà¦¿à¦«à¦¿à¦ķà§ĩà¦Ł":9027,"Ġà¦Ńà§ĭà¦°à§ĩ":9028,"à¦¨à¦ķà§ĩ":9029,"à¦Ĥà¦ķà¦¾à¦°":9030,"act":9031,"Ġà¦ķà§°à¦¿à¦¬":9032,"à¦¦à§Ģà¦°à§įà¦ĺ":9033,"Ġà§§à§¯à§¬":9034,"à¦ķà¦¥à¦¾":9035,"à¦ªà¦¾à¦Ł":9036,"Ġà¦¨à¦¿à¦°à§įà¦¦à§ĩà¦¶à§ĩ":9037,"Ġà¦¶à¦¤à§įà¦°à§ģ":9038,"Ġà¦ļà¦¿à¦¨à¦¿":9039,"Ġà¦¸à¦®à§įà¦ªà§įà¦°à¦¸à¦¾à¦°à¦£":9040,"Ġà¦ľà¦¹à¦¿à¦°":9041,"à¦«à¦²à§ĩ":9042,"ign":9043,"Ġà¦¬à¦¾à¦¸à§įà¦¤à¦¬à¦¾à¦¯à¦¼à¦¨à§ĩà¦°":9044,"Ġà¦¯à¦¾à¦ģà¦°à¦¾":9045,"ĠRep":9046,"à¦¸à§ĩà¦ªà§įà¦Łà§ĩà¦®à§įà¦¬à¦°":9047,"à¦¾à¦¸à¦¨à§ĩà¦°":9048,"Ġà¦Ķà¦·à¦§":9049,"Ġà¦¸à¦¾à¦ľà":9050,"Ġà¦¸à¦¾à¦ľà¦":9051,"Ġà¦¸à¦¾à¦ľà¦¾":9052,"Ġà¦¬à¦¿à¦¬à¦¿à¦¸à¦¿":9053,"à¦ħà¦ķà§įà¦Łà§ĭà¦¬à¦°":9054,"à¦¾à¦®à¦¨à¦¿":9055,"Ġà¦ķà§įà¦¯à¦¾à¦°à¦¿à¦¯à¦¼à¦¾à¦°":9056,"Ġà¦ļà¦¾à¦ķà¦®à¦¾":9057,"ĠFeb":9058,"à§ģà¦¨à¦¾à¦°":9059,"Ġà¦ķà§įà¦°à¦¿à¦ķà§ĩà¦Łà§ĩà¦°":9060,"Ġà¦²à¦¿à¦ĵ":9061,"à§ģà¦ļà¦¿":9062,"Ġà¦¬à¦¾à¦¸à§ĩ":9063,"à¦ªà¦°à§įà¦¬":9064,"Ġà¦¶à¦¿à¦°à§ĭà¦ªà¦¾":9065,"à¦ľà¦¾à¦°à§įà¦®":9066,"Ġà¦ľà§įà¦¯à¦¾à¦ķ":9067,"Ġà¦¸à¦®à§įà¦°":9068,"Ġà¦¸à¦®à§įà¦ªà¦¤à§įà¦¤à¦¿":9069,"Ġà¦ħà¦ªà§įà¦°":9070,"à¦¬à¦ĩ":9071,"Ġà¦¨à§ĩà¦¤à§ĥà¦¤à§įà¦¬à¦¾à¦§à§Ģà¦¨":9072,"à¸":9073,"à¦ľà¦¿à¦¤":9074,"Ġà¦¬à§įà¦¯à¦¬à¦¸à§įà¦¥à¦¾à¦°":9075,"Ġà¦¬à¦¾à¦ģà¦ļà¦¾à¦¤à§ĩ":9076,"à¦ħà¦¨à§ģà¦·à§įà¦łà¦¾à¦¨à§ĩ":9077,"à¦¶à§įà¦¯à¦¾à¦®à¦¾à¦Ļà§įà¦Ĺà¦¿à¦¨à§Ģ":9078,"Ġà¦ļà¦¾à¦ģà¦¦à¦ªà§ģà¦°":9079,"à§ģà¦®à¦¨à§įà¦¤à§įà¦°à§Ģ":9080,"Ġà¦¸à¦°à§įà¦¬à¦¸à§įà¦¬à¦¤à§įà¦¬":9081,"Ġà¦°à§ĭà¦Ĺà§ĩ":9082,"hak":9083,"à¦¨à¦¨à§įà¦¦":9084,"à¦®à§ģà¦ĸà§Ģ":9085,"Ġà¦¤à§ĩà¦ĵ":9086,"Ġà¦¬à¦¾à¦ģà¦§à":9087,"Ġà¦¬à¦¾à¦ģà¦§à¦":9088,"Ġà¦¬à¦¾à¦ģà¦§à¦¾":9089,"Ġà¦¸à§įà¦¯à¦¾à¦®":9090,"Ġà¦ªà¦²à§įà¦²à§Ģ":9091,"à§Ńà§§":9092,"Ġà¦¬à§ĭà¦²à¦¿à¦Ĥ":9093,"38":9094,"Ġà¦ķà¦¾à¦ľà§ĩà¦ĩ":9095,"à¦¶à¦¾à¦²à¦¾":9096,"à¦¿à¦Ĺà§įà¦°à¦¾à¦®":9097,"Ġà¦¬à¦¿à¦°à¦ķà§įà¦¤":9098,"Ġà¦ħà¦ľà¦¾à¦¨à¦¾":9099,"Ġà¦ªà¦¿à¦¤":9100,"à¦¨à¦Ńà§ĩà¦®à§įà¦¬à¦°":9101,"37":9102,"Ġà¦ħà¦Ĺà§įà¦°à¦Ĺà¦¤à¦¿":9103,"à§«à§«":9104,"Ġà¦¨à¦¾à¦®à§įà¦¬à¦¾à¦°":9105,"à¦īà¦²à§įà¦²à¦¾à¦¹":9106,"Ġà¦¨à¦¿à¦ļà§įà¦Ľà§ĩà¦¨":9107,"à¦¬à§ĭà¦°à§įà¦¡":9108,"Ġà¦ļà§ĩà¦¯à¦¼à§ĩà¦ĵ":9109,"Ġà¦¸à¦¾à¦ªà§ĭà¦°à§įà¦Ł":9110,"à¦ıà¦¬à¦Ĥ":9111,"à¦ªà§įà¦²à§ĩà¦Ł":9112,"Ġà¦Ĩà¦¹à¦®à§įà¦®":9113,"Ġà¦¸à¦¾à¦ĩà¦Łà§ĩ":9114,"à¦Ĺà¦¾à¦®à§Ģ":9115,"à¦ĩà¦¸à¦²à¦¾à¦®":9116,"à¦ªà¦¤à§įà¦°à§ĩà¦°":9117,"Ġà¦īà¦ĩà¦ķà¦¿à¦ª":9118,"-à¦¸à¦¹":9119,"à¦ĸà§ĩà¦²":9120,"Ġà¦°à§ĭà¦®à¦¾à¦¨":9121,"Ġà¦ķà§ĩà¦²":9122,"Ġà¦¸à¦®à§įà¦ªà¦¾à¦¦à¦¨à¦¾":9123,"à¦¾à¦ĩà¦¨à§ĩà¦°":9124,"Ġà¦¨à¦¾à¦®à¦¿à¦¯à¦¼à§ĩ":9125,"Ġà¦ľà¦°à§įà¦ľ":9126,"Ġà¦īà¦¦à§įà¦¦à§Ģà¦¨":9127,"à¦ªà§įà¦°à¦¤à¦¿à¦¨à¦¿à¦§":9128,"ĠPost":9129,"à¦ıà¦¸à¦®à¦¯à¦¼":9130,"Ġà¦Łà¦¾à¦°à§įà¦Ĺ":9131,"Ġà¦®à¦ŀà§įà¦ļà§ĩ":9132,"Ġà¦®à¦¾à¦¨à¦¨à§Ģà¦¯à¦¼":9133,"Ġà¦ªà§įà¦°à¦¿à¦¨à§įà¦¸":9134,"be":9135,"Ġà¦¸à§įà¦¯":9136,"Ġ2014":9137,"Ġà¦ªà¦¦à§įà¦®":9138,"Ġà¦Ĩà¦Ĺà§ģà¦¨à§ĩ":9139,"Ġà¦°à¦¿à¦ľà¦Ńà§Ģ":9140,"Ġà¦®à¦¹à¦¾à¦°":9141,"Ġà¦®à¦¸à§įà¦¤à¦¿à¦·à§įà¦ķ":9142,"à¦ªà¦®à§ĩà¦¨à§įà¦Ł":9143,"Ġà¦¸à¦Ĥà¦¬à¦°à§įà¦§à¦¨à¦¾":9144,"à§ģà¦°à§įà¦¤":9145,"Ġà¦¸à¦Ļà§įà¦Ĺà§Ģ":9146,"Ġà¦¹à¦¾à¦ĩà¦ķà§ĭà¦°à§įà¦Łà§ĩà¦°":9147,"Ġà¦ıà¦ķà¦¾à¦īà¦¨à§įà¦Ł":9148,"Ġà¦īà¦ªà¦ķà¦°à¦£":9149,"Ġà¦¡à§įà¦°à¦¾à¦ĩà¦Ń":9150,"Ġbd":9151,"Ġà¦²à§įà¦¯à¦¾à¦ªà¦Łà¦ª":9152,"à¦¦à§įà¦¬à§Ģà¦ª":9153,"Ġà¦®à¦¯à¦¼à¦¦":9154,"Ġà¦¤à¦¾à¦°à¦¾à¦ĩ":9155,"Ġà¦°à¦¿à¦Ńà¦¿à¦ī":9156,"Ġà¦²à¦¿à¦¡":9157,"Ġà¦°à¦«à¦¤":9158,"book":9159,"à¦§à¦¨":9160,"ĠAug":9161,"à¦¾à¦īà¦¥":9162,"ĠRe":9163,"Ġà¦¬à¦¾à¦¬à§ģà¦²":9164,"Ġup":9165,"Ġà¦ħà¦¨à§įà¦¤à¦°":9166,"Ġà¦²à§įà¦¯":9167,"Ġà¦¬à¦¾à¦°à§įà¦¸à§ĩà¦²":9168,"aw":9169,"Ġà¦¸à¦¾à¦ĩà¦ķà§ĩà¦²":9170,"Ġà¦ľà§ĭà¦¡à¦¼à¦¾":9171,"à§ģà§±":9172,"Ġà¦Ĩà¦ķà¦¬à¦°":9173,"Ġà¦ªà§Ĥà¦°à§įà¦£à¦¾à¦Ļà§įà¦Ĺ":9174,"à¦ľà¦¾à¦ª":9175,"Ġà¦¨à§Īà¦¤à¦¿à¦ķ":9176,"antho":9177,"Ġà¦¦à¦¿à¦²à§ĭ":9178,"Ġà¦¸à¦ļà§ĩà¦¤à¦¨à¦¤à¦¾":9179,"Ġà¦¸à¦¾à¦ķà§įà¦·à¦¾à§İà¦ķà¦¾à¦°":9180,"ĠDate":9181,"à¦¿à¦¯à¦¼à§ĩà¦Ľà¦¿":9182,"à¦Ľà¦¿à¦²à¦¾à¦®":9183,"à§ĭà¦¤à§įà¦¤":9184,"Ġà¦Łà¦¿à¦īà¦Ł":9185,"Ġà¦ªà§įà¦°à¦¤à¦¿à¦¬à¦¨à§įà¦§à§Ģ":9186,"ms":9187,"Ġà¦¯à¦¾à¦¤à§įà¦°à§Ģà¦¦à§ĩà¦°":9188,"Ġà¦Łà§įà¦°à¦¾à¦«à¦¿à¦ķ":9189,"Ġà¦¬à¦²à¦¬à§ĩ":9190,"Ġà¦¹à¦ĩà¦¯à¦¼à¦¾":9191,"Ġà¦¡à¦²à¦¾à¦°à§ĩà¦°":9192,"Ġà¦¬à§įà¦¯à¦¤à¦¿à¦ķà§įà¦°à¦®":9193,"Ġà¦¶à¦ķà§įà¦¤à¦¿à¦°":9194,"Ġà¦ļà¦²à¦¾à¦°":9195,"à¦¿à¦®à¦¤":9196,"à§ĩà¦·à§įà¦Łà¦¾à¦°":9197,"à¦ıà¦Łà¦¿":9198,"à¦ªà§įà¦°à¦¸à¦Ļà§įà¦Ĺà¦¤":9199,"Ġà¦®à§ĩà¦¯à¦¼à§ĩà¦Ł":9200,"Ġà¦ªà¦°à¦¿à¦¬à§ĩà¦¶à§ĩ":9201,"ake":9202,"Ġà¦ĺà§ĭà¦°":9203,"Ġà¦ªà¦¾à¦łà¦¾à¦¨":9204,"Ġà¦īà¦łà¦¬à§ĩ":9205,"Ġà¦Ĩà¦®à¦¾à¦¦à§ĩà¦°à¦ķà§ĩ":9206,"Ġà¦ªà§įà¦°à¦ļà¦£à§įà¦¡":9207,"Ġà¦°à¦ķà§įà¦·à¦¾à¦¯à¦¼":9208,"Ġà¦¨à¦¾à¦ĵ":9209,"à§©à§§":9210,"à§ĭà¦¦à":9211,"à§ĭà¦¦à¦":9212,"à§ĭà¦¦à¦¾":9213,"Ġà¦¬à¦¿à¦ľà§įà¦ŀà¦ªà§įà¦¤à¦¿à¦¤à§ĩ":9214,"Ġà¦ļà§ģà¦²à§ĩà¦°":9215,"ĠAm":9216,"Ġà¦Ńà¦¾à¦Ļà§įà¦Ĺ":9217,"Ġà¦¬à§įà¦°à§ĩà¦ķ":9218,"Ġà¦Łà¦¾à¦Ļà§įà¦Ĺà¦¾à¦ĩà¦²":9219,"Ġà¦¬à§Ģ":9220,"Ġà¦¸à§ĩà¦ķà§įà¦°à§ĩà¦Ł":9221,"à¦¾à¦ŀà§įà¦ļà¦²à§ĩà¦°":9222,"à§ģà¦¯à¦¼à§ĩà¦¨à§įà¦Ł":9223,"à§įà¦¯à¦¾à¦ķà§įà¦Ł":9224,"à¦ıà¦¸à¦Ĩà¦ĩ":9225,"à§©à§¯":9226,"Ġà¦¸à¦¾à¦¤à¦ķà§įà¦·à§Ģà¦°à¦¾":9227,"Ġà¦¬à§įà¦¯à¦¬à¦¸à§įà¦¥à¦¾à¦ª":9228,"à§ĩà¦ĩà¦ľ":9229,"Ġà¦īà¦ĩà¦²":9230,"à¦¾à¦¸à§Ģà¦°":9231,"à§ĩà¦¨à§įà¦Łà¦¸":9232,"Ġà¦¬à§ĩà¦¤":9233,"à¦®à§Į":9234,"Ġà¦Ĺà§įà¦°à¦¾à¦¹à¦ķà¦¦à§ĩà¦°":9235,"Ġà¦ħà¦·à§įà¦Ł":9236,"Ġà§Ńà§«":9237,"Ġà¦ıà¦ķà¦°":9238,"Ġà¦ªà¦¾à¦°à¦¿à¦¨à¦¿":9239,"Ġso":9240,"40":9241,"Ġà¦¬à¦¾à¦£à§Ģ":9242,"Ġà¦®à¦¿à¦°à¦ªà§ģà¦°":9243,"yl":9244,"Ġà¦¬à¦Ł":9245,"Ġà¦ļà¦¿à§İà¦ķà¦¾à¦°":9246,"à¦¤à§ģà¦°":9247,"Ġà¦ıà¦ķà¦ľà¦¨à§ĩà¦°":9248,"à¦ķà§įà¦°à¦®à§ĩ":9249,"Ġà¦®à§ģà¦Ĺà§įà¦§":9250,"à¦¤à§įà¦¤à§ĩà¦«":9251,"Ġà¦¨à¦¾à¦ĩà¦Ł":9252,"Ġà¦īà¦ªà¦¾à¦°à§įà¦ľ":9253,"Ġà¦¦à¦¿à¦¨à¦¬à§įà¦¯à¦¾à¦ªà§Ģ":9254,"Ġà¦ķà§įà¦°à¦¿à¦¸":9255,"Ġà¦¯à¦¾à¦¬à¦¤à§Ģà¦¯à¦¼":9256,"Ġà¦°à¦ķà§įà¦·à¦£":9257,"Ġà¦®à§ĭà¦²à§įà¦²à":9258,"Ġà¦®à§ĭà¦²à§įà¦²à¦":9259,"Ġà¦®à§ĭà¦²à§įà¦²à¦¾":9260,"?âĢĿ":9261,"Ġà¦¬à¦¿à¦°à¦¾à¦ľ":9262,"Ġà¦²à§ģà¦ķà¦¿à¦¯à¦¼à§ĩ":9263,"à¦¾à¦°à§įà¦Ń":9264,"ÙİØ±":9265,"à¦ķà§įà¦¤à¦¿à¦ķ":9266,"39":9267,"Ġà¦®à¦¿à¦ł":9268,"à¦¤à¦¿à¦ķà¦°":9269,"Ġà¦¸à§įà¦¬à¦ªà§įà¦¨à§ĩà¦°":9270,"Ġà¦²à¦¾à¦Ĺà¦²à§ĭ":9271,"Ġà¦«à¦¾à¦²":9272,"Ġà¦ķà¦°à§įà¦ªà§ĭà¦°à§ĩà¦¶à¦¨":9273,"à¦¸à§ģà¦¨à§įà¦¦à¦°":9274,"Ġà¦ĵà¦¯à¦¼à¦¾à¦°à§įà¦ķ":9275,"Ġà¦ķà¦¾à¦ģà¦ļà":9276,"Ġà¦ķà¦¾à¦ģà¦ļà¦":9277,"Ġà¦ķà¦¾à¦ģà¦ļà¦¾":9278,"à§©à§Ń":9279,"Ġà¦²à§ĩà¦Ń":9280,"à¦¿à¦¨à¦¿à¦¯à¦¼à¦¤":9281,"Ġà¦ļà¦°à§įà¦ļà¦¾":9282,"à¦¾à¦ªà§ĭà¦²":9283,"à§©à§®":9284,"Ġfuck":9285,"ĠAd":9286,"Ġà¦Ĺà§įà¦°à¦¹à¦£à¦¯à§ĭà¦Ĺà§įà¦¯":9287,"Ġà¦¨à¦¿à¦¦":9288,"Ġà¦®à¦¾à¦§":9289,"Ġà¦¸à§ģà¦¶":9290,"Ġà¦¨à§ĭà¦¬à§ĩà¦²":9291,"à§¨à§¦à§§à§®":9292,"Ġà§©à§¦à§¦":9293,"-à¦®à§ĩà¦ĩà¦²":9294,"ics":9295,"Ġà¦ľà¦¾à¦¹à¦¿à¦¦":9296,"Ġà¦®à§ĭà¦¦à¦¿":9297,"Ġà¦Ĺà§ĩà¦Ł":9298,"Ġà¦«à¦¿à¦°à¦¤à§ĩ":9299,"Ġ<":9300,"à¦¯à¦¾à¦¨":9301,"Ġà¦Ńà§ģà¦¯à¦¼à¦¾":9302,"Ġà¦°à¦¾à¦ľà§įà¦ľà¦¾à¦ķ":9303,"Ġà¦®à§ĭà¦Łà¦°":9304,"Ġà¦°à§ĩà¦ľà¦¾à¦īà¦²":9305,"à¦²à¦¾à¦Ń":9306,"Ġà¦¹à¦¾à¦ķà¦¿à¦®":9307,"Ġà¦ĩà¦īà¦ıà¦¸":9308,"Ġà¦Ĩà¦¡à§įà¦¡":9309,"à§ªà§Ń":9310,"à§ĩà¦¡à¦¿":9311,"Ø©":9312,"Ġà¦¸à¦¹à¦¾à¦¯à¦¼à¦¤à¦¾à¦¯à¦¼":9313,"à¦Ĩà¦¤":9314,"Ġà¦ļà¦¡à¦¼":9315,"Ġà¦¤à§ģà¦²à¦¨à¦¾":9316,"Ġà¦®à¦¨à§ĭà¦¯à§ĭà¦Ĺ":9317,"ery":9318,"Ġà¦ķà§ĩà¦¨à":9319,"Ġà¦ķà§ĩà¦¨à¦":9320,"Ġà¦ķà§ĩà¦¨à¦¾":9321,"ence":9322,"Ãĳ":9323,"Ġà¦ªà¦¾à¦²à¦¨à§ĩà¦°":9324,"Ġà¦°à§ĩà¦¹":9325,"Ġà¦¸à¦ķà¦²à¦ķà§ĩ":9326,"à¦Ĺà":9327,"Ġà¦Ńà¦°à¦¸à¦¾":9328,"Ġà¦Ĩà¦²à¦¿":9329,"Ġà¦ľà¦¾à¦®à¦¾à¦¯à¦¼à¦¾à¦¤à§ĩà¦°":9330,"Ġà¦ªà¦¾à¦°à§įà¦²à¦¾à¦®":9331,"Ġà¦§à¦¾à¦ªà§ĩ":9332,"Ġà¦¸à§įà¦¬à¦¤à¦¨à§įà¦¤à§įà¦°":9333,"-à¦ĵ":9334,"à¦¾à¦¬à§įà¦¯":9335,"à¦Ĺà¦":9336,"à¦Ĺà¦¾":9337,"55":9338,"Ġà¦¨à§Ģà¦ļà§ĩ":9339,"Ġà¦¦à¦¾à¦ģà¦¡à¦¼à¦¾à¦¯à¦¼":9340,"Ġà¦®à§ģà¦ķ":9341,"à¦°à¦¾à¦ĥ":9342,"à¦®à¦¾à¦°à§įà¦ķà¦¿à¦¨":9343,"Ġà¦¹à¦¾à¦®à¦²":9344,"Ġà¦ķà¦¨à¦«à¦¾à¦°":9345,"à¦ªà¦¿à¦Ł":9346,"à¦¿à¦ķà§ĩà¦²":9347,"à¦¿à¦¤à¦¿à¦¶à§Ģà¦²":9348,"à§ĩà¦¥":9349,"Ġà¦®à§ģà¦¦à§įà¦°à¦¿à¦¤":9350,"Ġà¦¹à§ģà¦¸":9351,"à¦¹à¦¾à¦°à§įà¦¡":9352,"à§³":9353,"Ġà¦¹à§įà¦¯à¦¾à¦ķ":9354,"Ġà¦¶à§ģà¦¯à¦¼à§ĩ":9355,"Ġà¦¸à¦¹à¦¯à§ĭà¦Ĺà¦¿à¦¤à¦¾à¦¯à¦¼":9356,"à§©à§¨":9357,"Ġà¦¸à§ģà¦²à¦¤à¦¾à¦¨à¦¾":9358,"Ġà¦¸à¦¹à§įà¦¯":9359,"Ġà¦¦à§ĩà¦¬à¦¾à¦°":9360,"Ġà¦Ĩà¦ĺ":9361,"Ġà¦ķà¦¨à§įà¦Łà§įà¦°":9362,"Ġà¦¡à¦¾à¦¯à¦¼à¦¾à¦¬à§ĩà¦Ł":9363,"Ġà¦ķà§įà¦·à¦¯à¦¼":9364,"Ġà¦¸à¦®à§įà¦®à¦¿à¦²":9365,"à¦¹à§įà¦¯":9366,"Ġà¦ļà¦®à¦ķ":9367,"Ġà¦ĩà¦¹à§ģà¦¦":9368,"à¦ľà¦¿à¦ĵ":9369,"Ġà¦ĩà¦¨à§įà¦¡à¦¿à¦¯à¦¼à¦¾":9370,"Ġà¦ķà§ĩà¦®":9371,"Ġà¦Ĺà¦Ńà¦°à§įà¦¨":9372,"Ġà¦ıà¦ķà¦¸à¦®à¦¯à¦¼":9373,"Ġà¦¹à¦°à¦¤":9374,".bd":9375,"Ġà¦®à§ĭà¦¹à¦¨":9376,"Ġà¦®à¦¾à¦ĸ":9377,"inutes":9378,"indow":9379,"Ġà¦Ĩà¦®à§ĩà¦°à¦¿à¦ķà¦¾à¦¨":9380,"-à¦¸à¦®":9381,"à¦¬à¦°à§įà¦¤à¦®à¦¾à¦¨à§ĩ":9382,"Ġ05":9383,"à§©à§¬":9384,"Ġà¦īà¦ªà¦²à¦ķà§įà¦·":9385,"Ġà§§à§¦à¦Łà¦¿":9386,"Ġà¦¡à§ĩà¦ª":9387,"Ġà¦¦à§ĩà¦°à¦¿":9388,"bangla":9389,"à¦¾à§±":9390,"Ġà§ªà§¨":9391,"à¦¶à¦ķà§įà¦¤à¦¿":9392,"Ġà¦¤à§Į":9393,"Ġà¦¨à¦¾à¦Ľ":9394,"Ġà¦¶à¦¿à¦®":9395,"Ġà¦«à§ĩà¦²à§ĩà¦Ľà§ĩ":9396,"à¦ķà§Ģà¦¯à¦¼":9397,"Ġà¦Ńà¦¿à¦ķ":9398,"har":9399,"Ġà¦°à¦ªà§įà¦¤à¦¾à¦¨à¦¿":9400,"Ġà¦¦à¦¿":9401,"à¦ķà§įà¦·à§ĩà¦¤à§įà¦°à§ĩ":9402,"à¦¿à¦¦à":9403,"à¦¿à¦¦à¦":9404,"à¦¿à¦¦à¦¾":9405,"unction":9406,"à§¯à§¦":9407,"Ġà¦ĩà¦ŀà§įà¦ļà¦¿":9408,"à¦¾à¦¸à§Ģà¦¦à§ĩà¦°":9409,"à¦¿à¦®à§Ĥà¦²à¦ķ":9410,"Ġà¦ªà§Įà¦°à¦¸à¦Ńà¦¾":9411,"Ġà¦¸à¦¿à¦¦à§įà¦¦à¦¿à¦ķà§Ģ":9412,"Ġà¦¸à¦¶à¦¸à§įà¦¤à§įà¦°":9413,"à§įà¦¡à§ĩà¦°":9414,"Ġà¦¶à§ģà¦°à§ģà¦¤à§ĩà¦ĩ":9415,"à¦°à§įà¦ľà¦¨":9416,"Ġà¦ķà¦®à§įà¦ªà¦¿à¦īà¦Ł":9417,"à¦¿à¦¯à¦¼à¦¾à¦ľ":9418,"Ġà¦ªà¦°à¦¿à¦¦à¦°à§įà¦¶à¦ķ":9419,"Ġà¦ĩà¦Ľà¦²":9420,"Ġà¦ªà¦ľ":9421,"Ġà¦®à¦¿à¦¶à¦¨":9422,"à¦Ľà¦¬à¦¿":9423,"à¦®à§ģà¦ķà§įà¦¤à¦¿à¦¯":9424,"Ġà¦ľà¦¾à¦¦à§ģ":9425,"Ġà¦¸à¦¿à¦²à§ĩà¦Łà§ĩ":9426,"Ġà¦ľà¦¿à¦¯à¦¼à¦¾à¦īà¦°":9427,"à¦¬à¦¾à¦°à§įà¦Ĺ":9428,"Ġà¦¬à§ĭà¦¤à¦²":9429,"à¦¸à¦¿à¦¸à¦¿":9430,"',":9431,"à§ĭà§±à":9432,"à§ĭà§±à¦":9433,"à§ĭà§±à¦¾":9434,"ÙıÙħ":9435,"Ġà¦¬à§įà¦¯à§ģà¦°":9436,"Ġà¦¡à§ĩ":9437,"Ġà¦Ĩà¦°à§įà¦ķ":9438,"Ġà¦ıà¦ķà¦¸à¦¾à¦¥à§ĩ":9439,"ould":9440,"à¦«à¦¾à¦¨":9441,"Ġà¦¤à¦¾à¦¸":9442,"Ġà¦¹à¦¤à§ĩà¦ĩ":9443,"47":9444,"Ġà¦¯à§ĩà¦Ĺ":9445,"Ġà¦ķà§Įà¦¤":9446,"à¦¤à§įà¦¬à§ĩà¦°":9447,"Ġà¦ħà¦®à¦¾à¦¨":9448,"Ġà¦¸à¦Ĥà¦ĸà§įà¦¯à¦¾à¦²à¦ĺ":9449,"Ġà¦¨à¦Ĺà§įà¦¨":9450,"à¦²à§įà¦¯à¦¾à¦¨à§įà¦¡à§ĩà¦°":9451,"à¦¤à¦¾à¦¬à¦¾à¦¦à§Ģ":9452,"Ġà¦¦à§ĩà¦ĩ":9453,"à¦ªà§ĭà¦¸à§įà¦Ł":9454,"à§ªà§®":9455,"à¦°à¦¿à¦¨":9456,"Ġà¦ªà¦¾à¦ŀà§įà¦ľ":9457,"Ġà¦¦à¦¾à¦«":9458,"à¦®à§Ĥ":9459,"Ġà¦ķà§įà¦·à¦¤à¦¿à¦ķà¦°":9460,"Ġà¦¨à¦¾à¦¨à¦¾à¦¨":9461,"à§įà¦¸à§ĩà¦°":9462,"Ġà¦°à¦ķà¦®à§ĩà¦°":9463,"Ġà¦¬à¦¸à§ģà¦¨à§įà¦§à¦°à¦¾":9464,"à¦¸à§įà¦¥à¦¾à¦¨à§ĩ":9465,"Ġà¦¸à¦®à¦ķà¦¾à¦®à§Ģ":9466,"her":9467,".Com":9468,"Ġà¦ľà§ģà¦Ł":9469,"Ġà¦«à¦¾à¦īà¦¨à§įà¦¡à§ĩà¦¶à¦¨à§ĩà¦°":9470,"Ġà¦ľà¦¨à§įà¦¯à¦ĵ":9471,"à§ģà§°":9472,"à§įà¦°à¦¾à¦ľ":9473,"Ġà¦¶à¦¿à¦Ĺà¦Ĺà¦¿à¦°":9474,"à¦ļà¦¿":9475,"Ġà¦¬à¦¾à¦£à¦¿à¦ľ":9476,"Ġà¦¸à§ĩà¦¤à§ģà¦®à¦¨à§įà¦¤à§įà¦°à§Ģ":9477,"à¦¬à¦¯à¦¼à¦¸à§įà¦ķ":9478,"Ġà¦¦à¦¾à¦¡à¦¼":9479,"Ġà¦ıà¦ķà¦®à¦¤":9480,"à¦¬à¦¾à¦ľà¦¾à¦°à§ĩ":9481,"Ġà¦²à§ĩà¦ĸà¦¾à¦ª":9482,"Ġà¦¬à§įà¦°à¦¿à¦ľ":9483,"Ġà¦¦à§ĩà¦²":9484,"Ġà¦ªà¦¯à¦¼à§ĩà¦¨à§įà¦Łà§ĩ":9485,"Ġà¦¤à¦¦à¦¨à§įà¦¤à§ĩ":9486,"Ġà¦īà¦ªà§ĩà¦ķà§įà¦·":9487,"à¦¦à§ĩà¦¶à¦¿à¦ķ":9488,"46":9489,"Ġà¦¶à¦¿à¦¬à¦¿à¦°":9490,"à¦ķà¦²à§įà¦ª":9491,"Ġà§¨à§¦à§¦à§®":9492,"Ġà¦Ńà¦¦à§įà¦°":9493,"Ġà¦ķà§įà¦°à§ĩà¦¤":9494,"cl":9495,"à¦ĸà§įà¦¯à¦¾à¦¤":9496,"à¦²à¦¤":9497,"à¦¦à¦¾à¦°à¦¿":9498,"Ġà¦ĩà¦¸à§įà¦¯à§ģà¦¤à§ĩ":9499,"à§Ģà¦¯à¦¼à¦¤":9500,"Ġà¦¸à§ĩà¦ªà§įà¦Ł":9501,"Ġà¦ļà§ĩà¦¹à¦¾à¦°à¦¾":9502,"Ġà¦Ńà¦°à§įà¦¤à¦¿à¦°":9503,"Ġà¦®à§ĩà¦²à¦¾à¦°":9504,"Ġà¦¸à¦¿à¦ľ":9505,"Ġà¦¸à§Ĥà¦ļà¦¨à¦¾":9506,"à§įà¦¬à§ģà¦²":9507,"Ġà¦ħà¦°à§įà¦§à§ĩà¦ķ":9508,"Ġà¦ħà¦ªà¦¾à¦°à§ĩà¦Łà¦°":9509,"Ġ28":9510,"Ġà¦ªà¦¾à¦¯à¦¼à¦¨à¦¿":9511,"Ġà¦ĩà¦¯à¦¼à¦¾à¦¬":9512,"Ġà¦¸à§Īà¦¨à§įà¦¯":9513,"à¦°à¦¾à¦ľà¦§à¦¾à¦¨à§Ģà¦°":9514,"à¦¿à¦¯à¦¼à¦¾à¦¤à§ĩ":9515,"Ġà¦¹à¦¾à¦°à¦¾à¦®":9516,"Ġà¦¸à§ģà¦¨à§įà¦¦à¦°à§Ģ":9517,"Ġà¦®à§ĭà¦¶à¦¾à¦°à¦°à¦«":9518,"Ġà¦¬à§ģà¦ķà§ĩà¦°":9519,"Ġà¦Ĺà¦°à§ģà¦°":9520,"Ġà§¬à§«":9521,"Ġà¦ªà§įà¦²à§įà¦¯à¦¾à¦Ł":9522,"Ġà¦¬à¦¿à¦ªà¦°à§Ģà¦¤":9523,"Ġà¦®à§ĩà¦²à§ĩ":9524,"Ġà¦ļà§įà¦¯à¦¾à¦¨":9525,"Ġà¦ľà§Ī":9526,"Ġà¦ķà§ĩà¦ģ":9527,"Ġà¦¶à¦¿à¦²à§įà¦ªà§ĩà¦°":9528,"Ġà¦¨à¦¾à¦®à¦¾à¦¯":9529,"Ġà¦¬à¦¿à¦§à§įà¦¬à¦¸à§įà¦¤":9530,"à¦¬à¦¿à¦ı":9531,"Ġà¦ªà§įà¦°à¦¤à¦¿à¦¨à¦¿à¦¯à¦¼à¦¤":9532,"Ġà¦ħà¦¬à¦ķà¦¾à¦ł":9533,"Ġwill":9534,"Ġà¦¦à§ĩà¦ĸà¦¾à¦¯à¦¼":9535,"Ġsays":9536,"à¦¨à§ĩà¦ĩ":9537,"à¦¿à¦¯à¦¼à¦¾à¦®à§ĩà¦°":9538,"-à§®":9539,"à§įà¦¹":9540,"Ġà¦ķà§Įà¦¶":9541,"Ġà¦ıà¦ģ":9542,"à¦¤à¦¾à¦¨":9543,"Ġà¦¬à§įà¦¯à¦¬à¦¸à¦¾à¦°":9544,"à¦¾à¦ķà§ĩà¦ĩ":9545,"Ġà¦¬à§įà¦°à¦¾à¦ī":9546,"Ġà¦Ĩà¦¸à¦¾à¦¦à§ģà¦ľà§įà¦ľà¦¾à¦®à¦¾à¦¨":9547,"Ġà¦¡à¦¾à¦ĥ":9548,"à¦¦à§Ģà¦ª":9549,"à¦¿à¦ĩà¦ī":9550,"-à¦Łà§ĭà¦¯à¦¼à§ĩà¦¨à§įà¦Łà¦¿":9551,"à¦¬à¦¾à¦®":9552,"Ġà¦ĸà§ģà¦¨à§ĩà¦°":9553,"this":9554,"à¦ĩà¦°":9555,"à¦£à§Ģ":9556,"Ġà¦¨à¦¾à¦°à§Ģà¦°à¦¾":9557,"Ġà¦²à¦¾à¦Ńà§ĩà¦°":9558,"à§įà¦¯à¦¬à¦¾à¦¹à§Ģ":9559,"ateg":9560,"Ġà¦ķà§ĭà¦²à§ĩ":9561,"Ġà¦²à¦¿à¦Ļà§įà¦Ĺà§ĩà¦°":9562,"Ġà¦ķà§ĭà¦°à¦Ĩà¦¨":9563,"à¦¯à¦¼à¦¨à§ĩà¦°":9564,"Ġà¦¸à¦ŀà§įà¦ľ":9565,"Ġà¦ħà¦¬à¦¨":9566,"Ġà¦¬à§ĩà¦ļ":9567,"Ġà¦²à¦¾à¦Ĺà¦¾à¦¨à§ĭ":9568,"Ġà¦¨à¦¾à¦¸à§įà¦¤":9569,"Ġà¦ĩà¦īà¦¸à§ģà¦«":9570,"Ġà¦Łà§įà¦¯à¦¾à¦¬à¦²":9571,"ĠIndia":9572,"Ġà¦ķà¦°à¦¾à¦ĩ":9573,"Ġà¦¨à¦ľà¦°à§ĩ":9574,"Ġ27":9575,"Ġà¦ĩà¦¸à§įà¦¯à§ģ":9576,"Ġà¦¨à¦¾à¦Ĺà¦°à¦¿à¦ķà¦¦à§ĩà¦°":9577,"Ġà¦¶à§ĩà¦·à§ĩà¦°":9578,"Ġà¦Ńà¦¾à¦¤à¦¾":9579,"Ġà¦¬à§įà¦¯à¦¾à¦Ĥà¦ķà§ĩ":9580,"à¦¾à¦ªà§ģà¦°à§ĩ":9581,"à§ĭà¦²à§ĩ":9582,"Ġà¦łà¦¿à¦ķà¦ĩ":9583,"Ġà¦¤à§ĩà¦ĵà¦ģ":9584,"Ġà¦¦à¦¿à¦¬à¦¸à§ĩà¦°":9585,"Ġà¦¬à¦¨à§įà¦§à§ģà¦°":9586,"à§įà¦°à¦¿à¦®":9587,"Ġà¦ªà¦¾à¦ĵ":9588,"ruary":9589,"Ġà¦ķà¦¬à¦¿à¦¤à¦¾à¦°":9590,"à¦Ńà§Ĥà¦¤":9591,"Ġà¦ĩà¦¸à¦¿":9592,"Ġà¦¤à¦°à§ģà¦£à§Ģ":9593,"Ġà¦¨à¦¿à¦¯à¦¼à§ĭà¦Ĺà§ĩà¦°":9594,"Ġà¦¦à§Įà¦¡à¦¼":9595,"à¦¸à¦¡à¦¼":9596,"Ġà¦ķà¦¾à¦°à§įà¦¯à¦ķà¦°à§Ģ":9597,"à¦¾à¦¦à§ģà¦°":9598,"Ġà¦®à§ĥà¦¤à¦¦à§ĩà¦¹":9599,"à¦ħà¦¨à§įà¦¯à¦¾à¦¨à§įà¦¯":9600,"Â¦":9601,"Ġà¦¸à§įà¦¥à¦¾à¦¨à§Ģà¦¯à¦¼à¦°à¦¾":9602,"fer":9603,"à¦¾à¦·à§įà¦Ł":9604,"à¦¨à¦¿à¦¹à¦¤":9605,"Ġà¦ªà§ģà¦¨à¦ĥ":9606,"Ġà¦ĩà¦Ĥà¦²à¦¿à¦¶":9607,"Ġà¦¸à¦®à§įà¦®à§ĩà¦²à¦¨à§ĩà¦°":9608,"à§ĩà¦·à§įà¦Łà¦¾à¦¯à¦¼":9609,"à§ģà¦¯à¦¼à§ĩà¦Ł":9610,"Ġà¦¬à¦¯à¦¼à¦¸à§įà¦ķ":9611,"à¦¨à§įà¦¨à":9612,"à¦¨à§įà¦¨à¦":9613,"à¦¨à§įà¦¨à¦¾":9614,"Ġà¦¬à§įà¦¯à¦¾à¦²":9615,"à§Ģà¦°à§įà¦¤":9616,"à¦ªà¦¾à¦¸":9617,"Ġall":9618,"net":9619,"Ġà¦ķà¦°à¦¾à¦¨à§ĭ":9620,"à¦¾à¦¬à¦¾à¦ľà¦¾à¦°":9621,"Ġà¦Ŀà¦¿à¦¨à¦¾à¦ĩà¦¦à¦¹":9622,"Ġ@":9623,"oogle":9624,"Ġà¦¸à¦°à§įà¦¬à¦¾à¦§à¦¿à¦ķ":9625,"à¦°à¦¬à¦¾à¦¨":9626,"Ġà¦ļà¦²à§ĩà¦Ľà§ĩà¦¨":9627,"Ġà¦¤à§ģà¦®":9628,"Ġà¦ħà¦°à§įà¦¡à¦¾à¦°":9629,"Ġbo":9630,"Ġà¦ªà§įà¦°à¦Ńà¦¾à¦¬à¦¶à¦¾à¦²à§Ģ":9631,"à¦ĵà¦¯à¦¼à§ĩà¦¬":9632,"Ġà¦ħà¦Łà§ĭà¦°":9633,"Ġà¦¸à¦ķà¦²à§ĩà¦ĩ":9634,"à¦¤à§ĭà¦®à¦¾à¦°":9635,"Ġà¦¶à¦«":9636,"à§ĭà¦Łà¦¾":9637,"à¦¿à¦¤à¦¾à¦¬":9638,"Ġà¦ªà¦¿à¦¤à¦¾à¦°":9639,"à¦°à§ĭà¦ª":9640,"Ġà¦ĩà¦¤à¦¿à¦®à¦§à§įà¦¯à§ĩà¦ĩ":9641,"Ġà¦«à§ĭà¦¨à§ĩà¦°":9642,"Ġà¦¬à§įà¦²à¦Ĺà¦¾à¦°":9643,"Ġà¦¬à¦¿à¦ıà¦¨à¦ª":9644,"Ġà¦¹à¦¿à¦²":9645,"à¦¾à¦ĩà¦¯à¦¼":9646,"Ġà¦¬à¦ķà§įà¦¤à¦¬à§įà¦¯à§ĩà¦°":9647,"à¦«à§ģà¦Ł":9648,"à¦Ńà§įà¦¯":9649,"à¦¾à¦ªà¦¨à§Ģ":9650,"Ġà¦Łà§įà¦¯à¦¾à¦ķà§įà¦¸":9651,"Ġà¦Łà¦¿à¦ķà§ĩ":9652,"ÙİØ¯":9653,"à¦ķà§įà¦·à¦£à§ĩà¦°":9654,"à¦¾à¦ļà§ĩà¦°":9655,"Ġà¦ıà¦Ńà¦¾à¦¬à§ĩà¦ĩ":9656,"Ġà¦Ĩà¦¶à¦°à¦¾à¦«à§ģà¦²":9657,"à¦ļà§įà¦Ľà":9658,"à¦ļà§įà¦Ľà¦":9659,"à¦ļà§įà¦Ľà¦¾":9660,"Ġà¦¦à§ĩà¦¯à¦¼à¦¨à¦¿":9661,"à§ĭà¦Ĺà§įà¦°à¦¾à¦«":9662,"Ġà¦®à¦¹à¦¾à¦¬":9663,"Ġà¦ķà¦°à¦ªà§ĭà¦°à§ĩà¦¶à¦¨à§ĩà¦°":9664,"Ġà¦Ĺà¦²à§įà¦ªà§ĩà¦°":9665,"Ġà¦²à":9666,"à¦¬à¦¿à¦¶à§įà¦¬à¦¾à¦¸":9667,"Ġà¦¬à¦¿à¦¤à¦°à§įà¦ķà¦¿à¦¤":9668,"');":9669,"Ġà¦¸à¦¨à§įà¦¤à¦¾à¦¨à¦¦à§ĩà¦°":9670,"EW":9671,"Ġà¦ıà¦ĩà¦¸à¦¬":9672,"Ġà¦Łà¦¿à¦ī":9673,"Ġà¦ħà¦Ńà¦¿à¦Ńà¦¾à¦¬à¦ķ":9674,"à¦¾à¦²à¦¯à¦¼à§ĩ":9675,"Ġà¦²à¦":9676,"Ġà¦²à¦¾":9677,"à¦¸à§įà¦¥à¦²":9678,"Ġà¦®à¦¾à¦¸à§įà¦ķ":9679,"Ġà¦¸à¦®à§įà¦®à¦¾à¦¨à¦¨à¦¾":9680,"à¦ĸà¦¿à¦ķ":9681,"iss":9682,"Ġà¦ļà¦¾à¦ªà§ĩ":9683,"Ġà¦°à§ģà¦®à§ĩ":9684,"Ġà¦¬à§įà¦¯à¦¾à¦ªà¦¾à¦°à¦Łà¦¾":9685,"à¦°à§įà¦Ĺà§ĩ":9686,"à¦°à§ĭà¦¬à¦¬à¦¾à¦°":9687,"Ġà¦¢à¦¾à¦²":9688,
[...]
