{
  "`": 69,
  "▁হবে।": 615,
  "▁কি": 402,
  "ত্ত": 461,
  "ৈ": 168,
  "▁আমাদের": 592,
  "›": 194,
  "ংশ": 724,
  "▁নিহত": 1004,
  "ঊ": 122,
  "▁2018": 853,
  "▁৭": 813,
  "৬": 179,
  "স্ট": 624,
  "ীব": 672,
  "▁স্থ": 679,
  "▁যৌনক": 891,
  "▁যোগ": 762,
  "▁বিভাগ": 413,
  "কা": 366,
  "কাশ": 542,
  "|": 97,
  "শাহ": 998,
  "'": 12,
  "▁হয়।": 566,
  "?": 36,
  "▁দ": 222,
  "▁নাম": 448,
  "▁হাম": 988,
  "্ট": 253,
  "G": 44,
  "ণ": 142,
  "▁বলে": 422,
  "য়া": 286,
  "▁সু": 450,
  "পুর": 424,
  "ছু": 532,
  "ব্য": 571,
  "তের": 703,
  "াদের": 510,
  "*": 15,
  "p": 85,
  "র্ম": 472,
  "তুন": 831,
  "▁মধ্য": 455,
  "▁ধরে": 941,
  "8": 29,
  "▁খ": 283,
  "বায়": 1013,
  "!": 7,
  "▁হাস": 573,
  "ল": 155,
  "জ": 135,
  "▁অনে": 554,
  "▁আজ": 585,
  "▁হো": 543,
  "্ক": 642,
  "▁ত": 227,
  "▁«": 884,
  "▁কো": 428,
  "▁গো": 645,
  "▁প্রথম": 795,
  "▁স্ট": 783,
  "৷": 183,
  "▁শিক্ষ": 937,
  "হন": 999,
  "[": 64,
  "॥": 113,
  "▁মোবা": 927,
  "ক্র": 449,
  "▁কোন": 396,
  "▁সদ": 673,
  "তো": 716,
  "▁রাজ": 540,
  "্": 171,
  "েন্ট": 649,
  "দি": 445,
  "▁৮": 908,
  "টের": 582,
  "]": 66,
  "ুলিশ": 611,
  "চ্ছে": 564,
  "▁সার্": 680,
  "ক্ত": 326,
  "▁উ": 258,
  "▁শেষ": 689,
  "▁করেছেন": 911,
  "▁পড়": 869,
  "▁জীব": 922,
  "▁ওয়ে": 938,
  "তি": 257,
  "্ত": 224,
  "প": 148,
  "ঞ": 137,
  "▁করে": 276,
  "এস": 757,
  "ঢ": 141,
  "▁সদস্য": 957,
  "চ": 133,
  "▁শ": 243,
  "ভা": 292,
  "N": 51,
  "টে": 427,
  "in": 606,
  "টক": 830,
  "▁কাছে": 898,
  "ূ": 165,
  "▁শ্র": 751,
  "▁দল": 528,
  "ন্ত্রী": 744,
  "u": 90,
  "বে": 247,
  "টি": 242,
  "াড়": 648,
  "n": 83,
  "%": 10,
  "▁শুরু": 692,
  "▁প্রদান": 946,
  "▁হাজ": 859,
  "গ্রাম": 840,
  "ান্ত": 459,
  "▁আব": 835,
  "েল": 309,
  "4": 25,
  "্ন": 447,
  "▁সম": 271,
  "t": 89,
  "▁মো": 372,
  "ভাবে": 579,
  "ুক": 687,
  "ণা": 708,
  "▁জানিয়ে": 889,
  "▁আদাল": 930,
  "com": 958,
  "া": 161,
  "পি": 465,
  "র": 154,
  "্যা": 265,
  "l": 81,
  "ষ্ট": 375,
  "•": 193,
  "েস": 541,
  "▁তাঁ": 563,
  "^": 67,
  "▁অভিযোগ": 846,
  "ন্ত্র": 423,
  "ধ": 146,
  "ঃ": 116,
  "ুক্ত": 496,
  "▁আশ": 784,
  "আ": 118,
  "দ্ধ": 357,
  "্বর": 452,
  "▁অ": 228,
  "▁আগে": 845,
  "▁করতে": 389,
  "ুত": 950,
  "▁রয়ে": 700,
  "»": 104,
  "c": 72,
  "▁নির্বাচ": 485,
  "▁করেছে": 787,
  "৪": 177,
  "ার": 209,
  "7": 28,
  "েন।": 463,
  "া,": 727,
  "গঞ্জ": 607,
  "১": 174,
  "িপ": 537,
  "▁তার": 334,
  "[CLS]": 1,
  "J": 47,
  "▁জন": 301,
  "এন": 698,
  "▁স্ব": 657,
  "ং": 115,
  "y": 94,
  "▁সম্পাদক": 820,
  "▁উদ": 737,
  "▁গত": 633,
  "▁কর্মকর্ত": 899,
  "কার": 316,
  "এম": 867,
  "▁টি": 894,
  "▁কম": 502,
  "▁৫": 608,
  "নায়": 811,
  "েবে": 833,
  "ওয়": 514,
  "▁আমরা": 596,
  "লা": 250,
  "মেইল": 852,
  "▁যে": 371,
  "গুলো": 768,
  "ার্": 325,
  "▁নে": 344,
  "_": 68,
  "▁৩": 489,
  "▁প্রধান": 660,
  "ত্য": 948,
  "কের": 494,
  "ায়": 237,
  "▁ট্র": 788,
  "▁উপজ": 597,
  "চার": 629,
  "▁ইস": 520,
  "▁সংস": 839,
  "▁তৈ": 989,
  "í": 107,
  "ঠ": 139,
  "▁আদ": 658,
  "g": 76,
  "▁আপনার": 776,
  "▁»": 961,
  "▁মহ": 565,
  "ে": 167,
  "▁ন": 221,
  "▁বিষ": 574,
  ">": 35,
  "ভাগ": 395,
  "্যান": 410,
  "♣": 201,
  "▁নেই": 806,
  "ঈ": 120,
  "িয়": 440,
  "▁হত্যা": 885,
  "S": 56,
  "▁স্বা": 919,
  "াক": 256,
  "৩": 176,
  "তিক": 849,
  "সহ": 841,
  "¦": 99,
  "িনি": 329,
  "বেশ": 754,
  "বাদ": 478,
  "▁পুলিশ": 620,
  "▁মোবাইল": 969,
  "ছেন,": 825,
  "▁দেশ": 340,
  "▁পর": 264,
  "▁যায়": 497,
  "▁ট": 318,
  "--": 902,
  "▁ছ": 290,
  "▁আওয়": 720,
  "▁এন্ড": 934,
  "@": 37,
  "�": 206,
  "-এ": 892,
  "▁নির্বা": 457,
  "\\": 65,
  "িক্ষ": 707,
  "নি": 313,
  "ডি": 671,
  "▁হতে": 761,
  "C": 40,
  "ী": 163,
  "দিন": 492,
  "গ্র": 508,
  "খে": 647,
  "▁ক": 210,
  "ক,": 971,
  "িং": 619,
  "হত": 797,
  "র্ত": 474,
  "▁সাল": 760,
  "▁চে": 610,
  "ালে": 420,
  "ল্প": 949,
  "ৎ": 172,
  "▁সম্পাদ": 694,
  "U": 58,
  "ঘ": 131,
  "▁একটি": 415,
  "▁নিজ": 586,
  "‘": 189,
  "শন": 986,
  "কে": 234,
  "▁ভ": 259,
  "▁তারা": 844,
  "▁দিন": 522,
  "ের": 214,
  "": 204,
  "▁প্রতি": 386,
  "▁বছ": 601,
  "▁১": 306,
  "নক": 726,
  "▁নিয়": 763,
  "▁বছর": 870,
  "☯": 200,
  "ছে।": 333,
  "▁\n": 538,
  "ছেন।": 612,
  "জার": 792,
  "W": 60,
  "«": 101,
  "ি": 162,
  "স্থ": 378,
  "▁চাল": 805,
  "ারের": 975,
  "ীল": 1000,
  "▁জাতীয়": 821,
  "▁২": 310,
  "ুম": 394,
  "▁গে": 575,
  "▁ছে": 895,
  "েই": 729,
  "▁দিয়ে": 430,
  "▁খুব": 980,
  "▁এলা": 643,
  "ক্ষ": 287,
  "▁।": 951,
  "▁প": 213,
  "X": 61,
  "ুষ": 697,
  "▁তো": 772,
  "্য": 216,
  "ট": 138,
  "ুরু": 511,
  "▁১০": 753,
  "M": 50,
  "গর": 725,
  "্ষ": 266,
  "্দ": 482,
  "-১": 881,
  "▁উন্ন": 954,
  "▁ব": 212,
  "০০": 442,
  "▁তা": 303,
  "▁পরীক্ষ": 796,
  "োগ": 317,
  "কাল": 593,
  "্তু": 602,
  "▁কিছু": 598,
  "": 98,
  ";": 32,
  "▁কর্ম": 530,
  "েন,": 419,
  "ঙ্গে": 491,
  "▁অনেক": 701,
  "েলা": 433,
  "▁কোনো": 628,
  "▁কর্ত": 850,
  "▁বু": 718,
  "▁ড": 321,
  "▁পারে": 897,
  "▁অভি": 623,
  "িত": 260,
  "রা": 294,
  "র্ব": 843,
  "নার": 498,
  "▁কেন": 864,
  "▁t": 712,
  "য়ো": 873,
  "️": 205,
  "েম্বর": 605,
  "▁ব্র": 857,
  "ই": 119,
  "।": 112,
  "▁এসে": 944,
  "নে": 289,
  "©": 100,
  "িয়ার": 769,
  "at": 970,
  "\n": 6,
  "▁য": 241,
  "হার": 504,
  "ও": 126,
  "ছে": 246,
  "পত্র": 832,
  "▁আবার": 1002,
  "▁অন্য": 819,
  "▁যদি": 936,
  "▁হা": 962,
  "▁উদ্": 713,
  "▁হচ্ছে": 963,
  "▁ব্য": 342,
  "▁মার্": 794,
  "র্শ": 670,
  "ভে": 730,
  "A": 38,
  "মান": 360,
  "▁২০১": 484,
  "‍": 186,
  "2": 23,
  "▁দো": 438,
  "▁অনুম": 955,
  "...": 454,
  "▁অর্থ": 929,
  "▁ক্ষ": 617,
  "েন": 229,
  "▁চল": 651,
  "▁লি": 926,
  "▁দে": 269,
  "▁র": 240,
  "তা": 368,
  "▁অনুষ্ঠ": 943,
  ".": 19,
  "▁ছবি": 665,
  "▁পড়ে": 799,
  "ারা": 635,
  "ইল": 513,
  "▁উত্ত": 817,
  "দা": 758,
  "দ": 145,
  "ó": 108,
  "িজ": 439,
  "▁সভাপতি": 847,
  "▁কয়েক": 995,
  "▁ধ": 347,
  "িম": 379,
  "▁কার": 385,
  "▁পর্যন্ত": 979,
  "ির": 281,
  "েশ": 319,
  "ি,": 616,
  "কারী": 888,
  "▁এক": 268,
  "চনা": 959,
  "▁ই-": 965,
  "j": 79,
  "াত": 280,
  "▁মাম": 625,
  "বিদ": 939,
  "৭": 180,
  "সা": 634,
  "Ÿ": 111,
  "‌": 185,
  "▁কর্তৃ": 901,
  "→": 196,
  "▁সি": 407,
  "▁সরকার": 662,
  "ষ্": 390,
  "▁নির্": 362,
  "স্য": 686,
  "িন্ন": 705,
  "”": 192,
  "শ্": 905,
  "▁সনদ": 880,
  "মাণ": 956,
  "▁মু": 377,
  "▁-": 548,
  "চে": 581,
  "▁করা": 346,
  "তার": 583,
  "িশ": 331,
  "বং": 336,
  "z": 95,
  "য়ার": 291,
  "▁মনে": 721,
  "▁ব্যব": 456,
  "ক্তি": 861,
  "িতে": 411,
  "ঝ": 136,
  "er": 741,
  "▁ই-মেইল": 994,
  "ঋ": 123,
  "01": 383,
  "▁2": 391,
  "▁আর": 358,
  "▁·": 590,
  "▁না।": 570,
  "▁ম্যা": 842,
  "▁ওই": 877,
  "ীর": 356,
  "ত্যা": 547,
  "▁মান": 473,
  "ু": 164,
  "-": 18,
  "▁থ": 282,
  "▁কাজ": 560,
  "▁জান": 338,
  "দে": 871,
  "লেট": 706,
  "▁সম্প": 426,
  "▁অনু": 469,
  "▁মে": 444,
  "৫": 178,
  "(": 13,
  "বাস": 681,
  "▁জাত": 770,
  "“": 191,
  "▁সন": 798,
  "▁বিএন": 935,
  "▁পাঠ": 981,
  "্ব": 263,
  "▁জানান": 765,
  "▁201": 406,
  "▁জেলা": 771,
  "বেন": 780,
  "ধ্য": 349,
  "ধি": 872,
  "বার": 304,
  "&": 11,
  "বারের": 925,
  "▁...\n": 933,
  "▁ম": 219,
  "▁হিস": 659,
  "ঙ": 132,
  "▁এবং": 337,
  "▁প্রতিনি": 900,
  "▁কারণে": 967,
  "#": 9,
  "ড": 140,
  "...\n": 562,
  "▁শে": 816,
  "াব": 462,
  "▁দ্ব": 836,
  "a": 70,
  "▁পূর্": 875,
  "হ": 159,
  "R": 55,
  "H": 45,
  "▁থেকে": 335,
  "াতে": 738,
  "▁দু": 365,
  "▁আওয়ামী": 778,
  "য়ে": 230,
  "▁অভ": 467,
  "ন্ধ": 506,
  "▁ভার": 591,
  "▁0": 678,
  "▁রো": 750,
  "ীক্ষ": 731,
  "ুদ্ধে": 982,
  "x": 93,
  "াকার": 978,
  "ঁ": 114,
  "▁আ": 217,
  "▁নেত": 766,
  "বর": 409,
  "▁গ্রে": 1009,
  "বি": 307,
  "োর্": 638,
  "▁বিষয়": 890,
  "—": 188,
  "▁প্রত": 675,
  "▁এ": 220,
  "দের": 262,
  "ীয়": 370,
  "om": 848,
  "m": 82,
  "পতি": 599,
  "ঞ্": 364,
  "েকে": 323,
  "ণ্ড": 691,
  "➤": 203,
  "​": 184,
  "টির": 551,
  "▁কর": 225,
  "▁আই": 536,
  "ান": 218,
  "জা": 823,
  "কি": 904,
  "▁আম": 293,
  "▁যৌনকর্ম": 915,
  "চ্": 348,
  "L": 49,
  "▁কয়ে": 976,
  "▁তিনি": 466,
  "োষ": 907,
  "0": 21,
  "মন": 499,
  "লাম": 509,
  "ষ": 157,
  "থা": 475,
  "াস": 277,
  "▁দো’আ": 516,
  "▁রা": 416,
  "ানের": 527,
  "্যন্ত": 800,
  "্ম": 332,
  "্প": 284,
  "িয়ে": 288,
  "গ": 130,
  "াট": 812,
  "ন্": 272,
  "ম্প": 972,
  "াত্র": 490,
  "d": 73,
  "িন": 235,
  "িকা": 804,
  "▁গ্রাম": 808,
  "ধার": 555,
  "িক": 248,
  "▁সাথে": 767,
  "▁সা": 369,
  "q": 86,
  "াল": 231,
  "ালো": 618,
  "{": 96,
  "িউ": 883,
  "খানে": 779,
  "D": 41,
  "▁অপ": 815,
  "ঐ": 125,
  "▁হল": 644,
  "▁ছাড়া": 991,
  "জন": 400,
  "▁মধ্যে": 488,
  "▁এখন": 674,
  "▁এম": 920,
  "▁ব্যবহার": 715,
  ")": 14,
  "োল": 906,
  "▁আপ": 404,
  "কর্ত": 855,
  "দার": 893,
  "💬": 207,
  "▁লা": 418,
  "▁দেখ": 441,
  "স্": 932,
  "▁(1": 603,
  "৮": 181,
  "▁বলেন,": 523,
  "▁থাকে": 924,
  "Z": 63,
  "▁অন": 327,
  "্লা": 505,
  "▁ক্র": 896,
  "▁ফে": 866,
  "াহ": 320,
  "6": 27,
  "T": 57,
  "▁সময়": 453,
  "ন্ত": 305,
  "▁ব্যা": 539,
  "লেখ": 773,
  "▁জু": 837,
  "▁বিমান": 977,
  "ুলে": 728,
  "1": 22,
  "▁করুন": 886,
  "▁ঢাকা": 653,
  "w": 92,
  "▁অব": 460,
  "▁এস": 471,
  "[SEP]": 2,
  "প্ত": 493,
  "▁পুর": 874,
  "▁মাধ্য": 714,
  "▁হলে": 734,
  "▁সাম": 584,
  "▁বস": 814,
  "বল": 882,
  "েশন": 912,
  "▁দী": 1003,
  "৯": 182,
  "ারে": 572,
  "▁নয়": 749,
  "▁জ": 226,
  "▁সব": 553,
  "ূর্ণ": 968,
  "=": 34,
  "ৃ": 166,
  "▁প্রশ": 736,
  "/": 20,
  "ন্ট": 742,
  ":": 31,
  "▁জন্য": 373,
  "I": 46,
  "অ": 117,
  "ধান": 443,
  "ারী": 834,
  ",": 17,
  "ানে": 495,
  "না": 330,
  "h": 77,
  "য়": 208,
  "<": 33,
  "।\n": 274,
  "ন্ড": 568,
  "▁সভা": 739,
  "ূর্": 525,
  "K": 48,
  "বাহ": 910,
  "▁পরিচাল": 913,
  "▁অবস্থ": 827,
  "O": 52,
  "াজ": 278,
  "’আ": 512,
  "▁নিয়ে": 429,
  "[UNK]": 0,
  "য়ের": 558,
  "▁বি": 239,
  "্র": 215,
  "▁বির": 722,
  "▁চ": 251,
  "▁মানুষ": 828,
  "do": 996,
  "¿": 105,
  "ুট": 917,
  "োন": 295,
  "টা": 350,
  "ষ্ঠ": 479,
  "5": 26,
  "োট": 656,
  "B": 39,
  "V": 59,
  "ওয়া": 464,
  "▁করেন": 735,
  "▁2017": 1008,
  "▁আল": 405,
  "▁সঙ্গে": 518,
  "ন্ন": 646,
  "ুয়ার": 759,
  "ায়ী": 838,
  "ৌ": 170,
  "i": 78,
  "লে": 244,
  "য়ন": 632,
  "তির": 711,
  "▁(": 285,
  "▁সম্ম": 964,
  "▁তাই": 887,
  "়": 160,
  "থ": 144,
  "▁": 197,
  "▁গ": 245,
  "▁মাস": 688,
  "কল": 690,
  "▁মাধ্যমে": 777,
  "সের": 916,
  "▁বে": 486,
  "▁না": 299,
  "Ñ": 106,
  "নী": 746,
  "াপ": 339,
  "খন": 451,
  "স": 158,
  "▁ভালো": 818,
  "▁1": 868,
  "▁স": 211,
  "▁বেশ": 561,
  "▁প্রদ": 710,
  "▁ই": 275,
  "ছিল": 480,
  "Q": 54,
  "▁কে": 600,
  "▁জানা": 966,
  "▁সং": 324,
  "স্থা": 1007,
  "ড়া": 403,
  "en": 1011,
  "▁আমি": 576,
  "ধারণ": 809,
  "▁পরে": 851,
  "ীন": 476,
  "▁০১": 1001,
  "▁নৌ": 909,
  "রি": 668,
  "াম": 232,
  "ছি": 1012,
  "নের": 353,
  "গে": 829,
  "F": 43,
  "ম": 152,
  "▁দুই": 676,
  "▁বৃ": 732,
  "্যাপ": 786,
  "ঁচ": 997,
  "▁প্রকাশ": 627,
  "ড়": 249,
  "▁রহমান": 756,
  "ন": 147,
  "▁কিন্তু": 630,
  "োর": 380,
  "োম": 613,
  "▁হয়েছে": 604,
  "ুদ্ধ": 655,
  "▁উপজেলা": 879,
  "▁কা": 398,
  "▁হোসেন": 914,
  "যোগ": 436,
  "f": 75,
  "ার্থ": 782,
  "v": 91,
  "▁ঘ": 355,
  "াঁ": 556,
  "▁শু": 595,
  "▁শেখ": 983,
  "▁বড়": 987,
  "দন": 641,
  "২": 175,
  "▁ঢ": 468,
  "িয়া": 470,
  "▁আবেদন": 953,
  "▁মি": 503,
  "গুল": 535,
  "o": 84,
  "েষ": 477,
  "০১": 382,
  "ৃত": 412,
  "ন্দ": 384,
  "▁আন": 801,
  "াকে": 545,
  "ীগ": 533,
  "▁আস": 388,
  "ানা": 640,
  "০": 173,
  "প্র": 481,
  "স্ত": 435,
  "▁সংবাদ": 940,
  "▁লীগ": 764,
  "▁ল": 314,
  "e": 74,
  "E": 42,
  "সম": 793,
  "▁ঐ": 952,
  "▁আলো": 790,
  "গত": 931,
  "চাল": 677,
  "▁সহ": 550,
  "▁ইউ": 682,
  "িকার": 723,
  "▁ঘট": 661,
  "জ্": 578,
  "চিত": 577,
  "▁হয়ে": 311,
  "▁ইসলাম": 654,
  "ক্ট": 810,
  "▁করার": 636,
  "দেশ": 544,
  "পর": 500,
  "▁বা": 296,
  "es": 791,
  "▁এই": 343,
  "রে": 345,
  "▁তাঁর": 993,
  "াদ": 354,
  "▁নতুন": 858,
  "▁ফোন": 664,
  "k": 80,
  "্থ": 300,
  "▁নি": 252,
  "▁মা": 399,
  "▁ছিল": 487,
  "▁তিন": 865,
  "▁এমন": 802,
  "▁হয়েছে।": 587,
  "▁রে": 567,
  "▁হবে": 393,
  "▁দেশের": 588,
  "▁কিন": 546,
  "☑": 199,
  "[MASK]": 4,
  "–": 187,
  "্যাম": 824,
  "▁গ্র": 414,
  "an": 695,
  "রণ": 683,
  "▁৬": 747,
  "☎": 198,
  "▁আমার": 752,
  "বেদন": 774,
  "াই": 273,
  "3": 24,
  "রের": 483,
  "ুন": 328,
  "িব": 524,
  "▁তথ্য": 947,
  "্দ্র": 945,
  "রুল": 973,
  "▁লাখ": 1010,
  "িল": 279,
  "▁পরি": 352,
  "’": 190,
  "াড়া": 631,
  "েম": 397,
  "▁আপনি": 743,
  "ষ্ট্র": 807,
  "ীদের": 549,
  "▁৯": 748,
  "▁দা": 666,
  "[PAD]": 3,
  "বা": 254,
  "্বা": 526,
  "s": 88,
  "িস": 298,
  "ঞ্চ": 789,
  "ভার": 856,
  "▁অর্": 609,
  "ণে": 637,
  "▁এর": 401,
  "য": 153,
  "▁সর": 515,
  "টার": 521,
  "ú": 109,
  "াকা": 361,
  "ক্ষে": 569,
  "ন,": 985,
  "▁হয়": 351,
  "re": 903,
  "ড়ে": 432,
  "থে": 559,
  "▁ফ": 270,
  "্যান্ড": 928,
  "▁আগ": 417,
  "▁বাস": 669,
  "▁রাখ": 755,
  "▁ভা": 552,
  "েলার": 775,
  "▁উপ": 363,
  "▁কথা": 639,
  "ুল": 267,
  "ঙ্গ": 312,
  "ক্স": 745,
  "সি": 446,
  "▁পে": 614,
  "ূল": 589,
  "মে": 359,
  "▁তবে": 626,
  "ক": 128,
  "খ": 129,
  "িকে": 517,
  "মা": 408,
  "র্": 233,
  "▁৪": 663,
  "্স": 376,
  "▁যৌ": 684,
  "লার": 717,
  "্যে": 719,
  "োক": 918,
  "োধ": 534,
  "▁বিশ্ব": 652,
  "9": 30,
  "..": 315,
  "▁তাদের": 580,
  "এ": 124,
  "▁বল": 387,
  "ঔ": 127,
  "ি।": 557,
  "ানি": 733,
  "দ্": 302,
  "ঞ্জ": 425,
  "▁নির্বাচন": 685,
  "▁মূল": 876,
  "▁‘": 421,
  "ত্রে": 992,
  "▁অফ": 990,
  "াস্ত": 878,
  "▁ঠ": 974,
  "▁মন": 709,
  "ামী": 431,
  "▁দিতে": 921,
  "তে": 238,
  "্ড": 374,
  "▁ও": 255,
  "▁অধ": 621,
  "▁যা": 381,
  "লাই": 667,
  "✅": 202,
  "▁হিসেবে": 862,
  "▁লক্ষ": 1006,
  "r": 87,
  "ওয়ার": 531,
  "ুর": 261,
  "œ": 110,
  "িট": 781,
  "জ্ঞ": 803,
  "র্ষ": 650,
  "শ": 156,
  "ছ": 134,
  "থম": 696,
  "▁হোস": 740,
  "▁:": 501,
  "▁টাকা": 693,
  "▁করে।": 1005,
  "▁হ": 223,
  "যুক্ত": 960,
  "▁সেই": 826,
  "▁বাড়": 622,
  "▁পার": 367,
  "ঙ্": 297,
  "▁বিশ": 437,
  "▁বিভিন্ন": 854,
  "+": 16,
  "P": 53,
  "ব": 150,
  "ুদ": 704,
  "ফ": 149,
  "▁তথ": 860,
  "°": 102,
  "▁রহ": 699,
  "\"": 8,
  "ুব": 529,
  "ছে,": 923,
  "ভ": 151,
  "▁সাধারণ": 942,
  "জি": 702,
  "ov": 984,
  "ত্র": 392,
  "িদ": 458,
  "▁প্র": 236,
  "্যাল": 519,
  "▁পা": 341,
  "▁সে": 322,
  "·": 103,
  "উ": 121,
  "b": 71,
  "্ল": 434,
  "ো": 169,
  "Y": 62,
  "\t": 5,
  "পাত": 863,
  "ছেন": 308,
  "on": 822,
  "▁থাক": 507,
  "€": 195,
  "▁আহ": 594,
  "▁বিভ": 785,
  "ত": 143
}