{"[UNK]":0,"[CLS]":1,"[SEP]":2,"[PAD]":3,"[MASK]":4,"\t":5,"\n":6,"!":7,"\"":8,"#":9,"%":10,"&":11,"'":12,"(":13,")":14,"*":15,"+":16,",":17,"-":18,".":19,"/":20,"0":21,"1":22,"2":23,"3":24,"4":25,"5":26,"6":27,"7":28,"8":29,"9":30,":":31,";":32,"<":33,"=":34,">":35,"?":36,"@":37,"A":38,"B":39,"C":40,"D":41,"E":42,"F":43,"G":44,"H":45,"I":46,"J":47,"K":48,"L":49,"M":50,"N":51,"O":52,"P":53,"Q":54,"R":55,"S":56,"T":57,"U":58,"V":59,"W":60,"X":61,"Y":62,"Z":63,"[":64,"\\":65,"]":66,"^":67,"_":68,"`":69,"a":70,"b":71,"c":72,"d":73,"e":74,"f":75,"g":76,"h":77,"i":78,"j":79,"k":80,"l":81,"m":82,"n":83,"o":84,"p":85,"q":86,"r":87,"s":88,"t":89,"u":90,"v":91,"w":92,"x":93,"y":94,"z":95,"{":96,"|":97,"":98,"¦":99,"©":100,"«":101,"°":102,"·":103,"»":104,"¿":105,"Ñ":106,"í":107,"ó":108,"ú":109,"œ":110,"Ÿ":111,"।":112,"॥":113,"ঁ":114,"ং":115,"ঃ":116,"অ":117,"আ":118,"ই":119,"ঈ":120,"উ":121,"ঊ":122,"ঋ":123,"এ":124,"ঐ":125,"ও":126,"ঔ":127,"ক":128,"খ":129,"গ":130,"ঘ":131,"ঙ":132,"চ":133,"ছ":134,"জ":135,"ঝ":136,"ঞ":137,"ট":138,"ঠ":139,"ড":140,"ঢ":141,"ণ":142,"ত":143,"থ":144,"দ":145,"ধ":146,"ন":147,"প":148,"ফ":149,"ব":150,"ভ":151,"ম":152,"য":153,"র":154,"ল":155,"শ":156,"ষ":157,"স":158,"হ":159,"়":160,"া":161,"ি":162,"ী":163,"ু":164,"ূ":165,"ৃ":166,"ে":167,"ৈ":168,"ো":169,"ৌ":170,"্":171,"ৎ":172,"০":173,"১":174,"২":175,"৩":176,"৪":177,"৫":178,"৬":179,"৭":180,"৮":181,"৯":182,"৷":183,"​":184,"‌":185,"‍":186,"–":187,"—":188,"‘":189,"’":190,"“":191,"”":192,"•":193,"›":194,"€":195,"→":196,"▁":197,"☎":198,"☑":199,"☯":200,"♣":201,"✅":202,"➤":203,"":204,"️":205,"�":206,"💬":207,"য়":208,"ার":209,"▁ক":210,"▁স":211,"▁ব":212,"▁প":213,"ের":214,"্র":215,"্য":216,"▁আ":217,"ান":218,"▁ম":219,"▁এ":220,"▁ন":221,"▁দ":222,"▁হ":223,"্ত":224,"▁কর":225,"▁জ":226,"▁ত":227,"▁অ":228,"েন":229,"য়ে":230,"াল":231,"াম":232,"র্":233,"কে":234,"িন":235,"▁প্র":236,"ায়":237,"তে":238,"▁বি":239,"▁র":240,"▁য":241,"টি":242,"▁শ":243,"লে":244,"▁গ":245,"ছে":246,"বে":247,"িক":248,"ড়":249,"লা":250,"▁চ":251,"▁নি":252,"্ট":253,"বা":254,"▁ও":255,"াক":256,"তি":257,"▁উ":258,"▁ভ":259,"িত":260,"ুর":261,"দের":262,"্ব":263,"▁পর":264,"্যা":265,"্ষ":266,"ুল":267,"▁এক":268,"▁দে":269,"▁ফ":270,"▁সম":271,"ন্":272,"াই":273,"।\n":274,"▁ই":275,"▁করে":276,"াস":277,"াজ":278,"িল":279,"াত":280,"ির":281,"▁থ":282,"▁খ":283,"্প":284,"▁(":285,"য়া":286,"ক্ষ":287,"িয়ে":288,"নে":289,"▁ছ":290,"য়ার":291,"ভা":292,"▁আম":293,"রা":294,"োন":295,"▁বা":296,"ঙ্":297,"িস":298,"▁না":299,"্থ":300,"▁জন":301,"দ্":302,"▁তা":303,"বার":304,"ন্ত":305,"▁১":306,"বি":307,"ছেন":308,"েল":309,"▁২":310,"▁হয়ে":311,"ঙ্গ":312,"নি":313,"▁ল":314,"..":315,"কার":316,"োগ":317,"▁ট":318,"েশ":319,"াহ":320,"▁ড":321,"▁সে":322,"েকে":323,"▁সং":324,"ার্":325,"ক্ত":326,"▁অন":327,"ুন":328,"িনি":329,"না":330,"িশ":331,"্ম":332,"ছে।":333,"▁তার":334,"▁থেকে":335,"বং":336,"▁এবং":337,"▁জান":338,"াপ":339,"▁দেশ":340,"▁পা":341,"▁ব্য":342,"▁এই":343,"▁নে":344,"রে":345,"▁করা":346,"▁ধ":347,"চ্":348,"ধ্য":349,"টা":350,"▁হয়":351,"▁পরি":352,"নের":353,"াদ":354,"▁ঘ":355,"ীর":356,"দ্ধ":357,"▁আর":358,"মে":359,"মান":360,"াকা":361,"▁নির্":362,"▁উপ":363,"ঞ্":364,"▁দু":365,"কা":366,"▁পার":367,"তা":368,"▁সা":369,"ীয়":370,"▁যে":371,"▁মো":372,"▁জন্য":373,"্ড":374,"ষ্ট":375,"্স":376,"▁মু":377,"স্থ":378,"িম":379,"োর":380,"▁যা":381,"০১":382,"01":383,"ন্দ":384,"▁কার":385,"▁প্রতি":386,"▁বল":387,"▁আস":388,"▁করতে":389,"ষ্":390,"▁2":391,"ত্র":392,"▁হবে":393,"ুম":394,"ভাগ":395,"▁কোন":396,"েম":397,"▁কা":398,"▁মা":399,"জন":400,"▁এর":401,"▁কি":402,"ড়া":403,"▁আপ":404,"▁আল":405,"▁201":406,"▁সি":407,"মা":408,"বর":409,"্যান":410,"িতে":411,"ৃত":412,"▁বিভাগ":413,"▁গ্র":414,"▁একটি":415,"▁রা":416,"▁আগ":417,"▁লা":418,"েন,":419,"ালে":420,"▁‘":421,"▁বলে":422,"ন্ত্র":423,"পুর":424,"ঞ্জ":425,"▁সম্প":426,"টে":427,"▁কো":428,"▁নিয়ে":429,"▁দিয়ে":430,"ামী":431,"ড়ে":432,"েলা":433,"্ল":434,"স্ত":435,"যোগ":436,"▁বিশ":437,"▁দো":438,"িজ":439,"িয়":440,"▁দেখ":441,"০০":442,"ধান":443,"▁মে":444,"দি":445,"সি":446,"্ন":447,"▁নাম":448,"ক্র":449,"▁সু":450,"খন":451,"্বর":452,"▁সময়":453,"...":454,"▁মধ্য":455,"▁ব্যব":456,"▁নির্বা":457,"িদ":458,"ান্ত":459,"▁অব":460,"ত্ত":461,"াব":462,"েন।":463,"ওয়া":464,"পি":465,"▁তিনি":466,"▁অভ":467,"▁ঢ":468,"▁অনু":469,"িয়া":470,"▁এস":471,"র্ম":472,"▁মান":473,"র্ত":474,"থা":475,"ীন":476,"েষ":477,"বাদ":478,"ষ্ঠ":479,"ছিল":480,"প্র":481,"্দ":482,"রের":483,"▁২০১":484,"▁নির্বাচ":485,"▁বে":486,"▁ছিল":487,"▁মধ্যে":488,"▁৩":489,"াত্র":490,"ঙ্গে":491,"দিন":492,"প্ত":493,"কের":494,"ানে":495,"ুক্ত":496,"▁যায়":497,"নার":498,"মন":499,"পর":500,"▁:":501,"▁কম":502,"▁মি":503,"হার":504,"্লা":505,"ন্ধ":506,"▁থাক":507,"গ্র":508,"লাম":509,"াদের":510,"ুরু":511,"’আ":512,"ইল":513,"ওয়":514,"▁সর":515,"▁দো’আ":516,"িকে":517,"▁সঙ্গে":518,"্যাল":519,"▁ইস":520,"টার":521,"▁দিন":522,"▁বলেন,":523,"িব":524,"ূর্":525,"্বা":526,"ানের":527,"▁দল":528,"ুব":529,"▁কর্ম":530,"ওয়ার":531,"ছু":532,"ীগ":533,"োধ":534,"গুল":535,"▁আই":536,"িপ":537,"▁\n":538,"▁ব্যা":539,"▁রাজ":540,"েস":541,"কাশ":542,"▁হো":543,"দেশ":544,"াকে":545,"▁কিন":546,"ত্যা":547,"▁-":548,"ীদের":549,"▁সহ":550,"টির":551,"▁ভা":552,"▁সব":553,"▁অনে":554,"ধার":555,"াঁ":556,"ি।":557,"য়ের":558,"থে":559,"▁কাজ":560,"▁বেশ":561,"...\n":562,"▁তাঁ":563,"চ্ছে":564,"▁মহ":565,"▁হয়।":566,"▁রে":567,"ন্ড":568,"ক্ষে":569,"▁না।":570,"ব্য":571,"ারে":572,"▁হাস":573,"▁বিষ":574,"▁গে":575,"▁আমি":576,"চিত":577,"জ্":578,"ভাবে":579,"▁তাদের":580,"চে":581,"টের":582,"তার":583,"▁সাম":584,"▁আজ":585,"▁নিজ":586,"▁হয়েছে।":587,"▁দেশের":588,"ূল":589,"▁·":590,"▁ভার":591,"▁আমাদের":592,"কাল":593,"▁আহ":594,"▁শু":595,"▁আমরা":596,"▁উপজ":597,"▁কিছু":598,"পতি":599,"▁কে":600,"▁বছ":601,"্তু":602,"▁(1":603,"▁হয়েছে":604,"েম্বর":605,"in":606,"গঞ্জ":607,"▁৫":608,"▁অর্":609,"▁চে":610,"ুলিশ":611,"ছেন।":612,"োম":613,"▁পে":614,"▁হবে।":615,"ি,":616,"▁ক্ষ":617,"ালো":618,"িং":619,"▁পুলিশ":620,"▁অধ":621,"▁বাড়":622,"▁অভি":623,"স্ট":624,"▁মাম":625,"▁তবে":626,"▁প্রকাশ":627,"▁কোনো":628,"চার":629,"▁কিন্তু":630,"াড়া":631,"য়ন":632,"▁গত":633,"সা":634,"ারা":635,"▁করার":636,"ণে":637,"োর্":638,"▁কথা":639,"ানা":640,"দন":641,"্ক":642,"▁এলা":643,"▁হল":644,"▁গো":645,"ন্ন":646,"খে":647,"াড়":648,"েন্ট":649,"র্ষ":650,"▁চল":651,"▁বিশ্ব":652,"▁ঢাকা":653,"▁ইসলাম":654,"ুদ্ধ":655,"োট":656,"▁স্ব":657,"▁আদ":658,"▁হিস":659,"▁প্রধান":660,"▁ঘট":661,"▁সরকার":662,"▁৪":663,"▁ফোন":664,"▁ছবি":665,"▁দা":666,"লাই":667,"রি":668,"▁বাস":669,"র্শ":670,"ডি":671,"ীব":672,"▁সদ":673,"▁এখন":674,"▁প্রত":675,"▁দুই":676,"চাল":677,"▁0":678,"▁স্থ":679,"▁সার্":680,"বাস":681,"▁ইউ":682,"রণ":683,"▁যৌ":684,"▁নির্বাচন":685,"স্য":686,"ুক":687,"▁মাস":688,"▁শেষ":689,"কল":690,"ণ্ড":691,"▁শুরু":692,"▁টাকা":693,"▁সম্পাদ":694,"an":695,"থম":696,"ুষ":697,"এন":698,"▁রহ":699,"▁রয়ে":700,"▁অনেক":701,"জি":702,"তের":703,"ুদ":704,"িন্ন":705,"লেট":706,"িক্ষ":707,"ণা":708,"▁মন":709,"▁প্রদ":710,"তির":711,"▁t":712,"▁উদ্":713,"▁মাধ্য":714,"▁ব্যবহার":715,"তো":716,"লার":717,"▁বু":718,"্যে":719,"▁আওয়":720,"▁মনে":721,"▁বির":722,"িকার":723,"ংশ":724,"গর":725,"নক":726,"া,":727,"ুলে":728,"েই":729,"ভে":730,"ীক্ষ":731,"▁বৃ":732,"ানি":733,"▁হলে":734,"▁করেন":735,"▁প্রশ":736,"▁উদ":737,"াতে":738,"▁সভা":739,"▁হোস":740,"er":741,"ন্ট":742,"▁আপনি":743,"ন্ত্রী":744,"ক্স":745,"নী":746,"▁৬":747,"▁৯":748,"▁নয়":749,"▁রো":750,"▁শ্র":751,"▁আমার":752,"▁১০":753,"বেশ":754,"▁রাখ":755,"▁রহমান":756,"এস":757,"দা":758,"ুয়ার":759,"▁সাল":760,"▁হতে":761,"▁যোগ":762,"▁নিয়":763,"▁লীগ":764,"▁জানান":765,"▁নেত":766,"▁সাথে":767,"গুলো":768,"িয়ার":769,"▁জাত":770,"▁জেলা":771,"▁তো":772,"লেখ":773,"বেদন":774,"েলার":775,"▁আপনার":776,"▁মাধ্যমে":777,"▁আওয়ামী":778,"খানে":779,"বেন":780,"িট":781,"ার্থ":782,"▁স্ট":783,"▁আশ":784,"▁বিভ":785,"্যাপ":786,"▁করেছে":787,"▁ট্র":788,"ঞ্চ":789,"▁আলো":790,"es":791,"জার":792,"সম":793,"▁মার্":794,"▁প্রথম":795,"▁পরীক্ষ":796,"হত":797,"▁সন":798,"▁পড়ে":799,"্যন্ত":800,"▁আন":801,"▁এমন":802,"জ্ঞ":803,"িকা":804,"▁চাল":805,"▁নেই":806,"ষ্ট্র":807,"▁গ্রাম":808,"ধারণ":809,"ক্ট":810,"নায়":811,"াট":812,"▁৭":813,"▁বস":814,"▁অপ":815,"▁শে":816,"▁উত্ত":817,"▁ভালো":818,"▁অন্য":819,"▁সম্পাদক":820,"▁জাতীয়":821,"on":822,"জা":823,"্যাম":824,"ছেন,":825,"▁সেই":826,"▁অবস্থ":827,"▁মানুষ":828,"গে":829,"টক":830,"তুন":831,"পত্র":832,"েবে":833,"ারী":834,"▁আব":835,"▁দ্ব":836,"▁জু":837,"ায়ী":838,"▁সংস":839,"গ্রাম":840,"সহ":841,"▁ম্যা":842,"র্ব":843,"▁তারা":844,"▁আগে":845,"▁অভিযোগ":846,"▁সভাপতি":847,"om":848,"তিক":849,"▁কর্ত":850,"▁পরে":851,"মেইল":852,"▁2018":853,"▁বিভিন্ন":854,"কর্ত":855,"ভার":856,"▁ব্র":857,"▁নতুন":858,"▁হাজ":859,"▁তথ":860,"ক্তি":861,"▁হিসেবে":862,"পাত":863,"▁কেন":864,"▁তিন":865,"▁ফে":866,"এম":867,"▁1":868,"▁পড়":869,"▁বছর":870,"দে":871,"ধি":872,"য়ো":873,"▁পুর":874,"▁পূর্":875,"▁মূল":876,"▁ওই":877,"াস্ত":878,"▁উপজেলা":879,"▁সনদ":880,"-১":881,"বল":882,"িউ":883,"▁«":884,"▁হত্যা":885,"▁করুন":886,"▁তাই":887,"কারী":888,"▁জানিয়ে":889,"▁বিষয়":890,"▁যৌনক":891,"-এ":892,"দার":893,"▁টি":894,"▁ছে":895,"▁ক্র":896,"▁পারে":897,"▁কাছে":898,"▁কর্মকর্ত":899,"▁প্রতিনি":900,"▁কর্তৃ":901,"--":902,"re":903,"কি":904,"শ্":905,"োল":906,"োষ":907,"▁৮":908,"▁নৌ":909,"বাহ":910,"▁করেছেন":911,"েশন":912,"▁পরিচাল":913,"▁হোসেন":914,"▁যৌনকর্ম":915,"সের":916,"ুট":917,"োক":918,"▁স্বা":919,"▁এম":920,"▁দিতে":921,"▁জীব":922,"ছে,":923,"▁থাকে":924,"বারের":925,"▁লি":926,"▁মোবা":927,"্যান্ড":928,"▁অর্থ":929,"▁আদাল":930,"গত":931,"স্":932,"▁...\n":933,"▁এন্ড":934,"▁বিএন":935,"▁যদি":936,"▁শিক্ষ":937,"▁ওয়ে":938,"বিদ":939,"▁সংবাদ":940,"▁ধরে":941,"▁সাধারণ":942,"▁অনুষ্ঠ":943,"▁এসে":944,"্দ্র":945,"▁প্রদান":946,"▁তথ্য":947,"ত্য":948,"ল্প":949,"ুত":950,"▁।":951,"▁ঐ":952,"▁আবেদন":953,"▁উন্ন":954,"▁অনুম":955,"মাণ":956,"▁সদস্য":957,"com":958,"চনা":959,"যুক্ত":960,"▁»":961,"▁হা":962,"▁হচ্ছে":963,"▁সম্ম":964,"▁ই-":965,"▁জানা":966,"▁কারণে":967,"ূর্ণ":968,"▁মোবাইল":969,"at":970,"ক,":971,"ম্প":972,"রুল":973,"▁ঠ":974,"ারের":975,"▁কয়ে":976,"▁বিমান":977,"াকার":978,"▁পর্যন্ত":979,"▁খুব":980,"▁পাঠ":981,"ুদ্ধে":982,"▁শেখ":983,"ov":984,"ন,":985,"শন":986,"▁বড়":987,"▁হাম":988,"▁তৈ":989,"▁অফ":990,"▁ছাড়া":991,"ত্রে":992,"▁তাঁর":993,"▁ই-মেইল":994,"▁কয়েক":995,"do":996,"ঁচ":997,"শাহ":998,"হন":999,"ীল":1000,"▁০১":1001,"▁আবার":1002,"▁দী":1003,"▁নিহত":1004,"▁করে।":1005,"▁লক্ষ":1006,"স্থা":1007,"▁2017":1008,"▁গ্রে":1009,"▁লাখ":1010,"en":1011,"ছি":1012,"বায়":1013}