{"version": "1.0", "truncation": null, "padding": null, "added_tokens": [{"id": 0, "content": "<s>", "single_word": false, "lstrip": false, "rstrip": false, "normalized": false, "special": true}, {"id": 1, "content": "</s>", "single_word": false, "lstrip": false, "rstrip": false, "normalized": false, "special": true}, {"id": 2, "content": "<unk>", "single_word": false, "lstrip": false, "rstrip": false, "normalized": false, "special": true}, {"id": 3, "content": "<pad>", "single_word": false, "lstrip": false, "rstrip": false, "normalized": false, "special": true}, {"id": 4, "content": "<mask>", "single_word": false, "lstrip": false, "rstrip": false, "normalized": false, "special": true}, {"id": 25198, "content": "\u0995\u09cd\u0995", "single_word": false, "lstrip": false, "rstrip": false, "normalized": true, "special": false}, {"id": 25199, "content": "\u0995\u09cd\u09a4\u09cd\u09b0", "single_word": false, "lstrip": false, "rstrip": false, "normalized": true, "special": false}, {"id": 25200, "content": "\u0995\u09cd\u09a8", "single_word": false, "lstrip": false, "rstrip": false, "normalized": true, "special": false}, {"id": 25201, "content": "\u0995\u09cd\u09ac", "single_word": false, "lstrip": false, "rstrip": false, "normalized": true, "special": false}, {"id": 25202, "content": "\u0995\u09cd\u09ae", "single_word": false, "lstrip": false, "rstrip": false, "normalized": true, "special": false}, {"id": 25203, "content": "\u0995\u09cd\u09b2", "single_word": false, "lstrip": false, "rstrip": false, "normalized": true, "special": false}, {"id": 25204, "content": "\u0995\u09cd\u09b7\u09cd\u09a3", "single_word": false, "lstrip": false, "rstrip": false, "normalized": true, "special": false}, {"id": 25205, "content": "\u0995\u09cd\u09b7\u09cd\u09ac", "single_word": false, "lstrip": false, "rstrip": false, "normalized": true, "special": false}, {"id": 25206, "content": "\u0995\u09cd\u09b7\u09cd\u09ae\u09cd\u09af", "single_word": false, "lstrip": false, "rstrip": false, "normalized": true, "special": false}, {"id": 25207, "content": "\u0995\u09cd\u09b7\u09cd\u09af", "single_word": false, "lstrip": false, "rstrip": false, "normalized": true, "special": false}, {"id": 25208, "content": "\u0996\u09cd\u09b0", "single_word": false, "lstrip": false, "rstrip": false, "normalized": true, "special": false}, {"id": 25209, "content": "\u0997\u09cd\u200c\u09a3", "single_word": false, "lstrip": false, "rstrip": false, "normalized": true, "special": false}, {"id": 25210, "content": "\u0997\u09cd\u09a7\u09cd\u09af", "single_word": false, "lstrip": false, "rstrip": false, "normalized": true, "special": false}, {"id": 25211, "content": "\u0997\u09cd\u09a7\u09cd\u09b0", "single_word": false, "lstrip": false, "rstrip": false, "normalized": true, "special": false}, {"id": 25212, "content": "\u0997\u09cd\u09a8\u09cd\u09af", "single_word": false, "lstrip": false, "rstrip": false, "normalized": true, "special": false}, {"id": 25213, "content": "\u0997\u09cd\u09ac", "single_word": false, "lstrip": false, "rstrip": false, "normalized": true, "special": false}, {"id": 25214, "content": "\u0997\u09cd\u09ae", "single_word": false, "lstrip": false, "rstrip": false, "normalized": true, "special": false}, {"id": 25215, "content": "\u0997\u09cd\u09af", "single_word": false, "lstrip": false, "rstrip": false, "normalized": true, "special": false}, {"id": 25216, "content": "\u0997\u09cd\u09b0\u09cd\u09af", "single_word": false, "lstrip": false, "rstrip": false, "normalized": true, "special": false}, {"id": 25217, "content": "\u0997\u09cd\u09b2", "single_word": false, "lstrip": false, "rstrip": false, "normalized": true, "special": false}, {"id": 25218, "content": "\u0998\u09cd\u09a8", "single_word": false, "lstrip": false, "rstrip": false, "normalized": true, "special": false}, {"id": 25219, "content": "\u0999\u09cd\u200c\u0995\u09cd\u09a4", "single_word": false, "lstrip": false, "rstrip": false, "normalized": true, "special": false}, {"id": 25220, "content": "\u0999\u09cd\u0995\u09cd\u09af", "single_word": false, "lstrip": false, "rstrip": false, "normalized": true, "special": false}, {"id": 25221, "content": "\u0999\u09cd\u0995\u09cd\u09b7", "single_word": false, "lstrip": false, "rstrip": false, "normalized": true, "special": false}, {"id": 25222, "content": "\u0999\u09cd\u0996", "single_word": false, "lstrip": false, "rstrip": false, "normalized": true, "special": false}, {"id": 25223, "content": "\u0999\u09cd\u0996\u09cd\u09af", "single_word": false, "lstrip": false, "rstrip": false, "normalized": true, "special": false}, {"id": 25224, "content": "\u0999\u09cd\u0997\u09cd\u09af", "single_word": false, "lstrip": false, "rstrip": false, "normalized": true, "special": false}, {"id": 25225, "content": "\u0999\u09cd\u0998", "single_word": false, "lstrip": false, "rstrip": false, "normalized": true, "special": false}, {"id": 25226, "content": "\u0999\u09cd\u0998\u09cd\u09af", "single_word": false, "lstrip": false, "rstrip": false, "normalized": true, "special": false}, {"id": 25227, "content": "\u0999\u09cd\u0998\u09cd\u09b0", "single_word": false, "lstrip": false, "rstrip": false, "normalized": true, "special": false}, {"id": 25228, "content": "\u0999\u09cd\u09ae", "single_word": false, "lstrip": false, "rstrip": false, "normalized": true, "special": false}, {"id": 25229, "content": "\u099a\u09cd\u099b", "single_word": false, "lstrip": false, "rstrip": false, "normalized": true, "special": false}, {"id": 25230, "content": "\u099a\u09cd\u099b\u09cd\u09ac", "single_word": false, "lstrip": false, "rstrip": false, "normalized": true, "special": false}, {"id": 25231, "content": "\u099a\u09cd\u099b\u09cd\u09b0", "single_word": false, "lstrip": false, "rstrip": false, "normalized": true, "special": false}, {"id": 25232, "content": "\u099a\u09cd\u099e", "single_word": false, "lstrip": false, "rstrip": false, "normalized": true, "special": false}, {"id": 25233, "content": "\u099a\u09cd\u09ac", "single_word": false, "lstrip": false, "rstrip": false, "normalized": true, "special": false}, {"id": 25234, "content": "\u099a\u09cd\u09af", "single_word": false, "lstrip": false, "rstrip": false, "normalized": true, "special": false}, {"id": 25235, "content": "\u099c\u09cd\u099c", "single_word": false, "lstrip": false, "rstrip": false, "normalized": true, "special": false}, {"id": 25236, "content": "\u099c\u09cd\u099c\u09cd\u09ac", "single_word": false, "lstrip": false, "rstrip": false, "normalized": true, "special": false}, {"id": 25237, "content": "\u099c\u09cd\u099d", "single_word": false, "lstrip": false, "rstrip": false, "normalized": true, "special": false}, {"id": 25238, "content": "\u099c\u09cd\u09b0", "single_word": false, "lstrip": false, "rstrip": false, "normalized": true, "special": false}, {"id": 25239, "content": "\u099e\u09cd\u099b", "single_word": false, "lstrip": false, "rstrip": false, "normalized": true, "special": false}, {"id": 25240, "content": "\u099e\u09cd\u099d", "single_word": false, "lstrip": false, "rstrip": false, "normalized": true, "special": false}, {"id": 25241, "content": "\u099f\u09cd\u09ac", "single_word": false, "lstrip": false, "rstrip": false, "normalized": true, "special": false}, {"id": 25242, "content": "\u099f\u09cd\u09ae", "single_word": false, "lstrip": false, "rstrip": false, "normalized": true, "special": false}, {"id": 25243, "content": "\u099f\u09cd\u09af", "single_word": false, "lstrip": false, "rstrip": false, "normalized": true, "special": false}, {"id": 25244, "content": "\u09a1\u09cd\u09ac", "single_word": false, "lstrip": false, "rstrip": false, "normalized": true, "special": false}, {"id": 25245, "content": "\u09a1\u09cd\u09ae", "single_word": false, "lstrip": false, "rstrip": false, "normalized": true, "special": false}, {"id": 25246, "content": "\u09a1\u09cd\u09af", "single_word": false, "lstrip": false, "rstrip": false, "normalized": true, "special": false}, {"id": 25247, "content": "\u09a1\u09bc\u09cd\u0997", "single_word": false, "lstrip": false, "rstrip": false, "normalized": true, "special": false}, {"id": 25248, "content": "\u09a2\u09cd\u09b0", "single_word": false, "lstrip": false, "rstrip": false, "normalized": true, "special": false}, {"id": 25249, "content": "\u09a3\u09cd\u099f", "single_word": false, "lstrip": false, "rstrip": false, "normalized": true, "special": false}, {"id": 25250, "content": "\u09a3\u09cd\u09a0", "single_word": false, "lstrip": false, "rstrip": false, "normalized": true, "special": false}, {"id": 25251, "content": "\u09a3\u09cd\u09a0\u09cd\u09af", "single_word": false, "lstrip": false, "rstrip": false, "normalized": true, "special": false}, {"id": 25252, "content": "\u09a3\u09cd\u09a1\u09cd\u09af", "single_word": false, "lstrip": false, "rstrip": false, "normalized": true, "special": false}, {"id": 25253, "content": "\u09a3\u09cd\u09a1\u09cd\u09b0", "single_word": false, "lstrip": false, "rstrip": false, "normalized": true, "special": false}, {"id": 25254, "content": "\u09a3\u09cd\u09a2", "single_word": false, "lstrip": false, "rstrip": false, "normalized": true, "special": false}, {"id": 25255, "content": "\u09a3\u09cd\u09a3", "single_word": false, "lstrip": false, "rstrip": false, "normalized": true, "special": false}, {"id": 25256, "content": "\u09a3\u09cd\u09ac", "single_word": false, "lstrip": false, "rstrip": false, "normalized": true, "special": false}, {"id": 25257, "content": "\u09a3\u09cd\u09ae", "single_word": false, "lstrip": false, "rstrip": false, "normalized": true, "special": false}, {"id": 25258, "content": "\u09a4\u09cd\u09a4\u09cd\u09b0", "single_word": false, "lstrip": false, "rstrip": false, "normalized": true, "special": false}, {"id": 25259, "content": "\u09a4\u09cd\u09a4\u09cd\u09af", "single_word": false, "lstrip": false, "rstrip": false, "normalized": true, "special": false}, {"id": 25260, "content": "\u09a4\u09cd\u09a5", "single_word": false, "lstrip": false, "rstrip": false, "normalized": true, "special": false}, {"id": 25261, "content": "\u09a4\u09cd\u09ae\u09cd\u09af", "single_word": false, "lstrip": false, "rstrip": false, "normalized": true, "special": false}, {"id": 25262, "content": "\u09a4\u09cd\u09b0\u09cd\u09af", "single_word": false, "lstrip": false, "rstrip": false, "normalized": true, "special": false}, {"id": 25263, "content": "\u09a5\u09cd\u09ac", "single_word": false, "lstrip": false, "rstrip": false, "normalized": true, "special": false}, {"id": 25264, "content": "\u09a5\u09cd\u09af", "single_word": false, "lstrip": false, "rstrip": false, "normalized": true, "special": false}, {"id": 25265, "content": "\u09a6\u09cd\u0997", "single_word": false, "lstrip": false, "rstrip": false, "normalized": true, "special": false}, {"id": 25266, "content": "\u09a6\u09cd\u0998", "single_word": false, "lstrip": false, "rstrip": false, "normalized": true, "special": false}, {"id": 25267, "content": "\u09a6\u09cd\u09a6\u09cd\u09ac", "single_word": false, "lstrip": false, "rstrip": false, "normalized": true, "special": false}, {"id": 25268, "content": "\u09a6\u09cd\u09ad", "single_word": false, "lstrip": false, "rstrip": false, "normalized": true, "special": false}, {"id": 25269, "content": "\u09a6\u09cd\u09ad\u09cd\u09b0", "single_word": false, "lstrip": false, "rstrip": false, "normalized": true, "special": false}, {"id": 25270, "content": "\u09a6\u09cd\u09ae", "single_word": false, "lstrip": false, "rstrip": false, "normalized": true, "special": false}, {"id": 25271, "content": "\u09a6\u09cd\u09b0\u09cd\u09af", "single_word": false, "lstrip": false, "rstrip": false, "normalized": true, "special": false}, {"id": 25272, "content": "\u09a7\u09cd\u09a8", "single_word": false, "lstrip": false, "rstrip": false, "normalized": true, "special": false}, {"id": 25273, "content": "\u09a7\u09cd\u09ae", "single_word": false, "lstrip": false, "rstrip": false, "normalized": true, "special": false}, {"id": 25274, "content": "\u09a7\u09cd\u09b0", "single_word": false, "lstrip": false, "rstrip": false, "normalized": true, "special": false}, {"id": 25275, "content": "\u09a8\u09cd\u099f\u09cd\u09b0", "single_word": false, "lstrip": false, "rstrip": false, "normalized": true, "special": false}, {"id": 25276, "content": "\u09a8\u09cd\u09a0", "single_word": false, "lstrip": false, "rstrip": false, "normalized": true, "special": false}, {"id": 25277, "content": "\u09a8\u09cd\u09a1\u09cd\u09b0", "single_word": false, "lstrip": false, "rstrip": false, "normalized": true, "special": false}, {"id": 25278, "content": "\u09a8\u09cd\u09a4\u09cd\u09ac", "single_word": false, "lstrip": false, "rstrip": false, "normalized": true, "special": false}, {"id": 25279, "content": "\u09a8\u09cd\u09a4\u09cd\u09af", "single_word": false, "lstrip": false, "rstrip": false, "normalized": true, "special": false}, {"id": 25280, "content": "\u09a8\u09cd\u09a4\u09cd\u09b0\u09cd\u09af", "single_word": false, "lstrip": false, "rstrip": false, "normalized": true, "special": false}, {"id": 25281, "content": "\u09a8\u09cd\u09a5", "single_word": false, "lstrip": false, "rstrip": false, "normalized": true, "special": false}, {"id": 25282, "content": "\u09a8\u09cd\u09a5\u09cd\u09b0", "single_word": false, "lstrip": false, "rstrip": false, "normalized": true, "special": false}, {"id": 25283, "content": "\u09a8\u09cd\u09a6\u09cd\u09ac", "single_word": false, "lstrip": false, "rstrip": false, "normalized": true, "special": false}, {"id": 25284, "content": "\u09a8\u09cd\u09a7\u09cd\u09af", "single_word": false, "lstrip": false, "rstrip": false, "normalized": true, "special": false}, {"id": 25285, "content": "\u09a8\u09cd\u09a7\u09cd\u09b0", "single_word": false, "lstrip": false, "rstrip": false, "normalized": true, "special": false}, {"id": 25286, "content": "\u09a8\u09cd\u09ac", "single_word": false, "lstrip": false, "rstrip": false, "normalized": true, "special": false}, {"id": 25287, "content": "\u09a8\u09cd\u09ae", "single_word": false, "lstrip": false, "rstrip": false, "normalized": true, "special": false}, {"id": 25288, "content": "\u09aa\u09cd\u099f", "single_word": false, "lstrip": false, "rstrip": false, "normalized": true, "special": false}, {"id": 25289, "content": "\u09aa\u09cd\u09a8", "single_word": false, "lstrip": false, "rstrip": false, "normalized": true, "special": false}, {"id": 25290, "content": "\u09aa\u09cd\u09b0\u09cd\u09af", "single_word": false, "lstrip": false, "rstrip": false, "normalized": true, "special": false}, {"id": 25291, "content": "\u09aa\u09cd\u09b8", "single_word": false, "lstrip": false, "rstrip": false, "normalized": true, "special": false}, {"id": 25292, "content": "\u09ab\u09cd\u09b2", "single_word": false, "lstrip": false, "rstrip": false, "normalized": true, "special": false}, {"id": 25293, "content": "\u09ac\u09cd\u099c", "single_word": false, "lstrip": false, "rstrip": false, "normalized": true, "special": false}, {"id": 25294, "content": "\u09ad\u09cd\u09ac", "single_word": false, "lstrip": false, "rstrip": false, "normalized": true, "special": false}, {"id": 25295, "content": "\u09ad\u09cd\u09b2", "single_word": false, "lstrip": false, "rstrip": false, "normalized": true, "special": false}, {"id": 25296, "content": "\u09ae\u09cd\u09a8", "single_word": false, "lstrip": false, "rstrip": false, "normalized": true, "special": false}, {"id": 25297, "content": "\u09ae\u09cd\u09aa\u09cd\u09b0", "single_word": false, "lstrip": false, "rstrip": false, "normalized": true, "special": false}, {"id": 25298, "content": "\u09ae\u09cd\u09ab", "single_word": false, "lstrip": false, "rstrip": false, "normalized": true, "special": false}, {"id": 25299, "content": "\u09ae\u09cd\u09ac\u09cd\u09b0", "single_word": false, "lstrip": false, "rstrip": false, "normalized": true, "special": false}, {"id": 25300, "content": "\u09ae\u09cd\u09ad\u09cd\u09b0", "single_word": false, "lstrip": false, "rstrip": false, "normalized": true, "special": false}, {"id": 25301, "content": "\u09ae\u09cd\u09ae", "single_word": false, "lstrip": false, "rstrip": false, "normalized": true, "special": false}, {"id": 25302, "content": "\u09ae\u09cd\u09b0", "single_word": false, "lstrip": false, "rstrip": false, "normalized": true, "special": false}, {"id": 25303, "content": "\u09ae\u09cd\u09b2", "single_word": false, "lstrip": false, "rstrip": false, "normalized": true, "special": false}, {"id": 25304, "content": "\u09b0\u09cd\u0995\u09cd\u09af", "single_word": false, "lstrip": false, "rstrip": false, "normalized": true, "special": false}, {"id": 25305, "content": "\u09b0\u09cd\u0997", "single_word": false, "lstrip": false, "rstrip": false, "normalized": true, "special": false}, {"id": 25306, "content": "\u09b0\u09cd\u0997\u09cd\u09af", "single_word": false, "lstrip": false, "rstrip": false, "normalized": true, "special": false}, {"id": 25307, "content": "\u09b0\u09cd\u0999\u09cd\u0997", "single_word": false, "lstrip": false, "rstrip": false, "normalized": true, "special": false}, {"id": 25308, "content": "\u09b0\u09cd\u099a\u09cd\u09af", "single_word": false, "lstrip": false, "rstrip": false, "normalized": true, "special": false}, {"id": 25309, "content": "\u09b0\u09cd\u099c\u09cd\u09af", "single_word": false, "lstrip": false, "rstrip": false, "normalized": true, "special": false}, {"id": 25310, "content": "\u09b0\u09cd\u099c\u09cd\u099c", "single_word": false, "lstrip": false, "rstrip": false, "normalized": true, "special": false}, {"id": 25311, "content": "\u09b0\u09cd\u099c\u09cd\u099e", "single_word": false, "lstrip": false, "rstrip": false, "normalized": true, "special": false}, {"id": 25312, "content": "\u09b0\u09cd\u09a3\u09cd\u09af", "single_word": false, "lstrip": false, "rstrip": false, "normalized": true, "special": false}, {"id": 25313, "content": "\u09b0\u09cd\u09a4\u09cd\u09af", "single_word": false, "lstrip": false, "rstrip": false, "normalized": true, "special": false}, {"id": 25314, "content": "\u09b0\u09cd\u09a5\u09cd\u09af", "single_word": false, "lstrip": false, "rstrip": false, "normalized": true, "special": false}, {"id": 25315, "content": "\u09b0\u09cd\u09ac\u09cd\u09af", "single_word": false, "lstrip": false, "rstrip": false, "normalized": true, "special": false}, {"id": 25316, "content": "\u09b0\u09cd\u09ae\u09cd\u09af", "single_word": false, "lstrip": false, "rstrip": false, "normalized": true, "special": false}, {"id": 25317, "content": "\u09b0\u09cd\u09b6\u09cd\u09af", "single_word": false, "lstrip": false, "rstrip": false, "normalized": true, "special": false}, {"id": 25318, "content": "\u09b0\u09cd\u09b7\u09cd\u09af", "single_word": false, "lstrip": false, "rstrip": false, "normalized": true, "special": false}, {"id": 25319, "content": "\u09b0\u09cd\u09b9\u09cd\u09af", "single_word": false, "lstrip": false, "rstrip": false, "normalized": true, "special": false}, {"id": 25320, "content": "\u09b0\u09cd\u0996", "single_word": false, "lstrip": false, "rstrip": false, "normalized": true, "special": false}, {"id": 25321, "content": "\u09b0\u09cd\u0997\u09cd\u09b0", "single_word": false, "lstrip": false, "rstrip": false, "normalized": true, "special": false}, {"id": 25322, "content": "\u09b0\u09cd\u099a", "single_word": false, "lstrip": false, "rstrip": false, "normalized": true, "special": false}, {"id": 25323, "content": "\u09b0\u09cd\u099b", "single_word": false, "lstrip": false, "rstrip": false, "normalized": true, "special": false}, {"id": 25324, "content": "\u09b0\u09cd\u099c", "single_word": false, "lstrip": false, "rstrip": false, "normalized": true, "special": false}, {"id": 25325, "content": "\u09b0\u09cd\u099d", "single_word": false, "lstrip": false, "rstrip": false, "normalized": true, "special": false}, {"id": 25326, "content": "\u09b0\u09cd\u099f", "single_word": false, "lstrip": false, "rstrip": false, "normalized": true, "special": false}, {"id": 25327, "content": "\u09b0\u09cd\u09a1", "single_word": false, "lstrip": false, "rstrip": false, "normalized": true, "special": false}, {"id": 25328, "content": "\u09b0\u09cd\u09ce", "single_word": false, "lstrip": false, "rstrip": false, "normalized": true, "special": false}, {"id": 25329, "content": "\u09b0\u09cd\u09a4\u09cd\u09ae", "single_word": false, "lstrip": false, "rstrip": false, "normalized": true, "special": false}, {"id": 25330, "content": "\u09b0\u09cd\u09a4\u09cd\u09b0", "single_word": false, "lstrip": false, "rstrip": false, "normalized": true, "special": false}, {"id": 25331, "content": "\u09b0\u09cd\u09a6", "single_word": false, "lstrip": false, "rstrip": false, "normalized": true, "special": false}, {"id": 25332, "content": "\u09b0\u09cd\u09a6\u09cd\u09ac", "single_word": false, "lstrip": false, "rstrip": false, "normalized": true, "special": false}, {"id": 25333, "content": "\u09b0\u09cd\u09a6\u09cd\u09b0", "single_word": false, "lstrip": false, "rstrip": false, "normalized": true, "special": false}, {"id": 25334, "content": "\u09b0\u09cd\u09a7", "single_word": false, "lstrip": false, "rstrip": false, "normalized": true, "special": false}, {"id": 25335, "content": "\u09b0\u09cd\u09a8", "single_word": false, "lstrip": false, "rstrip": false, "normalized": true, "special": false}, {"id": 25336, "content": "\u09b0\u09cd\u09aa", "single_word": false, "lstrip": false, "rstrip": false, "normalized": true, "special": false}, {"id": 25337, "content": "\u09b0\u09cd\u09ab", "single_word": false, "lstrip": false, "rstrip": false, "normalized": true, "special": false}, {"id": 25338, "content": "\u09b0\u09cd\u09ac", "single_word": false, "lstrip": false, "rstrip": false, "normalized": true, "special": false}, {"id": 25339, "content": "\u09b0\u09cd\u09ad", "single_word": false, "lstrip": false, "rstrip": false, "normalized": true, "special": false}, {"id": 25340, "content": "\u09b0\u09cd\u09ae", "single_word": false, "lstrip": false, "rstrip": false, "normalized": true, "special": false}, {"id": 25341, "content": "\u09b0\u09cd\u09af", "single_word": false, "lstrip": false, "rstrip": false, "normalized": true, "special": false}, {"id": 25342, "content": "\u09b0\u09cd\u09b2", "single_word": false, "lstrip": false, "rstrip": false, "normalized": true, "special": false}, {"id": 25343, "content": "\u09b0\u09cd\u09b6\u09cd\u09ac", "single_word": false, "lstrip": false, "rstrip": false, "normalized": true, "special": false}, {"id": 25344, "content": "\u09b0\u09cd\u09b7\u09cd\u099f", "single_word": false, "lstrip": false, "rstrip": false, "normalized": true, "special": false}, {"id": 25345, "content": "\u09b0\u09cd\u09b7\u09cd\u09a3", "single_word": false, "lstrip": false, "rstrip": false, "normalized": true, "special": false}, {"id": 25346, "content": "\u09b0\u09cd\u09b7\u09cd\u09a3\u09cd\u09af", "single_word": false, "lstrip": false, "rstrip": false, "normalized": true, "special": false}, {"id": 25347, "content": "\u09b0\u09cd\u09b9", "single_word": false, "lstrip": false, "rstrip": false, "normalized": true, "special": false}, {"id": 25348, "content": "\u09b0\u09cd\u09a2\u09cd\u09af", "single_word": false, "lstrip": false, "rstrip": false, "normalized": true, "special": false}, {"id": 25349, "content": "\u09b2\u09cd\u0995", "single_word": false, "lstrip": false, "rstrip": false, "normalized": true, "special": false}, {"id": 25350, "content": "\u09b2\u09cd\u0995\u09cd\u09af", "single_word": false, "lstrip": false, "rstrip": false, "normalized": true, "special": false}, {"id": 25351, "content": "\u09b2\u09cd\u0997", "single_word": false, "lstrip": false, "rstrip": false, "normalized": true, "special": false}, {"id": 25352, "content": "\u09b2\u09cd\u09ab", "single_word": false, "lstrip": false, "rstrip": false, "normalized": true, "special": false}, {"id": 25353, "content": "\u09b2\u09cd\u09ac", "single_word": false, "lstrip": false, "rstrip": false, "normalized": true, "special": false}, {"id": 25354, "content": "\u09b2\u09cd\u09ad", "single_word": false, "lstrip": false, "rstrip": false, "normalized": true, "special": false}, {"id": 25355, "content": "\u09b2\u09cd\u09ae", "single_word": false, "lstrip": false, "rstrip": false, "normalized": true, "special": false}, {"id": 25356, "content": "\u09b2\u09cd\u09af", "single_word": false, "lstrip": false, "rstrip": false, "normalized": true, "special": false}, {"id": 25357, "content": "\u09b2\u09cd\u09b2", "single_word": false, "lstrip": false, "rstrip": false, "normalized": true, "special": false}, {"id": 25358, "content": "\u09b6\u09cd\u099a", "single_word": false, "lstrip": false, "rstrip": false, "normalized": true, "special": false}, {"id": 25359, "content": "\u09b6\u09cd\u099b", "single_word": false, "lstrip": false, "rstrip": false, "normalized": true, "special": false}, {"id": 25360, "content": "\u09b6\u09cd\u09a8", "single_word": false, "lstrip": false, "rstrip": false, "normalized": true, "special": false}, {"id": 25361, "content": "\u09b6\u09cd\u09ae", "single_word": false, "lstrip": false, "rstrip": false, "normalized": true, "special": false}, {"id": 25362, "content": "\u09b6\u09cd\u09b2", "single_word": false, "lstrip": false, "rstrip": false, "normalized": true, "special": false}, {"id": 25363, "content": "\u09b7\u09cd\u0995\u09cd\u09ac", "single_word": false, "lstrip": false, "rstrip": false, "normalized": true, "special": false}, {"id": 25364, "content": "\u09b7\u09cd\u0995\u09cd\u09b0", "single_word": false, "lstrip": false, "rstrip": false, "normalized": true, "special": false}, {"id": 25365, "content": "\u09b7\u09cd\u099f\u09cd\u09af", "single_word": false, "lstrip": false, "rstrip": false, "normalized": true, "special": false}, {"id": 25366, "content": "\u09b7\u09cd\u09a0\u09cd\u09af", "single_word": false, "lstrip": false, "rstrip": false, "normalized": true, "special": false}, {"id": 25367, "content": "\u09b7\u09cd\u09a3\u09cd\u09ac", "single_word": false, "lstrip": false, "rstrip": false, "normalized": true, "special": false}, {"id": 25368, "content": "\u09b7\u09cd\u09aa\u09cd\u09b0", "single_word": false, "lstrip": false, "rstrip": false, "normalized": true, "special": false}, {"id": 25369, "content": "\u09b7\u09cd\u09ab", "single_word": false, "lstrip": false, "rstrip": false, "normalized": true, "special": false}, {"id": 25370, "content": "\u09b7\u09cd\u09ac", "single_word": false, "lstrip": false, "rstrip": false, "normalized": true, "special": false}, {"id": 25371, "content": "\u09b7\u09cd\u09ae", "single_word": false, "lstrip": false, "rstrip": false, "normalized": true, "special": false}, {"id": 25372, "content": "\u09b8\u09cd\u0995\u09cd\u09b0", "single_word": false, "lstrip": false, "rstrip": false, "normalized": true, "special": false}, {"id": 25373, "content": "\u09b8\u09cd\u0996", "single_word": false, "lstrip": false, "rstrip": false, "normalized": true, "special": false}, {"id": 25374, "content": "\u09b8\u09cd\u09a4\u09cd\u09ac", "single_word": false, "lstrip": false, "rstrip": false, "normalized": true, "special": false}, {"id": 25375, "content": "\u09b8\u09cd\u09a4\u09cd\u09af", "single_word": false, "lstrip": false, "rstrip": false, "normalized": true, "special": false}, {"id": 25376, "content": "\u09b8\u09cd\u09a5\u09cd\u09af", "single_word": false, "lstrip": false, "rstrip": false, "normalized": true, "special": false}, {"id": 25377, "content": "\u09b8\u09cd\u09a8", "single_word": false, "lstrip": false, "rstrip": false, "normalized": true, "special": false}, {"id": 25378, "content": "\u09b8\u09cd\u09a8\u09cd\u09af", "single_word": false, "lstrip": false, "rstrip": false, "normalized": true, "special": false}, {"id": 25379, "content": "\u09b8\u09cd\u09aa\u09cd\u09b0", "single_word": false, "lstrip": false, "rstrip": false, "normalized": true, "special": false}, {"id": 25380, "content": "\u09b8\u09cd\u09aa\u09cd\u200c\u09b2", "single_word": false, "lstrip": false, "rstrip": false, "normalized": true, "special": false}, {"id": 25381, "content": "\u09b8\u09cd\u09ab", "single_word": false, "lstrip": false, "rstrip": false, "normalized": true, "special": false}, {"id": 25382, "content": "\u09b8\u09cd\u09ae", "single_word": false, "lstrip": false, "rstrip": false, "normalized": true, "special": false}, {"id": 25383, "content": "\u09b8\u09cd\u09b2", "single_word": false, "lstrip": false, "rstrip": false, "normalized": true, "special": false}, {"id": 25384, "content": "\u09b9\u09cd\u09a3", "single_word": false, "lstrip": false, "rstrip": false, "normalized": true, "special": false}, {"id": 25385, "content": "\u09b9\u09cd\u09a8", "single_word": false, "lstrip": false, "rstrip": false, "normalized": true, "special": false}, {"id": 25386, "content": "\u09b9\u09cd\u09ac", "single_word": false, "lstrip": false, "rstrip": false, "normalized": true, "special": false}, {"id": 25387, "content": "\u09b9\u09cd\u09b2", "single_word": false, "lstrip": false, "rstrip": false, "normalized": true, "special": false}], "normalizer": null, "pre_tokenizer": {"type": "Whitespace"}, "post_processor": null, "decoder": null, "model": {"type": "BPE", "dropout": null, "unk_token": "<unk>", "continuing_subword_prefix": null, "end_of_word_suffix": null, "fuse_unk": false, "byte_fallback": false, "ignore_merges": false, "vocab": {"<s>": 0, "</s>": 1, "<unk>": 2, "<pad>": 3, "<mask>": 4, "!": 5, "\"": 6, "#": 7, "%": 8, "&": 9, "'": 10, "(": 11, ")": 12, "*": 13, "+": 14, ",": 15, "-": 16, ".": 17, "/": 18, "0": 19, "1": 20, "2": 21, "3": 22, "4": 23, "5": 24, "6": 25, "7": 26, "8": 27, "9": 28, ":": 29, ";": 30, "<": 31, "=": 32, ">": 33, "?": 34, "@": 35, "A": 36, "B": 37, "C": 38, "D": 39, "E": 40, "F": 41, "G": 42, "H": 43, "I": 44, "J": 45, "K": 46, "L": 47, "M": 48, "N": 49, "O": 50, "P": 51, "Q": 52, "R": 53, "S": 54, "T": 55, "U": 56, "V": 57, "W": 58, "X": 59, "Y": 60, "Z": 61, "[": 62, "\\": 63, "]": 64, "^": 65, "_": 66, "`": 67, "a": 68, "b": 69, "c": 70, "d": 71, "e": 72, "f": 73, "g": 74, "h": 75, "i": 76, "j": 77, "k": 78, "l": 79, "m": 80, "n": 81, "o": 82, "p": 83, "q": 84, "r": 85, "s": 86, "t": 87, "u": 88, "v": 89, "w": 90, "x": 91, "y": 92, "z": 93, "{": 94, "|": 95, "\u0095": 96, "\u00a6": 97, "\u00a9": 98, "\u00ab": 99, "\u00b7": 100, "\u00bb": 101, "\u00bf": 102, "\u00d1": 103, "\u00ed": 104, "\u00f3": 105, "\u00fa": 106, "\u0153": 107, "\u0178": 108, "\u0964": 109, "\u0965": 110, "\u0981": 111, "\u0982": 112, "\u0983": 113, "\u0985": 114, "\u0986": 115, "\u0987": 116, "\u0988": 117, "\u0989": 118, "\u098a": 119, "\u098b": 120, "\u098f": 121, "\u0990": 122, "\u0993": 123, "\u0994": 124, "\u0995": 125, "\u0996": 126, "\u0997": 127, "\u0998": 128, "\u0999": 129, "\u099a": 130, "\u099b": 131, "\u099c": 132, "\u099d": 133, "\u099e": 134, "\u099f": 135, "\u09a0": 136, "\u09a1": 137, "\u09a2": 138, "\u09a3": 139, "\u09a4": 140, "\u09a5": 141, "\u09a6": 142, "\u09a7": 143, "\u09a8": 144, "\u09aa": 145, "\u09ab": 146, "\u09ac": 147, "\u09ad": 148, "\u09ae": 149, "\u09af": 150, "\u09b0": 151, "\u09b2": 152, "\u09b6": 153, "\u09b7": 154, "\u09b8": 155, "\u09b9": 156, "\u09bc": 157, "\u09be": 158, "\u09bf": 159, "\u09c0": 160, "\u09c1": 161, "\u09c2": 162, "\u09c3": 163, "\u09c7": 164, "\u09c8": 165, "\u09cb": 166, "\u09cc": 167, "\u09cd": 168, "\u09ce": 169, "\u09d7": 170, "\u09dc": 171, "\u09dd": 172, "\u09df": 173, "\u09e6": 174, "\u09e7": 175, "\u09e8": 176, "\u09e9": 177, "\u09ea": 178, "\u09eb": 179, "\u09ec": 180, "\u09ed": 181, "\u09ee": 182, "\u09ef": 183, "\u09f3": 184, "\u09f7": 185, "\u200b": 186, "\u200c": 187, "\u200d": 188, "\u2013": 189, "\u2014": 190, "\u2018": 191, "\u2019": 192, "\u201c": 193, "\u201d": 194, "\u2022": 195, "\u2026": 196, "\u203a": 197, "\u20ac": 198, "\u2103": 199, "\u2192": 200, "\u24bb": 201, "\u260e": 202, "\u2611": 203, "\u262f": 204, "\u2663": 205, "\u2705": 206, "\u27a4": 207, "\uf06c": 208, "\ufe0f": 209, "\ufffd": 210, "\ud83d\udcac": 211, "\u09be\u09b0": 212, "\u09c7\u09b0": 213, "\u09cd\u09b0": 214, "\u09cd\u09af": 215, "\u09be\u09a8": 216, "\u0995\u09b0": 217, "\u09cd\u09a4": 218, "\u09ac\u09bf": 219, "\u09a8\u09bf": 220, "\u09ac\u09be": 221, "\u09c7\u09a8": 222, "\u0995\u09c7": 223, "\u09aa\u09cd\u09b0": 224, "\u09be\u09ae": 225, "\u09be\u09b2": 226, "\u09df\u09c7": 227, "\u09a4\u09c7": 228, "\u09b0\u09cd": 229, "\u09ac\u09c7": 230, "\u09a4\u09bf": 231, "\u099f\u09bf": 232, "\u0995\u09be": 233, "\u09b2\u09c7": 234, "\u09a8\u09be": 235, "\u09b8\u09cd": 236, "\u09b2\u09be": 237, "\u09b0\u09be": 238, "\u099b\u09c7": 239, "\u0995\u09cd": 240, "\u09a4\u09be": 241, "\u09aa\u09b0": 242, "\u09a6\u09bf": 243, "\u09a6\u09c7": 244, "\u09ae\u09be": 245, "\u09a8\u09c7": 246, "\u09a8\u09cd": 247, "\u09cd\u09af\u09be": 248, "\u09a6\u09c7\u09b0": 249, "\u09be\u09df": 250, "\u0995\u09be\u09b0": 251, "\u09c1\u09b0": 252, "\u09ae\u09bf": 253, "\u0995\u09cd\u09b7": 254, "\u09c1\u09b2": 255, "\u09b8\u09ae": 256, "\u09aa\u09be": 257, "\u09b8\u09bf": 258, "\u09ad\u09be": 259, "\u09b8\u09c7": 260, "\u099c\u09a8": 261, "\u09b8\u09be": 262, "\u0995\u09b0\u09c7": 263, "\u0995\u09bf": 264, "\u09af\u09bc": 265, "\u098f\u0995": 266, "\u09bf\u09a4": 267, "\u09df\u09be": 268, "\u099f\u09be": 269, "\u09cd\u09ac": 270, "\u09b9\u09be": 271, "\u09ae\u09c7": 272, "\u09a8\u09cd\u09a4": 273, "\u09be\u09b0\u09cd": 274, "\u09a5\u09be": 275, "\u0995\u09cb": 276, "\u09b7\u09cd": 277, "\u09a6\u09cd": 278, "\u09bf\u09b2": 279, "\u0997\u09c7": 280, "\u0999\u09cd": 281, "\u09b0\u09c7": 282, "\u09ac\u09be\u09b0": 283, "\u09a4\u09be\u09b0": 284, "\u09a5\u09c7": 285, "\u09a6\u09c7\u09b6": 286, "\u09ae\u09be\u09a8": 287, "\u09bf\u0995": 288, "\u09ac\u09cd\u09af": 289, "\u09df\u09be\u09b0": 290, "\u09b6\u09bf": 291, "\u09b8\u0982": 292, "\u099b\u09c7\u09a8": 293, "\u09a4\u09cd\u09b0": 294, "\u09aa\u09b0\u09bf": 295, "\u099c\u09c7": 296, "\u099c\u09bf": 297, "\u09ad\u09bf": 298, "\u09b2\u09bf": 299, "\u0995\u09cd\u09a4": 300, "\u09af\u09be": 301, "\u09ae\u09c1": 302, "\u09b9\u09df\u09c7": 303, "\u0997\u09cd\u09b0": 304, "\u09aa\u09bf": 305, "\u0985\u09a8": 306, "\u099f\u09c7": 307, "\u09b8\u09cd\u09a4": 308, "\u099c\u09be\u09a8": 309, "\u09aa\u09be\u09b0": 310, "\u09b0\u09bf": 311, "\u099c\u09be": 312, "\u09ac\u0982": 313, "\u09a6\u09c1": 314, "\u0995\u09b0\u09be": 315, "\u09a5\u09c7\u0995\u09c7": 316, "\u098f\u09ac\u0982": 317, "\u09cd\u09ae": 318, "\u098f\u0987": 319, "\u09a8\u09c7\u09b0": 320, "\u09cb\u0997": 321, "\u09aa\u09cd\u09b0\u09a4\u09bf": 322, "\u09a6\u09be": 323, "\u09c1\u09a8": 324, "\u09cd\u09aa": 325, "\u09ac\u09b2": 326, "\u0986\u09b0": 327, "\u09ae\u09cb": 328, "\u09b6\u09c7": 329, "\u09a8\u09bf\u09b0\u09cd": 330, "\u099b\u09bf\u09b2": 331, "\u099a\u09cd": 332, "\u09b9\u09bf": 333, "\u09a1\u09bf": 334, "\u09a7\u09cd\u09af": 335, "\u09c0\u09b0": 336, "\u09a6\u09cd\u09a7": 337, "\u09af\u09c7": 338, "\u099e\u09cd": 339, "\u099c\u09a8\u09cd\u09af": 340, "\u09e8\u09e6": 341, "\u09b6\u09be": 342, "\u09b8\u09cd\u09a5": 343, "\u09b8\u09c1": 344, "\u09aa\u09c1\u09b0": 345, "\u09a8\u09be\u09b0": 346, "\u09b9\u09df": 347, "\u098f\u09b0": 348, "\u0999\u09cd\u0997": 349, "\u0986\u09ae": 350, "\u09ac\u09b0": 351, "\u09cd\u09a1": 352, "\u0996\u09be": 353, "\u0996\u09c7": 354, "\u0995\u09cd\u09b0": 355, "\u0989\u09aa": 356, "01": 357, "\u09c0\u09df": 358, "\u09ad\u09be\u0997": 359, "\u099f\u09cd\u09b0": 360, "\u09b8\u09ac": 361, "\u09bf\u09df\u09c7": 362, "\u09af\u09cb\u0997": 363, "\u0995\u09b0\u09a4\u09c7": 364, "..": 365, "\u09a6\u09bf\u09a8": 366, "\u09b2\u09cb": 367, "\u09aa\u09c7": 368, "\u0995\u09cb\u09a8": 369, "\u099f\u09be\u09b0": 370, "\u09a8\u09be\u09ae": 371, "\u099a\u09c7": 372, "\u09b9\u09ac\u09c7": 373, "\u09bf\u09b0": 374, "\u099b\u09be": 375, "\u0995\u09b0\u09cd\u09ae": 376, "\u09ae\u09a8": 377, "201": 378, "\u09dc\u09be": 379, "\u0986\u09aa": 380, "\u0985\u09a8\u09c1": 381, "\u09c7\u09a8\u09cd": 382, "\u09b9\u09a4": 383, "\u0995\u09be\u09b2": 384, "\u09ac\u09b2\u09c7": 385, "\u09cd\u09af\u09be\u09a8": 386, "\u098f\u0995\u099f\u09bf": 387, "\u099a\u09be": 388, "\u09a6\u09cb": 389, "\u09b8\u09ae\u09cd": 390, "\u09a1\u09bc": 391, "\u09ac\u09bf\u09ad\u09be\u0997": 392, "\u09a8\u09cd\u09a4\u09cd\u09b0": 393, "\u09b9\u09df\u09c7\u099b\u09c7": 394, "\u09b9\u09be\u09b0": 395, "\u0997\u09be": 396, "\u09af\u09c1": 397, "\u09b0\u09c7\u09b0": 398, "\u09a4\u09cd\u09a4": 399, "\u099c\u09be\u09b0": 400, "\u09a6\u09cd\u09b0": 401, "\u09aa\u09cd\u09a4": 402, "\u09b8\u09b9": 403, "\u09ab\u09bf": 404, "\u09a7\u09be\u09a8": 405, "\u0993\u09df\u09be": 406, "\u09ae\u09a7\u09cd\u09af": 407, "\u09a8\u09bf\u09df\u09c7": 408, "\u0987\u09b2": 409, "\u09a8\u09bf\u09b0\u09cd\u09ac\u09be": 410, "\u09ad\u09be\u09b0": 411, "\u09be\u09ae\u09c0": 412, "\u09ac\u09cd\u09af\u09ac": 413, "\u09e8\u09e6\u09e7": 414, "\u0986\u09b8": 415, "\u09a6\u09bf\u09df\u09c7": 416, "\u09a8\u09cd\u09a8": 417, "\u09af\u09bc\u09c7": 418, "\u0996\u09a8": 419, "\u099a\u09bf": 420, "\u0986\u0987": 421, "\u0995\u09cd\u09b7\u09c7": 422, "\u09ad\u09c7": 423, "\u09b8\u09ae\u09df": 424, "\u09a7\u09be\u09b0": 425, "\u09b6\u09a8": 426, "\u0995\u09c7\u09b0": 427, "\u09b2\u09be\u09b0": 428, "\u09c3\u09a4": 429, "\u09a7\u09bf": 430, "\u09b6\u09c1": 431, "\u09b6\u09cd": 432, "\u09be\u09a8\u09cd\u09a4": 433, "\u09c1\u09b2\u09bf": 434, "\u09a4\u09bf\u09a8\u09bf": 435, "\u09b8\u09b0": 436, "\u0985\u09ac": 437, "\u099c\u09cd": 438, "\u09ae\u09a7\u09cd\u09af\u09c7": 439, "\u09b8\u09c7\u09b0": 440, "\u09cb\u09a8": 441, "\u09a4\u09cb": 442, "\u09be\u0995\u09be": 443, "\u09a8\u09bf\u09b0\u09cd\u09ac\u09be\u099a": 444, "\u099a\u09be\u09b2": 445, "\u09b2\u09be\u0987": 446, "\u0997\u09a4": 447, "\u09c0\u09a8": 448, "\u09cb\u09b0": 449, "\u09b7\u09cd\u09a0": 450, "\u09ae\u09cd\u09ac": 451, "\u09dc\u09c7": 452, "\u09be\u09a8\u09c7": 453, "\u09b6\u09c7\u09b7": 454, "\u09be\u09b2\u09c7": 455, "\u09aa\u09cd": 456, "\u09af\u09be\u09df": 457, "\u09b8\u09cd\u099f": 458, "\u0993\u09df": 459, "\u09b2\u09c0": 460, "\u099a\u09cd\u099b\u09c7": 461, "\u0985\u09ad\u09bf": 462, "\u09e6\u09e6": 463, "\u099c\u09c7\u09b2\u09be": 464, "\u0999\u09cd\u0997\u09c7": 465, "\u09b2\u09be\u09ae": 466, "\u09ac\u09c1": 467, "\u09ab\u09c7": 468, "\u09b0\u09cb": 469, "\u09ac\u09b2\u09c7\u09a8": 470, "\u0986\u09ae\u09be": 471, "\u09ac\u09cd\u09af\u09be": 472, "\u09b8\u09be\u09ae": 473, "\u099b\u09c1": 474, "\u09b8\u0999\u09cd\u0997\u09c7": 475, "\u09a8\u09cd\u09a7": 476, "\u09a2\u09be\u0995\u09be": 477, "\u09aa\u09c2": 478, "\u09ac\u09be\u09a6": 479, "\u099e\u09cd\u099c": 480, "\u09a6\u09b2": 481, "\u0997\u09cd\u09b0\u09be\u09ae": 482, "\u099a\u09be\u09b0": 483, "\u099a\u09b2": 484, "\u0986\u09ae\u09bf": 485, "\u0987\u09b8": 486, "\u0995\u09b2": 487, "\u09ad\u09be\u09ac\u09c7": 488, "\u0995\u09cd\u09a4\u09bf": 489, "\u09a1\u09c7": 490, "\u09aa\u09a4\u09bf": 491, "\u099b\u09bf": 492, "\u09ac\u099b": 493, "\u09cd\u09af\u09be\u09b2": 494, "\u09b0\u09c1": 495, "\u09ac\u09be\u09b8": 496, "\u099f\u09c7\u09b0": 497, "\u09b8\u09a6": 498, "\u09b0\u09be\u099c": 499, "\u09a8\u09cd\u09a6": 500, "\u09c1\u09b0\u09c1": 501, "\u0995\u09b0\u09cd\u09a4": 502, "\u0995\u09ae": 503, "\u09a8\u09c0": 504, "\u09be\u09a8\u09c7\u09b0": 505, "\u09a4\u09be\u09a6\u09c7\u09b0": 506, "\u09a4\u09c7\u09b0": 507, "\u09ab\u09be": 508, "\u09b6\u09cd\u09ac": 509, "\u09ac\u09bf\u09b7": 510, "\u09a8\u09bf\u09df": 511, "\u0995\u09b0\u09c7\u09a8": 512, "\u0986\u09b2": 513, "\u09dc\u09bf": 514, "\u09df\u09c7\u09b0": 515, "\u0986\u0997": 516, "\u09ac\u09c7\u09a8": 517, "\u09ae\u09cd\u09ac\u09b0": 518, "\u09c0\u09a6\u09c7\u09b0": 519, "\u099f\u09bf\u09b0": 520, "\u0995\u09be\u09b6": 521, "\u0985\u09a8\u09c7": 522, "\u09ae\u09be\u09ae": 523, "\u09ae\u09a8\u09cd\u09a4\u09cd\u09b0": 524, "\u09b6\u09cd\u09b0": 525, "\u09ac\u09c7\u09b6": 526, "\u09a6\u09c7\u09b6\u09c7\u09b0": 527, "\u099a\u09bf\u09a4": 528, "\u098f\u09ae": 529, "\u098f\u09b8": 530, "\u09ac\u09c3": 531, "\u09b9\u09cb": 532, "\u0995\u09cd\u09b8": 533, "\u09a4\u09be\u0981": 534, "\u0995\u09bf\u099b\u09c1": 535, "\u0986\u09ae\u09b0\u09be": 536, "\u099c\u09c7\u09b0": 537, "\u099c\u09c1": 538, "\u09b9\u09c7": 539, "\u09b7\u09cd\u099f": 540, "\u09a4\u09c1": 541, "\u09a6\u09be\u09b0": 542, "\u09aa\u09cb": 543, "\u0997\u09cb": 544, "\u099b\u09ac\u09bf": 545, "\u09ac\u09cd\u09b0": 546, "\u0986\u09ae\u09be\u09a6\u09c7\u09b0": 547, "...": 548, "\u0985\u09b0\u09cd": 549, "\u0993\u09df\u09be\u09b0": 550, "\u099c\u09c0": 551, "\u09aa\u09cd\u09b0\u09be": 552, "\u09b8\u09cd\u09ac": 553, "\u09b8\u09cd\u09a5\u09be": 554, "\u099b\u09bf\u09b2\u09c7\u09a8": 555, "\u09a6\u09a8": 556, "\u0997\u099e\u09cd\u099c": 557, "\u09aa\u09c1\u09b2\u09bf": 558, "\u09ac\u09cd": 559, "\u09b8\u09be\u09b0\u09cd": 560, "\u09c2\u09b2": 561, "\u09be\u09a8\u09bf": 562, "\u0995\u09cb\u09a8\u09cb": 563, "\u09b8\u09b0\u0995\u09be\u09b0": 564, "\u099c\u09cd\u099e": 565, "in": 566, "\u09aa\u09a4\u09cd\u09b0": 567, "\u0995\u09c1": 568, "\u0995\u09a5\u09be": 569, "\u09a4\u09ac\u09c7": 570, "\u09a4\u09c0\u09df": 571, "\u09b8\u09c7\u09a8": 572, "\u09a8\u09cd\u09a4\u09c1": 573, "\u0997\u09c1\u09b2": 574, "\u0998\u099f": 575, "\u0987\u0989": 576, "\u0989\u09a6\u09cd": 577, "\u09ac\u09cb": 578, "\u0995\u09bf\u09a8\u09cd\u09a4\u09c1": 579, "\u098f\u09a8": 580, "\u09b8\u09ad\u09be": 581, "\u09b9\u09b2\u09c7": 582, "\u09be\u09a8\u09be": 583, "\u0995\u09cd\u09b7\u09be": 584, "\u09a5\u09be\u0995": 585, "\u09aa\u09c1\u09b2\u09bf\u09b6": 586, "\u09a6\u0995": 587, "\u09ac\u09bf\u09b6\u09cd\u09ac": 588, "\u09aa\u09be\u09b0\u09c7": 589, "\u09aa\u09c2\u09b0\u09cd": 590, "\u09a3\u09c7": 591, "\u09ab\u09cb\u09a8": 592, "\u09ae\u09be\u09b0": 593, "\u0995\u09b0\u09be\u09b0": 594, "\u09aa\u09cd\u09b0\u09a7\u09be\u09a8": 595, "\u09aa\u09cd\u09b0\u0995\u09be\u09b6": 596, "\u09b8\u09ae\u09cd\u09aa": 597, "\u0986\u099c": 598, "\u098f\u09b2\u09be": 599, "\u09b8\u09be\u09b0": 600, "\u09df\u09a8": 601, "\u0995\u09b0\u09c7\u099b\u09c7": 602, "\u09b2\u09c0\u0997": 603, "\u0987\u09a8": 604, "\u09b8\u09cd\u09af": 605, "\u09aa\u09cd\u09b0\u09a6": 606, "\u0987\u09b8\u09b2\u09be\u09ae": 607, "\u09b9\u09c0": 608, "\u09b8\u09bf\u09b2\u09c7": 609, "\u09b8\u09ae\u09cd\u09aa\u09be": 610, "\u09ac\u09a8": 611, "\u09a8\u09cd\u09a1": 612, "\u09ac\u09b0\u09cd\u09a4": 613, "\u099f\u09be\u0995\u09be": 614, "\u09b9\u09be\u09b8": 615, "\u0997\u09b0": 616, "\u09b8\u09a8": 617, "\u09b0\u09cd\u09b7": 618, "\u09ae\u09be\u09a7\u09cd\u09af": 619, "\u09a6\u09c1\u0987": 620, "\u0986\u09a6": 621, "\u098f\u0996\u09a8": 622, "\u0996\u09c1": 623, "\u09af\u09cc": 624, "\u09e7\u09e6": 625, "\u09a6\u09c7\u0996": 626, "\u09ad\u09be\u09b2": 627, "\u09aa\u09b0\u09c7": 628, "\u09a6\u09c0": 629, "\u09b9\u09be\u09ae": 630, "\u09c1\u09b7": 631, "\u09ac\u09a8\u09cd\u09a7": 632, "\u099f\u09cb": 633, "\u09a3\u09be": 634, "\u09b6\u09c1\u09b0\u09c1": 635, "\u09a3\u09cd\u09a1": 636, "\u09ac\u09c7\u09b0": 637, "\u09b0\u09b9": 638, "an": 639, "\u09ac\u09b9": 640, "\u09ae\u09a8\u09c7": 641, "\u09ae\u09be\u09b0\u09cd": 642, "\u09b2\u09cd": 643, "\u0997\u09c1": 644, "\u09a1\u09be": 645, "\u09ae\u09c2\u09b2": 646, "\u09b6\u09cb": 647, "\u09a6\u09bf\u0995\u09c7": 648, "\u0985\u09a8\u09c7\u0995": 649, "\u0995\u09c3": 650, "\u09b6\u09c0": 651, "\u09b8\u09be\u09b2": 652, "\u09cd\u09af\u09c7": 653, "\u09be\u09a8\u09cd": 654, "\u09ae\u09c1\u0996": 655, "\u09ac\u09cd\u09af\u09ac\u09b9\u09be\u09b0": 656, "\u09b8\u09cd\u09ac\u09be": 657, "\u09b8\u09be\u0987": 658, "\u09a8\u09bf\u09b0\u09cd\u09ac\u09be\u099a\u09a8": 659, "\u09a8\u09df": 660, "\u09b2\u09c7\u09a8": 661, "\u09aa\u09cd\u09b0\u09a5": 662, "\u09a4\u09bf\u09b0": 663, "\u09a8\u09be\u09df": 664, "\u0986\u09ae\u09be\u09b0": 665, "\u099f\u09c1": 666, "\u09ac\u09c0": 667, "\u09a4\u09be\u09b0\u09be": 668, "\u09cb\u099f": 669, "\u09ac\u09bf\u09a6": 670, "\u09ac\u09be\u0987": 671, "\u0995\u09be\u099c": 672, "\u09a8\u09c7\u0987": 673, "\u0997\u09c1\u09b2\u09cb": 674, "\u09af\u09cc\u09a8": 675, "\u0985\u09a7\u09bf": 676, "\u09b8\u09be\u09a5\u09c7": 677, "\u0995\u09b0\u09c7\u099b\u09c7\u09a8": 678, "\u09a7\u09c1": 679, "\u09aa\u09b0\u09c0": 680, "\u09ad\u09bf\u09a8\u09cd\u09a8": 681, "\u09c7\u09a8\u09cd\u099f": 682, "er": 683, "\u0986\u09aa\u09a8\u09bf": 684, "\u0986\u09aa\u09a8\u09be\u09b0": 685, "\u09b8\u09ad\u09be\u09aa\u09a4\u09bf": 686, "\u09b8\u09ae\u09cd\u09aa\u09be\u09a6\u0995": 687, "\u09ae\u09be\u09a7\u09cd\u09af\u09ae\u09c7": 688, "\u0986\u09b9": 689, "\u09b8\u09c2": 690, "\u09b9\u099a\u09cd\u099b\u09c7": 691, "\u09aa\u09b0\u09bf\u099a\u09be\u09b2": 692, "\u0986\u0997\u09c7": 693, "\u0989\u09a6": 694, "\u09be\u09b0\u09be": 695, "\u09be\u09b0\u09cd\u09a5": 696, "\u09b0\u09b9\u09ae\u09be\u09a8": 697, "\u0985\u09cd\u09af\u09be": 698, "\u09ae\u09cd\u09af\u09be": 699, "\u09b0\u09c1\u09b2": 700, "\u09b9\u09a4\u09c7": 701, "\u09e7\u09ef": 702, "\u09a4\u09bf\u0995": 703, "\u099c\u09be\u09a8\u09be\u09a8": 704, "--": 705, "\u09a7\u09be": 706, "\u09b0\u09df\u09c7": 707, "\u09b8\u09c0": 708, "\u09b8\u09cb": 709, "\u09ac\u09c7\u09a6\u09a8": 710, "\u09aa\u09b0\u09cd\u09af": 711, "\u0989\u09aa\u099c\u09c7\u09b2\u09be": 712, "\u09b9\u09a4\u09cd\u09af\u09be": 713, "\u09ae\u09a8\u09cd\u09a4\u09cd\u09b0\u09c0": 714, "\u0996\u09be\u09a8\u09c7": 715, "\u0997\u09a3": 716, "\u0995\u09cd\u09b0\u09bf": 717, "\u09aa\u09cd\u09b0\u09a5\u09ae": 718, "es": 719, "\u099c\u09be\u09ae": 720, "\u09b8\u09c7\u0987": 721, "\u09ae\u09be\u09a8\u09c1\u09b7": 722, "\u09a7\u09be\u09b0\u09a3": 723, "\u0986\u09b2\u09cb": 724, "\u098f\u09ae\u09a8": 725, "\u09a8\u09a4": 726, "\u09ac\u09be\u099c\u09be\u09b0": 727, "\u09a4\u09be\u0987": 728, "\u099c\u09be\u09a4\u09c0\u09df": 729, "\u0989\u09a4\u09cd\u09a4": 730, "\u09b7\u09cd\u099f\u09cd\u09b0": 731, "\u09af\u09c1\u0995\u09cd\u09a4": 732, "\u09ac\u099b\u09b0": 733, "\u0986\u09a8": 734, "\u09aa\u09a8": 735, "\u09ae\u09c7\u09b0": 736, "\u0995\u09be\u09b0\u09c0": 737, "\u09b8\u09cd\u09a5\u09be\u09a8": 738, "\u09ae\u09be\u09ae\u09b2\u09be": 739, "on": 740, "\u0964\u2019": 741, "\u0986\u0993\u09df": 742, "\u0997\u09bf\u09df\u09c7": 743, "\u09a8\u09bf\u0995": 744, "\u0997\u09c7\u099b\u09c7": 745, "\u099c\u09be\u09a8\u09be": 746, "\u099b\u09be\u09dc\u09be": 747, "\u0986\u099b\u09c7": 748, "\u099a\u09c1": 749, "\u09a4\u09be\u09b2": 750, "\u09a5\u09bf": 751, "\u09a6\u09c1\u09b2": 752, "\u09aa\u0995\u09cd\u09b7": 753, "\u0997\u09cd\u09b0\u09b9": 754, "\u0985\u09a8\u09cd\u09af": 755, "\u09b9\u09cb\u09b8\u09c7\u09a8": 756, "\u098f\u09b2\u09be\u0995\u09be": 757, "\u09a8\u09a4\u09c1\u09a8": 758, "\u0986\u0993\u09df\u09be\u09ae\u09c0": 759, "\u0993\u0987": 760, "\u09aa\u09c1": 761, "\u09ac\u09bf\u09ad\u09bf\u09a8\u09cd\u09a8": 762, "\u09a4\u09bf\u09a8": 763, "\u09ae\u09c7\u0987\u09b2": 764, "\u09b8\u09cd\u09a4\u09cd\u09b0": 765, "\u09ad\u09be\u09b2\u09cb": 766, "om": 767, "\u0995\u09ae\u09bf": 768, "\u09aa\u09be\u09b2": 769, "\u09e6\u09e7": 770, "\u09ac\u09bf\u098f\u09a8": 771, "\u09a8\u09c7\u09a4\u09be": 772, "2018": 773, "\u0998\u09be": 774, "\u09ab\u09b2": 775, "\u09b8\u09c7\u09ac\u09c7": 776, "\u09b8\u09be\u09a7\u09be\u09b0\u09a3": 777, "\u09af\u09bc\u09be": 778, "\u09b9\u09bf\u09b8\u09c7\u09ac\u09c7": 779, "\u09b8\u09bf\u09b2\u09c7\u099f": 780, "\u09af\u09be\u09a8": 781, "\u09ac\u09c7\u09b6\u09bf": 782, "\u0995\u09be\u099b\u09c7": 783, "\u0982\u09b6": 784, "\u099f\u0995": 785, "\u09a4\u09a5": 786, "\u09ae\u09be\u09b2": 787, "\u09cd\u09af\u09be\u09ae": 788, "\u0995\u09b0\u09bf": 789, "\u09b0\u09cd\u09b6": 790, "\u0985\u09b0\u09cd\u09a5": 791, "\u09a7\u09b0": 792, "\u09aa\u09c7\u09b0": 793, "\u09ab\u09c1": 794, "\u09b8\u09b0\u09cd": 795, "\u09e7\u09e7": 796, "\u09aa\u09cd\u09b0\u09c7": 797, "\u09b2\u09c0\u0997\u09c7\u09b0": 798, "\u09b8\u09a8\u09a6": 799, "\u09a4\u09cd\u09af\u09be": 800, "\u09a4\u09cd\u09ac": 801, "\u09df\u09cb": 802, "\u0995\u09b0\u09c1\u09a8": 803, "\u0995\u09b0\u09cd\u09a4\u09c3": 804, "\u09ac\u09bf\u098f\u09a8\u09aa\u09bf": 805, "\u09a8\u09cc": 806, "\u09aa\u09dc\u09c7": 807, "\u09b6\u09be\u09b2": 808, "\u09a8\u09bf\u09b9\u09a4": 809, "\u09ac\u09be\u09dc": 810, "\u09aa\u09cd\u09b0\u09bf": 811, "\u09b0\u09be\u09b7\u09cd\u099f\u09cd\u09b0": 812, "\u099f\u09be\u0987": 813, "\u09ac\u09be\u09b0\u09c7\u09b0": 814, "\u0997\u09cd\u09b0\u09c7": 815, "\u09aa\u09cd\u09b0\u09a4\u09bf\u09a8\u09bf": 816, "\u0995\u09b0\u09cd\u09ae\u0995\u09b0\u09cd\u09a4": 817, "\u099a\u09be\u0987": 818, "\u09b0\u09df\u09c7\u099b\u09c7": 819, "re": 820, "\u098f\u09b8\u09c7": 821, "\u09a6\u09be\u09df": 822, "\u09a7\u09b0\u09c7": 823, "\u09ae\u09cd\u09af\u09be\u09a8": 824, "\u09a5\u09be\u0995\u09c7": 825, "\u099c\u09be\u09a8\u09bf\u09df\u09c7": 826, "\u09a8\u09be\u09ae\u09c7": 827, "\u09aa\u09cd\u09b0\u09a6\u09be\u09a8": 828, "\u09af\u09cc\u09a8\u0995\u09b0\u09cd\u09ae": 829, "\u099a\u09a8\u09be": 830, "\u09a6\u09c7\u09a8": 831, "\u09aa\u09dc": 832, "\u09aa\u0995\u09cd\u09b7\u09c7": 833, "\u09ab\u09cd\u09b0": 834, "\u09af\u09a6\u09bf": 835, "\u09b2\u0995\u09cd\u09b7": 836, "\u09b9\u09c1": 837, "\u09a6\u09bf\u09a4\u09c7": 838, "\u0995\u09be\u09b0\u09a3\u09c7": 839, "\u09a6\u09c7\u09b6\u09c7": 840, "\u0986\u09a6\u09be\u09b2": 841, "\u09aa\u09cd\u09b0\u09a4\u09bf\u09a8\u09bf\u09a7\u09bf": 842, "th": 843, "\u0987\u09a8\u09cd": 844, "\u0989\u09a8\u09cd\u09a8": 845, "\u098f\u09a8\u09cd\u09a1": 846, "\u09ae\u09a4": 847, "\u09b2\u09c7\u09b0": 848, "\u09b9\u09b0": 849, "\u09ae\u09be\u09a3": 850, "\u0985\u09a8\u09c1\u09b7\u09cd\u09a0": 851, "\u09aa\u09cb\u09b0\u09cd": 852, "\u09a4\u09a5\u09cd\u09af": 853, "ti": 854, "\u0986\u09ac\u09c7\u09a6\u09a8": 855, "\u09ac\u09be\u09a8": 856, "\u09e7\u09e8": 857, "\u09b0\u09be\u0996": 858, "\u09a6\u09c7\u0996\u09be": 859, "\u09aa\u09be\u09a0": 860, "\u09b8\u0982\u09ac\u09be\u09a6": 861, "\u09a4\u09cd\u09b0\u09c7": 862, "\u09a6\u09c1\u09b0\u09cd": 863, "\u09a6\u09cd\u09a7\u09c7": 864, "\u09c7\u09a8\u09cd\u09a6\u09cd\u09b0": 865, "\u09cd\u09af\u09be\u09a8\u09cd\u09a1": 866, "\u09b8\u09a6\u09b8\u09cd\u09af": 867, "com": 868, "\u098f\u0995\u09be": 869, "\u09ae\u09a4\u09bf": 870, "\u09b8\u09ae\u09be": 871, "\u09a8\u09bf\u09b0": 872, "\u09ac\u09be\u0987\u09b2": 873, "\u09ac\u09be\u09dc\u09bf": 874, "\u099c\u09c7\u09b2\u09be\u09b0": 875, "\u09ae\u09cb\u09ac\u09be\u0987\u09b2": 876, "\u09ac\u09bf\u09b7\u09df": 877, "\u099a\u09bf\u09a4\u09cd\u09b0": 878, "\u0986\u09ac\u09be\u09b0": 879, "\u09a0\u09c7": 880, "\u09a6\u09b6": 881, "\u09bf\u0995\u09be": 882, "\u09c1\u09df\u09be\u09b0": 883, "\u09ac\u09bf\u09ae\u09be\u09a8": 884, "\u09b8\u09cd\u0995": 885, "\u09a8\u09c7\u09a4": 886, "\u09b9\u09be\u09b8\u09bf": 887, "\u09b6\u09bf\u0995\u09cd\u09b7": 888, "\u09a4\u09cd\u09b0\u09c0": 889, "\u09aa\u09be\u09b0\u09c7\u09a8": 890, "\u09b6\u09c7\u0996": 891, "\u0989\u09a6\u09cd\u09a6\u09bf\u09a8": 892, "\u0996\u09c1\u09ac": 893, "\u09b6\u09cb\u09a7": 894, "\u09aa\u09b0\u09cd\u09af\u09a8\u09cd\u09a4": 895, "ov": 896, "\u0995\u09df\u09c7": 897, "\u099a\u09b2\u09c7": 898, "\u09a4\u09c8": 899, "\u09ae\u09c3\u09a4": 900, "\u09bf\u09a4\u09c7": 901, "\u0999\u09cd\u0997\u09be": 902, "2016": 903, "\u09a4\u09be\u0981\u09b0": 904, "\u09b8\u09be\u09b0\u09cd\u09ad\u09c7": 905, "\u0995\u09b0\u09cd\u09ae\u0995\u09b0\u09cd\u09a4\u09be": 906, "do": 907, "\u09a7\u09b0\u09cd": 908, "\u09e7\u09eb": 909, "\u09b2\u09be\u0996": 910, "\u09a4\u09be\u0995\u09c7": 911, "\u09ad\u09be\u09ac": 912, "2017": 913, "\u0995\u09be\u09b2\u09c7": 914, "\u0985\u09ad\u09bf\u09af\u09cb\u0997": 915, "\u09ac\u09bf\u09a6\u09cd\u09af\u09be\u09b2": 916, "\u0995\u09df\u09c7\u0995": 917, "en": 918, "ma": 919, "\u098f\u09b8\u09ac": 920, "\u0995\u09c0": 921, "\u09ae\u09cd": 922, "\u09e9\u09e6": 923, "\u09be\u09b0\u09bf": 924, "\u09be\u09b0\u09c7": 925, "\u09ac\u09bf\u09b6\u09c7\u09b7": 926, "\u09b8\u09cd\u099f\u09cd\u09b0": 927, "\u09aa\u09be\u09a4": 928, "\u0998\u099f\u09a8\u09be": 929, "\u0985\u0995\u09cd": 930, "\u09ad\u09c2": 931, "\u09b9\u09be\u09a8": 932, "\u09ef\u09eb": 933, "\u09b6\u09be\u09b9\u09c0": 934, "\u09a1\u09bc\u09be": 935, "\u09ac\u09b0\u09cd\u09a4\u09ae\u09be\u09a8": 936, "\u0995\u09be\u09ae": 937, "\u0996\u09ac\u09b0": 938, "\u09a3\u09c7\u09b0": 939, "\u09cb\u09b7": 940, "\u09ac\u09be\u09b9\u09bf": 941, "\u09b9\u09be\u099c\u09be\u09b0": 942, "\u0995\u09cb\u099f\u09bf": 943, "\u09b7\u09cd\u099f\u09bf": 944, "\u09e8\u09e6\u09e7\u09ee": 945, "\u09ac\u099b\u09b0\u09c7\u09b0": 946, "\u09ab\u09cb\u09a8\u0983": 947, "\u0985\u0995\u09cd\u099f\u09cb": 948, "\u0985\u09aa": 949, "\u0996\u09be\u09a8": 950, "\u09b0\u09c0": 951, "\u09b0\u09cd\u09a4": 952, "\u09ac\u09bf\u099c\u09cd\u099e": 953, "\u09a8\u09bf\u099c\u09c7": 954, "\u09ae\u09be\u09a4\u09cd\u09b0": 955, "\u09ae\u09bf\u099f\u09be\u09b0": 956, "\u0995\u09cd\u09b7\u09ae": 957, "\u09af\u09be\u09ac\u09c7": 958, "\u09aa\u09cd\u09b0\u09a4\u09bf\u09b7\u09cd\u09a0": 959, "**": 960, "il": 961, "\u0993\u09df\u09c7": 962, "\u0995\u09a8": 963, "\u099f\u09cd": 964, "\u09a8\u09ad\u09c7": 965, "\u09ac\u09df": 966, "\u09ac\u09bf\u09b0\u09c1": 967, "\u098f\u0995\u099f\u09be": 968, "\u09a8\u09ad\u09c7\u09ae\u09cd\u09ac\u09b0": 969, "ou": 970, "\u0985\u09ab\u09bf": 971, "\u0997\u09a0": 972, "\u0997\u09be\u09a8": 973, "\u09a6\u09aa\u09cd\u09a4": 974, "\u09ab\u09b0": 975, "\u09e7\u09ec": 976, "\u09e8\u09ea": 977, "\u09cd\u09af\u09c1": 978, "\u09b0\u09cd\u09a5": 979, "\u09ae\u09bf\u0995": 980, "\u099c\u09bf\u09a8\u09bf": 981, "\u0986\u09b0\u0993": 982, "\u099a\u09c7\u09df\u09c7": 983, "\u09b0\u09be\u099c\u09b6\u09be\u09b9\u09c0": 984, "\u0985\u0995\u09cd\u099f\u09cb\u09ac\u09b0": 985, "\u09ac\u09bf\u09b0\u09c1\u09a6\u09cd\u09a7\u09c7": 986, "\u099a\u09cc": 987, "\u09a4\u09c0": 988, "\u09a6\u09c2": 989, "\u09ac\u09b0\u09cd": 990, "\u09ae\u09cd\u09aa": 991, "\u09ac\u09c7\u0995": 992, "\u09ae\u09be\u09b9": 993, "\u09b8\u09bf\u0982": 994, "\u09b0\u09c7\u0996\u09c7": 995, "\u09a1\u09bf\u0993": 996, "\u09b6\u09c7\u09b7\u09c7": 997, "\u09ac\u09bf\u09b6\u09cd\u09ac\u09ac\u09bf\u09a6\u09cd\u09af\u09be\u09b2": 998, "\u09b8\u09ae\u09cd\u09aa\u09b0\u09cd": 999, "\u09aa\u09b0\u09bf\u099a\u09be\u09b2\u0995": 1000, "\u09a8\u09c7\u09a4\u09c3\u09a4": 1001, "\u09a4\u09c8\u09b0\u09bf": 1002, "\u0981\u099a": 1003, "\u0989\u09a8\u09cd": 1004, "\u0995\u09c7\u09a8": 1005, "\u0995\u09c3\u09a4": 1006, "\u0997\u09c1\u09b2\u09bf": 1007, "\u09a7\u09c1\u09b0": 1008, "\u09ac\u09b8": 1009, "\u09ac\u09c1\u09b2": 1010, "\u09ad\u09c1": 1011, "\u09ae\u09df": 1012, "\u09b2\u09cd\u09aa": 1013, "\u09b8\u09be\u09b2\u09c7": 1014, "\u099c\u09a8\u09c7\u09b0": 1015, "\u098f\u0995\u0987": 1016, "\u09b7\u09cd\u099f\u09be": 1017, "\u09b8\u09cd\u09a4\u09be": 1018, "\u09a6\u09be\u09ac\u09bf": 1019, "\u09ac\u09cd\u09af\u09ac\u09b8\u09cd\u09a5\u09be": 1020, "\u09a5\u09be\u0995\u09b2\u09c7": 1021, "\u09aa\u09b0\u09c0\u0995\u09cd\u09b7": 1022, "\u0989\u0987": 1023, "\u0989\u099c": 1024, "\u09a4\u09cd\u09af": 1025, "\u09ae\u09a4\u09cb": 1026, "\u09b9\u0995": 1027, "\u09be\u099c": 1028, "\u09be\u09a8\u09cb": 1029, "\u09ac\u09bf\u09b2": 1030, "\u09a8\u09bf\u099c": 1031, "\u09aa\u09cd\u09b0\u09be\u09df": 1032, "\u09b2\u09c7\u0996": 1033, "\u09a8\u09cd\u09a6\u09bf": 1034, "\u09ae\u09c7\u09b2": 1035, "\u09a5\u09be\u0995\u09be": 1036, "\u0999\u09cd\u0997\u09bf": 1037, "\u09ad\u09be\u09b0\u09a4\u09c7\u09b0": 1038, "\u099a\u09bf\u0995\u09bf": 1039, "\u09b6\u09c1\u09a7\u09c1": 1040, "\u09a6\u09b2\u09c7\u09b0": 1041, "\u09ac\u09b9\u09a8": 1042, "\u098f\u09a4\u09c7": 1043, "\u0995\u09c7\u09a8\u09cd\u09a6\u09cd\u09b0": 1044, "\u09a4\u09cd": 1045, "\u09a6\u0995\u09cd\u09b7": 1046, "\u09ab\u09c7\u09b0": 1047, "\u09b9\u09b2": 1048, "\u09eb\u09e6": 1049, "\u09b2\u09be\u09df": 1050, "\u098f\u0995\u099c\u09a8": 1051, "\u0986\u0987\u09a8": 1052, "\u0995\u09cd\u09b7\u09c7\u09a4\u09cd\u09b0\u09c7": 1053, "\u09b8\u09be\u09b0\u09cd\u09ad\u09c7\u09df\u09be\u09b0": 1054, "\u09a7\u09b0\u09cd\u09ae": 1055, "bd": 1056, "\u098f\u099f\u09bf": 1057, "\u0995\u09ac\u09bf": 1058, "\u0995\u09b2\u09c7": 1059, "\u0997\u09bf": 1060, "\u0998\u09cb\u09b7": 1061, "\u09a4\u09b0": 1062, "\u09a4\u09cd\u09ae": 1063, "\u09a8\u09cb": 1064, "\u09aa\u09cc": 1065, "\u09aa\u09be\u09b0\u09cd": 1066, "\u09e7\u09ee": 1067, "\u09be\u09a8\u09cb\u09b0": 1068, "\u0995\u09c7\u099f": 1069, "\u09aa\u09be\u0993\u09df\u09be": 1070, "\u09a1\u09bc\u09c7": 1071, "\u09af\u09bc\u09c7\u099b\u09c7": 1072, "\u0997\u09cd\u09b0\u09be\u09ae\u09c7\u09b0": 1073, "\u09a4\u09c1\u09b2\u09c7": 1074, "\u09ae\u09be\u09b0\u09cd\u099a": 1075, "\u0989\u09a4\u09cd\u09a4\u09b0": 1076, "\u0987\u099e\u09cd": 1077, "\u098f\u099f\u09be": 1078, "\u0995\u09cd\u09af\u09be": 1079, "\u099a\u09c1\u09b0": 1080, "\u099b\u09cb\u099f": 1081, "\u099c\u09c1\u09a8": 1082, "\u09a0\u09bf\u0995": 1083, "\u09a6\u09cd\u09ac": 1084, "\u09a7\u09a8": 1085, "\u09ac\u09a6": 1086, "\u09ac\u09c8": 1087, "\u09ac\u09dc": 1088, "\u09ac\u09b2\u09be": 1089, "\u09b9\u09af\u09bc": 1090, "\u09b9\u0993\u09df\u09be\u09b0": 1091, "\u09cd\u09b2\u09be": 1092, "\u09b0\u09be\u09a4": 1093, "\u09a6\u09c7\u0996\u09c7": 1094, "\u09ac\u09cd\u09af\u0995\u09cd\u09a4\u09bf": 1095, "\u0985\u09ac\u09b8\u09cd\u09a5": 1096, "\u09e6\u09e6\u09e6": 1097, "\u09ac\u09cd\u09af\u09be\u0982": 1098, "\u0985\u09a7\u09bf\u09a6\u09aa\u09cd\u09a4": 1099, "\u099a\u09bf\u0995\u09bf\u09ce": 1100, "\u0995\u09aa\u09bf": 1101, "\u099a\u09c0": 1102, "\u099c\u09a8\u09be": 1103, "\u09a4\u09ae": 1104, "\u09b9\u09c7\u09b0": 1105, "\u09b9\u09b2\u09cb": 1106, "\u09bf\u09a8": 1107, "\u09e7\u09e9": 1108, "\u0995\u09c7\u0989": 1109, "\u09a4\u09be\u09df": 1110, "\u0995\u09be\u09b0\u09a3": 1111, "\u09ae\u09bf\u09a4": 1112, "\u09ad\u09be\u0987": 1113, "\u09b6\u09bf\u09b6\u09c1": 1114, "\u09b2\u09bf\u09ae": 1115, "\u09aa\u09be\u09b0\u09ac\u09c7\u09a8": 1116, "\u09aa\u09c7\u09df\u09c7": 1117, "\u09a8\u09bf\u09b0\u09cd\u09ac\u09be\u099a\u09a8\u09c7": 1118, "\u099c\u09c1\u09b2\u09be\u0987": 1119, "\u0987\u0989\u09a8\u09bf\u09df": 1120, "\u09e6\u09e7\u09ed": 1121, "\u09aa\u09cb\u09b0\u09cd\u099f": 1122, "\u099a\u09cc\u09a7\u09c1\u09b0": 1123, "at": 1124, "ed": 1125, "\u0989\u09b2\u09cd": 1126, "\u0996\u09be\u09b2\u09c7": 1127, "\u09aa\u09a6\u09cd\u09a7": 1128, "\u09ab\u09a4\u09be\u09b0": 1129, "\u09ad\u09bf\u09a4": 1130, "\u09b0\u0982": 1131, "\u09b0\u0995\u09cd\u09b7": 1132, "\u09b8\u0995\u09b2": 1133, "\u09be\u0987": 1134, "\u09ac\u09bf\u0995": 1135, "\u09a8\u09bf\u09b6\u09cd": 1136, "\u09b0\u09cd\u0998": 1137, "\u09b8\u09bf\u099f\u09bf": 1138, "\u09b8\u09bf\u09a6\u09cd\u09a7": 1139, "\u09b8\u09c7\u09aa\u09cd": 1140, "\u09a6\u09cd\u09ac\u09bf": 1141, "\u09b8\u0982\u09b8\u09a6": 1142, "\u09b8\u09cd\u09a4\u09be\u09b0": 1143, "\u098f\u09b2\u09be\u0995\u09be\u09df": 1144, "\u09ae\u09c7\u0987\u09b2\u0983": 1145, "ar": 1146, "gov": 1147, "\u0995\u09c1\u09b0": 1148, "\u0996\u09be\u09b2": 1149, "\u0996\u09cd\u09af\u09be": 1150, "\u09aa\u09a3": 1151, "\u09b6\u09c7\u09b0": 1152, "\u09b8\u09a8\u09cd\u09a4": 1153, "\u09c1\u0995": 1154, "\u09ac\u09be\u09df": 1155, "\u09b0\u09be\u099c\u09a8": 1156, "\u099b\u09c7\u09b2\u09c7": 1157, "\u09af\u09bc\u09be\u09b0": 1158, "\u09bf\u09a4\u09cd\u09ac": 1159, "\u0995\u09cb\u09b0\u09cd": 1160, "\u0995\u09cb\u09ae\u09cd\u09aa": 1161, "\u09aa\u09b0\u09bf\u09ac\u09be\u09b0\u09c7\u09b0": 1162, "\u09aa\u09b0\u09bf\u09ac\u09b9\u09a8": 1163, "\u09af\u09be\u099a\u09cd\u099b\u09c7": 1164, "\u099a\u09c7\u09b7\u09cd\u099f\u09be": 1165, "\u09ac\u09bf\u09b7\u09df\u09c7": 1166, "\u0986\u0997\u09be\u09ae\u09c0": 1167, "\u09aa\u09cd\u09b0\u09be\u09aa\u09cd\u09a4": 1168, "\u09ac\u09cd\u09b2": 1169, "\u09df\u09cb\u099c\u09a8": 1170, "\u09a6\u0995\u09cd\u09b7\u09bf": 1171, "\u09aa\u09a6\u09cd\u09a7\u09a4\u09bf": 1172, "\u09b8\u09c7\u09aa\u09cd\u099f\u09c7": 1173, "al": 1174, "or": 1175, "se": 1176, "\u0986\u099f\u0995": 1177, "\u0989\u09ce": 1178, "\u0989\u09a6\u09cd\u09a7": 1179, "\u0996\u09cb": 1180, "\u0996\u09c1\u09b2": 1181, "\u09ad\u09c0": 1182, "\u09ae\u09b0": 1183, "\u09ae\u0999\u09cd\u0997": 1184, "\u09c0\u09b0\u09be": 1185, "\u09c8\u09a4\u09bf\u0995": 1186, "\u09a8\u09bf\u099c\u09c7\u09b0": 1187, "\u0995\u09cd\u09b0\u09ae": 1188, "\u0989\u09aa\u099c\u09c7\u09b2\u09be\u09b0": 1189, "\u09b0\u09cb\u09a7": 1190, "\u09a8\u09cd\u09a6\u09b0": 1191, "\u09a4\u09be\u0981\u09a6\u09c7\u09b0": 1192, "\u099c\u09c0\u09ac\u09a8": 1193, "\u09a6\u09c0\u09b0\u09cd\u0998": 1194, "\u09b8\u09be\u09b2\u09c7\u09b0": 1195, "\u099c\u09be\u09a8\u09bf\u09df\u09c7\u099b\u09c7\u09a8": 1196, "\u0982\u09ac\u09be": 1197, "\u0985\u09a4\u09bf": 1198, "\u099c\u0999\u09cd\u0997\u09bf": 1199, "\u099f\u0997\u09cd\u09b0\u09be\u09ae": 1200, "\u09a3\u09bf": 1201, "\u09ab\u09bf\u0995": 1202, "\u09ae\u09b8": 1203, "\u09b6\u09bf\u09b2": 1204, "\u09b6\u09a8\u09c7\u09b0": 1205, "\u09e7\u09ea": 1206, "\u09cd\u09af\u09be\u09b0": 1207, "\u09be\u09a8\u09cd\u09a1": 1208, "\u0995\u09b0\u09ac\u09c7": 1209, "\u09ac\u09bf\u099a\u09be\u09b0": 1210, "\u09aa\u09cd\u09b0\u09bf\u09b2": 1211, "\u09aa\u09cd\u09b0\u09b6\u09cd": 1212, "\u09ae\u09be\u099d": 1213, "\u09aa\u09be\u09b0\u09bf": 1214, "\u09ae\u09cb\u0983": 1215, "\u09b2\u09cb\u0995": 1216, "\u09b8\u09ae\u09cd\u09ae\u09c7\u09b2": 1217, "\u09e8\u09e6\u09e7\u09ec": 1218, "\u0995\u09b2\u09cd\u09aa": 1219, "\u0986\u0997\u09b8\u09cd\u099f": 1220, "\u0995\u09c3\u09b7": 1221, "---": 1222, "\u0997\u09cd\u09b0\u09b9\u09a3": 1223, "\u09ab\u09c1\u099f": 1224, "/-": 1225, "12": 1226, "ad": 1227, "\u0985\u0982\u09b6": 1228, "\u098f\u0996\u09be\u09a8\u09c7": 1229, "\u098f\u09aa\u09cd\u09b0\u09bf\u09b2": 1230, "\u0997\u09c1\u09b0\u09c1": 1231, "\u099a\u09b0": 1232, "\u099a\u099f\u09cd": 1233, "\u099c\u09c7\u09a8": 1234, "\u099c\u09ae\u09be": 1235, "\u09ab\u09c1\u09b2": 1236, "\u09ac\u09be\u09b0\u09cd": 1237, "\u09ae\u09cc": 1238, "\u09ae\u09a8\u09cd\u09a4": 1239, "\u0995\u09b0\u099b\u09c7\u09a8": 1240, "\u09b8\u09cd\u099f\u09c7": 1241, "\u09b0\u09be\u09a4\u09c7": 1242, "\u0995\u09be\u09b0\u09cd\u09af": 1243, "\u0995\u09bf\u09b8\u09cd\u09a4": 1244, "\u09aa\u09b0\u09bf\u09a6": 1245, "\u09aa\u09b0\u09bf\u09b6\u09cb\u09a7": 1246, "\u099a\u09cd\u099a": 1247, "\u09af\u09cb\u0997\u09cd\u09af": 1248, "2015": 1249, "\u0985\u09a8\u09c1\u09ae\u09a4\u09bf": 1250, "\u09af\u09c1\u09ac": 1251, "\u09e8\u09e6\u09e7\u09ed": 1252, "\u098f\u09b2\u09be\u0995\u09be\u09b0": 1253, "dos": 1254, "\u09b8\u09c7\u09aa\u09cd\u099f\u09c7\u09ae\u09cd\u09ac\u09b0": 1255, "\u09ae\u0999\u09cd\u0997\u09b2": 1256, "\u0997\u09be\u09b0": 1257, "\u0997\u09c7\u09b0": 1258, "\u0997\u09ac\u09c7": 1259, "\u099a\u09cb": 1260, "\u09ab\u09cd": 1261, "\u09ac\u09b0\u09be": 1262, "\u09ac\u09b0\u09bf": 1263, "\u09ad\u09ac\u09a8": 1264, "\u09ae\u09a8\u09cd\u09a6\u09bf": 1265, "\u09b9\u09a8": 1266, "\u09b9\u09be\u09b2": 1267, "\u09c1\u09a4": 1268, "\u09cd\u09af\u09c7\u09b0": 1269, "\u0995\u09b0\u09b2\u09c7": 1270, "\u09ac\u09bf\u09b0": 1271, "\u09a8\u09bf\u09a4\u09c7": 1272, "\u0995\u09c7\u0987": 1273, "\u099f\u09bf\u0982": 1274, "\u09b2\u09c7\u0996\u09be": 1275, "\u09b2\u09be\u09b6": 1276, "\u09a6\u09bf\u0995": 1277, "\u09a6\u09c7\u0993\u09df\u09be": 1278, "\u09ae\u09bf\u09b2": 1279, "\u09b0\u09c7\u099c\u09bf": 1280, "\u099c\u09be\u09b9\u09be": 1281, "\u09c7\u09a8\u09cd\u09b8": 1282, "\u0997\u09a4\u0995\u09be\u09b2": 1283, "\u09ab\u09c7\u09ac\u09cd\u09b0": 1284, "\u09ac\u09c3\u09a6\u09cd\u09a7": 1285, "\u09aa\u09c2\u09b0\u09cd\u09a3": 1286, "\u09aa\u09cd\u09b0\u0995\u09be\u09b6\u09bf\u09a4": 1287, "\u09ac\u09a8\u09cd\u09a7\u09c1": 1288, "\u09aa\u09cd\u09b0\u09bf\u09df": 1289, "\u0997\u09cd\u09b0\u09c7\u09ab\u09a4\u09be\u09b0": 1290, "\u0987\u099e\u09cd\u099c\u09bf\u09a8\u09bf": 1291, "\u099a\u09cc\u09a7\u09c1\u09b0\u09c0": 1292, "\u09ae\u09a8\u09cd\u09a4\u09ac\u09cd\u09af": 1293, "\u09ae\u0999\u09cd\u0997\u09b2\u09ac\u09be\u09b0": 1294, "\u0998\u099f\u09c7": 1295, "\u099c\u09df": 1296, "\u09a4\u09a8": 1297, "\u09a4\u09c1\u09b2": 1298, "\u09aa\u09a5": 1299, "\u09aa\u09a6": 1300, "\u09aa\u09be\u09df": 1301, "\u09ae\u09b9\u09be": 1302, "\u09b8\u09dc": 1303, "\u09b8\u09ac\u09be\u0987": 1304, "\u09df\u09be\u09a8": 1305, "\u09b0\u09cd\u09a3": 1306, "\u09b0\u09cd\u099c\u09be": 1307, "\u09a6\u09c7\u09df\u09be": 1308, "\u0995\u09be\u09b0\u09be": 1309, "\u09aa\u09be\u0995\u09bf\u09b8\u09cd\u09a4": 1310, "\u09ae\u09c7\u09df\u09c7": 1311, "\u09ae\u09c1\u0995\u09cd\u09a4\u09bf": 1312, "\u0986\u09b0\u09cb": 1313, "\u0996\u09c7\u09b2\u09be": 1314, "\u0995\u09cb\u09a8\u0993": 1315, "\u099b\u09be\u09a4\u09cd\u09b0": 1316, "\u09a6\u09bf\u09df\u09c7\u099b\u09c7": 1317, "\u09ac\u09c1\u099d": 1318, "\u09b8\u09b0\u0995\u09be\u09b0\u09bf": 1319, "\u09aa\u09c2\u09b0\u09cd\u09ac": 1320, "\u09a6\u09c7\u0996\u09a4\u09c7": 1321, "\u09b8\u09cd\u09ac\u09be\u09b8\u09cd\u09a5": 1322, "\u0995\u09b0\u09cd\u09a4\u09c3\u09aa\u0995\u09cd\u09b7": 1323, "\u09a8\u09c7\u09a4\u09c3\u09a4\u09cd": 1324, "\u099c\u09a8\u09be\u09ac": 1325, "\u09ad\u09bf\u09a4\u09cd\u09a4": 1326, "\u0989\u09a6\u09cd\u09a7\u09be\u09b0": 1327, "\u0987\u099e\u09cd\u099c\u09bf\u09a8\u09bf\u09df\u09be\u09b0": 1328, ")\u0964": 1329, "\u0986\u09b9\u09a4": 1330, "\u0989\u09b2": 1331, "\u0989\u09aa\u09b0": 1332, "\u0996\u09bf": 1333, "\u0998\u09b0\u09c7": 1334, "\u099f\u09c7\u09a8": 1335, "\u09a1\u09be\u09b0": 1336, "\u09a5\u09be\u09a8": 1337, "\u09a7\u09c7": 1338, "\u09a7\u09c0\u09a8": 1339, "\u09ac\u0995\u09cd\u09a4": 1340, "\u09ac\u0999\u09cd\u0997": 1341, "\u09ad\u09ac": 1342, "\u09b8\u09cd\u09af\u09be": 1343, "\u09ac\u09bf\u09b6\u09cd": 1344, "\u09ac\u09bf\u09b8\u09cd\u09a4\u09be\u09b0": 1345, "\u09a8\u09bf\u09b0\u09be": 1346, "\u09a8\u09bf\u09ac\u09be\u09b0": 1347, "\u09ac\u09be\u0981": 1348, "\u099f\u09bf\u0995": 1349, "\u09b8\u09be\u09ac\u09c7\u0995": 1350, "\u09aa\u09b0\u09bf\u09b7": 1351, "\u099c\u09be\u09a8\u09c1\u09df\u09be\u09b0": 1352, "\u09b9\u09bf\u09b8\u09be": 1353, "\u099a\u09c7\u09df\u09be\u09b0": 1354, "\u099a\u09bf\u09ac": 1355, "\u09b8\u09a6\u09b0": 1356, "\u099c\u09c0\u09ac": 1357, "\u0998\u099f\u09a8\u09be\u09df": 1358, "\u09cd\u09af\u09be\u09ae\u09cd\u09aa": 1359, "\u0986\u09a6\u09be\u09b2\u09a4\u09c7": 1360, "\u09b0\u0982\u09aa\u09c1\u09b0": 1361, "\u0996\u09c1\u09b2\u09a8\u09be": 1362, "\u09b6\u09bf\u09b2\u09cd\u09aa": 1363, "\u09b8\u09cd\u09ac\u09be\u09b8\u09cd\u09a5\u09cd\u09af": 1364, "\u098f\u09a4": 1365, "\u098f\u0995\u09cd\u09b8": 1366, "\u0995\u0996\u09a8": 1367, "\u099c\u09cb": 1368, "\u09a1\u09b2\u09be\u09b0": 1369, "\u09a3\u09c0": 1370, "\u09a4\u0996\u09a8": 1371, "\u09aa\u09b0\u09cd": 1372, "\u09aa\u09a4\u09cd\u09a4": 1373, "\u09ae\u09b9\u09be\u09a8": 1374, "\u09b6\u09cd\u09af": 1375, "\u09df\u09be\u09b2": 1376, "\u09e8\u09eb": 1377, "\u09e9\u09eb": 1378, "\u09ea\u09e6": 1379, "\u09be\u09a8\u09c0": 1380, "\u09aa\u09cd\u09b0\u09be\u09b0\u09cd\u09a5": 1381, "\u09ac\u09c7\u0997": 1382, "\u09b8\u09cd\u0995\u09be\u09b0": 1383, "\u0995\u09cd\u099f": 1384, "\u09b9\u09be\u09a4": 1385, "\u09b6\u09bf\u09aa": 1386, "\u099e\u09cd\u099a\u09b2": 1387, "\u09ae\u09a8\u09cb\u09a8": 1388, "\u09b8\u09be\u09ae\u09a8\u09c7": 1389, "\u0986\u09b2\u09ae": 1390, "\u09b6\u09cd\u09b0\u09c7": 1391, "ing": 1392, "\u09b9\u09be\u09b8\u09aa\u09be\u09a4": 1393, "\u09aa\u09b0\u09c0\u0995\u09cd\u09b7\u09be": 1394, "\u09b8\u09cd\u09a5\u09be\u09a8\u09c0\u09df": 1395, "\u09b8\u09b0\u09cd\u09ac": 1396, "\u0995\u09b0\u09cd\u09a4\u09c3\u0995": 1397, "mail": 1398, "\u0995\u09cd\u09b7\u09ae\u09a4\u09be": 1399, "\u0993\u09df\u09c7\u09ac": 1400, "\u099a\u099f\u09cd\u099f\u0997\u09cd\u09b0\u09be\u09ae": 1401, "\u09ac\u09b0\u09bf\u09b6\u09be\u09b2": 1402, "\u09ac\u09bf\u09b8\u09cd\u09a4\u09be\u09b0\u09bf\u09a4": 1403, "\u09ae\u09a8\u09cb\u09a8\u09df\u09a8": 1404, "\u09b9\u09be\u09b8\u09aa\u09be\u09a4\u09be\u09b2\u09c7": 1405, "11": 1406, "of": 1407, "ra": 1408, "\u0986\u09a4\u09cd\u09ae": 1409, "\u0987\u0982": 1410, "\u09a1\u09c7\u09b0": 1411, "\u09a6\u09c8": 1412, "\u09a6\u09c1\u09b0": 1413, "\u09a8\u0982": 1414, "\u09aa\u09be\u09a8": 1415, "\u09ab\u09cb": 1416, "\u09ab\u09cb\u09b0": 1417, "\u09ae\u09c0": 1418, "\u09af\u09cb": 1419, "\u09b2\u09c1": 1420, "\u09b8\u09a8\u09cd": 1421, "\u09b8\u09aa\u09cd\u09a4": 1422, "\u09b9\u09bf\u09a4": 1423, "\u09cd\u09aa\u09bf": 1424, "\u09a8\u09bf\u0989\u099c": 1425, "\u09a4\u09c7\u09be\u09ae": 1426, "\u09b0\u09be\u09df": 1427, "\u09ae\u09be\u09b8": 1428, "\u09b8\u09bf\u09b0\u09bf": 1429, "\u09b9\u09be\u0987": 1430, "\u09ae\u09c1\u0995\u09cd\u09a4": 1431, "\u0997\u09cd\u09b0\u09c1": 1432, "\u0985\u09a8\u09cd\u09af\u09be\u09a8": 1433, "\u09a1\u09bf\u09b8\u09c7": 1434, "\u099e\u09cd\u099a": 1435, "\u09b6\u09be\u09b9": 1436, "\u09af\u09cb\u0997\u09be": 1437, "\u09ac\u09b2\u09c7\u099b\u09c7\u09a8": 1438, "\u0986\u09ae\u09be\u0995\u09c7": 1439, "\u09ac\u09be\u09b8\u09c0": 1440, "\u099c\u09cd\u099e\u09be": 1441, "\u09ac\u09bf\u098f\u09a8\u09aa\u09bf\u09b0": 1442, "\u0998\u09cb\u09b7\u09a3\u09be": 1443, "\u0996\u09be\u09b2\u09c7\u09a6\u09be": 1444, "\u09ac\u0995\u09cd\u09a4\u09ac\u09cd\u09af": 1445, "),": 1446, "le": 1447, "st": 1448, "\u0985\u09a8\u09cd\u09a4": 1449, "\u0989\u099f": 1450, "\u099c\u09b0": 1451, "\u09a7\u09bf\u0995": 1452, "\u09aa\u0995": 1453, "\u09ae\u09c1\u09b2": 1454, "\u09b8\u09be\u09df": 1455, "\u09c2\u09aa": 1456, "\u09e8\u09e9": 1457, "\u0995\u09c7\u09b2": 1458, "\u09a8\u09be\u0997\u09b0": 1459, "\u09a6\u09bf\u09a8\u09c7\u09b0": 1460, "\u09a6\u09c7\u09df": 1461, "\u09ae\u09bf\u09a8\u09bf": 1462, "\u09b8\u09ae\u09b8\u09cd\u09af\u09be": 1463, "\u09aa\u09be\u0981\u099a": 1464, "\u09ad\u09be\u0999": 1465, "\u09ae\u09c7\u09a6": 1466, "\u0997\u09c7\u09b2\u09c7": 1467, "\u09b8\u0982\u0998": 1468, "\u09ad\u09bf\u09a1\u09bf\u0993": 1469, "\u09cd\u09ae\u09a6": 1470, "\u09a8\u09bf\u09b0\u09cd\u09a6\u09c7\u09b6": 1471, "\u099a\u09cd\u099b\u09c7\u09a8": 1472, "\u0995\u09cd\u09b0\u09be\u09a8\u09cd\u09a4": 1473, "\u0989\u09aa\u09b8\u09cd\u09a5": 1474, "\u099b\u09be\u09a1\u09bc\u09be": 1475, "\u0995\u09be\u09b2\u09c0\u09a8": 1476, "\u09e8\u09e6\u09e7\u09eb": 1477, "\u0989\u09a6\u09cd\u09af": 1478, "\u0989\u09a6\u09cd\u09ac": 1479, "\u0986\u09b2\u09cb\u099a\u09a8\u09be": 1480, "\u09af\u09cc\u09a8\u0995\u09b0\u09cd\u09ae\u09c0\u09a6\u09c7\u09b0": 1481, "\u0985\u09a8\u09c1\u09b7\u09cd\u09a0\u09bf\u09a4": 1482, "\u09a8\u09bf\u09b6\u09cd\u099a\u09bf\u09a4": 1483, "\u09a6\u0995\u09cd\u09b7\u09bf\u09a3": 1484, "\u0985\u09a8\u09cd\u09af\u09be\u09a8\u09cd\u09af": 1485, "\u09a1\u09bf\u09b8\u09c7\u09ae\u09cd\u09ac\u09b0": 1486, "\u0986\u09b6": 1487, "\u0986\u09b6\u09be": 1488, "\u0987\u09a4\u09bf": 1489, "\u098f\u099b\u09be\u09dc\u09be": 1490, "\u0995\u09cd\u09af": 1491, "\u0997\u09cd": 1492, "\u0997\u09cd\u09af\u09be": 1493, "\u09a1\u09cd\u09b0": 1494, "\u09a7\u09cd\u09ac": 1495, "\u09a8\u09c0\u09b0": 1496, "\u09ab\u09b2\u09c7": 1497, "\u09ac\u09b0\u09cd\u09b7": 1498, "\u09ad\u09cb": 1499, "\u09ad\u09cb\u099f": 1500, "\u09b6\u09a4\u09be": 1501, "\u09e9\u09e9": 1502, "\u09ac\u09bf\u0995\u09cd\u09b0\u09bf": 1503, "\u09aa\u09cd\u09b0\u099a\u09be\u09b0": 1504, "\u09be\u09ae\u09bf": 1505, "\u09b0\u09cd\u09b6\u09a8": 1506, "\u09a8\u09be\u0987": 1507, "\u09b8\u09cd\u099f\u09be\u09b0": 1508, "\u09b8\u09bf\u09b2": 1509, "\u09be\u09b0\u09cd\u09a1": 1510, "\u09a8\u09bf\u09b0\u09cd\u09a7\u09be\u09b0": 1511, "\u099a\u09cd\u099b\u09be": 1512, "\u09a7\u09be\u09b0\u09be": 1513, "\u099a\u09b2\u099b\u09c7": 1514, "\u09a8\u09c0\u09a4\u09bf": 1515, "\u09ac\u09c3\u09b9": 1516, "\u09aa\u09c1\u09b2\u09bf\u09b6\u09c7\u09b0": 1517, "\u09aa\u09cd\u09b0\u09a7\u09be\u09a8\u09ae\u09a8\u09cd\u09a4\u09cd\u09b0\u09c0": 1518, "\u099a\u09c1\u0995\u09cd\u09a4\u09bf": 1519, "\u09ae\u09be\u09b2\u09bf\u0995": 1520, "the": 1521, "\u09ae\u09cb\u09ac\u09be\u0987\u09b2\u0983": 1522, "\u09ac\u09bf\u09b7\u09df\u099f\u09bf": 1523, "\u09ad\u09c2\u09ae\u09bf": 1524, "\u09aa\u09cd\u09b0\u09a4\u09bf\u09b7\u09cd\u09a0\u09be\u09a8": 1525, "\u09b8\u09bf\u0982\u09b9": 1526, "\u09b8\u09bf\u09a6\u09cd\u09a7\u09be\u09a8\u09cd\u09a4": 1527, "\u09af\u09cb\u0997\u09be\u09af\u09cb\u0997": 1528, "\u09a8\u09be\u0997\u09b0\u09bf\u0995": 1529, "10": 1530, "gmail": 1531, "\u0993\u09aa\u09b0": 1532, "\u099c\u09ae\u09bf": 1533, "\u099f\u09be\u09df": 1534, "\u09a6\u09be\u09a8": 1535, "\u09ad\u09cd\u09b0": 1536, "\u09af\u09be\u09b0\u09be": 1537, "\u09b6\u09a8\u09bf\u09ac\u09be\u09b0": 1538, "\u09dc\u09be\u09b0": 1539, "\u09ac\u09be\u09b8\u09bf": 1540, "\u09aa\u09cd\u09b0\u09b8\u09cd\u09a4": 1541, "\u09aa\u09cd\u09b0\u09df\u09cb\u099c\u09a8": 1542, "\u09a4\u09c7\u0987": 1543, "\u09b8\u09cd\u09aa": 1544, "\u09a8\u09c7\u099f": 1545, "\u09be\u09df\u09a3": 1546, "\u09aa\u09be\u09b6\u09c7": 1547, "\u0995\u09bf\u09a8": 1548, "\u098f\u0995\u099f\u09c1": 1549, "\u09b8\u0982\u09b0\u0995\u09cd\u09b7": 1550, "\u09a4\u09cd\u09b0\u09bf": 1551, "\u09af\u09be\u09a4\u09cd\u09b0": 1552, "\u09af\u09be\u099a\u09be\u0987": 1553, "\u098f\u0987\u099a": 1554, "\u09a8\u09be\u09b0\u09be\u09df\u09a3": 1555, "\u09af\u09c1\u09a6\u09cd\u09a7": 1556, "\u09ad\u09be\u09b0\u09a4": 1557, "\u09b2\u09be\u0987\u09a8": 1558, "\u09b8\u09cd\u09ac\u09c0": 1559, "\u0989\u09a6\u09cd\u09a6\u09c7\u09b6": 1560, "\u09ac\u09b0\u09cd\u09a4\u09c0": 1561, "\u09b6\u09c0\u09b2": 1562, "\u09b8\u09cd\u09a4\u09cd\u09b0\u09c0": 1563, "\u0989\u09a8\u09cd\u09a8\u09df\u09a8": 1564, "\u09a6\u09cd\u09ac\u09bf\u09a4\u09c0\u09df": 1565, "\u09aa\u09a3\u09cd\u09af": 1566, "\u09b0\u09be\u099c\u09a8\u09c8\u09a4\u09bf\u0995": 1567, "\u0997\u09ac\u09c7\u09b7": 1568, "de": 1569, "la": 1570, "ne": 1571, "\u0986\u09b8\u09c7": 1572, "\u0986\u09a8\u09cd\u09a4": 1573, "\u0986\u09b0\u09c7": 1574, "\u0987\u09df\u09be": 1575, "\u098f\u0997\u09bf\u09df\u09c7": 1576, "\u0995\u09be\u09a8": 1577, "\u099c\u09bf\u09a4": 1578, "\u099f\u09cd\u09af\u09be": 1579, "\u09a6\u09b0": 1580, "\u09a6\u09c3": 1581, "\u09aa\u09a5\u09c7": 1582, "\u09ac\u09c1\u09b0": 1583, "\u09ac\u09c0\u09b0": 1584, "\u09ad\u09cd\u09af": 1585, "\u09b6\u09be\u09b0": 1586, "\u09b8\u09cc": 1587, "\u09b8\u0999\u09cd\u0997": 1588, "\u09b8\u0995\u09be\u09b2": 1589, "\u09b9\u09c0\u09a8": 1590, "\u09bf\u0995\u09be\u09b0": 1591, "\u09e7\u09ed": 1592, "\u09e8\u09e8": 1593, "\u09e8\u09ed": 1594, "\u0995\u09b0\u09ac\u09c7\u09a8": 1595, "\u09ac\u09bf\u09a4": 1596, "\u09ac\u09bf\u09aa\u0995\u09cd\u09b7\u09c7": 1597, "\u09ac\u09be\u09b8\u09c7\u09b0": 1598, "\u09b0\u09be\u0987": 1599, "\u0995\u09cd\u09b2\u09be": 1600, "\u09a6\u09bf\u09a8\u09c7": 1601, "\u0995\u09be\u09b0\u09bf": 1602, "\u0995\u09be\u09b0\u09cd\u09af\u09be\u09b2": 1603, "\u09be\u09b0\u09cd\u09b8": 1604, "\u09ac\u09be\u09b0\u09cd\u09a4": 1605, "\u09a4\u09be\u09b0\u09bf": 1606, "\u09af\u09be\u09af\u09bc": 1607, "\u09b9\u09df\u09c7\u099b\u09c7\u09a8": 1608, "\u09a5\u09c7\u0995\u09c7\u0987": 1609, "\u09aa\u09c1\u09b0\u09cb": 1610, "\u09a8\u09be\u09b0\u09c0": 1611, "\u09a8\u09be\u09ae\u09c7\u09b0": 1612, "\u0997\u09be\u099b": 1613, "\u09a6\u09bf\u09df\u09c7\u099b\u09c7\u09a8": 1614, "\u09af\u09be\u09df\u09c0": 1615, "\u0997\u09cd\u09b0\u09be\u09ae\u09c7": 1616, "\u09b8\u09c7\u09a8\u09be": 1617, "\u09b9\u09be\u09ae\u09cd\u09ae\u09a6": 1618, "\u09b8\u09be\u0987\u099f": 1619, "\u09ae\u09cd\u09af\u09be\u099a": 1620, "\u09b0\u09cd\u09b6\u0995": 1621, "\u09b9\u09be\u09b8\u09bf\u09a8\u09be": 1622, "\u09ae\u09be\u09b9\u09ae\u09c1": 1623, "\u0987\u0989\u09a8\u09bf\u09df\u09a8": 1624, "\u099a\u09c7\u09df\u09be\u09b0\u09ae\u09cd\u09af\u09be\u09a8": 1625, "\u09a4\u09c7\u09be\u09ae\u09be\u09b0": 1626, "\u09a8\u09bf\u09b0\u09cd\u09a7\u09be\u09b0\u09bf\u09a4": 1627, "13": 1628, "ha": 1629, "it": 1630, "\u0985\u09a5": 1631, "\u0986\u09ac\u09cd": 1632, "\u0987\u099b": 1633, "\u0989\u099a\u09cd\u099a": 1634, "\u098f\u09a1": 1635, "\u0993\u09af\u09bc\u09be": 1636, "\u099a\u09b2\u09be": 1637, "\u099a\u09be\u09df": 1638, "\u099b\u09dc\u09bf": 1639, "\u099c\u09cd\u09af": 1640, "\u09a3\u09cd": 1641, "\u09aa\u09c3": 1642, "\u09aa\u09cd\u09af\u09be": 1643, "\u09ab\u09bf\u09b0": 1644, "\u09ac\u0987": 1645, "\u09ac\u09b8\u09c7": 1646, "\u09ac\u09b2\u09bf": 1647, "\u09af\u0996\u09a8": 1648, "\u09b0\u09cb\u0997": 1649, "\u09b2\u09bf\u0995": 1650, "\u09b6\u09b0": 1651, "\u09b6\u09be\u09a8\u09cd\u09a4": 1652, "\u09bf\u09a4\u09bf": 1653, "\u09c1\u09a6\u09cd\u09b0": 1654, "\u09ec\u09e6": 1655, "\u09cd\u09b0\u09bf": 1656, "\u09ac\u09bf\u09b0\u09cb\u09a7": 1657, "\u09aa\u09cd\u09b0\u09a4\u09cd\u09af\u09be": 1658, "\u09be\u09b2\u099f": 1659, "\u09a8\u09be\u099c": 1660, "\u09b8\u09cd\u09aa\u09a4\u09bf": 1661, "\u09b0\u09be\u09b8": 1662, "\u09a8\u09cd\u09a6\u09cd\u09b0": 1663, "\u09b8\u09ae\u09c2": 1664, "\u09aa\u09be\u0996\u09bf": 1665, "\u099c\u09bf\u09df\u09be": 1666, "\u099c\u09be\u09a8\u09a4\u09c7": 1667, "\u09ac\u09b2\u09c0": 1668, "\u09ae\u09cb\u099f": 1669, "\u09e8\u09e6\u09e6": 1670, "\u09b8\u09ac\u099a\u09c7\u09df\u09c7": 1671, "\u0995\u09b0\u09cd\u09ae\u09c0": 1672, "\u09ae\u09a8\u09b8\u09bf\u0982\u09b9": 1673, "\u0986\u09aa\u09a8\u09be": 1674, "\u0997\u09be\u0981": 1675, "\u09be\u09a8\u09cd\u09a4\u09b0": 1676, "\u09aa\u09cd\u09b2\u09c7": 1677, "\u0993\u09df\u09be\u09df": 1678, "\u09b8\u09ae\u09cd\u09aa\u09c2": 1679, "\u09b9\u09be\u09ae\u09b2\u09be": 1680, "\u09b8\u09cd\u099f\u09cd\u09b0\u09c7": 1681, "\u0985\u09aa\u09b0\u09be": 1682, "***": 1683, "\u0985\u09ac\u09b8\u09cd\u09a5\u09be\u09df": 1684, "\u0989\u09b2\u09cd\u09b2\u09c7\u0996": 1685, "\u09aa\u09a6\u09cd\u09a7\u09a4\u09bf\u0983": 1686, "\u09ae\u09b8\u099c\u09bf": 1687, "\u0995\u09c3\u09b7\u09bf": 1688, "\u09a8\u09bf\u09b0\u09be\u09aa\u09a4\u09cd\u09a4": 1689, "\u09ac\u09c7\u0997\u09ae": 1690, "\u09b8\u09aa\u09cd\u09a4\u09be": 1691, "\u09ac\u09c3\u09b9\u09b8\u09cd\u09aa\u09a4\u09bf": 1692, "\u09a8\u09be\u09b0\u09be\u09df\u09a3\u0997\u099e\u09cd\u099c": 1693, "\u09a4\u09be\u09b0\u09bf\u0996": 1694, "\u09ac\u09c3\u09b9\u09b8\u09cd\u09aa\u09a4\u09bf\u09ac\u09be\u09b0": 1695, "ag": 1696, "ww": 1697, "\u0982\u09b8": 1698, "\u0986\u09b0\u09cd": 1699, "\u0986\u09a8\u09cd": 1700, "\u0987\u09b8\u09bf": 1701, "\u0989\u09a8": 1702, "\u098f\u09ab": 1703, "\u0995\u09a4": 1704, "\u099a\u09c1\u09b2": 1705, "\u09a0\u09be": 1706, "\u09a3\u09be\u09b2": 1707, "\u09a5\u09be\u09df": 1708, "\u09a6\u09a8\u09cd\u09a4": 1709, "\u09a6\u09a3\u09cd\u09a1": 1710, "\u09a7\u09b0\u09cd\u09b7": 1711, "\u09b0\u200c": 1712, "\u09b6\u09c1\u09b0": 1713, "\u09b8\u09c3": 1714, "\u09b9\u09cd\u09af\u09be": 1715, "\u09b9\u0993\u09df\u09be": 1716, "\u09be\u0995": 1717, "\u09dc\u09bf\u09df\u09c7": 1718, "\u09a8\u09bf\u09b7": 1719, "\u09ac\u09be\u09b9": 1720, "\u09ac\u09be\u09b8\u09cd\u09a4": 1721, "\u09aa\u09cd\u09b0\u09ac\u09c7\u09b6": 1722, "\u09b0\u09be\u09b6\u09bf": 1723, "\u09a4\u09be\u09b9\u09b2\u09c7": 1724, "\u09ae\u09bf\u09a1\u09bf": 1725, "\u09b8\u09ae\u09df\u09c7": 1726, "\u09b8\u09c7\u099f\u09be": 1727, "\u099c\u09a8\u0995\u09c7": 1728, "\u0999\u09cd\u0995": 1729, "\u09b6\u09bf\u0995\u09cd\u09b7\u09be": 1730, "\u09b8\u0982\u09b6\u09cd": 1731, "\u09b2\u09bf\u0982": 1732, "\u09af\u09be\u09a4\u09cd\u09b0\u09c0": 1733, "\u09ae\u09c1\u09b8": 1734, "\u09b0\u09bf\u09aa\u09cb\u09b0\u09cd\u099f": 1735, "\u09af\u09c7\u09a4\u09c7": 1736, "\u0995\u09cd\u09b0\u09c7": 1737, "\u0985\u09a8\u09c1\u09af\u09be\u09df\u09c0": 1738, "\u09a1\u09bc\u09bf": 1739, "\u0997\u09be\u09dc\u09bf": 1740, "\u09a6\u09cd\u09b0\u09c1\u09a4": 1741, "\u0985\u09ac\u09b6\u09cd\u09af": 1742, "\u09aa\u09cd\u09b2\u09be": 1743, "\u09ac\u09c1\u09a7": 1744, "\u09ab\u09c7\u09b8\u09ac": 1745, "\u09b0\u09be\u099c\u09a7\u09be\u09a8": 1746, "\u09a8\u09bf\u09df\u09cb\u0997": 1747, "\u09ae\u09be\u09ae\u09b2\u09be\u09b0": 1748, "\u09ae\u09a8\u09cd\u09a4\u09cd\u09b0\u09a3\u09be\u09b2": 1749, "\u09ac\u09c7\u09b6\u09c0": 1750, "\u09b8\u09cd\u09a5\u09be\u09aa\u09a8": 1751, "ang": 1752, "\u0986\u09b9\u09ae\u09c7\u09a6": 1753, "\u0998\u09be\u099f": 1754, "\u09a7\u09b0\u09a8\u09c7\u09b0": 1755, "\u0987\u09a8\u09cd\u099f\u09be\u09b0": 1756, "\u09a8\u09bf\u099c\u09c7\u09a6\u09c7\u09b0": 1757, "\u09b8\u09ae\u09cd\u09aa\u09b0\u09cd\u0995\u09c7": 1758, "\u09ae\u09df\u09ae\u09a8\u09b8\u09bf\u0982\u09b9": 1759, "\u09aa\u09b0\u09c0\u0995\u09cd\u09b7\u09be\u09b0": 1760, "\u09ab\u09c1\u099f\u09ac\u09b2": 1761, "\u09ab\u09c7\u09ac\u09cd\u09b0\u09c1\u09df\u09be\u09b0": 1762, "\u09b8\u09dc\u0995": 1763, "\u0989\u09aa\u09b8\u09cd\u09a5\u09bf\u09a4": 1764, "\u09b8\u09ae\u09cd\u09aa\u09c2\u09b0\u09cd\u09a3": 1765, "\u09b8\u0982\u09b6\u09cd\u09b2\u09bf": 1766, "50": 1767, "ht": 1768, "lo": 1769, "\u0989\u09a0": 1770, "\u0989\u09a8\u09bf": 1771, "\u0989\u09a0\u09c7": 1772, "\u099a\u09df": 1773, "\u099a\u09be\u09b0\u09cd": 1774, "\u099a\u09c0\u09a8": 1775, "\u099c\u09a8\u09cd": 1776, "\u099c\u09be\u09df": 1777, "\u09a4\u09a6\u09a8\u09cd\u09a4": 1778, "\u09a6\u09be\u09ae": 1779, "\u09a8\u0997": 1780, "\u09a8\u09cd\u09af\u09be": 1781, "\u09aa\u09c1\u09a8": 1782, "\u09ad\u09b0": 1783, "\u09af\u09c7\u09a8": 1784, "\u09b0\u0995\u09cd\u09b7\u09be": 1785, "\u09b0\u09c2\u09aa": 1786, "\u09b6\u09b9": 1787, "\u09b6\u09cb\u09b0": 1788, "\u09b8\u09c1\u09b0": 1789, "\u09b8\u0995\u09be\u09b2\u09c7": 1790, "\u09b8\u09a4\u09cd\u09af": 1791, "\u09b9\u09af\u09bc\u09c7\u099b\u09c7": 1792, "\u09be\u0995\u09be\u09b0": 1793, "\u09df\u09be\u09ae": 1794, "\u09e8\u09ec": 1795, "\u09e8\u09ee": 1796, "\u09aa\u09cd\u09b0\u09ae\u09be\u09a3": 1797, "\u09df\u09c7\u09b2": 1798, "\u099f\u09bf\u09a4\u09c7": 1799, "\u0995\u09be\u0997": 1800, "\u0995\u09be\u09a6\u09c7\u09b0": 1801, "\u09b0\u09be\u09b8\u09cd\u09a4\u09be": 1802, "\u09a8\u09cd\u09a6\u09c1": 1803, "\u09b8\u09ae\u09b0\u09cd\u09a5": 1804, "\u09b8\u09c7\u09ac\u09be": 1805, "\u09b8\u09c7\u099f\u09bf": 1806, "\u09b8\u09c7\u09a4\u09c1": 1807, "\u09b8\u09be\u09b9\u09be": 1808, "\u09b9\u09be\u09a4\u09c7": 1809, "\u0995\u09cb\u09a5\u09be": 1810, "\u09b8\u0982\u09b8\u09cd\u09a5\u09be": 1811, "\u09b8\u0982\u0997\u09a0": 1812, "\u0995\u09cd\u09a4\u09be\u09b0": 1813, "\u09a8\u09bf\u09b0\u09cd\u09ae\u09be\u09a3": 1814, "\u099b\u09bf\u09b2\u09cb": 1815, "\u0995\u09cd\u09b0\u09ac\u09be\u09b0": 1816, "\u09aa\u09c7\u09a4\u09c7": 1817, "\u0985\u09a8\u09c1\u09ae\u09cb": 1818, "\u09b8\u09ae\u09cd\u09ad\u09ac": 1819, "\u09aa\u09cd\u09a4\u09bf": 1820, "\u09b6\u09c1\u0995\u09cd\u09b0\u09ac\u09be\u09b0": 1821, "\u09b2\u09be\u0987\u099f": 1822, "\u09aa\u09cd\u09b2": 1823, "\u0993\u09df\u09be\u09b0\u09cd": 1824, "\u09b0\u09cb\u09b9\u09bf": 1825, "\u09a6\u09b2\u09c0\u09df": 1826, "\u09b8\u09b0\u0995\u09be\u09b0\u09c7\u09b0": 1827, "\u09b8\u09cd\u09af\u09be\u09b0": 1828, "\u09ae\u09c2\u09b2\u0995": 1829, "\u0985\u09cd\u09af\u09be\u09aa": 1830, "\u09ae\u09cd\u09af\u09be\u099a\u09c7": 1831, "\u09ac\u09be\u099c\u09be\u09b0\u09c7": 1832, "\u0986\u09a8\u09a8\u09cd\u09a6": 1833, "\u0995\u09ae\u09bf\u099f\u09bf\u09b0": 1834, "tion": 1835, "\u09b8\u09cd\u0995\u09c1\u09b2": 1836, "\u0995\u09be\u09ae\u09be\u09b2": 1837, "\u09b0\u09cd\u09a4\u09bf": 1838, "\u0985\u09ab\u09bf\u09b8": 1839, "\u0995\u09b2\u09c7\u099c": 1840, "\u09b8\u09a8\u09cd\u09a4\u09be\u09a8": 1841, "\u0997\u09c1\u09b0\u09c1\u09a4\u09cd\u09ac": 1842, "\u09ac\u09bf\u09b6\u09cd\u09ac\u09be\u09b8": 1843, "\u09a6\u09c8\u09a8\u09bf\u0995": 1844, "\u09b8\u0982\u0998\u09b0\u09cd\u09b7": 1845, "\u09ac\u09be\u09b0\u09cd\u09a4\u09be": 1846, "\u09ac\u09c1\u09a7\u09ac\u09be\u09b0": 1847, "\u09b8\u0982\u09b6\u09cd\u09b2\u09bf\u09b7\u09cd\u099f": 1848, "08": 1849, "un": 1850, "vi": 1851, "\u0987\u09a4\u09cd\u09af\u09be": 1852, "\u098f\u09b2": 1853, "\u0993\u09b0": 1854, "\u0996\u09cd\u09b0\u09bf": 1855, "\u099a\u09be\u09ae": 1856, "\u099f\u09be\u09b2": 1857, "\u09a4\u09c3": 1858, "\u09a8\u09cd\u09af": 1859, "\u09a8\u09be\u09a8\u09be": 1860, "\u09aa\u09c0": 1861, "\u09ac\u0997\u09c1": 1862, "\u09ad\u09df": 1863, "\u09ae\u09a6": 1864, "\u09ae\u09a8\u09bf": 1865, "\u09ae\u09b9\u09bf": 1866, "\u09ae\u09c7\u09a8\u09cd\u099f": 1867, "\u09b0\u09be\u09a8": 1868, "\u09b2\u09be\u09b2": 1869, "\u09b6\u09ab\u09bf\u0995": 1870, "\u09bf\u09a8\u09be\u09b0": 1871, "\u09c0\u09aa\u09c1\u09b0": 1872, "\u09cb\u09ad": 1873, "\u09ee\u09ea": 1874, "\u09ac\u09bf\u09b8\u09cd": 1875, "\u09ac\u09bf\u09a6\u09c7\u09b6": 1876, "\u09ac\u09bf\u099c\u09bf": 1877, "\u09ac\u09be\u09ac": 1878, "\u09ac\u09be\u09a3\u09bf": 1879, "\u09be\u09ae\u09be": 1880, "\u09be\u09b2\u09cb": 1881, "\u09df\u09c7\u09a4": 1882, "\u0995\u09be\u099c\u09c7": 1883, "\u0995\u09be\u09a3\u09cd\u09a1": 1884, "\u09b8\u09cd\u099f\u09be": 1885, "\u09b2\u09be\u09ad": 1886, "\u09b0\u09be\u0996\u09be": 1887, "\u09aa\u09b0\u09be\u09ae": 1888, "\u09ae\u09be\u0987": 1889, "\u09a8\u09c7\u09df\u09be": 1890, "\u09ae\u09bf\u09a5": 1891, "\u09aa\u09be\u0987": 1892, "\u09b8\u09c7\u0996\u09be\u09a8\u09c7": 1893, "\u099c\u09a8\u0997\u09a3": 1894, "\u09ac\u09cd\u09af\u0995\u09cd\u09a4": 1895, "\u09b8\u09c1\u09ac\u09bf": 1896, "\u098f\u09b0\u09aa\u09b0": 1897, "\u0989\u09aa\u09b2": 1898, "\u09a8\u09cd\u09a4\u09cd\u09b0\u09a3": 1899, "\u0986\u09b8\u09b2\u09c7": 1900, "\u09be\u09a8\u09cd\u09a4\u09c7": 1901, "\u09ac\u09cd\u09af\u09be\u09aa\u09be\u09b0\u09c7": 1902, "\u0986\u0997\u09c7\u09b0": 1903, "\u0997\u09cb\u09b2": 1904, "\u09b6\u09c0\u09b0\u09cd\u09b7": 1905, "\u09ac\u09be\u0987\u09b0\u09c7": 1906, "\u09a6\u09be\u09df\u09bf\u09a4\u09cd\u09ac": 1907, "\u09b8\u09ae\u09be\u09a7\u09be\u09a8": 1908, "\u09ac\u09be\u09dc\u09bf\u09a4\u09c7": 1909, "\u09b6\u09bf\u0995\u09cd\u09b7\u09be\u09b0\u09cd\u09a5": 1910, "\u09ae\u09c3\u09a4\u09cd\u09af\u09c1": 1911, "\u0995\u09df\u09c7\u0995\u099f\u09bf": 1912, "\u09ac\u09b0\u09cd\u09a4\u09ae\u09be\u09a8\u09c7": 1913, "\u09ac\u09be\u09b9\u09bf\u09a8\u09c0\u09b0": 1914, "\u09a5\u09be\u0995\u09b2\u09c7\u0993": 1915, "\u09a8\u09bf\u099c\u09b8\u09cd\u09ac": 1916, "\u0985\u09a7\u09bf\u09a6\u09aa\u09cd\u09a4\u09b0": 1917, "\u09ac\u09bf\u099a\u09be\u09b0\u09aa\u09a4\u09bf": 1918, "\u09ae\u09be\u099d\u09c7": 1919, "\u09b0\u09cd\u099c\u09be\u09a4\u09bf\u0995": 1920, "\u09a8\u09c7\u09a4\u09c3\u09a4\u09cd\u09ac\u09c7": 1921, "\u0986\u09a8\u09cd\u09a4\u09b0\u09cd\u099c\u09be\u09a4\u09bf\u0995": 1922, "\u0986\u09b0\u09c7\u0995": 1923, "\u09a8\u09be\u099c\u09ae\u09c1\u09b2": 1924, "\u09a8\u09bf\u09b0\u09be\u09aa\u09a4\u09cd\u09a4\u09be": 1925, "\u0987\u09a4\u09cd\u09af\u09be\u09a6\u09bf": 1926, "14": 1927, ">>": 1928, "\u0985\u09b8\u09cd\u09a4\u09cd\u09b0": 1929, "\u098f\u0995\u09c7": 1930, "\u098f\u0995\u09cd": 1931, "\u0995\u09cc": 1932, "\u099b\u09c1\u09b0": 1933, "\u099c\u09b2": 1934, "\u099c\u09cd\u09ac": 1935, "\u09a4\u09c7\u09a8": 1936, "\u09a6\u09aa\u09c1\u09b0": 1937, "\u09a8\u09a5\u09bf": 1938, "\u09aa\u09a6\u09c7": 1939, "\u09aa\u09be\u09a8\u09bf": 1940, "\u09ad\u09be\u09df": 1941, "\u09b8\u09c8": 1942, "\u09b8\u09a8\u09cd\u09a7": 1943, "\u09be\u0997": 1944, "\u09bf\u09df\u09be": 1945, "\u09c0\u09a4\u09c7": 1946, "\u09df\u09be\u09df": 1947, "\u09e8\u09e7": 1948, "\u09e9\u09e7": 1949, "\u09ef\u09ef": 1950, "\u09a8\u09bf\u09af\u09bc": 1951, "\u09aa\u09cd\u09b0\u09b6\u09be": 1952, "\u09aa\u09cd\u09b0\u0995\u09b2\u09cd\u09aa": 1953, "\u09b0\u09cd\u0995": 1954, "\u099f\u09bf\u09b6": 1955, "\u09aa\u09b0\u09cd\u09af\u09be": 1956, "\u09a6\u09c7\u0993\u09df\u09be\u09b0": 1957, "\u09b8\u09be\u09a4": 1958, "\u09b8\u09be\u0982\u09ac\u09be": 1959, "\u09a5\u09be\u0995\u09be\u09b0": 1960, "\u09ae\u09be\u09a8\u09ac": 1961, "\u09bf\u0995\u09cd\u09a4": 1962, "\u09b8\u0982\u09b6\u09cb\u09a7": 1963, "\u09aa\u09b0\u09bf\u09b8\u09cd\u09a5": 1964, "\u099f\u09c7\u09a1": 1965, "\u09b0\u09bf\u09df\u09c7": 1966, "\u09a6\u09be\u0981": 1967, "\u099b\u09bf\u09b2\u09be\u09ae": 1968, "\u09af\u09c7\u09ae\u09a8": 1969, "\u09b8\u09c1\u09af\u09cb\u0997": 1970, "\u0996\u09c7\u09b2": 1971, "\u09ac\u09bf\u09ad\u09be\u0997\u09a2\u09be\u0995\u09be": 1972, "\u09ac\u09bf\u09ad\u09be\u0997\u09b0\u09be\u099c\u09b6\u09be\u09b9\u09c0": 1973, "\u09ac\u09bf\u09ad\u09be\u0997\u09b0\u0982\u09aa\u09c1\u09b0": 1974, "\u09ac\u09bf\u09ad\u09be\u0997\u0996\u09c1\u09b2\u09a8\u09be": 1975, "\u09ac\u09bf\u09ad\u09be\u0997\u09ae\u09df\u09ae\u09a8\u09b8\u09bf\u0982\u09b9": 1976, "\u0986\u0987\u09a8\u09bf": 1977, "\u09b6\u09c1\u09a8\u09c7": 1978, "\u09b6\u09cd\u099a\u09bf": 1979, "\u09aa\u09c2\u09b0": 1980, "\u09b8\u09be\u09b0\u09cd\u09ad\u09bf": 1981, "\u09b9\u09be\u09b8\u09be\u09a8": 1982, "\u099c\u09be\u09ae\u09be\u09a8": 1983, "\u0997\u09cd\u09b0\u09c7\u09aa\u09cd\u09a4": 1984, "\u098f\u09b8\u09c7\u099b\u09c7": 1985, "\u09ef\u09eb\u09eb": 1986, "\u09a6\u09c2\u09b0": 1987, "\u09aa\u09cc\u0981": 1988, "\u0995\u09cb\u09ae\u09cd\u09aa\u09be\u09a8\u09bf": 1989, "\u09aa\u09b0\u09bf\u09a6\u09b0\u09cd\u09b6\u09a8": 1990, "\u09b8\u09ae\u09c2\u09b9": 1991, "ch": 1992, "ur": 1993, "ws": 1994, "\u0985\u09a7": 1995, "\u0986\u0995": 1996, "\u0986\u09b8\u09be": 1997, "\u0997\u09c3": 1998, "\u099a\u099f\u09cd\u09b0": 1999, "\u09a2\u09be\u0995\u09be\u09b0": 2000, "\u09aa\u09a1\u09bc": 2001, "\u09ab\u09be\u09b0": 2002, "\u09ab\u09b2\u09be": 2003, "\u09ac\u09cd\u09ac": 2004, "\u09ac\u09a8\u09cd\u09a6": 2005, "\u09b0\u09a4": 2006, "\u09b0\u09ac\u09bf": 2007, "\u09b2\u09be\u09ae\u09c0": 2008, "\u09b6\u09a4": 2009, "\u09b6\u09be\u09ae": 2010, "\u09b8\u0995": 2011, "\u09b8\u09c1\u09b2": 2012, "\u09b9\u09b8\u09cd\u09a4": 2013, "\u09cd\u09b8": 2014, "\u09e8\u09ef": 2015, "\u09ee\u09ed": 2016, "\u0995\u09b0\u09a3": 2017, "\u0995\u09b0\u099b\u09c7": 2018, "\u099f\u09bf\u09a8": 2019, "\u09a6\u09c7\u09b9": 2020, "\u09a8\u09cd\u099f": 2021, "\u09b8\u09ae\u09af\u09bc": 2022, "\u09b8\u09ae\u09c1\u09a6\u09cd\u09b0": 2023, "\u09a4\u09be\u09b0\u09aa\u09b0": 2024, "\u09ac\u09cd\u09af\u09be\u09b2\u099f": 2025, "\u09b8\u0982\u0996": 2026, "\u099c\u09c7\u09b2": 2027, "\u09ad\u09bf\u09df\u09c7\u09a4": 2028, "\u09b2\u09bf\u09ae\u09bf": 2029, "\u09b9\u09df\u09c7\u099b\u09bf\u09b2": 2030, "\u099c\u09be\u09a4\u09bf\u09b0": 2031, "\u09b9\u09df\u09a8\u09bf": 2032, "\u0996\u09be\u0981": 2033, "\u0996\u09be\u09ac\u09be\u09b0": 2034, "\u09af\u09cb\u0997\u09bf": 2035, "\u09aa\u09c7\u09b6\u09be": 2036, "\u099a\u09be\u0981": 2037, "\u09ac\u09bf\u09ad\u09be\u0997\u09ac\u09b0\u09bf\u09b6\u09be\u09b2": 2038, "\u09ac\u09cd\u09af\u09ac\u09b8\u09be\u09df": 2039, "\u0985\u09ad\u09bf\u09af\u09be\u09a8": 2040, "\u09b8\u09be\u09ae\u09be\u099c": 2041, "\u09a1\u09c7\u09b8\u09cd\u0995": 2042, "\u09ab\u09be\u0981": 2043, "\u0995\u09c1\u09ae\u09be\u09b0": 2044, "\u09ae\u09be\u09a8\u09c1\u09b7\u09c7\u09b0": 2045, "\u09aa\u09cd\u09b0\u09c7\u09b8": 2046, "\u0986\u09a6\u09be\u09b2\u09a4": 2047, "\u09ac\u09be\u09b9\u09bf\u09a8\u09c0": 2048, "\u09ac\u09bf\u09b6\u09cd\u09ac\u09ac\u09bf\u09a6\u09cd\u09af\u09be\u09b2\u09df\u09c7\u09b0": 2049, "\u09aa\u09cc\u09b0": 2050, "\u09cd\u09b2\u09be\u09b9": 2051, "\u0985\u09a7\u09bf\u09a6\u09aa\u09cd\u09a4\u09b0\u09c7\u09b0": 2052, "\u099a\u09bf\u0995\u09bf\u09ce\u09b8\u09be": 2053, "\u09aa\u09cd\u09b0\u09b6\u09cd\u09a8": 2054, "\u09b8\u09ae\u09cd\u09ae\u09c7\u09b2\u09a8\u09c7": 2055, "\u09ae\u09b9\u09be\u09a8\u0997\u09b0": 2056, "\u09b8\u09cd\u09ac\u09c0\u0995\u09be\u09b0": 2057, "\u0995\u09cb\u09a5\u09be\u0993": 2058, "\u09b8\u09a8\u09cd\u09a7\u09cd\u09af\u09be": 2059, "\u099a\u099f\u09cd\u09b0\u0997\u09cd\u09b0\u09be\u09ae": 2060, "\u09b8\u09be\u09ae\u09be\u099c\u09bf\u0995": 2061, "am": 2062, "ap": 2063, "em": 2064, "to": 2065, "\u0985\u09ad\u09cd\u09af": 2066, "\u0986\u09b2\u09c0": 2067, "\u0987\u09b2\u09c7": 2068, "\u0996\u09b2\u09be": 2069, "\u099a\u09a8\u09cd\u09a6\u09cd\u09b0": 2070, "\u099c\u09c1\u09b0": 2071, "\u09a1\u09be\u0995\u09be": 2072, "\u09a4\u09a8\u09cd\u09a4\u09cd\u09b0": 2073, "\u09a6\u09cd\u09af": 2074, "\u09ab\u09b0\u09cd": 2075, "\u09ac\u09a6\u09cd\u09a7": 2076, "\u09ad\u09c0\u09b0": 2077, "\u09b6\u09c1\u09a8": 2078, "\u09b8\u09ad\u09be\u09df": 2079, "\u09b9\u09af\u09bc\u09c7": 2080, "\u09b9\u09b2\u09c7\u09a8": 2081, "\u09c7\u09b2": 2082, "\u09cb\u09a7": 2083, "\u09e9\u09ed": 2084, "\u09cd\u09b0\u09be": 2085, "\u0995\u09be\u0989\u09a8\u09cd": 2086, "\u09a6\u09bf\u09af\u09bc\u09c7": 2087, "\u09ae\u09be\u09df": 2088, "\u09a8\u09cd\u09b8": 2089, "\u09ae\u09bf\u09b2\u09bf": 2090, "\u0995\u09cd\u09b7\u09cb\u09ad": 2091, "\u09ad\u09be\u09b7": 2092, "\u09b8\u09c7\u09b2": 2093, "\u099c\u09a8\u0995": 2094, "\u0995\u09cb\u09b0\u09bf": 2095, "\u09b7\u09cd\u099f\u09be\u09b0": 2096, "\u09ac\u09cd\u09af\u09be\u09a8\u09cd\u09a1": 2097, "\u09b8\u0982\u0996\u09cd\u09af\u09be": 2098, "\u09b8\u0982\u0995\u09cd\u09b0\u09be\u09a8\u09cd\u09a4": 2099, "\u09aa\u09b0\u09bf\u09ac\u09b0\u09cd\u09a4": 2100, "\u09af\u09be\u0993\u09df\u09be\u09b0": 2101, "\u09ae\u09c1\u099b": 2102, "\u09aa\u09bf\u09a4\u09be": 2103, "\u099f\u09c7\u0995": 2104, "\u09a6\u09c1\u099f\u09bf": 2105, "\u099a\u09cd\u099a\u09bf\u09a4\u09cd\u09b0": 2106, "\u09aa\u09c1\u09b0\u09b8\u09cd\u0995\u09be\u09b0": 2107, "\u09dc\u09be\u0987": 2108, "\u09a6\u09cb\u09b2": 2109, "\u09ac\u09bf\u09ad\u09be\u0997\u099a\u099f\u09cd\u09b0\u0997\u09cd\u09b0\u09be\u09ae": 2110, "\u09af\u09c1\u0995\u09cd\u09a4\u09bf": 2111, "\u09b8\u09b9\u0995\u09be\u09b0\u09c0": 2112, "\u09ab\u09bf\u09b0\u09c7": 2113, "\u0985\u09ac\u09b8\u09cd\u09a5\u09be\u09a8": 2114, "\u09aa\u09cd\u099f\u09c7\u09a8": 2115, "\u0993\u09df\u09be\u09a8": 2116, "\u09b8\u09be\u09ae\u09bf\u09a8\u09be\u09b0": 2117, "\u09ac\u09be\u09a6\u09c0": 2118, "\u099a\u09b2\u099a\u09cd\u099a\u09bf\u09a4\u09cd\u09b0": 2119, "\u09ac\u099b\u09b0\u09c7": 2120, "\u09ae\u09be\u09ae\u09c1\u09a8": 2121, "\u09ac\u09cd\u09b0\u09bf": 2122, "\u0986\u09a6\u09be\u09df": 2123, "\u09ac\u09b9\u09c1": 2124, "\u09b2\u09cd\u09b2\u09be": 2125, "\u0995\u09c3\u09a4\u09bf": 2126, "\u09aa\u09b0\u09bf\u099a\u09be\u09b2\u09a8\u09be": 2127, "\u098f\u09ae\u09a8\u0995\u09bf": 2128, "\u09ae\u09be\u09ae\u09b2\u09be\u09df": 2129, "\u0986\u09ac\u09c7\u09a6\u09a8\u09aa\u09a4\u09cd\u09b0": 2130, "\u0995\u09cd\u09af\u09be\u09aa\u09cd\u099f\u09c7\u09a8": 2131, "\u09ab\u09cd\u09b2\u09be\u0987\u099f": 2132, "\u09a5\u09be\u09a8\u09be\u09b0": 2133, "\u09ac\u0999\u09cd\u0997\u09ac\u09a8\u09cd\u09a7\u09c1": 2134, "\u099c\u09be\u09a8\u09c1\u09df\u09be\u09b0\u09bf": 2135, "\u0995\u0996\u09a8\u09cb": 2136, "\u0989\u09a6\u09cd\u09af\u09cb": 2137, "\u09ae\u09be\u09b9\u09ae\u09c1\u09a6": 2138, "\u0985\u09aa\u09b0\u09be\u09a7": 2139, "\u0986\u09a8\u09cd\u09a6\u09cb\u09b2": 2140, "\u099c\u09a8\u09cd\u09ae": 2141, "\u0995\u09be\u0997\u099c": 2142, "\u09b8\u09be\u09b9\u09be\u09af": 2143, "\u0985\u09a8\u09c1\u09ae\u09cb\u09a6\u09a8": 2144, "\u09aa\u09b0\u09be\u09ae\u09b0\u09cd\u09b6": 2145, "\u098f\u0995\u09cd\u09b8\u09be\u09ae\u09bf\u09a8\u09be\u09b0": 2146, "\u09b8\u09be\u0982\u09ac\u09be\u09a6\u09bf\u0995": 2147, "\u09aa\u09b0\u09bf\u09b8\u09cd\u09a5\u09bf\u09a4\u09bf": 2148, "\u0997\u09cd\u09b0\u09c7\u09aa\u09cd\u09a4\u09be\u09b0": 2149, "00": 2150, "24": 2151, "ck": 2152, "\u0986\u099b\u09c7\u09a8": 2153, "\u0986\u09ac\u09c1\u09b2": 2154, "\u0986\u0989\u099f": 2155, "\u0990\u0995\u09cd\u09af": 2156, "\u0993\u09af\u09bc\u09c7": 2157, "\u0993\u09ac\u09be\u09df": 2158, "\u0995\u09c2": 2159, "\u0995\u0995\u09c7": 2160, "\u0995\u09ae\u09c7": 2161, "\u0996\u09bf\u09b2": 2162, "\u0996\u09be\u09a8\u09be": 2163, "\u0996\u09b0\u09c1\u09b2": 2164, "\u0997\u09b2\u09cd\u09aa": 2165, "\u099a\u09be\u09a8": 2166, "\u099f\u09a8": 2167, "\u09a0\u09bf\u09a4": 2168, "\u09a6\u09b2\u09c7": 2169, "\u09a8\u0997\u09b0": 2170, "\u09ab\u0996\u09b0\u09c1\u09b2": 2171, "\u09ac\u09ac\u09be\u09b0": 2172, "\u09ad\u09be\u09b0\u09cd": 2173, "\u09ae\u09c7\u09a8": 2174, "\u09ae\u09ac\u09be\u09b0": 2175, "\u09ae\u09c0\u09b0": 2176, "\u09af\u09be\u09b0": 2177, "\u09af\u09a8\u09cd\u09a4\u09cd\u09b0": 2178, "\u09b8\u09ab": 2179, "\u09be\u09a4\u09c7": 2180, "\u09c1\u09a4\u09bf": 2181, "\u09dc\u09bf\u09a4": 2182, "\u09df\u09b0": 2183, "\u09e6\u09e8": 2184, "\u0995\u09b0\u09aa\u09cb": 2185, "\u09ac\u09bf\u09b8\u09bf": 2186, "\u09aa\u09b0\u09bf\u0995": 2187, "\u09aa\u09b0\u09ac\u09b0\u09cd\u09a4\u09c0": 2188, "\u09a6\u09bf\u09b2\u09c7": 2189, "\u09a6\u09c7\u09ac": 2190, "\u09ae\u09be\u09b6": 2191, "\u09ae\u09be\u09b8\u09c1": 2192, "\u09ae\u09be\u09b8\u09c7\u09b0": 2193, "\u09b8\u09bf\u0995": 2194, "\u09b8\u09bf\u09ae": 2195, "\u09ad\u09be\u0997\u09c7": 2196, "\u09b8\u09be\u09b9\u09bf\u09a4": 2197, "\u0995\u09bf\u0982": 2198, "\u09af\u09bc\u09be\u09a8": 2199, "\u09b8\u0982\u0997\u09cd\u09b0\u09b9": 2200, "\u09aa\u09b0\u09bf\u09ac\u09c7\u09b6": 2201, "\u099c\u09bf\u09b0": 2202, "\u099c\u09bf\u09df\u09be\u09b0": 2203, "\u09b2\u09bf\u09df\u09be": 2204, "\u09b2\u09bf\u0996\u09c7": 2205, "\u0997\u09cd\u09b0\u09be": 2206, "\u0985\u09a8\u09b2\u09be\u0987\u09a8": 2207, "\u09a6\u09c1\u0983": 2208, "\u09b8\u09c1\u09a8\u09cd\u09a6\u09b0": 2209, "\u09aa\u09c1\u09b0\u09c7": 2210, "\u09b2\u09cb\u09a1": 2211, "\u0995\u09b0\u09cd\u09ae\u09b8\u09c2": 2212, "\u0986\u09aa\u09bf\u09b2": 2213, "\u09b9\u09a4\u09cd\u09af\u09be\u09b0": 2214, "\u09a8\u09bf\u09b0\u09cd\u09ac\u09be\u09b9\u09c0": 2215, "\u0986\u09b8\u09c7\u09a8": 2216, "\u0986\u09b8\u099b\u09c7": 2217, "\u0986\u09b8\u09be\u09ae\u09bf": 2218, "\u09b8\u09ae\u09df\u09c7\u09b0": 2219, "\u099c\u09cd\u099c\u09be\u09ae\u09be\u09a8": 2220, "\u09a8\u09bf\u09b0\u09cd\u09ac\u09be\u099a\u09a8\u09c7\u09b0": 2221, "\u099a\u09be\u09b2\u09bf\u09df\u09c7": 2222, "\u09ab\u09c7\u09b2": 2223, "\u09b8\u09be\u09ae\u09cd": 2224, "\u099a\u09b2\u09a4\u09bf": 2225, "\u09b6\u09cd\u09b0\u09c0": 2226, "\u09b6\u09cd\u09b0\u09ae\u09bf\u0995": 2227, "\u09a4\u09be\u0981\u09b0\u09be": 2228, "\u09a4\u09c1\u09ae\u09bf": 2229, "\u099b\u09ac\u09bf\u09b0": 2230, "\u09b9\u09b2\u09c7\u0993": 2231, "\u0996\u09c1\u09b2\u09c7": 2232, "\u09ae\u09be\u09b0\u09cd\u0995\u09bf\u09a8": 2233, "\u09ae\u09c2\u09b2\u09cd\u09af": 2234, "\u09a7\u09c1\u09a8\u09bf\u0995": 2235, "\u09b8\u09c2\u09a4\u09cd\u09b0": 2236, "ess": 2237, "\u09af\u09cc\u09a8\u0995\u09b0\u09cd\u09ae\u09c0": 2238, "\u09b2\u0995\u09cd\u09b7\u09cd\u09af": 2239, "\u0987\u09a8\u09cd\u09b8": 2240, "\u09b0\u09be\u0996\u09a4\u09c7": 2241, "\u09ac\u09bf\u099c\u09cd\u099e\u09aa\u09cd\u09a4\u09bf": 2242, "\u0985\u09ab\u09bf\u09b8\u09be\u09b0": 2243, "\u09b8\u09ae\u09cd\u09aa\u09b0\u09cd\u0995": 2244, "\u09a6\u09cd\u09ac\u09be\u09b0\u09be": 2245, "\u09ae\u09a8\u09cd\u09a6\u09bf\u09b0": 2246, "\u09ad\u09bf\u09a4\u09cd\u09a4\u09bf\u09a4\u09c7": 2247, "\u09aa\u09cd\u09b0\u09be\u09b0\u09cd\u09a5\u09c0": 2248, "\u09b6\u09cd\u09b0\u09c7\u09a3": 2249, "\u0997\u09cd\u09af\u09be\u09b8": 2250, "\u0986\u09ac\u09cd\u09a6\u09c1\u09b2": 2251, "\u09b8\u09c3\u09b7\u09cd\u099f\u09bf": 2252, "\u09ae\u09c1\u09b8\u09b2\u09bf\u09ae": 2253, "\u09b0\u09cb\u09b9\u09bf\u0999\u09cd\u0997\u09be": 2254, "\u09ae\u09b9\u09bf\u09b2\u09be": 2255, "\u09ac\u09be\u09a3\u09bf\u099c\u09cd\u09af": 2256, "\u09b8\u09c1\u09ac\u09bf\u09a7\u09be": 2257, "\u0985\u09ad\u09cd\u09af\u09a8\u09cd\u09a4": 2258, "\u09ae\u09c1\u099b\u09b2\u09bf\u09ae": 2259, "\u0995\u09b0\u09aa\u09cb\u09b0\u09c7": 2260, "19": 2261, "<<": 2262, "ce": 2263, "is": 2264, "\u0987\u098f": 2265, "\u098f\u09ac\u09be\u09b0": 2266, "\u0995\u09ae\u09be": 2267, "\u0995\u09a3\u09cd\u09a1": 2268, "\u0995\u09cd\u09af\u09be\u09ae\u09cd\u09aa": 2269, "\u099a\u09bf\u09b0": 2270, "\u099f\u0995\u09c7": 2271, "\u09a4\u09b0\u09c1": 2272, "\u09a8\u09b0": 2273, "\u09a8\u09c2": 2274, "\u09a8\u09ae\u09cd\u09ac\u09b0": 2275, "\u09ab\u09cd\u09af\u09be": 2276, "\u09ad\u09c1\u09b2": 2277, "\u09ae\u09c2": 2278, "\u09ae\u09a1\u09c7": 2279, "\u09ae\u09b9\u09be\u09b8": 2280, "\u09b0\u09be\u09ae": 2281, "\u09b2\u09cd\u09af\u09be\u09a8\u09cd\u09a1": 2282, "\u09b6\u09c3": 2283, "\u09b6\u09ac\u09cd": 2284, "\u09b8\u09ac\u09be\u09b0": 2285, "\u09b8\u09a8\u09cd\u09a4\u09cd\u09b0": 2286, "\u09b9\u09ac\u09bf": 2287, "\u09bf\u0982": 2288, "\u09ce\u0995\u09be\u09b0": 2289, "\u09ea\u09eb": 2290, "\u09eb\u09eb": 2291, "\u09ee\u09ee": 2292, "\u0995\u09b0\u09cd": 2293, "\u09ac\u09be\u09a6\u09c7": 2294, "\u09ac\u09be\u09a6\u09c7\u09b0": 2295, "\u09ac\u09be\u09ac\u09c1": 2296, "\u0995\u09c7\u09b2\u09c7": 2297, "\u09be\u09b2\u09be": 2298, "\u09ac\u09c7\u0981": 2299, "\u0995\u09be\u099b": 2300, "\u09a8\u09be\u09a5": 2301, "\u09b8\u09cd\u099f\u09bf": 2302, "\u09b2\u09be\u09aa": 2303, "\u099b\u09c7\u09dc\u09c7": 2304, "\u09ae\u09bf\u09a8": 2305, "\u09ae\u09bf\u09b0": 2306, "\u09aa\u09be\u09dc\u09be": 2307, "\u0995\u09bf\u09ae": 2308, "\u0995\u09bf\u0982\u09ac\u09be": 2309, "\u09a6\u09cd\u09a6\u09c7\u09b0": 2310, "\u09ae\u09be\u09a8\u09c7\u09b0": 2311, "\u09aa\u09b0\u09bf\u09ac\u09be\u09b0": 2312, "\u09ae\u09c1\u0996\u09c7": 2313, "\u099c\u09be\u09a8\u09be\u09df": 2314, "\u09ae\u09cb\u09b9\u09be\u09ae\u09cd\u09ae\u09a6": 2315, "\u099a\u09cd\u099b\u09bf": 2316, "\u09b8\u09cd\u09a5\u09be\u09df": 2317, "\u09af\u09c1\u0997": 2318, "\u09a8\u09bf\u09b0\u09cd\u09ac\u09be\u099a\u09bf\u09a4": 2319, "\u09ad\u09be\u09ac\u09c7\u0987": 2320, "\u09a8\u09bf\u09df\u09ae\u09bf\u09a4": 2321, "\u0985\u09a8\u09c7\u0995\u09c7\u0987": 2322, "\u098f\u09ae\u09aa\u09bf": 2323, "\u098f\u09ae\u0987\u098f": 2324, "\u09a4\u09be\u0981\u0995\u09c7": 2325, "\u0997\u09cb\u09aa\u09be\u09b2": 2326, "\u09aa\u09c2\u09b0\u09cd\u09ac\u09c7": 2327, "\u09b8\u09be\u09b0\u09be": 2328, "\u098f\u0996\u09a8\u0993": 2329, "and": 2330, "\u09ae\u09c2\u09b2\u09a4": 2331, "\u09b8\u09be\u0987\u099f\u09c7\u09b0": 2332, "\u09a4\u09bf\u09b0\u09bf\u0995\u09cd\u09a4": 2333, "\u0986\u09b9\u09ae\u09a6": 2334, "\u09b8\u09cb\u09ae\u09ac\u09be\u09b0": 2335, "\u09a4\u09be\u09b2\u09bf\u0995\u09be": 2336, "\u0989\u09a8\u09cd\u09a8\u09df": 2337, "ent": 2338, "\u09ac\u09bf\u099c\u09cd\u099e\u09be": 2339, "\u09ac\u09df\u09b8": 2340, "\u09ac\u09bf\u09b6\u09cd\u09ac\u09ac\u09bf\u09a6\u09cd\u09af\u09be\u09b2\u09df": 2341, "\u09e6\u09e7\u09ed\u09e7\u09e7": 2342, "\u0995\u09cb\u09ae\u09cd\u09aa\u09be\u09a8": 2343, "\u09ac\u09cd\u09b2\u0995": 2344, "\u09ac\u09c3\u09a6\u09cd\u09a7\u09bf": 2345, "\u09aa\u09b0\u09bf\u09b7\u09a6": 2346, "\u0997\u09cd\u09b0\u09c1\u09aa": 2347, "\u0985\u09a8\u09cd\u09a4\u09a4": 2348, "\u09b6\u09a4\u09be\u0982\u09b6": 2349, "\u0989\u09a6\u09cd\u09a6\u09c7\u09b6\u09cd\u09af\u09c7": 2350, "\u09ac\u09bf\u09b0\u09cb\u09a7\u09c0": 2351, "\u09b0\u200c\u09cd\u09af\u09be": 2352, "\u09ae\u09bf\u09a1\u09bf\u09df\u09be": 2353, "\u09b6\u09b9\u09b0\u09c7\u09b0": 2354, "\u0989\u09aa\u09b2\u0995\u09cd\u09b7\u09c7": 2355, "\u0995\u09cc\u09b6": 2356, "\u0993\u09ac\u09be\u09df\u09a6\u09c1\u09b2": 2357, "<<>>": 2358, "\u09b8\u09a8\u09cd\u09a4\u09cd\u09b0\u09be": 2359, "03": 2360, "06": 2361, "17": 2362, "22": 2363, "be": 2364, "ps": 2365, "\u0985\u09aa\u09b0": 2366, "\u0985\u09a4\u09bf\u09b0\u09bf\u0995\u09cd\u09a4": 2367, "\u0986\u0993": 2368, "\u0986\u09a6\u09c7\u09b6": 2369, "\u0989\u099f\u09be\u09b0": 2370, "\u098f\u09a8\u09c7": 2371, "\u098f\u09a6\u09bf\u0995\u09c7": 2372, "\u0995\u09be\u09a8\u09cd": 2373, "\u0996\u09b0": 2374, "\u0996\u09be\u09b0": 2375, "\u0996\u09a8\u09cd\u09a6": 2376, "\u0996\u09a6\u09cd\u09a6\u09c7\u09b0": 2377, "\u0997\u09be\u09df": 2378, "\u0998\u09a3\u09cd": 2379, "\u099c\u09be\u09b2": 2380, "\u099c\u09a4\u09c7": 2381, "\u099c\u09be\u09b0\u09cd": 2382, "\u099f\u09b8": 2383, "\u09a1\u09cd\u09a1": 2384, "\u09a4\u09be\u09a8": 2385, "\u09a8\u099c": 2386, "\u09a8\u09ac": 2387, "\u09a8\u09be\u09b2": 2388, "\u09aa\u099b": 2389, "\u09aa\u09a8\u09be": 2390, "\u09aa\u09b6\u09cd\u099a\u09bf": 2391, "\u09aa\u09a0\u09bf\u09a4": 2392, "\u09ac\u09a1\u09bc": 2393, "\u09ad\u09cb\u0997": 2394, "\u09ae\u09a8\u09bf\u09b0": 2395, "\u09af\u09a4": 2396, "\u09af\u09bf": 2397, "\u09b0\u09bf\u0995": 2398, "\u09b6\u09b9\u09b0": 2399, "\u09b6\u09b0\u09c0": 2400, "\u09b7\u09a3": 2401, "\u09b8\u09be\u09a8": 2402, "\u09b8\u09b9\u09bf": 2403, "\u09c1\u0995\u09c7": 2404, "\u09dc\u09be\u09df": 2405, "\u09df\u09c7\u09a8": 2406, "\u09e7\u09e8\u09e6": 2407, "\u09ec\u09ed": 2408, "\u09ac\u09be\u09b2": 2409, "\u09ac\u09be\u09ac\u09be": 2410, "\u09ac\u09be\u0995\u09cd\u09b8": 2411, "\u0995\u09c7\u099f\u09c7": 2412, "\u09be\u09ae\u09cd\u09aa": 2413, "\u09be\u09b2\u09bf": 2414, "\u09ac\u09c7\u0986\u0987\u09a8\u09bf": 2415, "\u099f\u09bf\u0995\u09c7": 2416, "\u0995\u09be\u0981": 2417, "\u0995\u09be\u09df": 2418, "\u09a6\u09c7\u09df\u09be\u09b0": 2419, "\u09a8\u09c7\u09a4\u09cd\u09b0\u09c0": 2420, "\u09be\u09df\u09be": 2421, "\u0995\u09cd\u09b7\u09a3": 2422, "\u09aa\u09be\u09a5": 2423, "\u09aa\u09be\u09b8": 2424, "\u09aa\u09be\u09b6\u09be": 2425, "\u09aa\u09be\u09a4\u09be\u09b2": 2426, "\u09b8\u09be\u09aa\u09c7": 2427, "\u09b8\u09be\u09dc\u09c7": 2428, "\u0995\u09b0\u09c7\u0987": 2429, "\u0995\u09bf\u09b6\u09cb\u09b0": 2430, "\u09df\u09be\u0996\u09be\u09b2": 2431, "\u09ae\u09c7\u09a1\u09bf": 2432, "\u09a4\u09be\u09b0\u09c7": 2433, "\u09ae\u09be\u09a8\u09c7": 2434, "\u09ae\u09be\u09a8\u09bf\u0995": 2435, "\u09b6\u09bf\u09b7\u09cd\u099f": 2436, "\u09b2\u09bf\u0996": 2437, "\u09af\u09be\u0993\u09df\u09be": 2438, "\u099c\u09be\u09a4\u09bf": 2439, "\u09a6\u09be\u09b8": 2440, "\u09b6\u09c7\u09df\u09be\u09b0": 2441, "\u09a1\u09bf\u099c\u09bf": 2442, "\u09af\u09c7\u09b8\u09ac": 2443, "\u09aa\u09c1\u09b0\u09c7\u09b0": 2444, "\u09aa\u09c7\u099b": 2445, "\u0995\u09be\u09b2\u09cb": 2446, "\u0997\u09be\u0987": 2447, "\u09af\u09c1\u09ac\u09b2\u09c0": 2448, "\u09b8\u09b9\u09af\u09cb\u0997\u09bf": 2449, "\u09b8\u09c7\u09b0\u09be": 2450, "\u09b2\u09be\u0987\u09b8": 2451, "\u09a2\u09be\u0995\u09be\u09df": 2452, "\u0995\u09b2\u09cd\u09af\u09be": 2453, "\u0995\u09ae\u09cd\u09aa\u09bf": 2454, "\u09b6\u09cd\u09ac\u09b0": 2455, "\u0986\u09b2\u09ab\u09be": 2456, "\u09ae\u09a8\u09cd\u09a4\u09cd\u09b0\u09c0\u09b0": 2457, "\u09ac\u09c3\u09a4\u09cd\u09a4": 2458, "\u099b\u09ac\u09bf\u09a4\u09c7": 2459, "\u0997\u09c1\u09b2\u09cb\u09b0": 2460, "\u0998\u099f\u09a8\u09be\u09b0": 2461, "\u09ac\u09cb\u09b0\u09cd": 2462, "\u09a5\u09be\u0995\u09ac\u09c7": 2463, "\u09ac\u09bf\u09b6\u09cd\u09ac\u0995\u09be": 2464, "\u09b8\u09cd\u09ac\u09be\u09ae\u09c0": 2465, "\u09af\u09c1\u0995\u09cd\u09a4\u09b0\u09be\u09b7\u09cd\u099f\u09cd\u09b0": 2466, "\u099a\u09be\u0987\u09b2\u09c7": 2467, "\u09ab\u09cd\u09b0\u09bf": 2468, "\u09b2\u0995\u09cd\u09b7\u09cd\u09ae": 2469, "\u098f\u0995\u09be\u09a6\u09b6": 2470, "\u09b8\u09cd\u099f\u09cd\u09b0\u09bf": 2471, "\u09ab\u09b0\u09ae": 2472, "\u09b2\u09cd\u09aa\u09a8\u09be": 2473, "\u09a6\u09be\u09ac\u09bf\u09a4\u09c7": 2474, "\u0995\u09ac\u09bf\u09a4\u09be": 2475, "\u09ac\u09cd\u09af\u09be\u0982\u0995\u09c7\u09b0": 2476, "\u0985\u09a4\u09bf\u09a5\u09bf": 2477, "\u09b2\u09cb\u0995\u099c\u09a8": 2478, "\u09aa\u09be\u0995\u09bf\u09b8\u09cd\u09a4\u09be\u09a8": 2479, "\u09b9\u09bf\u09b8\u09be\u09ac": 2480, "\u09b8\u0982\u09b0\u0995\u09cd\u09b7\u09bf\u09a4": 2481, "news": 2482, "\u09ae\u09b8\u099c\u09bf\u09a6\u09c7": 2483, "\u09b8\u0982\u0998\u09b0\u09cd\u09b7\u09c7": 2484, "\u09ac\u09bf\u099c\u09bf\u098f\u09ae\u0987\u098f": 2485, "\u09ae\u09bf\u09a5\u09cd\u09af\u09be": 2486, "\u09ab\u09b2\u09be\u09ab\u09b2": 2487, "\u09b9\u09b8\u09cd\u09a4\u09be\u09a8\u09cd\u09a4\u09b0": 2488, "\u09ae\u09be\u09b6\u09b0\u09be": 2489, "\u0995\u09a3\u09cd\u09a1\u09cb": 2490, "\u09ac\u09bf\u099c\u09cd\u099e\u09be\u09aa\u09a8": 2491, "\u09ae\u09c7\u09a1\u09bf\u0995\u09c7\u09b2": 2492, "04": 2493, "15": 2494, "16": 2495, "as": 2496, "ct": 2497, "ri": 2498, "ro": 2499, "\u0981\u0995\u09bf": 2500, "\u0985\u0999\u09cd\u0997": 2501, "\u0986\u09ac": 2502, "\u0986\u09a8\u09bf": 2503, "\u0987\u0995": 2504, "\u0996\u09be\u09b0\u09be": 2505, "\u0997\u09c0": 2506, "\u0997\u09c1\u09a8": 2507, "\u0998\u09c1": 2508, "\u0998\u09a8\u09cd": 2509, "\u0999\u09c7": 2510, "\u099a\u09c7\u09b0": 2511, "\u099b\u09df": 2512, "\u099c\u09dc\u09bf\u09a4": 2513, "\u099f\u09be\u09ae": 2514, "\u09a4\u09b2\u09be": 2515, "\u09a5\u09be\u09a8\u09be": 2516, "\u09a6\u09cc": 2517, "\u09a8\u09dc\u09be": 2518, "\u09ab\u09be\u09df": 2519, "\u09ac\u09b8\u09c1": 2520, "\u09ac\u0995\u09cd\u09b8": 2521, "\u09ad\u0995\u09cd\u09a4": 2522, "\u09af\u09a5": 2523, "\u09af\u09a5\u09be": 2524, "\u09b0\u09af\u09bc\u09c7\u099b\u09c7": 2525, "\u09b6\u09be\u09ae\u09c0": 2526, "\u09b8\u099a\u09bf\u09ac": 2527, "\u09b9\u0993\u09df\u09be\u09df": 2528, "\u09c0\u09af\u09bc": 2529, "\u09c1\u09af\u09bc": 2530, "\u09e7\u09e6\u09e6": 2531, "\u09e9\u09e8": 2532, "\u09ed\u09e6": 2533, "\u2019\u0964": 2534, "\u0995\u09b0\u09cb": 2535, "\u0995\u09b0\u099b\u09bf": 2536, "\u09a8\u09bf\u09ae": 2537, "\u09ac\u09be\u0995\u09bf": 2538, "\u09aa\u09cd\u09b0\u09b8\u09cd\u09a4\u09be": 2539, "\u09aa\u09cd\u09b0\u099a\u09c1\u09b0": 2540, "\u09aa\u09cd\u09b0\u09af\u09c1\u0995\u09cd\u09a4\u09bf": 2541, "\u09a4\u09c7\u09ae\u09a8": 2542, "\u09ac\u09c7\u09dc\u09c7": 2543, "\u09b2\u09be\u0997": 2544, "\u0995\u09cd\u09b2\u09bf\u0995": 2545, "\u09a8\u09c7\u09ae\u09c7": 2546, "\u09a8\u09c7\u0993\u09df\u09be": 2547, "\u0995\u09cd\u09b7\u09a4\u09bf": 2548, "\u09b8\u09ae\u09be\u09a8": 2549, "\u09b8\u09ae\u09b8\u09cd\u09af\u09be\u09b0": 2550, "\u09aa\u09be\u09b6\u09bf": 2551, "\u09aa\u09be\u09b6\u09c7\u09b0": 2552, "\u09b8\u09bf\u09a1": 2553, "\u09b8\u09bf\u09b8": 2554, "\u09b8\u09bf\u09b2\u09bf": 2555, "\u09b8\u09bf\u09a1\u09bf": 2556, "\u0995\u09bf\u09b0": 2557, "\u0995\u09bf\u09b2\u09cb": 2558, "\u099f\u09be\u0995\u09be\u09b0": 2559, "\u09b9\u09be\u09a6\u09bf": 2560, "\u09ae\u09c7\u09df\u09b0": 2561, "\u09b0\u09c7\u099c\u09be": 2562, "\u09aa\u09b0\u09bf\u099a\u09df": 2563, "\u099c\u09bf\u09a8": 2564, "\u09af\u09be\u09a4\u09c7": 2565, "\u09ae\u09c1\u099c\u09bf": 2566, "\u09ae\u09c1\u09a6\u09cd\u09b0": 2567, "\u099f\u09c7\u09b2\u09bf": 2568, "\u09b8\u09cd\u09a4\u09bf": 2569, "\u09aa\u09cd\u09b0\u09a4\u09bf\u09ac\u09c7\u09a6\u09a8": 2570, "\u09a6\u09be\u09ac\u09c0": 2571, "\u09a6\u09cd\u09a7\u09be": 2572, "\u09b8\u09cd\u09a5\u09be\u09a8\u09c7": 2573, "\u099f\u09cd\u09b0\u09be": 2574, "\u099f\u09cd\u09b0\u09be\u09ae\u09cd\u09aa": 2575, "\u099b\u09be\u09dc": 2576, "\u099b\u09be\u09a4\u09cd\u09b0\u09c0": 2577, "2014": 2578, "\u09dc\u09be\u09a4\u09c7": 2579, "\u09ac\u09bf\u09ad\u09be\u0997\u09c7\u09b0": 2580, "\u09b8\u09b9\u099c": 2581, "\u0986\u09b8\u09be\u09ae\u09c0": 2582, "\u0995\u09cd\u09b7\u09c7\u09aa": 2583, "\u09a7\u09be\u09b0\u09a3\u09be": 2584, "\u09ae\u09a7\u09cd\u09af\u09c7\u0987": 2585, "\u09ab\u09c7\u09b2\u09c7": 2586, "\u09b0\u09cb\u09a1": 2587, "\u09b0\u09cb\u09ac\u09ac\u09be\u09b0": 2588, "\u09ac\u09be\u09b8\u09be\u09df": 2589, "\u0985\u09a8\u09c7\u0995\u09c7": 2590, "\u09ac\u09c3\u09b7\u09cd\u099f\u09bf": 2591, "\u09b9\u09cb\u0995": 2592, "\u099c\u09c1\u09dc\u09c7": 2593, "\u09b9\u09c7\u09b2": 2594, "\u09b8\u09cd\u09ac\u09aa\u09cd": 2595, "\u09aa\u09a4\u09cd\u09b0\u09bf\u0995\u09be\u09b0": 2596, "\u09a5\u09be\u0995\u09c7\u09a8": 2597, "\u09aa\u09cd\u09b0\u09a6\u09a4\u09cd\u09a4": 2598, "\u09b8\u09bf\u09b2\u09c7\u099f\u09c7": 2599, "\u09b8\u09bf\u09b2\u09c7\u099f\u09c7\u09b0": 2600, "\u09b8\u09ae\u09cd\u09aa\u09be\u09a6": 2601, "\u09b9\u09be\u09b8\u09aa\u09be\u09a4\u09be\u09b2": 2602, "\u09ae\u09be\u09a7\u09cd\u09af\u09ae": 2603, "\u09a1\u09be\u0995": 2604, "\u0995\u09c3\u09a4\u09bf\u0995": 2605, "\u09b8\u09be\u09b2\u09be": 2606, "\u0985\u09a7\u09bf\u0995\u09be\u09b0": 2607, "\u0986\u09b9\u09cd\u09ac": 2608, "\u09b8\u09c2\u09a4\u09cd\u09b0\u09c7": 2609, "\u09b0\u09c1\u09b2\u09c7\u09b0": 2610, "\u0986\u09b2\u09cb\u0995": 2611, "\u0986\u09b2\u09cb\u099a": 2612, "\u0985\u09a8\u09cd\u09af\u09a4\u09ae": 2613, "\u09aa\u09be\u09b2\u09a8": 2614, "\u09a8\u09c7\u09a4\u09be\u0995\u09b0\u09cd\u09ae": 2615, "\u09ac\u09be\u09dc\u09c0": 2616, "\u099f\u09be\u0987\u09ae": 2617, "\u0985\u09a8\u09c1\u09b7\u09cd\u09a0\u09be\u09a8\u09c7": 2618, "\u098f\u0995\u09be\u09a7\u09bf\u0995": 2619, "\u09be\u09b0\u09c7\u09b2": 2620, "\u09a8\u09c7\u09a4\u09c3\u09a4\u09cd\u09ac": 2621, "\u09ad\u09c1\u0995\u09cd\u09a4": 2622, "\u09a6\u09cd\u09ac\u09c0": 2623, "\u099a\u09c0\u09ab": 2624, "\u0987\u0989\u09a8\u09bf\u09df\u09a8\u09c7\u09b0": 2625, "\u09b8\u09ae\u09cd\u09ae\u09c7\u09b2\u09a8": 2626, "\u09ae\u09cc\u09b8\u09c1": 2627, "\u0995\u09be\u09b0\u09cd\u09af\u0995\u09cd\u09b0\u09ae": 2628, "\u099a\u09cb\u0996\u09c7": 2629, "\u099c\u09be\u09b9\u09be\u099c\u09c7\u09b0": 2630, "\u09ac\u09c1\u099d\u09a4\u09c7": 2631, "\u0995\u09b0\u09cd\u09a4\u09c3\u09aa\u0995\u09cd\u09b7\u09c7\u09b0": 2632, "\u09aa\u09b0\u09bf\u09b7\u09a6\u09c7\u09b0": 2633, "\u09b9\u09be\u0987\u0995\u09cb\u09b0\u09cd": 2634, "\u09aa\u09cd\u09b0\u09b8\u09cd\u09a4\u09c1\u09a4\u09bf": 2635, "\u0995\u09cd\u09b2\u09be\u09ac\u09c7\u09b0": 2636, "\u0985\u09a5\u09ac\u09be": 2637, "\u09a7\u09b0\u09cd\u09b7\u09a3": 2638, "\u09b0\u09be\u099c\u09a7\u09be\u09a8\u09c0\u09b0": 2639, "\u09a8\u0997\u09b0\u09c7\u09b0": 2640, "\u0997\u09c3\u09b9": 2641, "\u09b8\u0982\u0996\u09cd\u09af": 2642, "\u0995\u09cb\u09b0\u09bf\u09df\u09be\u09b0": 2643, "\u09aa\u09b0\u09bf\u09ac\u09b0\u09cd\u09a4\u09a8": 2644, "\u09b8\u09be\u09b9\u09be\u09af\u09cd\u09af": 2645, "\u0995\u09c2\u09b2\u09c7": 2646, "\u09aa\u09b0\u09bf\u0995\u09b2\u09cd\u09aa\u09a8\u09be": 2647, "\u09aa\u09be\u09b6\u09be\u09aa\u09be\u09b6\u09bf": 2648, "\u0995\u09b2\u09cd\u09af\u09be\u09a3": 2649, "\u0995\u09ae\u09cd\u09aa\u09bf\u0989\u099f\u09be\u09b0": 2650, "\u0995\u09a3\u09cd\u09a1\u09cb\u09ae": 2651, "\u09a8\u09dc\u09be\u0987\u09b2": 2652, "\u0995\u09bf\u09b2\u09cb\u09ae\u09bf\u099f\u09be\u09b0": 2653, "05": 2654, "07": 2655, "09": 2656, "di": 2657, "el": 2658, "hm": 2659, "\u0982\u09b8\u09be": 2660, "\u0985\u09aa\u09be\u09b0\u09c7": 2661, "\u0985\u09cd\u09af\u09be\u09a8\u09cd\u09a1": 2662, "\u0985\u09a1\u09bf\u0993": 2663, "\u0985\u099e\u09cd\u099a\u09b2": 2664, "\u0986\u09df": 2665, "\u0986\u09a8\u09be": 2666, "\u0986\u0995\u09cd\u09a4\u09be\u09b0": 2667, "\u0989\u09a1": 2668, "\u098f\u09b6\u09bf": 2669, "\u0993\u09b8\u09bf": 2670, "\u0995\u09b2\u09be": 2671, "\u0996\u09c7\u09b0": 2672, "\u0998\u09b0": 2673, "\u099c\u09a8\u09c7": 2674, "\u099c\u09cb\u09b0": 2675, "\u099c\u09df\u09c7\u09b0": 2676, "\u099d\u09c1": 2677, "\u09a4\u09ce": 2678, "\u09a4\u09b0\u09cd\u0995": 2679, "\u09a4\u09ac\u09cd\u09ac": 2680, "\u09a6\u09df": 2681, "\u09a6\u09b0\u09bf": 2682, "\u09a8\u09ac\u09c0": 2683, "\u09aa\u09a1\u09bc\u09c7": 2684, "\u09ab\u09b0\u09bf": 2685, "\u09ad\u09c7\u09b0": 2686, "\u09ad\u09cd\u09af\u09be": 2687, "\u09ad\u09b0\u09cd\u09a4\u09bf": 2688, "\u09ae\u09a4\u09c7": 2689, "\u09ae\u09b0\u09cd": 2690, "\u09af\u09be\u09a8\u09c7\u09b0": 2691, "\u09b0\u09aa\u09cd\u09a4": 2692, "\u09b0\u09be\u09a8\u09c7": 2693, "\u09b0\u0995\u09ae": 2694, "\u09b0\u09be\u09a8\u09cd": 2695, "\u09b2\u09cd\u09a1": 2696, "\u09b6\u09be\u09df": 2697, "\u09b8\u09c1\u09a8": 2698, "\u09b9\u09c3\u09a4": 2699, "\u09be\u09aa": 2700, "\u09c0\u09a4\u09bf": 2701, "\u09c7\u099c": 2702, "\u09c7\u09a7\u09be": 2703, "\u09e9\u09ef": 2704, "\u09ea\u09ef": 2705, "\u09eb\u09e6\u09e6": 2706, "\u09be\u09b0\u09c7\u09b0": 2707, "\u09ac\u09bf\u09df\u09c7\u09b0": 2708, "\u09ac\u09bf\u099f\u0995": 2709, "\u09ac\u09bf\u0995\u09cd\u09b7\u09cb\u09ad": 2710, "\u09ac\u09bf\u0995\u09c7\u09b2\u09c7": 2711, "\u09a8\u09bf\u09a4": 2712, "\u09a8\u09bf\u09af\u09bc\u09c7": 2713, "\u09ac\u09be\u09a4\u09bf": 2714, "\u09ac\u09be\u09df\u09a8": 2715, "\u09aa\u09cd\u09b0\u09b6": 2716, "\u09ac\u09c7\u09a6": 2717, "\u09a4\u09bf\u09a4\u09c7": 2718, "\u09b2\u09c7\u0987": 2719, "\u09a8\u09be\u0995\u09bf": 2720, "\u09a6\u09bf\u099a\u09cd\u099b\u09c7": 2721, "\u09a6\u09bf\u09ac\u09b8": 2722, "\u09ae\u09be\u09b8\u09c7": 2723, "\u09ae\u09be\u09a0\u09c7": 2724, "\u09ae\u09be\u09b8\u09cd\u099f\u09be\u09b0": 2725, "\u09ae\u09be\u09a4\u09ac\u09cd\u09ac": 2726, "\u09a8\u09cd\u09a6\u09be": 2727, "\u0995\u09be\u09b0\u09c0\u09a6\u09c7\u09b0": 2728, "\u09ae\u09bf\u09df\u09be": 2729, "\u0995\u09cd\u09b7\u09c1": 2730, "\u09b8\u09ae\u09a8\u09cd": 2731, "\u09aa\u09be\u09a4\u09be": 2732, "\u09aa\u09be\u0993\u09df\u09be\u09b0": 2733, "\u09b8\u09bf\u09aa\u09bf": 2734, "\u09b8\u09be\u09b9": 2735, "\u0995\u09b0\u09c7\u099b\u09bf": 2736, "\u0995\u09bf\u09df\u09c7": 2737, "\u09af\u09bc\u09c7\u09b0": 2738, "\u098f\u0995\u09ac\u09be\u09b0": 2739, "\u09ae\u09c7\u09be": 2740, "\u09a8\u09cd\u09a4\u09be": 2741, "\u0997\u09c7\u09b2": 2742, "\u0997\u09c7\u099b\u09c7\u09a8": 2743, "\u0999\u09cd\u0995\u09be": 2744, "\u09a6\u09c7\u09b6\u0995\u09c7": 2745, "\u09b6\u09bf\u0982": 2746, "\u09aa\u09b0\u09bf\u099a\u09bf\u09a4": 2747, "\u099c\u09bf\u09a4\u09c7": 2748, "\u09af\u09be\u09ac": 2749, "\u09af\u09be\u09a6\u09c7\u09b0": 2750, "\u09b0\u09bf\u09aa\u09cb\u09b0\u09cd": 2751, "\u099c\u09be\u09a4": 2752, "\u09aa\u09cd\u09b0\u09a4\u09bf\u0995": 2753, "\u09ac\u09b2\u09a4\u09c7": 2754, "\u09ae\u09cb\u09a4\u09be": 2755, "\u09a8\u09bf\u09b0\u09cd\u09ad\u09b0": 2756, "\u09af\u09c7\u0996\u09be\u09a8\u09c7": 2757, "\u099e\u09cd\u099c\u09c7": 2758, "\u09b6\u09be\u0995": 2759, "\u09aa\u09c1\u09b0\u09c1\u09b7": 2760, "\u0986\u09ae\u09c7\u09b0": 2761, "\u0996\u09c7\u09b2\u09be\u09b0": 2762, "\u0995\u09cd\u09b0\u09cb": 2763, "\u09a8\u09be\u09ae\u09be": 2764, "\u0995\u09b0\u09cd\u09ae\u0995\u09be\u09a3\u09cd\u09a1": 2765, "\u09ae\u09a8\u09cb": 2766, "\u0985\u09a8\u09c1\u0995\u09c2\u09b2\u09c7": 2767, "\u09c7\u09a8\u09cd\u099f\u09bf": 2768, "\u09ac\u09b2\u09c7\u0993": 2769, "\u09b8\u09ae\u09cd\u09ae\u09be\u09a8": 2770, "\u09b8\u09ae\u09cd\u09aa\u09cd\u09b0\u09a4\u09bf": 2771, "\u09b9\u09be\u09b0\u09be": 2772, "\u0997\u09be\u099c\u09c0": 2773, "\u09a8\u09bf\u09df\u09c7\u099b\u09c7": 2774, "\u09ad\u09be\u09b0\u09aa\u09cd\u09b0\u09be\u09aa\u09cd\u09a4": 2775, "\u09e8\u09e6\u09e7\u09ea": 2776, "\u09ad\u09c7\u0999\u09c7": 2777, "\u09b6\u09a8\u09be\u09b2": 2778, "\u09a7\u09bf\u0995\u09be\u09b0": 2779, "\u0985\u09ac\u09b8\u09cd\u09a5\u09be": 2780, "\u099a\u09be\u09b2\u0995": 2781, "\u09af\u09be\u09df\u09a8\u09bf": 2782, "\u09ab\u09c7\u09a1": 2783, "\u09ac\u09cd\u09af\u09be\u099f": 2784, "\u09a8\u09cd\u09a7\u09b0\u09be": 2785, "\u0995\u09b2\u0995\u09be": 2786, "\u09a8\u09bf\u09df\u09a8\u09cd\u09a4\u09cd\u09b0\u09a3": 2787, "\u09b6\u09cd\u09b0\u09df": 2788, "\u099b\u09ac\u09bf\u099f\u09bf": 2789, "\u09ac\u09cd\u09b0\u09be": 2790, "\u09aa\u09cd\u09b0\u09be\u09a3": 2791, "\u09b8\u09b0\u0995\u09be\u09b0\u09c0": 2792, "\u099c\u09cd\u099e\u09a4\u09be": 2793, "\u0987\u0989\u09b0\u09cb": 2794, "\u09a5\u09be\u0995\u09a4\u09c7": 2795, "\u09aa\u09cd\u09b0\u09a7\u09be\u09a8\u09ae\u09a8\u09cd\u09a4\u09cd\u09b0\u09c0\u09b0": 2796, "\u09aa\u09cd\u09b0\u0995\u09be\u09b6\u0995": 2797, "\u09b8\u09ae\u09cd\u09aa\u09a6": 2798, "\u09b8\u09be\u09b0\u09c7": 2799, "\u09b9\u09be\u09ae\u09b2\u09be\u09df": 2800, "\u09ae\u09c1\u0996\u09c0": 2801, "\u0997\u09c1\u09b2\u09cb\u09a4\u09c7": 2802, "\u0989\u09a6\u09af\u09be": 2803, "\u0997\u09a3\u09a4\u09a8\u09cd\u09a4\u09cd\u09b0": 2804, "\u0995\u09cd\u09b0\u09bf\u0995\u09c7\u099f": 2805, "\u0995\u09ae\u09bf\u09b6\u09a8": 2806, "\u0985\u09b0\u09cd\u09a5\u09ac\u099b\u09b0\u09c7\u09b0": 2807, "\u09ac\u09be\u09dc\u09bf\u09b0": 2808, "\u09a6\u09be\u09df\u09c7\u09b0": 2809, "\u0985\u09a8\u09c1\u09b7\u09cd\u09a0\u09be\u09a8": 2810, "\u09ac\u09b8\u09ac\u09be\u09b8": 2811, "\u09ac\u09cd\u09af\u09ac\u09b8\u09cd\u09a5\u09be\u09aa\u09a8\u09be": 2812, "\u09ac\u09cd\u09af\u0995\u09cd\u09a4\u09bf\u0995\u09c7": 2813, "\u09ac\u09cd\u09af\u09be\u0982\u0995\u09c7": 2814, "\u099a\u09bf\u0995\u09bf\u09ce\u09b8\u0995": 2815, "\u0995\u09c1\u09b0\u09c7": 2816, "\u0995\u09cb\u09b0\u09cd\u09b8": 2817, "\u09ae\u09a8\u09cd\u09a6\u09bf\u09b0\u09c7\u09b0": 2818, "\u099c\u09be\u09b9\u09be\u099c": 2819, "\u09aa\u09be\u0995\u09bf\u09b8\u09cd\u09a4\u09be\u09a8\u09c7\u09b0": 2820, "\u09b9\u09bf\u09b8\u09be\u09ac\u09c7": 2821, "\u099c\u09c0\u09ac\u09a8\u09c7\u09b0": 2822, "\u0993\u09df\u09c7\u09ac\u09b8\u09be\u0987\u099f": 2823, "\u09ab\u09cb\u09b0\u09be\u09ae": 2824, "\u09af\u09cb\u0997\u09c7": 2825, "\u09ae\u09bf\u09a8\u09bf\u099f\u09c7": 2826, "\u09ad\u09cd\u09b0\u09ae": 2827, "\u09b8\u09cc\u09a6\u09bf": 2828, "\u0997\u09be\u099b\u09c7\u09b0": 2829, "\u0987\u099b\u09b2\u09be\u09ae\u09c0": 2830, "\u09b6\u09be\u09a8\u09cd\u09a4\u09bf": 2831, "\u0986\u09aa\u09a8\u09be\u0995\u09c7": 2832, "\u09a8\u09bf\u09b7\u09c7\u09a7\u09be": 2833, "\u0997\u09c1\u09b0\u09c1\u09a4\u09cd\u09ac\u09aa\u09c2\u09b0\u09cd\u09a3": 2834, "\u0989\u09a6\u09cd\u09af\u09cb\u0997\u09c7": 2835, "\u09a4\u09b0\u09c1\u09a3": 2836, "\u0998\u09a3\u09cd\u099f\u09be": 2837, "\u09b8\u09be\u09aa\u09c7\u0995\u09cd\u09b7\u09c7": 2838, "\u09a1\u09bf\u099c\u09bf\u099f\u09be\u09b2": 2839, "\u09b2\u09be\u0987\u09b8\u09c7\u09a8\u09cd\u09b8": 2840, "\u0996\u09be\u09b0\u09be\u09aa": 2841, "\u09ac\u09b8\u09c1\u09a8\u09cd\u09a7\u09b0\u09be": 2842, "\u09c1\u09af\u09bc\u09be\u09b0\u09bf": 2843, "\u0986\u09b9\u09cd\u09ac\u09be\u09a8": 2844, "//": 2845, "://": 2846, "ON": 2847, "UR": 2848, "ic": 2849, "id": 2850, "oo": 2851, "pp": 2852, "son": 2853, "te": 2854, "\u0985\u09cd\u09af\u09be\u09b2": 2855, "\u0985\u09b2\u09cd\u09aa": 2856, "\u0985\u09b8\u09cd\u099f\u09cd\u09b0\u09c7": 2857, "\u0987\u099a\u09cd\u099b\u09be": 2858, "\u0988\u09a6": 2859, "\u0989\u09aa\u09be": 2860, "\u0989\u09b0\u09bf": 2861, "\u0989\u099a\u09bf\u09a4": 2862, "\u098f\u099c\u09a8\u09cd\u09af": 2863, "\u0990\u09a4\u09bf": 2864, "\u0995\u0995\u09cd\u09b8": 2865, "\u0995\u09be\u09a8\u09be": 2866, "\u0996\u09a8\u09bf\u099c": 2867, "\u0997\u09be\u09ae\u09c0": 2868, "\u099a\u09cd\u09af\u09be\u09ae": 2869, "\u099c\u09ad\u09c0": 2870, "\u09a0\u09bf": 2871, "\u09a1\u099f": 2872, "\u09a6\u09be\u09a8\u09bf": 2873, "\u09a8\u0993": 2874, "\u09a8\u09c7\u09a8": 2875, "\u09a8\u09c1\u09b0": 2876, "\u09a8\u09ae\u09cd\u09ac": 2877, "\u09aa\u09bf\u09a4": 2878, "\u09aa\u09dc\u09be": 2879, "\u09aa\u099e\u09cd\u099a": 2880, "\u09ab\u09bf\u09b2": 2881, "\u09ac\u09b0\u09c7": 2882, "\u09ac\u09be\u09a8\u09cd": 2883, "\u09ac\u09a8\u09cd\u09a6\u09b0": 2884, "\u09ae\u09c3": 2885, "\u09b2\u09cd\u09af\u09be": 2886, "\u09b2\u09ad\u09c0": 2887, "\u09b8\u09ad\u09be\u09b0": 2888, "\u09b8\u09ab\u09b2": 2889, "\u09b8\u09a0\u09bf\u0995": 2890, "\u09b8\u09a4\u09b0\u09cd\u0995": 2891, "\u09b9\u09c3": 2892, "\u09bf\u09ae": 2893, "\u09c1\u09a3": 2894, "\u09cb\u09ae\u09c1\u0996": 2895, "\u09dc\u09c7\u09b0": 2896, "\u09ea\u09e8\u09e6": 2897, "\u09eb\u09ed": 2898, "\u09ef\u09ec": 2899, "\u09c7\u09b0\u09be": 2900, "\u09ac\u09bf\u09ac\u09b0": 2901, "\u09a8\u09bf\u0982": 2902, "\u09ac\u09be\u09b8\u09be": 2903, "\u09ac\u09be\u09a7\u09c0\u09a8": 2904, "\u0995\u09c7\u09b6\u09a8": 2905, "\u09aa\u09cd\u09b0\u09cb": 2906, "\u09aa\u09cd\u09b0\u0995\u09cd\u09b0\u09bf": 2907, "\u09aa\u09cd\u09b0\u09b6\u09bf\u0995\u09cd\u09b7": 2908, "\u09aa\u09cd\u09b0\u09ad\u09be\u09ac": 2909, "\u09be\u09b2\u09c0": 2910, "\u09ac\u09c7\u09b2\u09be": 2911, "\u099f\u09bf\u09df\u09c7": 2912, "\u09a8\u09be\u099f": 2913, "\u09b0\u09be\u09b8\u09cd\u09a4": 2914, "\u09b0\u09be\u09b8\u09c7\u09b2": 2915, "\u0995\u09cd\u09b8\u09bf": 2916, "\u09a4\u09be\u09a4\u09c7": 2917, "\u09aa\u09b0\u09c7\u09b0": 2918, "\u09a6\u09bf\u09a4": 2919, "\u09a6\u09c7\u09ac\u09c7\u09a8": 2920, "\u09cd\u09af\u09be\u0995": 2921, "\u0995\u09be\u09b0\u09cd\u09a1": 2922, "\u09ae\u09bf\u09b0\u09cd\u099c\u09be": 2923, "\u09b8\u09ae\u09b8\u09cd\u09a4": 2924, "\u09b8\u09ae\u09af\u09bc\u09c7": 2925, "\u09b8\u09be\u09a6\u09be": 2926, "\u09b8\u09be\u0995\u09cd\u09b7\u09be": 2927, "\u09b9\u09be\u0981": 2928, "\u0995\u09cb\u09b0": 2929, "\u09a6\u09cd\u09a6": 2930, "\u0999\u09cd\u0996\u09b2\u09be": 2931, "\u09ae\u09be\u09a8\u09cd\u09a4": 2932, "\u09ac\u09cd\u09af\u09b8\u09cd\u09a4": 2933, "\u09b8\u0982\u0995": 2934, "\u09ae\u09c1\u09b9": 2935, "\u0997\u09cd\u09b0\u09c0": 2936, "\u099f\u09c7\u09ac\u09bf\u09b2": 2937, "\u099c\u09be\u09a8\u09c7": 2938, "\u09aa\u09cd\u09b0\u09a4\u09bf\u09a6\u09bf\u09a8": 2939, "\u09aa\u09cd\u09b0\u09a4\u09bf\u09b0\u09cb\u09a7": 2940, "\u09a6\u09be\u0996\u09bf\u09b2": 2941, "\u09a1\u09bf\u09aa\u09bf": 2942, "\u0986\u09ae\u09b2": 2943, "\u0996\u09be\u0993\u09df\u09be": 2944, "\u09cd\u09af\u09be\u09a8\u09cd": 2945, "\u099a\u09be\u0995\u09ae\u09be": 2946, "\u09ab\u09bf\u09b8": 2947, "\u09ac\u09cd\u09af\u09ac\u09b8\u09be": 2948, "\u09ac\u09cd\u09af\u09ac\u09b9\u09c3\u09a4": 2949, "\u0986\u09b8\u09a8": 2950, "\u0986\u09b8\u09a4\u09c7": 2951, "\u0986\u09b8\u09a8\u09c7": 2952, "\u0986\u09b8\u09a8\u09cd\u09a8": 2953, "\u0986\u0987\u09a8\u09c7": 2954, "\u0986\u0987\u09ab\u09cb\u09a8": 2955, "\u0985\u09ac\u09cd\u09af\u09be": 2956, "\u09aa\u09cd\u09b2\u09bf": 2957, "\u09ac\u09cd\u09af\u09be\u09aa\u0995": 2958, "\u09ac\u09cd\u09af\u09be\u09aa\u09c0": 2959, "\u099a\u09be\u09b0\u099f\u09bf": 2960, "\u09ab\u09be\u0987\u09a8": 2961, "\u0986\u0997\u09c1\u09a8": 2962, "\u098f\u09b8\u09b8\u09bf": 2963, "\u099c\u09c1\u09ae": 2964, "\u0985\u09b0\u09cd\u099c\u09a8": 2965, "\u0987\u0989\u09a8\u09bf": 2966, "\u09ac\u09bf\u09b6\u09cd\u09ac\u09c7\u09b0": 2967, "\u09a8\u09cd\u09a1\u09be\u09b0": 2968, "\u09a6\u09c7\u0996\u09be\u09b0": 2969, "\u09b9\u09be\u09ae\u09b2\u09be\u09b0": 2970, "\u09ae\u09c1\u0996\u09cd\u09af": 2971, "\u09ae\u09c1\u0996\u09cb\u09ae\u09c1\u0996": 2972, "\u09a8\u09be\u09df\u0995": 2973, "\u09b0\u09df\u09c7\u099b\u09c7\u09a8": 2974, "\u099c\u09be\u09ae\u09be\u09b2": 2975, "\u09ae\u09be\u09a8\u09c1\u09b7\u0995\u09c7": 2976, "\u09af\u09c1\u0995\u09cd\u09a4\u09bf\u09b0": 2977, "\u0986\u09a8\u09c1": 2978, "\u09a5\u09bf\u09ae": 2979, "\u09aa\u09cd\u09b0\u09c7\u09b8\u09bf\u09a1": 2980, "\u09b9\u09c1\u09ae": 2981, "\u09a6\u09c1\u09b0\u09cd\u09a8\u09c0\u09a4\u09bf": 2982, "\u09b8\u09a6\u09b8\u09cd\u09af\u09a6\u09c7\u09b0": 2983, "dow": 2984, "\u09be\u09b0\u09c7\u09b6\u09a8": 2985, "\u09a8\u09bf\u099c\u09c7\u0995\u09c7": 2986, "\u09aa\u09cd\u09b0\u09a4\u09bf\u09b7\u09cd\u09a0\u09be\u09a8\u09c7\u09b0": 2987, "\u0993\u09df\u09c7\u09b8\u09cd\u099f": 2988, "\u09aa\u09b0\u09c0\u0995\u09cd\u09b7\u09be\u09df": 2989, "\u09a7\u09b0\u09cd\u09ae\u09c0\u09df": 2990, "\u0997\u09bf\u09af\u09bc\u09c7": 2991, "\u09a8\u09cb\u09df\u09be\u0996\u09be\u09b2": 2992, "\u09ac\u09c8\u09a0": 2993, "\u099a\u09c0\u09a8\u09c7\u09b0": 2994, "\u0996\u09cb\u09b2\u09be": 2995, "\u0995\u09cd\u09b0\u09ae\u09a3": 2996, "\u09a6\u09c0\u09b0\u09cd\u0998\u09a6\u09bf\u09a8": 2997, "\u09aa\u09b0\u09bf\u09a6\u09b0\u09cd\u09b6\u0995": 2998, "\u09af\u09cb\u0997\u09cd\u09af\u09a4\u09be": 2999, "\u09b8\u09ac\u09be\u0987\u0995\u09c7": 3000, "\u09a8\u09c7\u09a4\u09c3\u09a4\u09cd\u09ac\u09be\u09a7\u09c0\u09a8": 3001, "\u099c\u09be\u09a8\u09c1\u09df\u09be\u09b0\u09c0": 3002, "\u09ae\u09bf\u09a8\u09bf\u099f": 3003, "\u0987\u09a4\u09bf\u09b9\u09be\u09b8": 3004, "\u0997\u09cd\u09a8": 3005, "\u099c\u09ae\u09bf\u09a6\u09be\u09b0": 3006, "\u09aa\u09cd\u09b0\u09df\u09cb\u099c\u09a8\u09c0\u09df": 3007, "\u0997\u09ac\u09c7\u09b7\u09a3\u09be": 3008, "\u09b8\u0999\u09cd\u0997\u09c0": 3009, "\u0987\u099b\u09b2\u09be\u09ae": 3010, "\u0986\u09aa\u09a8\u09be\u09a6\u09c7\u09b0": 3011, "www": 3012, "\u09ab\u09c7\u09ac\u09cd\u09b0\u09c1\u09df\u09be\u09b0\u09c0": 3013, "htt": 3014, "\u09a8\u09cd\u09af\u09be\u09b6\u09a8\u09be\u09b2": 3015, "\u09b8\u09ae\u09b0\u09cd\u09a5\u09a8": 3016, "\u099a\u09be\u09ae\u099a": 3017, "\u09ac\u09bf\u09b8\u09cd\u09ab\u09cb\u09b0": 3018, "\u099c\u09a8\u0997\u09a3\u09c7\u09b0": 3019, "\u09ac\u09cd\u09af\u0995\u09cd\u09a4\u09bf\u09b0": 3020, "\u09b8\u09be\u09b0\u09cd\u09ad\u09bf\u09b8": 3021, "\u09aa\u09cc\u0981\u099b\u09c7": 3022, "\u09b8\u09ae\u09c1\u09a6\u09cd\u09b0\u0997\u09be\u09ae\u09c0": 3023, "\u09ae\u09bf\u09b2\u09bf\u09df\u09c7": 3024, "\u099f\u09c7\u0995\u09a8\u09be": 3025, "\u0993\u09af\u09bc\u09c7\u09ac": 3026, "\u09b8\u09be\u09b9\u09bf\u09a4\u09cd\u09af": 3027, "\u09b2\u09bf\u0996\u09c7\u099b\u09c7\u09a8": 3028, "\u09b8\u09be\u09ae\u09cd\u09aa\u09cd\u09b0\u09a4\u09bf\u0995": 3029, "\u0995\u09b0\u09aa\u09cb\u09b0\u09c7\u09b6\u09a8\u09c7\u09b0": 3030, "\u09ae\u09b9\u09be\u09b8\u099a\u09bf\u09ac": 3031, "\u09b6\u09c3\u0999\u09cd\u0996\u09b2\u09be": 3032, "\u09b6\u09ac\u09cd\u09a6": 3033, "\u09b9\u09ac\u09bf\u0997\u099e\u09cd\u099c": 3034, "\u0997\u09cb\u09aa\u09be\u09b2\u0997\u099e\u09cd\u099c": 3035, "\u09b0\u200c\u09cd\u09af\u09be\u09ac": 3036, "\u09aa\u099b\u09a8\u09cd\u09a6": 3037, "\u09b2\u0995\u09cd\u09b7\u09cd\u09ae\u09c0\u09aa\u09c1\u09b0": 3038, "\u09ae\u09be\u09b6\u09b0\u09be\u09ab\u09bf": 3039, "\u09b6\u09be\u09ae\u09c0\u09ae": 3040, "\u09ac\u09bf\u099f\u0995\u09df\u09c7\u09a8": 3041, "\u099a\u09cd\u09af\u09be\u09ae\u09cd\u09aa\u09bf": 3042, "\u09b0\u09be\u09b8\u09cd\u09a4\u09be\u09df": 3043, "\u09ae\u09c1\u0996\u09cb\u09ae\u09c1\u0996\u09bf": 3044, "\u09aa\u09cd\u09b0\u09c7\u09b8\u09bf\u09a1\u09c7\u09a8\u09cd\u099f": 3045, "18": 3046, "::": 3047, "EUR": 3048, "Se": 3049, "ber": 3050, "ig": 3051, "im": 3052, "ter": 3053, "\u0981\u099f\u09c7": 3054, "\u0982\u09b6\u09c7": 3055, "\u0982\u099a\u09c1\u09b0": 3056, "\u0985\u09aa\u09c7": 3057, "\u0986\u09ab": 3058, "\u0986\u09b2\u09be": 3059, "\u0986\u099c\u09bf": 3060, "\u0986\u09b8\u09cd\u09a4": 3061, "\u0986\u0995\u09be\u09b6": 3062, "\u0986\u0998\u09be": 3063, "\u0986\u09df\u09cb\u099c\u09a8": 3064, "\u0987\u09ae\u09be\u09ae": 3065, "\u098b\u09a3": 3066, "\u098f\u0995\u09cd\u09b7\u09c7\u09a4\u09cd\u09b0\u09c7": 3067, "\u0995\u09a0": 3068, "\u0995\u09a8\u09cd": 3069, "\u0995\u09cd\u09af\u09be\u09ae": 3070, "\u0997\u09b0\u09bf": 3071, "\u0997\u09dc\u09c7": 3072, "\u099c\u09ac\u09be": 3073, "\u099c\u09b9\u09bf": 3074, "\u099c\u09cb\u099f": 3075, "\u099f\u099f\u09bf": 3076, "\u099f\u09a8\u09c7": 3077, "\u09a4\u09ab": 3078, "\u09a6\u09b0\u09cd\u09b6\u0995": 3079, "\u09a8\u09a8": 3080, "\u09a8\u09a6\u09c0": 3081, "\u09a8\u09c8\u09a4\u09bf\u0995": 3082, "\u09aa\u09c1\u09b2": 3083, "\u09aa\u09b2\u09cd": 3084, "\u09ab\u099f\u09cb": 3085, "\u09ac\u09a8\u09cd\u09a6\u09c1": 3086, "\u09ae\u09b2": 3087, "\u09b0\u09be\u09a8\u09c7\u09b0": 3088, "\u09b7\u09be": 3089, "\u09b8\u09cb\u09a8": 3090, "\u09b8\u09b0\u09be\u09b8": 3091, "\u09b9\u09cd": 3092, "\u09b9\u0995\u09c7\u09b0": 3093, "\u09c3\u09a6\u09cd\u09a7": 3094, "\u09cb\u09a7\u09a8": 3095, "\u09dc\u09be\u09b2": 3096, "\u09dc\u09bf\u09b0": 3097, "\u09cd\u09af\u09ac\u09be\u09a6": 3098, "\u0995\u09b0\u09ac": 3099, "\u0995\u09b0\u09be\u09df": 3100, "\u0995\u09b0\u09b2\u09c7\u09a8": 3101, "\u0995\u09b0\u09a4\u09c7\u09a8": 3102, "\u09ac\u09bf\u09df\u09c7": 3103, "\u09ac\u09bf\u09a7\u09be\u09a8": 3104, "\u09ac\u09bf\u098f\u0995\u09cd\u09b8": 3105, "\u09ac\u09bf\u09a8\u09bf\u09df\u09cb\u0997": 3106, "\u09a8\u09bf\u09a8": 3107, "\u09ac\u09be\u0999": 3108, "\u09ac\u09be\u09b2\u09bf": 3109, "\u09aa\u09cd\u09b0\u09c7\u09b0": 3110, "\u09aa\u09cd\u09b0\u09ae\u09c1\u0996": 3111, "\u09aa\u09cd\u09b0\u09ac\u09be\u09b8\u09c0": 3112, "\u09aa\u09cd\u09b0\u09af\u09c1\u0995\u09cd\u09a4\u09bf\u09b0": 3113, "\u09b0\u09cd\u09a7\u09cd\u09ac": 3114, "\u0995\u09be\u0989": 3115, "\u0995\u09be\u099f\u09be": 3116, "\u0995\u09be\u09aa\u09dc": 3117, "\u09b0\u09be\u09a4\u09c7\u09b0": 3118, "\u09ae\u09be\u099b": 3119, "\u09ae\u09be\u09a0": 3120, "\u09a8\u09c7\u0993\u09df\u09be\u09b0": 3121, "\u09ae\u09bf\u09b8": 3122, "\u09b8\u09ae\u09cd\u09ac": 3123, "\u09b8\u09ae\u09c3\u09a6\u09cd\u09a7": 3124, "\u09aa\u09be\u09b9\u09be": 3125, "\u09b8\u09bf\u09a8": 3126, "\u09b8\u09bf\u09a8\u09c7": 3127, "\u09b8\u09bf\u09a8\u09bf\u09df": 3128, "\u09ad\u09be\u0982\u099a\u09c1\u09b0": 3129, "\u099c\u09a8\u09aa\u09cd\u09b0\u09bf\u09df": 3130, "\u09b8\u09be\u0982": 3131, "\u09b8\u09be\u09ab\u09b2": 3132, "\u0995\u09bf\u0989\u09b0\u09bf": 3133, "\u098f\u0995\u09ae\u09a4": 3134, "\u09b7\u09cd\u099f\u09bf\u09b0": 3135, "\u09b0\u09c7\u09b2": 3136, "\u09b0\u09c7\u09be": 3137, "\u09a4\u09be\u09b0\u0995\u09be": 3138, "\u09ae\u09be\u09a8\u09cd": 3139, "\u09b6\u09bf\u0995\u09be\u09b0": 3140, "\u09b8\u0982\u09b8": 3141, "\u09b8\u0982\u09af\u09cb\u0997": 3142, "\u099c\u09bf\u0982": 3143, "\u099c\u09bf\u09ae\u09cd": 3144, "\u09b2\u09bf\u09a8": 3145, "\u09aa\u09bf\u0982": 3146, "\u09aa\u09be\u09b0\u09b2\u09c7": 3147, "\u09a1\u09bf\u099c\u09be": 3148, "\u09af\u09c7\u09be\u0997": 3149, "\u099c\u09a8\u09cd\u09af\u09c7": 3150, "\u09b6\u09be\u09b8\u09cd\u09a4\u09bf": 3151, "\u09b8\u09cd\u09a5\u09b2": 3152, "\u09b9\u09df\u09a4\u09cb": 3153, "\u09ac\u09b0\u0982": 3154, "\u099a\u09c7\u09af\u09bc\u09c7": 3155, "\u0985\u09a8\u09c1\u09b8\u09b0": 3156, "\u09a6\u09cb\u0995": 3157, "\u09a6\u09cb\u0995\u09be\u09a8": 3158, "\u09b9\u09be\u09b0\u09c7\u09b0": 3159, "\u09b9\u09be\u09b0\u09bf\u09df\u09c7": 3160, "\u09af\u09c1\u09a6\u09cd\u09a7\u09c7": 3161, "\u099c\u09be\u09b0\u09c0": 3162, "\u09b8\u09b9\u09be\u09df": 3163, "\u09ad\u09be\u09b0\u09bf": 3164, "\u09ac\u09cd\u09af\u09ac\u09a7\u09be\u09a8": 3165, "\u09b2\u09be\u0987\u09ad": 3166, "\u09ac\u09cd\u09af\u09be\u09aa\u09be\u09b0": 3167, "\u09a8\u09cd\u09a7\u09c7": 3168, "\u0986\u09b2\u09b9\u09be": 3169, "\u09a6\u09be\u09b0\u09bf": 3170, "\u09aa\u09cb\u09b6\u09be\u0995": 3171, "\u0997\u09cb\u09aa\u09a8": 3172, "\u0997\u09cb\u09b2\u09be\u09aa": 3173, "\u0986\u09ae\u09be\u09a6\u09c7\u09b0\u0995\u09c7": 3174, "\u0985\u09b0\u09cd\u09a5\u09be": 3175, "\u0995\u09c1\u09b2\u09c7": 3176, "\u0987\u0989\u09aa\u09bf": 3177, "\u0987\u0989\u098f\u09b8": 3178, "\u09ac\u09cb\u09ae\u09be": 3179, "\u09ae\u09be\u09b0\u09be": 3180, "\u09b8\u09ae\u09cd\u09aa\u09a8\u09cd\u09a8": 3181, "\u0986\u099c\u0995\u09c7\u09b0": 3182, "\u0996\u09c1\u0981": 3183, "\u09ac\u09a8\u09cd\u09a7\u09c1\u09b0": 3184, "\u09a1\u09be\u0989\u09a8": 3185, "\u09b6\u09cb\u09a8\u09be": 3186, "\u09be\u09a8\u09cd\u09b8": 3187, "\u09ac\u09cd\u09af\u09ac\u09b9\u09be\u09b0\u09c7\u09b0": 3188, "\u09b8\u09cd\u09ac\u09be\u09a7\u09c0\u09a8": 3189, "\u09aa\u09cd\u09b0\u09a5\u09ae\u09c7": 3190, "\u09ac\u09bf\u09a6\u09cd\u09af\u09c1": 3191, "\u0986\u09aa\u09a8\u09be\u09b0\u09be": 3192, "\u0986\u0997\u09c7\u0987": 3193, "\u09b0\u09b9\u09ae\u09be\u09a8\u09c7\u09b0": 3194, "\u0989\u09aa\u099c\u09c7\u09b2\u09be\u09df": 3195, "\u09a4\u09be\u09b2\u09c1\u0995": 3196, "\u09a4\u09bf\u09a8\u099f\u09bf": 3197, "\u09ae\u09be\u09b2\u09be": 3198, "\u09b8\u09b0\u09cd\u09ac\u09cb": 3199, "\u09a8\u09cc\u09af\u09be\u09a8": 3200, "\u09aa\u09dc\u09c7\u099b\u09c7": 3201, "\u09b6\u09be\u09b2\u09c0": 3202, "\u09af\u09a6\u09bf\u0993": 3203, "\u09b9\u09b0\u09a4\u09be\u09b2": 3204, "\u09b0\u09be\u0996\u09c7\u09a8": 3205, "\u09b8\u09ae\u09be\u099c": 3206, "\u0995\u09b0\u09cd\u09ae\u0995\u09b0\u09cd\u09a4\u09be\u09a6\u09c7\u09b0": 3207, "\u0995\u09df\u09c7\u0995\u099c\u09a8": 3208, "\u0995\u09c0\u09ad\u09be\u09ac\u09c7": 3209, "\u09b0\u09c0\u09a3": 3210, "out": 3211, "\u09ac\u09cd\u09af\u0995\u09cd\u09a4\u09bf\u0997\u09a4": 3212, "\u0985\u09ac\u09b8\u09cd\u09a5\u09bf\u09a4": 3213, "\u09b9\u09c7\u09b0\u09c7": 3214, "\u09b6\u09bf\u09b6\u09c1\u09a6\u09c7\u09b0": 3215, "\u09aa\u09c7\u09df\u09c7\u099b\u09c7": 3216, "\u09e6\u09e7\u09ed\u09e7\u09ec": 3217, "\u0996\u09cd\u09af\u09be\u09a4": 3218, "\u09aa\u09cd\u09b0\u09be\u09aa\u09cd\u09a4\u09bf": 3219, "\u09aa\u09cd\u09b0\u09b6\u09cd\u09a8\u09c7\u09b0": 3220, "\u099c\u09c7\u09a8\u09c7": 3221, "\u099c\u09c7\u09a8\u09be\u09b0\u09c7\u09b2": 3222, "\u09ae\u09b9\u09be\u09aa\u09b0\u09bf\u099a\u09be\u09b2\u0995": 3223, "\u09df\u09be\u09a8\u09ae\u09be\u09b0": 3224, "\u09a5\u09be\u09a8\u09be\u09df": 3225, "\u09ab\u09cb\u09a8\u09c7\u09b0": 3226, "\u09b8\u09a8\u09cd\u09a6\u09c7\u09b9": 3227, "\u09b8\u09bf\u09b0\u09bf\u099c\u09c7\u09b0": 3228, "\u0989\u09a6\u09cd\u09ac\u09cb\u09a7\u09a8": 3229, "\u09a7\u09cd\u09ac\u0982\u09b8": 3230, "\u09aa\u09cd\u09b0\u099a\u09be\u09b0\u09bf\u09a4": 3231, "\u09a7\u09be\u09b0\u09be\u09ac\u09be\u09b9": 3232, "\u09ac\u09be\u09b8\u09bf\u09a8\u09cd\u09a6\u09be": 3233, "\u09af\u09be\u09a4\u09cd\u09b0\u09be": 3234, "\u09af\u09c1\u09a6\u09cd\u09a7\u09c7\u09b0": 3235, "\u0985\u09a5\u099a": 3236, "\u09aa\u09c3\u09a5\u09bf": 3237, "\u09ae\u09a8\u09cd\u09a4\u09cd\u09b0\u09a3\u09be\u09b2\u09df": 3238, "angla": 3239, "\u0998\u09be\u099f\u09a4\u09bf": 3240, "\u09ab\u09c7\u09ac\u09cd\u09b0\u09c1\u09df\u09be\u09b0\u09bf": 3241, "\u09aa\u09cd\u09b2\u099f": 3242, "\u09ee\u09ea\u09e9": 3243, "\u09ac\u09bf\u09a6\u09c7\u09b6\u09bf": 3244, "\u09b8\u09cd\u099f\u09be\u09ab": 3245, "\u09ae\u09be\u0987\u0995\u09cd\u09b0\u09cb": 3246, "\u099c\u09cd\u09ac\u09b2": 3247, "\u09b8\u09c8\u09df": 3248, "\u09aa\u09b0\u09cd\u09af\u09be\u09df\u09c7": 3249, "\u0996\u09c7\u09b2\u09a4\u09c7": 3250, "\u0985\u09a7\u09cd\u09af\u09be": 3251, "\u09aa\u09c7\u09b6\u09be\u09a6\u09be\u09b0": 3252, "\u0986\u09a8\u09cd\u09a6\u09cb\u09b2\u09a8": 3253, "\u09b6\u09cd\u09b0\u09c7\u09a3\u09c0\u09b0": 3254, "\u0985\u09ad\u09cd\u09af\u09a8\u09cd\u09a4\u09b0\u09c0\u09a3": 3255, "\u09ab\u09cd\u09af\u09be\u0995\u09cd\u09b8": 3256, "\u09b8\u09cd\u09a5\u09be\u09df\u09c0": 3257, "\u09b8\u09a8\u09cd\u09a4\u09cd\u09b0\u09be\u09b8\u09c0": 3258, "\u0996\u09b0\u099a": 3259, "\u09a8\u099c\u09b0\u09c1\u09b2": 3260, "\u09aa\u09a0\u09bf\u09a4\u09ac\u09cd\u09af": 3261, "\u0986\u09ac\u09a6\u09c1\u09b2": 3262, "\u099f\u09be\u09ae\u09bf\u09a8": 3263, "\u09af\u09a5\u09be\u09af\u09a5": 3264, "\u0986\u09b2\u09cb\u0995\u099a\u09bf\u09a4\u09cd\u09b0": 3265, "\u0985\u09aa\u09be\u09b0\u09c7\u09b6\u09a8": 3266, "\u099d\u09c1\u0981\u0995\u09bf": 3267, "\u09a6\u09b0\u09bf\u09a6\u09cd\u09b0": 3268, "\u09ab\u09b0\u09bf\u09a6\u09aa\u09c1\u09b0": 3269, "\u09aa\u09cd\u09b0\u09b6\u0982\u09b8\u09be": 3270, "\u09ae\u09be\u09a4\u09ac\u09cd\u09ac\u09b0": 3271, "\u09b0\u09bf\u09aa\u09cb\u09b0\u09cd\u099f\u09be\u09b0": 3272, "\u09ae\u09cb\u09a4\u09be\u09ac\u09c7\u0995": 3273, "\u0989\u09a6\u09af\u09be\u09aa\u09a8": 3274, "\u09a8\u09bf\u09b7\u09c7\u09a7\u09be\u099c\u09cd\u099e\u09be": 3275, "\u099c\u09ac\u09be\u09ac\u09c7": 3276, "\u09b8\u09b0\u09be\u09b8\u09b0\u09bf": 3277, "\u09b8\u09bf\u09a8\u09bf\u09df\u09b0": 3278, "\u09a4\u09be\u09b2\u09c1\u0995\u09a6\u09be\u09b0": 3279, "\u09a7\u09be\u09b0\u09be\u09ac\u09be\u09b9\u09bf\u0995": 3280, "An": 3281, "Ch": 3282, "In": 3283, "PH": 3284, "Re": 3285, "SI": 3286, "TE": 3287, "can": 3288, "ia": 3289, "lin": 3290, "nse": 3291, "ol": 3292, "ue": 3293, "\u0985\u0997\u09cd": 3294, "\u0985\u09b8\u0982\u0996\u09cd\u09af": 3295, "\u0986\u09b2\u09c7": 3296, "\u0986\u09b0\u09be": 3297, "\u0986\u09a6\u09bf": 3298, "\u0986\u09df\u09cb": 3299, "\u0986\u09ac\u09be\u09b8\u09bf": 3300, "\u0987\u09b8\u09cd\u099f": 3301, "\u0989\u09ad\u09df": 3302, "\u098f\u0995\u09b0": 3303, "\u098f\u09b8\u09ae\u09df": 3304, "\u0993\u09aa\u09b0\u09c7": 3305, "\u0995\u09a6\u09c7\u09b0": 3306, "\u0995\u09b7\u09cd": 3307, "\u0997\u0997": 3308, "\u0997\u09b2": 3309, "\u0997\u09be\u09b0\u09cd": 3310, "\u0997\u09dc\u09be": 3311, "\u0997\u09ad\u09c0\u09b0": 3312, "\u0997\u099e\u09cd\u099c\u09c7": 3313, "\u0998\u09a8": 3314, "\u099c\u09c1\u09b2": 3315, "\u099d\u09be": 3316, "\u09a1\u0983": 3317, "\u09a4\u09a4": 3318, "\u09a4\u09be\u09ae": 3319, "\u09a4\u09aa\u09c1\u09b0": 3320, "\u09a5\u09ae\u09bf\u0995": 3321, "\u09a6\u09ab\u09be": 3322, "\u09a7\u09b0\u09be": 3323, "\u09a8\u0995": 3324, "\u09a8\u09be\u09a8\u09cd": 3325, "\u09a8\u099f\u09bf\u0995": 3326, "\u09aa\u09df": 3327, "\u09ac\u09a8\u09cd\u09a6\u09bf": 3328, "\u09ae\u09b9": 3329, "\u09ae\u099e\u09cd\u099c": 3330, "\u09af\u09ae\u09c1": 3331, "\u09b0\u09b6\u09bf": 3332, "\u09b6\u09a8\u09c7": 3333, "\u09b6\u0995\u09cd\u09a4\u09bf": 3334, "\u09b8\u09c7\u09a8\u09cd\u099f": 3335, "\u09b8\u09ab\u09b0": 3336, "\u09b9\u09be\u09b0\u09cd": 3337, "\u09c7\u0987": 3338, "\u09c7\u09a1": 3339, "\u09cb\u0995\u09cd\u09a4\u09bf": 3340, "\u09df\u09be\u09a8\u09cd\u09a4\u09c7": 3341, "\u09df\u09a8\u09cd\u09b8": 3342, "\u09e6\u09ef\u09ef": 3343, "\u09e9\u09ec": 3344, "\u09e9\u09ee": 3345, "\u09eb\u09e8": 3346, "\u09eb\u09ec": 3347, "\u09eb\u09ee": 3348, "\u2026\u2026": 3349, "\u09cd\u09b0\u09be\u099c": 3350, "\u09cd\u09af\u09c1\u09b0": 3351, "\u09be\u09a8\u09c1": 3352, "\u0995\u09b0\u09a8": 3353, "\u09ac\u09bf\u09ac\u09c3": 3354, "\u09a8\u09bf\u09b2\u09c7": 3355, "\u09ac\u09be\u09ae": 3356, "\u09ac\u09be\u09a1\u09bc\u09bf": 3357, "\u09ac\u09be\u09a7\u09bf\u0995\u09be\u09b0": 3358, "\u09aa\u09cd\u09b0\u09a4\u09cd\u09af": 3359, "\u09be\u09ae\u09c7": 3360, "\u09ac\u09c7\u0995\u09cd\u09b7": 3361, "\u09ac\u09c7\u09b8\u09b0\u0995\u09be\u09b0\u09bf": 3362, "\u09ac\u09c7\u099e\u09cd\u099a": 3363, "\u099f\u09bf\u09ad\u09bf": 3364, "\u099f\u09bf\u0989\u099f": 3365, "\u0995\u09be\u099c\u09c7\u09b0": 3366, "\u09a8\u09be\u09ac\u09bf\u0995": 3367, "\u09b8\u09cd\u09ac\u09b2": 3368, "\u09b8\u09cd\u09aa\u09be\u0987": 3369, "\u0995\u09cd\u09b8\u09c7": 3370, "\u09a4\u09be\u09b8": 3371, "\u09a4\u09be\u09dc\u09be": 3372, "\u09a6\u09c7\u09dc": 3373, "\u09a8\u09c7\u09df": 3374, "\u09a8\u09c7\u09a4\u09be\u09a6\u09c7\u09b0": 3375, "\u09a8\u09cd\u09a6\u09c7\u09b0": 3376, "\u0995\u09be\u09b0\u09cd": 3377, "\u09ae\u09bf\u099b\u09bf\u09b2": 3378, "\u09ae\u09bf\u09a8\u09be\u09b0": 3379, "\u09ae\u09bf\u09df\u09be\u09a8\u09ae\u09be\u09b0": 3380, "\u0995\u09cd\u09b7\u09b0": 3381, "\u09aa\u09be\u09ac\u09c7\u09a8": 3382, "\u09b8\u09bf\u09ad": 3383, "\u09b8\u09bf\u09b0\u09be\u099c": 3384, "\u0995\u09bf\u09a8\u09c7": 3385, "\u09df\u09be\u09a4": 3386, "\u09df\u09be\u09b8": 3387, "\u09b9\u09be\u0993": 3388, "\u09b9\u09be\u099c\u09bf\u09b0": 3389, "\u09ae\u09c7\u09df\u09be": 3390, "\u09bf\u09b2\u09bf": 3391, "\u09bf\u09b2\u09be\u09b0": 3392, "\u09ac\u09cd\u09af\u09be\u09a8": 3393, "\u09df\u09be\u09b0\u09c0": 3394, "\u09b8\u0982\u09b8\u09cd\u09a5": 3395, "\u09ad\u09bf\u09a8": 3396, "\u09ad\u09bf\u099f\u09be\u09ae\u09bf\u09a8": 3397, "\u09af\u09be\u0987": 3398, "\u09aa\u09bf\u099b": 3399, "\u099f\u09c7\u09a1\u09c7\u09b0": 3400, "\u099c\u09be\u09a8\u09bf": 3401, "\u099c\u09be\u09a8\u09c7\u09a8": 3402, "\u09aa\u09be\u09b0\u09ac\u09c7": 3403, "\u09aa\u09be\u09b0\u09cd\u09ac": 3404, "\u09b0\u09bf\u099c\u09ad\u09c0": 3405, "\u09aa\u09cd\u09b0\u09a4\u09bf\u099f\u09bf": 3406, "\u09a6\u09be\u0997": 3407, "\u09a6\u09be\u09af\u09bc": 3408, "\u09b6\u09be\u0996\u09be\u09b0": 3409, "\u09b8\u09c1\u09b0\u09be": 3410, "\u09b8\u09c1\u09b7\u09cd\u09a0": 3411, "\u0986\u09ae\u09a6\u09be\u09a8\u09bf": 3412, "\u0996\u09c7\u09a4\u09c7": 3413, "\u099f\u09be\u09b0\u09bf": 3414, "\u099b\u09be\u0987": 3415, "\u09ac\u09b2\u09c7\u099b\u09c7": 3416, "\u09ac\u09b2\u09c7\u099b\u09bf\u09b2\u09c7\u09a8": 3417, "\u099a\u09be\u09aa": 3418, "\u09a6\u09cb\u09df\u09be": 3419, "\u09a4\u09cd\u09a4\u09b0": 3420, "\u099c\u09be\u09b0\u09bf": 3421, "\u09b8\u09b9\u099c\u09c7": 3422, "\u09ad\u09be\u09b0\u09a4\u09c7": 3423, "\u099a\u09bf\u09a8\u09cd\u09a4\u09be": 3424, "\u099c\u09cd\u099c\u09be": 3425, "\u09a8\u09bf\u09b0\u09cd\u09ac\u09be\u099a\u09a8\u09c0": 3426, "\u099a\u09be\u09b2\u09c1": 3427, "\u0985\u09ad\u09bf\u09a8\u09c7\u09a4\u09be": 3428, "\u0985\u09ad\u09bf\u099c\u09cd\u099e\u09a4\u09be": 3429, "\u09e6\u09e6\u09e9": 3430, "\u09ac\u09c1\u09a6\u09cd\u09a7": 3431, "\u09b8\u09be\u09ae\u09cd\u09b0\u09be\u099c": 3432, "\u099b\u09c1\u099f\u09c7": 3433, "\u09aa\u09c2\u099c\u09be": 3434, "\u0995\u09ae\u09aa\u09cd\u09b2\u09c7": 3435, "\u09ac\u09bf\u09b7\u09af\u09bc": 3436, "\u09a8\u09bf\u09df\u09ae": 3437, "\u0986\u09b2\u09cd\u09b2\u09be": 3438, "\u09b6\u09cd\u09b0\u09ae": 3439, "\u09b6\u09cd\u09b0\u09a6\u09cd\u09a7\u09be": 3440, "\u09b9\u09cb\u09ae": 3441, "\u0995\u09bf\u099b\u09c1\u0987": 3442, "\u0995\u09bf\u099b\u09c1\u099f\u09be": 3443, "\u09aa\u09cd\u09b0\u09be\u09a3\u09c0": 3444, "\u09aa\u09cd\u09b0\u09be\u09a5\u09ae\u09bf\u0995": 3445, "\u09b8\u09cd\u09ac\u09a4\u09cd\u09ac": 3446, "\u09b0\u09b9\u09b8\u09cd\u09af": 3447, "\u0997\u09c1\u09a3": 3448, "\u0997\u09c1\u09aa\u09cd\u09a4": 3449, "\u09a1\u09be\u0983": 3450, "\u09a1\u09be\u0995\u09cd\u09a4\u09be\u09b0": 3451, "\u09b2\u09c7\u09a8\u09a6\u09c7\u09a8": 3452, "\u09b8\u09ad\u09be\u09aa\u09a4\u09bf\u09a4\u09cd": 3453, "\u09e7\u09ef\u09ec": 3454, "\u09e7\u09ef\u09ef": 3455, "\u09b8\u09c0\u09ae\u09be\u09a8\u09cd\u09a4": 3456, "\u09a8\u09bf\u0995\u099f": 3457, "\u09b9\u09cb\u09b8\u09c7\u09a8\u09c7\u09b0": 3458, "\u0995\u09ae\u09bf\u099f\u09bf": 3459, "\u0995\u09ae\u09bf\u09b6\u09a8\u09c7\u09b0": 3460, "\u09aa\u09be\u09b2\u09bf\u09df\u09c7": 3461, "\u09a7\u09b0\u09a4\u09c7": 3462, "\u09a4\u09cd\u09af\u09be\u0997": 3463, "\u09aa\u09dc\u09c7\u099b\u09c7\u09a8": 3464, "\u09b0\u09be\u09b7\u09cd\u099f\u09cd\u09b0\u09aa\u09a4\u09bf": 3465, "\u09b2\u0995\u09cd\u09b7\u09cd\u09af\u09c7": 3466, "\u09b0\u09be\u0996\u09be\u09b0": 3467, "\u09aa\u09be\u09a0\u0995": 3468, "\u09b8\u09a6\u09b8\u09cd\u09af\u09c7\u09b0": 3469, "\u09b8\u09a6\u09b8\u09cd\u09af\u09b0\u09be": 3470, "\u098f\u0995\u09be\u09a1\u09c7": 3471, "\u0996\u09c1\u09ac\u0987": 3472, "\u099a\u09b2\u09c7\u099b\u09c7": 3473, "\u09ae\u09c3\u09a4\u09cd\u09af\u09c1\u09b0": 3474, "enc": 3475, "\u09ae\u09be\u09a4\u09cd\u09b0\u09be": 3476, "\u0995\u09a8\u09cd\u09af\u09be": 3477, "our": 3478, "\u09ae\u09be\u09b9\u09ac\u09c1": 3479, "\u0989\u09a8\u09cd\u09a1\u09c7": 3480, "\u0989\u0987\u0995\u09c7\u099f\u09c7": 3481, "\u09b2\u09c7\u0996\u0995": 3482, "\u0995\u09c7\u09a8\u09cd\u09a6\u09cd\u09b0\u09c0\u09df": 3483, "\u09eb\u09e6\u09ee": 3484, "\u0997\u09bf\u09df\u09be\u09b8": 3485, "ate": 3486, "\u09be\u0987\u09ad\u09be\u09b0": 3487, "\u099c\u0999\u09cd\u0997\u09bf\u09ac\u09be\u09a6": 3488, "\u09ae\u09cc\u09b2\u09ad\u09c0": 3489, "\u09ab\u09c7\u09ac\u09cd\u09b0\u09c1\u09af\u09bc\u09be\u09b0\u09bf": 3490, "\u09ac\u0999\u09cd\u0997\u09ac\u09a8\u09cd\u09a7\u09c1\u09b0": 3491, "\u0995\u0996\u09a8\u0993": 3492, "\u09a1\u09b2\u09be\u09b0\u09c7\u09b0": 3493, "\u09aa\u09b0\u09cd\u09ac": 3494, "\u09b8\u09bf\u09b0\u09bf\u099c": 3495, "\u0989\u09a6\u09cd\u09af\u09cb\u0997": 3496, "\u09a1\u09cd\u09b0\u09be\u0987\u09ad\u09be\u09b0": 3497, "\u09b8\u09cd\u09aa\u09c7\u09a8": 3498, "\u09af\u09be\u099a\u09be\u0987\u09df\u09be\u09a8\u09cd\u09a4\u09c7": 3499, "\u0989\u09a6\u09cd\u09a6\u09c7\u09b6\u09cd\u09af": 3500, "\u0995\u09be\u09b0\u09cd\u09af\u09be\u09b2\u09df": 3501, "\u09b8\u09c7\u09a8\u09be\u09ac\u09be\u09b9\u09bf\u09a8\u09c0\u09b0": 3502, "\u098f\u09a1\u09cd\u09b8": 3503, "\u099a\u09b2\u09be\u099a\u09b2": 3504, "\u09b6\u09b0\u09c0\u09b0": 3505, "\u0997\u09be\u0981\u0993": 3506, "\u09b8\u09cd\u099f\u09cd\u09b0\u09c7\u09b6\u09a8": 3507, "\u09b6\u09c1\u09b0\u09c1\u09b0": 3508, "\u09ab\u09c7\u09b8\u09ac\u09c1\u0995": 3509, "\u099c\u09be\u09df\u0997\u09be\u09df": 3510, "\u09b8\u09c7\u09a4\u09c1\u09ae\u09a8\u09cd\u09a4\u09cd\u09b0\u09c0": 3511, "\u09b8\u0982\u0997\u09a0\u09a8\u09c7\u09b0": 3512, "\u09ac\u0997\u09c1\u09dc\u09be": 3513, "\u09b6\u09ab\u09bf\u0995\u09c1\u09b0": 3514, "\u09ac\u09be\u09ac\u0997\u099e\u09cd\u099c": 3515, "\u09b6\u09bf\u0995\u09cd\u09b7\u09be\u09b0\u09cd\u09a5\u09c0\u09a6\u09c7\u09b0": 3516, "\u0986\u09b0\u09c7\u0995\u099f\u09bf": 3517, "\u09aa\u09cd\u09b0\u09b6\u09be\u09b8": 3518, "\u09b8\u0982\u09b6\u09cb\u09a7\u09a8\u09c0": 3519, "\u09aa\u09c2\u09b0\u09a3": 3520, "\u09ef\u09eb\u09eb\u09ea\u09e8\u09e6": 3521, "\u09b0\u09ac\u09bf\u09ac\u09be\u09b0": 3522, "\u09b2\u09bf\u09ae\u09bf\u099f\u09c7\u09a1\u09c7\u09b0": 3523, "\u09aa\u09cd\u09b0\u09c7\u09b8\u0995\u09cd\u09b2\u09be\u09ac\u09c7\u09b0": 3524, "\u09b8\u09cd\u09ac\u09c0\u0995\u09be\u09b0\u09cb\u0995\u09cd\u09a4\u09bf": 3525, "\u09ab\u09b0\u09cd\u09ae\u09c7": 3526, "\u0993\u09df\u09be\u09a8\u09a1\u09c7": 3527, "\u09ac\u09cd\u09b0\u09bf\u099f\u09bf\u09b6": 3528, "\u0995\u09b0\u09cd\u09ae\u09b8\u09c2\u099a\u09bf": 3529, "\u09ae\u09a1\u09c7\u09b2": 3530, "\u0995\u09cb\u09ae\u09cd\u09aa\u09be\u09a8\u09bf\u09b0": 3531, "\u0995\u09cc\u09b6\u09b2": 3532, "\u09a1\u09cd\u09a1\u09be": 3533, "\u09b2\u09bf\u0996\u09bf\u09a4": 3534, "\u09af\u09c1\u09ac\u09b2\u09c0\u0997\u09c7\u09b0": 3535, "\u0998\u09a8\u09cd\u099f\u09be\u09b0": 3536, "\u09ab\u09c7\u09a1\u09be\u09b0\u09c7\u09b6\u09a8": 3537, "\u0995\u0995\u09cd\u09b8\u09ac\u09be\u099c\u09be\u09b0": 3538, "\u09b9\u09c3\u09a6\u09df": 3539, "\u0985\u09ac\u09cd\u09af\u09be\u09b9\u09a4": 3540, "\u099f\u09c7\u0995\u09a8\u09be\u09ab": 3541, "\u099a\u09cd\u09af\u09be\u09ae\u09cd\u09aa\u09bf\u09df\u09a8\u09cd\u09b8": 3542, "\u0995\u09be\u0989\u0995\u09c7": 3543, "\u09b8\u09ae\u09cd\u09ac\u09a8\u09cd\u09a7\u09c7": 3544, "\u0985\u09a8\u09c1\u09b8\u09b0\u09a3": 3545, "\u0985\u09b0\u09cd\u09a5\u09be\u09ce": 3546, "\u09e6\u09e7\u09ed\u09e7\u09ec\u09e6\u09ef\u09ef": 3547, "\u0985\u09a7\u09cd\u09af\u09be\u09aa\u0995": 3548, "\u0986\u09ac\u09be\u09b8\u09bf\u0995": 3549, "\u09a8\u099f\u09bf\u0995\u09cd\u09af\u09be\u09b2": 3550, "\u09b8\u09cd\u09aa\u09be\u0987\u09a1\u09be\u09b0": 3551, "\u09b8\u09c1\u09b7\u09cd\u09a0\u09c1": 3552, "\u0986\u09b2\u09cd\u09b2\u09be\u09b9\u09b0": 3553, "\u09b8\u09ad\u09be\u09aa\u09a4\u09bf\u09a4\u09cd\u09ac\u09c7": 3554, "\u09ef\u09eb\u09eb\u09ea\u09e8\u09e6\u09ec": 3555, "\u09e6\u09e7\u09ed\u09e7\u09ec\u09e6\u09ef\u09ef\u09e6\u09e6\u09e9": 3556, ".)": 3557, "28": 3558, "70": 3559, "OR": 3560, "You": 3561, "cess": 3562, "fer": 3563, "gs": 3564, "ist": 3565, "me": 3566, "ment": 3567, "nlo": 3568, "ore": 3569, "su": 3570, "tar": 3571, "us": 3572, "\u0981\u099c\u09bf": 3573, "\u0982\u0995\u09be\u09b0": 3574, "\u0985\u09a8\u09bf": 3575, "\u0985\u09b8\u09c1": 3576, "\u0986\u09ab\u09cd\u09b0": 3577, "\u0986\u099a\u09b0": 3578, "\u0986\u09a7\u09c1\u09a8\u09bf\u0995": 3579, "\u0986\u0995\u09cd\u09b0\u09ae\u09a3": 3580, "\u0987\u099c": 3581, "\u0987\u09ae": 3582, "\u0989\u0995\u09cd\u09a4": 3583, "\u098f\u099c": 3584, "\u098f\u09a6\u09c7\u09b0": 3585, "\u098f\u09df\u09be\u09b0": 3586, "\u0993\u09b2": 3587, "\u0993\u0995\u09c7": 3588, "\u0993\u09af\u09bc\u09be\u09b0": 3589, "\u0995\u09ac\u09b0": 3590, "\u0997\u09a8\u09cd\u09a7": 3591, "\u0997\u0999\u09cd\u0997\u09be": 3592, "\u099a\u09c2": 3593, "\u099c\u09cd\u09af\u09c7": 3594, "\u099f\u09ae": 3595, "\u099f\u09b2": 3596, "\u099f\u09be\u09a8": 3597, "\u09a1\u09be\u09a8": 3598, "\u09a1\u0995\u09c1": 3599, "\u09a3\u09a4": 3600, "\u09a3\u09be\u09b0": 3601, "\u09a4\u09ae\u09be": 3602, "\u09a4\u09b0\u09c7": 3603, "\u09a4\u09cd\u09af\u09c7": 3604, "\u09a6\u09a4\u09cd\u09a4": 3605, "\u09a6\u09c0\u09a8": 3606, "\u09a6\u09be\u09a8\u09c7\u09b0": 3607, "\u09a7\u09c2": 3608, "\u09a8\u09be\u09a8": 3609, "\u09a8\u0995\u09b2": 3610, "\u09a8\u099c\u09b0": 3611, "\u09a8\u09ac\u09be\u09df\u09a8": 3612, "\u09aa\u09c7\u09a8": 3613, "\u09aa\u09b0\u09be\u099c": 3614, "\u09ac\u0995": 3615, "\u09ac\u09af\u09bc": 3616, "\u09ac\u09b8\u09cd\u09a4": 3617, "\u09ac\u09cb\u09a8": 3618, "\u09ad\u09cd\u09af\u09be\u09a8": 3619, "\u09ad\u09cb\u09b0": 3620, "\u09ad\u09ac\u09bf\u09b7": 3621, "\u09ae\u09b0\u09be": 3622, "\u09ae\u09c1\u09b0": 3623, "\u09ae\u09b9\u09be\u09b2": 3624, "\u09b0\u09b6\u09c0": 3625, "\u09b2\u0999\u09cd": 3626, "\u09b2\u09dc\u09be\u0987": 3627, "\u09b6\u09c2": 3628, "\u09b6\u09be\u09a8": 3629, "\u09b8\u09b0\u09bf\u09df\u09c7": 3630, "\u09b9\u0987": 3631, "\u09bf\u09a6\u09cd\u09a7": 3632, "\u09c8\u09b0": 3633, "\u09cb\u09b0\u09c7": 3634, "\u09dc\u09be\u09a8\u09cd\u09a4": 3635, "\u09e6\u09ed": 3636, "\u09e6\u09ee": 3637, "\u09e8\u09df": 3638, "\u09e9\u09e6\u09e6": 3639, "\u09e9\u09e8\u09ea": 3640, "\u09ea\u09ed": 3641, "\u09ed\u09eb": 3642, "\u09ef\u09ea\u09ef": 3643, "\u09cd\u09b0\u09bf\u0995": 3644, "\u0995\u09b0\u09ac\u09cb": 3645, "\u09ac\u09bf\u09a7": 3646, "\u09ac\u09bf\u09a8\u09be": 3647, "\u09ac\u09bf\u09a8\u09c7": 3648, "\u09ac\u09bf\u09a4\u09cd\u09b0": 3649, "\u09ac\u09bf\u099c\u09c7": 3650, "\u09ac\u09bf\u09a8\u09be\u09ae": 3651, "\u09ac\u09bf\u09a4\u09b0": 3652, "\u09ac\u09bf\u09ad\u09be\u0997\u09c7": 3653, "\u09ac\u09be\u099c": 3654, "\u09ac\u09be\u09a1\u09bc": 3655, "\u09ac\u09be\u09b9\u09c0": 3656, "\u09ac\u09be\u09a7\u09be": 3657, "\u0995\u09c7\u09ac\u09b2": 3658, "\u0995\u09c7\u09ae\u09a8": 3659, "\u09aa\u09cd\u09b0\u09a4\u09cd\u09af\u09c7": 3660, "\u09be\u09ae\u09c1": 3661, "\u099f\u09bf\u09ad": 3662, "\u099f\u09bf\u099f\u09bf\u0989\u099f": 3663, "\u09b2\u09c7\u0997\u09c7": 3664, "\u09a8\u09be\u0997\u09be": 3665, "\u09a8\u09be\u099f\u0995": 3666, "\u09b8\u09cd\u09ae\u09c3": 3667, "\u09b2\u09be\u0997\u09c7": 3668, "\u09a4\u09be\u09b9": 3669, "\u09a6\u09c7\u09ac\u09c7": 3670, "\u09a6\u09c7\u09ac\u09c0": 3671, "\u09ae\u09be\u09a6": 3672, "\u09ae\u09be\u09a6\u0995": 3673, "\u09ae\u09be\u0997\u09c1": 3674, "\u09ae\u09be\u09a5\u09be\u09df": 3675, "\u09ae\u09be\u09b7\u09cd\u099f\u09be\u09b0": 3676, "\u09a8\u09c7\u09a4\u09be\u09b0": 3677, "\u09a8\u09cd\u09a8\u09be": 3678, "\u0995\u09be\u09b0\u09c7": 3679, "\u09ae\u09bf\u0989\u099c": 3680, "\u09b8\u09ae\u09be\u09b2\u09cb": 3681, "\u09aa\u09be\u09ac": 3682, "\u09aa\u09be\u09ac\u09c7": 3683, "\u09aa\u09be\u09a4\u09bf": 3684, "\u09aa\u09be\u09af\u09bc": 3685, "\u09b8\u09be\u0997": 3686, "\u09b8\u09be\u09ac": 3687, "\u09af\u09bc\u09be\u09ae\u09c0": 3688, "\u09bf\u09a4\u09cd\u09b0": 3689, "\u09b9\u09be\u099f": 3690, "\u09ae\u09c7\u0997\u09be": 3691, "\u09b0\u09c7\u0996\u09be": 3692, "\u09a6\u09c7\u09b6\u099f\u09bf\u09b0": 3693, "\u09ae\u09be\u09a8\u09b8\u09bf\u0995": 3694, "\u09b6\u09bf\u0996": 3695, "\u09b6\u09bf\u0997\u0997": 3696, "\u09af\u09be\u0981": 3697, "\u09ae\u09c1\u09b8\u09be": 3698, "\u0997\u09cd\u09b0\u09bf": 3699, "\u09aa\u09bf\u09ac\u09bf\u098f\u0995\u09cd\u09b8": 3700, "\u09b0\u09bf\u09df\u09be": 3701, "\u09a6\u09c1\u09ac\u09be\u0987": 3702, "\u09ac\u09b2\u09b2\u09c7\u09a8": 3703, "\u0986\u09b0\u09ac": 3704, "\u09a8\u09bf\u09b0\u09cd\u09ae\u09bf\u09a4": 3705, "\u09b9\u09bf\u09ae": 3706, "\u09b9\u09bf\u09a8\u09cd\u09a6\u09c1": 3707, "\u09a1\u09bf\u0982": 3708, "\u09a1\u09bf\u098f\u09b8": 3709, "\u09c0\u09b0\u09bf\u0995": 3710, "\u099e\u09cd\u099a\u09b2\u09c7": 3711, "\u09aa\u09c1\u09b0\u09bf": 3712, "\u09a8\u09be\u09b0\u09c0\u09a6\u09c7\u09b0": 3713, "\u0996\u09c7\u09b2\u09c7": 3714, "\u0996\u09c7\u09b2\u09cb": 3715, "\u09ad\u09be\u0997\u09cd\u09af": 3716, "\u099f\u09cd\u09b0\u09bf": 3717, "\u099f\u09cd\u09b0\u09ab\u09bf": 3718, "\u09af\u09cb\u0997\u09c0": 3719, "\u09aa\u09c7\u09b2\u09c7": 3720, "\u09a8\u09be\u09ae\u0995": 3721, "\u099a\u09c7\u09a4\u09a8": 3722, "\u09bf\u09b0\u0987": 3723, "2013": 3724, "\u09cd\u09af\u09be\u09a8\u09c7\u09b2": 3725, "\u099a\u09be\u09b9\u09bf": 3726, "\u099a\u09be\u0995\u09b0\u09bf": 3727, "\u099a\u09be\u09aa\u09be\u09df": 3728, "\u09a4\u09cd\u09a4\u09bf": 3729, "\u09a4\u09cd\u09a4\u09c7": 3730, "\u09a8\u09bf\u09df\u09c7\u099b\u09c7\u09a8": 3731, "\u09ad\u09be\u09b0\u09c7": 3732, "\u09ad\u09be\u09b0\u09b8\u09be\u09ae": 3733, "\u09ad\u09be\u09b0\u09a4\u09c0\u09df": 3734, "\u0986\u09b8\u09ac\u09c7": 3735, "\u09be\u09a8\u09cd\u09a4\u09cd\u09b0\u09bf\u0995": 3736, "\u0985\u09ac\u09b8\u09b0": 3737, "\u0985\u09ac\u09b6\u09c7\u09b7\u09c7": 3738, "\u09b8\u09cd\u099f\u09be\u09a8": 3739, "\u0985\u09ad\u09bf\u09a8\u09c7\u09a4\u09cd\u09b0\u09c0": 3740, "\u0985\u09ad\u09bf\u09af\u09cb\u0997\u09c7": 3741, "\u09ac\u09c1\u0995\u09c7": 3742, "\u09b0\u09cb\u099c": 3743, "\u09b8\u09be\u09ae\u09b0\u09bf\u0995": 3744, "\u09a6\u09b2\u0995\u09c7": 3745, "\u0986\u09ae\u09bf\u09a8": 3746, "\u0995\u09ae\u09cd\u09aa": 3747, "\u09a8\u09bf\u09df\u09a8\u09cd\u09a4\u09cd\u09b0": 3748, "\u0995\u09b0\u09c7\u09a8\u09a8\u09bf": 3749, "\u09b9\u09c7\u09be": 3750, "\u09ac\u09cd\u09b0\u09c1": 3751, "\u09ac\u09cd\u09b0\u09cb": 3752, "\u099c\u09c0\u09ac\u09c0": 3753, "\u09aa\u09cd\u09b0\u09be\u0995\u09c3\u09a4\u09bf\u0995": 3754, "\u0997\u09c1\u09b2\u09bf\u09b0": 3755, "\u0989\u09a6\u09cd\u09a6\u09c0\u09a8": 3756, "\u09ac\u09cb\u099d": 3757, "\u09aa\u09be\u09b0\u09c7\u09a8\u09bf": 3758, "\u098f\u0996\u09a8\u09cb": 3759, "\u09ac\u09a8\u09cd\u09a7\u09a8": 3760, "\u09a3\u09cd\u09a1\u09be": 3761, "\u09ac\u09b9\u09be\u09b2": 3762, "\u0995\u09c3\u09a4\u09bf\u09b0": 3763, "\u09b8\u09be\u09b2\u09cd": 3764, "\u09b8\u09cd\u09ac\u09be\u09ae\u09c0\u09b0": 3765, "\u09ac\u09c0\u099c": 3766, "ers": 3767, "\u0985\u09cd\u09af\u09be\u0995\u09be\u0989\u09a8\u09cd": 3768, "\u09b8\u09cb\u09a8\u09be\u09b0": 3769, "\u09aa\u09b0\u09cd\u09af\u09ac\u09c7\u0995\u09cd\u09b7": 3770, "esse": 3771, "\u09ac\u09be\u099c\u09be\u09b0\u09c7\u09b0": 3772, "\u09aa\u09c1\u0981\u099c\u09bf": 3773, "\u0995\u09b0\u09bf\u09ae": 3774, "\u09a7\u09b0\u09a3\u09c7\u09b0": 3775, "\u09b8\u09b0\u09cd\u09ac\u09be": 3776, "\u09a8\u09cc\u0995\u09be": 3777, "\u09a8\u09cc\u09af\u09be\u09a8\u09c7\u09b0": 3778, "\u09ac\u09be\u09dc\u09be\u09a8\u09cb\u09b0": 3779, "\u09af\u09cc\u09a8\u0995\u09b0\u09cd\u09ae\u09c0\u09b0\u09be": 3780, "\u09aa\u09dc\u09a4\u09c7": 3781, "\u09ab\u09cd\u09b0\u09a8\u09cd\u099f": 3782, "\u0986\u09a6\u09be\u09b2\u09a4\u09c7\u09b0": 3783, "tit": 3784, "\u09ac\u09be\u09a8\u09c1": 3785, "\u09aa\u09be\u09a0\u09be\u09a8\u09cb": 3786, "\u09b8\u09ae\u09be\u09ac\u09c7\u09b6": 3787, "\u09a8\u09bf\u09b0\u09cd\u09af\u09be": 3788, "\u09ac\u09bf\u09b7\u09df\u0995": 3789, "\u09a6\u09b6\u09ae\u09bf\u0995": 3790, "\u09ac\u09bf\u09ae\u09be\u09a8\u09ac\u09a8\u09cd\u09a6": 3791, "\u09ac\u09bf\u09ae\u09be\u09a8\u09ac\u09a8\u09cd\u09a6\u09b0": 3792, "\u09a8\u09c7\u09a4\u09c3": 3793, "\u09aa\u09be\u09b0\u09c7\u09a8\u09a8\u09bf": 3794, "ovem": 3795, "\u0985\u09ad\u09bf\u09af\u09cb\u0997\u09aa\u09a4\u09cd\u09b0": 3796, "\u09e9\u09e6\u09e8": 3797, "\u09ef\u09eb\u09ee\u09ed": 3798, "\u09ef\u09eb\u09eb\u09e6\u09ee": 3799, "\u0996\u09be\u09a8\u09be\u09df": 3800, "\u09ac\u09bf\u099c\u09cd\u099e\u09be\u09a8": 3801, "\u0995\u09cd\u09b7\u09ae\u09a4\u09be\u09df": 3802, "\u09aa\u09cd\u09b0\u09a4\u09bf\u09b7\u09cd\u09a0\u09be": 3803, "\u09ac\u09df\u09b8\u09c0": 3804, "\u0997\u09a0\u09a8": 3805, "\u099c\u09bf\u09a8\u09bf\u09df\u09be": 3806, "\u09a6\u09c2\u09b0\u09c7": 3807, "\u09ac\u09b0\u09cd\u09a3": 3808, "\u09aa\u09b0\u09c0\u0995\u09cd\u09b7\u09be\u09b0\u09cd\u09a5": 3809, "\u09b6\u09c1\u09a7\u09c1\u09ae\u09be\u09a4\u09cd\u09b0": 3810, "\u09ab\u09c7\u09b0\u09a4": 3811, "\u0986\u0987\u09a8\u09b6\u09c3\u0999\u09cd\u0996\u09b2\u09be": 3812, "\u0995\u09ac\u09bf\u09b0": 3813, "\u0995\u09b2\u09c7\u099c\u09c7\u09b0": 3814, "\u099a\u09c1\u09b0\u09bf": 3815, "\u09a7\u09a8\u09cd\u09af\u09ac\u09be\u09a6": 3816, "\u09ac\u09cd\u09af\u09be\u0982\u0995": 3817, "\u0995\u09aa\u09bf\u09b0\u09be\u0987": 3818, "\u09b6\u09bf\u09b6\u09c1\u0995\u09c7": 3819, "\u09b8\u09a8\u09cd\u09a4\u09cb\u09b7": 3820, "\u09b0\u09be\u099c\u09a8\u09c0\u09a4\u09bf": 3821, "\u09ab\u09bf\u0995\u09c1\u09b2": 3822, "\u09ac\u09be\u09b0\u09cd\u09b7": 3823, "\u09af\u09c1\u09ac\u0995": 3824, "\u09af\u09c1\u09ac\u0995\u09c7\u09b0": 3825, "\u09b9\u09be\u09b2\u0995\u09be": 3826, "\u09b0\u09c7\u099c\u09bf\u09b8\u09cd\u099f\u09cd\u09b0\u09c7\u09b6\u09a8": 3827, "\u09ae\u09c7\u09df\u09c7\u09a6\u09c7\u09b0": 3828, "\u099b\u09be\u09a4\u09cd\u09b0\u09b2\u09c0\u0997\u09c7\u09b0": 3829, "\u09ad\u09bf\u09a4\u09cd\u09a4\u09bf": 3830, "\u09b6\u09bf\u09b2\u09cd\u09aa\u09c0": 3831, "\u099c\u09cb\u099f\u09c7\u09b0": 3832, "\u0995\u09cd\u099f\u09b0": 3833, "\u09b6\u09cd\u09b0\u09c7\u09b7\u09cd\u09a0": 3834, "\u09b8\u09b0\u09cd\u09ac\u09b6\u09c7\u09b7": 3835, "\u0997\u09cd\u09b0\u09c1\u09aa\u09c7\u09b0": 3836, "\u099c\u09b0\u09c1\u09b0": 3837, "\u0987\u09a4\u09bf\u09b9\u09be": 3838, "\u09ae\u09cb\u09ac\u09be\u0987\u09b2\u0983\u09e6\u09e7\u09ed\u09e7\u09e7": 3839, "\u09aa\u09cd\u09b0\u09b8\u09cd\u09a4\u09c1\u09a4": 3840, "\u09b8\u09cd\u09aa\u09b7\u09cd\u099f": 3841, "deo": 3842, "\u09a6\u09c3\u09b7\u09cd\u099f\u09bf": 3843, "\u09b6\u09be\u09b0\u09c0\u09b0\u09bf\u0995": 3844, "\u0995\u09be\u09b0\u09cd\u09af\u09be\u09b2\u09df\u09c7": 3845, "\u09b8\u09c7\u09a8\u09be\u09ac\u09be\u09b9\u09bf\u09a8\u09c0": 3846, "\u0989\u099a\u09cd\u099a\u09a4\u09be": 3847, "\u09aa\u09c3\u09b7\u09cd\u09a0": 3848, "\u099c\u09bf\u09df\u09be\u0995\u09c7": 3849, "\u0989\u09b2\u09cd\u09b2\u09c7\u0996\u09cd\u09af": 3850, "\u09b8\u09aa\u09cd\u09a4\u09be\u09b9": 3851, "\u09b8\u09aa\u09cd\u09a4\u09be\u09b9\u09c7": 3852, "\u0987\u09b8\u09bf\u09b0": 3853, "\u09a8\u09bf\u09b7\u09bf\u09a6\u09cd\u09a7": 3854, "\u09b0\u09be\u09b6\u09bf\u09af\u09bc\u09be\u09a8": 3855, "\u09b6\u09bf\u0995\u09cd\u09b7\u09be\u09ac\u09b0\u09cd\u09b7": 3856, "\u0985\u09ac\u09b6\u09cd\u09af\u0987": 3857, "\u09ab\u09c7\u09b8\u09ac\u09c1\u0995\u09c7": 3858, "\u09b0\u09be\u099c\u09a7\u09be\u09a8\u09c0": 3859, "\u09ab\u09c1\u099f\u09ac\u09b2\u09c7\u09b0": 3860, "\u09aa\u09c1\u09a8\u09b0\u09cd": 3861, "\u0995\u09be\u09a6\u09c7\u09b0\u09c7\u09b0": 3862, "\u09b8\u0982\u0997\u09a0\u09a8": 3863, "\u0996\u09cd\u09b0\u09bf\u09b8\u09cd\u099f\u09be\u09a8": 3864, "\u09b6\u09bf\u0995\u09cd\u09b7\u09be\u09b0\u09cd\u09a5\u09c0": 3865, "\u099b\u09c1\u09b0\u09bf\u0995\u09be": 3866, "\u09b6\u09be\u09ae\u09b8\u09c1": 3867, "\u09b2\u09bf\u09ae\u09bf\u099f\u09c7\u09a1": 3868, "\u09ac\u09cd\u09af\u09ac\u09b8\u09be\u09df\u09c0": 3869, "\u09b6\u09c1\u09a8\u09be\u09a8\u09bf": 3870, "\u0996\u09be\u09a8\u09be\u0996\u09a8\u09cd\u09a6": 3871, "\u09ad\u09be\u09b0\u09cd\u099c\u09bf\u09a8\u09bf\u09df\u09be": 3872, "\u09ae\u09c7\u09a8\u09c7": 3873, "\u0987\u09a8\u09cd\u09b8\u099f\u09bf\u099f\u09bf\u0989\u099f": 3874, "\u09ac\u09c7\u0981\u09a7\u09c7": 3875, "\u0989\u09a8\u09cd\u09a8\u09df\u09a8\u09c7": 3876, "\u0986\u0993\u09af\u09bc\u09be\u09ae\u09c0": 3877, "\u099c\u09be\u09b2\u09be\u09b2": 3878, "\u099c\u09be\u09b0\u09cd\u09ae\u09be\u09a8": 3879, "\u0995\u09bf\u09b6\u09cb\u09b0\u0997\u099e\u09cd\u099c": 3880, "\u09aa\u09c7\u099b\u09a8\u09c7": 3881, "\u09b9\u09be\u09a6\u09bf\u09b8": 3882, "\u09ae\u09c1\u09a6\u09cd\u09b0\u09bf\u09a4": 3883, "\u099f\u09c7\u09b2\u09bf\u09ad\u09bf": 3884, "\u09b8\u09cd\u09ac\u09aa\u09cd\u09a8": 3885, "\u09b8\u09ae\u09cd\u09aa\u09be\u09a6\u0995\u09c7\u09b0": 3886, "\u0985\u099e\u09cd\u099a\u09b2\u09c7\u09b0": 3887, "\u09b0\u09be\u09a8\u09cd\u09a8\u09be": 3888, "\u09ad\u09cd\u09b0\u09ae\u09a3": 3889, "\u09ac\u09bf\u09ac\u09b0\u09a3": 3890, "\u09b9\u09c1\u09ae\u0995\u09bf": 3891, "downlo": 3892, "\u0993\u09af\u09bc\u09c7\u09ac\u09b8\u09be\u0987\u099f\u09c7\u09b0": 3893, "\u0985\u09aa\u09c7\u0995\u09cd\u09b7\u09be": 3894, "\u09a4\u09ab\u09b8\u09bf\u09b2": 3895, "\u09ac\u09a8\u09cd\u09a6\u09c1\u0995": 3896, "\u09b8\u0982\u09b8\u09a6\u09c7": 3897, "\u09a1\u09bf\u099c\u09be\u0987\u09a8": 3898, "\u09a6\u09be\u09b0\u09bf\u09a6\u09cd\u09b0": 3899, "\u09b8\u09b0\u09cd\u09ac\u09cb\u099a\u09cd\u099a": 3900, "\u09aa\u09c3\u09a5\u09bf\u09ac\u09c0\u09b0": 3901, "\u09af\u09ae\u09c1\u09a8\u09be": 3902, "\u09b8\u09cd\u09ac\u09b2\u09cd\u09aa": 3903, "\u09ae\u09bf\u09df\u09be\u09a8\u09ae\u09be\u09b0\u09c7\u09b0": 3904, "\u09b8\u0982\u09b8\u09cd\u09a5\u09be\u09b0": 3905, "\u09b8\u09cd\u09aa\u09be\u0987\u09a1\u09be\u09b0\u09ae\u09cd\u09af\u09be\u09a8": 3906, "\u09ad\u09ac\u09bf\u09b7\u09cd\u09af": 3907, "\u09ae\u09b9\u09be\u09b2\u099b\u09dc\u09bf": 3908, "\u09b0\u09b6\u09c0\u09a6": 3909, "\u09b6\u09c2\u09a8\u09cd\u09af": 3910, "\u09ef\u09ea\u09ef\u09e9\u09e8\u09ea": 3911, "\u09ac\u09bf\u099c\u09c7\u09aa\u09bf": 3912, "\u09ae\u09be\u0997\u09c1\u09b0\u09be": 3913, "\u09ae\u09bf\u0989\u099c\u09bf\u0995": 3914, "\u09b6\u09bf\u0997\u0997\u09bf\u09b0\u0987": 3915, "\u0996\u09c7\u09b2\u09cb\u09df\u09be": 3916, "\u09ef\u09eb\u09ee\u09ed\u09e9\u09e6\u09e8": 3917, "\u09ef\u09eb\u09eb\u09e6\u09ee\u09ec\u09ed": 3918, "\u0995\u09aa\u09bf\u09b0\u09be\u0987\u099f": 3919, "download": 3920, "44": 3921, "53": 3922, "Bangla": 3923, "More": 3924, "Novem": 3925, "Pre": 3926, "cn": 3927, "fre": 3928, "for": 3929, "ion": 3930, "ms": 3931, "pa": 3932, "sh": 3933, "ut": 3934, "ve": 3935, "\u0985\u0997\u09cd\u09b0": 3936, "\u0985\u09b8\u09cd\u09a4": 3937, "\u0985\u09a7\u09bf\u0995": 3938, "\u0986\u09ac\u09bf": 3939, "\u0986\u09b6\u09c7": 3940, "\u0986\u0995\u09cd\u09b0": 3941, "\u0986\u0993\u09df\u09be": 3942, "\u0986\u0997\u09cd\u09b0\u09b9": 3943, "\u0986\u09ac\u09a6": 3944, "\u0986\u099e\u09cd\u099a\u09b2": 3945, "\u0986\u0995\u09cd\u09b0\u09be\u09a8\u09cd\u09a4": 3946, "\u0986\u09b6\u09cd\u09b0\u09df": 3947, "\u0987\u099f": 3948, "\u0987\u09a4\u09cd\u09a4\u09c7": 3949, "\u0988\u09b6\u09cd\u09ac\u09b0": 3950, "\u0989\u09b0": 3951, "\u0989\u09a1\u09bc": 3952, "\u0989\u099c\u09cd": 3953, "\u0989\u09aa\u09b0\u09c7": 3954, "\u098f\u09b0\u09be": 3955, "\u098f\u0997\u09c1\u09b2\u09cb": 3956, "\u098f\u098f\u09ab": 3957, "\u0995\u09a4\u09be": 3958, "\u0995\u09ae\u09be\u09a8": 3959, "\u0995\u09be\u09ae\u09c0": 3960, "\u0995\u09ac\u09c1\u09b2": 3961, "\u0995\u09a5\u09be\u09df": 3962, "\u0996\u09be\u09ae": 3963, "\u0996\u09be\u09df": 3964, "\u0996\u09bf\u0995": 3965, "\u0996\u09be\u09a8\u09c7\u09b0": 3966, "\u0997\u09cc": 3967, "\u0997\u09dc": 3968, "\u0998\u09cb": 3969, "\u0998\u09b0\u09c7\u09b0": 3970, "\u099a\u09b0\u09cd": 3971, "\u099a\u0995\u09cd\u09b0": 3972, "\u099a\u09cb\u09b0": 3973, "\u099a\u09a4\u09c1": 3974, "\u099b\u09dc\u09be": 3975, "\u099c\u0995": 3976, "\u099d\u09bf\u09b2": 3977, "\u099f\u09ae\u09cb": 3978, "\u099f\u09be\u09a8\u09be": 3979, "\u09a1\u09cb": 3980, "\u09a3\u09ae\u09c2\u09b2": 3981, "\u09a5\u09bf\u09a4": 3982, "\u09a6\u0996": 3983, "\u09a6\u09ab": 3984, "\u09a6\u09ae": 3985, "\u09a6\u09ae\u09a8": 3986, "\u09aa\u09a8\u09c7": 3987, "\u09aa\u09a6\u09cd": 3988, "\u09ab\u09a8": 3989, "\u09ab\u09a8\u09c7\u09b0": 3990, "\u09ad\u09df\u09c7": 3991, "\u09ae\u09ce": 3992, "\u09ae\u09cd\u09af": 3993, "\u09ae\u09a3\u09cd\u09a1": 3994, "\u09ae\u09a7\u09c1": 3995, "\u09b0\u0995\u09cd\u09a4": 3996, "\u09b0\u09c0\u09a8": 3997, "\u09b0\u099a\u09a8\u09be": 3998, "\u09b6\u09ae": 3999, "\u09b6\u09a4\u09cd\u09b0": 4000, "\u09b6\u0995\u09cd\u09a4": 4001, "\u09b6\u09a8\u09be\u09b0": 4002, "\u09b6\u09b9\u09c0": 4003, "\u09b6\u09b0\u09cd\u09a4": 4004, "\u09b7\u09c0": 4005, "\u09b7\u09c7": 4006, "\u09b8\u0995\u09c7": 4007, "\u09b8\u09b0\u09c7": 4008, "\u09b8\u099c\u09cd": 4009, "\u09b8\u09c0\u09a8": 4010, "\u09b8\u0995\u09cd\u09b7\u09ae": 4011, "\u09b9\u09cd\u09af\u09be\u09ae\u09cd\u09aa": 4012, "\u09be\u099f": 4013, "\u09bf\u09a6": 4014, "\u09c0\u09b0\u09cd\u09a3": 4015, "\u09c2\u09b0\u09cd\u09a4": 4016, "\u09c3\u09a4\u09cd\u09a4": 4017, "\u09cb\u09b2": 4018, "\u09e6\u09e7\u09ef": 4019, "\u09e7\u09e6\u09e6\u09e6": 4020, "\u09ea\u09e9": 4021, "\u09ea\u09ec": 4022, "\u09ed\u09ec": 4023, "\u09ee\u09e7": 4024, "\u2019-": 4025, "\u09cd\u09af\u09be\u09b0\u09bf": 4026, "\u09be\u09a8\u09cd\u09af": 4027, "\u09ac\u09bf\u09ac\u09c7": 4028, "\u09ac\u09bf\u0995\u09cd\u09b0": 4029, "\u09ac\u09bf\u09a7\u09bf": 4030, "\u09ac\u09bf\u0997\u09a4": 4031, "\u09ac\u09bf\u098f\u09b8": 4032, "\u09ac\u09bf\u09aa\u09b0\u09c0": 4033, "\u09ac\u09bf\u09b6\u09be\u09b2": 4034, "\u09ac\u09bf\u09aa\u09cd\u09b2": 4035, "\u09ac\u09bf\u09b6\u09bf\u09b7\u09cd\u099f": 4036, "\u09a8\u09bf\u099a\u09c7": 4037, "\u09a8\u09bf\u099a\u09cd\u099b\u09c7": 4038, "\u09ac\u09be\u09b8\u09c7": 4039, "\u09ac\u09be\u09af\u09bc": 4040, "\u09ac\u09be\u09ac\u09be\u09b0": 4041, "\u09ac\u09be\u099b\u09be\u0987": 4042, "\u09c7\u09a8\u09cd\u09a1": 4043, "\u0995\u09c7\u099c\u09bf": 4044, "\u09a4\u09c7\u099c": 4045, "\u09ac\u09c7\u09b2": 4046, "\u09ac\u09c7\u09b6\u09c7": 4047, "\u099f\u09bf\u0989": 4048, "\u099f\u09bf\u09ab\u09bf": 4049, "\u0995\u09be\u0987": 4050, "\u0995\u09be\u09a0": 4051, "\u0995\u09be\u09a4": 4052, "\u0995\u09be\u09a4\u09c7": 4053, "\u0995\u09be\u09b6\u09c7": 4054, "\u0995\u09be\u099c\u09c0": 4055, "\u09a8\u09be\u09a4": 4056, "\u09b8\u09cd\u0995\u09cb": 4057, "\u09b8\u09cd\u0995\u09c1\u09b2\u09c7": 4058, "\u09b2\u09be\u0997\u09ac\u09c7": 4059, "\u09b0\u09be\u0989": 4060, "\u09b0\u09be\u09b9\u09be": 4061, "\u09b0\u09be\u099c\u09be": 4062, "\u099b\u09c7\u09b2\u09c7\u09b0": 4063, "\u09a4\u09be\u099b\u09be\u09dc\u09be": 4064, "\u09a6\u09bf\u09b2\u09cd": 4065, "\u09a6\u09c7\u09af\u09bc": 4066, "\u09ae\u09be\u0995\u09c7": 4067, "\u09ae\u09be\u099f\u09bf": 4068, "\u09ae\u09be\u09df\u09c7\u09b0": 4069, "\u09ae\u09be\u09a6\u09be\u09b0": 4070, "\u09a8\u09c7\u09df\u09be\u09b0": 4071, "\u0995\u09be\u09b0\u0993": 4072, "\u0995\u09be\u09b0\u09cb": 4073, "\u0995\u09be\u09b0\u09c0\u09b0": 4074, "\u09ae\u09bf\u09b2\u09c7": 4075, "\u09aa\u09be\u09a4\u09cd\u09b0": 4076, "\u09aa\u09be\u0993\u09af\u09bc\u09be": 4077, "\u09b8\u09bf\u09b0": 4078, "\u09b8\u09bf\u09b8\u09cd\u099f\u09c7": 4079, "\u09b8\u09c7\u09b8": 4080, "\u09b8\u09c7\u09ae\u09bf": 4081, "\u09b8\u09c7\u09b8\u09ac": 4082, "\u09b8\u09c7\u0995\u09c7\u09a8": 4083, "\u09b8\u09c7\u0995\u09cd\u09b0\u09c7": 4084, "\u09b8\u09be\u099c": 4085, "\u09b8\u09be\u0995\u09bf": 4086, "\u0995\u09bf\u09a4": 4087, "\u099f\u09be\u0999\u09cd\u0997\u09be": 4088, "\u09cd\u09ac\u09be\u09b0": 4089, "\u09ae\u09c7\u0998": 4090, "\u09ae\u09c7\u099c\u09b0": 4091, "\u09ae\u09c7\u0995\u09cd\u09b8\u09bf": 4092, "\u09a5\u09be\u0995\u09bf": 4093, "\u0995\u09cb\u09df": 4094, "\u09b7\u09cd\u0995\u09be\u09b0": 4095, "\u0997\u09c7\u09b2\u09c7\u09a8": 4096, "\u09ac\u09be\u09b0\u09bf": 4097, "\u09ac\u09be\u09b0\u09c7": 4098, "\u09ac\u09be\u09b0\u09bf\u0995": 4099, "\u09df\u09be\u09b0\u09c7\u099c": 4100, "\u09b6\u09bf\u09ac": 4101, "\u09b6\u09bf\u09b6\u09c1\u09b0": 4102, "\u09b8\u0982\u09b8\u09cd\u0995\u09be\u09b0": 4103, "\u09aa\u09b0\u09bf\u09a3\u09a4": 4104, "\u09b2\u09bf\u09aa": 4105, "\u09af\u09be\u0995": 4106, "\u09af\u09be\u099a\u09cd\u099b\u09c7\u09a8": 4107, "\u09ae\u09c1\u09a8": 4108, "\u09ae\u09c1\u09b9\u09be\u09ae\u09cd\u09ae\u09a6": 4109, "\u0997\u09cd\u09b0\u09cd\u09af\u09be\u09a8\u09cd\u09a1": 4110, "\u099c\u09be\u09a8\u09cd": 4111, "\u099c\u09be\u09a8\u09be\u09b2": 4112, "\u09aa\u09be\u09b0\u09be": 4113, "\u09b0\u09bf\u0982": 4114, "\u09b0\u09bf\u09ab": 4115, "\u09b0\u09bf\u09df": 4116, "\u099c\u09be\u09b9\u09be\u09a8": 4117, "\u09a6\u09c1\u099c\u09a8": 4118, "\u09a6\u09c1\u09aa\u09c1\u09b0\u09c7": 4119, "\u09aa\u09cd\u09b0\u09a4\u09bf\u09ac\u09c7\u09b6\u09c0": 4120, "\u09a6\u09be\u09b6": 4121, "\u09a6\u09be\u09a4\u09be": 4122, "\u09ac\u09b2\u099b\u09c7\u09a8": 4123, "\u09ac\u09b2\u09b2\u09be\u09ae": 4124, "\u09ae\u09cb\u0995\u09be": 4125, "\u09ae\u09cb\u09b2\u09cd\u09b2\u09be": 4126, "\u099a\u09cd\u099b\u09bf\u09b2": 4127, "\u099a\u09cd\u099b\u09c1": 4128, "\u09b9\u09bf\u09a6\u09c1\u09b2": 4129, "\u09e8\u09e6\u09e6\u09e6": 4130, "\u09b6\u09be\u0996\u09be": 4131, "\u09b8\u09c1\u09df\u09be\u09b0\u09c7\u099c": 4132, "\u098f\u09b0\u0995\u09ae": 4133, "\u0996\u09be\u09a6\u09bf": 4134, "\u0996\u09be\u09a4\u09c7\u09b0": 4135, "\u0996\u09be\u0997\u09dc\u09be": 4136, "\u0989\u09aa\u09b8\u09cd\u09a5\u09be\u09aa\u09a8": 4137, "\u099f\u09cd\u09b0\u09bf\u0995": 4138, "\u099f\u09cd\u09b0\u09be\u0995": 4139, "\u099f\u09cd\u09b0\u09be\u09a8\u09cd\u09b8": 4140, "\u09a8\u09be\u09ae\u09cd\u09ac\u09be\u09b0": 4141, "\u09ae\u09a8\u09c1": 4142, "\u0985\u09a8\u09c1\u09af\u09be\u09af\u09bc": 4143, "\u0985\u09a8\u09c1\u09b0\u09cd\u09a7\u09cd\u09ac": 4144, "\u0995\u09be\u09b2\u09bf": 4145, "\u099a\u09be\u0995\u09c1\u09b0": 4146, "\u09a4\u09cd\u09a4\u09cd": 4147, "\u09a6\u09cd\u09b0\u09be": 4148, "\u09a6\u09cd\u09b0\u09ac\u09cd\u09af": 4149, "\u09ab\u09bf\u099a\u09be\u09b0": 4150, "\u09a8\u09bf\u09df\u09c7\u0987": 4151, "\u0986\u09b8\u09be\u09b0": 4152, "\u099a\u09bf\u09ce\u0995\u09be\u09b0": 4153, "\u0986\u0987\u09aa\u09bf": 4154, "\u0986\u0987\u09b8\u09bf\u09b8": 4155, "\u09ad\u09c7\u09a4\u09b0\u09c7": 4156, "\u0995\u09c7\u09b0\u09be": 4157, "\u09b8\u09b0\u09ac\u09b0\u09be": 4158, "\u0985\u09ac\u09b9\u09c7": 4159, "\u099a\u09be\u09b2\u09be": 4160, "\u09b2\u09be\u0987\u09ab": 4161, "\u09b2\u09be\u0987\u09a8\u09c7": 4162, "\u09b8\u09cd\u099f\u09cd\u09af\u09be\u09a8\u09cd\u09a1": 4163, "\u0985\u09ad\u09bf\u09a8\u09df": 4164, "\u09ac\u09c1\u09b0\u09cd": 4165, "\u099a\u09b2\u09a8": 4166, "\u099a\u09b2\u09ac\u09c7": 4167, "\u0987\u09b8\u09cd\u09af\u09c1": 4168, "\u09b0\u09c1\u099f\u09c7": 4169, "\u09ab\u09be\u0995": 4170, "\u09ac\u09bf\u09b7\u09af\u09bc\u09c7": 4171, "\u09ac\u09c7\u09b6\u09c0\u09b0": 4172, "\u098f\u09ae\u09b8\u09bf": 4173, "\u098f\u09b8\u0986\u0987": 4174, "\u098f\u09b8\u098f\u09b8\u09b8\u09bf": 4175, "\u099c\u09c1\u099f\u09bf": 4176, "\u099c\u09c1\u09a1\u09bc\u09c7": 4177, "\u0997\u09cb\u09b7\u09cd\u09a0": 4178, "\u09ac\u09cd\u09b0\u09c7": 4179, "\u09ac\u09cd\u09b0\u09be\u099c": 4180, "\u0985\u09b0\u09cd\u09a1\u09be\u09b0": 4181, "\u09b8\u09be\u09b0\u09cd\u09ac\u09bf\u0995": 4182, "\u09c2\u09b2\u09cd\u09af\u09c7": 4183, "\u0986\u099c\u0993": 4184, "\u0997\u09b0\u09ae": 4185, "\u09b8\u09a8\u09a6\u09c7\u09b0": 4186, "\u0996\u09c1\u09b6\u09bf": 4187, "\u09af\u09cc\u09a5": 4188, "\u09a6\u09c7\u0996\u09bf": 4189, "\u09a6\u09c0\u09aa\u09bf": 4190, "\u09a1\u09be\u0995\u09cd\u099f": 4191, "\u0985\u09a8\u09c7\u0995\u099f\u09be": 4192, "\u09b6\u09c0\u09a4\u09c7\u09b0": 4193, "\u09b8\u09be\u0987\u099f\u09c7": 4194, "\u09b8\u09be\u0987\u0995\u09c7\u09b2": 4195, "\u099f\u09c1\u0995\u09b0\u09cb": 4196, "\u0985\u09a7\u09bf\u09a8\u09be\u09df\u0995": 4197, "\u09b8\u09c2\u09b0": 4198, "\u09aa\u09b0\u09bf\u099a\u09be\u09b2\u09bf\u09a4": 4199, "\u09b8\u09c0\u09ae": 4200, "\u09b8\u09c0\u09ae\u09be": 4201, "\u099c\u09be\u09ae\u09bf": 4202, "\u099c\u09be\u09ae\u09bf\u09a8": 4203, "\u09b7\u09cd\u099f\u09cd\u09b0\u09c7": 4204, "\u0995\u09be\u09b0\u09c0\u09b0\u09be": 4205, "\u09aa\u0995\u09cd\u09b7\u09c7\u09b0": 4206, "\u0985\u09a8\u09cd\u09af\u09a6\u09bf\u0995\u09c7": 4207, "\u09aa\u09c1\u09b0\u09be": 4208, "\u09aa\u09be\u09b2\u09cd": 4209, "\u09b8\u09be\u09a7\u09be\u09b0\u09a3\u09a4": 4210, "\u09ac\u09c7\u09b6\u09bf\u09b0": 4211, "\u09aa\u09c7\u09b0\u09c7": 4212, "\u09aa\u09cd\u09b0\u09c7\u09ae": 4213, "\u099c\u09be\u09a8\u09bf\u09df\u09c7\u099b\u09c7": 4214, "\u0987\u09a8\u09cd\u09a1\u09bf": 4215, "\u0989\u09a8\u09cd\u09a8\u09a4": 4216, "\u09ae\u09a4\u09be\u09ae": 4217, "\u09e7\u09e8\u09e8\u09ef": 4218, "\u09a6\u09c1\u09b0\u09cd\u09a6": 4219, "\u09cd\u09af\u09be\u09a8\u09cd\u09a1\u09c7\u09b0": 4220, "\u09ae\u09a4\u09bf\u099d\u09bf\u09b2": 4221, "\u09b9\u09be\u09b8\u09bf\u0995": 4222, "\u09b9\u09be\u09b8\u09bf\u09a8\u09be\u09b0": 4223, "\u09b6\u09bf\u0995\u09cd\u09b7\u0995": 4224, "\u09ad\u09be\u09ac\u09a8\u09be": 4225, "\u09a8\u09bf\u099c\u09c7\u0987": 4226, "\u0997\u09a0\u09bf\u09a4": 4227, "\u09a6\u09c2\u09a4": 4228, "\u0989\u0987\u0995\u09c7\u099f": 4229, "\u09a5\u09be\u0995\u09be\u09df": 4230, "\u0995\u09c7\u09a8\u09cd\u09a6\u09cd\u09b0\u09c7": 4231, "\u09ab\u09c7\u09b0\u09be\u09b0": 4232, "\u09aa\u09be\u09b0\u09cd\u0995\u09c7\u09b0": 4233, "\u09aa\u09c7\u09df\u09c7\u099b\u09c7\u09a8": 4234, "\u0989\u09b2\u09cd\u09b2\u09be": 4235, "\u09b8\u0995\u09b2\u09c7\u09b0": 4236, "\u09a8\u09bf\u09b6\u09cd\u099a\u09df": 4237, "\u09b8\u09bf\u099f\u09bf\u099c\u09c7\u09a8": 4238, "\u0995\u09c1\u09b0\u0986\u09a8": 4239, "\u0996\u09be\u09b2\u09c0": 4240, "\u0989\u09ce\u09aa\u09be": 4241, "\u0989\u09ce\u09b8\u09ac": 4242, "\u09ae\u09b0\u09cd\u09af\u09be": 4243, "\u09ac\u09bf\u099a\u09be\u09b0\u0995": 4244, "\u09aa\u09be\u09b0\u09bf\u09ac\u09be\u09b0\u09bf\u0995": 4245, "\u0997\u09c1\u09b0\u09c1\u09a4\u09b0": 4246, "\u099a\u09b0\u09bf\u09a4\u09cd\u09b0": 4247, "\u09ac\u09b0\u09be\u09ac\u09b0": 4248, "\u09ac\u09b0\u09be\u09a6\u09cd\u09a6": 4249, "\u09aa\u09cd\u09b0\u09bf\u09df\u09a4\u09ae\u09be": 4250, "\u0998\u099f\u09c7\u099b\u09c7": 4251, "\u09ac\u09c1\u099d\u09c7": 4252, "\u09aa\u09c2\u09b0\u09cd\u09ac\u0995": 4253, "\u09ad\u09bf\u09a4\u09cd\u09a4\u09bf\u0995": 4254, "\u09b8\u09b0\u09cd\u09ac\u09b8\u09cd\u09ac\u09a4\u09cd\u09ac": 4255, "\u0995\u09cd\u09b7\u09ae\u09a4\u09be\u09b8\u09c0\u09a8": 4256, "119": 4257, "\u0987\u0982\u09b0\u09c7\u099c\u09bf": 4258, "\u0987\u0982\u09b2\u09cd\u09af\u09be\u09a8\u09cd\u09a1": 4259, "\u09ab\u09cb\u09b0\u09cd": 4260, "\u09b8\u09a8\u09cd\u09a7\u09be\u09a8": 4261, "\u09b0\u09be\u09df\u09aa\u09c1\u09b0": 4262, "\u099c\u09cd\u099e\u09be\u09a4": 4263, "\u09ad\u09be\u0999\u099a\u09c1\u09b0": 4264, "\u09ad\u09bf\u09a1\u09bf\u0993\u099a\u09bf\u09a4\u09cd\u09b0": 4265, "\u0989\u09a6\u09cd\u09ac\u09cb\u09a7": 4266, "\u0989\u09a6\u09cd\u09ac\u09c3\u09a4\u09cd\u09a4": 4267, "\u098f\u099b\u09be\u09dc\u09be\u0993": 4268, "\u0997\u09cd\u09af\u09be\u09b8\u09c7\u09b0": 4269, "\u09b6\u09a4\u09be\u09a7\u09bf\u0995": 4270, "\u09ad\u09c2\u09ae\u09bf\u0995\u09be": 4271, "\u09ad\u09c2\u09ae\u09bf\u0995\u09ae\u09cd\u09aa": 4272, "\u09b8\u0982\u09b0\u0995\u09cd\u09b7\u09a3": 4273, "\u0997\u09ac\u09c7\u09b7\u0995": 4274, "\u09aa\u09c1\u09b0\u09cb\u09aa\u09c1\u09b0\u09bf": 4275, "\u09ab\u09bf\u09b0\u09a4\u09c7": 4276, "\u09b0\u09cb\u0997\u09c7\u09b0": 4277, "\u09ae\u09cb\u099f\u09b0": 4278, "\u09b8\u09aa\u09cd\u09a4\u09be\u09b9\u09c7\u09b0": 4279, "\u0986\u09b0\u09cd\u099c": 4280, "\u099a\u09c1\u09b2\u09c7\u09b0": 4281, "\u09b0\u200c\u09cd\u09af\u09be\u09b2": 4282, "\u09b2\u09bf\u0982\u0995": 4283, "\u09ae\u09a8\u09cd\u09a4\u09cd\u09b0\u09a3\u09be\u09b2\u09df\u09c7\u09b0": 4284, "\u0987\u09a8\u09cd\u099f\u09be\u09b0\u09a8\u09cd\u09af\u09be\u09b6\u09a8\u09be\u09b2": 4285, "\u0989\u09a0\u09c7\u099b\u09c7": 4286, "\u0985\u09cd\u09af\u09be\u09aa\u09b8": 4287, "video": 4288, "\u0993\u09b0\u09ab\u09c7": 4289, "\u09a4\u09c3\u09a3\u09ae\u09c2\u09b2": 4290, "\u09ac\u09bf\u099a\u09be\u09b0\u09aa\u09a4\u09bf\u09b0": 4291, "\u09aa\u09cd\u09b0\u0995\u09b2\u09cd\u09aa\u09c7\u09b0": 4292, "\u09ae\u09be\u09a8\u09ac\u09a4\u09be": 4293, "\u09b8\u09be\u09b0\u09cd\u09ad\u09bf\u09b8\u09c7\u09b0": 4294, "\u09ad\u09bf\u09df\u09c7\u09a4\u09a8\u09be\u09ae\u09c7\u09b0": 4295, "\u09aa\u09cc\u09b0\u09b8\u09ad\u09be\u09b0": 4296, "\u0995\u0996\u09a8\u09cb\u0987": 4297, "\u09ac\u09be\u09a3\u09bf\u099c\u09cd\u09af\u09bf\u0995": 4298, "\u09a8\u09c2\u09b0": 4299, "\u09ae\u09c2\u09b0\u09cd\u09a4\u09bf": 4300, "\u09ac\u09c7\u0981\u099a\u09c7": 4301, "\u09af\u09c1\u0997\u09cd\u09ae": 4302, "\u0989\u09a8\u09cd\u09a8\u09df\u09a8\u09c7\u09b0": 4303, "\u0996\u09a6\u09cd\u09a6\u09c7\u09b0\u09a6\u09c7\u09b0": 4304, "\u09aa\u09b6\u09cd\u099a\u09bf\u09ae": 4305, "\u09af\u09bf\u09a8\u09bf": 4306, "\u09b6\u09b0\u09c0\u09b0\u09c7": 4307, "\u09aa\u09be\u09a5\u09b0": 4308, "\u0997\u09be\u0987\u09a1": 4309, "\u09b8\u09b9\u09af\u09cb\u0997\u09bf\u09a4\u09be": 4310, "\u09ac\u09cb\u09b0\u09cd\u09a1": 4311, "\u09ac\u09bf\u09b6\u09cd\u09ac\u0995\u09be\u09aa": 4312, "\u09af\u09c1\u0995\u09cd\u09a4\u09b0\u09be\u09b7\u09cd\u099f\u09cd\u09b0\u09c7\u09b0": 4313, "\u09b0\u09c7\u099c\u09be\u0989\u09b2": 4314, "\u09b9\u09be\u09b8\u09aa\u09be\u09a4\u09be\u09b2\u09c7\u09b0": 4315, "\u0986\u09b2\u09cb\u099a\u09a8\u09be\u09df": 4316, "\u09a8\u09c7\u09a4\u09be\u0995\u09b0\u09cd\u09ae\u09c0\u09a6\u09c7\u09b0": 4317, "\u09a4\u09ce\u0995\u09be\u09b2\u09c0\u09a8": 4318, "\u09b8\u09ae\u09a8\u09cd\u09ac\u09df": 4319, "\u0986\u09ae\u09c7\u09b0\u09bf\u0995\u09be": 4320, "pping": 4321, "\u0985\u09b8\u09cd\u099f\u09cd\u09b0\u09c7\u09b2\u09bf\u09df\u09be": 4322, "\u09a8\u0993\u0997\u09be\u0981": 4323, "\u09aa\u09cd\u09b0\u09cb\u09a1\u09be\u0995\u09cd\u099f": 4324, "\u09aa\u09cd\u09b0\u09b6\u09bf\u0995\u09cd\u09b7\u09a3": 4325, "\u09ae\u09c1\u09b9\u09c2\u09b0\u09cd\u09a4": 4326, "\u0995\u09a0\u09bf\u09a8": 4327, "\u09b8\u09cb\u09a8\u09ae": 4328, "\u09b8\u09be\u09ab\u09b2\u09cd\u09af": 4329, "\u0995\u09bf\u0989\u09b0\u09bf\u099f\u09bf": 4330, "\u099c\u09bf\u09ae\u09cd\u09ac\u09be\u09ac\u09c1": 4331, "\u0996\u09c1\u0981\u099c\u09c7": 4332, "\u09a1\u09be\u0989\u09a8\u09b2\u09cb\u09a1": 4333, "\u09b8\u09c8\u09df\u09a6": 4334, "\u09a8\u0995\u09b6\u09be": 4335, "\u09b0\u09b6\u09bf\u09a6": 4336, "\u0986\u099a\u09b0\u09a3": 4337, "\u098f\u09df\u09be\u09b0\u09b2\u09be\u0987": 4338, "\u09a1\u0995\u09c1\u09ae\u09c7\u09a8\u09cd\u099f": 4339, "\u09b8\u09cd\u09ae\u09c3\u09a4\u09bf": 4340, "\u09b8\u09ae\u09be\u09b2\u09cb\u099a\u09a8\u09be": 4341, "\u099f\u09cd\u09b0\u09ab\u09bf\u09a4\u09c7": 4342, "\u099a\u09be\u09b9\u09bf\u09a6\u09be": 4343, "\u09a8\u09bf\u09b0\u09cd\u09af\u09be\u09a4\u09a8": 4344, "\u09ac\u09be\u09b0\u09cd\u09b7\u09bf\u0995": 4345, "November": 4346, "\u0986\u09ac\u09a6\u09c1\u09b0": 4347, "\u0986\u099e\u09cd\u099a\u09b2\u09bf\u0995": 4348, "\u0987\u09a4\u09cd\u09a4\u09c7\u09ab\u09be\u0995": 4349, "\u09ae\u09ce\u09b8\u09cd\u09af": 4350, "\u09b8\u099c\u09cd\u099c\u09bf\u09a4": 4351, "\u09b9\u09cd\u09af\u09be\u09ae\u09cd\u09aa\u09b6\u09be\u09df": 4352, "\u09b8\u09c7\u0995\u09c7\u09a8\u09cd\u09a1": 4353, "\u0985\u09a8\u09c1\u09af\u09be\u09af\u09bc\u09c0": 4354, "\u09ac\u09cd\u09b0\u09be\u099c\u09bf\u09b2": 4355, "02": 4356, "35": 4357, "55": 4358, ":-": 4359, "AT": 4360, "ab": 4361, "ation": 4362, "by": 4363, "co": 4364, "dd": 4365, "eb": 4366, "fi": 4367, "ir": 4368, "jo": 4369, "mp": 4370, "pl": 4371, "pla": 4372, "rou": 4373, "ta": 4374, "tw": 4375, "\u0964\u201d": 4376, "\u0985\u09ab": 4377, "\u0985\u09b0": 4378, "\u0985\u09be": 4379, "\u0985\u09ac\u09b0": 4380, "\u0985\u09ad\u09be\u09ac": 4381, "\u0985\u099c\u09cd\u099e\u09be\u09a4": 4382, "\u0986\u0981": 4383, "\u0986\u099f": 4384, "\u0986\u09b8\u09bf": 4385, "\u0986\u09ac\u09c1": 4386, "\u0986\u09b0\u09cd\u09a5": 4387, "\u0986\u09ac\u09c7\u09a6": 4388, "\u0987\u09ae\u09c7\u0987\u09b2\u0983": 4389, "\u0987\u09ae\u09b0": 4390, "\u0987\u09b2\u09bf\u09df\u09be": 4391, "\u0987\u099c\u09bf\u0982": 4392, "\u0989\u09a4\u09cd": 4393, "\u098f\u09cd\u09af\u09be": 4394, "\u098f\u099f\u09be\u0987": 4395, "\u0993\u099f\u09bf": 4396, "\u0993\u09af\u09bc": 4397, "\u0995\u0995\u09cd\u09b7": 4398, "\u0995\u09c1\u09a8": 4399, "\u0996\u09b2\u09bf": 4400, "\u0997\u09b0\u09cd": 4401, "\u0997\u09a4\u09bf": 4402, "\u0997\u09bf\u09a4": 4403, "\u0997\u09a1\u09bc": 4404, "\u0998\u09c1\u09b0": 4405, "\u099a\u09ae": 4406, "\u099a\u09b2\u09be\u09b0": 4407, "\u099a\u0995\u09cd\u09b7\u09c1": 4408, "\u099b\u09be\u09b2\u09be": 4409, "\u099c\u09b0\u09bf": 4410, "\u099c\u09ac\u09be\u09a8": 4411, "\u099c\u09ac\u09be\u09ac": 4412, "\u099d\u09bf": 4413, "\u09a0\u09be\u09a8\u09cd\u09a1": 4414, "\u09a1\u09c1": 4415, "\u09a1\u09be\u09df": 4416, "\u09a2\u09cb": 4417, "\u09a2\u09c1\u0995\u09c7": 4418, "\u09a4\u09a8\u09c7": 4419, "\u09a4\u09c1\u09b0": 4420, "\u09a4\u09c3\u09a4": 4421, "\u09a4\u09ac\u09c1": 4422, "\u09a6\u09c0\u09b0": 4423, "\u09a8\u09c1": 4424, "\u09a8\u09c0\u09df": 4425, "\u09a8\u09a4\u09be\u0987": 4426, "\u09aa\u09a8\u09c7\u09b0": 4427, "\u09aa\u09ac\u09bf\u09a4\u09cd\u09b0": 4428, "\u09ab\u09be\u09b2": 4429, "\u09ac\u09a8\u09c7": 4430, "\u09ad\u0997": 4431, "\u09ad\u09c7\u09a8": 4432, "\u09ad\u09b0\u09be": 4433, "\u09ad\u09df\u09be": 4434, "\u09ae\u09aa\u09cd\u09b2\u09c7": 4435, "\u09af\u09a5\u09c7": 4436, "\u09af\u09b6\u09cb\u09b0": 4437, "\u09b0\u09ae": 4438, "\u09b0\u09b8": 4439, "\u09b0\u09a8\u09bf": 4440, "\u09b0\u09ab\u09bf\u0995\u09c1\u09b2": 4441, "\u09b2\u09b8": 4442, "\u09b8\u0987": 4443, "\u09b8\u0993": 4444, "\u09b8\u200c": 4445, "\u09b8\u09ae\u09bf": 4446, "\u09b8\u09c7\u09a8\u09cd": 4447, "\u09b8\u09be\u09a8\u09cd": 4448, "\u09b8\u099a\u09c7\u09a4\u09a8": 4449, "\u09b9\u099c": 4450, "\u09b9\u09a4\u09be": 4451, "\u09b9\u09cd\u09ae": 4452, "\u09b9\u09be\u09a8\u09bf": 4453, "\u09c0\u09a8\u09c7": 4454, "\u09c1\u09b0\u09be": 4455, "\u09c1\u0995\u09c7\u09b0": 4456, "\u09c1\u09af\u09bc\u09be\u09b0": 4457, "\u09cb\u099c": 4458, "\u09e6\u09eb": 4459, "\u09e7\u09e7\u09ef": 4460, "\u09e9\u09ea": 4461, "\u09ea\u09ee": 4462, "\u09eb\u09e9": 4463, "\u09ed\u09e7": 4464, "\u09ed\u09ee": 4465, "\u09ee\u09eb": 4466, "\u09ef\u09e8": 4467, "\u09cd\u09af\u09ac\u09be\u09a6\u09c7\u09b0": 4468, "\u0995\u09b0\u09bf\u09df\u09c7": 4469, "\u09ac\u09bf\u09b6": 4470, "\u09ac\u09bf\u09b2\u09be": 4471, "\u09ac\u09bf\u09ad\u09be": 4472, "\u09ac\u09bf\u0995\u09be\u09b6": 4473, "\u09ac\u09bf\u09a8\u09cb": 4474, "\u09ac\u09bf\u099c\u09df": 4475, "\u09ac\u09bf\u09ac\u09bf\u09b8\u09bf": 4476, "\u09ac\u09bf\u09aa\u09c1\u09b2": 4477, "\u09a8\u09bf\u09df\u09be": 4478, "\u09a8\u09bf\u09b7\u09cd\u09a0": 4479, "\u09a8\u09bf\u09b2\u09be\u09ae": 4480, "\u09a8\u09bf\u09af\u09c1\u0995\u09cd\u09a4": 4481, "\u09a8\u09bf\u09ae\u09cd": 4482, "\u09ac\u09be\u0997": 4483, "\u09ac\u09be\u099c\u09c7": 4484, "\u09ac\u09be\u09ab\u09c1": 4485, "\u09ac\u09be\u09a1\u09cd\u09a1\u09be": 4486, "\u0995\u09c7\u099c": 4487, "\u09aa\u09cd\u09b0\u09a4\u09be": 4488, "\u09aa\u09cd\u09b0\u09b8\u0999\u09cd\u0997\u09c7": 4489, "\u09aa\u09cd\u09b0\u09b8\u09be\u09b0": 4490, "\u09aa\u09cd\u09b0\u0995\u09c3\u09a4": 4491, "\u09be\u09ae\u09cd\u09af": 4492, "\u09a4\u09c7\u0993": 4493, "\u09a4\u09c7\u09b2": 4494, "\u09ac\u09c7\u09a6\u0995": 4495, "\u09ac\u09c7\u0987\u099c\u09bf\u0982": 4496, "\u0995\u09be\u09b8\u09cd\u099f": 4497, "\u0995\u09be\u0982\u09b6": 4498, "\u0995\u09be\u09aa\u09c7\u09b0": 4499, "\u0995\u09be\u09ab\u09a8\u09c7\u09b0": 4500, "\u09a8\u09be\u0995": 4501, "\u09a8\u09be\u09b8": 4502, "\u09a8\u09be\u09af\u09bc": 4503, "\u09b8\u09cd\u09ac\u09be\u09a6": 4504, "\u09b2\u09be\u09ac": 4505, "\u09b2\u09be\u0997\u09be": 4506, "\u09b2\u09be\u09a6\u09be\u09b0": 4507, "\u09b2\u09be\u0997\u09bf\u09df\u09c7": 4508, "\u09b0\u09be\u0997": 4509, "\u09b0\u09be\u099c\u09bf": 4510, "\u09b0\u09be\u09b8\u09cd\u09a4\u09be\u09b0": 4511, "\u0995\u09cd\u09b8\u09c7\u09b0": 4512, "\u0995\u09cd\u09b2\u09be\u09b6": 4513, "\u09a4\u09be\u09b9\u09be": 4514, "\u09a4\u09be\u0995\u09bf\u09df\u09c7": 4515, "\u09aa\u09b0\u09cd\u09af\u09be\u09b2": 4516, "\u09a6\u09bf\u09b7\u09cd\u099f": 4517, "\u09a6\u09bf\u09b2\u09c7\u09a8": 4518, "\u09ae\u09be\u09a4\u09c3": 4519, "\u09a8\u09c7\u09a4\u09be\u09b0\u09be": 4520, "\u09a8\u09cd\u09a6\u09c7": 4521, "\u09a8\u09cd\u09b8\u09c7\u09b0": 4522, "\u09ae\u09bf\u09b6\u09a8": 4523, "\u0995\u09cd\u09b7\u09df": 4524, "\u0995\u09cd\u09b7\u09a3\u09c7": 4525, "\u09b8\u09ae\u09cd\u09b0\u09be": 4526, "\u09aa\u09be\u09ac\u09b2": 4527, "\u09aa\u09be\u09dc\u09c7": 4528, "\u09aa\u09be\u099a\u09cd\u099b\u09c7": 4529, "\u09aa\u09be\u09dc\u09be\u09df": 4530, "\u09b8\u09bf\u09ae\u09c7\u09b0": 4531, "\u09b8\u09bf\u0995\u09bf\u0989\u09b0\u09bf\u099f\u09bf": 4532, "\u09ad\u09be\u09dc\u09be": 4533, "\u09ad\u09be\u0987\u09b8": 4534, "\u09ad\u09be\u09ac\u09bf\u0995": 4535, "\u09b8\u09c7\u09ac\u09be\u09b0": 4536, "\u09b8\u09c7\u0995\u09cd\u09b8": 4537, "\u09b8\u09c7\u0997\u09c1\u09b2\u09cb": 4538, "\u099c\u09a8\u0997\u09cb\u09b7\u09cd\u09a0": 4539, "\u0995\u09b0\u09c7\u09a8\u09bf": 4540, "\u0995\u09b0\u09c7\u099b\u09bf\u09b2": 4541, "\u0995\u09bf\u09ad\u09be\u09ac\u09c7": 4542, "\u0995\u09bf\u099b\u09c1\u09b0": 4543, "\u099f\u09be\u09a4\u09c7": 4544, "\u09b9\u09be\u09ac\u09bf": 4545, "\u09b9\u09be\u09a4\u09c7\u09b0": 4546, "\u09ae\u09c7\u09df\u09c7\u09b0": 4547, "\u0995\u09cb\u099a": 4548, "\u0995\u09cb\u09b7\u09cd\u099f": 4549, "\u0997\u09c7\u099f": 4550, "\u0999\u09cd\u0995\u09b0": 4551, "\u09a4\u09be\u09b0\u0987": 4552, "\u09a6\u09c7\u09b6\u09c0\u09df": 4553, "\u09ae\u09be\u09a8\u09be": 4554, "\u09ac\u09cd\u09af\u09a4\u09bf": 4555, "\u09ac\u09cd\u09af\u09be\u09b0\u09bf": 4556, "\u09b6\u09bf\u09ae": 4557, "\u09b6\u09bf\u09b0": 4558, "\u09b6\u09bf\u09df\u09c7": 4559, "\u09b6\u09bf\u09df\u09be": 4560, "\u09b6\u09bf\u09b0\u09cb": 4561, "\u09b8\u0982\u09b8\u09cd": 4562, "\u09aa\u09b0\u09bf\u09b6\u09cd\u09b0\u09ae": 4563, "\u099c\u09bf\u099c\u09cd\u099e\u09be": 4564, "\u09ad\u09bf\u0989": 4565, "\u09b2\u09bf\u09a8\u09be": 4566, "\u0995\u09cd\u09a4\u09bf\u09b0": 4567, "\u0997\u09cd\u09b0\u09b8\u09cd\u09a4": 4568, "\u09aa\u09bf\u09df\u09be\u09b0": 4569, "\u0985\u09a8\u09c1\u09b0": 4570, "\u0985\u09a8\u09b2\u09be\u0987\u09a8\u09c7": 4571, "\u099f\u09c7\u09b2": 4572, "\u099c\u09be\u09a8\u09be\u09b0": 4573, "\u099c\u09be\u09a8\u09c1\u09af\u09bc\u09be\u09b0": 4574, "\u099c\u09be\u09af\u09bc": 4575, "\u09a6\u09c1\u09a7": 4576, "\u09a6\u09c1\u09aa\u09c1\u09b0": 4577, "\u09aa\u09cd\u09b0\u09a4\u09bf\u09ae\u09be": 4578, "\u09aa\u09cd\u09b0\u09a4\u09bf\u09b0\u0995\u09cd\u09b7\u09be": 4579, "\u09aa\u09cd\u09b0\u09a4\u09bf\u09ac\u09c7\u09a6\u0995": 4580, "\u09b6\u09c7\u09a6": 4581, "\u09a8\u09bf\u09b0\u09cd\u09a6\u09bf\u09b7\u09cd\u099f": 4582, "\u09b9\u09bf\u09a8": 4583, "\u09af\u09c7\u099f\u09be": 4584, "\u09af\u09c7\u0995\u09cb\u09a8\u09cb": 4585, "\u09b8\u09cd\u09a5\u0997\u09bf\u09a4": 4586, "\u09b8\u09c1\u09a8\u09cd\u09a6": 4587, "\u09b8\u09c1\u0996\u09ac\u09b0": 4588, "\u09a8\u09be\u09b0\u09c0\u09b0": 4589, "\u0999\u09cd\u0997\u09be\u09b0": 4590, "\u09cd\u09a1\u09be\u09b0": 4591, "\u0996\u09be\u09a4": 4592, "\u0996\u09be\u09a6": 4593, "\u0995\u09cd\u09b0\u09c0": 4594, "\u0989\u09aa\u09a6\u09c7": 4595, "\u0989\u09aa\u09be\u09df": 4596, "\u0989\u09aa\u09af\u09c1\u0995\u09cd\u09a4": 4597, "017": 4598, "\u099f\u09cd\u09b0\u09c7\u09a8": 4599, "\u09b8\u09ac\u099a\u09c7\u09af\u09bc\u09c7": 4600, "\u099a\u09c7\u09b7\u09cd\u099f\u09be\u09b0": 4601, "\u0995\u09b0\u09cd\u09ae\u09c0\u09b0": 4602, "\u0986\u09aa\u09b2\u09cb\u09a1": 4603, "\u0985\u09a8\u09c1\u09ad\u09c2": 4604, "\u0985\u09a8\u09c1\u09b8\u09be\u09b0\u09c7": 4605, "\u09c7\u09a8\u09cd\u09a6\u09be": 4606, "\u0995\u09be\u09b2\u09c7\u09b0": 4607, "\u09ac\u09b2\u09c7\u0987": 4608, "\u099a\u09be\u09aa\u09be": 4609, "\u099a\u09be\u099f\u09ae\u09cb": 4610, "\u09b9\u09be\u09b0\u09c7": 4611, "\u09b9\u09be\u09b0\u09be\u09ae": 4612, "\u0997\u09be\u09dc\u09bf\u09b0": 4613, "\u09af\u09c1\u0997\u09c7": 4614, "\u09ab\u09bf\u09b0\u09bf\u09df\u09c7": 4615, "\u09ab\u09bf\u099f\u09a8\u09c7": 4616, "\u09e8\u09e6\u09e7\u09e8": 4617, "\u09e8\u09e6\u09e7\u09e9": 4618, "\u09a6\u09bf\u09df\u09c7\u099b\u09bf\u09b2\u09c7\u09a8": 4619, "\u09a8\u09cd\u09a8\u09a4": 4620, "\u0986\u0987\u09a8\u09c7\u09b0": 4621, "\u0995\u09cd\u09b7\u09c7\u09be": 4622, "\u09ad\u09c7\u099a\u09cd\u099b\u09be": 4623, "\u09b6\u09c1\u09ad\u09c7\u099a\u09cd\u099b\u09be": 4624, "\u09be\u09a8\u09cd\u09a4\u09bf": 4625, "\u09a4\u09cb\u09ab\u09be": 4626, "\u099a\u09be\u09b2\u09be\u09df": 4627, "\u09be\u09a8\u09c7\u09be": 4628, "\u09be\u09b2\u09c7\u09be": 4629, "\u09b8\u09cd\u099f\u09cb\u09b0\u09c7": 4630, "\u09b2\u09c0\u09b2": 4631, "\u0985\u09ad\u09bf\u09af\u09c7\u09be\u0997": 4632, "\u09b0\u09cb\u099c\u09be": 4633, "\u09ac\u09cd\u09af\u09be\u099f\u09bf\u0982": 4634, "\u0987\u09b8\u09b2\u09be\u09ae\u09c0": 4635, "\u09a1\u09c7\u0995": 4636, "\u09a1\u09c7\u09ae\u09cb": 4637, "\u099b\u09bf\u09a8\u09a4\u09be\u0987": 4638, "\u09ac\u09be\u09b8\u09c0\u09b0": 4639, "\u09b0\u09be\u099c\u09c0": 4640, "\u09ab\u09be\u0989\u09a8\u09cd\u09a1\u09c7": 4641, "\u0986\u09b2\u09ac\u09bf\u09a8\u09c7": 4642, "\u0986\u0997\u09be\u09ae": 4643, "\u09ae\u09a8\u09cd\u09a4\u09cd\u09b0\u09bf": 4644, "\u09b6\u09cd\u09b0\u09cb": 4645, "\u09ac\u09c3\u09a8\u09cd\u09a6": 4646, "\u09b9\u09c7\u09ab\u09be": 4647, "\u09b9\u09c7\u09a4\u09c1": 4648, "\u09b7\u09cd\u099f\u09be\u09a8": 4649, "\u09b8\u09cd\u09ac\u09a4\u09cd": 4650, "\u09ac\u09cd\u09b2\u09bf": 4651, "\u09aa\u09a4\u09cd\u09b0\u09bf\u0995\u09be": 4652, "\u098f\u09a8\u09b8\u09bf\u09b2\u09bf": 4653, "\u09aa\u09c2\u09b0\u09cd\u09a3\u09be": 4654, "\u09aa\u09c2\u09b0\u09cd\u09ac\u09be\u09a8\u09c1": 4655, "\u09aa\u09cd\u09b0\u09a6\u09be\u09df": 4656, "\u09aa\u09cd\u09b0\u09a6\u09be\u09a8\u09c7\u09b0": 4657, "\u0987\u09b8\u09b2\u09be\u09ae\u09c7\u09b0": 4658, "\u0986\u09a6\u09b0\u09cd\u09b6": 4659, "\u09a6\u09c7\u0996\u09b2\u09c7": 4660, "\u09a6\u09c7\u0996\u09c1\u09a8": 4661, "any": 4662, "an70": 4663, "\u09ae\u09be\u09b0\u09cd\u099f\u09bf\u09a8": 4664, "\u09a1\u09be\u0987": 4665, "\u09a1\u09be\u099f\u09be": 4666, "\u0995\u09c3\u09a4\u09cd\u09b0\u09bf": 4667, "\u09ae\u09c1\u0996\u09c7\u09b0": 4668, "\u09b8\u09cd\u09ac\u09be\u09ad\u09be\u09ac\u09bf\u0995": 4669, "\u09a8\u09bf\u09b0\u09cd\u09ac\u09be\u099a\u09a8\u0995\u09be\u09b2\u09c0\u09a8": 4670, "\u0986\u09aa\u09a8\u09bf\u0993": 4671, "\u0985\u09cd\u09af\u09be\u09a1": 4672, "\u099c\u09be\u09a8\u09be\u09a8\u09cb": 4673, "\u09a7\u09be\u0995\u09cd": 4674, "\u09aa\u09cd\u09b0\u09a5\u09ae\u09ac\u09be\u09b0\u09c7\u09b0": 4675, "\u0989\u09a4\u09cd\u09a4\u09c7": 4676, "\u0989\u09a4\u09cd\u09a4\u09b0\u09be": 4677, "\u099a\u09c1\u09ae\u09cd\u09ac": 4678, "\u0986\u0993\u09df\u09be\u09ae\u09c0\u09b2\u09c0\u0997": 4679, "\u0995\u09ae\u09bf\u09b6\u09a8\u09be\u09b0": 4680, "\u0985\u09b0\u09cd\u09a5\u09a8\u09c8\u09a4\u09bf\u0995": 4681, "\u09a7\u09b0\u09ae": 4682, "\u09aa\u09cd\u09b0\u09c7\u09ae\u09c7\u09b0": 4683, "\u09ac\u09be\u09dc\u09a4\u09bf": 4684, "\u099f\u09be\u0987\u0997\u09be\u09b0": 4685, "ren": 4686, "\u09a6\u09be\u09df\u09c0": 4687, "\u09aa\u09dc\u09be\u09b0": 4688, "time": 4689, "\u09b0\u09be\u0996\u09c1\u09a8": 4690, "\u098f\u0995\u09be\u0989\u09a8\u09cd": 4691, "\u09a8\u09bf\u09b0\u09c0": 4692, "\u09a8\u09bf\u09b0\u09aa\u09c7": 4693, "\u0986\u09ac\u09be\u09b0\u0993": 4694, "\u0986\u09ac\u09be\u09b0\u09cb": 4695, "\u09a4\u09c8\u09b0\u09c0": 4696, "\u0985\u09ad\u09bf\u09af\u09cb\u0997\u09c7\u09b0": 4697, "\u09ac\u09be\u09b9\u09bf\u09b0\u09c7": 4698, "\u09b0\u09cd\u09a4\u09bf\u09b0": 4699, "\u09a4\u09c0\u09a4": 4700, "\u09ac\u09b0\u09cd\u09a7": 4701, "\u09ad\u09c1\u09a4": 4702, "\u09ad\u09c1\u09df\u09be": 4703, "\u09a4\u09cd\u09ae\u0995": 4704, "\u09aa\u09be\u09b0\u09cd\u099f": 4705, "\u09aa\u09be\u09b0\u09cd\u099f\u09bf\u09b0": 4706, "\u09ac\u09a6\u09b2\u09c7": 4707, "\u09ac\u09a6\u09a8\u09cd\u09a4": 4708, "\u09ac\u09a6\u09b0\u09c1\u09b2": 4709, "\u09ac\u09c8\u09b6\u09bf\u09b7\u09cd\u099f": 4710, "\u09ac\u09cd\u09af\u0995\u09cd\u09a4\u09bf\u09a6\u09c7\u09b0": 4711, "\u09e6\u09e7\u09ed\u09e7\u09e7\u09ef": 4712, "\u09b8\u09a8\u09cd\u09a4\u09be\u09a8\u09c7\u09b0": 4713, "\u0996\u09cb\u0981": 4714, "\u0995\u09c3\u09b7\u0995": 4715, "129": 4716, "\u09ab\u09c1\u09b2\u09c7\u09b0": 4717, "\u09ac\u09be\u09b0\u09cd\u09b8\u09be": 4718, "\u0995\u09be\u09b0\u09cd\u09af\u0995\u09b0": 4719, "\u099a\u09cb\u0996\u09c7\u09b0": 4720, "\u0995\u09b0\u09b2\u09c7\u0993": 4721, "\u09ac\u09bf\u09b0\u09a4\u09bf": 4722, "\u09ae\u09bf\u09b2\u09a8": 4723, "\u09a4\u09c1\u09b2\u09a4\u09c7": 4724, "\u09aa\u09a6\u09a4\u09cd\u09af\u09be\u0997": 4725, "\u09aa\u09be\u09df\u09c7\u09b0": 4726, "\u09ac\u09be\u0981\u09a7\u09be": 4727, "\u09aa\u09b0\u09cd\u09a6\u09be": 4728, "\u09aa\u09a4\u09cd\u09a4\u09bf": 4729, "\u09e9\u09eb\u09e7\u09ef\u09ec": 4730, "\u099a\u099f\u09cd\u099f\u0997\u09cd\u09b0\u09be\u09ae\u09c7": 4731, "\u09ae\u09a8\u09cb\u09a8\u09df\u09a8\u09aa\u09a4\u09cd\u09b0": 4732, "rahm": 4733, "\u09ab\u09cb\u09a8\u09c7": 4734, "\u09a8\u09bf\u0989\u099c\u09bf\u09b2": 4735, "\u09b6\u09be\u09b9\u099c\u09be\u09b2\u09be\u09b2": 4736, "\u09ac\u0995\u09cd\u09a4\u09ac\u09cd\u09af\u09c7": 4737, "\u09aa\u09be\u0981\u099a\u099f\u09bf": 4738, "\u09ad\u09be\u0999\u09be": 4739, "\u0986\u09b6\u09b0\u09be": 4740, "\u0997\u09cd\u09a7": 4741, "\u09a1\u09cd\u09b0\u09c7": 4742, "\u09ad\u09cb\u099f\u09c7\u09b0": 4743, "\u09b8\u09bf\u09b2\u09ad\u09be\u09b0": 4744, "\u09ad\u09cd\u09b0\u09be\u09ae\u09cd\u09af": 4745, "\u09b8\u09cd\u09aa\u09b0\u09cd\u09b6": 4746, "\u09a4\u09cd\u09b0\u09bf\u09aa\u09c1\u09b0\u09be": 4747, "\u0987\u09df\u09be\u09ac\u09be": 4748, "\u099f\u09cd\u09af\u09be\u09ac\u09b2\u09c7": 4749, "\u09a6\u09b0\u0995\u09be\u09b0": 4750, "\u09a6\u09c3\u09b6\u09cd\u09af": 4751, "\u09b8\u0999\u09cd\u0997\u09a4": 4752, "\u09ac\u09bf\u09a4\u09b0\u09cd": 4753, "133": 4754, "138": 4755, "\u09aa\u09cd\u09af\u09be\u0995\u09c7\u099c": 4756, "\u09ae\u09b8\u099c\u09bf\u09a6\u09c7\u09b0": 4757, "age": 4758, "\u0982\u09b8\u09a4\u09be": 4759, "\u09a0\u09be\u09a3\u09cd\u09a1\u09be": 4760, "\u09b9\u09cd\u09af\u09be\u099c": 4761, "\u09ac\u09be\u09b8\u09cd\u09a4\u09ac\u09be\u09df": 4762, "\u09aa\u09cd\u09b0\u09ac\u09c7\u09b6\u09c7\u09b0": 4763, "\u0997\u09be\u09dc\u09bf\u09a4\u09c7": 4764, "\u0987\u09a8\u09cd\u099f\u09be\u09b0\u09a8\u09c7\u099f": 4765, "\u099c\u09be\u09df\u0997\u09be": 4766, "\u09aa\u09c1\u09a8\u09b0\u09be\u09df": 4767, "\u09b6\u09b9\u09b0\u09c7": 4768, "\u09b8\u09a4\u09cd\u09af\u09bf": 4769, "\u0993\u09df\u09be\u09b0\u09cd\u0995": 4770, "\u0993\u09df\u09be\u09b0\u09cd\u09b2\u09cd\u09a1": 4771, "\u09ae\u09cd\u09af\u09be\u099a\u09c7\u0987": 4772, "\u09b8\u09cd\u0995\u09c1\u09b2\u09c7\u09b0": 4773, "vir": 4774, "\u0996\u09cd\u09b0\u09bf\u09b7\u09cd\u099f\u09be\u09a8": 4775, "\u09ac\u0997\u09c1\u09dc\u09be\u09b0": 4776, "\u09ae\u09a8\u09bf\u09b0\u09c1\u09b2": 4777, "\u09b6\u09ab\u09bf\u0995\u09c1\u09b2": 4778, "141": 4779, "\u09aa\u09cd\u09b0\u09b6\u09be\u09b8\u09a8": 4780, "\u0985\u09a7\u09c0\u09a8\u09c7": 4781, "\u0986\u0995\u09b8\u09be": 4782, "aper": 4783, "\u0995\u09be\u0989\u09a8\u09cd\u09b8\u09bf\u09b2": 4784, "\u09ad\u09be\u09b7\u09be": 4785, "\u09b8\u09be\u0982\u09ac\u09be\u09a6\u09bf\u0995\u09a6\u09c7\u09b0": 4786, "\u09a8\u0997\u09b0\u09c0\u09b0": 4787, "\u09b8\u09ab\u09b0\u09c7": 4788, "\u09ae\u09be\u09b8\u09c1\u09ae": 4789, "\u0995\u09bf\u0982\u09ac\u09a6\u09a8\u09cd\u09a4": 4790, "\u0985\u09ad\u09cd\u09af\u09a8\u09cd\u09a4\u09b0\u09c0\u09a8": 4791, "\u09ae\u09a1\u09c7\u09b2\u09c7\u09b0": 4792, "\u0995\u09cb\u09ae\u09cd\u09aa\u09be\u09a8\u09c0\u09b0": 4793, "\u0996\u09a8\u09cd\u09a6\u0995\u09be\u09b0": 4794, "\u09a4\u09be\u09b0\u09c7\u0995": 4795, "162": 4796, "\u0987\u0995\u09ac\u09be\u09b2": 4797, "\u09aa\u09cd\u09b0\u09b8\u09cd\u09a4\u09be\u09ac": 4798, "\u09ae\u09c1\u099c\u09bf\u09ac": 4799, "\u099b\u09be\u09dc\u09aa\u09a4\u09cd\u09b0": 4800, "\u09b9\u09be\u0987\u0995\u09cb\u09b0\u09cd\u099f": 4801, "\u09b9\u09be\u0987\u0995\u09cb\u09b0\u09cd\u099f\u09c7\u09b0": 4802, "\u0995\u09ae\u09cd\u09aa\u09bf\u0989\u099f\u09be\u09b0\u09c7\u09b0": 4803, "\u09b0\u09aa\u09cd\u09a4\u09be\u09a8\u09bf": 4804, "\u0995\u09b0\u09cd\u09ae\u0995\u09be\u09a3\u09cd\u09a1\u09c7\u09b0": 4805, "\u09ac\u09cd\u09b0\u09be\u09b9\u09cd\u09ae": 4806, "ONE": 4807, "\u0989\u09aa\u09be\u09a6\u09be\u09a8": 4808, "\u0990\u09a4\u09bf\u09b9\u09be\u09b8\u09bf\u0995": 4809, "\u09a1\u099f\u0995\u09ae": 4810, "\u09a8\u09ae\u09cd\u09ac\u09b0\u09c7\u09b0": 4811, "\u09ac\u09be\u09a8\u09cd\u09a7": 4812, "\u09aa\u09cd\u09b0\u0995\u09cd\u09b0\u09bf\u09df\u09be": 4813, "\u09a8\u09be\u099f\u09cd\u09af": 4814, "\u09b9\u09be\u0981\u09b8": 4815, "\u09aa\u09cd\u09b2\u09bf\u0995\u09c7\u09b6\u09a8": 4816, "\u09ab\u09be\u0987\u09a8\u09be\u09b2\u09c7": 4817, "\u09ac\u09c8\u09a0\u0995": 4818, "\u09b8\u0999\u09cd\u0997\u09c0\u09a4": 4819, "https": 4820, "\u09ac\u09bf\u09b8\u09cd\u09ab\u09cb\u09b0\u0995": 4821, "\u0986\u09b2\u09be\u09a6\u09be": 4822, "\u0986\u09b8\u09cd\u09a4\u09c7": 4823, "\u0995\u09cd\u09af\u09be\u09ae\u09c7\u09b0": 4824, "\u099c\u09b9\u09bf\u09b0\u09c1\u09b2": 4825, "\u09a6\u09b0\u09cd\u09b6\u0995\u09a6\u09c7\u09b0": 4826, "\u09a6\u09cb\u0995\u09be\u09a8\u09c7": 4827, "\u0986\u09b2\u09b9\u09be\u099c\u09cd\u09ac": 4828, "\u09ac\u09bf\u09a6\u09cd\u09af\u09c1\u09ce": 4829, "\u09ee\u09ea\u09e9\u09e8\u09e9": 4830, "PHONE": 4831, "Read": 4832, "\u0985\u0997\u09cd\u09a8\u09bf": 4833, "\u09ae\u099e\u09cd\u099c\u09c1\u09b0": 4834, "\u09b9\u09be\u0993\u09b2\u09be\u09a6\u09be\u09b0": 4835, "\u09aa\u09be\u09b0\u09cd\u09ac\u09a4\u09cd\u09af": 4836, "\u09b8\u09be\u09ae\u09cd\u09b0\u09be\u099c\u09cd\u09af\u09ac\u09be\u09a6\u09c7\u09b0": 4837, "\u09b2\u09c7\u09a8\u09a6\u09c7\u09a8\u09c7\u09b0": 4838, "ences": 4839, "\u09ae\u09cc\u09b2\u09ad\u09c0\u09ac\u09be\u099c\u09be\u09b0": 4840, "\u09b8\u09cd\u09ac\u09c0\u0995\u09be\u09b0\u09cb\u0995\u09cd\u09a4\u09bf\u09ae\u09c2\u09b2\u0995": 4841, "ferences": 4842, "\u0985\u09b8\u09c1\u09b8\u09cd\u09a5": 4843, "\u098f\u099c\u09c7\u09a8\u09cd\u099f": 4844, "\u099a\u09c2\u09dc\u09be\u09a8\u09cd\u09a4": 4845, "\u09aa\u09b0\u09be\u099c\u09bf\u09a4": 4846, "\u09ac\u09bf\u09a8\u09be\u09ae\u09c2\u09b2\u09cd\u09af\u09c7": 4847, "\u09b0\u09cb\u099c\u0997\u09be\u09b0": 4848, "\u09ac\u09cd\u09b0\u09c1\u0987\u09a8": 4849, "\u099c\u09b0\u09c1\u09b0\u09bf": 4850, "\u0987\u09a4\u09bf\u09b9\u09be\u09b8\u09c7\u09b0": 4851, "\u099b\u09c1\u09b0\u09bf\u0995\u09be\u0998\u09be": 4852, "Preferences": 4853, "msrahm": 4854, "\u0985\u09b8\u09cd\u09a4\u09bf\u09a4\u09cd\u09ac": 4855, "\u0986\u0993\u09df\u09be\u099c": 4856, "\u0989\u099c\u09cd\u099c\u09cd\u09ac\u09b2": 4857, "\u098f\u098f\u09ab\u09aa\u09bf": 4858, "\u099a\u09a4\u09c1\u09b0\u09cd\u09a5": 4859, "\u09b6\u09b9\u09c0\u09a6": 4860, "\u09ac\u09bf\u09aa\u09cd\u09b2\u09ac": 4861, "\u09ae\u09be\u09a6\u09be\u09b0\u09c0\u09aa\u09c1\u09b0": 4862, "\u099f\u09be\u0999\u09cd\u0997\u09be\u0987\u09b2": 4863, "\u09ac\u09be\u09b0\u09bf\u09a7\u09be\u09b0\u09be": 4864, "\u099a\u09cd\u099b\u09c1\u0995": 4865, "\u0996\u09be\u0997\u09dc\u09be\u099b\u09dc\u09bf": 4866, "\u09b8\u09b0\u09ac\u09b0\u09be\u09b9": 4867, "\u09b8\u09c2\u09b0\u09cd\u09af": 4868, "\u0989\u09b2\u09cd\u09b2\u09be\u09b9": 4869, "\u09ae\u09b0\u09cd\u09af\u09be\u09a6\u09be": 4870, "\u0989\u09a6\u09cd\u09ac\u09cb\u09a7\u09a8\u09c0": 4871, "\u0986\u09b0\u09cd\u099c\u09c7\u09a8\u09cd\u099f\u09bf": 4872, "\u098f\u09df\u09be\u09b0\u09b2\u09be\u0987\u09a8\u09cd\u09b8\u09c7\u09b0": 4873, "\u099c\u09ac\u09be\u09a8\u09ac\u09a8\u09cd\u09a6\u09bf": 4874, "\u09ad\u09df\u09be\u09ac\u09b9": 4875, "\u09af\u09a5\u09c7\u09b7\u09cd\u099f": 4876, "\u09b8\u200c\u099a\u09bf\u09ac": 4877, "\u09ac\u09bf\u09a8\u09cb\u09a6\u09a8": 4878, "\u09a8\u09bf\u09b2\u09be\u09ae\u09c7": 4879, "\u09aa\u09b0\u09cd\u09af\u09be\u09b2\u09cb": 4880, "\u09aa\u09be\u09ac\u09b2\u09bf\u0995": 4881, "\u0995\u09cb\u09b7\u09cd\u099f\u09be\u09b2": 4882, "\u09ac\u09cd\u09af\u09be\u09b0\u09bf\u09b8\u09cd\u099f\u09be\u09b0": 4883, "\u09b8\u09cd\u09ac\u09a4\u09cd\u09ac\u09be\u09a7\u09bf\u0995\u09be\u09b0": 4884, "\u098f\u09a8\u09b8\u09bf\u09b2\u09bf\u09df\u09be\u09b0\u09c0": 4885, "\u09aa\u09c2\u09b0\u09cd\u09a3\u09be\u0999\u09cd\u0997": 4886, "\u09aa\u09c2\u09b0\u09cd\u09ac\u09be\u09a8\u09c1\u09ae\u09a4\u09bf": 4887, "\u0995\u09c3\u09a4\u09cd\u09b0\u09bf\u09ae": 4888, "\u098f\u0995\u09be\u0989\u09a8\u09cd\u099f": 4889, "\u09e6\u09e7\u09ed\u09e7\u09e7\u09ef\u09e9\u09eb\u09e7\u09ef\u09ec": 4890, "msrahman70": 4891, "''": 4892, ")/": 4893, "46": 4894, "48": 4895, "64": 4896, "76": 4897, "AC": 4898, "Co": 4899, "De": 4900, "KY": 4901, "MS": 4902, "OM": 4903, "SS": 4904, "Un": 4905, "af": 4906, "ay": 4907, "ama": 4908, "ahm": 4909, "cu": 4910, "cap": 4911, "gin": 4912, "ies": 4913, "ke": 4914, "ow": 4915, "tam": 4916, "um": 4917, "yout": 4918, "\u0964\"": 4919, "\u0981\u0995\u09c7": 4920, "\u0981\u09dc\u09c7": 4921, "\u0985\u09ac\u09be": 4922, "\u0985\u09a6\u09bf": 4923, "\u0985\u09a6\u09cd": 4924, "\u0985\u09cd\u09af\u09be\u09a8": 4925, "\u0985\u09cd\u09af\u09be\u09ae": 4926, "\u0985\u09be\u09aa": 4927, "\u0985\u09aa\u09c7\u09b6\u09be\u09a6\u09be\u09b0": 4928, "\u0985\u099e\u09cd\u099a\u09b2\u09c7": 4929, "\u0986\u0995\u09be\u09b0": 4930, "\u0986\u09df\u09be": 4931, "\u0986\u09a8\u09be\u09b0": 4932, "\u0986\u09b6\u09cd": 4933, "\u0986\u09b2\u09be\u0987": 4934, "\u0986\u099b\u09bf": 4935, "\u0986\u099f\u0995\u09c7": 4936, "\u0986\u09b0\u09bf\u09ab": 4937, "\u0987\u09b2\u09bf": 4938, "\u0987\u099f\u09be\u09b0": 4939, "\u0987\u09a4\u09cb": 4940, "\u0987\u09ae\u09c7\u0987\u09b2": 4941, "\u0987\u09af\u09bc\u09be": 4942, "\u0987\u09ab\u09a4\u09be\u09b0": 4943,
[...]
