{
  "version": "1.0",
  "truncation": null,
  "padding": null,
  "added_tokens": [
    {
      "id": 0,
      "content": "<s>",
      "single_word": false,
      "lstrip": false,
      "rstrip": false,
      "normalized": false,
      "special": true
    },
    {
      "id": 1,
      "content": "</s>",
      "single_word": false,
      "lstrip": false,
      "rstrip": false,
      "normalized": false,
      "special": true
    },
    {
      "id": 2,
      "content": "<unk>",
      "single_word": false,
      "lstrip": false,
      "rstrip": false,
      "normalized": false,
      "special": true
    },
    {
      "id": 3,
      "content": "<pad>",
      "single_word": false,
      "lstrip": false,
      "rstrip": false,
      "normalized": false,
      "special": true
    },
    {
      "id": 4,
      "content": "<mask>",
      "single_word": false,
      "lstrip": false,
      "rstrip": false,
      "normalized": false,
      "special": true
    }
  ],
  "normalizer": null,
  "pre_tokenizer": {
    "type": "Whitespace"
  },
  "post_processor": {
    "type": "ByteLevel",
    "add_prefix_space": true,
    "trim_offsets": true,
    "use_regex": true
  },
  "decoder": {
    "type": "ByteLevel",
    "add_prefix_space": true,
    "trim_offsets": true,
    "use_regex": true
  },
  "model": {
    "type": "BPE",
    "dropout": null,
    "unk_token": null,
    "continuing_subword_prefix": null,
    "end_of_word_suffix": null,
    "fuse_unk": false,
    "byte_fallback": false,
    "ignore_merges": false,
    "vocab": {
      "<s>": 0,
      "</s>": 1,
      "<unk>": 2,
      "<pad>": 3,
      "<mask>": 4,
      "!": 5,
      "\"": 6,
      "#": 7,
      "%": 8,
      "&": 9,
      "'": 10,
      "(": 11,
      ")": 12,
      "*": 13,
      "+": 14,
      ",": 15,
      "-": 16,
      ".": 17,
      "/": 18,
      "0": 19,
      "1": 20,
      "2": 21,
      "3": 22,
      "4": 23,
      "5": 24,
      "6": 25,
      "7": 26,
      "8": 27,
      "9": 28,
      ":": 29,
      ";": 30,
      "<": 31,
      "=": 32,
      ">": 33,
      "?": 34,
      "@": 35,
      "A": 36,
      "B": 37,
      "C": 38,
      "D": 39,
      "E": 40,
      "F": 41,
      "G": 42,
      "H": 43,
      "I": 44,
      "J": 45,
      "K": 46,
      "L": 47,
      "M": 48,
      "N": 49,
      "O": 50,
      "P": 51,
      "Q": 52,
      "R": 53,
      "S": 54,
      "T": 55,
      "U": 56,
      "V": 57,
      "W": 58,
      "X": 59,
      "Y": 60,
      "Z": 61,
      "[": 62,
      "\\": 63,
      "]": 64,
      "^": 65,
      "_": 66,
      "`": 67,
      "a": 68,
      "b": 69,
      "c": 70,
      "d": 71,
      "e": 72,
      "f": 73,
      "g": 74,
      "h": 75,
      "i": 76,
      "j": 77,
      "k": 78,
      "l": 79,
      "m": 80,
      "n": 81,
      "o": 82,
      "p": 83,
      "q": 84,
      "r": 85,
      "s": 86,
      "t": 87,
      "u": 88,
      "v": 89,
      "w": 90,
      "x": 91,
      "y": 92,
      "z": 93,
      "{": 94,
      "|": 95,
      "": 96,
      "¦": 97,
      "©": 98,
      "«": 99,
      "·": 100,
      "»": 101,
      "¿": 102,
      "Ñ": 103,
      "í": 104,
      "ó": 105,
      "ú": 106,
      "œ": 107,
      "Ÿ": 108,
      "।": 109,
      "॥": 110,
      "ঁ": 111,
      "ং": 112,
      "ঃ": 113,
      "অ": 114,
      "আ": 115,
      "ই": 116,
      "ঈ": 117,
      "উ": 118,
      "ঊ": 119,
      "ঋ": 120,
      "এ": 121,
      "ঐ": 122,
      "ও": 123,
      "ঔ": 124,
      "ক": 125,
      "খ": 126,
      "গ": 127,
      "ঘ": 128,
      "ঙ": 129,
      "চ": 130,
      "ছ": 131,
      "জ": 132,
      "ঝ": 133,
      "ঞ": 134,
      "ট": 135,
      "ঠ": 136,
      "ড": 137,
      "ঢ": 138,
      "ণ": 139,
      "ত": 140,
      "থ": 141,
      "দ": 142,
      "ধ": 143,
      "ন": 144,
      "প": 145,
      "ফ": 146,
      "ব": 147,
      "ভ": 148,
      "ম": 149,
      "য": 150,
      "র": 151,
      "ল": 152,
      "শ": 153,
      "ষ": 154,
      "স": 155,
      "হ": 156,
      "়": 157,
      "া": 158,
      "ি": 159,
      "ী": 160,
      "ু": 161,
      "ূ": 162,
      "ৃ": 163,
      "ে": 164,
      "ৈ": 165,
      "ো": 166,
      "ৌ": 167,
      "্": 168,
      "ৎ": 169,
      "ৗ": 170,
      "ড়": 171,
      "ঢ়": 172,
      "য়": 173,
      "০": 174,
      "১": 175,
      "২": 176,
      "৩": 177,
      "৪": 178,
      "৫": 179,
      "৬": 180,
      "৭": 181,
      "৮": 182,
      "৯": 183,
      "৷": 184,
      "​": 185,
      "‌": 186,
      "‍": 187,
      "–": 188,
      "—": 189,
      "‘": 190,
      "’": 191,
      "“": 192,
      "”": 193,
      "•": 194,
      "…": 195,
      "›": 196,
      "€": 197,
      "℃": 198,
      "→": 199,
      "Ⓕ": 200,
      "☎": 201,
      "☑": 202,
      "☯": 203,
      "♣": 204,
      "✅": 205,
      "➤": 206,
      "": 207,
      "️": 208,
      "�": 209,
      "💬": 210,
      "ার": 211,
      "ের": 212,
      "্র": 213,
      "্য": 214,
      "ান": 215,
      "কর": 216,
      "্ত": 217,
      "বি": 218,
      "নি": 219,
      "বা": 220,
      "েন": 221,
      "কে": 222,
      "প্র": 223,
      "াম": 224,
      "াল": 225,
      "য়ে": 226,
      "তে": 227,
      "র্": 228,
      "বে": 229,
      "তি": 230,
      "টি": 231,
      "কা": 232,
      "লে": 233,
      "না": 234,
      "স্": 235,
      "লা": 236,
      "রা": 237,
      "ছে": 238,
      "ক্": 239,
      "তা": 240,
      "পর": 241,
      "দি": 242,
      "দে": 243,
      "মা": 244,
      "নে": 245,
      "ন্": 246,
      "্যা": 247,
      "দের": 248,
      "ায়": 249,
      "কার": 250,
      "ুর": 251,
      "মি": 252,
      "ক্ষ": 253,
      "ুল": 254,
      "সম": 255,
      "পা": 256,
      "সি": 257,
      "ভা": 258,
      "সে": 259,
      "জন": 260,
      "সা": 261,
      "করে": 262,
      "কি": 263,
      "য়": 264,
      "এক": 265,
      "িত": 266,
      "য়া": 267,
      "টা": 268,
      "্ব": 269,
      "হা": 270,
      "মে": 271,
      "ন্ত": 272,
      "ার্": 273,
      "থা": 274,
      "কো": 275,
      "ষ্": 276,
      "দ্": 277,
      "িল": 278,
      "গে": 279,
      "ঙ্": 280,
      "রে": 281,
      "বার": 282,
      "তার": 283,
      "থে": 284,
      "দেশ": 285,
      "মান": 286,
      "িক": 287,
      "ব্য": 288,
      "য়ার": 289,
      "শি": 290,
      "সং": 291,
      "ছেন": 292,
      "ত্র": 293,
      "পরি": 294,
      "জে": 295,
      "জি": 296,
      "ভি": 297,
      "লি": 298,
      "ক্ত": 299,
      "যা": 300,
      "মু": 301,
      "হয়ে": 302,
      "গ্র": 303,
      "পি": 304,
      "অন": 305,
      "টে": 306,
      "স্ত": 307,
      "জান": 308,
      "পার": 309,
      "রি": 310,
      "জা": 311,
      "বং": 312,
      "দু": 313,
      "করা": 314,
      "থেকে": 315,
      "এবং": 316,
      "্ম": 317,
      "এই": 318,
      "নের": 319,
      "োগ": 320,
      "প্রতি": 321,
      "দা": 322,
      "ুন": 323,
      "্প": 324,
      "বল": 325,
      "আর": 326,
      "মো": 327,
      "শে": 328,
      "নির্": 329,
      "ছিল": 330,
      "চ্": 331,
      "হি": 332,
      "ডি": 333,
      "ধ্য": 334,
      "ীর": 335,
      "দ্ধ": 336,
      "যে": 337,
      "ঞ্": 338,
      "জন্য": 339,
      "২০": 340,
      "শা": 341,
      "স্থ": 342,
      "সু": 343,
      "পুর": 344,
      "নার": 345,
      "হয়": 346,
      "এর": 347,
      "ঙ্গ": 348,
      "আম": 349,
      "বর": 350,
      "্ড": 351,
      "খা": 352,
      "খে": 353,
      "ক্র": 354,
      "উপ": 355,
      "01": 356,
      "ীয়": 357,
      "ভাগ": 358,
      "ট্র": 359,
      "সব": 360,
      "িয়ে": 361,
      "যোগ": 362,
      "করতে": 363,
      "..": 364,
      "দিন": 365,
      "লো": 366,
      "পে": 367,
      "কোন": 368,
      "টার": 369,
      "নাম": 370,
      "চে": 371,
      "হবে": 372,
      "ির": 373,
      "ছা": 374,
      "কর্ম": 375,
      "মন": 376,
      "201": 377,
      "ড়া": 378,
      "আপ": 379,
      "অনু": 380,
      "েন্": 381,
      "হত": 382,
      "কাল": 383,
      "বলে": 384,
      "্যান": 385,
      "একটি": 386,
      "চা": 387,
      "দো": 388,
      "সম্": 389,
      "ড়": 390,
      "বিভাগ": 391,
      "ন্ত্র": 392,
      "হয়েছে": 393,
      "হার": 394,
      "গা": 395,
      "যু": 396,
      "রের": 397,
      "ত্ত": 398,
      "জার": 399,
      "দ্র": 400,
      "প্ত": 401,
      "সহ": 402,
      "ফি": 403,
      "ধান": 404,
      "ওয়া": 405,
      "মধ্য": 406,
      "নিয়ে": 407,
      "ইল": 408,
      "নির্বা": 409,
      "ভার": 410,
      "ামী": 411,
      "ব্যব": 412,
      "২০১": 413,
      "আস": 414,
      "দিয়ে": 415,
      "ন্ন": 416,
      "য়ে": 417,
      "খন": 418,
      "চি": 419,
      "আই": 420,
      "ক্ষে": 421,
      "ভে": 422,
      "সময়": 423,
      "ধার": 424,
      "শন": 425,
      "কের": 426,
      "লার": 427,
      "ৃত": 428,
      "ধি": 429,
      "শু": 430,
      "শ্": 431,
      "ান্ত": 432,
      "ুলি": 433,
      "তিনি": 434,
      "সর": 435,
      "অব": 436,
      "জ্": 437,
      "মধ্যে": 438,
      "সের": 439,
      "োন": 440,
      "তো": 441,
      "াকা": 442,
      "নির্বাচ": 443,
      "চাল": 444,
      "লাই": 445,
      "গত": 446,
      "ীন": 447,
      "োর": 448,
      "ষ্ঠ": 449,
      "ম্ব": 450,
      "ড়ে": 451,
      "ানে": 452,
      "শেষ": 453,
      "ালে": 454,
      "প্": 455,
      "যায়": 456,
      "স্ট": 457,
      "ওয়": 458,
      "লী": 459,
      "চ্ছে": 460,
      "অভি": 461,
      "০০": 462,
      "জেলা": 463,
      "ঙ্গে": 464,
      "লাম": 465,
      "বু": 466,
      "ফে": 467,
      "রো": 468,
      "বলেন": 469,
      "আমা": 470,
      "ব্যা": 471,
      "সাম": 472,
      "ছু": 473,
      "সঙ্গে": 474,
      "ন্ধ": 475,
      "ঢাকা": 476,
      "পূ": 477,
      "বাদ": 478,
      "ঞ্জ": 479,
      "দল": 480,
      "গ্রাম": 481,
      "চার": 482,
      "চল": 483,
      "আমি": 484,
      "ইস": 485,
      "কল": 486,
      "ভাবে": 487,
      "ক্তি": 488,
      "ডে": 489,
      "পতি": 490,
      "ছি": 491,
      "বছ": 492,
      "্যাল": 493,
      "রু": 494,
      "বাস": 495,
      "টের": 496,
      "সদ": 497,
      "রাজ": 498,
      "ন্দ": 499,
      "ুরু": 500,
      "কর্ত": 501,
      "কম": 502,
      "নী": 503,
      "ানের": 504,
      "তাদের": 505,
      "তের": 506,
      "ফা": 507,
      "শ্ব": 508,
      "বিষ": 509,
      "নিয়": 510,
      "করেন": 511,
      "আল": 512,
      "ড়ি": 513,
      "য়ের": 514,
      "আগ": 515,
      "বেন": 516,
      "ম্বর": 517,
      "ীদের": 518,
      "টির": 519,
      "কাশ": 520,
      "অনে": 521,
      "মাম": 522,
      "মন্ত্র": 523,
      "শ্র": 524,
      "বেশ": 525,
      "দেশের": 526,
      "চিত": 527,
      "এম": 528,
      "এস": 529,
      "বৃ": 530,
      "হো": 531,
      "ক্স": 532,
      "তাঁ": 533,
      "কিছু": 534,
      "আমরা": 535,
      "জের": 536,
      "জু": 537,
      "হে": 538,
      "ষ্ট": 539,
      "তু": 540,
      "দার": 541,
      "পো": 542,
      "গো": 543,
      "ছবি": 544,
      "ব্র": 545,
      "আমাদের": 546,
      "...": 547,
      "অর্": 548,
      "ওয়ার": 549,
      "জী": 550,
      "প্রা": 551,
      "স্ব": 552,
      "স্থা": 553,
      "ছিলেন": 554,
      "দন": 555,
      "গঞ্জ": 556,
      "পুলি": 557,
      "ব্": 558,
      "সার্": 559,
      "ূল": 560,
      "ানি": 561,
      "কোনো": 562,
      "সরকার": 563,
      "জ্ঞ": 564,
      "in": 565,
      "পত্র": 566,
      "কু": 567,
      "কথা": 568,
      "তবে": 569,
      "তীয়": 570,
      "সেন": 571,
      "ন্তু": 572,
      "গুল": 573,
      "ঘট": 574,
      "ইউ": 575,
      "উদ্": 576,
      "বো": 577,
      "কিন্তু": 578,
      "এন": 579,
      "সভা": 580,
      "হলে": 581,
      "ানা": 582,
      "ক্ষা": 583,
      "থাক": 584,
      "পুলিশ": 585,
      "দক": 586,
      "বিশ্ব": 587,
      "পারে": 588,
      "পূর্": 589,
      "ণে": 590,
      "ফোন": 591,
      "মার": 592,
      "করার": 593,
      "প্রধান": 594,
      "প্রকাশ": 595,
      "সম্প": 596,
      "আজ": 597,
      "এলা": 598,
      "সার": 599,
      "য়ন": 600,
      "করেছে": 601,
      "লীগ": 602,
      "ইন": 603,
      "স্য": 604,
      "প্রদ": 605,
      "ইসলাম": 606,
      "হী": 607,
      "সিলে": 608,
      "সম্পা": 609,
      "বন": 610,
      "ন্ড": 611,
      "বর্ত": 612,
      "টাকা": 613,
      "হাস": 614,
      "গর": 615,
      "সন": 616,
      "র্ষ": 617,
      "মাধ্য": 618,
      "দুই": 619,
      "আদ": 620,
      "এখন": 621,
      "খু": 622,
      "যৌ": 623,
      "১০": 624,
      "দেখ": 625,
      "ভাল": 626,
      "পরে": 627,
      "দী": 628,
      "হাম": 629,
      "ুষ": 630,
      "বন্ধ": 631,
      "টো": 632,
      "ণা": 633,
      "শুরু": 634,
      "ণ্ড": 635,
      "বের": 636,
      "রহ": 637,
      "an": 638,
      "বহ": 639,
      "মনে": 640,
      "মার্": 641,
      "ল্": 642,
      "গু": 643,
      "ডা": 644,
      "মূল": 645,
      "শো": 646,
      "দিকে": 647,
      "অনেক": 648,
      "কৃ": 649,
      "শী": 650,
      "সাল": 651,
      "্যে": 652,
      "ান্": 653,
      "মুখ": 654,
      "ব্যবহার": 655,
      "স্বা": 656,
      "সাই": 657,
      "নির্বাচন": 658,
      "নয়": 659,
      "লেন": 660,
      "প্রথ": 661,
      "তির": 662,
      "নায়": 663,
      "আমার": 664,
      "টু": 665,
      "বী": 666,
      "তারা": 667,
      "োট": 668,
      "বিদ": 669,
      "বাই": 670,
      "কাজ": 671,
      "নেই": 672,
      "গুলো": 673,
      "যৌন": 674,
      "অধি": 675,
      "সাথে": 676,
      "করেছেন": 677,
      "ধু": 678,
      "পরী": 679,
      "ভিন্ন": 680,
      "েন্ট": 681,
      "er": 682,
      "আপনি": 683,
      "আপনার": 684,
      "সভাপতি": 685,
      "সম্পাদক": 686,
      "মাধ্যমে": 687,
      "আহ": 688,
      "সূ": 689,
      "হচ্ছে": 690,
      "পরিচাল": 691,
      "আগে": 692,
      "উদ": 693,
      "ারা": 694,
      "ার্থ": 695,
      "রহমান": 696,
      "অ্যা": 697,
      "ম্যা": 698,
      "রুল": 699,
      "হতে": 700,
      "১৯": 701,
      "তিক": 702,
      "জানান": 703,
      "--": 704,
      "ধা": 705,
      "রয়ে": 706,
      "সী": 707,
      "সো": 708,
      "বেদন": 709,
      "পর্য": 710,
      "উপজেলা": 711,
      "হত্যা": 712,
      "মন্ত্রী": 713,
      "খানে": 714,
      "গণ": 715,
      "ক্রি": 716,
      "প্রথম": 717,
      "es": 718,
      "জাম": 719,
      "সেই": 720,
      "মানুষ": 721,
      "ধারণ": 722,
      "আলো": 723,
      "এমন": 724,
      "নত": 725,
      "বাজার": 726,
      "তাই": 727,
      "জাতীয়": 728,
      "উত্ত": 729,
      "ষ্ট্র": 730,
      "যুক্ত": 731,
      "বছর": 732,
      "আন": 733,
      "পন": 734,
      "মের": 735,
      "কারী": 736,
      "স্থান": 737,
      "মামলা": 738,
      "on": 739,
      "।’": 740,
      "আওয়": 741,
      "গিয়ে": 742,
      "নিক": 743,
      "গেছে": 744,
      "জানা": 745,
      "ছাড়া": 746,
      "আছে": 747,
      "চু": 748,
      "তাল": 749,
      "থি": 750,
      "দুল": 751,
      "পক্ষ": 752,
      "গ্রহ": 753,
      "অন্য": 754,
      "হোসেন": 755,
      "এলাকা": 756,
      "নতুন": 757,
      "আওয়ামী": 758,
      "ওই": 759,
      "পু": 760,
      "বিভিন্ন": 761,
      "তিন": 762,
      "মেইল": 763,
      "স্ত্র": 764,
      "ভালো": 765,
      "om": 766,
      "কমি": 767,
      "পাল": 768,
      "০১": 769,
      "বিএন": 770,
      "নেতা": 771,
      "2018": 772,
      "ঘা": 773,
      "ফল": 774,
      "সেবে": 775,
      "সাধারণ": 776,
      "য়া": 777,
      "হিসেবে": 778,
      "সিলেট": 779,
      "যান": 780,
      "বেশি": 781,
      "কাছে": 782,
      "ংশ": 783,
      "টক": 784,
      "তথ": 785,
      "মাল": 786,
      "্যাম": 787,
      "করি": 788,
      "র্শ": 789,
      "অর্থ": 790,
      "ধর": 791,
      "পের": 792,
      "ফু": 793,
      "সর্": 794,
      "১১": 795,
      "প্রে": 796,
      "লীগের": 797,
      "সনদ": 798,
      "ত্যা": 799,
      "ত্ব": 800,
      "য়ো": 801,
      "করুন": 802,
      "কর্তৃ": 803,
      "বিএনপি": 804,
      "নৌ": 805,
      "পড়ে": 806,
      "শাল": 807,
      "নিহত": 808,
      "বাড়": 809,
      "প্রি": 810,
      "রাষ্ট্র": 811,
      "টাই": 812,
      "বারের": 813,
      "গ্রে": 814,
      "প্রতিনি": 815,
      "কর্মকর্ত": 816,
      "চাই": 817,
      "রয়েছে": 818,
      "re": 819,
      "এসে": 820,
      "দায়": 821,
      "ধরে": 822,
      "ম্যান": 823,
      "থাকে": 824,
      "জানিয়ে": 825,
      "নামে": 826,
      "প্রদান": 827,
      "যৌনকর্ম": 828,
      "চনা": 829,
      "দেন": 830,
      "পড়": 831,
      "পক্ষে": 832,
      "ফ্র": 833,
      "যদি": 834,
      "লক্ষ": 835,
      "হু": 836,
      "দিতে": 837,
      "কারণে": 838,
      "দেশে": 839,
      "আদাল": 840,
      "প্রতিনিধি": 841,
      "th": 842,
      "ইন্": 843,
      "উন্ন": 844,
      "এন্ড": 845,
      "মত": 846,
      "লের": 847,
      "হর": 848,
      "মাণ": 849,
      "অনুষ্ঠ": 850,
      "পোর্": 851,
      "তথ্য": 852,
      "ti": 853,
      "আবেদন": 854,
      "বান": 855,
      "১২": 856,
      "রাখ": 857,
      "দেখা": 858,
      "পাঠ": 859,
      "সংবাদ": 860,
      "ত্রে": 861,
      "দুর্": 862,
      "দ্ধে": 863,
      "েন্দ্র": 864,
      "্যান্ড": 865,
      "সদস্য": 866,
      "com": 867,
      "একা": 868,
      "মতি": 869,
      "সমা": 870,
      "নির": 871,
      "বাইল": 872,
      "বাড়ি": 873,
      "জেলার": 874,
      "মোবাইল": 875,
      "বিষয়": 876,
      "চিত্র": 877,
      "আবার": 878,
      "ঠে": 879,
      "দশ": 880,
      "িকা": 881,
      "ুয়ার": 882,
      "বিমান": 883,
      "স্ক": 884,
      "নেত": 885,
      "হাসি": 886,
      "শিক্ষ": 887,
      "ত্রী": 888,
      "পারেন": 889,
      "শেখ": 890,
      "উদ্দিন": 891,
      "খুব": 892,
      "শোধ": 893,
      "পর্যন্ত": 894,
      "ov": 895,
      "কয়ে": 896,
      "চলে": 897,
      "তৈ": 898,
      "মৃত": 899,
      "িতে": 900,
      "ঙ্গা": 901,
      "2016": 902,
      "তাঁর": 903,
      "সার্ভে": 904,
      "কর্মকর্তা": 905,
      "do": 906,
      "ধর্": 907,
      "১৫": 908,
      "লাখ": 909,
      "তাকে": 910,
      "ভাব": 911,
      "2017": 912,
      "কালে": 913,
      "অভিযোগ": 914,
      "বিদ্যাল": 915,
      "কয়েক": 916,
      "en": 917,
      "ma": 918,
      "এসব": 919,
      "কী": 920,
      "ম্": 921,
      "৩০": 922,
      "ারি": 923,
      "ারে": 924,
      "বিশেষ": 925,
      "স্ট্র": 926,
      "পাত": 927,
      "ঘটনা": 928,
      "অক্": 929,
      "ভূ": 930,
      "হান": 931,
      "৯৫": 932,
      "শাহী": 933,
      "ড়া": 934,
      "বর্তমান": 935,
      "কাম": 936,
      "খবর": 937,
      "ণের": 938,
      "োষ": 939,
      "বাহি": 940,
      "হাজার": 941,
      "কোটি": 942,
      "ষ্টি": 943,
      "২০১৮": 944,
      "বছরের": 945,
      "ফোনঃ": 946,
      "অক্টো": 947,
      "অপ": 948,
      "খান": 949,
      "রী": 950,
      "র্ত": 951,
      "বিজ্ঞ": 952,
      "নিজে": 953,
      "মাত্র": 954,
      "মিটার": 955,
      "ক্ষম": 956,
      "যাবে": 957,
      "প্রতিষ্ঠ": 958,
      "**": 959,
      "il": 960,
      "ওয়ে": 961,
      "কন": 962,
      "ট্": 963,
      "নভে": 964,
      "বয়": 965,
      "বিরু": 966,
      "একটা": 967,
      "নভেম্বর": 968,
      "ou": 969,
      "অফি": 970,
      "গঠ": 971,
      "গান": 972,
      "দপ্ত": 973,
      "ফর": 974,
      "১৬": 975,
      "২৪": 976,
      "্যু": 977,
      "র্থ": 978,
      "মিক": 979,
      "জিনি": 980,
      "আরও": 981,
      "চেয়ে": 982,
      "রাজশাহী": 983,
      "অক্টোবর": 984,
      "বিরুদ্ধে": 985,
      "চৌ": 986,
      "তী": 987,
      "দূ": 988,
      "বর্": 989,
      "ম্প": 990,
      "বেক": 991,
      "মাহ": 992,
      "সিং": 993,
      "রেখে": 994,
      "ডিও": 995,
      "শেষে": 996,
      "বিশ্ববিদ্যাল": 997,
      "সম্পর্": 998,
      "পরিচালক": 999,
      "নেতৃত": 1000,
      "তৈরি": 1001,
      "ঁচ": 1002,
      "উন্": 1003,
      "কেন": 1004,
      "কৃত": 1005,
      "গুলি": 1006,
      "ধুর": 1007,
      "বস": 1008,
      "বুল": 1009,
      "ভু": 1010,
      "ময়": 1011,
      "ল্প": 1012,
      "সালে": 1013,
      "জনের": 1014,
      "একই": 1015,
      "ষ্টা": 1016,
      "স্তা": 1017,
      "দাবি": 1018,
      "ব্যবস্থা": 1019,
      "থাকলে": 1020,
      "পরীক্ষ": 1021,
      "উই": 1022,
      "উজ": 1023,
      "ত্য": 1024,
      "মতো": 1025,
      "হক": 1026,
      "াজ": 1027,
      "ানো": 1028,
      "বিল": 1029,
      "নিজ": 1030,
      "প্রায়": 1031,
      "লেখ": 1032,
      "ন্দি": 1033,
      "মেল": 1034,
      "থাকা": 1035,
      "ঙ্গি": 1036,
      "ভারতের": 1037,
      "চিকি": 1038,
      "শুধু": 1039,
      "দলের": 1040,
      "বহন": 1041,
      "এতে": 1042,
      "কেন্দ্র": 1043,
      "ত্": 1044,
      "দক্ষ": 1045,
      "ফের": 1046,
      "হল": 1047,
      "৫০": 1048,
      "লায়": 1049,
      "একজন": 1050,
      "আইন": 1051,
      "ক্ষেত্রে": 1052,
      "সার্ভেয়ার": 1053,
      "ধর্ম": 1054,
      "bd": 1055,
      "এটি": 1056,
      "কবি": 1057,
      "কলে": 1058,
      "গি": 1059,
      "ঘোষ": 1060,
      "তর": 1061,
      "ত্ম": 1062,
      "নো": 1063,
      "পৌ": 1064,
      "পার্": 1065,
      "১৮": 1066,
      "ানোর": 1067,
      "কেট": 1068,
      "পাওয়া": 1069,
      "ড়ে": 1070,
      "য়েছে": 1071,
      "গ্রামের": 1072,
      "তুলে": 1073,
      "মার্চ": 1074,
      "উত্তর": 1075,
      "ইঞ্": 1076,
      "এটা": 1077,
      "ক্যা": 1078,
      "চুর": 1079,
      "ছোট": 1080,
      "জুন": 1081,
      "ঠিক": 1082,
      "দ্ব": 1083,
      "ধন": 1084,
      "বদ": 1085,
      "বৈ": 1086,
      "বড়": 1087,
      "বলা": 1088,
      "হয়": 1089,
      "হওয়ার": 1090,
      "্লা": 1091,
      "রাত": 1092,
      "দেখে": 1093,
      "ব্যক্তি": 1094,
      "অবস্থ": 1095,
      "০০০": 1096,
      "ব্যাং": 1097,
      "অধিদপ্ত": 1098,
      "চিকিৎ": 1099,
      "কপি": 1100,
      "চী": 1101,
      "জনা": 1102,
      "তম": 1103,
      "হের": 1104,
      "হলো": 1105,
      "িন": 1106,
      "১৩": 1107,
      "কেউ": 1108,
      "তায়": 1109,
      "কারণ": 1110,
      "মিত": 1111,
      "ভাই": 1112,
      "শিশু": 1113,
      "লিম": 1114,
      "পারবেন": 1115,
      "পেয়ে": 1116,
      "নির্বাচনে": 1117,
      "জুলাই": 1118,
      "ইউনিয়": 1119,
      "০১৭": 1120,
      "পোর্ট": 1121,
      "চৌধুর": 1122,
      "at": 1123,
      "ed": 1124,
      "উল্": 1125,
      "খালে": 1126,
      "পদ্ধ": 1127,
      "ফতার": 1128,
      "ভিত": 1129,
      "রং": 1130,
      "রক্ষ": 1131,
      "সকল": 1132,
      "াই": 1133,
      "বিক": 1134,
      "নিশ্": 1135,
      "র্ঘ": 1136,
      "সিটি": 1137,
      "সিদ্ধ": 1138,
      "সেপ্": 1139,
      "দ্বি": 1140,
      "সংসদ": 1141,
      "স্তার": 1142,
      "এলাকায়": 1143,
      "মেইলঃ": 1144,
      "ar": 1145,
      "gov": 1146,
      "কুর": 1147,
      "খাল": 1148,
      "খ্যা": 1149,
      "পণ": 1150,
      "শের": 1151,
      "সন্ত": 1152,
      "ুক": 1153,
      "বায়": 1154,
      "রাজন": 1155,
      "ছেলে": 1156,
      "য়ার": 1157,
      "িত্ব": 1158,
      "কোর্": 1159,
      "কোম্প": 1160,
      "পরিবারের": 1161,
      "পরিবহন": 1162,
      "যাচ্ছে": 1163,
      "চেষ্টা": 1164,
      "বিষয়ে": 1165,
      "আগামী": 1166,
      "প্রাপ্ত": 1167,
      "ব্ল": 1168,
      "য়োজন": 1169,
      "দক্ষি": 1170,
      "পদ্ধতি": 1171,
      "সেপ্টে": 1172,
      "al": 1173,
      "or": 1174,
      "se": 1175,
      "আটক": 1176,
      "উৎ": 1177,
      "উদ্ধ": 1178,
      "খো": 1179,
      "খুল": 1180,
      "ভী": 1181,
      "মর": 1182,
      "মঙ্গ": 1183,
      "ীরা": 1184,
      "ৈতিক": 1185,
      "নিজের": 1186,
      "ক্রম": 1187,
      "উপজেলার": 1188,
      "রোধ": 1189,
      "ন্দর": 1190,
      "তাঁদের": 1191,
      "জীবন": 1192,
      "দীর্ঘ": 1193,
      "সালের": 1194,
      "জানিয়েছেন": 1195,
      "ংবা": 1196,
      "অতি": 1197,
      "জঙ্গি": 1198,
      "টগ্রাম": 1199,
      "ণি": 1200,
      "ফিক": 1201,
      "মস": 1202,
      "শিল": 1203,
      "শনের": 1204,
      "১৪": 1205,
      "্যার": 1206,
      "ান্ড": 1207,
      "করবে": 1208,
      "বিচার": 1209,
      "প্রিল": 1210,
      "প্রশ্": 1211,
      "মাঝ": 1212,
      "পারি": 1213,
      "মোঃ": 1214,
      "লোক": 1215,
      "সম্মেল": 1216,
      "২০১৬": 1217,
      "কল্প": 1218,
      "আগস্ট": 1219,
      "কৃষ": 1220,
      "---": 1221,
      "গ্রহণ": 1222,
      "ফুট": 1223,
      "/-": 1224,
      "12": 1225,
      "ad": 1226,
      "অংশ": 1227,
      "এখানে": 1228,
      "এপ্রিল": 1229,
      "গুরু": 1230,
      "চর": 1231,
      "চট্": 1232,
      "জেন": 1233,
      "জমা": 1234,
      "ফুল": 1235,
      "বার্": 1236,
      "মৌ": 1237,
      "মন্ত": 1238,
      "করছেন": 1239,
      "স্টে": 1240,
      "রাতে": 1241,
      "কার্য": 1242,
      "কিস্ত": 1243,
      "পরিদ": 1244,
      "পরিশোধ": 1245,
      "চ্চ": 1246,
      "যোগ্য": 1247,
      "2015": 1248,
      "অনুমতি": 1249,
      "যুব": 1250,
      "২০১৭": 1251,
      "এলাকার": 1252,
      "dos": 1253,
      "সেপ্টেম্বর": 1254,
      "মঙ্গল": 1255,
      "গার": 1256,
      "গের": 1257,
      "গবে": 1258,
      "চো": 1259,
      "ফ্": 1260,
      "বরা": 1261,
      "বরি": 1262,
      "ভবন": 1263,
      "মন্দি": 1264,
      "হন": 1265,
      "হাল": 1266,
      "ুত": 1267,
      "্যের": 1268,
      "করলে": 1269,
      "বির": 1270,
      "নিতে": 1271,
      "কেই": 1272,
      "টিং": 1273,
      "লেখা": 1274,
      "লাশ": 1275,
      "দিক": 1276,
      "দেওয়া": 1277,
      "মিল": 1278,
      "রেজি": 1279,
      "জাহা": 1280,
      "েন্স": 1281,
      "গতকাল": 1282,
      "ফেব্র": 1283,
      "বৃদ্ধ": 1284,
      "পূর্ণ": 1285,
      "প্রকাশিত": 1286,
      "বন্ধু": 1287,
      "প্রিয়": 1288,
      "গ্রেফতার": 1289,
      "ইঞ্জিনি": 1290,
      "চৌধুরী": 1291,
      "মন্তব্য": 1292,
      "মঙ্গলবার": 1293,
      "ঘটে": 1294,
      "জয়": 1295,
      "তন": 1296,
      "তুল": 1297,
      "পথ": 1298,
      "পদ": 1299,
      "পায়": 1300,
      "মহা": 1301,
      "সড়": 1302,
      "সবাই": 1303,
      "য়ান": 1304,
      "র্ণ": 1305,
      "র্জা": 1306,
      "দেয়া": 1307,
      "কারা": 1308,
      "পাকিস্ত": 1309,
      "মেয়ে": 1310,
      "মুক্তি": 1311,
      "আরো": 1312,
      "খেলা": 1313,
      "কোনও": 1314,
      "ছাত্র": 1315,
      "দিয়েছে": 1316,
      "বুঝ": 1317,
      "সরকারি": 1318,
      "পূর্ব": 1319,
      "দেখতে": 1320,
      "স্বাস্থ": 1321,
      "কর্তৃপক্ষ": 1322,
      "নেতৃত্": 1323,
      "জনাব": 1324,
      "ভিত্ত": 1325,
      "উদ্ধার": 1326,
      "ইঞ্জিনিয়ার": 1327,
      ")।": 1328,
      "আহত": 1329,
      "উল": 1330,
      "উপর": 1331,
      "খি": 1332,
      "ঘরে": 1333,
      "টেন": 1334,
      "ডার": 1335,
      "থান": 1336,
      "ধে": 1337,
      "ধীন": 1338,
      "বক্ত": 1339,
      "বঙ্গ": 1340,
      "ভব": 1341,
      "স্যা": 1342,
      "বিশ্": 1343,
      "বিস্তার": 1344,
      "নিরা": 1345,
      "নিবার": 1346,
      "বাঁ": 1347,
      "টিক": 1348,
      "সাবেক": 1349,
      "পরিষ": 1350,
      "জানুয়ার": 1351,
      "হিসা": 1352,
      "চেয়ার": 1353,
      "চিব": 1354,
      "সদর": 1355,
      "জীব": 1356,
      "ঘটনায়": 1357,
      "্যাম্প": 1358,
      "আদালতে": 1359,
      "রংপুর": 1360,
      "খুলনা": 1361,
      "শিল্প": 1362,
      "স্বাস্থ্য": 1363,
      "এত": 1364,
      "এক্স": 1365,
      "কখন": 1366,
      "জো": 1367,
      "ডলার": 1368,
      "ণী": 1369,
      "তখন": 1370,
      "পর্": 1371,
      "পত্ত": 1372,
      "মহান": 1373,
      "শ্য": 1374,
      "য়াল": 1375,
      "২৫": 1376,
      "৩৫": 1377,
      "৪০": 1378,
      "ানী": 1379,
      "প্রার্থ": 1380,
      "বেগ": 1381,
      "স্কার": 1382,
      "ক্ট": 1383,
      "হাত": 1384,
      "শিপ": 1385,
      "ঞ্চল": 1386,
      "মনোন": 1387,
      "সামনে": 1388,
      "আলম": 1389,
      "শ্রে": 1390,
      "ing": 1391,
      "হাসপাত": 1392,
      "পরীক্ষা": 1393,
      "স্থানীয়": 1394,
      "সর্ব": 1395,
      "কর্তৃক": 1396,
      "mail": 1397,
      "ক্ষমতা": 1398,
      "ওয়েব": 1399,
      "চট্টগ্রাম": 1400,
      "বরিশাল": 1401,
      "বিস্তারিত": 1402,
      "মনোনয়ন": 1403,
      "হাসপাতালে": 1404,
      "11": 1405,
      "of": 1406,
      "ra": 1407,
      "আত্ম": 1408,
      "ইং": 1409,
      "ডের": 1410,
      "দৈ": 1411,
      "দুর": 1412,
      "নং": 1413,
      "পান": 1414,
      "ফো": 1415,
      "ফোর": 1416,
      "মী": 1417,
      "যো": 1418,
      "লু": 1419,
      "সন্": 1420,
      "সপ্ত": 1421,
      "হিত": 1422,
      "্পি": 1423,
      "নিউজ": 1424,
      "তোম": 1425,
      "রায়": 1426,
      "মাস": 1427,
      "সিরি": 1428,
      "হাই": 1429,
      "মুক্ত": 1430,
      "গ্রু": 1431,
      "অন্যান": 1432,
      "ডিসে": 1433,
      "ঞ্চ": 1434,
      "শাহ": 1435,
      "যোগা": 1436,
      "বলেছেন": 1437,
      "আমাকে": 1438,
      "বাসী": 1439,
      "জ্ঞা": 1440,
      "বিএনপির": 1441,
      "ঘোষণা": 1442,
      "খালেদা": 1443,
      "বক্তব্য": 1444,
      "),": 1445,
      "le": 1446,
      "st": 1447,
      "অন্ত": 1448,
      "উট": 1449,
      "জর": 1450,
      "ধিক": 1451,
      "পক": 1452,
      "মুল": 1453,
      "সায়": 1454,
      "ূপ": 1455,
      "২৩": 1456,
      "কেল": 1457,
      "নাগর": 1458,
      "দিনের": 1459,
      "দেয়": 1460,
      "মিনি": 1461,
      "সমস্যা": 1462,
      "পাঁচ": 1463,
      "ভাঙ": 1464,
      "মেদ": 1465,
      "গেলে": 1466,
      "সংঘ": 1467,
      "ভিডিও": 1468,
      "্মদ": 1469,
      "নির্দেশ": 1470,
      "চ্ছেন": 1471,
      "ক্রান্ত": 1472,
      "উপস্থ": 1473,
      "ছাড়া": 1474,
      "কালীন": 1475,
      "২০১৫": 1476,
      "উদ্য": 1477,
      "উদ্ব": 1478,
      "আলোচনা": 1479,
      "যৌনকর্মীদের": 1480,
      "অনুষ্ঠিত": 1481,
      "নিশ্চিত": 1482,
      "দক্ষিণ": 1483,
      "অন্যান্য": 1484,
      "ডিসেম্বর": 1485,
      "আশ": 1486,
      "আশা": 1487,
      "ইতি": 1488,
      "এছাড়া": 1489,
      "ক্য": 1490,
      "গ্": 1491,
      "গ্যা": 1492,
      "ড্র": 1493,
      "ধ্ব": 1494,
      "নীর": 1495,
      "ফলে": 1496,
      "বর্ষ": 1497,
      "ভো": 1498,
      "ভোট": 1499,
      "শতা": 1500,
      "৩৩": 1501,
      "বিক্রি": 1502,
      "প্রচার": 1503,
      "ামি": 1504,
      "র্শন": 1505,
      "নাই": 1506,
      "স্টার": 1507,
      "সিল": 1508,
      "ার্ড": 1509,
      "নির্ধার": 1510,
      "চ্ছা": 1511,
      "ধারা": 1512,
      "চলছে": 1513,
      "নীতি": 1514,
      "বৃহ": 1515,
      "পুলিশের": 1516,
      "প্রধানমন্ত্রী": 1517,
      "চুক্তি": 1518,
      "মালিক": 1519,
      "the": 1520,
      "মোবাইলঃ": 1521,
      "বিষয়টি": 1522,
      "ভূমি": 1523,
      "প্রতিষ্ঠান": 1524,
      "সিংহ": 1525,
      "সিদ্ধান্ত": 1526,
      "যোগাযোগ": 1527,
      "নাগরিক": 1528,
      "10": 1529,
      "gmail": 1530,
      "ওপর": 1531,
      "জমি": 1532,
      "টায়": 1533,
      "দান": 1534,
      "ভ্র": 1535,
      "যারা": 1536,
      "শনিবার": 1537,
      "ড়ার": 1538,
      "বাসি": 1539,
      "প্রস্ত": 1540,
      "প্রয়োজন": 1541,
      "তেই": 1542,
      "স্প": 1543,
      "নেট": 1544,
      "ায়ণ": 1545,
      "পাশে": 1546,
      "কিন": 1547,
      "একটু": 1548,
      "সংরক্ষ": 1549,
      "ত্রি": 1550,
      "যাত্র": 1551,
      "যাচাই": 1552,
      "এইচ": 1553,
      "নারায়ণ": 1554,
      "যুদ্ধ": 1555,
      "ভারত": 1556,
      "লাইন": 1557,
      "স্বী": 1558,
      "উদ্দেশ": 1559,
      "বর্তী": 1560,
      "শীল": 1561,
      "স্ত্রী": 1562,
      "উন্নয়ন": 1563,
      "দ্বিতীয়": 1564,
      "পণ্য": 1565,
      "রাজনৈতিক": 1566,
      "গবেষ": 1567,
      "de": 1568,
      "la": 1569,
      "ne": 1570,
      "আসে": 1571,
      "আন্ত": 1572,
      "আরে": 1573,
      "ইয়া": 1574,
      "এগিয়ে": 1575,
      "কান": 1576,
      "জিত": 1577,
      "ট্যা": 1578,
      "দর": 1579,
      "দৃ": 1580,
      "পথে": 1581,
      "বুর": 1582,
      "বীর": 1583,
      "ভ্য": 1584,
      "শার": 1585,
      "সৌ": 1586,
      "সঙ্গ": 1587,
      "সকাল": 1588,
      "হীন": 1589,
      "িকার": 1590,
      "১৭": 1591,
      "২২": 1592,
      "২৭": 1593,
      "করবেন": 1594,
      "বিত": 1595,
      "বিপক্ষে": 1596,
      "বাসের": 1597,
      "রাই": 1598,
      "ক্লা": 1599,
      "দিনে": 1600,
      "কারি": 1601,
      "কার্যাল": 1602,
      "ার্স": 1603,
      "বার্ত": 1604,
      "তারি": 1605,
      "যায়": 1606,
      "হয়েছেন": 1607,
      "থেকেই": 1608,
      "পুরো": 1609,
      "নারী": 1610,
      "নামের": 1611,
      "গাছ": 1612,
      "দিয়েছেন": 1613,
      "যায়ী": 1614,
      "গ্রামে": 1615,
      "সেনা": 1616,
      "হাম্মদ": 1617,
      "সাইট": 1618,
      "ম্যাচ": 1619,
      "র্শক": 1620,
      "হাসিনা": 1621,
      "মাহমু": 1622,
      "ইউনিয়ন": 1623,
      "চেয়ারম্যান": 1624,
      "তোমার": 1625,
      "নির্ধারিত": 1626,
      "13": 1627,
      "ha": 1628,
      "it": 1629,
      "অথ": 1630,
      "আব্": 1631,
      "ইছ": 1632,
      "উচ্চ": 1633,
      "এড": 1634,
      "ওয়া": 1635,
      "চলা": 1636,
      "চায়": 1637,
      "ছড়ি": 1638,
      "জ্য": 1639,
      "ণ্": 1640,
      "পৃ": 1641,
      "প্যা": 1642,
      "ফির": 1643,
      "বই": 1644,
      "বসে": 1645,
      "বলি": 1646,
      "যখন": 1647,
      "রোগ": 1648,
      "লিক": 1649,
      "শর": 1650,
      "শান্ত": 1651,
      "িতি": 1652,
      "ুদ্র": 1653,
      "৬০": 1654,
      "্রি": 1655,
      "বিরোধ": 1656,
      "প্রত্যা": 1657,
      "ালট": 1658,
      "নাজ": 1659,
      "স্পতি": 1660,
      "রাস": 1661,
      "ন্দ্র": 1662,
      "সমূ": 1663,
      "পাখি": 1664,
      "জিয়া": 1665,
      "জানতে": 1666,
      "বলী": 1667,
      "মোট": 1668,
      "২০০": 1669,
      "সবচেয়ে": 1670,
      "কর্মী": 1671,
      "মনসিংহ": 1672,
      "আপনা": 1673,
      "গাঁ": 1674,
      "ান্তর": 1675,
      "প্লে": 1676,
      "ওয়ায়": 1677,
      "সম্পূ": 1678,
      "হামলা": 1679,
      "স্ট্রে": 1680,
      "অপরা": 1681,
      "***": 1682,
      "অবস্থায়": 1683,
      "উল্লেখ": 1684,
      "পদ্ধতিঃ": 1685,
      "মসজি": 1686,
      "কৃষি": 1687,
      "নিরাপত্ত": 1688,
      "বেগম": 1689,
      "সপ্তা": 1690,
      "বৃহস্পতি": 1691,
      "নারায়ণগঞ্জ": 1692,
      "তারিখ": 1693,
      "বৃহস্পতিবার": 1694,
      "ag": 1695,
      "ww": 1696,
      "ংস": 1697,
      "আর্": 1698,
      "আন্": 1699,
      "ইসি": 1700,
      "উন": 1701,
      "এফ": 1702,
      "কত": 1703,
      "চুল": 1704,
      "ঠা": 1705,
      "ণাল": 1706,
      "থায়": 1707,
      "দন্ত": 1708,
      "দণ্ড": 1709,
      "ধর্ষ": 1710,
      "র‌": 1711,
      "শুর": 1712,
      "সৃ": 1713,
      "হ্যা": 1714,
      "হওয়া": 1715,
      "াক": 1716,
      "ড়িয়ে": 1717,
      "নিষ": 1718,
      "বাহ": 1719,
      "বাস্ত": 1720,
      "প্রবেশ": 1721,
      "রাশি": 1722,
      "তাহলে": 1723,
      "মিডি": 1724,
      "সময়ে": 1725,
      "সেটা": 1726,
      "জনকে": 1727,
      "ঙ্ক": 1728,
      "শিক্ষা": 1729,
      "সংশ্": 1730,
      "লিং": 1731,
      "যাত্রী": 1732,
      "মুস": 1733,
      "রিপোর্ট": 1734,
      "যেতে": 1735,
      "ক্রে": 1736,
      "অনুযায়ী": 1737,
      "ড়ি": 1738,
      "গাড়ি": 1739,
      "দ্রুত": 1740,
      "অবশ্য": 1741,
      "প্লা": 1742,
      "বুধ": 1743,
      "ফেসব": 1744,
      "রাজধান": 1745,
      "নিয়োগ": 1746,
      "মামলার": 1747,
      "মন্ত্রণাল": 1748,
      "বেশী": 1749,
      "স্থাপন": 1750,
      "ang": 1751,
      "আহমেদ": 1752,
      "ঘাট": 1753,
      "ধরনের": 1754,
      "ইন্টার": 1755,
      "নিজেদের": 1756,
      "সম্পর্কে": 1757,
      "ময়মনসিংহ": 1758,
      "পরীক্ষার": 1759,
      "ফুটবল": 1760,
      "ফেব্রুয়ার": 1761,
      "সড়ক": 1762,
      "উপস্থিত": 1763,
      "সম্পূর্ণ": 1764,
      "সংশ্লি": 1765,
      "50": 1766,
      "ht": 1767,
      "lo": 1768,
      "উঠ": 1769,
      "উনি": 1770,
      "উঠে": 1771,
      "চয়": 1772,
      "চার্": 1773,
      "চীন": 1774,
      "জন্": 1775,
      "জায়": 1776,
      "তদন্ত": 1777,
      "দাম": 1778,
      "নগ": 1779,
      "ন্যা": 1780,
      "পুন": 1781,
      "ভর": 1782,
      "যেন": 1783,
      "রক্ষা": 1784,
      "রূপ": 1785,
      "শহ": 1786,
      "শোর": 1787,
      "সুর": 1788,
      "সকালে": 1789,
      "সত্য": 1790,
      "হয়েছে": 1791,
      "াকার": 1792,
      "য়াম": 1793,
      "২৬": 1794,
      "২৮": 1795,
      "প্রমাণ": 1796,
      "য়েল": 1797,
      "টিতে": 1798,
      "কাগ": 1799,
      "কাদের": 1800,
      "রাস্তা": 1801,
      "ন্দু": 1802,
      "সমর্থ": 1803,
      "সেবা": 1804,
      "সেটি": 1805,
      "সেতু": 1806,
      "সাহা": 1807,
      "হাতে": 1808,
      "কোথা": 1809,
      "সংস্থা": 1810,
      "সংগঠ": 1811,
      "ক্তার": 1812,
      "নির্মাণ": 1813,
      "ছিলো": 1814,
      "ক্রবার": 1815,
      "পেতে": 1816,
      "অনুমো": 1817,
      "সম্ভব": 1818,
      "প্তি": 1819,
      "শুক্রবার": 1820,
      "লাইট": 1821,
      "প্ল": 1822,
      "ওয়ার্": 1823,
      "রোহি": 1824,
      "দলীয়": 1825,
      "সরকারের": 1826,
      "স্যার": 1827,
      "মূলক": 1828,
      "অ্যাপ": 1829,
      "ম্যাচে": 1830,
      "বাজারে": 1831,
      "আনন্দ": 1832,
      "কমিটির": 1833,
      "tion": 1834,
      "স্কুল": 1835,
      "কামাল": 1836,
      "র্তি": 1837,
      "অফিস": 1838,
      "কলেজ": 1839,
      "সন্তান": 1840,
      "গুরুত্ব": 1841,
      "বিশ্বাস": 1842,
      "দৈনিক": 1843,
      "সংঘর্ষ": 1844,
      "বার্তা": 1845,
      "বুধবার": 1846,
      "সংশ্লিষ্ট": 1847,
      "08": 1848,
      "un": 1849,
      "vi": 1850,
      "ইত্যা": 1851,
      "এল": 1852,
      "ওর": 1853,
      "খ্রি": 1854,
      "চাম": 1855,
      "টাল": 1856,
      "তৃ": 1857,
      "ন্য": 1858,
      "নানা": 1859,
      "পী": 1860,
      "বগু": 1861,
      "ভয়": 1862,
      "মদ": 1863,
      "মনি": 1864,
      "মহি": 1865,
      "মেন্ট": 1866,
      "রান": 1867,
      "লাল": 1868,
      "শফিক": 1869,
      "িনার": 1870,
      "ীপুর": 1871,
      "োভ": 1872,
      "৮৪": 1873,
      "বিস্": 1874,
      "বিদেশ": 1875,
      "বিজি": 1876,
      "বাব": 1877,
      "বাণি": 1878,
      "ামা": 1879,
      "ালো": 1880,
      "য়েত": 1881,
      "কাজে": 1882,
      "কাণ্ড": 1883,
      "স্টা": 1884,
      "লাভ": 1885,
      "রাখা": 1886,
      "পরাম": 1887,
      "মাই": 1888,
      "নেয়া": 1889,
      "মিথ": 1890,
      "পাই": 1891,
      "সেখানে": 1892,
      "জনগণ": 1893,
      "ব্যক্ত": 1894,
      "সুবি": 1895,
      "এরপর": 1896,
      "উপল": 1897,
      "ন্ত্রণ": 1898,
      "আসলে": 1899,
      "ান্তে": 1900,
      "ব্যাপারে": 1901,
      "আগের": 1902,
      "গোল": 1903,
      "শীর্ষ": 1904,
      "বাইরে": 1905,
      "দায়িত্ব": 1906,
      "সমাধান": 1907,
      "বাড়িতে": 1908,
      "শিক্ষার্থ": 1909,
      "মৃত্যু": 1910,
      "কয়েকটি": 1911,
      "বর্তমানে": 1912,
      "বাহিনীর": 1913,
      "থাকলেও": 1914,
      "নিজস্ব": 1915,
      "অধিদপ্তর": 1916,
      "বিচারপতি": 1917,
      "মাঝে": 1918,
      "র্জাতিক": 1919,
      "নেতৃত্বে": 1920,
      "আন্তর্জাতিক": 1921,
      "আরেক": 1922,
      "নাজমুল": 1923,
      "নিরাপত্তা": 1924,
      "ইত্যাদি": 1925,
      "14": 1926,
      ">>": 1927,
      "অস্ত্র": 1928,
      "একে": 1929,
      "এক্": 1930,
      "কৌ": 1931,
      "ছুর": 1932,
      "জল": 1933,
      "জ্ব": 1934,
      "তেন": 1935,
      "দপুর": 1936,
      "নথি": 1937,
      "পদে": 1938,
      "পানি": 1939,
      "ভায়": 1940,
      "সৈ": 1941,
      "সন্ধ": 1942,
      "াগ": 1943,
      "িয়া": 1944,
      "ীতে": 1945,
      "য়ায়": 1946,
      "২১": 1947,
      "৩১": 1948,
      "৯৯": 1949,
      "নিয়": 1950,
      "প্রশা": 1951,
      "প্রকল্প": 1952,
      "র্ক": 1953,
      "টিশ": 1954,
      "পর্যা": 1955,
      "দেওয়ার": 1956,
      "সাত": 1957,
      "সাংবা": 1958,
      "থাকার": 1959,
      "মানব": 1960,
      "িক্ত": 1961,
      "সংশোধ": 1962,
      "পরিস্থ": 1963,
      "টেড": 1964,
      "রিয়ে": 1965,
      "দাঁ": 1966,
      "ছিলাম": 1967,
      "যেমন": 1968,
      "সুযোগ": 1969,
      "খেল": 1970,
      "বিভাগঢাকা": 1971,
      "বিভাগরাজশাহী": 1972,
      "বিভাগরংপুর": 1973,
      "বিভাগখুলনা": 1974,
      "বিভাগময়মনসিংহ": 1975,
      "আইনি": 1976,
      "শুনে": 1977,
      "শ্চি": 1978,
      "পূর": 1979,
      "সার্ভি": 1980,
      "হাসান": 1981,
      "জামান": 1982,
      "গ্রেপ্ত": 1983,
      "এসেছে": 1984,
      "৯৫৫": 1985,
      "দূর": 1986,
      "পৌঁ": 1987,
      "কোম্পানি": 1988,
      "পরিদর্শন": 1989,
      "সমূহ": 1990,
      "ch": 1991,
      "ur": 1992,
      "ws": 1993,
      "অধ": 1994,
      "আক": 1995,
      "আসা": 1996,
      "গৃ": 1997,
      "চট্র": 1998,
      "ঢাকার": 1999,
      "পড়": 2000,
      "ফার": 2001,
      "ফলা": 2002,
      "ব্ব": 2003,
      "বন্দ": 2004,
      "রত": 2005,
      "রবি": 2006,
      "লামী": 2007,
      "শত": 2008,
      "শাম": 2009,
      "সক": 2010,
      "সুল": 2011,
      "হস্ত": 2012,
      "্স": 2013,
      "২৯": 2014,
      "৮৭": 2015,
      "করণ": 2016,
      "করছে": 2017,
      "টিন": 2018,
      "দেহ": 2019,
      "ন্ট": 2020,
      "সময়": 2021,
      "সমুদ্র": 2022,
      "তারপর": 2023,
      "ব্যালট": 2024,
      "সংখ": 2025,
      "জেল": 2026,
      "ভিয়েত": 2027,
      "লিমি": 2028,
      "হয়েছিল": 2029,
      "জাতির": 2030,
      "হয়নি": 2031,
      "খাঁ": 2032,
      "খাবার": 2033,
      "যোগি": 2034,
      "পেশা": 2035,
      "চাঁ": 2036,
      "বিভাগবরিশাল": 2037,
      "ব্যবসায়": 2038,
      "অভিযান": 2039,
      "সামাজ": 2040,
      "ডেস্ক": 2041,
      "ফাঁ": 2042,
      "কুমার": 2043,
      "মানুষের": 2044,
      "প্রেস": 2045,
      "আদালত": 2046,
      "বাহিনী": 2047,
      "বিশ্ববিদ্যালয়ের": 2048,
      "পৌর": 2049,
      "্লাহ": 2050,
      "অধিদপ্তরের": 2051,
      "চিকিৎসা": 2052,
      "প্রশ্ন": 2053,
      "সম্মেলনে": 2054,
      "মহানগর": 2055,
      "স্বীকার": 2056,
      "কোথাও": 2057,
      "সন্ধ্যা": 2058,
      "চট্রগ্রাম": 2059,
      "সামাজিক": 2060,
      "am": 2061,
      "ap": 2062,
      "em": 2063,
      "to": 2064,
      "অভ্য": 2065,
      "আলী": 2066,
      "ইলে": 2067,
      "খলা": 2068,
      "চন্দ্র": 2069,
      "জুর": 2070,
      "ডাকা": 2071,
      "তন্ত্র": 2072,
      "দ্য": 2073,
      "ফর্": 2074,
      "বদ্ধ": 2075,
      "ভীর": 2076,
      "শুন": 2077,
      "সভায়": 2078,
      "হয়ে": 2079,
      "হলেন": 2080,
      "েল": 2081,
      "োধ": 2082,
      "৩৭": 2083,
      "্রা": 2084,
      "কাউন্": 2085,
      "দিয়ে": 2086,
      "মায়": 2087,
      "ন্স": 2088,
      "মিলি": 2089,
      "ক্ষোভ": 2090,
      "ভাষ": 2091,
      "সেল": 2092,
      "জনক": 2093,
      "কোরি": 2094,
      "ষ্টার": 2095,
      "ব্যান্ড": 2096,
      "সংখ্যা": 2097,
      "সংক্রান্ত": 2098,
      "পরিবর্ত": 2099,
      "যাওয়ার": 2100,
      "মুছ": 2101,
      "পিতা": 2102,
      "টেক": 2103,
      "দুটি": 2104,
      "চ্চিত্র": 2105,
      "পুরস্কার": 2106,
      "ড়াই": 2107,
      "দোল": 2108,
      "বিভাগচট্রগ্রাম": 2109,
      "যুক্তি": 2110,
      "সহকারী": 2111,
      "ফিরে": 2112,
      "অবস্থান": 2113,
      "প্টেন": 2114,
      "ওয়ান": 2115,
      "সামিনার": 2116,
      "বাদী": 2117,
      "চলচ্চিত্র": 2118,
      "বছরে": 2119,
      "মামুন": 2120,
      "ব্রি": 2121,
      "আদায়": 2122,
      "বহু": 2123,
      "ল্লা": 2124,
      "কৃতি": 2125,
      "পরিচালনা": 2126,
      "এমনকি": 2127,
      "মামলায়": 2128,
      "আবেদনপত্র": 2129,
      "ক্যাপ্টেন": 2130,
      "ফ্লাইট": 2131,
      "থানার": 2132,
      "বঙ্গবন্ধু": 2133,
      "জানুয়ারি": 2134,
      "কখনো": 2135,
      "উদ্যো": 2136,
      "মাহমুদ": 2137,
      "অপরাধ": 2138,
      "আন্দোল": 2139,
      "জন্ম": 2140,
      "কাগজ": 2141,
      "সাহায": 2142,
      "অনুমোদন": 2143,
      "পরামর্শ": 2144,
      "এক্সামিনার": 2145,
      "সাংবাদিক": 2146,
      "পরিস্থিতি": 2147,
      "গ্রেপ্তার": 2148,
      "00": 2149,
      "24": 2150,
      "ck": 2151,
      "আছেন": 2152,
      "আবুল": 2153,
      "আউট": 2154,
      "ঐক্য": 2155,
      "ওয়ে": 2156,
      "ওবায়": 2157,
      "কূ": 2158,
      "ককে": 2159,
      "কমে": 2160,
      "খিল": 2161,
      "খানা": 2162,
      "খরুল": 2163,
      "গল্প": 2164,
      "চান": 2165,
      "টন": 2166,
      "ঠিত": 2167,
      "দলে": 2168,
      "নগর": 2169,
      "ফখরুল": 2170,
      "ববার": 2171,
      "ভার্": 2172,
      "মেন": 2173,
      "মবার": 2174,
      "মীর": 2175,
      "যার": 2176,
      "যন্ত্র": 2177,
      "সফ": 2178,
      "াতে": 2179,
      "ুতি": 2180,
      "ড়িত": 2181,
      "য়র": 2182,
      "০২": 2183,
      "করপো": 2184,
      "বিসি": 2185,
      "পরিক": 2186,
      "পরবর্তী": 2187,
      "দিলে": 2188,
      "দেব": 2189,
      "মাশ": 2190,
      "মাসু": 2191,
      "মাসের": 2192,
      "সিক": 2193,
      "সিম": 2194,
      "ভাগে": 2195,
      "সাহিত": 2196,
      "কিং": 2197,
      "য়ান": 2198,
      "সংগ্রহ": 2199,
      "পরিবেশ": 2200,
      "জির": 2201,
      "জিয়ার": 2202,
      "লিয়া": 2203,
      "লিখে": 2204,
      "গ্রা": 2205,
      "অনলাইন": 2206,
      "দুঃ": 2207,
      "সুন্দর": 2208,
      "পুরে": 2209,
      "লোড": 2210,
      "কর্মসূ": 2211,
      "আপিল": 2212,
      "হত্যার": 2213,
      "নির্বাহী": 2214,
      "আসেন": 2215,
      "আসছে": 2216,
      "আসামি": 2217,
      "সময়ের": 2218,
      "জ্জামান": 2219,
      "নির্বাচনের": 2220,
      "চালিয়ে": 2221,
      "ফেল": 2222,
      "সাম্": 2223,
      "চলতি": 2224,
      "শ্রী": 2225,
      "শ্রমিক": 2226,
      "তাঁরা": 2227,
      "তুমি": 2228,
      "ছবির": 2229,
      "হলেও": 2230,
      "খুলে": 2231,
      "মার্কিন": 2232,
      "মূল্য": 2233,
      "ধুনিক": 2234,
      "সূত্র": 2235,
      "ess": 2236,
      "যৌনকর্মী": 2237,
      "লক্ষ্য": 2238,
      "ইন্স": 2239,
      "রাখতে": 2240,
      "বিজ্ঞপ্তি": 2241,
      "অফিসার": 2242,
      "সম্পর্ক": 2243,
      "দ্বারা": 2244,
      "মন্দির": 2245,
      "ভিত্তিতে": 2246,
      "প্রার্থী": 2247,
      "শ্রেণ": 2248,
      "গ্যাস": 2249,
      "আব্দুল": 2250,
      "সৃষ্টি": 2251,
      "মুসলিম": 2252,
      "রোহিঙ্গা": 2253,
      "মহিলা": 2254,
      "বাণিজ্য": 2255,
      "সুবিধা": 2256,
      "অভ্যন্ত": 2257,
      "মুছলিম": 2258,
      "করপোরে": 2259,
      "19": 2260,
      "<<": 2261,
      "ce": 2262,
      "is": 2263,
      "ইএ": 2264,
      "এবার": 2265,
      "কমা": 2266,
      "কণ্ড": 2267,
      "ক্যাম্প": 2268,
      "চির": 2269,
      "টকে": 2270,
      "তরু": 2271,
      "নর": 2272,
      "নূ": 2273,
      "নম্বর": 2274,
      "ফ্যা": 2275,
      "ভুল": 2276,
      "মূ": 2277,
      "মডে": 2278,
      "মহাস": 2279,
      "রাম": 2280,
      "ল্যান্ড": 2281,
      "শৃ": 2282,
      "শব্": 2283,
      "সবার": 2284,
      "সন্ত্র": 2285,
      "হবি": 2286,
      "িং": 2287,
      "ৎকার": 2288,
      "৪৫": 2289,
      "৫৫": 2290,
      "৮৮": 2291,
      "কর্": 2292,
      "বাদে": 2293,
      "বাদের": 2294,
      "বাবু": 2295,
      "কেলে": 2296,
      "ালা": 2297,
      "বেঁ": 2298,
      "কাছ": 2299,
      "নাথ": 2300,
      "স্টি": 2301,
      "লাপ": 2302,
      "ছেড়ে": 2303,
      "মিন": 2304,
      "মির": 2305,
      "পাড়া": 2306,
      "কিম": 2307,
      "কিংবা": 2308,
      "দ্দের": 2309,
      "মানের": 2310,
      "পরিবার": 2311,
      "মুখে": 2312,
      "জানায়": 2313,
      "মোহাম্মদ": 2314,
      "চ্ছি": 2315,
      "স্থায়": 2316,
      "যুগ": 2317,
      "নির্বাচিত": 2318,
      "ভাবেই": 2319,
      "নিয়মিত": 2320,
      "অনেকেই": 2321,
      "এমপি": 2322,
      "এমইএ": 2323,
      "তাঁকে": 2324,
      "গোপাল": 2325,
      "পূর্বে": 2326,
      "সারা": 2327,
      "এখনও": 2328,
      "and": 2329,
      "মূলত": 2330,
      "সাইটের": 2331,
      "তিরিক্ত": 2332,
      "আহমদ": 2333,
      "সোমবার": 2334,
      "তালিকা": 2335,
      "উন্নয়": 2336,
      "ent": 2337,
      "বিজ্ঞা": 2338,
      "বয়স": 2339,
      "বিশ্ববিদ্যালয়": 2340,
      "০১৭১১": 2341,
      "কোম্পান": 2342,
      "ব্লক": 2343,
      "বৃদ্ধি": 2344,
      "পরিষদ": 2345,
      "গ্রুপ": 2346,
      "অন্তত": 2347,
      "শতাংশ": 2348,
      "উদ্দেশ্যে": 2349,
      "বিরোধী": 2350,
      "র‌্যা": 2351,
      "মিডিয়া": 2352,
      "শহরের": 2353,
      "উপলক্ষে": 2354,
      "কৌশ": 2355,
      "ওবায়দুল": 2356,
      "<<>>": 2357,
      "সন্ত্রা": 2358,
      "03": 2359,
      "06": 2360,
      "17": 2361,
      "22": 2362,
      "be": 2363,
      "ps": 2364,
      "অপর": 2365,
      "অতিরিক্ত": 2366,
      "আও": 2367,
      "আদেশ": 2368,
      "উটার": 2369,
      "এনে": 2370,
      "এদিকে": 2371,
      "কান্": 2372,
      "খর": 2373,
      "খার": 2374,
      "খন্দ": 2375,
      "খদ্দের": 2376,
      "গায়": 2377,
      "ঘণ্": 2378,
      "জাল": 2379,
      "জতে": 2380,
      "জার্": 2381,
      "টস": 2382,
      "ড্ড": 2383,
      "তান": 2384,
      "নজ": 2385,
      "নব": 2386,
      "নাল": 2387,
      "পছ": 2388,
      "পনা": 2389,
      "পশ্চি": 2390,
      "পঠিত": 2391,
      "বড়": 2392,
      "ভোগ": 2393,
      "মনির": 2394,
      "যত": 2395,
      "যি": 2396,
      "রিক": 2397,
      "শহর": 2398,
      "শরী": 2399,
      "ষণ": 2400,
      "সান": 2401,
      "সহি": 2402,
      "ুকে": 2403,
      "ড়ায়": 2404,
      "য়েন": 2405,
      "১২০": 2406,
      "৬৭": 2407,
      "বাল": 2408,
      "বাবা": 2409,
      "বাক্স": 2410,
      "কেটে": 2411,
      "াম্প": 2412,
      "ালি": 2413,
      "বেআইনি": 2414,
      "টিকে": 2415,
      "কাঁ": 2416,
      "কায়": 2417,
      "দেয়ার": 2418,
      "নেত্রী": 2419,
      "ায়া": 2420,
      "ক্ষণ": 2421,
      "পাথ": 2422,
      "পাস": 2423,
      "পাশা": 2424,
      "পাতাল": 2425,
      "সাপে": 2426,
      "সাড়ে": 2427,
      "করেই": 2428,
      "কিশোর": 2429,
      "য়াখাল": 2430,
      "মেডি": 2431,
      "তারে": 2432,
      "মানে": 2433,
      "মানিক": 2434,
      "শিষ্ট": 2435,
      "লিখ": 2436,
      "যাওয়া": 2437,
      "জাতি": 2438,
      "দাস": 2439,
      "শেয়ার": 2440,
      "ডিজি": 2441,
      "যেসব": 2442,
      "পুরের": 2443,
      "পেছ": 2444,
      "কালো": 2445,
      "গাই": 2446,
      "যুবলী": 2447,
      "সহযোগি": 2448,
      "সেরা": 2449,
      "লাইস": 2450,
      "ঢাকায়": 2451,
      "কল্যা": 2452,
      "কম্পি": 2453,
      "শ্বর": 2454,
      "আলফা": 2455,
      "মন্ত্রীর": 2456,
      "বৃত্ত": 2457,
      "ছবিতে": 2458,
      "গুলোর": 2459,
      "ঘটনার": 2460,
      "বোর্": 2461,
      "থাকবে": 2462,
      "বিশ্বকা": 2463,
      "স্বামী": 2464,
      "যুক্তরাষ্ট্র": 2465,
      "চাইলে": 2466,
      "ফ্রি": 2467,
      "লক্ষ্ম": 2468,
      "একাদশ": 2469,
      "স্ট্রি": 2470,
      "ফরম": 2471,
      "ল্পনা": 2472,
      "দাবিতে": 2473,
      "কবিতা": 2474,
      "ব্যাংকের": 2475,
      "অতিথি": 2476,
      "লোকজন": 2477,
      "পাকিস্তান": 2478,
      "হিসাব": 2479,
      "সংরক্ষিত": 2480,
      "news": 2481,
      "মসজিদে": 2482,
      "সংঘর্ষে": 2483,
      "বিজিএমইএ": 2484,
      "মিথ্যা": 2485,
      "ফলাফল": 2486,
      "হস্তান্তর": 2487,
      "মাশরা": 2488,
      "কণ্ডো": 2489,
      "বিজ্ঞাপন": 2490,
      "মেডিকেল": 2491,
      "04": 2492,
      "15": 2493,
      "16": 2494,
      "as": 2495,
      "ct": 2496,
      "ri": 2497,
      "ro": 2498,
      "ঁকি": 2499,
      "অঙ্গ": 2500,
      "আব": 2501,
      "আনি": 2502,
      "ইক": 2503,
      "খারা": 2504,
      "গী": 2505,
      "গুন": 2506,
      "ঘু": 2507,
      "ঘন্": 2508,
      "ঙে": 2509,
      "চের": 2510,
      "ছয়": 2511,
      "জড়িত": 2512,
      "টাম": 2513,
      "তলা": 2514,
      "থানা": 2515,
      "দৌ": 2516,
      "নড়া": 2517,
      "ফায়": 2518,
      "বসু": 2519,
      "বক্স": 2520,
      "ভক্ত": 2521,
      "যথ": 2522,
      "যথা": 2523,
      "রয়েছে": 2524,
      "শামী": 2525,
      "সচিব": 2526,
      "হওয়ায়": 2527,
      "ীয়": 2528,
      "ুয়": 2529,
      "১০০": 2530,
      "৩২": 2531,
      "৭০": 2532,
      "’।": 2533,
      "করো": 2534,
      "করছি": 2535,
      "নিম": 2536,
      "বাকি": 2537,
      "প্রস্তা": 2538,
      "প্রচুর": 2539,
      "প্রযুক্তি": 2540,
      "তেমন": 2541,
      "বেড়ে": 2542,
      "লাগ": 2543,
      "ক্লিক": 2544,
      "নেমে": 2545,
      "নেওয়া": 2546,
      "ক্ষতি": 2547,
      "সমান": 2548,
      "সমস্যার": 2549,
      "পাশি": 2550,
      "পাশের": 2551,
      "সিড": 2552,
      "সিস": 2553,
      "সিলি": 2554,
      "সিডি": 2555,
      "কির": 2556,
      "কিলো": 2557,
      "টাকার": 2558,
      "হাদি": 2559,
      "মেয়র": 2560,
      "রেজা": 2561,
      "পরিচয়": 2562,
      "জিন": 2563,
      "যাতে": 2564,
      "মুজি": 2565,
      "মুদ্র": 2566,
      "টেলি": 2567,
      "স্তি": 2568,
      "প্রতিবেদন": 2569,
      "দাবী": 2570,
      "দ্ধা": 2571,
      "স্থানে": 2572,
      "ট্রা": 2573,
      "ট্রাম্প": 2574,
      "ছাড়": 2575,
      "ছাত্রী": 2576,
      "2014": 2577,
      "ড়াতে": 2578,
      "বিভাগের": 2579,
      "সহজ": 2580,
      "আসামী": 2581,
      "ক্ষেপ": 2582,
      "ধারণা": 2583,
      "মধ্যেই": 2584,
      "ফেলে": 2585,
      "রোড": 2586,
      "রোববার": 2587,
      "বাসায়": 2588,
      "অনেকে": 2589,
      "বৃষ্টি": 2590,
      "হোক": 2591,
      "জুড়ে": 2592,
      "হেল": 2593,
      "স্বপ্": 2594,
      "পত্রিকার": 2595,
      "থাকেন": 2596,
      "প্রদত্ত": 2597,
      "সিলেটে": 2598,
      "সিলেটের": 2599,
      "সম্পাদ": 2600,
      "হাসপাতাল": 2601,
      "মাধ্যম": 2602,
      "ডাক": 2603,
      "কৃতিক": 2604,
      "সালা": 2605,
      "অধিকার": 2606,
      "আহ্ব": 2607,
      "সূত্রে": 2608,
      "রুলের": 2609,
      "আলোক": 2610,
      "আলোচ": 2611,
      "অন্যতম": 2612,
      "পালন": 2613,
      "নেতাকর্ম": 2614,
      "বাড়ী": 2615,
      "টাইম": 2616,
      "অনুষ্ঠানে": 2617,
      "একাধিক": 2618,
      "ারেল": 2619,
      "নেতৃত্ব": 2620,
      "ভুক্ত": 2621,
      "দ্বী": 2622,
      "চীফ": 2623,
      "ইউনিয়নের": 2624,
      "সম্মেলন": 2625,
      "মৌসু": 2626,
      "কার্যক্রম": 2627,
      "চোখে": 2628,
      "জাহাজের": 2629,
      "বুঝতে": 2630,
      "কর্তৃপক্ষের": 2631,
      "পরিষদের": 2632,
      "হাইকোর্": 2633,
      "প্রস্তুতি": 2634,
      "ক্লাবের": 2635,
      "অথবা": 2636,
      "ধর্ষণ": 2637,
      "রাজধানীর": 2638,
      "নগরের": 2639,
      "গৃহ": 2640,
      "সংখ্য": 2641,
      "কোরিয়ার": 2642,
      "পরিবর্তন": 2643,
      "সাহায্য": 2644,
      "কূলে": 2645,
      "পরিকল্পনা": 2646,
      "পাশাপাশি": 2647,
      "কল্যাণ": 2648,
      "কম্পিউটার": 2649,
      "কণ্ডোম": 2650,
      "নড়াইল": 2651,
      "কিলোমিটার": 2652,
      "05": 2653,
      "07": 2654,
      "09": 2655,
      "di": 2656,
      "el": 2657,
      "hm": 2658,
      "ংসা": 2659,
      "অপারে": 2660,
      "অ্যান্ড": 2661,
      "অডিও": 2662,
      "অঞ্চল": 2663,
      "আয়": 2664,
      "আনা": 2665,
      "আক্তার": 2666,
      "উড": 2667,
      "এশি": 2668,
      "ওসি": 2669,
      "কলা": 2670,
      "খের": 2671,
      "ঘর": 2672,
      "জনে": 2673,
      "জোর": 2674,
      "জয়ের": 2675,
      "ঝু": 2676,
      "তৎ": 2677,
      "তর্ক": 2678,
      "তব্ব": 2679,
      "দয়": 2680,
      "দরি": 2681,
      "নবী": 2682,
      "পড়ে": 2683,
      "ফরি": 2684,
      "ভের": 2685,
      "ভ্যা": 2686,
      "ভর্তি": 2687,
      "মতে": 2688,
      "মর্": 2689,
      "যানের": 2690,
      "রপ্ত": 2691,
      "রানে": 2692,
      "রকম": 2693,
      "রান্": 2694,
      "ল্ড": 2695,
      "শায়": 2696,
      "সুন": 2697,
      "হৃত": 2698,
      "াপ": 2699,
      "ীতি": 2700,
      "েজ": 2701,
      "েধা": 2702,
      "৩৯": 2703,
      "৪৯": 2704,
      "৫০০": 2705,
      "ারের": 2706,
      "বিয়ের": 2707,
      "বিটক": 2708,
      "বিক্ষোভ": 2709,
      "বিকেলে": 2710,
      "নিত": 2711,
      "নিয়ে": 2712,
      "বাতি": 2713,
      "বায়ন": 2714,
      "প্রশ": 2715,
      "বেদ": 2716,
      "তিতে": 2717,
      "লেই": 2718,
      "নাকি": 2719,
      "দিচ্ছে": 2720,
      "দিবস": 2721,
      "মাসে": 2722,
      "মাঠে": 2723,
      "মাস্টার": 2724,
      "মাতব্ব": 2725,
      "ন্দা": 2726,
      "কারীদের": 2727,
      "মিয়া": 2728,
      "ক্ষু": 2729,
      "সমন্": 2730,
      "পাতা": 2731,
      "পাওয়ার": 2732,
      "সিপি": 2733,
      "সাহ": 2734,
      "করেছি": 2735,
      "কিয়ে": 2736,
      "য়ের": 2737,
      "একবার": 2738,
      "মো": 2739,
      "ন্তা": 2740,
      "গেল": 2741,
      "গেছেন": 2742,
      "ঙ্কা": 2743,
      "দেশকে": 2744,
      "শিং": 2745,
      "পরিচিত": 2746,
      "জিতে": 2747,
      "যাব": 2748,
      "যাদের": 2749,
      "রিপোর্": 2750,
      "জাত": 2751,
      "প্রতিক": 2752,
      "বলতে": 2753,
      "মোতা": 2754,
      "নির্ভর": 2755,
      "যেখানে": 2756,
      "ঞ্জে": 2757,
      "শাক": 2758,
      "পুরুষ": 2759,
      "আমের": 2760,
      "খেলার": 2761,
      "ক্রো": 2762,
      "নামা": 2763,
      "কর্মকাণ্ড": 2764,
      "মনো": 2765,
      "অনুকূলে": 2766,
      "েন্টি": 2767,
      "বলেও": 2768,
      "সম্মান": 2769,
      "সম্প্রতি": 2770,
      "হারা": 2771,
      "গাজী": 2772,
      "নিয়েছে": 2773,
      "ভারপ্রাপ্ত": 2774,
      "২০১৪": 2775,
      "ভেঙে": 2776,
      "শনাল": 2777,
      "ধিকার": 2778,
      "অবস্থা": 2779,
      "চালক": 2780,
      "যায়নি": 2781,
      "ফেড": 2782,
      "ব্যাট": 2783,
      "ন্ধরা": 2784,
      "কলকা": 2785,
      "নিয়ন্ত্রণ": 2786,
      "শ্রয়": 2787,
      "ছবিটি": 2788,
      "ব্রা": 2789,
      "প্রাণ": 2790,
      "সরকারী": 2791,
      "জ্ঞতা": 2792,
      "ইউরো": 2793,
      "থাকতে": 2794,
      "প্রধানমন্ত্রীর": 2795,
      "প্রকাশক": 2796,
      "সম্পদ": 2797,
      "সারে": 2798,
      "হামলায়": 2799,
      "মুখী": 2800,
      "গুলোতে": 2801,
      "উদযা": 2802,
      "গণতন্ত্র": 2803,
      "ক্রিকেট": 2804,
      "কমিশন": 2805,
      "অর্থবছরের": 2806,
      "বাড়ির": 2807,
      "দায়ের": 2808,
      "অনুষ্ঠান": 2809,
      "বসবাস": 2810,
      "ব্যবস্থাপনা": 2811,
      "ব্যক্তিকে": 2812,
      "ব্যাংকে": 2813,
      "চিকিৎসক": 2814,
      "কুরে": 2815,
      "কোর্স": 2816,
      "মন্দিরের": 2817,
      "জাহাজ": 2818,
      "পাকিস্তানের": 2819,
      "হিসাবে": 2820,
      "জীবনের": 2821,
      "ওয়েবসাইট": 2822,
      "ফোরাম": 2823,
      "যোগে": 2824,
      "মিনিটে": 2825,
      "ভ্রম": 2826,
      "সৌদি": 2827,
      "গাছের": 2828,
      "ইছলামী": 2829,
      "শান্তি": 2830,
      "আপনাকে": 2831,
      "নিষেধা": 2832,
      "গুরুত্বপূর্ণ": 2833,
      "উদ্যোগে": 2834,
      "তরুণ": 2835,
      "ঘণ্টা": 2836,
      "সাপেক্ষে": 2837,
      "ডিজিটাল": 2838,
      "লাইসেন্স": 2839,
      "খারাপ": 2840,
      "বসুন্ধরা": 2841,
      "ুয়ারি": 2842,
      "আহ্বান": 2843,
      "//": 2844,
      "://": 2845,
      "ON": 2846,
      "UR": 2847,
      "ic": 2848,
      "id": 2849,
      "oo": 2850,
      "pp": 2851,
      "son": 2852,
      "te": 2853,
      "অ্যাল": 2854,
      "অল্প": 2855,
      "অস্ট্রে": 2856,
      "ইচ্ছা": 2857,
      "ঈদ": 2858,
      "উপা": 2859,
      "উরি": 2860,
      "উচিত": 2861,
      "এজন্য": 2862,
      "ঐতি": 2863,
      "কক্স": 2864,
      "কানা": 2865,
      "খনিজ": 2866,
      "গামী": 2867,
      "চ্যাম": 2868,
      "জভী": 2869,
      "ঠি": 2870,
      "ডট": 2871,
      "দানি": 2872,
      "নও": 2873,
      "নেন": 2874,
      "নুর": 2875,
      "নম্ব": 2876,
      "পিত": 2877,
      "পড়া": 2878,
      "পঞ্চ": 2879,
      "ফিল": 2880,
      "বরে": 2881,
      "বান্": 2882,
      "বন্দর": 2883,
      "মৃ": 2884,
      "ল্যা": 2885,
      "লভী": 2886,
      "সভার": 2887,
      "সফল": 2888,
      "সঠিক": 2889,
      "সতর্ক": 2890,
      "হৃ": 2891,
      "িম": 2892,
      "ুণ": 2893,
      "োমুখ": 2894,
      "ড়ের": 2895,
      "৪২০": 2896,
      "৫৭": 2897,
      "৯৬": 2898,
      "েরা": 2899,
      "বিবর": 2900,
      "নিং": 2901,
      "বাসা": 2902,
      "বাধীন": 2903,
      "কেশন": 2904,
      "প্রো": 2905,
      "প্রক্রি": 2906,
      "প্রশিক্ষ": 2907,
      "প্রভাব": 2908,
      "ালী": 2909,
      "বেলা": 2910,
      "টিয়ে": 2911,
      "নাট": 2912,
      "রাস্ত": 2913,
      "রাসেল": 2914,
      "ক্সি": 2915,
      "তাতে": 2916,
      "পরের": 2917,
      "দিত": 2918,
      "দেবেন": 2919,
      "্যাক": 2920,
      "কার্ড": 2921,
      "মির্জা": 2922,
      "সমস্ত": 2923,
      "সময়ে": 2924,
      "সাদা": 2925,
      "সাক্ষা": 2926,
      "হাঁ": 2927,
      "কোর": 2928,
      "দ্দ": 2929,
      "ঙ্খলা": 2930,
      "মান্ত": 2931,
      "ব্যস্ত": 2932,
      "সংক": 2933,
      "মুহ": 2934,
      "গ্রী": 2935,
      "টেবিল": 2936,
      "জানে": 2937,
      "প্রতিদিন": 2938,
      "প্রতিরোধ": 2939,
      "দাখিল": 2940,
      "ডিপি": 2941,
      "আমল": 2942,
      "খাওয়া": 2943,
      "্যান্": 2944,
      "চাকমা": 2945,
      "ফিস": 2946,
      "ব্যবসা": 2947,
      "ব্যবহৃত": 2948,
      "আসন": 2949,
      "আসতে": 2950,
      "আসনে": 2951,
      "আসন্ন": 2952,
      "আইনে": 2953,
      "আইফোন": 2954,
      "অব্যা": 2955,
      "প্লি": 2956,
      "ব্যাপক": 2957,
      "ব্যাপী": 2958,
      "চারটি": 2959,
      "ফাইন": 2960,
      "আগুন": 2961,
      "এসসি": 2962,
      "জুম": 2963,
      "অর্জন": 2964,
      "ইউনি": 2965,
      "বিশ্বের": 2966,
      "ন্ডার": 2967,
      "দেখার": 2968,
      "হামলার": 2969,
      "মুখ্য": 2970,
      "মুখোমুখ": 2971,
      "নায়ক": 2972,
      "রয়েছেন": 2973,
      "জামাল": 2974,
      "মানুষকে": 2975,
      "যুক্তির": 2976,
      "আনু": 2977,
      "থিম": 2978,
      "প্রেসিড": 2979,
      "হুম": 2980,
      "দুর্নীতি": 2981,
      "সদস্যদের": 2982,
      "dow": 2983,
      "ারেশন": 2984,
      "নিজেকে": 2985,
      "প্রতিষ্ঠানের": 2986,
      "ওয়েস্ট": 2987,
      "পরীক্ষায়": 2988,
      "ধর্মীয়": 2989,
      "গিয়ে": 2990,
      "নোয়াখাল": 2991,
      "বৈঠ": 2992,
      "চীনের": 2993,
      "খোলা": 2994,
      "ক্রমণ": 2995,
      "দীর্ঘদিন": 2996,
      "পরিদর্শক": 2997,
      "যোগ্যতা": 2998,
      "সবাইকে": 2999,
      "নেতৃত্বাধীন": 3000,
      "জানুয়ারী": 3001,
      "মিনিট": 3002,
      "ইতিহাস": 3003,
      "গ্ন": 3004,
      "জমিদার": 3005,
      "প্রয়োজনীয়": 3006,
      "গবেষণা": 3007,
      "সঙ্গী": 3008,
      "ইছলাম": 3009,
      "আপনাদের": 3010,
      "www": 3011,
      "ফেব্রুয়ারী": 3012,
      "htt": 3013,
      "ন্যাশনাল": 3014,
      "সমর্থন": 3015,
      "চামচ": 3016,
      "বিস্ফোর": 3017,
      "জনগণের": 3018,
      "ব্যক্তির": 3019,
      "সার্ভিস": 3020,
      "পৌঁছে": 3021,
      "সমুদ্রগামী": 3022,
      "মিলিয়ে": 3023,
      "টেকনা": 3024,
      "ওয়েব": 3025,
      "সাহিত্য": 3026,
      "লিখেছেন": 3027,
      "সাম্প্রতিক": 3028,
      "করপোরেশনের": 3029,
      "মহাসচিব": 3030,
      "শৃঙ্খলা": 3031,
      "শব্দ": 3032,
      "হবিগঞ্জ": 3033,
      "গোপালগঞ্জ": 3034,
      "র‌্যাব": 3035,
      "পছন্দ": 3036,
      "লক্ষ্মীপুর": 3037,
      "মাশরাফি": 3038,
      "শামীম": 3039,
      "বিটকয়েন": 3040,
      "চ্যাম্পি": 3041,
      "রাস্তায়": 3042,
      "মুখোমুখি": 3043,
      "প্রেসিডেন্ট": 3044,
      "18": 3045,
      "::": 3046,
      "EUR": 3047,
      "Se": 3048,
      "ber": 3049,
      "ig": 3050,
      "im": 3051,
      "ter": 3052,
      "ঁটে": 3053,
      "ংশে": 3054,
      "ংচুর": 3055,
      "অপে": 3056,
      "আফ": 3057,
      "আলা": 3058,
      "আজি": 3059,
      "আস্ত": 3060,
      "আকাশ": 3061,
      "আঘা": 3062,
      "আয়োজন": 3063,
      "ইমাম": 3064,
      "ঋণ": 3065,
      "এক্ষেত্রে": 3066,
      "কঠ": 3067,
      "কন্": 3068,
      "ক্যাম": 3069,
      "গরি": 3070,
      "গড়ে": 3071,
      "জবা": 3072,
      "জহি": 3073,
      "জোট": 3074,
      "টটি": 3075,
      "টনে": 3076,
      "তফ": 3077,
      "দর্শক": 3078,
      "নন": 3079,
      "নদী": 3080,
      "নৈতিক": 3081,
      "পুল": 3082,
      "পল্": 3083,
      "ফটো": 3084,
      "বন্দু": 3085,
      "মল": 3086,
      "রানের": 3087,
      "ষা": 3088,
      "সোন": 3089,
      "সরাস": 3090,
      "হ্": 3091,
      "হকের": 3092,
      "ৃদ্ধ": 3093,
      "োধন": 3094,
      "ড়াল": 3095,
      "ড়ির": 3096,
      "্যবাদ": 3097,
      "করব": 3098,
      "করায়": 3099,
      "করলেন": 3100,
      "করতেন": 3101,
      "বিয়ে": 3102,
      "বিধান": 3103,
      "বিএক্স": 3104,
      "বিনিয়োগ": 3105,
      "নিন": 3106,
      "বাঙ": 3107,
      "বালি": 3108,
      "প্রের": 3109,
      "প্রমুখ": 3110,
      "প্রবাসী": 3111,
      "প্রযুক্তির": 3112,
      "র্ধ্ব": 3113,
      "কাউ": 3114,
      "কাটা": 3115,
      "কাপড়": 3116,
      "রাতের": 3117,
      "মাছ": 3118,
      "মাঠ": 3119,
      "নেওয়ার": 3120,
      "মিস": 3121,
      "সম্ব": 3122,
      "সমৃদ্ধ": 3123,
      "পাহা": 3124,
      "সিন": 3125,
      "সিনে": 3126,
      "সিনিয়": 3127,
      "ভাংচুর": 3128,
      "জনপ্রিয়": 3129,
      "সাং": 3130,
      "সাফল": 3131,
      "কিউরি": 3132,
      "একমত": 3133,
      "ষ্টির": 3134,
      "রেল": 3135,
      "রো": 3136,
      "তারকা": 3137,
      "মান্": 3138,
      "শিকার": 3139,
      "সংস": 3140,
      "সংযোগ": 3141,
      "জিং": 3142,
      "জিম্": 3143,
      "লিন": 3144,
      "পিং": 3145,
      "পারলে": 3146,
      "ডিজা": 3147,
      "যোগ": 3148,
      "জন্যে": 3149,
      "শাস্তি": 3150,
      "স্থল": 3151,
      "হয়তো": 3152,
      "বরং": 3153,
      "চেয়ে": 3154,
      "অনুসর": 3155,
      "দোক": 3156,
      "দোকান": 3157,
      "হারের": 3158,
      "হারিয়ে": 3159,
      "যুদ্ধে": 3160,
      "জারী": 3161,
      "সহায়": 3162,
      "ভারি": 3163,
      "ব্যবধান": 3164,
      "লাইভ": 3165,
      "ব্যাপার": 3166,
      "ন্ধে": 3167,
      "আলহা": 3168,
      "দারি": 3169,
      "পোশাক": 3170,
      "গোপন": 3171,
      "গোলাপ": 3172,
      "আমাদেরকে": 3173,
      "অর্থা": 3174,
      "কুলে": 3175,
      "ইউপি": 3176,
      "ইউএস": 3177,
      "বোমা": 3178,
      "মারা": 3179,
      "সম্পন্ন": 3180,
      "আজকের": 3181,
      "খুঁ": 3182,
      "বন্ধুর": 3183,
      "ডাউন": 3184,
      "শোনা": 3185,
      "ান্স": 3186,
      "ব্যবহারের": 3187,
      "স্বাধীন": 3188,
      "প্রথমে": 3189,
      "বিদ্যু": 3190,
      "আপনারা": 3191,
      "আগেই": 3192,
      "রহমানের": 3193,
      "উপজেলায়": 3194,
      "তালুক": 3195,
      "তিনটি": 3196,
      "মালা": 3197,
      "সর্বো": 3198,
      "নৌযান": 3199,
      "পড়েছে": 3200,
      "শালী": 3201,
      "যদিও": 3202,
      "হরতাল": 3203,
      "রাখেন": 3204,
      "সমাজ": 3205,
      "কর্মকর্তাদের": 3206,
      "কয়েকজন": 3207,
      "কীভাবে": 3208,
      "রীণ": 3209,
      "out": 3210,
      "ব্যক্তিগত": 3211,
      "অবস্থিত": 3212,
      "হেরে": 3213,
      "শিশুদের": 3214,
      "পেয়েছে": 3215,
      "০১৭১৬": 3216,
      "খ্যাত": 3217,
      "প্রাপ্তি": 3218,
      "প্রশ্নের": 3219,
      "জেনে": 3220,
      "জেনারেল": 3221,
      "মহাপরিচালক": 3222,
      "য়ানমার": 3223,
      "থানায়": 3224,
      "ফোনের": 3225,
      "সন্দেহ": 3226,
      "সিরিজের": 3227,
      "উদ্বোধন": 3228,
      "ধ্বংস": 3229,
      "প্রচারিত": 3230,
      "ধারাবাহ": 3231,
      "বাসিন্দা": 3232,
      "যাত্রা": 3233,
      "যুদ্ধের": 3234,
      "অথচ": 3235,
      "পৃথি": 3236,
      "মন্ত্রণালয়": 3237,
      "angla": 3238,
      "ঘাটতি": 3239,
      "ফেব্রুয়ারি": 3240,
      "প্লট": 3241,
      "৮৪৩": 3242,
      "বিদেশি": 3243,
      "স্টাফ": 3244,
      "মাইক্রো": 3245,
      "জ্বল": 3246,
      "সৈয়": 3247,
      "পর্যায়ে": 3248,
      "খেলতে": 3249,
      "অধ্যা": 3250,
      "পেশাদার": 3251,
      "আন্দোলন": 3252,
      "শ্রেণীর": 3253,
      "অভ্যন্তরীণ": 3254,
      "ফ্যাক্স": 3255,
      "স্থায়ী": 3256,
      "সন্ত্রাসী": 3257,
      "খরচ": 3258,
      "নজরুল": 3259,
      "পঠিতব্য": 3260,
      "আবদুল": 3261,
      "টামিন": 3262,
      "যথাযথ": 3263,
      "আলোকচিত্র": 3264,
      "অপারেশন": 3265,
      "ঝুঁকি": 3266,
      "দরিদ্র": 3267,
      "ফরিদপুর": 3268,
      "প্রশংসা": 3269,
      "মাতব্বর": 3270,
      "রিপোর্টার": 3271,
      "মোতাবেক": 3272,
      "উদযাপন": 3273,
      "নিষেধাজ্ঞা": 3274,
      "জবাবে": 3275,
      "সরাসরি": 3276,
      "সিনিয়র": 3277,
      "তালুকদার": 3278,
      "ধারাবাহিক": 3279,
      "An": 3280,
      "Ch": 3281,
      "In": 3282,
      "PH": 3283,
      "Re": 3284,
      "SI": 3285,
      "TE": 3286,
      "can": 3287,
      "ia": 3288,
      "lin": 3289,
      "nse": 3290,
      "ol": 3291,
      "ue": 3292,
      "অগ্": 3293,
      "অসংখ্য": 3294,
      "আলে": 3295,
      "আরা": 3296,
      "আদি": 3297,
      "আয়ো": 3298,
      "আবাসি": 3299,
      "ইস্ট": 3300,
      "উভয়": 3301,
      "একর": 3302,
      "এসময়": 3303,
      "ওপরে": 3304,
      "কদের": 3305,
      "কষ্": 3306,
      "গগ": 3307,
      "গল": 3308,
      "গার্": 3309,
      "গড়া": 3310,
      "গভীর": 3311,
      "গঞ্জে": 3312,
      "ঘন": 3313,
      "জুল": 3314,
      "ঝা": 3315,
      "ডঃ": 3316,
      "তত": 3317,
      "তাম": 3318,
      "তপুর": 3319,
      "থমিক": 3320,
      "দফা": 3321,
      "ধরা": 3322,
      "নক": 3323,
      "নান্": 3324,
      "নটিক": 3325,
      "পয়": 3326,
      "বন্দি": 3327,
      "মহ": 3328,
      "মঞ্জ": 3329,
      "যমু": 3330,
      "রশি": 3331,
      "শনে": 3332,
      "শক্তি": 3333,
      "সেন্ট": 3334,
      "সফর": 3335,
      "হার্": 3336,
      "েই": 3337,
      "েড": 3338,
      "োক্তি": 3339,
      "য়ান্তে": 3340,
      "য়ন্স": 3341,
      "০৯৯": 3342,
      "৩৬": 3343,
      "৩৮": 3344,
      "৫২": 3345,
      "৫৬": 3346,
      "৫৮": 3347,
      "……": 3348,
      "্রাজ": 3349,
      "্যুর": 3350,
      "ানু": 3351,
      "করন": 3352,
      "বিবৃ": 3353,
      "নিলে": 3354,
      "বাম": 3355,
      "বাড়ি": 3356,
      "বাধিকার": 3357,
      "প্রত্য": 3358,
      "ামে": 3359,
      "বেক্ষ": 3360,
      "বেসরকারি": 3361,
      "বেঞ্চ": 3362,
      "টিভি": 3363,
      "টিউট": 3364,
      "কাজের": 3365,
      "নাবিক": 3366,
      "স্বল": 3367,
      "স্পাই": 3368,
      "ক্সে": 3369,
      "তাস": 3370,
      "তাড়া": 3371,
      "দেড়": 3372,
      "নেয়": 3373,
      "নেতাদের": 3374,
      "ন্দের": 3375,
      "কার্": 3376,
      "মিছিল": 3377,
      "মিনার": 3378,
      "মিয়ানমার": 3379,
      "ক্ষর": 3380,
      "পাবেন": 3381,
      "সিভ": 3382,
      "সিরাজ": 3383,
      "কিনে": 3384,
      "য়াত": 3385,
      "য়াস": 3386,
      "হাও": 3387,
      "হাজির": 3388,
      "মেয়া": 3389,
      "িলি": 3390,
      "িলার": 3391,
      "ব্যান": 3392,
      "য়ারী": 3393,
      "সংস্থ": 3394,
      "ভিন": 3395,
      "ভিটামিন": 3396,
      "যাই": 3397,
      "পিছ": 3398,
      "টেডের": 3399,
      "জানি": 3400,
      "জানেন": 3401,
      "পারবে": 3402,
      "পার্ব": 3403,
      "রিজভী": 3404,
      "প্রতিটি": 3405,
      "দাগ": 3406,
      "দায়": 3407,
      "শাখার": 3408,
      "সুরা": 3409,
      "সুষ্ঠ": 3410,
      "আমদানি": 3411,
      "খেতে": 3412,
      "টারি": 3413,
      "ছাই": 3414,
      "বলেছে": 3415,
      "বলেছিলেন": 3416,
      "চাপ": 3417,
      "দোয়া": 3418,
      "ত্তর": 3419,
      "জারি": 3420,
      "সহজে": 3421,
      "ভারতে": 3422,
      "চিন্তা": 3423,
      "জ্জা": 3424,
      "নির্বাচনী": 3425,
      "চালু": 3426,
      "অভিনেতা": 3427,
      "অভিজ্ঞতা": 3428,
      "০০৩": 3429,
      "বুদ্ধ": 3430,
      "সাম্রাজ": 3431,
      "ছুটে": 3432,
      "পূজা": 3433,
      "কমপ্লে": 3434,
      "বিষয়": 3435,
      "নিয়ম": 3436,
      "আল্লা": 3437,
      "শ্রম": 3438,
      "শ্রদ্ধা": 3439,
      "হোম": 3440,
      "কিছুই": 3441,
      "কিছুটা": 3442,
      "প্রাণী": 3443,
      "প্রাথমিক": 3444,
      "স্বত্ব": 3445,
      "রহস্য": 3446,
      "গুণ": 3447,
      "গুপ্ত": 3448,
      "ডাঃ": 3449,
      "ডাক্তার": 3450,
      "লেনদেন": 3451,
      "সভাপতিত্": 3452,
      "১৯৬": 3453,
      "১৯৯": 3454,
      "সীমান্ত": 3455,
      "নিকট": 3456,
      "হোসেনের": 3457,
      "কমিটি": 3458,
      "কমিশনের": 3459,
      "পালিয়ে": 3460,
      "ধরতে": 3461,
      "ত্যাগ": 3462,
      "পড়েছেন": 3463,
      "রাষ্ট্রপতি": 3464,
      "লক্ষ্যে": 3465,
      "রাখার": 3466,
      "পাঠক": 3467,
      "সদস্যের": 3468,
      "সদস্যরা": 3469,
      "একাডে": 3470,
      "খুবই": 3471,
      "চলেছে": 3472,
      "মৃত্যুর": 3473,
      "enc": 3474,
      "মাত্রা": 3475,
      "কন্যা": 3476,
      "our": 3477,
      "মাহবু": 3478,
      "উন্ডে": 3479,
      "উইকেটে": 3480,
      "লেখক": 3481,
      "কেন্দ্রীয়": 3482,
      "৫০৮": 3483,
      "গিয়াস": 3484,
      "ate": 3485,
      "াইভার": 3486,
      "জঙ্গিবাদ": 3487,
      "মৌলভী": 3488,
      "ফেব্রুয়ারি": 3489,
      "বঙ্গবন্ধুর": 3490,
      "কখনও": 3491,
      "ডলারের": 3492,
      "পর্ব": 3493,
      "সিরিজ": 3494,
      "উদ্যোগ": 3495,
      "ড্রাইভার": 3496,
      "স্পেন": 3497,
      "যাচাইয়ান্তে": 3498,
      "উদ্দেশ্য": 3499,
      "কার্যালয়": 3500,
      "সেনাবাহিনীর": 3501,
      "এড্স": 3502,
      "চলাচল": 3503,
      "শরীর": 3504,
      "গাঁও": 3505,
      "স্ট্রেশন": 3506,
      "শুরুর": 3507,
      "ফেসবুক": 3508,
      "জায়গায়": 3509,
      "সেতুমন্ত্রী": 3510,
      "সংগঠনের": 3511,
      "বগুড়া": 3512,
      "শফিকুর": 3513,
      "বাবগঞ্জ": 3514,
      "শিক্ষার্থীদের": 3515,
      "আরেকটি": 3516,
      "প্রশাস": 3517,
      "সংশোধনী": 3518,
      "পূরণ": 3519,
      "৯৫৫৪২০": 3520,
      "রবিবার": 3521,
      "লিমিটেডের": 3522,
      "প্রেসক্লাবের": 3523,
      "স্বীকারোক্তি": 3524,
      "ফর্মে": 3525,
      "ওয়ানডে": 3526,
      "ব্রিটিশ": 3527,
      "কর্মসূচি": 3528,
      "মডেল": 3529,
      "কোম্পানির": 3530,
      "কৌশল": 3531,
      "ড্ডা": 3532,
      "লিখিত": 3533,
      "যুবলীগের": 3534,
      "ঘন্টার": 3535,
      "ফেডারেশন": 3536,
      "কক্সবাজার": 3537,
      "হৃদয়": 3538,
      "অব্যাহত": 3539,
      "টেকনাফ": 3540,
      "চ্যাম্পিয়ন্স": 3541,
      "কাউকে": 3542,
      "সম্বন্ধে": 3543,
      "অনুসরণ": 3544,
      "অর্থাৎ": 3545,
      "০১৭১৬০৯৯": 3546,
      "অধ্যাপক": 3547,
      "আবাসিক": 3548,
      "নটিক্যাল": 3549,
      "স্পাইডার": 3550,
      "সুষ্ঠু": 3551,
      "আল্লাহর": 3552,
      "সভাপতিত্বে": 3553,
      "৯৫৫৪২০৬": 3554,
      "০১৭১৬০৯৯০০৩": 3555,
      ".)": 3556,
      "28": 3557,
      "70": 3558,
      "OR": 3559,
      "You": 3560,
      "cess": 3561,
      "fer": 3562,
      "gs": 3563,
      "ist": 3564,
      "me": 3565,
      "ment": 3566,
      "nlo": 3567,
      "ore": 3568,
      "su": 3569,
      "tar": 3570,
      "us": 3571,
      "ঁজি": 3572,
      "ংকার": 3573,
      "অনি": 3574,
      "অসু": 3575,
      "আফ্র": 3576,
      "আচর": 3577,
      "আধুনিক": 3578,
      "আক্রমণ": 3579,
      "ইজ": 3580,
      "ইম": 3581,
      "উক্ত": 3582,
      "এজ": 3583,
      "এদের": 3584,
      "এয়ার": 3585,
      "ওল": 3586,
      "ওকে": 3587,
      "ওয়ার": 3588,
      "কবর": 3589,
      "গন্ধ": 3590,
      "গঙ্গা": 3591,
      "চূ": 3592,
      "জ্যে": 3593,
      "টম": 3594,
      "টল": 3595,
      "টান": 3596,
      "ডান": 3597,
      "ডকু": 3598,
      "ণত": 3599,
      "ণার": 3600,
      "তমা": 3601,
      "তরে": 3602,
      "ত্যে": 3603,
      "দত্ত": 3604,
      "দীন": 3605,
      "দানের": 3606,
      "ধূ": 3607,
      "নান": 3608,
      "নকল": 3609,
      "নজর": 3610,
      "নবায়ন": 3611,
      "পেন": 3612,
      "পরাজ": 3613,
      "বক": 3614,
      "বয়": 3615,
      "বস্ত": 3616,
      "বোন": 3617,
      "ভ্যান": 3618,
      "ভোর": 3619,
      "ভবিষ": 3620,
      "মরা": 3621,
      "মুর": 3622,
      "মহাল": 3623,
      "রশী": 3624,
      "লঙ্": 3625,
      "লড়াই": 3626,
      "শূ": 3627,
      "শান": 3628,
      "সরিয়ে": 3629,
      "হই": 3630,
      "িদ্ধ": 3631,
      "ৈর": 3632,
      "োরে": 3633,
      "ড়ান্ত": 3634,
      "০৭": 3635,
      "০৮": 3636,
      "২য়": 3637,
      "৩০০": 3638,
      "৩২৪": 3639,
      "৪৭": 3640,
      "৭৫": 3641,
      "৯৪৯": 3642,
      "্রিক": 3643,
      "করবো": 3644,
      "বিধ": 3645,
      "বিনা": 3646,
      "বিনে": 3647,
      "বিত্র": 3648,
      "বিজে": 3649,
      "বিনাম": 3650,
      "বিতর": 3651,
      "বিভাগে": 3652,
      "বাজ": 3653,
      "বাড়": 3654,
      "বাহী": 3655,
      "বাধা": 3656,
      "কেবল": 3657,
      "কেমন": 3658,
      "প্রত্যে": 3659,
      "ামু": 3660,
      "টিভ": 3661,
      "টিটিউট": 3662,
      "লেগে": 3663,
      "নাগা": 3664,
      "নাটক": 3665,
      "স্মৃ": 3666,
      "লাগে": 3667,
      "তাহ": 3668,
      "দেবে": 3669,
      "দেবী": 3670,
      "মাদ": 3671,
      "মাদক": 3672,
      "মাগু": 3673,
      "মাথায়": 3674,
      "মাষ্টার": 3675,
      "নেতার": 3676,
      "ন্না": 3677,
      "কারে": 3678,
      "মিউজ": 3679,
      "সমালো": 3680,
      "পাব": 3681,
      "পাবে": 3682,
      "পাতি": 3683,
      "পায়": 3684,
      "সাগ": 3685,
      "সাব": 3686,
      "য়ামী": 3687,
      "িত্র": 3688,
      "হাট": 3689,
      "মেগা": 3690,
      "রেখা": 3691,
      "দেশটির": 3692,
      "মানসিক": 3693,
      "শিখ": 3694,
      "শিগগ": 3695,
      "যাঁ": 3696,
      "মুসা": 3697,
      "গ্রি": 3698,
      "পিবিএক্স": 3699,
      "রিয়া": 3700,
      "দুবাই": 3701,
      "বললেন": 3702,
      "আরব": 3703,
      "নির্মিত": 3704,
      "হিম": 3705,
      "হিন্দু": 3706,
      "ডিং": 3707,
      "ডিএস": 3708,
      "ীরিক": 3709,
      "ঞ্চলে": 3710,
      "পুরি": 3711,
      "নারীদের": 3712,
      "খেলে": 3713,
      "খেলো": 3714,
      "ভাগ্য": 3715,
      "ট্রি": 3716,
      "ট্রফি": 3717,
      "যোগী": 3718,
      "পেলে": 3719,
      "নামক": 3720,
      "চেতন": 3721,
      "িরই": 3722,
      "2013": 3723,
      "্যানেল": 3724,
      "চাহি": 3725,
      "চাকরি": 3726,
      "চাপায়": 3727,
      "ত্তি": 3728,
      "ত্তে": 3729,
      "নিয়েছেন": 3730,
      "ভারে": 3731,
      "ভারসাম": 3732,
      "ভারতীয়": 3733,
      "আসবে": 3734,
      "ান্ত্রিক": 3735,
      "অবসর": 3736,
      "অবশেষে": 3737,
      "স্টান": 3738,
      "অভিনেত্রী": 3739,
      "অভিযোগে": 3740,
      "বুকে": 3741,
      "রোজ": 3742,
      "সামরিক": 3743,
      "দলকে": 3744,
      "আমিন": 3745,
      "কম্প": 3746,
      "নিয়ন্ত্র": 3747,
      "করেননি": 3748,
      "হো": 3749,
      "ব্রু": 3750,
      "ব্রো": 3751,
      "জীবী": 3752,
      "প্রাকৃতিক": 3753,
      "গুলির": 3754,
      "উদ্দীন": 3755,
      "বোঝ": 3756,
      "পারেনি": 3757,
      "এখনো": 3758,
      "বন্ধন": 3759,
      "ণ্ডা": 3760,
      "বহাল": 3761,
      "কৃতির": 3762,
      "সাল্": 3763,
      "স্বামীর": 3764,
      "বীজ": 3765,
      "ers": 3766,
      "অ্যাকাউন্": 3767,
      "সোনার": 3768,
      "পর্যবেক্ষ": 3769,
      "esse": 3770,
      "বাজারের": 3771,
      "পুঁজি": 3772,
      "করিম": 3773,
      "ধরণের": 3774,
      "সর্বা": 3775,
      "নৌকা": 3776,
      "নৌযানের": 3777,
      "বাড়ানোর": 3778,
      "যৌনকর্মীরা": 3779,
      "পড়তে": 3780,
      "ফ্রন্ট": 3781,
      "আদালতের": 3782,
      "tit": 3783,
      "বানু": 3784,
      "পাঠানো": 3785,
      "সমাবেশ": 3786,
      "নির্যা": 3787,
      "বিষয়ক": 3788,
      "দশমিক": 3789,
      "বিমানবন্দ": 3790,
      "বিমানবন্দর": 3791,
      "নেতৃ": 3792,
      "পারেননি": 3793,
      "ovem": 3794,
      "অভিযোগপত্র": 3795,
      "৩০২": 3796,
      "৯৫৮৭": 3797,
      "৯৫৫০৮": 3798,
      "খানায়": 3799,
      "বিজ্ঞান": 3800,
      "ক্ষমতায়": 3801,
      "প্রতিষ্ঠা": 3802,
      "বয়সী": 3803,
      "গঠন": 3804,
      "জিনিয়া": 3805,
      "দূরে": 3806,
      "বর্ণ": 3807,
      "পরীক্ষার্থ": 3808,
      "শুধুমাত্র": 3809,
      "ফেরত": 3810,
      "আইনশৃঙ্খলা": 3811,
      "কবির": 3812,
      "কলেজের": 3813,
      "চুরি": 3814,
      "ধন্যবাদ": 3815,
      "ব্যাংক": 3816,
      "কপিরাই": 3817,
      "শিশুকে": 3818,
      "সন্তোষ": 3819,
      "রাজনীতি": 3820,
      "ফিকুল": 3821,
      "বার্ষ": 3822,
      "যুবক": 3823,
      "যুবকের": 3824,
      "হালকা": 3825,
      "রেজিস্ট্রেশন": 3826,
      "মেয়েদের": 3827,
      "ছাত্রলীগের": 3828,
      "ভিত্তি": 3829,
      "শিল্পী": 3830,
      "জোটের": 3831,
      "ক্টর": 3832,
      "শ্রেষ্ঠ": 3833,
      "সর্বশেষ": 3834,
      "গ্রুপের": 3835,
      "জরুর": 3836,
      "ইতিহা": 3837,
      "মোবাইলঃ০১৭১১": 3838,
      "প্রস্তুত": 3839,
      "স্পষ্ট": 3840,
      "deo": 3841,
      "দৃষ্টি": 3842,
      "শারীরিক": 3843,
      "কার্যালয়ে": 3844,
      "সেনাবাহিনী": 3845,
      "উচ্চতা": 3846,
      "পৃষ্ঠ": 3847,
      "জিয়াকে": 3848,
      "উল্লেখ্য": 3849,
      "সপ্তাহ": 3850,
      "সপ্তাহে": 3851,
      "ইসির": 3852,
      "নিষিদ্ধ": 3853,
      "রাশিয়ান": 3854,
      "শিক্ষাবর্ষ": 3855,
      "অবশ্যই": 3856,
      "ফেসবুকে": 3857,
      "রাজধানী": 3858,
      "ফুটবলের": 3859,
      "পুনর্": 3860,
      "কাদেরের": 3861,
      "সংগঠন": 3862,
      "খ্রিস্টান": 3863,
      "শিক্ষার্থী": 3864,
      "ছুরিকা": 3865,
      "শামসু": 3866,
      "লিমিটেড": 3867,
      "ব্যবসায়ী": 3868,
      "শুনানি": 3869,
      "খানাখন্দ": 3870,
      "ভার্জিনিয়া": 3871,
      "মেনে": 3872,
      "ইন্সটিটিউট": 3873,
      "বেঁধে": 3874,
      "উন্নয়নে": 3875,
      "আওয়ামী": 3876,
      "জালাল": 3877,
      "জার্মান": 3878,
      "কিশোরগঞ্জ": 3879,
      "পেছনে": 3880,
      "হাদিস": 3881,
      "মুদ্রিত": 3882,
      "টেলিভি": 3883,
      "স্বপ্ন": 3884,
      "সম্পাদকের": 3885,
      "অঞ্চলের": 3886,
      "রান্না": 3887,
      "ভ্রমণ": 3888,
      "বিবরণ": 3889,
      "হুমকি": 3890,
      "downlo": 3891,
      "ওয়েবসাইটের": 3892,
      "অপেক্ষা": 3893,
      "তফসিল": 3894,
      "বন্দুক": 3895,
      "সংসদে": 3896,
      "ডিজাইন": 3897,
      "দারিদ্র": 3898,
      "সর্বোচ্চ": 3899,
      "পৃথিবীর": 3900,
      "যমুনা": 3901,
      "স্বল্প": 3902,
      "মিয়ানমারের": 3903,
      "সংস্থার": 3904,
      "স্পাইডারম্যান": 3905,
      "ভবিষ্য": 3906,
      "মহালছড়ি": 3907,
      "রশীদ": 3908,
      "শূন্য": 3909,
      "৯৪৯৩২৪": 3910,
      "বিজেপি": 3911,
      "মাগুরা": 3912,
      "মিউজিক": 3913,
      "শিগগিরই": 3914,
      "খেলোয়া": 3915,
      "৯৫৮৭৩০২": 3916,
      "৯৫৫০৮৬৭": 3917,
      "কপিরাইট": 3918,
      "download": 3919,
      "44": 3920,
      "53": 3921,
      "Bangla": 3922,
      "More": 3923,
      "Novem": 3924,
      "Pre": 3925,
      "cn": 3926,
      "fre": 3927,
      "for": 3928,
      "ion": 3929,
      "ms": 3930,
      "pa": 3931,
      "sh": 3932,
      "ut": 3933,
      "ve": 3934,
      "অগ্র": 3935,
      "অস্ত": 3936,
      "অধিক": 3937,
      "আবি": 3938,
      "আশে": 3939,
      "আক্র": 3940,
      "আওয়া": 3941,
      "আগ্রহ": 3942,
      "আবদ": 3943,
      "আঞ্চল": 3944,
      "আক্রান্ত": 3945,
      "আশ্রয়": 3946,
      "ইট": 3947,
      "ইত্তে": 3948,
      "ঈশ্বর": 3949,
      "উর": 3950,
      "উড়": 3951,
      "উজ্": 3952,
      "উপরে": 3953,
      "এরা": 3954,
      "এগুলো": 3955,
      "এএফ": 3956,
      "কতা": 3957,
      "কমান": 3958,
      "কামী": 3959,
      "কবুল": 3960,
      "কথায়": 3961,
      "খাম": 3962,
      "খায়": 3963,
      "খিক": 3964,
      "খানের": 3965,
      "গৌ": 3966,
      "গড়": 3967,
      "ঘো": 3968,
      "ঘরের": 3969,
      "চর্": 3970,
      "চক্র": 3971,
      "চোর": 3972,
      "চতু": 3973,
      "ছড়া": 3974,
      "জক": 3975,
      "ঝিল": 3976,
      "টমো": 3977,
      "টানা": 3978,
      "ডো": 3979,
      "ণমূল": 3980,
      "থিত": 3981,
      "দখ": 3982,
      "দফ": 3983,
      "দম": 3984,
      "দমন": 3985,
      "পনে": 3986,
      "পদ্": 3987,
      "ফন": 3988,
      "ফনের": 3989,
      "ভয়ে": 3990,
      "মৎ": 3991,
      "ম্য": 3992,
      "মণ্ড": 3993,
      "মধু": 3994,
      "রক্ত": 3995,
      "রীন": 3996,
      "রচনা": 3997,
      "শম": 3998,
      "শত্র": 3999,
      "শক্ত": 4000,
      "শনার": 4001,
      "শহী": 4002,
      "শর্ত": 4003,
      "ষী": 4004,
      "ষে": 4005,
      "সকে": 4006,
      "সরে": 4007,
      "সজ্": 4008,
      "সীন": 4009,
      "সক্ষম": 4010,
      "হ্যাম্প": 4011,
      "াট": 4012,
      "িদ": 4013,
      "ীর্ণ": 4014,
      "ূর্ত": 4015,
      "ৃত্ত": 4016,
      "োল": 4017,
      "০১৯": 4018,
      "১০০০": 4019,
      "৪৩": 4020,
      "৪৬": 4021,
      "৭৬": 4022,
      "৮১": 4023,
      "’-": 4024,
      "্যারি": 4025,
      "ান্য": 4026,
      "বিবে": 4027,
      "বিক্র": 4028,
      "বিধি": 4029,
      "বিগত": 4030,
      "বিএস": 4031,
      "বিপরী": 4032,
      "বিশাল": 4033,
      "বিপ্ল": 4034,
      "বিশিষ্ট": 4035,
      "নিচে": 4036,
      "নিচ্ছে": 4037,
      "বাসে": 4038,
      "বায়": 4039,
      "বাবার": 4040,
      "বাছাই": 4041,
      "েন্ড": 4042,
      "কেজি": 4043,
      "তেজ": 4044,
      "বেল": 4045,
      "বেশে": 4046,
      "টিউ": 4047,
      "টিফি": 4048,
      "কাই": 4049,
      "কাঠ": 4050,
      "কাত": 4051,
      "কাতে": 4052,
      "কাশে": 4053,
      "কাজী": 4054,
      "নাত": 4055,
      "স্কো": 4056,
      "স্কুলে": 4057,
      "লাগবে": 4058,
      "রাউ": 4059,
      "রাহা": 4060,
      "রাজা": 4061,
      "ছেলের": 4062,
      "তাছাড়া": 4063,
      "দিল্": 4064,
      "দেয়": 4065,
      "মাকে": 4066,
      "মাটি": 4067,
      "মায়ের": 4068,
      "মাদার": 4069,
      "নেয়ার": 4070,
      "কারও": 4071,
      "কারো": 4072,
      "কারীর": 4073,
      "মিলে": 4074,
      "পাত্র": 4075,
      "পাওয়া": 4076,
      "সির": 4077,
      "সিস্টে": 4078,
      "সেস": 4079,
      "সেমি": 4080,
      "সেসব": 4081,
      "সেকেন": 4082,
      "সেক্রে": 4083,
      "সাজ": 4084,
      "সাকি": 4085,
      "কিত": 4086,
      "টাঙ্গা": 4087,
      "্বার": 4088,
      "মেঘ": 4089,
      "মেজর": 4090,
      "মেক্সি": 4091,
      "থাকি": 4092,
      "কোয়": 4093,
      "ষ্কার": 4094,
      "গেলেন": 4095,
      "বারি": 4096,
      "বারে": 4097,
      "বারিক": 4098,
      "য়ারেজ": 4099,
      "শিব": 4100,
      "শিশুর": 4101,
      "সংস্কার": 4102,
      "পরিণত": 4103,
      "লিপ": 4104,
      "যাক": 4105,
      "যাচ্ছেন": 4106,
      "মুন": 4107,
      "মুহাম্মদ": 4108,
      "গ্র্যান্ড": 4109,
      "জান্": 4110,
      "জানাল": 4111,
      "পারা": 4112,
      "রিং": 4113,
      "রিফ": 4114,
      "রিয়": 4115,
      "জাহান": 4116,
      "দুজন": 4117,
      "দুপুরে": 4118,
      "প্রতিবেশী": 4119,
      "দাশ": 4120,
      "দাতা": 4121,
      "বলছেন": 4122,
      "বললাম": 4123,
      "মোকা": 4124,
      "মোল্লা": 4125,
      "চ্ছিল": 4126,
      "চ্ছু": 4127,
      "হিদুল": 4128,
      "২০০০": 4129,
      "শাখা": 4130,
      "সুয়ারেজ": 4131,
      "এরকম": 4132,
      "খাদি": 4133,
      "খাতের": 4134,
      "খাগড়া": 4135,
      "উপস্থাপন": 4136,
      "ট্রিক": 4137,
      "ট্রাক": 4138,
      "ট্রান্স": 4139,
      "নাম্বার": 4140,
      "মনু": 4141,
      "অনুযায়": 4142,
      "অনুর্ধ্ব": 4143,
      "কালি": 4144,
      "চাকুর": 4145,
      "ত্ত্": 4146,
      "দ্রা": 4147,
      "দ্রব্য": 4148,
      "ফিচার": 4149,
      "নিয়েই": 4150,
      "আসার": 4151,
      "চিৎকার": 4152,
      "আইপি": 4153,
      "আইসিস": 4154,
      "ভেতরে": 4155,
      "কেরা": 4156,
      "সরবরা": 4157,
      "অবহে": 4158,
      "চালা": 4159,
      "লাইফ": 4160,
      "লাইনে": 4161,
      "স্ট্যান্ড": 4162,
      "অভিনয়": 4163,
      "বুর্": 4164,
      "চলন": 4165,
      "চলবে": 4166,
      "ইস্যু": 4167,
      "রুটে": 4168,
      "ফাক": 4169,
      "বিষয়ে": 4170,
      "বেশীর": 4171,
      "এমসি": 4172,
      "এসআই": 4173,
      "এসএসসি": 4174,
      "জুটি": 4175,
      "জুড়ে": 4176,
      "গোষ্ঠ": 4177,
      "ব্রে": 4178,
      "ব্রাজ": 4179,
      "অর্ডার": 4180,
      "সার্বিক": 4181,
      "ূল্যে": 4182,
      "আজও": 4183,
      "গরম": 4184,
      "সনদের": 4185,
      "খুশি": 4186,
      "যৌথ": 4187,
      "দেখি": 4188,
      "দীপি": 4189,
      "ডাক্ট": 4190,
      "অনেকটা": 4191,
      "শীতের": 4192,
      "সাইটে": 4193,
      "সাইকেল": 4194,
      "টুকরো": 4195,
      "অধিনায়ক": 4196,
      "সূর": 4197,
      "পরিচালিত": 4198,
      "সীম": 4199,
      "সীমা": 4200,
      "জামি": 4201,
      "জামিন": 4202,
      "ষ্ট্রে": 4203,
      "কারীরা": 4204,
      "পক্ষের": 4205,
      "অন্যদিকে": 4206,
      "পুরা": 4207,
      "পাল্": 4208,
      "সাধারণত": 4209,
      "বেশির": 4210,
      "পেরে": 4211,
      "প্রেম": 4212,
      "জানিয়েছে": 4213,
      "ইন্ডি": 4214,
      "উন্নত": 4215,
      "মতাম": 4216,
      "১২২৯": 4217,
      "দুর্দ": 4218,
      "্যান্ডের": 4219,
      "মতিঝিল": 4220,
      "হাসিক": 4221,
      "হাসিনার": 4222,
      "শিক্ষক": 4223,
      "ভাবনা": 4224,
      "নিজেই": 4225,
      "গঠিত": 4226,
      "দূত": 4227,
      "উইকেট": 4228,
      "থাকায়": 4229,
      "কেন্দ্রে": 4230,
      "ফেরার": 4231,
      "পার্কের": 4232,
      "পেয়েছেন": 4233,
      "উল্লা": 4234,
      "সকলের": 4235,
      "নিশ্চয়": 4236,
      "সিটিজেন": 4237,
      "কুরআন": 4238,
      "খালী": 4239,
      "উৎপা": 4240,
      "উৎসব": 4241,
      "মর্যা": 4242,
      "বিচারক": 4243,
      "পারিবারিক": 4244,
      "গুরুতর": 4245,
      "চরিত্র": 4246,
      "বরাবর": 4247,
      "বরাদ্দ": 4248,
      "প্রিয়তমা": 4249,
      "ঘটেছে": 4250,
      "বুঝে": 4251,
      "পূর্বক": 4252,
      "ভিত্তিক": 4253,
      "সর্বস্বত্ব": 4254,
      "ক্ষমতাসীন": 4255,
      "119": 4256,
      "ইংরেজি": 4257,
      "ইংল্যান্ড": 4258,
      "ফোর্": 4259,
      "সন্ধান": 4260,
      "রায়পুর": 4261,
      "জ্ঞাত": 4262,
      "ভাঙচুর": 4263,
      "ভিডিওচিত্র": 4264,
      "উদ্বোধ": 4265,
      "উদ্বৃত্ত": 4266,
      "এছাড়াও": 4267,
      "গ্যাসের": 4268,
      "শতাধিক": 4269,
      "ভূমিকা": 4270,
      "ভূমিকম্প": 4271,
      "সংরক্ষণ": 4272,
      "গবেষক": 4273,
      "পুরোপুরি": 4274,
      "ফিরতে": 4275,
      "রোগের": 4276,
      "মোটর": 4277,
      "সপ্তাহের": 4278,
      "আর্জ": 4279,
      "চুলের": 4280,
      "র‌্যাল": 4281,
      "লিংক": 4282,
      "মন্ত্রণালয়ের": 4283,
      "ইন্টারন্যাশনাল": 4284,
      "উঠেছে": 4285,
      "অ্যাপস": 4286,
      "video": 4287,
      "ওরফে": 4288,
      "তৃণমূল": 4289,
      "বিচারপতির": 4290,
      "প্রকল্পের": 4291,
      "মানবতা": 4292,
      "সার্ভিসের": 4293,
      "ভিয়েতনামের": 4294,
      "পৌরসভার": 4295,
      "কখনোই": 4296,
      "বাণিজ্যিক": 4297,
      "নূর": 4298,
      "মূর্তি": 4299,
      "বেঁচে": 4300,
      "যুগ্ম": 4301,
      "উন্নয়নের": 4302,
      "খদ্দেরদের": 4303,
      "পশ্চিম": 4304,
      "যিনি": 4305,
      "শরীরে": 4306,
      "পাথর": 4307,
      "গাইড": 4308,
      "সহযোগিতা": 4309,
      "বোর্ড": 4310,
      "বিশ্বকাপ": 4311,
      "যুক্তরাষ্ট্রের": 4312,
      "রেজাউল": 4313,
      "হাসপাতালের": 4314,
      "আলোচনায়": 4315,
      "নেতাকর্মীদের": 4316,
      "তৎকালীন": 4317,
      "সমন্বয়": 4318,
      "আমেরিকা": 4319,
      "pping": 4320,
      "অস্ট্রেলিয়া": 4321,
      "নওগাঁ": 4322,
      "প্রোডাক্ট": 4323,
      "প্রশিক্ষণ": 4324,
      "মুহূর্ত": 4325,
      "কঠিন": 4326,
      "সোনম": 4327,
      "সাফল্য": 4328,
      "কিউরিটি": 4329,
      "জিম্বাবু": 4330,
      "খুঁজে": 4331,
      "ডাউনলোড": 4332,
      "সৈয়দ": 4333,
      "নকশা": 4334,
      "রশিদ": 4335,
      "আচরণ": 4336,
      "এয়ারলাই": 4337,
      "ডকুমেন্ট": 4338,
      "স্মৃতি": 4339,
      "সমালোচনা": 4340,
      "ট্রফিতে": 4341,
      "চাহিদা": 4342,
      "নির্যাতন": 4343,
      "বার্ষিক": 4344,
      "November": 4345,
      "আবদুর": 4346,
      "আঞ্চলিক": 4347,
      "ইত্তেফাক": 4348,
      "মৎস্য": 4349,
      "সজ্জিত": 4350,
      "হ্যাম্পশায়": 4351,
      "সেকেন্ড": 4352,
      "অনুযায়ী": 4353,
      "ব্রাজিল": 4354,
      "02": 4355,
      "35": 4356,
      "55": 4357,
      ":-": 4358,
      "AT": 4359,
      "ab": 4360,
      "ation": 4361,
      "by": 4362,
      "co": 4363,
      "dd": 4364,
      "eb": 4365,
      "fi": 4366,
      "ir": 4367,
      "jo": 4368,
      "mp": 4369,
      "pl": 4370,
      "pla": 4371,
      "rou": 4372,
      "ta": 4373,
      "tw": 4374,
      "।”": 4375,
      "অফ": 4376,
      "অর": 4377,
      "অা": 4378,
      "অবর": 4379,
      "অভাব": 4380,
      "অজ্ঞাত": 4381,
      "আঁ": 4382,
      "আট": 4383,
      "আসি": 4384,
      "আবু": 4385,
      "আর্থ": 4386,
      "আবেদ": 4387,
      "ইমেইলঃ": 4388,
      "ইমর": 4389,
      "ইলিয়া": 4390,
      "ইজিং": 4391,
      "উত্": 4392,
      "এ্যা": 4393,
      "এটাই": 4394,
      "ওটি": 4395,
      "ওয়": 4396,
      "কক্ষ": 4397,
      "কুন": 4398,
      "খলি": 4399,
      "গর্": 4400,
      "গতি": 4401,
      "গিত": 4402,
      "গড়": 4403,
      "ঘুর": 4404,
      "চম": 4405,
      "চলার": 4406,
      "চক্ষু": 4407,
      "ছালা": 4408,
      "জরি": 4409,
      "জবান": 4410,
      "জবাব": 4411,
      "ঝি": 4412,
      "ঠান্ড": 4413,
      "ডু": 4414,
      "ডায়": 4415,
      "ঢো": 4416,
      "ঢুকে": 4417,
      "তনে": 4418,
      "তুর": 4419,
      "তৃত": 4420,
      "তবু": 4421,
      "দীর": 4422,
      "নু": 4423,
      "নীয়": 4424,
      "নতাই": 4425,
      "পনের": 4426,
      "পবিত্র": 4427,
      "ফাল": 4428,
      "বনে": 4429,
      "ভগ": 4430,
      "ভেন": 4431,
      "ভরা": 4432,
      "ভয়া": 4433,
      "মপ্লে": 4434,
      "যথে": 4435,
      "যশোর": 4436,
      "রম": 4437,
      "রস": 4438,
      "রনি": 4439,
      "রফিকুল": 4440,
      "লস": 4441,
      "সই": 4442,
      "সও": 4443,
      "স‌": 4444,
      "সমি": 4445,
      "সেন্": 4446,
      "সান্": 4447,
      "সচেতন": 4448,
      "হজ": 4449,
      "হতা": 4450,
      "হ্ম": 4451,
      "হানি": 4452,
      "ীনে": 4453,
      "ুরা": 4454,
      "ুকের": 4455,
      "ুয়ার": 4456,
      "োজ": 4457,
      "০৫": 4458,
      "১১৯": 4459,
      "৩৪": 4460,
      "৪৮": 4461,
      "৫৩": 4462,
      "৭১": 4463,
      "৭৮": 4464,
      "৮৫": 4465,
      "৯২": 4466,
      "্যবাদের": 4467,
      "করিয়ে": 4468,
      "বিশ": 4469,
      "বিলা": 4470,
      "বিভা": 4471,
      "বিকাশ": 4472,
      "বিনো": 4473,
      "বিজয়": 4474,
      "বিবিসি": 4475,
      "বিপুল": 4476,
      "নিয়া": 4477,
      "নিষ্ঠ": 4478,
      "নিলাম": 4479,
      "নিযুক্ত": 4480,
      "নিম্": 4481,
      "বাগ": 4482,
      "বাজে": 4483,
      "বাফু": 4484,
      "বাড্ডা": 4485,
      "কেজ": 4486,
      "প্রতা": 4487,
      "প্রসঙ্গে": 4488,
      "প্রসার": 4489,
      "প্রকৃত": 4490,
      "াম্য": 4491,
      "তেও": 4492,
      "তেল": 4493,
      "বেদক": 4494,
      "বেইজিং": 4495,
      "কাস্ট": 4496,
      "কাংশ": 4497,
      "কাপের": 4498,
      "কাফনের": 4499,
      "নাক": 4500,
      "নাস": 4501,
      "নায়": 4502,
      "স্বাদ": 4503,
      "লাব": 4504,
      "লাগা": 4505,
      "লাদার": 4506,
      "লাগিয়ে": 4507,
      "রাগ": 4508,
      "রাজি": 4509,
      "রাস্তার": 4510,
      "ক্সের": 4511,
      "ক্লাশ": 4512,
      "তাহা": 4513,
      "তাকিয়ে": 4514,
      "পর্যাল": 4515,
      "দিষ্ট": 4516,
      "দিলেন": 4517,
      "মাতৃ": 4518,
      "নেতারা": 4519,
      "ন্দে": 4520,
      "ন্সের": 4521,
      "মিশন": 4522,
      "ক্ষয়": 4523,
      "ক্ষণে": 4524,
      "সম্রা": 4525,
      "পাবল": 4526,
      "পাড়ে": 4527,
      "পাচ্ছে": 4528,
      "পাড়ায়": 4529,
      "সিমের": 4530,
      "সিকিউরিটি": 4531,
      "ভাড়া": 4532,
      "ভাইস": 4533,
      "ভাবিক": 4534,
      "সেবার": 4535,
      "সেক্স": 4536,
      "সেগুলো": 4537,
      "জনগোষ্ঠ": 4538,
      "করেনি": 4539,
      "করেছিল": 4540,
      "কিভাবে": 4541,
      "কিছুর": 4542,
      "টাতে": 4543,
      "হাবি": 4544,
      "হাতের": 4545,
      "মেয়ের": 4546,
      "কোচ": 4547,
      "কোষ্ট": 4548,
      "গেট": 4549,
      "ঙ্কর": 4550,
      "তারই": 4551,
      "দেশীয়": 4552,
      "মানা": 4553,
      "ব্যতি": 4554,
      "ব্যারি": 4555,
      "শিম": 4556,
      "শির": 4557,
      "শিয়ে": 4558,
      "শিয়া": 4559,
      "শিরো": 4560,
      "সংস্": 4561,
      "পরিশ্রম": 4562,
      "জিজ্ঞা": 4563,
      "ভিউ": 4564,
      "লিনা": 4565,
      "ক্তির": 4566,
      "গ্রস্ত": 4567,
      "পিয়ার": 4568,
      "অনুর": 4569,
      "অনলাইনে": 4570,
      "টেল": 4571,
      "জানার": 4572,
      "জানুয়ার": 4573,
      "জায়": 4574,
      "দুধ": 4575,
      "দুপুর": 4576,
      "প্রতিমা": 4577,
      "প্রতিরক্ষা": 4578,
      "প্রতিবেদক": 4579,
      "শেদ": 4580,
      "নির্দিষ্ট": 4581,
      "হিন": 4582,
      "যেটা": 4583,
      "যেকোনো": 4584,
      "স্থগিত": 4585,
      "সুন্দ": 4586,
      "সুখবর": 4587,
      "নারীর": 4588,
      "ঙ্গার": 4589,
      "্ডার": 4590,
      "খাত": 4591,
      "খাদ": 4592,
      "ক্রী": 4593,
      "উপদে": 4594,
      "উপায়": 4595,
      "উপযুক্ত": 4596,
      "017": 4597,
      "ট্রেন": 4598,
      "সবচেয়ে": 4599,
      "চেষ্টার": 4600,
      "কর্মীর": 4601,
      "আপলোড": 4602,
      "অনুভূ": 4603,
      "অনুসারে": 4604,
      "েন্দা": 4605,
      "কালের": 4606,
      "বলেই": 4607,
      "চাপা": 4608,
      "চাটমো": 4609,
      "হারে": 4610,
      "হারাম": 4611,
      "গাড়ির": 4612,
      "যুগে": 4613,
      "ফিরিয়ে": 4614,
      "ফিটনে": 4615,
      "২০১২": 4616,
      "২০১৩": 4617,
      "দিয়েছিলেন": 4618,
      "ন্নত": 4619,
      "আইনের": 4620,
      "ক্ষো": 4621,
      "ভেচ্ছা": 4622,
      "শুভেচ্ছা": 4623,
      "ান্তি": 4624,
      "তোফা": 4625,
      "চালায়": 4626,
      "ানো": 4627,
      "ালো": 4628,
      "স্টোরে": 4629,
      "লীল": 4630,
      "অভিযোগ": 4631,
      "রোজা": 4632,
      "ব্যাটিং": 4633,
      "ইসলামী": 4634,
      "ডেক": 4635,
      "ডেমো": 4636,
      "ছিনতাই": 4637,
      "বাসীর": 4638,
      "রাজী": 4639,
      "ফাউন্ডে": 4640,
      "আলবিনে": 4641,
      "আগাম": 4642,
      "মন্ত্রি": 4643,
      "শ্রো": 4644,
      "বৃন্দ": 4645,
      "হেফা": 4646,
      "হেতু": 4647,
      "ষ্টান": 4648,
      "স্বত্": 4649,
      "ব্লি": 4650,
      "পত্রিকা": 4651,
      "এনসিলি": 4652,
      "পূর্ণা": 4653,
      "পূর্বানু": 4654,
      "প্রদায়": 4655,
      "প্রদানের": 4656,
      "ইসলামের": 4657,
      "আদর্শ": 4658,
      "দেখলে": 4659,
      "দেখুন": 4660,
      "any": 4661,
      "an70": 4662,
      "মার্টিন": 4663,
      "ডাই": 4664,
      "ডাটা": 4665,
      "কৃত্রি": 4666,
      "মুখের": 4667,
      "স্বাভাবিক": 4668,
      "নির্বাচনকালীন": 4669,
      "আপনিও": 4670,
      "অ্যাড": 4671,
      "জানানো": 4672,
      "ধাক্": 4673,
      "প্রথমবারের": 4674,
      "উত্তে": 4675,
      "উত্তরা": 4676,
      "চুম্ব": 4677,
      "আওয়ামীলীগ": 4678,
      "কমিশনার": 4679,
      "অর্থনৈতিক": 4680,
      "ধরম": 4681,
      "প্রেমের": 4682,
      "বাড়তি": 4683,
      "টাইগার": 4684,
      "ren": 4685,
      "দায়ী": 4686,
      "পড়ার": 4687,
      "time": 4688,
      "রাখুন": 4689,
      "একাউন্": 4690,
      "নিরী": 4691,
      "নিরপে": 4692,
      "আবারও": 4693,
      "আবারো": 4694,
      "তৈরী": 4695,
      "অভিযোগের": 4696,
      "বাহিরে": 4697,
      "র্তির": 4698,
      "তীত": 4699,
      "বর্ধ": 4700,
      "ভুত": 4701,
      "ভুয়া": 4702,
      "ত্মক": 4703,
      "পার্ট": 4704,
      "পার্টির": 4705,
      "বদলে": 4706,
      "বদন্ত": 4707,
      "বদরুল": 4708,
      "বৈশিষ্ট": 4709,
      "ব্যক্তিদের": 4710,
      "০১৭১১৯": 4711,
      "সন্তানের": 4712,
      "খোঁ": 4713,
      "কৃষক": 4714,
      "129": 4715,
      "ফুলের": 4716,
      "বার্সা": 4717,
      "কার্যকর": 4718,
      "চোখের": 4719,
      "করলেও": 4720,
      "বিরতি": 4721,
      "মিলন": 4722,
      "তুলতে": 4723,
      "পদত্যাগ": 4724,
      "পায়ের": 4725,
      "বাঁধা": 4726,
      "পর্দা": 4727,
      "পত্তি": 4728,
      "৩৫১৯৬": 4729,
      "চট্টগ্রামে": 4730,
      "মনোনয়নপত্র": 4731,
      "rahm": 4732,
      "ফোনে": 4733,
      "নিউজিল": 4734,
      "শাহজালাল": 4735,
      "বক্তব্যে": 4736,
      "পাঁচটি": 4737,
      "ভাঙা": 4738,
      "আশরা": 4739,
      "গ্ধ": 4740,
      "ড্রে": 4741,
      "ভোটের": 4742,
      "সিলভার": 4743,
      "ভ্রাম্য": 4744,
      "স্পর্শ": 4745,
      "ত্রিপুরা": 4746,
      "ইয়াবা": 4747,
      "ট্যাবলে": 4748,
      "দরকার": 4749,
      "দৃশ্য": 4750,
      "সঙ্গত": 4751,
      "বিতর্": 4752,
      "133": 4753,
      "138": 4754,
      "প্যাকেজ": 4755,
      "মসজিদের": 4756,
      "age": 4757,
      "ংসতা": 4758,
      "ঠাণ্ডা": 4759,
      "হ্যাজ": 4760,
      "বাস্তবায়": 4761,
      "প্রবেশের": 4762,
      "গাড়িতে": 4763,
      "ইন্টারনেট": 4764,
      "জায়গা": 4765,
      "পুনরায়": 4766,
      "শহরে": 4767,
      "সত্যি": 4768,
      "ওয়ার্ক": 4769,
      "ওয়ার্ল্ড": 4770,
      "ম্যাচেই": 4771,
      "স্কুলের": 4772,
      "vir": 4773,
      "খ্রিষ্টান": 4774,
      "বগুড়ার": 4775,
      "মনিরুল": 4776,
      "শফিকুল": 4777,
      "141": 4778,
      "প্রশাসন": 4779,
      "অধীনে": 4780,
      "আকসা": 4781,
      "aper": 4782,
      "কাউন্সিল": 4783,
      "ভাষা": 4784,
      "সাংবাদিকদের": 4785,
      "নগরীর": 4786,
      "সফরে": 4787,
      "মাসুম": 4788,
      "কিংবদন্ত": 4789,
      "অভ্যন্তরীন": 4790,
      "মডেলের": 4791,
      "কোম্পানীর": 4792,
      "খন্দকার": 4793,
      "তারেক": 4794,
      "162": 4795,
      "ইকবাল": 4796,
      "প্রস্তাব": 4797,
      "মুজিব": 4798,
      "ছাড়পত্র": 4799,
      "হাইকোর্ট": 4800,
      "হাইকোর্টের": 4801,
      "কম্পিউটারের": 4802,
      "রপ্তানি": 4803,
      "কর্মকাণ্ডের": 4804,
      "ব্রাহ্ম": 4805,
      "ONE": 4806,
      "উপাদান": 4807,
      "ঐতিহাসিক": 4808,
      "ডটকম": 4809,
      "নম্বরের": 4810,
      "বান্ধ": 4811,
      "প্রক্রিয়া": 4812,
      "নাট্য": 4813,
      "হাঁস": 4814,
      "প্লিকেশন": 4815,
      "ফাইনালে": 4816,
      "বৈঠক": 4817,
      "সঙ্গীত": 4818,
      "https": 4819,
      "বিস্ফোরক": 4820,
      "আলাদা": 4821,
      "আস্তে": 4822,
      "ক্যামের": 4823,
      "জহিরুল": 4824,
      "দর্শকদের": 4825,
      "দোকানে": 4826,
      "আলহাজ্ব": 4827,
      "বিদ্যুৎ": 4828,
      "৮৪৩২৩": 4829,
      "PHONE": 4830,
      "Read": 4831,
      "অগ্নি": 4832,
      "মঞ্জুর": 4833,
      "হাওলাদার": 4834,
      "পার্বত্য": 4835,
      "সাম্রাজ্যবাদের": 4836,
      "লেনদেনের": 4837,
      "ences": 4838,
      "মৌলভীবাজার": 4839,
      "স্বীকারোক্তিমূলক": 4840,
      "ferences": 4841,
      "অসুস্থ": 4842,
      "এজেন্ট": 4843,
      "চূড়ান্ত": 4844,
      "পরাজিত": 4845,
      "বিনামূল্যে": 4846,
      "রোজগার": 4847,
      "ব্রুইন": 4848,
      "জরুরি": 4849,
      "ইতিহাসের": 4850,
      "ছুরিকাঘা": 4851,
      "Preferences": 4852,
      "msrahm": 4853,
      "অস্তিত্ব": 4854,
      "আওয়াজ": 4855,
      "উজ্জ্বল": 4856,
      "এএফপি": 4857,
      "চতুর্থ": 4858,
      "শহীদ": 4859,
      "বিপ্লব": 4860,
      "মাদারীপুর": 4861,
      "টাঙ্গাইল": 4862,
      "বারিধারা": 4863,
      "চ্ছুক": 4864,
      "খাগড়াছড়ি": 4865,
      "সরবরাহ": 4866,
      "সূর্য": 4867,
      "উল্লাহ": 4868,
      "মর্যাদা": 4869,
      "উদ্বোধনী": 4870,
      "আর্জেন্টি": 4871,
      "এয়ারলাইন্সের": 4872,
      "জবানবন্দি": 4873,
      "ভয়াবহ": 4874,
      "যথেষ্ট": 4875,
      "স‌চিব": 4876,
      "বিনোদন": 4877,
      "নিলামে": 4878,
      "পর্যালো": 4879,
      "পাবলিক": 4880,
      "কোষ্টাল": 4881,
      "ব্যারিস্টার": 4882,
      "স্বত্বাধিকার": 4883,
      "এনসিলিয়ারী": 4884,
      "পূর্ণাঙ্গ": 4885,
      "পূর্বানুমতি": 4886,
      "কৃত্রিম": 4887,
      "একাউন্ট": 4888,
      "০১৭১১৯৩৫১৯৬": 4889,
      "msrahman70": 4890,
      "''": 4891,
      ")/": 4892,
      "46": 4893,
      "48": 4894,
      "64": 4895,
      "76": 4896,
      "AC": 4897,
      "Co": 4898,
      "De": 4899,
      "KY": 4900,
      "MS": 4901,
      "OM": 4902,
      "SS": 4903,
      "Un": 4904,
      "af": 4905,
      "ay": 4906,
      "ama": 4907,
      "ahm": 4908,
      "cu": 4909,
      "cap": 4910,
      "gin": 4911,
      "ies": 4912,
      "ke": 4913,
      "ow": 4914,
      "tam": 4915,
      "um": 4916,
      "yout": 4917,
      "।\"": 4918,
      "ঁকে": 4919,
      "ঁড়ে": 4920,
      "অবা": 4921,
      "অদি": 4922,
      "অদ্": 4923,
      "অ্যান": 4924,
      "অ্যাম": 4925,
      "অাপ": 4926,
      "অপেশাদার": 4927,
      "অঞ্চলে": 4928,
      "আকার": 4929,
      "আয়া": 4930,
      "আনার": 4931,
      "আশ্": 4932,
      "আলাই": 4933,
      "আছি": 4934,
      "আটকে": 4935,
      "আরিফ": 4936,
      "ইলি": 4937,
      "ইটার": 4938,
      "ইতো": 4939,
      "ইমেইল": 4940,
      "ইয়া": 4941,
      "ইফতার": 4942,
      "উর্": 4943,
      "উজার": 4944,
      "উটের": 4945,
      "এতো": 4946,
      "এভাবে": 4947,
      "এপ্লিকেশন": 4948,
      "ওঠ": 4949,
      "ওষ": 4950,
      "ওসম": 4951,
      "ওঠে": 4952,
      "কং": 4953,
      "কক্ষে": 4954,
      "কণ্": 4955,
      "খী": 4956,
      "গাল": 4957,
      "গলা": 4958,
      "গীর": 4959,
      "গারে": 4960,
      "গড়ার": 4961,
      "ঘ্": 4962,
      "চব্": 4963,
      "চ্যানেল": 4964,
      "ছার": 4965,
      "ছড়িয়ে": 4966,
      "জত": 4967,
      "জর্": 4968,
      "জকি": 4969,
      "জমে": 4970,
      "জোগ": 4971,
      "জসীম": 4972,
      "ঝুল": 4973,
      "টজ": 4974,
      "টার্": 4975,
      "ঠো": 4976,
      "তঃ": 4977,
      "তক": 4978,
      "তরা": 4979,
      "তরের": 4980,
      "তান্ত্রিক": 4981,
      "থির": 4982,
      "ধ্": 4983,
      "নয়": 4984,
      "নষ্ট": 4985,
      "নগ্ন": 4986,
      "পদের": 4987,
      "পদক": 4988,
      "ফটি": 4989,
      "বণ": 4990,
      "বৌ": 4991,
      "বয়ে": 4992,
      "বনের": 4993,
      "বানি": 4994,
      "বধূ": 4995,
      "ভান্ড": 4996,
      "ভার্ড": 4997,
      "মঈ": 4998,
      "মজ": 4999,
      "ময়": 5000,
      "মনের": 5001,
      "মহাম": 5002,
      "রথ": 5003,
      "রূ": 5004,
      "রবী": 5005,
      "লোগ": 5006,
      "শর্": 5007,
      "শ্যাল": 5008,
      "শ্যাম": 5009,
      "ষড়": 5010,
      "সলে": 5011,
      "সজীব": 5012,
      "সভ্য": 5013,
      "হ্য": 5014,
      "হায়": 5015,
      "হচ্ছেন": 5016,
      "হঠা": 5017,
      "াঁ": 5018,
      "াকে": 5019,
      "িটাইম": 5020,
      "ীকে": 5021,
      "ুনে": 5022,
      "ুয়া": 5023,
      "ৃক্ত": 5024,
      "েট": 5025,
      "োজিত": 5026,
      "ড়ো": 5027,
      "ড়ানো": 5028,
      "য়ং": 5029,
      "য়োগ": 5030,
      "০৩১": 5031,
      "১ম": 5032,
      "২৫০": 5033,
      "৬৫": 5034,
      "৭২": 5035,
      "৭৯": 5036,
      "৮০": 5037,
      "’,": 5038,
      "ানায়": 5039,
      "ানিক": 5040,
      "কর্প": 5041,
      "করণের": 5042,
      "্তর": 5043,
      "বিএ": 5044,
      "বিন": 5045,
      "বিলে": 5046,
      "বিআর": 5047,
      "বিদ্র": 5048,
      "বিদেশে": 5049,
      "বিকল্প": 5050,
      "বিনিয়": 5051,
      "বিয়ান": 5052,
      "বিক্ষো": 5053,
      "নিক্ষে": 5054,
      "নিধন": 5055,
      "নিপী": 5056,
      "বাচ্": 5057,
      "বাধ্য": 5058,
      "বাণী": 5059,
      "কেও": 5060,
      "কেটের": 5061,
      "প্রতার": 5062,
      "প্রচল": 5063,
      "প্রকৃতি": 5064,
      "প্রকৌশ": 5065,
      "প্রয়াত": 5066,
      "প্রকৃতির": 5067,
      "প্রয়োগ": 5068,
      "তো": 5069,
      "র্নি": 5070,
      "বেজে": 5071,
      "বেশন": 5072,
      "বেড়াতে": 5073,
      "টিই": 5074,
      "টিকা": 5075,
      "কাপ": 5076,
      "কাকে": 5077,
      "কাব্য": 5078,
      "কাশ্": 5079,
      "কাতর": 5080,
      "লেহে": 5081,
      "নাচ": 5082,
      "নাশ": 5083,
      "নাদি": 5084,
      "নাতদন্ত": 5085,
      "নাসিম": 5086,
      "স্পি": 5087,
      "স্বর": 5088,
      "স্ক্রি": 5089,
      "স্টিং": 5090,
      "স্টিক": 5091,
      "লাতে": 5092,
      "রাজ্জা": 5093,
      "তাও": 5094,
      "তাক": 5095,
      "তাপ": 5096,
      "তাৎ": 5097,
      "দির": 5098,
      "দিবে": 5099,
      "দিকের": 5100,
      "মাদের": 5101,
      "মাদুর": 5102,
      "নেচে": 5103,
      "নেমপ্লে": 5104,
      "্যাট": 5105,
      "দেরও": 5106,
      "কারখানায়": 5107,
      "মিয়ার": 5108,
      "ক্ষিতে": 5109,
      "ুল্লাহ": 5110,
      "সমু": 5111,
      "সমর্": 5112,
      "সম্যান": 5113,
      "সমেন্ট": 5114,
      "সমবায়": 5115,
      "পাঁ": 5116,
      "পাট": 5117,
      "পাশ": 5118,
      "পাকা": 5119,
      "পাইন": 5120,
      "পাওয়ায়": 5121,
      "সিটির": 5122,
      "ভাব্য": 5123,
      "সেদিন": 5124,
      "সেলো": 5125,
      "সেক্টর": 5126,
      "সাঁ": 5127,
      "সাপ": 5128,
      "করেছিলেন": 5129,
      "য়তা": 5130,
      "একু": 5131,
      "একসাথে": 5132,
      "একমাত্র": 5133,
      "িতার": 5134,
      "হাতি": 5135,
      "হাকিম": 5136,
      "হাজতে": 5137,
      "মেসি": 5138,
      "মেশি": 5139,
      "মেমো": 5140,
      "মেহে": 5141,
      "মেইন": 5142,
      "কোথায়": 5143,
      "ষ্ণ": 5144,
      "দ্দি": 5145,
      "িলঃ": 5146,
      "গেম": 5147,
      "গোল": 5148,
      "রেড": 5149,
      "রেডিও": 5150,
      "দেশি": 5151,
      "মানবিক": 5152,
      "িকান": 5153,
      "ব্যয়": 5154,
      "য়ারে": 5155,
      "শিকারি": 5156,
      "সংবিধান": 5157,
      "পরিহার": 5158,
      "জিও": 5159,
      "ভিজি": 5160,
      "লিয়ার": 5161,
      "লিঙ্গ": 5162,
      "মুছে": 5163,
      "মুম্": 5164,
      "পিয়ে": 5165,
      "পিসিপি": 5166,
      "অনার্স": 5167,
      "টেস্ট": 5168,
      "পারছেন": 5169,
      "পারছি": 5170,
      "পারভিন": 5171,
      "রিন": 5172,
      "রিয়াল": 5173,
      "জাকির": 5174,
      "দুজনের": 5175,
      "এইসব": 5176,
      "প্রতিবাদ": 5177,
      "প্রতিবাদে": 5178,
      "বলম্ব": 5179,
      "বললেই": 5180,
      "আরবের": 5181,
      "মোহন": 5182,
      "মোবই": 5183,
      "নির্ধারণ": 5184,
      "চ্ছিলো": 5185,
      "হিরো": 5186,
      "ডিয়াম": 5187,
      "যেকোন": 5188,
      "যেভাবে": 5189,
      "যেহেতু": 5190,
      "শাদ": 5191,
      "সুই": 5192,
      "সুখ": 5193,
      "সুদ": 5194,
      "সুপার": 5195,
      "সুপ্রি": 5196,
      "খাদ্য": 5197,
      "খেয়াল": 5198,
      "ক্রা": 5199,
      "ক্রু": 5200,
      "ট্রাই": 5201,
      "সবু": 5202,
      "পেশ": 5203,
      "পেস্ট": 5204,
      "টারে": 5205,
      "নামাজ": 5206,
      "চেত": 5207,
      "চেঞ্জ": 5208,
      "ছাফা": 5209,
      "কর্মচার": 5210,
      "কর্মীরা": 5211,
      "কর্মরত": 5212,
      "অনুসন্ধান": 5213,
      "েন্সি": 5214,
      "হত্তর": 5215,
      "কালী": 5216,
      "কালিয়া": 5217,
      "সম্ভাবনা": 5218,
      "সম্ভাব্য": 5219,
      "ড়ার": 5220,
      "ত্ত্ব": 5221,
      "সহসভাপতি": 5222,
      "ফিশিং": 5223,
      "ওয়াত": 5224,
      "ভারী": 5225,
      "২০১১": 5226,
      "২০১৯": 5227,
      "আসছেন": 5228,
      "দিয়েই": 5229,
      "চিঠি": 5230,
      "চিহ্": 5231,
      "আইড": 5232,
      "আইডি": 5233,
      "ক্ষেত": 5234,
      "সময়ই": 5235,
      "সময়সূ": 5236,
      "ধারায়": 5237,
      "শ্লীল": 5238,
      "ুলিয়া": 5239,
      "তোলা": 5240,
      "তোমার": 5241,
      "তোমাদের": 5242,
      "চালানের": 5243,
      "ষ্ঠানিক": 5244,
      "ানোর": 5245,
      "স্ট্যা": 5246,
      "ওয়ালট": 5247,
      "অভিযুক্ত": 5248,
      "বুক": 5249,
      "রোডের": 5250,
      "সামনের": 5251,
      "সামগ্রী": 5252,
      "সামান্য": 5253,
      "ঢাকায়": 5254,
      "চার্য": 5255,
      "চলতে": 5256,
      "ডেট": 5257,
      "ডেকে": 5258,
      "ডেলি": 5259,
      "রুট": 5260,
      "রুশ": 5261,
      "বাসার": 5262,
      "কর্তব্য": 5263,
      "নীতির": 5264,
      "ফাইল": 5265,
      "এসপি": 5266,
      "বৃহত্তর": 5267,
      "হোস্টিং": 5268,
      "কিছুক্ষণ": 5269,
      "আমরাও": 5270,
      "হেশ": 5271,
      "ষ্টান্ত": 5272,
      "গোলা": 5273,
      "গোত্র": 5274,
      "জীবি": 5275,
      "প্রায়": 5276,
      "ব্ধ": 5277,
      "সার্চ": 5278,
      "ূলক": 5279,
      "জ্ঞান": 5280,
      "inf": 5281,
      "কুমি": 5282,
      "কুয়া": 5283,
      "ঘটছে": 5284,
      "পূর্বের": 5285,
      "মারওয়া": 5286,
      "সম্পৃক্ত": 5287,
      "সিলেক্ট": 5288,
      "বন্যা": 5289,
      "এখনই": 5290,
      "দেখিয়ে": 5291,
      "ভালু": 5292,
      "পরেই": 5293,
      "পরেও": 5294,
      "বেরিয়ে": 5295,
      "বহুল": 5296,
      "মার্ট": 5297,
      "ল্ট": 5298,
      "গুঁ": 5299,
      "গুগল": 5300,
      "মূলধন": 5301,
      "শোবি": 5302,
      "সালমান": 5303,
      "সাইজের": 5304,
      "টুইটার": 5305,
      "গুলোকে": 5306,
      "অধিদফ": 5307,
      "অধিকাংশ": 5308,
      "আহবান": 5309,
      "আহমাদ": 5310,
      "সূচনা": 5311,
      "অ্যাড্রে": 5312,
      "ম্যাজি": 5313,
      "সোনা": 5314,
      "সোহেল": 5315,
      "সোশ্যাল": 5316,
      "গণফোরাম": 5317,
      "আলোকে": 5318,
      "জাতীয়তা": 5319,
      "উত্তীর্ণ": 5320,
      "আনতে": 5321,
      "মেরিটাইম": 5322,
      "স্থানঃ": 5323,
      "জানাতে": 5324,
      "চুক্তির": 5325,
      "পুরাত": 5326,
      "স্ত্রীর": 5327,
      "ভালোবাসা": 5328,
      "কমিউনি": 5329,
      "পালের": 5330,
      "০১৮": 5331,
      "০১৮৪": 5332,
      "নেতাকর্মী": 5333,
      "ঘাঁ": 5334,
      "ঘাতী": 5335,
      "কাছেও": 5336,
      "করিনি": 5337,
      "প্রেক্ষিতে": 5338,
      "নিহতের": 5339,
      "বাড়ছে": 5340,
      "বাড়িয়ে": 5341,
      "প্রিয়া": 5342,
      "প্রিন্ট": 5343,
      "রাষ্ট্রের": 5344,
      "রাষ্ট্রদূত": 5345,
      "এসেছি": 5346,
      "পড়ল": 5347,
      "পড়েন": 5348,
      "ফ্রান্": 5349,
      "হুদা": 5350,
      "হুমায়": 5351,
      "হরণ": 5352,
      "পাঠিয়ে": 5353,
      "পাঠানোর": 5354,
      "সংবাদদাতা": 5355,
      "দুর্বৃত্ত": 5356,
      "দুর্নীতির": 5357,
      "দশম": 5358,
      "কর্মকর্তাকে": 5359,
      "ম্বা": 5360,
      "বিশেষজ্ঞ": 5361,
      "স্ট্রাই": 5362,
      "হাজারী": 5363,
      "মাত্রার": 5364,
      "ট্টা": 5365,
      "বয়ক": 5366,
      "ফরমে": 5367,
      "তীয়": 5368,
      "তীব্র": 5369,
      "দূরের": 5370,
      "বর্গ": 5371,
      "বর্ধন": 5372,
      "সিংদী": 5373,
      "রেখেছে": 5374,
      "বিশ্ববিদ্যালয়ে": 5375,
      "তৈরির": 5376,
      "বসতে": 5377,
      "ময়নাতদন্ত": 5378,
      "উইন্ড": 5379,
      "আইনজীবী": 5380,
      "কলেজে": 5381,
      "নোটিশ": 5382,
      "নোত্তর": 5383,
      "ঠিকানা": 5384,
      "বদরুলের": 5385,
      "বৈচিত্র": 5386,
      "ব্যাংকিং": 5387,
      "চিকিৎসার": 5388,
      "চৌধুরীর": 5389,
      "ata": 5390,
      "attar": 5391,
      "সিদ্ধার্থ": 5392,
      "খালি": 5393,
      "আগামীকাল": 5394,
      "দক্ষিণে": 5395,
      "উৎসাহ": 5396,
      "অংশগ্রহণ": 5397,
      "পরিশোধপদ্ধতিঃ": 5398,
      "চোখ": 5399,
      "বরাবরে": 5400,
      "মিলিত": 5401,
      "মিলনের": 5402,
      "রেজিষ্ট্রে": 5403,
      "বৃদ্ধা": 5404,
      "গ্রেফতারের": 5405,
      "পদক্ষেপ": 5406,
      "সড়কের": 5407,
      "কারাগারে": 5408,
      "মেয়েকে": 5409,
      "মুক্তিযো": 5410,
      "নিরাপদ": 5411,
      "জীবনে": 5412,
      "এক্সএস": 5413,
      "পর্বের": 5414,
      "৩৫৮৪": 5415,
      "প্রার্থীদের": 5416,
      "আলমগীর": 5417,
      "ক্ষমতায়ন": 5418,
      "আত্মসমর্": 5419,
      "সিরিজে": 5420,
      "বক্তব্যের": 5421,
      "lect": 5422,
      "str": 5423,
      "ভাঙার": 5424,
      "উপস্থিতি": 5425,
      "আশঙ্কা": 5426,
      "ক্যারি": 5427,
      "ভোরে": 5428,
      "ভোকেট": 5429,
      "৩৩৩৯": 5430,
      "যাত্রার": 5431,
      "ট্যাক্স": 5432,
      "ট্যাংকার": 5433,
      "দৃষ্টান্ত": 5434,
      "কার্যালয়ের": 5435,
      "নারীকে": 5436,
      "মাহমুদের": 5437,
      "ited": 5438,
      "পৃথ": 5439,
      "প্যাডে": 5440,
      "বলিউড": 5441,
      "শরণ": 5442,
      "হ্যাঁ": 5443,
      "বাস্তব": 5444,
      "রাশিয়া": 5445,
      "প্লাস": 5446,
      "প্লাস্টিক": 5447,
      "ফেসবুকের": 5448,
      "উঠতে": 5449,
      "চার্জার": 5450,
      "নগরে": 5451,
      "রূপান্তর": 5452,
      "সুরমা": 5453,
      "নির্মাণের": 5454,
      "এলজি": 5455,
      "বগুড়ায়": 5456,
      "লালবাতি": 5457,
      "ব্যক্তিত্ব": 5458,
      "সৈন্য": 5459,
      "সাতক্ষ": 5460,
      "দাঁড়ি": 5461,
      "৯৫৫৩৫৮৪": 5462,
      "আকবর": 5463,
      "পড়তে": 5464,
      "ফারুক": 5465,
      "সময়ের": 5466,
      "ভিয়েতনামে": 5467,
      "চাঁদপুর": 5468,
      "চাঁপাইন": 5469,
      "ব্যবসায়ীরা": 5470,
      "ইলেক": 5471,
      "ডাকাতি": 5472,
      "৩৭১": 5473,
      "চলচ্চিত্রের": 5474,
      "মামুনুল": 5475,
      "উদ্যোক্ত": 5476,
      "আন্দোলনের": 5477,
      "কাগজপত্র": 5478,
      "আবুলের": 5479,
      "ঐক্যবদ্ধ": 5480,
      "খিলক্ষেত": 5481,
      "সফট": 5482,
      "বিসিবি": 5483,
      "মাসুদ": 5484,
      "দুঃখ": 5485,
      "শ্রীল": 5486,
      "মূল্যবান": 5487,
      "শ্রেণির": 5488,
      "রোহিঙ্গাদের": 5489,
      "ক্যাম্পে": 5490,
      "নরসিংদী": 5491,
      "রামগড়": 5492,
      "পরিবারে": 5493,
      "চ্ছিন্ন": 5494,
      "০১৭১১৩৩৩৯": 5495,
      "আওতায়": 5496,
      "সহিহ": 5497,
      "সহিংসতা": 5498,
      "কাঁচা": 5499,
      "পাসপোর্ট": 5500,
      "তারেকের": 5501,
      "যুবলীগ": 5502,
      "সহযোগিতায়": 5503,
      "ফায়ার": 5504,
      "লাগছে": 5505,
      "মুজিবুর": 5506,
      "দ্বীপ": 5507,
      "মৌসুমী": 5508,
      "তৎপর": 5509,
      "নবীগঞ্জ": 5510,
      "গাজীপুর": 5511,
      "গাজীপুরের": 5512,
      "ব্যাটসম্যান": 5513,
      "কলকাতা": 5514,
      "কলকাতার": 5515,
      "ব্রাউজার": 5516,
      "songs": 5517,
      "ঐতিহ্য": 5518,
      "নুরুল": 5519,
      "নম্বরে": 5520,
      "পিতার": 5521,
      "পঞ্চম": 5522,
      "সাক্ষাৎকার": 5523,
      "আনুষ্ঠানিক": 5524,
      "নোয়াখালী": 5525,
      "http": 5526,
      "সাহিত্যিক": 5527,
      "ight": 5528,
      "আঘাত": 5529,
      "পল্লী": 5530,
      "বাঙালি": 5531,
      "সিনেমা": 5532,
      "ব্যবধানে": 5533,
      "ইউপিডি": 5534,
      "হরতালের": 5535,
      "প্রাপ্তিস্থানঃ": 5536,
      "ধারাবাহিকতা": 5537,
      "link": 5538,
      "আদিবাসী": 5539,
      "কষ্টের": 5540,
      "নান্টু": 5541,
      "বিবৃতি": 5542,
      "প্রত্যক্ষ": 5543,
      "কার্ট": 5544,
      "মিনারেল": 5545,
      "সিভিল": 5546,
      "সহজেই": 5547,
      "কমপ্লেক্স": 5548,
      "ডাক্তারের": 5549,
      "১৯৯০": 5550,
      "প্রশাসনের": 5551,
      "অনিচ্ছুক": 5552,
      "বস্তু": 5553,
      "পায়ূ": 5554,
      "মেগাহার্": 5555,
      "ডিএসই": 5556,
      "হোসেন": 5557,
      "অ্যাকাউন্ট": 5558,
      "tits": 5559,
      "নেতৃবৃন্দ": 5560,
      "পৃষ্ঠা": 5561,
      "জার্মানির": 5562,
      "টেলিভিশন": 5563,
      "খেলোয়াড়": 5564,
      "cns": 5565,
      "আক্রাম": 5566,
      "ডোমেইন": 5567,
      "শমসের": 5568,
      "বিপরীতে": 5569,
      "দিল্লি": 5570,
      "সিস্টেম": 5571,
      "সেক্রেটারি": 5572,
      "স্ট্যান্ডার্ড": 5573,
      "চলনবিল": 5574,
      "ইস্যুতে": 5575,
      "নিশ্চয়ই": 5576,
      "উৎপাদন": 5577,
      "জিম্বাবুয়ে": 5578,
      "অবরোধ": 5579,
      "আর্থিক": 5580,
      "ঘুরে": 5581,
      "ঠান্ডা": 5582,
      "তৃতীয়": 5583,
      "সান্ধ্য": 5584,
      "ব্যতিক্রম": 5585,
      "জিজ্ঞাসা": 5586,
      "জানুয়ারী": 5587,
      "জায়গা": 5588,
      "সুন্দরী": 5589,
      "উপদেষ্টা": 5590,
      "ফিটনেস": 5591,
      "ডেমোক্রে": 5592,
      "নিরপেক্ষ": 5593,
      "বৈশিষ্ট্য": 5594,
      "কাউন্সিলর": 5595,
      "ব্রাহ্মণ": 5596,
      "PHONEKY": 5597,
      "tamil": 5598,
      "youtu": 5599,
      "অদ্ভুত": 5600,
      "ওষু": 5601,
      "ওসমানী": 5602,
      "চব্বিশ": 5603,
      "জকিগঞ্জ": 5604,
      "জসীমউদ্দীন": 5605,
      "ভান্ডার": 5606,
      "রবীন্দ্র": 5607,
      "ষড়যন্ত্র": 5608,
      "হঠাৎ": 5609,
      "বিনিয়োগ": 5610,
      "নিক্ষেপের": 5611,
      "প্রচলিত": 5612,
      "প্রকৌশলী": 5613,
      "মুম্বাই": 5614,
      "মোবইিলঃ": 5615,
      "সুপ্রিম": 5616,
      "কালিয়াক": 5617,
      "পুরাতন": 5618,
      "দুর্বৃত্তরা": 5619,
      "রেজিষ্ট্রেশন": 5620,
      "চাঁপাইনবাবগঞ্জ": 5621,
      "০১৭১১৩৩৩৯৮১": 5622,
      ")-": 5623,
      "0m": 5624,
      "112": 5625,
      "25": 5626,
      "60": 5627,
      "80": 5628,
      "83": 5629,
      "85": 5630,
      "90": 5631,
      "92": 5632,
      "Add": 5633,
      "COM": 5634,
      "Data": 5635,
      "IC": 5636,
      "IN": 5637,
      "Ma": 5638,
      "Pr": 5639,
      "Pro": 5640,
      "SY": 5641,
      "Saf": 5642,
      "Th": 5643,
      "Win": 5644,
      "ac": 5645,
      "bad": 5646,
      "bun": 5647,
      "boo": 5648,
      "con": 5649,
      "cha": 5650,
      "ction": 5651,
      "du": 5652,
      "des": 5653,
      "day": 5654,
      "ea": 5655,
      "fa": 5656,
      "four": 5657,
      "ge": 5658,
      "gh": 5659,
      "gu": 5660,
      "gal": 5661,
      "ipping": 5662,
      "kal": 5663,
      "ly": 5664,
      "mo": 5665,
      "mov": 5666,
      "pu": 5667,
      "por": 5668,
      "qu": 5669,
      "sw": 5670,
      "une": 5671,
      "xx": 5672,
      "ya": 5673,
      "।'": 5674,
      "অন্ধ": 5675,
      "অভাবে": 5676,
      "অরু": 5677,
      "অষ্ট": 5678,
      "অত্যা": 5679,
      "অস্বীকার": 5680,
      "অংশে": 5681,
      "অসহায়": 5682,
      "অপরিহার": 5683,
      "অশ্লীল": 5684,
      "আত": 5685,
      "আধ": 5686,
      "আলি": 5687,
      "আগ্র": 5688,
      "আজা": 5689,
      "আঁচ": 5690,
      "আড়াই": 5691,
      "আন্ডার": 5692,
      "ইভ": 5693,
      "ইনি": 5694,
      "ইহা": 5695,
      "ইমে": 5696,
      "ইভি": 5697,
      "ইভে": 5698,
      "ইন্ড": 5699,
      "ইঙ্ক": 5700,
      "ঈদে": 5701,
      "ঈদের": 5702,
      "এন্": 5703,
      "এদিন": 5704,
      "এবারের": 5705,
      "এভাবেই": 5706,
      "এড়াতে": 5707,
      "এগিয়ে": 5708,
      "এএসপি": 5709,
      "ওনা": 5710,
      "ওরা": 5711,
      "ওদের": 5712,
      "ওলার": 5713,
      "ওঠা": 5714,
      "ওসমান": 5715,
      "ওভারে": 5716,
      "কই": 5717,
      "কুল": 5718,
      "কব্": 5719,
      "কানো": 5720,
      "কথিত": 5721,
      "খস": 5722,
      "খুন": 5723,
      "খ্যান": 5724,
      "গঙ্গ": 5725,
      "গরু": 5726,
      "গানের": 5727,
      "গানি": 5728,
      "গলায়": 5729,
      "গার্ড": 5730,
      "ঘে": 5731,
      "ঘবদ্ধ": 5732,
      "ঘ্রা": 5733,
      "ঙঘবদ্ধ": 5734,
      "চকে": 5735,
      "চিক": 5736,
      "চনায়": 5737,
      "চোট": 5738,
      "চত্ব": 5739,
      "চ্যু": 5740,
      "ছো": 5741,
      "ছায়": 5742,
      "ছানা": 5743,
      "ছহী": 5744,
      "জং": 5745,
      "জব": 5746,
      "জড়": 5747,
      "জদার": 5748,
      "জড়িয়ে": 5749,
      "জব্ব": 5750,
      "টুল": 5751,
      "টনের": 5752,
      "টানের": 5753,
      "টেন্ট": 5754,
      "টর্নি": 5755,
      "ডোন": 5756,
      "ঢুক": 5757,
      "ণায়": 5758,
      "তথা": 5759,
      "তালে": 5760,
      "থের": 5761,
      "থার্": 5762,
      "দহ": 5763,
      "দনের": 5764,
      "দর্শ": 5765,
      "দর্শন": 5766,
      "দফায়": 5767,
      "ধী": 5768,
      "ধায়": 5769,
      "ধরিয়ে": 5770,
      "নই": 5771,
      "নট": 5772,
      "নয়া": 5773,
      "নৃত": 5774,
      "নবীর": 5775,
      "নবাবগঞ্জ": 5776,
      "পঃ": 5777,
      "পস": 5778,
      "পনি": 5779,
      "পলা": 5780,
      "পলি": 5781,
      "প্প": 5782,
      "পীর": 5783,
      "পঞ্": 5784,
      "পড়া": 5785,
      "প্যান্": 5786,
      "ফট": 5787,
      "ফয়": 5788,
      "ফার্": 5789,
      "ফরে": 5790,
      "ফজল": 5791,
      "বউ": 5792,
      "বট": 5793,
      "বহি": 5794,
      "বহার": 5795,
      "বসের": 5796,
      "বস্ত্র": 5797,
      "বয়ো": 5798,
      "বতী": 5799,
      "ভৈর": 5800,
      "ভালো": 5801,
      "ভর্তির": 5802,
      "মম": 5803,
      "মঞ্": 5804,
      "মজু": 5805,
      "মজুম": 5806,
      "মহেশ": 5807,
      "যানে": 5808,
      "যরত": 5809,
      "রয়": 5810,
      "ররা": 5811,
      "রঙ্গ": 5812,
      "রানী": 5813,
      "রিলি": 5814,
      "লক্ষে": 5815,
      "লন্ড": 5816,
      "লম্বা": 5817,
      "ষষ্ঠ": 5818,
      "সঃ": 5819,
      "সল": 5820,
      "স্র": 5821,
      "সকলে": 5822,
      "সঙঘবদ্ধ": 5823,
      "হরা": 5824,
      "হুল": 5825,
      "হলি": 5826,
      "হরি": 5827,
      "হবেন": 5828,
      "হযরত": 5829,
      "াণ": 5830,
      "াদের": 5831,
      "াক্ত": 5832,
      "াগা": 5833,
      "াবলী": 5834,
      "িস": 5835,
      "িকে": 5836,
      "ীকার": 5837,
      "ুম": 5838,
      "ুকেট": 5839,
      "ুজ্জামান": 5840,
      "ূন": 5841,
      "ৈধ": 5842,
      "োপ": 5843,
      "্টি": 5844,
      "্মেল": 5845,
      "্গুন": 5846,
      "ৎসর": 5847,
      "ড়ী": 5848,
      "ড়তে": 5849,
      "০৬": 5850,
      "০৯": 5851,
      "০৯৬": 5852,
      "২টি": 5853,
      "২১৫": 5854,
      "৩য়": 5855,
      "৪১": 5856,
      "৪০০": 5857,
      "৪০০০": 5858,
      "৫০০০": 5859,
      "৬৪": 5860,
      "৬৯": 5861,
      "৬টা": 5862,
      "৬০০": 5863,
      "৭৭": 5864,
      "৭০০০": 5865,
      "৮ম": 5866,
      "৯৮": 5867,
      "‍‌": 5868,
      "‘‘": 5869,
      "”।": 5870,
      "্রু": 5871,
      "ানন্দ": 5872,
      "করত": 5873,
      "করছিলেন": 5874,
      "করুণ": 5875,
      "বিপ": 5876,
      "বিনি": 5877,
      "বিরা": 5878,
      "বিয়া": 5879,
      "বিয়ার": 5880,
      "বিডি": 5881,
      "বিকাল": 5882,
      "বিহার": 5883,
      "বিশ্র": 5884,
      "বিবাহ": 5885,
      "বিনিম": 5886,
      "বিরো": 5887,
      "বিঘ্": 5888,
      "বিআইড": 5889,
      "বিচ্ছিন্ন": 5890,
      "নিঃ": 5891,
      "নিউ": 5892,
      "নিকে": 5893,
      "নিটি": 5894,
      "নিবেদন": 5895,
      "নিবন্ধন": 5896,
      "বাচ": 5897,
      "বাজা": 5898,
      "বাদা": 5899,
      "বাঙ্গ": 5900,
      "বাপের": 5901,
      "বাবুল": 5902,
      "বাবদ": 5903,
      "বাহিত": 5904,
      "কেশ": 5905,
      "কো": 5906,
      "কোন": 5907,
      "কেউই": 5908,
      "কোনো": 5909,
      "প্রকার": 5910,
      "প্রভা": 5911,
      "প্রবন্ধ": 5912,
      "প্রয়ো": 5913,
      "প্রযো": 5914,
      "প্রসঙ্গত": 5915,
      "াল্ড": 5916,
      "ালাই": 5917,
      "র্কম": 5918,
      "র্ভুক্ত": 5919,
      "বো": 5920,
      "বেড়ে": 5921,
      "বেতন": 5922,
      "টিল": 5923,
      "টিসি": 5924,
      "কাট": 5925,
      "কাহি": 5926,
      "কাছা": 5927,
      "কাছি": 5928,
      "লেগেছে": 5929,
      "লোক": 5930,
      "নাজি": 5931,
      "স্পা": 5932,
      "স্মর": 5933,
      "স্কৃতিক": 5934,
      "স্মার্ট": 5935,
      "লাশের": 5936,
      "রাও": 5937,
      "রাকি": 5938,
      "রাখে": 5939,
      "রাশেদ": 5940,
      "তাফ": 5941,
      "পরই": 5942,
      "পরও": 5943,
      "দিয়া": 5944,
      "দিখান": 5945,
      "দিচ্ছি": 5946,
      "দেয়া": 5947,
      "দেহের": 5948,
      "মাথা": 5949,
      "মাইল": 5950,
      "ন্সি": 5951,
      "ন্ডি": 5952,
      "কারনে": 5953,
      "কার্স": 5954,
      "ুরিয়া": 5955,
      "মিং": 5956,
      "মিশ": 5957,
      "মিজান": 5958,
      "মিরাজ": 5959,
      "মিতু": 5960,
      "মিষ্টি": 5961,
      "মিশিয়ে": 5962,
      "ক্ষি": 5963,
      "ক্ষুদ্র": 5964,
      "সমী": 5965,
      "সম্ম": 5966,
      "সমক্ষে": 5967,
      "পাতে": 5968,
      "পাস্তা": 5969,
      "পাড়ার": 5970,
      "পাবলি": 5971,
      "পাছায়": 5972,
      "সিয়ে": 5973,
      "সিম্": 5974,
      "সিদ্দি": 5975,
      "সিজদার": 5976,
      "সেলের": 5977,
      "সেলিম": 5978,
      "জনসভায়": 5979,
      "সাক": 5980,
      "সাক্ষ": 5981,
      "সাভার": 5982,
      "সাধার": 5983,
      "কিনা": 5984,
      "য়তপুর": 5985,
      "য়েন্দা": 5986,
      "টাকে": 5987,
      "টাফরে": 5988,
      "হাব": 5989,
      "হাটে": 5990,
      "মেলার": 5991,
      "মেটাতে": 5992,
      "ার্ক": 5993,
      "থাকল": 5994,
      "কোড": 5995,
      "কোষ": 5996,
      "ঙ্কার": 5997,
      "ঙ্ঘন": 5998,
      "দেশী": 5999,
      "দেশজুড়ে": 6000,
      "মানী": 6001,
      "িকভাবে": 6002,
      "ব্যয়": 6003,
      "ব্যাল": 6004,
      "ব্যর্থ": 6005,
      "শিপিং": 6006,
      "সংক্র": 6007,
      "সংযুক্ত": 6008,
      "সংসর্": 6009,
      "সংবাদে": 6010,
      "সংবাদের": 6011,
      "সংগী": 6012,
      "পরিধান": 6013,
      "পরিবহ": 6014,
      "পরিমাণ": 6015,
      "পরিষ্কার": 6016,
      "পরিবেশন": 6017,
      "জিয়াম": 6018,
      "লিশ": 6019,
      "লিপি": 6020,
      "ক্তন": 6021,
      "যাজক": 6022,
      "মুরা": 6023,
      "মুশফিক": 6024,
      "মুন্না": 6025,
      "মুন্সি": 6026,
      "হয়েছি": 6027,
      "হয়েছিলেন": 6028,
      "পিএস": 6029,
      "টেবল": 6030,
      "স্তফা": 6031,
      "জানালে": 6032,
      "জানালা": 6033,
      "পারমাণ": 6034,
      "রিকা": 6035,
      "রিয়ার": 6036,
      "জাহ": 6037,
      "জাহি": 6038,
      "দুস": 6039,
      "দুটির": 6040,
      "দুদক": 6041,
      "দুটো": 6042,
      "দুশ্চি": 6043,
      "প্রতিযোগ": 6044,
      "প্রতিক্রি": 6045,
      "প্রতিবছর": 6046,
      "প্রতিফল": 6047,
      "প্রতিযোগি": 6048,
      "দাই": 6049,
      "দাবা": 6050,
      "দাওয়া": 6051,
      "দাদুল": 6052,
      "দাঙ্গা": 6053,
      "দাফন": 6054,
      "বলার": 6055,
      "বললে": 6056,
      "বলছে": 6057,
      "মোড়": 6058,
      "মোটা": 6059,
      "মোহাম": 6060,
      "মোজাম": 6061,
      "মোতায়": 6062,
      "মোমিন": 6063,
      "মোস্তফা": 6064,
      "চ্ছিলেন": 6065,
      "হিউ": 6066,
      "ডিফ": 6067,
      "ডিম": 6068,
      "যেটি": 6069,
      "জন্যই": 6070,
      "শাকি": 6071,
      "স্থির": 6072,
      "সুপারি": 6073,
      "সুযোগ্য": 6074,
      "সুন্না": 6075,
      "এরই": 6076,
      "এরশাদ": 6077,
      "খেয়ে": 6078,
      "খেসার": 6079,
      "ক্রয়": 6080,
      "ক্রমে": 6081,
      "ট্রন": 6082,
      "ট্রেড": 6083,
      "সবজি": 6084,
      "করতেই": 6085,
      "লোয়ার": 6086,
      "পেল": 6087,
      "পেপার": 6088,
      "টারী": 6089,
      "টারের": 6090,
      "নামার": 6091,
      "নামছে": 6092,
      "চেপে": 6093,
      "ছাপ": 6094,
      "কর্মের": 6095,
      "অনুভব": 6096,
      "েন্সের": 6097,
      "হতো": 6098,
      "বলেছি": 6099,
      "্যানে": 6100,
      "দোয়ার": 6101,
      "দোহার": 6102,
      "সম্মুখ": 6103,
      "গাং": 6104,
      "গাহ": 6105,
      "ত্তা": 6106,
      "সহ্য": 6107,
      "সহকারে": 6108,
      "ফিট": 6109,
      "ইলম": 6110,
      "আসনের": 6111,
      "দিয়েছি": 6112,
      "য়েড": 6113,
      "আইটি": 6114,
      "আইজু": 6115,
      "ভেজ": 6116,
      "ভেল": 6117,
      "ভেঙ্গে": 6118,
      "শুটিং": 6119,
      "ান্তা": 6120,
      "অবৈধ": 6121,
      "মধ্যেও": 6122,
      "োনো": 6123,
      "তোমরা": 6124,
      "চালুর": 6125,
      "চালানোর": 6126,
      "লাইনের": 6127,
      "ীনগর": 6128,
      "স্টক": 6129,
      "স্ট্যাম্প": 6130,
      "ওয়্যার": 6131,
      "অভিভাব": 6132,
      "জেলায়": 6133,
      "লামা": 6134,
      "বুথ": 6135,
      "ফোন": 6136,
      "রোগে": 6137,
      "ব্যাটারি": 6138,
      "ঞ্জের": 6139,
      "ঞ্জাম": 6140,
      "দলিল": 6141,
      "চারপাশে": 6142,
      "ছিলে": 6143,
      "বাসস": 6144,
      "রাজ্য": 6145,
      "রাজ্যের": 6146,
      "রাজবাড়ী": 6147,
      "নীল": 6148,
      "নীয়": 6149,
      "নীচের": 6150,
      "আল্": 6151,
      "আলুর": 6152,
      "আলীর": 6153,
      "আল্লাহ": 6154,
      "আলতাফ": 6155,
      "আগষ্ট": 6156,
      "অনেকের": 6157,
      "বৃটিশ": 6158,
      "বৃষ্টির": 6159,
      "হোটে": 6160,
      "কিছুদিন": 6161,
      "কিছুতেই": 6162,
      "জেরি": 6163,
      "জুয়েল": 6164,
      "হেঁটে": 6165,
      "দারুণ": 6166,
      "পোষ": 6167,
      "গোপনে": 6168,
      "গোয়েন্দা": 6169,
      "অর্জনের": 6170,
      "প্রাণি": 6171,
      "প্রাইভে": 6172,
      "প্রাক্তন": 6173,
      "গঞ্জের": 6174,
      "পুলিশে": 6175,
      "ব্দ": 6176,
      "ব্বির": 6177,
      "সার্টিফি": 6178,
      "ূলুল্লাহ": 6179,
      "ind": 6180,
      "কুম": 6181,
      "কুপিয়ে": 6182,
      "ইউনাই": 6183,
      "উদ্দেশে": 6184,
      "উদ্বেগ": 6185,
      "বোলিং": 6186,
      "এনসি": 6187,
      "সভায়": 6188,
      "হলেই": 6189,
      "থাকবেন": 6190,
      "বিশ্বব্যাপী": 6191,
      "প্রকাশ্যে": 6192,
      "আজবে": 6193,
      "আজকাল": 6194,
      "আজমল": 6195,
      "ইনস্টি": 6196,
      "ইসলামকে": 6197,
      "সম্পাদিত": 6198,
      "বন্য": 6199,
      "টাকায়": 6200,
      "১০টি": 6201,
      "দেখবেন": 6202,
      "গুহ": 6203,
      "গুলে": 6204,
      "শোভা": 6205,
      "সালমা": 6206,
      "স্বাগত": 6207,
      "স্বাক্ষর": 6208,
      "সাইফুল": 6209,
      "টুলা": 6210,
      "বিদায়": 6211,
      "বাইরের": 6212,
      "অধিবেশ": 6213,
      "ধুলা": 6214,
      "আহমে": 6215,
      "পরিচালনার": 6216,
      "অ্যাটর্নি": 6217,
      "ম্যাগ": 6218,
      "ধাপ": 6219,
      "সোহরা": 6220,
      "হত্যাচেষ্টা": 6221,
      "হত্যাকাণ্ড": 6222,
      "গণমাধ্যম": 6223,
      "গণতান্ত্রিক": 6224,
      "প্রথমবার": 6225,
      "জামায়া": 6226,
      "আলোচিত": 6227,
      "আনন্দের": 6228,
      "মেরিন": 6229,
      "গিয়েছে": 6230,
      "ছাড়াই": 6231,
      "থিন": 6232,
      "গ্রহণে": 6233,
      "হোসেনকে": 6234,
      "পুত্র": 6235,
      "ভালোভাবে": 6236,
      "ভালোবাস": 6237,
      "omi": 6238,
      "ঘাত": 6239,
      "অর্থমন্ত্রী": 6240,
      "ধরার": 6241,
      "ত্বকের": 6242,
      "শালা": 6243,
      "রাষ্ট্রীয়": 6244,
      "টাইপ": 6245,
      "কর্মকর্তার": 6246,
      "rect": 6247,
      "ধরেই": 6248,
      "যৌনকর্মীর": 6249,
      "পড়ুন": 6250,
      "ফ্রন্": 6251,
      "ফ্রস্ট": 6252,
      "লক্ষী": 6253,
      "দেশেই": 6254,
      "উন্নয়": 6255,
      "অনুষ্ঠানের": 6256,
      "বানিয়ে": 6257,
      "বানানোর": 6258,
      "১২৩৮": 6259,
      "পাঠা": 6260,
      "সমাজের": 6261,
      "সমাবেশে": 6262,
      "ঠেকাতে": 6263,
      "দশকের": 6264,
      "বিমানে": 6265,
      "ধর্মের": 6266,
      "১৫২১৫": 6267,
      "কয়েকদিন": 6268,
      "ম্ভ": 6269,
      "ঘটনাস্থ": 6270,
      "ভূত": 6271,
      "কামনা": 6272,
      "কামরুল": 6273,
      "খানকার": 6274,
      "কনটেন্ট": 6275,
      "বয়সের": 6276,
      "oun": 6277,
      "অফিসে": 6278,
      "গঠনের": 6279,
      "দপ্তর": 6280,
      "চৌদি": 6281,
      "তীর্থ": 6282,
      "বর্জন": 6283,
      "বর্ডার": 6284,
      "রেখেছেন": 6285,
      "সম্পর্কের": 6286,
      "উন্মো": 6287,
      "উন্মুক্ত": 6288,
      "কেনা": 6289,
      "বসত": 6290,
      "ব্যবস্থাপক": 6291,
      "উইলি": 6292,
      "লেখায়": 6293,
      "কেন্দ্রীয়": 6294,
      "ত্‍‌": 6295,
      "কবিতার": 6296,
      "ঘোষিত": 6297,
      "পার্টি": 6298,
      "তুলেছে": 6299,
      "তুলেছেন": 6300,
      "ইঞ্জিন": 6301,
      "দেখেছি": 6302,
      "চীনা": 6303,
      "ভাইরাস": 6304,
      "ed19": 6305,
      "উল্টে": 6306,
      "খালেদার": 6307,
      "ari": 6308,
      "খালা": 6309,
      "খ্যাঃ": 6310,
      "পণ্যের": 6311,
      "কোর্ট": 6312,
      "আগামীতে": 6313,
      "ব্লকের": 6314,
      "পদ্ধতিতে": 6315,
      "উৎস": 6316,
      "ন্দর্য": 6317,
      "অতিথির": 6318,
      "১৪১": 6319,
      "১৪৩": 6320,
      "্যারো": 6321,
      "মাঝারি": 6322,
      "কল্পনা": 6323,
      "121": 6324,
      "ades": 6325,
      "বার্সেলো": 6326,
      "মৌখিক": 6327,
      "স্টেশন": 6328,
      "স্টেডিয়াম": 6329,
      "ভবনটি": 6330,
      "মন্দিরে": 6331,
      "রেজিস্ট্র": 6332,
      "জাহাজে": 6333,
      "পথচার": 6334,
      "সড়কে": 6335,
      "কারাগার": 6336,
      "কারাদণ্ড": 6337,
      "আরোপ": 6338,
      "বুঝি": 6339,
      "উপরের": 6340,
      "টেনে": 6341,
      "বাঁশ": 6342,
      "বাঁচার": 6343,
      "বাঁড়ার": 6344,
      "হিসাবের": 6345,
      "এতদিন": 6346,
      "এক্সচেঞ্জ": 6347,
      "তখনই": 6348,
      "পর্বে": 6349,
      "শ্রেণী": 6350,
      "সর্বত্র": 6351,
      "113": 6352,
      "115": 6353,
      "117": 6354,
      "আত্মহত্যা": 6355,
      "আত্মঘাতী": 6356,
      "দুরূ": 6357,
      "মুক্তির": 6358,
      "গ্রুপে": 6359,
      "বাসীকে": 6360,
      "অন্তর": 6361,
      "ভাঙতে": 6362,
      "গেলেও": 6363,
      "নির্দেশনা": 6364,
      "নাইদহ": 6365,
      "চ্ছাসে": 6366,
      "নীতিমালা": 6367,
      "চুক্তিতে": 6368,
      "মালিকদের": 6369,
      "প্রতিষ্ঠানটি": 6370,
      "নাগরিককে": 6371,
      "নাগরিকদের": 6372,
      "104": 6373,
      "যাত্রায়": 6374,
      "যাত্রীদের": 6375,
      "স্বীকৃতি": 6376,
      "গবেষণায়": 6377,
      "ইয়াসিন": 6378,
      "দৃঢ়": 6379,
      "বুরহান": 6380,
      "সৌন্দর্য": 6381,
      "২৭৮৭": 6382,
      "ক্লাব": 6383,
      "ম্যাচের": 6384,
      "এডুকেট": 6385,
      "চায়না": 6386,
      "প্যাড": 6387,
      "প্রত্যাশ": 6388,
      "প্রত্যাশী": 6389,
      "পাখিশিকারি": 6390,
      "২০০৬": 6391,
      "২০০৮": 6392,
      "অপরাধে": 6393,
      "agra": 6394,
      "আর্ন": 6395,
      "কতটা": 6396,
      "দণ্ডের": 6397,
      "বাস্তবে": 6398,
      "বাস্তবায়ন": 6399,
      "মিডিয়া": 6400,
      "মুসল": 6401,
      "উঠবে": 6402,
      "চার্জ": 6403,
      "পুনঃ": 6404,
      "ভরসা": 6405,
      "২৬৯৯": 6406,
      "প্রমাণিত": 6407,
      "আনন্দবাজার": 6408,
      "কলেজছাত্রী": 6409,
      "সন্তানকে": 6410,
      "সংঘর্ষের": 6411,
      "চামড়া": 6412,
      "তৃপ্তি": 6413,
      "নানাবিধ": 6414,
      "বাণিজ্যে": 6415,
      "লাভের": 6416,
      "মিথিলার": 6417,
      "মৃত্যুদণ্ড": 6418,
      "140": 6419,
      "একেএম": 6420,
      "একেবারে": 6421,
      "নথিপত্র": 6422,
      "নিয়মিত": 6423,
      "নিয়ন্ত্রণ": 6424,
      "প্রশাসক": 6425,
      "র্কতাদের": 6426,
      "দাঁড়া": 6427,
      "দাঁড়িয়ে": 6428,
      "পূরণে": 6429,
      "৯৫৫২৬৯৯": 6430,
      "বন্দী": 6431,
      "রবিউল": 6432,
      "সুলতান": 6433,
      "তারপরও": 6434,
      "ভিয়েতনাম": 6435,
      "ফাঁস": 6436,
      "সন্ধ্যায়": 6437,
      "ফ্লাইটটি": 6438,
      "কাগজহীন": 6439,
      "ওয়েস্ট": 6440,
      "গ্রাহক": 6441,
      "গ্রাহকের": 6442,
      "ইন্সটাফরে": 6443,
      "করপোরেশন": 6444,
      "ক্যাম্পের": 6445,
      "নূরুল": 6446,
      "শৃং": 6447,
      "শব্দে": 6448,
      "কর্ণ": 6449,
      "তালিকাভুক্ত": 6450,
      "সন্ত্রাস": 6451,
      "কান্দা": 6452,
      "শরীয়তপুর": 6453,
      "কায়দায়": 6454,
      "মানেই": 6455,
      "মানিকগঞ্জ": 6456,
      "মানিকছড়ি": 6457,
      "জাতিসংঘ": 6458,
      "বোর্ডের": 6459,
      "বিশ্বকাপের": 6460,
      "ফ্রিজ": 6461,
      "152": 6462,
      "ঘুমর": 6463,
      "ঘন্টা": 6464,
      "দৌল": 6465,
      "ভক্তদের": 6466,
      "প্রস্তাবের": 6467,
      "ক্ষতিগ্রস্ত": 6468,
      "সিলিন্ডার": 6469,
      "সিডিসি": 6470,
      "মুদ্রা": 6471,
      "ট্রাকের": 6472,
      "স্বপ্নের": 6473,
      "সম্পাদনের": 6474,
      "সালাউদ্দিন": 6475,
      "আলোচনার": 6476,
      "নেতাকর্মীরা": 6477,
      "একাধিকবার": 6478,
      "দ্বীপে": 6479,
      "দ্বীপের": 6480,
      "গৃহকর্ত": 6481,
      "সংখ্যক": 6482,
      "direct": 6483,
      "এশিয়া": 6484,
      "এশিয়ান": 6485,
      "ভ্যাট": 6486,
      "মর্গে": 6487,
      "জিতেছে": 6488,
      "জাতক": 6489,
      "আমেরিকান": 6490,
      "মনোযোগ": 6491,
      "েন্টিফোর": 6492,
      "শান্তিপূর্ণ": 6493,
      "ঈদগাহ": 6494,
      "প্রক্রিয়ায়": 6495,
      "প্রভাবশালী": 6496,
      "কোরবান": 6497,
      "সংকট": 6498,
      "দাখিলের": 6499,
      "আমলকি": 6500,
      "ইউনিটের": 6501,
      "নোয়াখালীর": 6502,
      "বৈঠকে": 6503,
      "ইছলামের": 6504,
      "আজিজুল": 6505,
      "কন্ঠ": 6506,
      "ক্যামেরা": 6507,
      "গরিব": 6508,
      "বাঙালী": 6509,
      "প্রেরণ": 6510,
      "প্রেরণা": 6511,
      "পাহাড়ের": 6512,
      "সাংস্কৃতিক": 6513,
      "মান্নান": 6514,
      "দোকানের": 6515,
      "সহায়তায়": 6516,
      "আলহাজ": 6517,
      "গোলাপফুলের": 6518,
      "মারাত্মক": 6519,
      "৮৪৩২০": 6520,
      "SIM": 6521,
      "TER": 6522,
      "আয়োজনে": 6523,
      "ঝাঁকে": 6524,
      "পয়েন্ট": 6525,
      "শক্তিশালী": 6526,
      "সেন্টমার্টিন": 6527,
      "৫৮৯৫": 6528,
      "বিবৃতিতে": 6529,
      "তাড়াহু": 6530,
      "সিরাজদিখান": 6531,
      "ব্যানার": 6532,
      "পিছনে": 6533,
      "কমপ্লেক্সে": 6534,
      "রাষ্ট্রপতির": 6535,
      "মাহবুব": 6536,
      "ড্রাইভারদের": 6537,
      "ists": 6538,
      "suahm": 6539,
      "জ্যেষ্ঠ": 6540,
      "হইবে": 6541,
      "বিতরণ": 6542,
      "প্রত্যেকের": 6543,
      "নাগাদ": 6544,
      "পাবনা": 6545,
      "সাগরে": 6546,
      "সাগরের": 6547,
      "সাবধান": 6548,
      "শিখতে": 6549,
      "যাঁদের": 6550,
      "মুসাকে": 6551,
      "ভারসাম্য": 6552,
      "ভারসাম্যে": 6553,
      "ব্রোওলার": 6554,
      "সর্বাধুনিক": 6555,
      "বিমানবন্দরে": 6556,
      "বিমানবন্দরের": 6557,
      "পরীক্ষার্থীদের": 6558,
      "সন্তোষজনক": 6559,
      "বন্দুকযুদ্ধে": 6560,
      "free": 6561,
      "কমান্ডার": 6562,
      "খামারে": 6563,
      "চর্চা": 6564,
      "দখল": 6565,
      "পদ্মা": 6566,
      "শত্রু": 6567,
      "০১৯১২৩৮": 6568,
      "তেজগাঁও": 6569,
      "স্কোয়া": 6570,
      "সাকিব": 6571,
      "জান্নাত": 6572,
      "জানালেন": 6573,
      "খাদিজা": 6574,
      "অবহেলা": 6575,
      "বুর্জ": 6576,
      "দীপিকার": 6577,
      "বেশিরভাগ": 6578,
      "মতামত": 6579,
      "দুর্দশা": 6580,
      "মোটরসাইকেল": 6581,
      "র‌্যালী": 6582,
      "গাইডলাইনের": 6583,
      "place": 6584,
      "ইমরান": 6585,
      "এ্যাড": 6586,
      "কুনূ": 6587,
      "খলিফা": 6588,
      "ছালাতের": 6589,
      "ঝিনাইদহ": 6590,
      "ঢোকানো": 6591,
      "তবুও": 6592,
      "ফাল্গুন": 6593,
      "রমজান": 6594,
      "হানিফ": 6595,
      "বিজয়ী": 6596,
      "নাকচ": 6597,
      "নাসরিন": 6598,
      "সম্রাট": 6599,
      "হাবিবুর": 6600,
      "মেয়েরা": 6601,
      "সংস্কৃতি": 6602,
      "লিনাক্স": 6603,
      "অনুরোধ": 6604,
      "ক্রীড়া": 6605,
      "চাপাতির": 6606,
      "চাটমোহর": 6607,
      "ফাউন্ডেশন": 6608,
      "শ্রোতা": 6609,
      "হেফাজতে": 6610,
      "উত্তেজনা": 6611,
      "নিরীক্ষ": 6612,
      "খোঁজ": 6613,
      "নিউজিল্যান্ডের": 6614,
      "ভ্রাম্যমাণ": 6615,
      "স্পর্শকাতর": 6616,
      "ট্যাবলেট": 6617,
      "সত্যিই": 6618,
      "virgin": 6619,
      "কিংবদন্তি": 6620,
      "বান্ধব": 6621,
      "আর্জেন্টিনার": 6622,
      "United": 6623,
      "অদিতি": 6624,
      "আশ্চর": 6625,
      "আলাইহি": 6626,
      "ইতোমধ্যে": 6627,
      "কংগ্রে": 6628,
      "তরাং": 6629,
      "ধ্বে": 6630,
      "বৌদ্ধ": 6631,
      "মঈন": 6632,
      "সলেট": 6633,
      "সভ্যতার": 6634,
      "কর্পে": 6635,
      "বিদ্রো": 6636,
      "কাশ্মি": 6637,
      "লেহেঙ্গা": 6638,
      "নাদিম": 6639,
      "রাজ্জাক": 6640,
      "তাকবীর": 6641,
      "নেচেছেন": 6642,
      "নেমপ্লেটটি": 6643,
      "মেহেদী": 6644,
      "ক্রাউন": 6645,
      "সবুজ": 6646,
      "স্ট্যাটা": 6647,
      "ওয়ালটন": 6648,
      "info": 6649,
      "কুমিল্লা": 6650,
      "ভালুকা": 6651,
      "গুঁড়া": 6652,
      "শোবিজ": 6653,
      "অধিদফতরের": 6654,
      "অ্যাড্রেস": 6655,
      "০১৮৪১৫২১৫": 6656,
      "হুমায়ূন": 6657,
      "হাজারীবা": 6658,
      "মুক্তিযোদ্ধা": 6659,
      "ইলেকট্রন": 6660,
      "সফটওয়্যার": 6661,
      "তৎপরতা": 6662,
      "ইউপিডিএফ": 6663,
      "সান্ধ্যকালীন": 6664,
      "জায়গায়": 6665,
      "ব্রাহ্মণবাড়ি": 6666,
      "movies": 6667,
      "অষ্টম": 6668,
      "অপরিহার্য": 6669,
      "ঘ্রাণ": 6670,
      "চিকেন": 6671,
      "ছহীহ": 6672,
      "জব্বার": 6673,
      "ডোনাল্ড": 6674,
      "ভৈরব": 6675,
      "মজুমদার": 6676,
      "রঙ্গীন": 6677,
      "রিলিজ": 6678,
      "০৯৬১২": 6679,
      "বিরাট": 6680,
      "বিনিময়ে": 6681,
      "বিআইডব্লি": 6682,
      "র্কমর্কতাদের": 6683,
      "কাছাকাছি": 6684,
      "নাজিম": 6685,
      "মুন্সিগঞ্জ": 6686,
      "পারমাণবিক": 6687,
      "মোজাম্মেল": 6688,
      "মোতায়েন": 6689,
      "খেসারত": 6690,
      "প্রাণিসম্পদ": 6691,
      "প্রাইভেট": 6692,
      "সার্টিফিকেট": 6693,
      "ইউনাইটেড": 6694,
      "সোহরাওয়ার্": 6695,
      "ed1964": 6696,
      "suahmed1964": 6697,
      "০১৯১২৩৮২৭৮৭": 6698,
      "ফাল্গুনী": 6699,
      "virgins": 6700,
      "(/": 6701,
      "(\\": 6702,
      ");": 6703,
      "001": 6704,
      "150": 6705,
      "23": 6706,
      "26": 6707,
      "27": 6708,
      "33": 6709,
      "36": 6710,
      "49": 6711,
      "422": 6712,
      "54": 6713,
      "88": 6714,
      "8422": 6715,
      "93": 6716,
      "AN": 6717,
      "Ah": 6718,
      "Al": 6719,
      "Au": 6720,
      "Cer": 6721,
      "Cate": 6722,
      "ET": 6723,
      "En": 6724,
      "ION": 6725,
      "LO": 6726,
      "Mi": 6727,
      "NO": 6728,
      "No": 6729,
      "Paper": 6730,
      "Sh": 6731,
      "SMS": 6732,
      "Tra": 6733,
      "Wor": 6734,
      "Xia": 6735,
      "[…": 6736,
      "az": 6737,
      "are": 6738,
      "ack": 6739,
      "bo": 6740,
      "blo": 6741,
      "bangla": 6742,
      "cre": 6743,
      "dra": 6744,
      "dle": 6745,
      "fr": 6746,
      "fu": 6747,
      "fic": 6748,
      "go": 6749,
      "gor": 6750,
      "ght": 6751,
      "grou": 6752,
      "hour": 6753,
      "if": 6754,
      "iv": 6755,
      "ith": 6756,
      "ial": 6757,
      "ide": 6758,
      "ick": 6759,
      "ken": 6760,
      "less": 6761,
      "mm": 6762,
      "mu": 6763,
      "mis": 6764,
      "ned": 6765,
      "oth": 6766,
      "opping": 6767,
      "pm": 6768,
      "po": 6769,
      "pr": 6770,
      "ption": 6771,
      "pun": 6772,
      "paper": 6773,
      "ss": 6774,
      "sit": 6775,
      "tt": 6776,
      "uage": 6777,
      "wjo": 6778,
      "xs": 6779,
      "||": 6780,
      "।[": 6781,
      "।।": 6782,
      "ঁচু": 6783,
      "ংকর": 6784,
      "অল": 6785,
      "অবি": 6786,
      "অনা": 6787,
      "অলি": 6788,
      "অপরে": 6789,
      "অটো": 6790,
      "অসাধারণ": 6791,
      "অমর": 6792,
      "অজয়": 6793,
      "অয়েল": 6794,
      "অাগ": 6795,
      "অসুবিধা": 6796,
      "অমুছলিম": 6797,
      "অক্ষয়": 6798,
      "অবলম্ব": 6799,
      "আখ": 6800,
      "আয়ে": 6801,
      "আয়": 6802,
      "আমান": 6803,
      "আয়ার": 6804,
      "আযান": 6805,
      "আপাত": 6806,
      "আখ্যা": 6807,
      "আয়র": 6808,
      "আগ্রা": 6809,
      "আকর্": 6810,
      "আক্ষেপ": 6811,
      "ইও": 6812,
      "ইহ": 6813,
      "ইয়ে": 6814,
      "ইনার": 6815,
      "ইঙ্গ": 6816,
      "ইনাম": 6817,
      "ইঘাট": 6818,
      "ঈদুল": 6819,
      "ঈগল": 6820,
      "উদা": 6821,
      "উড়া": 6822,
      "উইন": 6823,
      "উঁচু": 6824,
      "ঋতু": 6825,
      "এতি": 6826,
      "এভি": 6827,
      "এজা": 6828,
      "এনাম": 6829,
      "এখানকার": 6830,
      "ঐক": 6831,
      "ওন": 6832,
      "ওজন": 6833,
      "ওযা": 6834,
      "ওভার": 6835,
      "ওএস": 6836,
      "ঔষ": 6837,
      "কস": 6838,
      "কয়": 6839,
      "কবে": 6840,
      "কটি": 6841,
      "কীর": 6842,
      "ক্যান": 6843,
      "কভার": 6844,
      "কশন": 6845,
      "কুলি": 6846,
      "কানে": 6847,
      "কলাম": 6848,
      "কষ্ট": 6849,
      "খতি": 6850,
      "খসে": 6851,
      "খির": 6852,
      "খন্ড": 6853,
      "খণ্ড": 6854,
      "খারি": 6855,
      "খতম": 6856,
      "গকে": 6857,
      "গরে": 6858,
      "গমন": 6859,
      "গরের": 6860,
      "গানে": 6861,
      "গতির": 6862,
      "গতিক": 6863,
      "গড়ে": 6864,
      "গ্লা": 6865,
      "গপ্প": 6866,
      "ঘি": 6867,
      "ঘূ": 6868,
      "ঘুষ": 6869,
      "ঘষে": 6870,
      "ঙের": 6871,
      "ঙামা": 6872,
      "চনার": 6873,
      "চ্যারি": 6874,
      "ছাল": 6875,
      "জজ": 6876,
      "জয়ে": 6877,
      "জিল": 6878,
      "জনেই": 6879,
      "জ্যাক": 6880,
      "ঝাল": 6881,
      "টপ": 6882,
      "টুর": 6883,
      "ট্যান": 6884,
      "টোন": 6885,
      "টানে": 6886,
      "ঠুর": 6887,
      "ডস": 6888,
      "ডেন": 6889,
      "ডিক": 6890,
      "ডায়া": 6891,
      "ঢে": 6892,
      "ণিক": 6893,
      "তল": 6894,
      "তৌ": 6895,
      "তীর": 6896,
      "তদার": 6897,
      "তল্লা": 6898,
      "তত্ত্": 6899,
      "তরিকা": 6900,
      "থ্র": 6901,
      "দাল": 6902,
      "দয়া": 6903,
      "দম্প": 6904,
      "নম": 6905,
      "নৃ": 6906,
      "নৈ": 6907,
      "নার্": 6908,
      "নানি": 6909,
      "পল": 6910,
      "পৈ": 6911,
      "পীয়": 6912,
      "পীন": 6913,
      "পানের": 6914,
      "পড়ি": 6915,
      "পর্ষ": 6916,
      "পটু": 6917,
      "পণের": 6918,
      "পলাশ": 6919,
      "পতন": 6920,
      "পমেন্ট": 6921,
      "প্যানেল": 6922,
      "ফুর": 6923,
      "ফারা": 6924,
      "বজ": 6925,
      "বন্": 6926,
      "বসা": 6927,
      "বটে": 6928,
      "বানের": 6929,
      "বরাত": 6930,
      "বজায়": 6931,
      "বড্ড": 6932,
      "বশির": 6933,
      "ভীন": 6934,
      "ভার্থ": 6935,
      "মও": 6936,
      "মগ": 6937,
      "মচ": 6938,
      "মশা": 6939,
      "মলের": 6940,
      "মধুর": 6941,
      "ম্মদ": 6942,
      "মবুর্": 6943,
      "য্য": 6944,
      "যান্ত্রিক": 6945,
      "রগ": 6946,
      "রণ": 6947,
      "রৈ": 6948,
      "রাল": 6949,
      "রিক্ত": 6950,
      "লক": 6951,
      "লার্": 6952,
      "লান্ত": 6953,
      "লড়া": 6954,
      "লেন্স": 6955,
      "লগ্ন": 6956,
      "শৌ": 6957,
      "শার্": 6958,
      "শফি": 6959,
      "শস্ত্র": 6960,
      "ষম্য": 6961,
      "সনে": 6962,
      "সহা": 6963,
      "সলি": 6964,
      "সঞ্": 6965,
      "সচি": 6966,
      "সফে": 6967,
      "সুরু": 6968,
      "সানি": 6969,
      "সক্রি": 6970,
      "সান্তা": 6971,
      "সতীর্থ": 6972,
      "হট": 6973,
      "হব": 6974,
      "হ্র": 6975,
      "হেন": 6976,
      "হতি": 6977,
      "হকি": 6978,
      "হ্যান": 6979,
      "হজ্": 6980,
      "হণের": 6981,
      "হওয়ার": 6982,
      "হচ্ছিলো": 6983,
      "াহ": 6984,
      "াঙ্গি": 6985,
      "ীল": 6986,
      "ীতির": 6987,
      "ীছড়ি": 6988,
      "ুনি": 6989,
      "ুবার": 6990,
      "ুদ্ধ": 6991,
      "ুপ্ত": 6992,
      "ূপে": 6993,
      "েজার": 6994,
      "েক্ষা": 6995,
      "োস": 6996,
      "োয়": 6997,
      "োর্": 6998,
      "োয়ার": 6999,
      "োলো": 7000,
      "োত্রী": 7001,
      "ড়ন": 7002,
      "ড়ান": 7003,
      "ড়কে": 7004,
      "ড়াম": 7005,
      "ড়টা": 7006,
      "য়িত": 7007,
      "য়িক": 7008,
      "য়িং": 7009,
      "০৩": 7010,
      "৩০০০": 7011,
      "৪৪": 7012,
      "৬৬": 7013,
      "৬৮": 7014,
      "৬টায়": 7015,
      "৭টা": 7016,
      "৭খাদি": 7017,
      "৮২": 7018,
      "৮৩": 7019,
      "৮৯": 7020,
      "৮টা": 7021,
      "৮৮৭": 7022,
      "৯১": 7023,
      "‌য়ের": 7024,
      "ারী": 7025,
      "ারীর": 7026,
      "ারকান্": 7027,
      "্রয়েড": 7028,
      "্যকর": 7029,
      "্যিক": 7030,
      "করল": 7031,
      "করের": 7032,
      "কর্ড": 7033,
      "্তি": 7034,
      "বিহ": 7035,
      "বিক্ষ": 7036,
      "বিদ্": 7037,
      "বিলি": 7038,
      "বিস্ত": 7039,
      "বিদ্ধ": 7040,
      "বিলো": 7041,
      "বিত্ত": 7042,
      "বিশু": 7043,
      "বিলের": 7044,
      "বিকালে": 7045,
      "বিবেক": 7046,
      "বিধ্ব": 7047,
      "বিন্দু": 7048,
      "বিভক্ত": 7049,
      "বিজয়ের": 7050,
      "বিরিয়": 7051,
      "বিছানা": 7052,
      "নিই": 7053,
      "নিষ্": 7054,
      "নিক্ষেপ": 7055,
      "নিদ্রা": 7056,
      "বাজু": 7057,
      "বাহু": 7058,
      "বাগান": 7059,
      "বাঁচ": 7060,
      "বাক্য": 7061,
      "বাড়াতে": 7062,
      "কেস": 7063,
      "প্রকা": 7064,
      "প্রথা": 7065,
      "প্রদেশ": 7066,
      "প্রফে": 7067,
      "প্রবী": 7068,
      "প্রচেষ্টা": 7069,
      "প্রান্তে": 7070,
      "প্রজাতির": 7071,
      "প্রশ্রয়": 7072,
      "প্রখ্যাত": 7073,
      "প্রকৌশল": 7074,
      "ামের": 7075,
      "ামবার": 7076,
      "য়েব": 7077,
      "য়েম": 7078,
      "য়েশ": 7079,
      "র্জার": 7080,
      "র্ণি": 7081,
      "বেত": 7082,
      "বোন": 7083,
      "বেছে": 7084,
      "বেটে": 7085,
      "বেসরকারী": 7086,
      "বেষী": 7087,
      "টিএ": 7088,
      "টিও": 7089,
      "টিত": 7090,
      "টিম": 7091,
      "টিস": 7092,
      "টিপি": 7093,
      "টিটু": 7094,
      "কাচ": 7095,
      "কাদ": 7096,
      "কাকা": 7097,
      "কাটে": 7098,
      "কাপুর": 7099,
      "কাবু": 7100,
      "কাকু": 7101,
      "কাঠি": 7102,
      "কাভার্ড": 7103,
      "লেও": 7104,
      "লেষণ": 7105,
      "নাও": 7106,
      "নাকে": 7107,
      "নাদে": 7108,
      "স্পে": 7109,
      "স্মার": 7110,
      "স্পোর্ট": 7111,
      "লাত": 7112,
      "লাফ": 7113,
      "লাগান": 7114,
      "লাঠি": 7115,
      "লাওয়াত": 7116,
      "রাক": 7117,
      "রাহ": 7118,
      "রায়": 7119,
      "রাজে": 7120,
      "রাইস": 7121,
      "রাউন্ডে": 7122,
      "রাঙামা": 7123,
      "ছোট": 7124,
      "ক্লিন": 7125,
      "তাত্": 7126,
      "তাগি": 7127,
      "তাত্ত্": 7128,
      "পরিত": 7129,
      "পররাষ্ট্র": 7130,
      "দিলী": 7131,
      "দিলিপ": 7132,
      "দিবসের": 7133,
      "দেওয়": 7134,
      "দেউল": 7135,
      "দেওয়া": 7136,
      "দেলোয়ার": 7137,
      "মাপ": 7138,
      "মাতা": 7139,
      "মাইন": 7140,
      "মাসিক": 7141,
      "মায়ের": 7142,
      "মাওল": 7143,
      "মাদ্রা": 7144,
      "নেল": 7145,
      "নেবে": 7146,
      "নেশা": 7147,
      "নেটের": 7148,
      "নেহাত": 7149,
      "্যাং": 7150,
      "্যায়": 7151,
      "্যাদি": 7152,
      "্যায়ন": 7153,
      "কারক": 7154,
      "কারোর": 7155,
      "কারেন্ট": 7156,
      "কারচু": 7157,
      "কারওয়ান": 7158,
      "কারেন্সি": 7159,
      "মিঃ": 7160,
      "মিল্": 7161,
      "মিষ্টির": 7162,
      "মিসেস": 7163,
      "মিছিলে": 7164,
      "ক্ষনিক": 7165,
      "ুলের": 7166,
      "সমকামী": 7167,
      "সমবেত": 7168,
      "পাক": 7169,
      "পাপ": 7170,
      "পায়ে": 7171,
      "পাড়": 7172,
      "পাইল": 7173,
      "পাটগ্রাম": 7174,
      "পাচ্ছি": 7175,
      "পাহারা": 7176,
      "পাওয়ার": 7177,
      "সিত": 7178,
      "সিধা": 7179,
      "সিবিএন": 7180,
      "সিঙ্গা": 7181,
      "ভাটা": 7182,
      "ভাবেন": 7183,
      "ভাসমান": 7184,
      "সেকার": 7185,
      "সেলি": 7186,
      "সেটাই": 7187,
      "সেখান": 7188,
      "সোমবার": 7189,
      "জনী": 7190,
      "জনতা": 7191,
      "জনপ্রি": 7192,
      "জনশীল": 7193,
      "সাঈ": 7194,
      "সাউ": 7195,
      "সাদ্": 7196,
      "সাজে": 7197,
      "সাজা": 7198,
      "সাইল": 7199,
      "সাহে": 7200,
      "সাগর": 7201,
      "সাড়ে": 7202,
      "সাব্যস্ত": 7203,
      "সাক্ষর": 7204,
      "করেছিলাম": 7205,
      "কিমি": 7206,
      "কিপার": 7207,
      "কিশে": 7208,
      "কিউই": 7209,
      "কিলাব": 7210,
      "য়র": 7211,
      "য়ী": 7212,
      "য়ো": 7213,
      "য়েন্টিফোর": 7214,
      "একথা": 7215,
      "একদিন": 7216,
      "একদিকে": 7217,
      "একটাই": 7218,
      "এক্রা": 7219,
      "একদম": 7220,
      "টাগর": 7221,
      "হাউ": 7222,
      "হাড়": 7223,
      "হাউজ": 7224,
      "মেলা": 7225,
      "মেদিন": 7226,
      "মেম্ব": 7227,
      "মেধা": 7228,
      "মেহের": 7229,
      "মেইলে": 7230,
      "মেয়র": 7231,
      "ন্তার": 7232,
      "ার্জি": 7233,
      "ষ্প": 7234,
      "দ্দিন": 7235,
      "গেটে": 7236,
      "গেলাম": 7237,
      "গেমস": 7238,
      "ঙ্কের": 7239,
      "রেটিং": 7240,
      "রেফ্রি": 7241,
      "রেসিপি": 7242,
      "রেকর্ড": 7243,
      "তারিক": 7244,
      "তারুণ": 7245,
      "থেমে": 7246,
      "দেশিক": 7247,
      "দেশব্যাপী": 7248,
      "মানি": 7249,
      "মানিয়ে": 7250,
      "মানবাধিকার": 7251,
      "ব্যুন": 7252,
      "ব্যতীত": 7253,
      "শিখে": 7254,
      "শিবির": 7255,
      "শিয়াল": 7256,
      "শিবলী": 7257,
      "সংসার": 7258,
      "সংগ্রামের": 7259,
      "সংযো": 7260,
      "সংক্রমণ": 7261,
      "সংলগ্ন": 7262,
      "ত্রান": 7263,
      "ত্রয়ো": 7264,
      "পরিচি": 7265,
      "পরিধি": 7266,
      "পরিসংখ": 7267,
      "পরিবেশে": 7268,
      "জো": 7269,
      "জিকে": 7270,
      "জিলা": 7271,
      "জিরা": 7272,
      "জিমেইলে": 7273,
      "ভিট": 7274,
      "ভিযান": 7275,
      "ভিডিপি": 7276,
      "লিঙ্ক": 7277,
      "লিটন": 7278,
      "লিটল": 7279,
      "যাকে": 7280,
      "যাবার": 7281,
      "যাবেন": 7282,
      "যাওয়ায়": 7283,
      "যাকাত": 7284,
      "মুত": 7285,
      "মুর্": 7286,
      "মুয়া": 7287,
      "মুভি": 7288,
      "গ্রেন": 7289,
      "পিঁ": 7290,
      "পিট": 7291,
      "পির": 7292,
      "পিস": 7293,
      "পিকে": 7294,
      "পিপি": 7295,
      "পিস্ত": 7296,
      "পিণ্ড": 7297,
      "পিঠে": 7298,
      "টেলিক": 7299,
      "টেইক": 7300,
      "স্তির": 7301,
      "স্তনী": 7302,
      "জানুয়ারি": 7303,
      "পারতো": 7304,
      "রিটের": 7305,
      "রিভিউ": 7306,
      "জাবি": 7307,
      "জাকারি": 7308,
      "জাতীয়": 7309,
      "বংশ": 7310,
      "দুষ্ট": 7311,
      "দুজ্জামান": 7312,
      "দুগ্ধ": 7313,
      "করাই": 7314,
      "করাতে": 7315,
      "থেকেও": 7316,
      "্মী": 7317,
      "োগা": 7318,
      "প্রতিশ্র": 7319,
      "প্রতিদ্ব": 7320,
      "প্রতিরক্ষ": 7321,
      "প্রতিজ্ঞা": 7322,
      "প্রতিস্থাপন": 7323,
      "প্রতিরূপ": 7324,
      "প্রতিবেদ": 7325,
      "প্রতিযোগী": 7326,
      "দাইল": 7327,
      "্পনিক": 7328,
      "বলব": 7329,
      "বলের": 7330,
      "বলিত": 7331,
      "আরবি": 7332,
      "আরডি": 7333,
      "মোটি": 7334,
      "মোবার": 7335,
      "মোবাই": 7336,
      "মোদির": 7337,
      "মোরগ": 7338,
      "হিজ": 7339,
      "হিদ": 7340,
      "হিয়া": 7341,
      "হিস্ট্রি": 7342,
      "ডিপ": 7343,
      "ডিগ্রী": 7344,
      "ীরার": 7345,
      "ঞ্জন": 7346,
      "জন্যও": 7347,
      "২০২১": 7348,
      "শাহে": 7349,
      "শাবন": 7350,
      "শাসন": 7351,
      "শাস্তির": 7352,
      "স্থানের": 7353,
      "সুমন": 7354,
      "সুস্বা": 7355,
      "সুশীল": 7356,
      "সুফলা": 7357,
      "সুতরাং": 7358,
      "পুরনো": 7359,
      "নারি": 7360,
      "হয়ত": 7361,
      "হয়না": 7362,
      "ঙ্গিক": 7363,
      "ঙ্গীর": 7364,
      "ঙ্গুলি": 7365,
      "ঙ্গারা": 7366,
      "আমলা": 7367,
      "আমন্ত্রণ": 7368,
      "বরণ": 7369,
      "্ডেল": 7370,
      "খাবারের": 7371,
      "খেলায়": 7372,
      "খেজুর": 7373,
      "উপকার": 7374,
      "উপার্": 7375,
      "উপহার": 7376,
      "উপেক্ষা": 7377,
      "018": 7378,
      "ভাগই": 7379,
      "ট্রল": 7380,
      "ট্রে": 7381,
      "ট্রেন্ট": 7382,
      "ট্রোল": 7383,
      "সবচে": 7384,
      "যোগের": 7385,
      "দিনই": 7386,
      "লোহা": 7387,
      "লোহার": 7388,
      "লোকের": 7389,
      "পেজ": 7390,
      "পো": 7391,
      "পৌ": 7392,
      "পেটে": 7393,
      "পেজের": 7394,
      "পেশার": 7395,
      "নামতে": 7396,
      "নামানু": 7397,
      "চেক": 7398,
      "চেহার": 7399,
      "ছাতে": 7400,
      "ছাদের": 7401,
      "ছাপা": 7402,
      "ছাড়ার": 7403,
      "কর্মীদের": 7404,
      "আপন": 7405,
      "অনুপাত": 7406,
      "অনুশীল": 7407,
      "েন্টে": 7408,
      "েন্টের": 7409,
      "কালাম": 7410,
      "কাল্পনিক": 7411,
      "্যান্স": 7412,
      "চাশ": 7413,
      "চাকর": 7414,
      "চাতে": 7415,
      "চায়": 7416,
      "দোষ": 7417,
      "সম্প্রদায়": 7418,
      "সম্মিলিত": 7419,
      "ড়ির": 7420,
      "ড়িতে": 7421,
      "ন্ত্রী": 7422,
      "গায়ে": 7423,
      "গাঙ্গ": 7424,
      "গাধা": 7425,
      "গাজিন": 7426,
      "দ্রি": 7427,
      "ফিজ": 7428,
      "ফিন": 7429,
      "ফিডলার": 7430,
      "ফিনাল": 7431,
      "ওয়াই": 7432,
      "ইলিক": 7433,
      "২০১০": 7434,
      "আসর": 7435,
      "আসল": 7436,
      "আসুন": 7437,
      "য়েল": 7438,
      "চিটা": 7439,
      "চিন্তার": 7440,
      "আইসি": 7441,
      "আইভীর": 7442,
      "আইওটি": 7443,
      "ক্ষেত্র": 7444,
      "ভেদ": 7445,
      "ভেবে": 7446,
      "ভেঞ্জ": 7447,
      "ধারী": 7448,
      "ধারে": 7449,
      "ধারনা": 7450,
      "ধারালো": 7451,
      "লারে": 7452,
      "সর্ত": 7453,
      "সরদার": 7454,
      "সরঞ্জাম": 7455,
      "অবগত": 7456,
      "জ্বা": 7457,
      "জ্জল": 7458,
      "তোর": 7459,
      "তোয়া": 7460,
      "তোরের": 7461,
      "তোলেন": 7462,
      "াকাটা": 7463,
      "চালিত": 7464,
      "চালানো": 7465,
      "চালাতে": 7466,
      "ম্বরের": 7467,
      "প্পি": 7468,
      "স্টল": 7469,
      "স্টের": 7470,
      "স্টোর": 7471,
      "ওয়ার্ড": 7472,
      "অভিমত": 7473,
      "বুড়ে": 7474,
      "ফেলা": 7475,
      "ব্যাগ": 7476,
      "ব্যাঙ্ক": 7477,
      "ব্যাবহার": 7478,
      "সামলে": 7479,
      "সাময়িক": 7480,
      "পূজার": 7481,
      "বাদীদের": 7482,
      "ঞ্জয়": 7483,
      "দলগুলো": 7484,
      "গ্রামটি": 7485,
      "গ্রামটির": 7486,
      "চলন্ত": 7487,
      "চলমান": 7488,
      "কলঙ্ক": 7489,
      "কলকব্": 7490,
      "ডেইলি": 7491,
      "ছিটকে": 7492,
      "রুজ্জামান": 7493,
      "রুহুল": 7494,
      "বাসন": 7495,
      "সদ্য": 7496,
      "রাজস্ব": 7497,
      "ন্দারা": 7498,
      "কমই": 7499,
      "কমল": 7500,
      "কমপক্ষে": 7501,
      "ফাতে": 7502,
      "শ্বরের": 7503,
      "শ্বশুর": 7504,
      "বিষয়ের": 7505,
      "নিয়তি": 7506,
      "নিয়োজিত": 7507,
      "আলু": 7508,
      "আল্যা": 7509,
      "আল্যার": 7510,
      "আগুনে": 7511,
      "এসটি": 7512,
      "বৃথা": 7513,
      "হোয়া": 7514,
      "জুক": 7515,
      "জুয়া": 7516,
      "হেঁ": 7517,
      "হেসে": 7518,
      "তুহিন": 7519,
      "পোস্ট": 7520,
      "গোড়াল": 7521,
      "ব্রত": 7522,
      "অর্থে": 7523,
      "জীবিত": 7524,
      "প্রাচীন": 7525,
      "স্বর্": 7526,
      "স্বার্থ": 7527,
      "স্থাপ": 7528,
      "সার্স": 7529,
      "সার্জন": 7530,
      "সার্টে": 7531,
      "সার্ভার": 7532,
      "সার্কুলে": 7533,
      "পত্রের": 7534,
      "কুঞ্জ": 7535,
      "কথাটি": 7536,
      "কথাসাহিত্যিক": 7537,
      "উদ্দিনের": 7538,
      "বোধ": 7539,
      "বোমার": 7540,
      "এনএন": 7541,
      "এনওসি": 7542,
      "থাকছে": 7543,
      "থাকুন": 7544,
      "থাকবো": 7545,
      "পূর্ন": 7546,
      "মারে": 7547,
      "সম্পদের": 7548,
      "সম্পত্তি": 7549,
      "য়নাল": 7550,
      "ইনভে": 7551,
      "ইনকোর্স": 7552,
      "ইনকিলাব": 7553,
      "স্যাম": 7554,
      "স্যামু": 7555,
      "প্রদী": 7556,
      "প্রদর্শ": 7557,
      "প্রদর্শন": 7558,
      "ইসলামিক": 7559,
      "ন্ডের": 7560,
      "মাধ্যমিক": 7561,
      "আদান": 7562,
      "১০টা": 7563,
      "১০টায়": 7564,
      "দেখল": 7565,
      "দেখছে": 7566,
      "দীপ্ত": 7567,
      "হাম্": 7568,
      "হামিদ": 7569,
      "বন্ধে": 7570,
      "টোরিয়াল": 7571,
      "ণাগার": 7572,
      "শুরুতে": 7573,
      "শুরুতেই": 7574,
      "ano": 7575,
      "ant": 7576,
      "মার্কেট": 7577,
      "ল্লার": 7578,
      "গুয়া": 7579,
      "ডাঙ্গা": 7580,
      "মূল্যে": 7581,
      "মূল্যায়ন": 7582,
      "শোষণ": 7583,
      "কৃষ্ণ": 7584,
      "শীত": 7585,
      "শীষ": 7586,
      "সালমার": 7587,
      "ান্টাম": 7588,
      "স্বাগতিক": 7589,
      "সাইবার": 7590,
      "নির্বাচনকে": 7591,
      "তিরমি": 7592,
      "নায়করা": 7593,
      "নায়কের": 7594,
      "নায়তনে": 7595,
      "টুকু": 7596,
      "তারাও": 7597,
      "তারাকান্দা": 7598,
      "বিদ্য": 7599,
      "কাজটা": 7600,
      "নেইমার": 7601,
      "অধিনায়কের": 7602,
      "সাথেই": 7603,
      "ধুয়ে": 7604,
      "erk": 7605,
      "আহম্": 7606,
      "আহসান": 7607,
      "সূচকে": 7608,
      "পরিচালনায়": 7609,
      "উদ্যে": 7610,
      "অ্যাসো": 7611,
      "অ্যাভেঞ্জ": 7612,
      "ম্যাগাজিন": 7613,
      "সীল": 7614,
      "সীমিত": 7615,
      "সোনাগা": 7616,
      "পর্যটক": 7617,
      "পর্যটন": 7618,
      "খানেক": 7619,
      "গণের": 7620,
      "প্রথমত": 7621,
      "জামে": 7622,
      "জাম্ব": 7623,
      "আলোর": 7624,
      "এমনটা": 7625,
      "উত্তম": 7626,
      "উত্তোল": 7627,
      "আনসার": 7628,
      "মামলাটি": 7629,
      "জানাযায়": 7630,
      "জানাচ্ছেন": 7631,
      "চুপ": 7632,
      "তালা": 7633,
      "তালি": 7634,
      "গ্রহণের": 7635,
      "অন্যকে": 7636,
      "অন্যদের": 7637,
      "আওয়ামীলীগের": 7638,
      "পুতি": 7639,
      "স্ত্রীদের": 7640,
      "ভালোই": 7641,
      "ভালোবাসে": 7642,
      "পালিত": 7643,
      "সাধারণভাবে": 7644,
      "সিলেটজুড়ে": 7645,
      "তথ্যাদি": 7646,
      "করিতে": 7647,
      "অর্থনীতি": 7648,
      "অর্থবছরে": 7649,
      "ফুটে": 7650,
      "ফুজুর": 7651,
      "১১টার": 7652,
      "প্রেমে": 7653,
      "প্রেক্ষা": 7654,
      "প্রেমিক": 7655,
      "সনদপত্র": 7656,
      "ত্বককে": 7657,
      "বিএনপিতে": 7658,
      "রাষ্ট্রপ্রধান": 7659,
      "টাইমস": 7660,
      "কর্মকর্তারা": 7661,
      "red": 7662,
      "replace": 7663,
      "দায়ক": 7664,
      "দায়ভাগ": 7665,
      "ম্যানেজার": 7666,
      "নামেও": 7667,
      "পড়বে": 7668,
      "পড়ছে": 7669,
      "হুদার": 7670,
      "কারণেই": 7671,
      "দেশেও": 7672,
      "প্রতিনিধিদলে": 7673,
      "tho": 7674,
      "that": 7675,
      "ইন্ডে": 7676,
      "এন্ডোর্": 7677,
      "তথ্যপ্রযুক্তি": 7678,
      "বানর": 7679,
      "বান্ডেল": 7680,
      "১২টি": 7681,
      "১২৩০": 7682,
      "রাখবে": 7683,
      "পাঠান": 7684,
      "পাঠায়": 7685,
      "পাঠাতে": 7686,
      "সংবাদমাধ্যম": 7687,
      "দুর্বার": 7688,
      "দুর্বারের": 7689,
      "দুর্ধর্ষ": 7690,
      "েন্দ্রনাথ": 7691,
      "একাই": 7692,
      "সমাজে": 7693,
      "দশকে": 7694,
      "দশটা": 7695,
      "িকাস": 7696,
      "বিমানটির": 7697,
      "স্ক্যান": 7698,
      "শিক্ষার": 7699,
      "ধর্মান্": 7700,
      "বিদ্যালয়": 7701,
      "বিদ্যালয়ের": 7702,
      "mar": 7703,
      "ারেশনের": 7704,
      "বিশেষভাবে": 7705,
      "ঘটনাস্থল": 7706,
      "হানির": 7707,
      "বাহির": 7708,
      "হাজারে": 7709,
      "অক্টোবরে": 7710,
      "অপমান": 7711,
      "অপশন": 7712,
      "রীতি": 7713,
      "বিজ্ঞানের": 7714,
      "ill": 7715,
      "ওয়েল": 7716,
      "কনস্টে": 7717,
      "কনসার্টে": 7718,
      "বয়সে": 7719,
      "অফিসের": 7720,
      "গঠনিক": 7721,
      "১৬৪": 7722,
      "২৪০": 7723,
      "২৪৪": 7724,
      "জিনিস": 7725,
      "দূর্": 7726,
      "বর্ণা": 7727,
      "মাহফুজুর": 7728,
      "সিংহের": 7729,
      "তৈরিতে": 7730,
      "কেনার": 7731,
      "কেননা": 7732,
      "কৃতজ্ঞ": 7733,
      "গুলিতে": 7734,
      "ভুটান": 7735,
      "ভুবনে": 7736,
      "বিলঙ": 7737,
      "বিলবা": 7738,
      "বিলুপ্ত": 7739,
      "লেখার": 7740,
      "ত্ন": 7741,
      "ফেরি": 7742,
      "আইনজীব": 7743,
      "ক্ষেত্রেই": 7744,
      "ধর্মঘটে": 7745,
      "ধর্মভীর": 7746,
      "ধর্মযাজক": 7747,
      "গিসকে": 7748,
      "পার্শ্ব": 7749,
      "ইঞ্জি": 7750,
      "এটাও": 7751,
      "ক্যাশ": 7752,
      "ক্যাডেট": 7753,
      "ক্যাটাগর": 7754,
      "ছোটদের": 7755,
      "বৈষম্য": 7756,
      "বৈদেশিক": 7757,
      "্লাহি": 7758,
      "্লাহু": 7759,
      "অবস্থার": 7760,
      "চিকিৎস": 7761,
      "১৩৪": 7762,
      "ভাইরাল": 7763,
      "শিশুটি": 7764,
      "পেয়েছিলেন": 7765,
      "পোর্টাল": 7766,
      "atur": 7767,
      "ভিতর": 7768,
      "রংয়ের": 7769,
      "সকলকে": 7770,
      "সিদ্ধির": 7771,
      "art": 7772,
      "শেরপুর": 7773,
      "বায়তুল": 7774,
      "রাজনীতির": 7775,
      "য়ারের": 7776,
      "কোর্টের": 7777,
      "বিষয়েও": 7778,
      "প্রাপ্তির": 7779,
      "ব্লগ": 7780,
      "ব্লকার": 7781,
      "ব্লগে": 7782,
      "ব্ল্যাক": 7783,
      "দক্ষিণা": 7784,
      "sex": 7785,
      "উৎপত্তি": 7786,
      "ভীষণ": 7787,
      "ভীড়টা": 7788,
      "দীর্ঘদিনের": 7789,
      "জঙ্গিরা": 7790,
      "জঙ্গিদের": 7791,
      "প্রশ্নোত্তর": 7792,
      "পারিনা": 7793,
      "সম্মেলনের": 7794,
      "গ্রহণযোগ্য": 7795,
      "125": 7796,
      "126": 7797,
      "এখানেই": 7798,
      "চরম": 7799,
      "বার্সার": 7800,
      "পরিশোধযোগ্য": 7801,
      "অনুমতিতে": 7802,
      "চোরা": 7803,
      "ফ্লাই": 7804,
      "বরাত্রি": 7805,
      "হালদার": 7806,
      "বিরত": 7807,
      "লেখাপড়া": 7808,
      "মিলনায়তনে": 7809,
      "রেজিস্ট্রি": 7810,
      "জাহাঙ্গীর": 7811,
      "বন্ধুরা": 7812,
      "বন্ধুদের": 7813,
      "গ্রেফতারকৃত": 7814,
      "মন্তব্যে": 7815,
      "তুলনায়": 7816,
      "পথের": 7817,
      "পায়নি": 7818,
      "মেয়েটির": 7819,
      "মুক্তিযুদ্ধের": 7820,
      "খেলাধুলা": 7821,
      "উদ্ধারের": 7822,
      "বিশ্বাসী": 7823,
      "বিশ্লেষণ": 7824,
      "বাঁকা": 7825,
      "সদরঘাট": 7826,
      "রংপুরের": 7827,
      "শিল্পের": 7828,
      "স্বাস্থ্যমন্ত্রী": 7829,
      "জোনের": 7830,
      "য়ালা": 7831,
      "প্রার্থনা": 7832,
      "প্রার্থনার": 7833,
      "আত্মীয়": 7834,
      "ইংলিশ": 7835,
      "পানামা": 7836,
      "লুইস": 7837,
      "লুক্সে": 7838,
      "শাহ্": 7839,
      "শাহরু": 7840,
      "শাহরিয়ার": 7841,
      "অন্তর্ভুক্ত": 7842,
      "দেয়নি": 7843,
      "মিনিটের": 7844,
      "সমস্যায়": 7845,
      "উদ্বুদ্ধ": 7846,
      "আশুলিয়া": 7847,
      "আশাবাদ": 7848,
      "আশাবাদী": 7849,
      "ইতিমধ্যে": 7850,
      "বর্ষের": 7851,
      "বর্ষপূ": 7852,
      "ভোটদান": 7853,
      "প্রচারণা": 7854,
      "নাইট": 7855,
      "নাইজেরি": 7856,
      "বৃহৎ": 7857,
      "মালিকের": 7858,
      "প্রতিষ্ঠানটির": 7859,
      "105": 7860,
      "1000": 7861,
      "জমিতে": 7862,
      "প্রস্তর": 7863,
      "নেটর": 7864,
      "পাশেই": 7865,
      "কিনতে": 7866,
      "সংরক্ষণাগার": 7867,
      "ত্রিদেশীয়": 7868,
      "যুদ্ধাপ": 7869,
      "স্ত্রীকে": 7870,
      "net": 7871,
      "আসেনি": 7872,
      "আন্তঃ": 7873,
      "ট্যাগ": 7874,
      "সৌম্য": 7875,
      "হীনতা": 7876,
      "বিতর্ক": 7877,
      "রাইড": 7878,
      "বার্তায়": 7879,
      "পুরোটা": 7880,
      "গাছির": 7881,
      "হাসিনাকে": 7882,
      "135": 7883,
      "hab": 7884,
      "have": 7885,
      "its": 7886,
      "আব্দুস": 7887,
      "ওয়াশিং": 7888,
      "চলাকালে": 7889,
      "চলাকালীন": 7890,
      "প্যাক": 7891,
      "রোগী": 7892,
      "শরীয়": 7893,
      "শান্তির": 7894,
      "৬০৯৮": 7895,
      "বিরোধের": 7896,
      "প্রত্যাশা": 7897,
      "প্রত্যাখ্যান": 7898,
      "রাসূল": 7899,
      "সমূহে": 7900,
      "জিয়াউর": 7901,
      "মোটামু": 7902,
      "২০০৪": 7903,
      "প্লেইস": 7904,
      "হামলাকারি": 7905,
      "স্ট্রেট": 7906,
      "উল্লেখযোগ্য": 7907,
      "মসজিদ": 7908,
      "নিরাপত্তার": 7909,
      "নারায়ণগঞ্জের": 7910,
      "তারিখঃ": 7911,
      "তারিখের": 7912,
      "আর্কানা": 7913,
      "দণ্ডনীয়": 7914,
      "সৃজনশীল": 7915,
      "হ্যাভেন": 7916,
      "বাহনে": 7917,
      "বাহ্যিক": 7918,
      "রাশিয়ার": 7919,
      "যাত্রীরা": 7920,
      "যাত্রীবাহী": 7921,
      "প্লাট": 7922,
      "প্লাস্টি": 7923,
      "angl": 7924,
      "angbad": 7925,
      "anguage": 7926,
      "ইন্টারভিউ": 7927,
      "ফুটবলার": 7928,
      "lored": 7929,
      "চার্টার": 7930,
      "চার্চের": 7931,
      "তদন্তে": 7932,
      "দামে": 7933,
      "নগদ": 7934,
      "ন্যায্য": 7935,
      "সুরক্ষা": 7936,
      "সত্যতা": 7937,
      "সত্যিকার": 7938,
      "সত্যেন্দ্রনাথ": 7939,
      "সেটিও": 7940,
      "সংগঠিত": 7941,
      "সম্ভবত": 7942,
      "প্ল্যাট": 7943,
      "রোহিঙ্গারা": 7944,
      "অ্যাপল": 7945,
      "কামালের": 7946,
      "সন্তানদের": 7947,
      "খ্রিঃ": 7948,
      "খ্রিস্টা": 7949,
      "রানার্স": 7950,
      "লালপুর": 7951,
      "লাল্লাহু": 7952,
      "বিস্ম": 7953,
      "বিদেশী": 7954,
      "বিজিবি": 7955,
      "বাবধায়": 7956,
      "স্টাইল": 7957,
      "সেখানেই": 7958,
      "গোলকিপার": 7959,
      "শীর্ষক": 7960,
      "সমাধানের": 7961,
      "মৃত্যুবগুড়ায়": 7962,
      "ইত্যাদির": 7963,
      "অস্ত্রোপ": 7964,
      "পানিতে": 7965,
      "পর্যাপ্ত": 7966,
      "পর্যায়ে": 7967,
      "মানববন্ধন": 7968,
      "সংশোধন": 7969,
      "সংশোধনের": 7970,
      "শুনেছি": 7971,
      "পূরণের": 7972,
      "পৌঁছ": 7973,
      "পৌঁছাতে": 7974,
      "কোম্পানিটি": 7975,
      "কোম্পানিটির": 7976,
      "url": 7977,
      "আসাদুজ্জামান": 7978,
      "গৃহে": 7979,
      "পড়ার": 7980,
      "শতকরা": 7981,
      "শামসুল": 7982,
      "সুলত": 7983,
      "সুলভ": 7984,
      "আদালতকে": 7985,
      "চিকিৎসাধীন": 7986,
      "ame": 7987,
      "appl": 7988,
      "ডাকাত": 7989,
      "ফর্ম": 7990,
      "ফর্মের": 7991,
      "দিয়েছেন": 7992,
      "মিলিয়ন": 7993,
      "ভাষার": 7994,
      "ভাষায়": 7995,
      "কোরিয়া": 7996,
      "ব্যান্ডে": 7997,
      "সংখ্যাও": 7998,
      "পুরস্কারদৈনিক": 7999,
      "চলচ্চিত্রে": 8000,
      "মামুনুর": 8001,
      "ব্রিজ": 8002,
      "ব্রিটেন": 8003,
      "বহুমুখী": 8004,
      "অপরাধী": 8005,
      "জন্মদিন": 8006,
      "পরামর্শের": 8007,
      "পরিস্থিতিতে": 8008,
      "ঐক্যফ্রন্": 8009,
      "চাননি": 8010,
      "ভার্চু": 8011,
      "মেনুবার": 8012,
      "যন্ত্রপাতি": 8013,
      "মাসুমের": 8014,
      "কর্মসূচী": 8015,
      "কর্মসূচির": 8016,
      "ফেলুন": 8017,
      "সাম্প্রদায়": 8018,
      "মূল্যঃ": 8019,
      "সূত্রপাত": 8020,
      "মহিলাদের": 8021,
      "বাণিজ্যমন্ত্রী": 8022,
      "সুবিধাদি": 8023,
      "মুছলিমদের": 8024,
      "ceboo": 8025,
      "নরম": 8026,
      "নরেন্দ্র": 8027,
      "মহাসড়কে": 8028,
      "সবারই": 8029,
      "কর্মে": 8030,
      "মিরপুরের": 8031,
      "এমপির": 8032,
      "সারাদিন": 8033,
      "সারাক্ষণ": 8034,
      "enty": 8035,
      "176": 8036,
      "178": 8037,
      "এনেছে": 8038,
      "কান্নার": 8039,
      "কান্ট্রি": 8040,
      "খদ্দেরকে": 8041,
      "জার্সি": 8042,
      "পছন্দের": 8043,
      "পশ্চিমা": 8044,
      "পশ্চিমে": 8045,
      "ভোগান্তি": 8046,
      "যতই": 8047,
      "শরীফ": 8048,
      "১২০৮": 8049,
      "বাবাকে": 8050,
      "বাক্সটি": 8051,
      "কাঁধে": 8052,
      "ক্ষণিক": 8053,
      "পাথরের": 8054,
      "পাথারকান্": 8055,
      "পেছন": 8056,
      "গাইতে": 8057,
      "সেরাটা": 8058,
      "বৃত্তি": 8059,
      "বিশ্বকাপে": 8060,
      "লক্ষ্মীছড়ি": 8061,
      "কবিতায়": 8062,
      "পাকিস্তানকে": 8063,
      "newspaper": 8064,
      "মাশরাফির": 8065,
      "155": 8066,
      "157": 8067,
      "160": 8068,
      "ctg": 8069,
      "rib": 8070,
      "অঙ্গীকার": 8071,
      "আনিস": 8072,
      "আনিসুল": 8073,
      "ছয়টি": 8074,
      "ছাত্রীকে": 8075,
      "মৌসুমে": 8076,
      "অ্যান্ড্রয়েড": 8077,
      "আয়কর": 8078,
      "কলাপাড়ায়": 8079,
      "জোরালো": 8080,
      "রপ্তানী": 8081,
      "রান্দন": 8082,
      "সুনানে": 8083,
      "সুনীল": 8084,
      "বাতিল": 8085,
      "বাতিলের": 8086,
      "ক্ষুব্ধ": 8087,
      "সাহস": 8088,
      "যাবৎ": 8089,
      "যাবতীয়": 8090,
      "জাতকরণের": 8091,
      "নির্ভরশীল": 8092,
      "নামায": 8093,
      "মনোভাব": 8094,
      "প্রাণিত": 8095,
      "ইউরোপের": 8096,
      "ইউরোপীয়": 8097,
      "বসবাসকারী": 8098,
      "ida": 8099,
      "teen": 8100,
      "teur": 8101,
      "অ্যালগরি": 8102,
      "অস্ট্রেলিয়ার": 8103,
      "কানাডার": 8104,
      "কানাইঘাট": 8105,
      "ফিল্ম": 8106,
      "সফলতা": 8107,
      "সতর্কতা": 8108,
      "প্রভাবমুক্ত": 8109,
      "নাটোর": 8110,
      "দেবেনমিতু": 8111,
      "সাক্ষাত": 8112,
      "সংকটের": 8113,
      "প্রতিরোধে": 8114,
      "ডিপির": 8115,
      "ফাইনাল": 8116,
      "জুম্ম": 8117,
      "মুখ্যমন্ত্রী": 8118,
      "সদস্যদেরকে": 8119,
      "হবিগঞ্জী": 8120,
      "লক্ষ্মীপুরের": 8121,
      "189": 8122,
      "Select": 8123,
      "ternet": 8124,
      "আফসার": 8125,
      "আফগানি": 8126,
      "আলাওল": 8127,
      "আজিজ": 8128,
      "আঘাতে": 8129,
      "কঠোর": 8130,
      "ননট্যাক্স": 8131,
      "ফটোগ্রা": 8132,
      "বিনিয়োগের": 8133,
      "র্ধ্বতন": 8134,
      "মাঠের": 8135,
      "সিনেমায়": 8136,
      "সাংগঠনিক": 8137,
      "রোববার": 8138,
      "সংযোগের": 8139,
      "ব্যাপারটা": 8140,
      "স্বাধীনতা": 8141,
      "সমাজকল্যাণ": 8142,
      "হেরেছে": 8143,
      "যথাযথভাবে": 8144,
      "ঝুঁকিপূর্ণ": 8145,
      "Any": 8146,
      "Che": 8147,
      "Reg": 8148,
      "TEC": 8149,
      "আলেম": 8150,
      "কষ্টে": 8151,
      "গার্ল": 8152,
      "জুলফি": 8153,
      "ততই": 8154,
      "ততক্ষণে": 8155,
      "সফরকারী": 8156,
      "৩৬৩": 8157,
      "…………": 8158,
      "প্রত্যয়": 8159,
      "নাবিকদের": 8160,
      "তাসনিম": 8161,
      "সিরাজগঞ্জ": 8162,
      "কিনেছেন": 8163,
      "মেয়াদে": 8164,
      "বুদ্ধিম": 8165,
      "বিষয়বস্তু": 8166,
      "গুপ্তচর": 8167,
      "জঙ্গিবাদকে": 8168,
      "মৌলভীবাজারে": 8169,
      "প্রশাসনিক": 8170,
      "ওয়ানডেতে": 8171,
      "কৌশলগত": 8172,
      "gso": 8173,
      "আফ্রিকা": 8174,
      "আফ্রিকার": 8175,
      "ইমদাদুল": 8176,
      "দত্তের": 8177,
      "বয়সে": 8178,
      "ভ্যানচালক": 8179,
      "হইতে": 8180,
      "বিতরন": 8181,
      "তাহসান": 8182,
      "রেখাচিত্র": 8183,
      "যাঁরা": 8184,
      "গ্রিজ": 8185,
      "দুবাইয়ে": 8186,
      "খেলেছে": 8187,
      "অবসরপ্রাপ্ত": 8188,
      "নিয়ন্ত্রিত": 8189,
      "বোঝাই": 8190,
      "সাল্লাম": 8191,
      "সাল্লাল্লাহু": 8192,
      "পর্যবেক্ষক": 8193,
      "পর্যবেক্ষণে": 8194,
      "পুঁজিবাজারে": 8195,
      "ক্ষমতায়নের": 8196,
      "প্রতিষ্ঠাতা": 8197,
      "পরীক্ষার্থী": 8198,
      "ফেরতযোগ্য": 8199,
      "রাজনীতিবিদ": 8200,
      "শিক্ষাবর্ষে": 8201,
      "শিক্ষাবর্ষের": 8202,
      "দারিদ্রের": 8203,
      "দারিদ্র্য": 8204,
      "স্পাইডারম্যানের": 8205,
      "ভবিষ্যত": 8206,
      "খেলোয়াড়ের": 8207,
      "forma": 8208,
      "ional": 8209,
      "pack": 8210,
      "shipping": 8211,
      "আবিষ্কার": 8212,
      "আক্রান্তের": 8213,
      "ঈশ্বরগঞ্জ": 8214,
      "গৌরী": 8215,
      "গৌতম": 8216,
      "ভয়েজ": 8217,
      "মণ্ডল": 8218,
      "মণ্ডপে": 8219,
      "শত্রুর": 8220,
      "শর্তাবলী": 8221,
      "বিবেচিত": 8222,
      "বিবেচনা": 8223,
      "বিক্রির": 8224,
      "বিধিমালা": 8225,
      "টিউটোরিয়াল": 8226,
      "মিলেছে": 8227,
      "সেমিফাইনালে": 8228,
      "মেক্সিকো": 8229,
      "কোয়ান্টাম": 8230,
      "সংস্কারে": 8231,
      "রিংটোন": 8232,
      "চাকুরীর": 8233,
      "চালাচ্ছেন": 8234,
      "এমসিএইচ": 8235,
      "দীপিকা": 8236,
      "পাল্টা": 8237,
      "পাল্টে": 8238,
      "দুর্দান্ত": 8239,
      "ফোর্ড": 8240,
      "ফোর্স": 8241,
      "ভূমিকম্পের": 8242,
      "নওগাঁর": 8243,
      "বার্ষিকী": 8244,
      "হ্যাম্পশায়ার": 8245,
      "সেকেন্ডের": 8246,
      "ব্রাজিলের": 8247,
      "ATION": 8248,
      "about": 8249,
      "colored": 8250,
      "ebsit": 8251,
      "tain": 8252,
      "twenty": 8253,
      "আবেদপত্র": 8254,
      "ইলিয়াস": 8255,
      "ওটিএ": 8256,
      "গড়ের": 8257,
      "তুরস্": 8258,
      "রসূলুল্লাহ": 8259,
      "সমিতি": 8260,
      "সমিতির": 8261,
      "হতাশ": 8262,
      "বাফুফে": 8263,
      "বাফুফের": 8264,
      "প্রতাহার": 8265,
      "প্রতাহারের": 8266,
      "প্রসারণ": 8267,
      "লাগাতে": 8268,
      "মাতৃদুগ্ধ": 8269,
      "শিরোনাম": 8270,
      "0178422": 8271,
      "অনুভূতি": 8272,
      "স্টোরেজ": 8273,
      "অভিযোগপত্র": 8274,
      "ব্যাটিংয়ে": 8275,
      "ছিনতাইকারীরা": 8276,
      "রাজীব": 8277,
      "মন্ত্রিসভা": 8278,
      "পত্রিকায়": 8279,
      "ডাইরি": 8280,
      "ধাক্কায়": 8281,
      "উত্তরাধিকার": 8282,
      "টাইগাররা": 8283,
      "rendra": 8284,
      "বার্সাকে": 8285,
      "বিরতিহীন": 8286,
      "ভাঙাচোরা": 8287,
      "আশরাফুল": 8288,
      "বিতর্কের": 8289,
      "বিতর্কিত": 8290,
      "বাস্তবায়নে": 8291,
      "অগ্নিসংযোগের": 8292,
      "হাওলাদারের": 8293,
      "ছুরিকাঘাতে": 8294,
      "সূর্যমুখী": 8295,
      "পর্যালোচনা": 8296,
      "amateur": 8297,
      "uman": 8298,
      "অবাক": 8299,
      "অ্যানড্র": 8300,
      "অ্যামিকাস": 8301,
      "অাপনার": 8302,
      "আয়াতের": 8303,
      "ইয়াহিয়া": 8304,
      "উর্ধ্বে": 8305,
      "কণ্ঠ": 8306,
      "জোগায়": 8307,
      "ঝুলিয়ে": 8308,
      "টার্গেট": 8309,
      "মজলি": 8310,
      "ময়নাল": 8311,
      "শর্মার": 8312,
      "শ্যামাঙ্গি": 8313,
      "বিক্ষোভের": 8314,
      "বাচ্চা": 8315,
      "নাশকতা": 8316,
      "স্পিন": 8317,
      "স্ক্রিনে": 8318,
      "তাপমাত্রা": 8319,
      "তাৎক্ষনিক": 8320,
      "পাঁপড়ি": 8321,
      "একুশে": 8322,
      "মেশিন": 8323,
      "ভিজিডি": 8324,
      "সুইচ": 8325,
      "ট্রাইব্যুন": 8326,
      "চেতনা": 8327,
      "চিহ্নিত": 8328,
      "সময়সূচী": 8329,
      "ডেলিভারি": 8330,
      "কর্তব্যরত": 8331,
      "ম্যাজিস্ট্রেট": 8332,
      "সোনাগাছির": 8333,
      "জাতীয়তাবাদী": 8334,
      "নেতাকর্মীকে": 8335,
      "প্রিয়াঙ্কা": 8336,
      "ফ্রান্সের": 8337,
      "স্ট্রাইকার": 8338,
      "বয়কটের": 8339,
      "ময়নাতদন্তের": 8340,
      "উইন্ডোজ": 8341,
      "বৈচিত্র্য": 8342,
      "আত্মসমর্পণের": 8343,
      "ক্যারিয়ার": 8344,
      "পৃথক": 8345,
      "শরণার্থ": 8346,
      "এলজিআরডি": 8347,
      "সাতক্ষীরার": 8348,
      "দাঁড়িয়েছে": 8349,
      "উদ্যোক্তা": 8350,
      "কাগজপত্রঃ": 8351,
      "শ্রীলংকার": 8352,
      "মেগাহার্টজ": 8353,
      "ব্যতিক্রমী": 8354,
      "ডেমোক্রেটিক": 8355,
      "youtube": 8356,
      "ওষুধ": 8357,
      "রবীন্দ্রনাথ": 8358,
      "কালিয়াকৈর": 8359,
      "0mAh": 8360,
      "Prof": 8361,
      "Safari": 8362,
      "Window": 8363,
      "bundle": 8364,
      "each": 8365,
      "faceboo": 8366,
      "অত্যাধুনিক": 8367,
      "আগ্রহী": 8368,
      "ইভিএম": 8369,
      "ইন্ডা": 8370,
      "গঙ্গোত্রী": 8371,
      "চত্বর": 8372,
      "জড়িত": 8373,
      "নয়াপল্": 8374,
      "পনিটুলা": 8375,
      "ফজলুল": 8376,
      "বহির্": 8377,
      "মমতা": 8378,
      "মঞ্চে": 8379,
      "হলিউড": 8380,
      "বিনিময়": 8381,
      "বাচক": 8382,
      "বাঙ্গালী": 8383,
      "কেশন্স": 8384,
      "প্রয়োজনে": 8385,
      "ালাইসিস": 8386,
      "কাহিনী": 8387,
      "লোকজন": 8388,
      "স্মরণ": 8389,
      "মিজানুর": 8390,
      "ক্ষিণ": 8391,
      "সম্মত": 8392,
      "পাবলিকেশন্স": 8393,
      "সিম্বিয়ান": 8394,
      "সিদ্দিকী": 8395,
      "সাধারন": 8396,
      "ব্যালেন্স": 8397,
      "সংগীত": 8398,
      "জাহিদুর": 8399,
      "দুশ্চিন্তা": 8400,
      "প্রতিক্রিয়া": 8401,
      "প্রতিফলিত": 8402,
      "মোহাম্ম": 8403,
      "হিউম্যান": 8404,
      "ডিফেন্স": 8405,
      "সুপারিশ": 8406,
      "অনেকেরই": 8407,
      "হোটেলের": 8408,
      "কুমড়ার": 8409,
      "ইনস্টিটিউ": 8410,
      "অধিবেশনে": 8411,
      "আহমেদের": 8412,
      "হত্যাচেষ্টাকারী": 8413,
      "জামায়াতের": 8414,
      "উইলিয়াম": 8415,
      "বার্সেলোনা": 8416,
      "স্টেডিয়ামে": 8417,
      "রেজিস্ট্রার": 8418,
      "দুরূদ": 8419,
      "চ্ছাসেবক": 8420,
      "মুসলমান": 8421,
      "শৃংখলা": 8422,
      "কর্ণধার": 8423,
      "দৌলতপুর": 8424,
      "কোরবানির": 8425,
      "আমলকিতে": 8426,
      "কুনূতে": 8427,
      "আশ্চর্য": 8428,
      "বিদ্রোহী": 8429,
      "স্ট্যাটাস": 8430,
      "হাজারীবাগে": 8431,
      "ব্রাহ্মণবাড়িয়া": 8432,
      "বিআইডব্লিওটিএ": 8433,
      "নাজিমউদ্দিন": 8434,
      "Certi": 8435,
      "Categor": 8436,
      "Paperless": 8437,
      "Train": 8438,
      "Xiaomi": 8439,
      "[…]": 8440,
      "blowjo": 8441,
      "from": 8442,
      "hours": 8443,
      "আয়ারল্যান্ড": 8444,
      "আকর্ষণ": 8445,
      "ইহকালীন": 8446,
      "ইঙ্গিত": 8447,
      "উদাহরণ": 8448,
      "উইনচেষ্টার": 8449,
      "এতিম": 8450,
      "এনামুল": 8451,
      "ঐক্যের": 8452,
      "ঔষধ": 8453,
      "কীর্তি": 8454,
      "খারিজ": 8455,
      "ঘিরে": 8456,
      "ঘূর্ণি": 8457,
      "ট্যানারি": 8458,
      "ডায়াবে": 8459,
      "দালাল": 8460,
      "নার্গিসকে": 8461,
      "পীনস্তনী": 8462,
      "পটুয়াখাল": 8463,
      "ভার্থখলা": 8464,
      "রৈখিক": 8465,
      "লার্নিং": 8466,
      "হ্রদ": 8467,
      "৭খাদিজার": 8468,
      "বিক্ষো": 8469,
      "বিদ্বেষী": 8470,
      "বিশুদ্ধ": 8471,
      "বিধ্বস্ত": 8472,
      "বিরিয়ানি": 8473,
      "প্রকাশন": 8474,
      "প্রবীণ": 8475,
      "কাবুলে": 8476,
      "স্মারক": 8477,
      "স্পোর্টস": 8478,
      "তাত্পর্য": 8479,
      "তাত্ত্বিক": 8480,
      "দিলীপ": 8481,
      "মাওলানা": 8482,
      "মাদ্রাসা": 8483,
      "পাইলট": 8484,
      "জনপ্রিয়তা": 8485,
      "কিশোর": 8486,
      "এক্রাইলিক": 8487,
      "মেদিনীপুর": 8488,
      "মেহেরপুর": 8489,
      "রেফ্রিজার": 8490,
      "ত্রয়োদশ": 8491,
      "পরিচিতি": 8492,
      "পরিসংখ্যান": 8493,
      "পিস্তল": 8494,
      "জাকারিয়া": 8495,
      "দুষ্টু": 8496,
      "প্রতিশ্রুতি": 8497,
      "মোবাইলে": 8498,
      "শাবনুর": 8499,
      "সুস্বাদু": 8500,
      "খেজুরগুলো": 8501,
      "নামানুসারে": 8502,
      "ফিনালের": 8503,
      "কলকব্জা": 8504,
      "আহম্মেদ": 8505,
      "অ্যাভেঞ্জার্স": 8506,
      "সোনাগাছি": 8507,
      "এন্ডোর্সমেন্ট": 8508,
      "ধর্মান্ধ": 8509,
      "কনস্টেবল": 8510,
      "ধর্মভীরু": 8511,
      "ক্যাটাগরীর": 8512,
      "লুক্সেমবুর্": 8513,
      "10000mAh": 8514,
      "যুদ্ধাপরা": 8515,
      "মোটামুটি": 8516,
      "প্লাস্টিকের": 8517,
      "বাবধায়ক": 8518,
      "অস্ত্রোপচার": 8519,
      "সাম্প্রদায়িক": 8520,
      "সারাক্ষণই": 8521,
      "পাথারকান্দি": 8522,
      "আফগানিস্ত": 8523,
      "আলাওলপুর": 8524,
      "017842222": 8525,
      "শ্যামাঙ্গিনী": 8526,
      "facebook": 8527,
      "blowjob": 8528,
      "!)": 8529,
      "!”": 8530,
      "'/": 8531,
      ").": 8532,
      "):": 8533,
      ",‘": 8534,
      ".,": 8535,
      "29": 8536,
      "34": 8537,
      "38": 8538,
      "39": 8539,
      "313": 8540,
      "435": 8541,
      "62": 8542,
      "69": 8543,
      "608": 8544,
      "71": 8545,
      "72": 8546,
      "7t": 8547,
      "?’": 8548,
      "?”": 8549,
      "AR": 8550,
      "AS": 8551,
      "Ac": 8552,
      "App": 8553,
      "AOR": 8554,
      "ASS": 8555,
      "Bu": 8556,
      "Ben": 8557,
      "Bro": 8558,
      "Bangl": 8559,
      "CC": 8560,
      "Cl": 8561,
      "Cu": 8562,
      "Con": 8563,
      "Com": 8564,
      "Col": 8565,
      "COR": 8566,
      "Cart": 8567,
      "DF": 8568,
      "Do": 8569,
      "Dre": 8570,
      "Dem": 8571,
      "EW": 8572,
      "For": 8573,
      "GM": 8574,
      "GY": 8575,
      "HT": 8576,
      "HAC": 8577,
      "HNO": 8578,
      "Human": 8579,
      "IV": 8580,
      "Jo": 8581,
      "Jus": 8582,
      "Ku": 8583,
      "La": 8584,
      "Li": 8585,
      "Language": 8586,
      "MO": 8587,
      "Mon": 8588,
      "Mov": 8589,
      "Mag": 8590,
      "MMS": 8591,
      "NEW": 8592,
      "Oc": 8593,
      "PR": 8594,
      "Po": 8595,
      "Pri": 8596,
      "PAN": 8597,
      "PDF": 8598,
      "Qu": 8599,
      "Ru": 8600,
      "Right": 8601,
      "SE": 8602,
      "Su": 8603,
      "Sin": 8604,
      "Son": 8605,
      "Sam": 8606,
      "Satur": 8607,
      "To": 8608,
      "Tag": 8609,
      "TOR": 8610,
      "TIV": 8611,
      "Ur": 8612,
      "Vi": 8613,
      "We": 8614,
      "Wh": 8615,
      "\\(\\": 8616,
      "].": 8617,
      "bar": 8618,
      "bal": 8619,
      "bol": 8620,
      "baz": 8621,
      "cy": 8622,
      "cra": 8623,
      "cri": 8624,
      "der": 8625,
      "don": 8626,
      "dsw": 8627,
      "ee": 8628,
      "ef": 8629,
      "ex": 8630,
      "eal": 8631,
      "fe": 8632,
      "fin": 8633,
      "fun": 8634,
      "ga": 8635,
      "gi": 8636,
      "gl": 8637,
      "gy": 8638,
      "gan": 8639,
      "ger": 8640,
      "gle": 8641,
      "goo": 8642,
      "hd": 8643,
      "hi": 8644,
      "hn": 8645,
      "ho": 8646,
      "hin": 8647,
      "hon": 8648,
      "hoo": 8649,
      "heal": 8650,
      "iz": 8651,
      "ient": 8652,
      "kn": 8653,
      "kar": 8654,
      "kist": 8655,
      "ln": 8656,
      "lt": 8657,
      "lle": 8658,
      "lfi": 8659,
      "ml": 8660,
      "min": 8661,
      "mer": 8662,
      "mes": 8663,
      "na": 8664,
      "nation": 8665,
      "niv": 8666,
      "ob": 8667,
      "op": 8668,
      "oti": 8669,
      "oil": 8670,
      "ocra": 8671,
      "per": 8672,
      "pri": 8673,
      "que": 8674,
      "r_": 8675,
      "res": 8676,
      "ris": 8677,
      "rue": 8678,
      "sa": 8679,
      "sha": 8680,
      "sion": 8681,
      "sattar": 8682,
      "s60": 8683,
      "same": 8684,
      "soil": 8685,
      "tin": 8686,
      "ted": 8687,
      "tra": 8688,
      "tag": 8689,
      "tus": 8690,
      "tant": 8691,
      "ude": 8692,
      "uel": 8693,
      "vat": 8694,
      "was": 8695,
      "with": 8696,
      "will": 8697,
      "websit": 8698,
      "you": 8699,
      "z8": 8700,
      "ঁর": 8701,
      "ঁছে": 8702,
      "ঁয়া": 8703,
      "ঁদুর": 8704,
      "ংক": 8705,
      "ংশন": 8706,
      "ংসের": 8707,
      "ংশী": 8708,
      "অত": 8709,
      "অকে": 8710,
      "অপ্র": 8711,
      "অক্ষ": 8712,
      "অসম": 8713,
      "অক্স": 8714,
      "অমানুষ": 8715,
      "অজানা": 8716,
      "অশাল": 8717,
      "অকৃত": 8718,
      "অত্য": 8719,
      "অমিত": 8720,
      "অনিবার": 8721,
      "অবিশ্বাস": 8722,
      "অফার": 8723,
      "অনিয়মিত": 8724,
      "অশান্তি": 8725,
      "অস্থায়ী": 8726,
      "অলঙ্": 8727,
      "অসীম": 8728,
      "অনিশ্চয়": 8729,
      "অতীত": 8730,
      "অস্থির": 8731,
      "অ্যারো": 8732,
      "অংশী": 8733,
      "আউ": 8734,
      "আঙ": 8735,
      "আছ": 8736,
      "আবে": 8737,
      "আস্": 8738,
      "আহা": 8739,
      "আদা": 8740,
      "আঙ্গ": 8741,
      "আস্থা": 8742,
      "আংশ": 8743,
      "আলাপ": 8744,
      "আঁকি": 8745,
      "আযানের": 8746,
      "আড়াল": 8747,
      "আয়াত": 8748,
      "আড্ডা": 8749,
      "আকাশে": 8750,
      "আভিযান": 8751,
      "আহাম্": 8752,
      "ইক্": 8753,
      "ইনে": 8754,
      "ইন্ত": 8755,
      "ইমো": 8756,
      "ইচ্ছে": 8757,
      "ইকু": 8758,
      "ইস্ত্র": 8759,
      "ইহু": 8760,
      "ইনিং": 8761,
      "ইরানের": 8762,
      "ইবনে": 8763,
      "ইয়ং": 8764,
      "ইস্পা": 8765,
      "ইপমেন্ট": 8766,
      "উত": 8767,
      "উভ": 8768,
      "উলি": 8769,
      "উনার": 8770,
      "উরু": 8771,
      "উসমান": 8772,
      "উষা": 8773,
      "উড়াল": 8774,
      "উষ্ণ": 8775,
      "উর্ধ্বতন": 8776,
      "এব": 8777,
      "এদেশ": 8778,
      "এআর": 8779,
      "এভার": 8780,
      "এসের": 8781,
      "এবাদ": 8782,
      "এ্যাল": 8783,
      "এগি": 8784,
      "এয়ার": 8785,
      "এছাড়া": 8786,
      "এরাই": 8787,
      "এড়িয়ে": 8788,
      "এগুলোর": 8789,
      "এসিড": 8790,
      "এডিপি": 8791,
      "এবিএক্স": 8792,
      "এপাড়ে": 8793,
      "এ্যানে": 8794,
      "ওয": 8795,
      "ওবা": 8796,
      "ওগুলো": 8797,
      "ওজনের": 8798,
      "ওমর": 8799,
      "ওল্ড": 8800,
      "ওপেন": 8801,
      "ওমরা": 8802,
      "কথ": 8803,
      "কদ": 8804,
      "কতি": 8805,
      "কনে": 8806,
      "কসম": 8807,
      "কটা": 8808,
      "কীয়": 8809,
      "কড়া": 8810,
      "কবলে": 8811,
      "কড়": 8812,
      "কচি": 8813,
      "কলার": 8814,
      "ক্যাল": 8815,
      "কানি": 8816,
      "কান্ড": 8817,
      "কানী": 8818,
      "কদর": 8819,
      "কলিং": 8820,
      "কন্ট": 8821,
      "কলাপ": 8822,
      "কয়েন": 8823,
      "কদ্দ": 8824,
      "ক্যান্": 8825,
      "কচক্র": 8826,
      "কান্তি": 8827,
      "খরা": 8828,
      "খসর": 8829,
      "খিন": 8830,
      "খনিতে": 8831,
      "খমীর": 8832,
      "খবরে": 8833,
      "খন্দে": 8834,
      "গও": 8835,
      "গৎ": 8836,
      "গয়": 8837,
      "গাম": 8838,
      "গছেন": 8839,
      "গলি": 8840,
      "গনার": 8841,
      "গড়ি": 8842,
      "গড়া": 8843,
      "গফর": 8844,
      "গদ্য": 8845,
      "গালি": 8846,
      "গতিতে": 8847,
      "ঘৃ": 8848,
      "ঘ্র": 8849,
      "ঘির": 8850,
      "ঘনিষ্ঠ": 8851,
      "চদের": 8852,
      "চয়": 8853,
      "চীর": 8854,
      "চখা": 8855,
      "চেন্": 8856,
      "চন্দ": 8857,
      "চণ্ড": 8858,
      "চটগ্রাম": 8859,
      "চখি": 8860,
      "চক্রে": 8861,
      "চান্তে": 8862,
      "চড়াই": 8863,
      "ছক": 8864,
      "ছল": 8865,
      "ছের": 8866,
      "ছয়ে": 8867,
      "ছনা": 8868,
      "ছটা": 8869,
      "ছনার": 8870,
      "ছড়": 8871,
      "ছামা": 8872,
      "ছায়া": 8873,
      "জৈ": 8874,
      "জলে": 8875,
      "জ্যা": 8876,
      "জয়": 8877,
      "জটা": 8878,
      "জিক": 8879,
      "জগত": 8880,
      "জালে": 8881,
      "জমার": 8882,
      "জলের": 8883,
      "জসিম": 8884,
      "জিলার": 8885,
      "জটিল": 8886,
      "জখমীর": 8887,
      "ঝর": 8888,
      "ঝে": 8889,
      "ঝড়": 8890,
      "ঝাপ": 8891,
      "ঝামে": 8892,
      "টকা": 8893,
      "টমে": 8894,
      "টগ্রামের": 8895,
      "টহাট": 8896,
      "টট্রিক": 8897,
      "ঠের": 8898,
      "ঠ্যাং": 8899,
      "ডাল": 8900,
      "ড্যা": 8901,
      "ডিল": 8902,
      "ডলি": 8903,
      "ডানে": 8904,
      "ডক্স": 8905,
      "ডফিল": 8906,
      "ডিলি": 8907,
      "ডক্টর": 8908,
      "ডকাস্ট": 8909,
      "ঢং": 8910,
      "ঢ্য": 8911,
      "ঢাক": 8912,
      "ণয়": 8913,
      "ণ্য": 8914,
      "তই": 8915,
      "তলে": 8916,
      "তন্": 8917,
      "তদের": 8918,
      "তথাক": 8919,
      "তলায়": 8920,
      "তত্ত্ব": 8921,
      "তত্‍‌": 8922,
      "থম": 8923,
      "থাম": 8924,
      "থলে": 8925,
      "থুন": 8926,
      "থ্রি": 8927,
      "থামে": 8928,
      "থপেস্ট": 8929,
      "দব": 8930,
      "দকে": 8931,
      "দর্": 8932,
      "দলী": 8933,
      "দমনে": 8934,
      "দমের": 8935,
      "দগ্ধ": 8936,
      "ধক": 8937,
      "ধো": 8938,
      "ধৃত": 8939,
      "ধলেন": 8940,
      "ধিত্ব": 8941,
      "ধবগুড়া": 8942,
      "ধ্রু": 8943,
      "নন্": 8944,
      "নজি": 8945,
      "নহে": 8946,
      "নতু": 8947,
      "নয়ন": 8948,
      "নফল": 8949,
      "নরত": 8950,
      "নজির": 8951,
      "নদীর": 8952,
      "নবরাত্রি": 8953,
      "প‌": 8954,
      "পবা": 8955,
      "পটি": 8956,
      "পটে": 8957,
      "প্যান": 8958,
      "পচা": 8959,
      "পগা": 8960,
      "পশন": 8961,
      "পশু": 8962,
      "পোর": 8963,
      "পানা": 8964,
      "পান্": 8965,
      "পহু": 8966,
      "প্যার": 8967,
      "পশুর": 8968,
      "পচাঁ": 8969,
      "পন্স": 8970,
      "প্যারি": 8971,
      "পডকাস্ট": 8972,
      "ফী": 8973,
      "ফেন": 8974,
      "ফাম": 8975,
      "ফতে": 8976,
      "ফ্লা": 8977,
      "ফসল": 8978,
      "বচ": 8979,
      "বকা": 8980,
      "বয়া": 8981,
      "বঙ্": 8982,
      "বুন": 8983,
      "বডি": 8984,
      "বঞ্": 8985,
      "বসব": 8986,
      "বনাম": 8987,
      "বয়ে": 8988,
      "বঙ্গে": 8989,
      "বস্থা": 8990,
      "বানা": 8991,
      "বসার": 8992,
      "বধু": 8993,
      "বণি": 8994,
      "বড়াই": 8995,
      "বস্থায়": 8996,
      "বৎসর": 8997,
      "ভজন": 8998,
      "ভয়ান": 8999,
      "ভট্টা": 9000,
      "মক": 9001,
      "মৈ": 9002,
      "মলে": 9003,
      "মশি": 9004,
      "মজি": 9005,
      "মস্ত": 9006,
      "মরি": 9007,
      "মোগ": 9008,
      "মইন": 9009,
      "মন্ড": 9010,
      "মেন্দ্র": 9011,
      "মর্ত": 9012,
      "মস্তি": 9013,
      "মহারা": 9014,
      "মকবুল": 9015,
      "মরিয়": 9016,
      "মন্ডি": 9017,
      "মণিক": 9018,
      "ময়নাল": 9019,
      "য্যা": 9020,
      "রউ": 9021,
      "রঙ": 9022,
      "রজ": 9023,
      "রড": 9024,
      "রব": 9025,
      "রইল": 9026,
      "রানা": 9027,
      "রবার্": 9028,
      "রতন": 9029,
      "রামা": 9030,
      "রহাট": 9031,
      "রেন্ড": 9032,
      "রজত": 9033,
      "রওনা": 9034,
      "রচনায়": 9035,
      "লই": 9036,
      "লট": 9037,
      "লয়ে": 9038,
      "লতি": 9039,
      "লুল": 9040,
      "লকেট": 9041,
      "লুক": 9042,
      "লজ্জা": 9043,
      "লবণ": 9044,
      "লড়তে": 9045,
      "শৈ": 9046,
      "শয়": 9047,
      "শনি": 9048,
      "শুল": 9049,
      "শকি": 9050,
      "শোগ": 9051,
      "শশা": 9052,
      "শলী": 9053,
      "শ্যাম্প": 9054,
      "শামি": 9055,
      "শপিং": 9056,
      "শরিফ": 9057,
      "শঙ্কর": 9058,
      "শয্যা": 9059,
      "ষমন": 9060,
      "ষোলো": 9061,
      "সস": 9062,
      "সবে": 9063,
      "সনা": 9064,
      "সদি": 9065,
      "সনের": 9066,
      "সোগ": 9067,
      "সানের": 9068,
      "সন্তু": 9069,
      "সক্ষমতা": 9070,
      "সঞ্চ": 9071,
      "সঞ্জয়": 9072,
      "সপন্স": 9073,
      "হমি": 9074,
      "হিল": 9075,
      "হবার": 9076,
      "হরের": 9077,
      "হবো": 9078,
      "হার্ড": 9079,
      "হওয়া": 9080,
      "হইলে": 9081,
      "হ্রা": 9082,
      "হিলি": 9083,
      "হিলার": 9084,
      "হচ্ছিল": 9085,
      "হকার্স": 9086,
      "াখ": 9087,
      "াবা": 9088,
      "াগে": 9089,
      "াগ্রাম": 9090,
      "াবাস": 9091,
      "ায়া": 9092,
      "াচনা": 9093,
      "াফট": 9094,
      "িফ": 9095,
      "িয়": 9096,
      "িদের": 9097,
      "িয়ার": 9098,
      "িয়ে": 9099,
      "িয়ন": 9100,
      "িতির": 9101,
      "িঙ্গা": 9102,
      "ীত": 9103,
      "ীব": 9104,
      "ীম": 9105,
      "ীহ": 9106,
      "ুই": 9107,
      "ুদ": 9108,
      "ুপ": 9109,
      "ুফ": 9110,
      "ুব": 9111,
      "ুন্": 9112,
      "ুজার": 9113,
      "ুঙ্গি": 9114,
      "ুচদের": 9115,
      "ৃতায়": 9116,
      "েকাল": 9117,
      "েটারী": 9118,
      "ৈক": 9119,
      "ৈরের": 9120,
      "োক": 9121,
      "োথ": 9122,
      "োতে": 9123,
      "োটা": 9124,
      "োক্ত": 9125,
      "োত্ত": 9126,
      "োইন": 9127,
      "োলিন": 9128,
      "োত্তর": 9129,
      "োডক্স": 9130,
      "্ই": 9131,
      "্ডি": 9132,
      "্টার": 9133,
      "ৗধুর": 9134,
      "ৗলভী": 9135,
      "ড়ক": 9136,
      "ড়নের": 9137,
      "ড়লো": 9138,
      "য়নের": 9139,
      "য়ানের": 9140,
      "য়ার্ড": 9141,
      "য়েন্টি": 9142,
      "য়েন্দা": 9143,
      "০৪": 9144,
      "০২৪": 9145,
      "১টি": 9146,
      "১টার": 9147,
      "২২৪৪": 9148,
      "৩শ": 9149,
      "৩টার": 9150,
      "৩১৬": 9151,
      "৩৫০": 9152,
      "৩৯৯": 9153,
      "৪২": 9154,
      "৪টি": 9155,
      "৪টার": 9156,
      "৪র্থ": 9157,
      "৪৪০": 9158,
      "৫ম": 9159,
      "৫১": 9160,
      "৫৪": 9161,
      "৫টি": 9162,
      "৬০০০": 9163,
      "৬২৩": 9164,
      "৬৩৭": 9165,
      "৭২৪": 9166,
      "৭৫০": 9167,
      "৭টায়": 9168,
      "৭৫৭": 9169,
      "৮০০০": 9170,
      "৯০": 9171,
      "৯৩": 9172,
      "৯টা": 9173,
      "৯টার": 9174,
      "‌জি": 9175,
      "‌গের": 9176,
      "‌রিক্ত": 9177,
      "েরিতে": 9178,
      "্রমায়": 9179,
      "্যালে": 9180,
      "ানয়ন": 9181,
      "ানসো": 9182,
      "করান": 9183,
      "করানো": 9184,
      "করানোর": 9185,
      "্তজা": 9186,
      "বিউ": 9187,
      "বিগ": 9188,
      "বিতা": 9189,
      "বিপা": 9190,
      "বিচ্ছে": 9191,
      "বিকল": 9192,
      "বিরাজ": 9193,
      "বিড়ি": 9194,
      "বিদেশের": 9195,
      "বিচিত্র": 9196,
      "বিকৃত": 9197,
      "বিলায়": 9198,
      "নিধ": 9199,
      "নিল": 9200,
      "নিবি": 9201,
      "নিবে": 9202,
      "নিকো": 9203,
      "নিয়ার": 9204,
      "নিবাস": 9205,
      "নিবেশ": 9206,
      "নিবন্ধ": 9207,
      "নিতাই": 9208,
      "নিচের": 9209,
      "নিদর্শন": 9210,
      "নিছক": 9211,
      "বাক": 9212,
      "বাঘ": 9213,
      "বাতা": 9214,
      "বাদি": 9215,
      "বাহা": 9216,
      "বাঞ্": 9217,
      "বাবর": 9218,
      "বাড়া": 9219,
      "বাহার": 9220,
      "বাসর": 9221,
      "বায়ো": 9222,
      "বালের": 9223,
      "বাকী": 9224,
      "বাহন": 9225,
      "বাকারা": 9226,
      "বাবুর": 9227,
      "বাশার": 9228,
      "বাউনি": 9229,
      "বাক্সের": 9230,
      "বাৎসর": 9231,
      "বাশীষ": 9232,
      "েনা": 9233,
      "েননি": 9234,
      "কেয়া": 9235,
      "কেটার": 9236,
      "কেমিক": 9237,
      "কেটেড": 9238,
      "কেভিন": 9239,
      "কেশান": 9240,
      "প্রু": 9241,
      "প্রসে": 9242,
      "প্রবল": 9243,
      "প্রস্থ": 9244,
      "প্রচে": 9245,
      "প্রশ্র": 9246,
      "প্রদেশের": 9247,
      "প্রোট": 9248,
      "প্রতী": 9249,
      "প্রবীর": 9250,
      "প্রশান্ত": 9251,
      "প্রজন্ম": 9252,
      "প্রমূ": 9253,
      "প্র্যাক": 9254,
      "প্রদায়": 9255,
      "প্রকাশে": 9256,
      "প্রস্র": 9257,
      "প্রভূত": 9258,
      "ামান": 9259,
      "ামিত": 9260,
      "ামপুর": 9261,
      "ামূলক": 9262,
      "ামন্ত্রী": 9263,
      "ালন": 9264,
      "ালের": 9265,
      "াল্টি": 9266,
      "য়েলে": 9267,
      "য়েশি": 9268,
      "তেমনি": 9269,
      "র্শে": 9270,
      "বেপার": 9271,
      "বেড়া": 9272,
      "বেভার": 9273,
      "বেলায়": 9274,
      "বেধে": 9275,
      "বেসিক": 9276,
      "বেভারে": 9277,
      "বেকেটের": 9278,
      "বেড়ান": 9279,
      "তিত": 9280,
      "তিজা": 9281,
      "তিতাস": 9282,
      "তিলাওয়াত": 9283,
      "টিলা": 9284,
      "টিনের": 9285,
      "টিমের": 9286,
      "টিপস": 9287,
      "কায়ে": 9288,
      "কাজা": 9289,
      "কাকরা": 9290,
      "কাড়": 9291,
      "কাঁচ": 9292,
      "কাতুল": 9293,
      "কাটিয়ে": 9294,
      "কাংশে": 9295,
      "লো": 9296,
      "লেনি": 9297,
      "লেটের": 9298,
      "লেট্রি": 9299,
      "নায়ে": 9300,
      "নাভা": 9301,
      "নাথে": 9302,
      "নাস্ত": 9303,
      "নাযে": 9304,
      "নাটো": 9305,
      "নাজমা": 9306,
      "নাথান": 9307,
      "নাসায়": 9308,
      "নাটকে": 9309,
      "নাপিত": 9310,
      "নাগাল": 9311,
      "স্বে": 9312,
      "স্কি": 9313,
      "স্পার": 9314,
      "স্নান": 9315,
      "স্লাব": 9316,
      "লাসি": 9317,
      "লাদু": 9318,
      "লাদা": 9319,
      "লাভাই": 9320,
      "লাতুল": 9321,
      "লাজুক": 9322,
      "রাব": 9323,
      "রাগে": 9324,
      "রাজার": 9325,
      "রাসের": 9326,
      "রাফা": 9327,
      "রায়ের": 9328,
      "রাগের": 9329,
      "রাগী": 9330,
      "রাফিল": 9331,
      "ছেদ": 9332,
      "ছো": 9333,
      "ছেঁটে": 9334,
      "ক্লি": 9335,
      "ক্ট্র": 9336,
      "ক্লায়": 9337,
      "ক্লিপ": 9338,
      "ক্লিয়ার": 9339,
      "ক্লান্ত": 9340,
      "তাদ": 9341,
      "তাসব": 9342,
      "তাড়া": 9343,
      "তাহের": 9344,
      "তাবাসের": 9345,
      "তায়াত": 9346,
      "পরনে": 9347,
      "পরমে": 9348,
      "পরদিন": 9349,
      "পরশু": 9350,
      "পরবর্ত": 9351,
      "পরপরই": 9352,
      "দিই": 9353,
      "দিল": 9354,
      "দিকরা": 9355,
      "দিলাম": 9356,
      "দিবো": 9357,
      "দিনেই": 9358,
      "দিচ্ছেন": 9359,
      "দিনাজ": 9360,
      "দিতেন": 9361,
      "দিপ্পি": 9362,
      "দেউ": 9363,
      "দেহে": 9364,
      "দেহী": 9365,
      "দেবের": 9366,
      "দেহত্যা": 9367,
      "দেয়ার": 9368,
      "দেয়াল": 9369,
      "দেওয়ায়": 9370,
      "দেওযা": 9371,
      "দেবাশীষ": 9372,
      "দোলন": 9373,
      "মাও": 9374,
      "মাতে": 9375,
      "মাসা": 9376,
      "মাহা": 9377,
      "মাজার": 9378,
      "মাস্ট": 9379,
      "মাটির": 9380,
      "মাণে": 9381,
      "মাপের": 9382,
      "মাংস": 9383,
      "মাগী": 9384,
      "মাবলম্ব": 9385,
      "নেটে": 9386,
      "নেবেন": 9387,
      "নেওয়া": 9388,
      "নেপালের": 9389,
      "ন্দল": 9390,
      "ন্টু": 9391,
      "ন্দ্বি": 9392,
      "ন্বয়ে": 9393,
      "্যাসফে": 9394,
      "দেরকে": 9395,
      "ায়ান": 9396,
      "কার্যে": 9397,
      "কারখানা": 9398,
      "মিউ": 9399,
      "মিঞ": 9400,
      "মিঠ": 9401,
      "মিতা": 9402,
      "মিশ্র": 9403,
      "মিউনি": 9404,
      "মিয়াম": 9405,
      "মির্জার": 9406,
      "মিডফিল": 9407,
      "মিন্টু": 9408,
      "ক্ষত": 9409,
      "ক্ষার": 9410,
      "ক্ষমা": 9411,
      "ক্ষ্ম": 9412,
      "ক্ষণা": 9413,
      "ক্ষতির": 9414,
      "ক্ষণের": 9415,
      "সমীর": 9416,
      "সমবায়": 9417,
      "পাড়": 9418,
      "পাতার": 9419,
      "পাঞ্": 9420,
      "পাগা": 9421,
      "পাটের": 9422,
      "পাণ্ড": 9423,
      "পাচ্ছেন": 9424,
      "পাগলা": 9425,
      "সিয়া": 9426,
      "সিয়ে": 9427,
      "সিসের": 9428,
      "সিলের": 9429,
      "সিকিম": 9430,
      "সিউড়": 9431,
      "ভাত": 9432,
      "ভাস": 9433,
      "ভাবা": 9434,
      "ভাতা": 9435,
      "ভাবের": 9436,
      "সেজ": 9437,
      "সেট": 9438,
      "সেম": 9439,
      "সেজান": 9440,
      "সেজন্য": 9441,
      "সেলাই": 9442,
      "সেদিকে": 9443,
      "সেবায়": 9444,
      "সেক্ট": 9445,
      "সেক্সি": 9446,
      "সেমিনার": 9447,
      "সেচ্ছাসেবক": 9448,
      "জনীন": 9449,
      "জনসভা": 9450,
      "জনপদ": 9451,
      "জননেত্রী": 9452,
      "জনসংযোগ": 9453,
      "জনশক্তি": 9454,
      "জনসমক্ষে": 9455,
      "জনৈক": 9456,
      "সাস": 9457,
      "সাজান": 9458,
      "সাধ্য": 9459,
      "সাপ্ত": 9460,
      "সাইন": 9461,
      "সাপোর্": 9462,
      "সাহাসি": 9463,
      "সাপোর্ট": 9464,
      "সাশ্রয়": 9465,
      "সাঈদ": 9466,
      "সাখাওয়া": 9467,
      "সাব্বির": 9468,
      "করেও": 9469,
      "কিকরণ": 9470,
      "একক": 9471,
      "একত্র": 9472,
      "একান্ত": 9473,
      "একসঙ্গে": 9474,
      "একপর্যায়ে": 9475,
      "একনিষ্ঠ": 9476,
      "য়াবাদ": 9477,
      "টাও": 9478,
      "হাথ": 9479,
      "হাদ": 9480,
      "হাফ": 9481,
      "হাতা": 9482,
      "হাটা": 9483,
      "হাদা": 9484,
      "হাওয়া": 9485,
      "হাচি": 9486,
      "হাড়ে": 9487,
      "হাফে": 9488,
      "হাওয়ার": 9489,
      "হাজী": 9490,
      "হাদী": 9491,
      "হাড়ের": 9492,
      "হাতাহা": 9493,
      "হাশিয়া": 9494,
      "হাট্টা": 9495,
      "হাজিরা": 9496,
      "হাফিজ": 9497,
      "হাসাহাসি": 9498,
      "মেটিক": 9499,
      "মেটাল": 9500,
      "মেট্রিক": 9501,
      "মেডিক": 9502,
      "মৌলভী": 9503,
      "ন্তায়": 9504,
      "ার্থে": 9505,
      "ার্কের": 9506,
      "কোলে": 9507,
      "কোলা": 9508,
      "কোনে": 9509,
      "কোষ্ঠ": 9510,
      "কোস্ট": 9511,
      "কোটির": 9512,
      "কোস্টার": 9513,
      "কোরাস": 9514,
      "কোন্দল": 9515,
      "ষ্ক": 9516,
      "ষ্টে": 9517,
      "ষ্টের": 9518,
      "ষ্কৃত": 9519,
      "দ্ধ্য": 9520,
      "দ্বাদ": 9521,
      "দ্দার": 9522,
      "িলেন": 9523,
      "িল্লাহি": 9524,
      "গেমে": 9525,
      "গেশন": 9526,
      "গেটিভ": 9527,
      "ঙ্কায়": 9528,
      "রেশ": 9529,
      "রেজভী": 9530,
      "রেখায়": 9531,
      "রেঞ্জের": 9532,
      "রেসপন্স": 9533,
      "বারটি": 9534,
      "বারান্": 9535,
      "বারেই": 9536,
      "তারানা": 9537,
      "তারপরেও": 9538,
      "দেশীদের": 9539,
      "দেশটিতে": 9540,
      "দেশবাসীর": 9541,
      "মানত": 9542,
      "মানতার": 9543,
      "মাননীয়": 9544,
      "মানগমন": 9545,
      "ব্যথা": 9546,
      "ব্যঙ্গ": 9547,
      "য়ারা": 9548,
      "য়ারতের": 9549,
      "য়ারপাড়": 9550,
      "শিরা": 9551,
      "শিয়ান": 9552,
      "শিউলি": 9553,
      "সংগ্র": 9554,
      "সংক্ষে": 9555,
      "সংগ্রাম": 9556,
      "সংকল": 9557,
      "সংজ্ঞ": 9558,
      "সংবেদন": 9559,
      "সংস্থায়": 9560,
      "সংসারে": 9561,
      "সংঘাত": 9562,
      "ত্রাণ": 9563,
      "পরিশ্র": 9564,
      "পরিমানে": 9565,
      "পরিসরে": 9566,
      "পরিবর্ধ": 9567,
      "পরিপ্রেক্ষিতে": 9568,
      "জেট": 9569,
      "জেগে": 9570,
      "জেএম": 9571,
      "জেলের": 9572,
      "জেএসসি": 9573,
      "জোট": 9574,
      "জেসিয়া": 9575,
      "জেহাদ": 9576,
      "জিব": 9577,
      "জিভ": 9578,
      "জিৎ": 9579,
      "জিমা": 9580,
      "জিয়া": 9581,
      "জিঙ্ক": 9582,
      "জিহাদি": 9583,
      "জিএসটি": 9584,
      "ভির": 9585,
      "ভিড়ে": 9586,
      "লিও": 9587,
      "লিপ্ত": 9588,
      "লিফা": 9589,
      "লিপন": 9590,
      "লিমের": 9591,
      "ক্তিক": 9592,
      "যাজ": 9593,
      "যাহা": 9594,
      "যাযা": 9595,
      "যাচ্ছি": 9596,
      "যাচ্ছিল": 9597,
      "যাদব": 9598,
      "যাতায়াত": 9599,
      "মুফ": 9600,
      "মুতের": 9601,
      "মুহু": 9602,
      "মুহিত": 9603,
      "মুজ্জামান": 9604,
      "মুঠো": 9605,
      "হয়েও": 9606,
      "গ্রামী": 9607,
      "গ্রিকভাবে": 9608,
      "পিসি": 9609,
      "পিয়া": 9610,
      "পিটে": 9611,
      "পিছু": 9612,
      "পিএইচ": 9613,
      "পিইসি": 9614,
      "পিটকে": 9615,
      "পিটিয়ে": 9616,
      "পিয়ং": 9617,
      "পিটিসি": 9618,
      "পিএবিএক্স": 9619,
      "অনবদ": 9620,
      "অন্যায়": 9621,
      "টেনি": 9622,
      "টেস্টে": 9623,
      "স্তন": 9624,
      "জানবে": 9625,
      "পারত": 9626,
      "পারছে": 9627,
      "পারসন": 9628,
      "পারলেন": 9629,
      "পারফর": 9630,
      "পারছিলাম": 9631,
      "পারফর্": 9632,
      "পারফরম": 9633,
      "পারলেই": 9634,
      "পারভেজ": 9635,
      "পারভীন": 9636,
      "রিজ": 9637,
      "রিম": 9638,
[...]
