{
  "version": "1.0",
  "truncation": null,
  "padding": null,
  "added_tokens": [
    {
      "id": 0,
      "content": "<unk>",
      "single_word": false,
      "lstrip": false,
      "rstrip": false,
      "normalized": false,
      "special": true
    },
    {
      "id": 1,
      "content": "<pad>",
      "single_word": false,
      "lstrip": false,
      "rstrip": false,
      "normalized": false,
      "special": true
    },
    {
      "id": 2,
      "content": "<s>",
      "single_word": false,
      "lstrip": false,
      "rstrip": false,
      "normalized": false,
      "special": true
    },
    {
      "id": 3,
      "content": "</s>",
      "single_word": false,
      "lstrip": false,
      "rstrip": false,
      "normalized": false,
      "special": true
    },
    {
      "id": 4,
      "content": "<mask>",
      "single_word": false,
      "lstrip": false,
      "rstrip": false,
      "normalized": false,
      "special": true
    }
  ],
  "normalizer": {
    "type": "Sequence",
    "normalizers": [
      {
        "type": "NFC"
      }
    ]
  },
  "pre_tokenizer": {
    "type": "Sequence",
    "pretokenizers": [
      {
        "type": "Metaspace",
        "replacement": "▁",
        "prepend_scheme": "always",
        "split": true
      }
    ]
  },
  "post_processor": {
    "type": "TemplateProcessing",
    "single": [
      {
        "SpecialToken": {
          "id": "<s>",
          "type_id": 0
        }
      },
      {
        "Sequence": {
          "id": "A",
          "type_id": 0
        }
      },
      {
        "SpecialToken": {
          "id": "</s>",
          "type_id": 0
        }
      }
    ],
    "pair": [
      {
        "Sequence": {
          "id": "A",
          "type_id": 0
        }
      },
      {
        "Sequence": {
          "id": "B",
          "type_id": 1
        }
      }
    ],
    "special_tokens": {
      "</s>": {
        "id": "</s>",
        "ids": [
          3
        ],
        "tokens": [
          "</s>"
        ]
      },
      "<s>": {
        "id": "<s>",
        "ids": [
          2
        ],
        "tokens": [
          "<s>"
        ]
      }
    }
  },
  "decoder": {
    "type": "Metaspace",
    "replacement": "_",
    "prepend_scheme": "always",
    "split": true
  },
  "model": {
    "type": "BPE",
    "dropout": null,
    "unk_token": "<unk>",
    "continuing_subword_prefix": null,
    "end_of_word_suffix": null,
    "fuse_unk": false,
    "byte_fallback": false,
    "ignore_merges": false,
    "vocab": {
      "<unk>": 0,
      "<pad>": 1,
      "<s>": 2,
      "</s>": 3,
      "<mask>": 4,
      "\u0003": 5,
      "\t": 6,
      "\n": 7,
      "!": 8,
      "\"": 9,
      "#": 10,
      "$": 11,
      "%": 12,
      "&": 13,
      "'": 14,
      "(": 15,
      ")": 16,
      "*": 17,
      "+": 18,
      ",": 19,
      "-": 20,
      ".": 21,
      "/": 22,
      "0": 23,
      "1": 24,
      "2": 25,
      "3": 26,
      "4": 27,
      "5": 28,
      "6": 29,
      "7": 30,
      "8": 31,
      "9": 32,
      ":": 33,
      ";": 34,
      "<": 35,
      "=": 36,
      ">": 37,
      "?": 38,
      "@": 39,
      "A": 40,
      "B": 41,
      "C": 42,
      "D": 43,
      "E": 44,
      "F": 45,
      "G": 46,
      "H": 47,
      "I": 48,
      "J": 49,
      "K": 50,
      "L": 51,
      "M": 52,
      "N": 53,
      "O": 54,
      "P": 55,
      "Q": 56,
      "R": 57,
      "S": 58,
      "T": 59,
      "U": 60,
      "V": 61,
      "W": 62,
      "X": 63,
      "Y": 64,
      "Z": 65,
      "[": 66,
      "\\": 67,
      "]": 68,
      "^": 69,
      "_": 70,
      "`": 71,
      "a": 72,
      "b": 73,
      "c": 74,
      "d": 75,
      "e": 76,
      "f": 77,
      "g": 78,
      "h": 79,
      "i": 80,
      "j": 81,
      "k": 82,
      "l": 83,
      "m": 84,
      "n": 85,
      "o": 86,
      "p": 87,
      "q": 88,
      "r": 89,
      "s": 90,
      "t": 91,
      "u": 92,
      "v": 93,
      "w": 94,
      "x": 95,
      "y": 96,
      "z": 97,
      "{": 98,
      "|": 99,
      "}": 100,
      "~": 101,
      "": 102,
      "": 103,
      " ": 104,
      "¡": 105,
      "£": 106,
      "¤": 107,
      "¥": 108,
      "¦": 109,
      "§": 110,
      "¨": 111,
      "©": 112,
      "«": 113,
      "¬": 114,
      "­": 115,
      "®": 116,
      "¯": 117,
      "°": 118,
      "²": 119,
      "´": 120,
      "·": 121,
      "»": 122,
      "¾": 123,
      "¿": 124,
      "É": 125,
      "Í": 126,
      "Ð": 127,
      "Ñ": 128,
      "Ö": 129,
      "×": 130,
      "Ø": 131,
      "ß": 132,
      "à": 133,
      "á": 134,
      "â": 135,
      "ã": 136,
      "ä": 137,
      "å": 138,
      "æ": 139,
      "ç": 140,
      "è": 141,
      "é": 142,
      "ê": 143,
      "ë": 144,
      "ì": 145,
      "í": 146,
      "ñ": 147,
      "ò": 148,
      "ó": 149,
      "ô": 150,
      "ö": 151,
      "÷": 152,
      "ø": 153,
      "ù": 154,
      "ú": 155,
      "ü": 156,
      "ý": 157,
      "ÿ": 158,
      "ā": 159,
      "ă": 160,
      "ą": 161,
      "č": 162,
      "Đ": 163,
      "đ": 164,
      "ē": 165,
      "ę": 166,
      "ě": 167,
      "ğ": 168,
      "ī": 169,
      "İ": 170,
      "ı": 171,
      "ĳ": 172,
      "ł": 173,
      "ō": 174,
      "ő": 175,
      "œ": 176,
      "ś": 177,
      "ş": 178,
      "š": 179,
      "Ŷ": 180,
      "Ÿ": 181,
      "ż": 182,
      "ž": 183,
      "ƒ": 184,
      "ơ": 185,
      "ư": 186,
      "Ʊ": 187,
      "ƻ": 188,
      "ƽ": 189,
      "Ǯ": 190,
      "ȫ": 191,
      "ɑ": 192,
      "ə": 193,
      "ɪ": 194,
      "ɱ": 195,
      "ʰ": 196,
      "ʱ": 197,
      "ʲ": 198,
      "ʼ": 199,
      "ʽ": 200,
      "ʿ": 201,
      "ˈ": 202,
      "ː": 203,
      "ˮ": 204,
      "̃": 205,
      "̨": 206,
      "̳": 207,
      "Ͷ": 208,
      "ͼ": 209,
      "Ε": 210,
      "ά": 211,
      "έ": 212,
      "ή": 213,
      "ί": 214,
      "α": 215,
      "β": 216,
      "γ": 217,
      "δ": 218,
      "ε": 219,
      "η": 220,
      "θ": 221,
      "ι": 222,
      "κ": 223,
      "λ": 224,
      "μ": 225,
      "ν": 226,
      "ο": 227,
      "π": 228,
      "ρ": 229,
      "ς": 230,
      "σ": 231,
      "τ": 232,
      "υ": 233,
      "φ": 234,
      "χ": 235,
      "ω": 236,
      "ό": 237,
      "А": 238,
      "Б": 239,
      "В": 240,
      "Г": 241,
      "Д": 242,
      "Е": 243,
      "Ж": 244,
      "З": 245,
      "И": 246,
      "К": 247,
      "Л": 248,
      "М": 249,
      "Н": 250,
      "О": 251,
      "П": 252,
      "Р": 253,
      "С": 254,
      "Т": 255,
      "У": 256,
      "Ф": 257,
      "Х": 258,
      "Ц": 259,
      "Ч": 260,
      "Ъ": 261,
      "Ы": 262,
      "Ь": 263,
      "Я": 264,
      "а": 265,
      "б": 266,
      "в": 267,
      "г": 268,
      "д": 269,
      "е": 270,
      "ж": 271,
      "з": 272,
      "и": 273,
      "й": 274,
      "к": 275,
      "л": 276,
      "м": 277,
      "н": 278,
      "о": 279,
      "п": 280,
      "р": 281,
      "с": 282,
      "т": 283,
      "у": 284,
      "ф": 285,
      "х": 286,
      "ц": 287,
      "ч": 288,
      "ш": 289,
      "щ": 290,
      "ъ": 291,
      "ы": 292,
      "ь": 293,
      "э": 294,
      "ю": 295,
      "я": 296,
      "і": 297,
      "ї": 298,
      "һ": 299,
      "Ӯ": 300,
      "Ԥ": 301,
      "ա": 302,
      "ե": 303,
      "ն": 304,
      "վ": 305,
      "տ": 306,
      "ֱ": 307,
      "ֳ": 308,
      "ֵ": 309,
      "ַ": 310,
      "א": 311,
      "ב": 312,
      "ד": 313,
      "ה": 314,
      "ו": 315,
      "ח": 316,
      "ט": 317,
      "י": 318,
      "כ": 319,
      "ל": 320,
      "ם": 321,
      "מ": 322,
      "ן": 323,
      "נ": 324,
      "ס": 325,
      "ע": 326,
      "פ": 327,
      "צ": 328,
      "ק": 329,
      "ר": 330,
      "ש": 331,
      "ת": 332,
      "׼": 333,
      "،": 334,
      "؟": 335,
      "ء": 336,
      "آ": 337,
      "أ": 338,
      "ؤ": 339,
      "إ": 340,
      "ئ": 341,
      "ا": 342,
      "ب": 343,
      "ة": 344,
      "ت": 345,
      "ث": 346,
      "ج": 347,
      "ح": 348,
      "خ": 349,
      "د": 350,
      "ذ": 351,
      "ر": 352,
      "ز": 353,
      "س": 354,
      "ش": 355,
      "ص": 356,
      "ض": 357,
      "ط": 358,
      "ظ": 359,
      "ع": 360,
      "غ": 361,
      "ـ": 362,
      "ف": 363,
      "ق": 364,
      "ك": 365,
      "ل": 366,
      "م": 367,
      "ن": 368,
      "ه": 369,
      "و": 370,
      "ى": 371,
      "ي": 372,
      "ً": 373,
      "ٌ": 374,
      "ٍ": 375,
      "َ": 376,
      "ُ": 377,
      "ِ": 378,
      "ّ": 379,
      "ْ": 380,
      "٤": 381,
      "٦": 382,
      "ٰ": 383,
      "ٱ": 384,
      "پ": 385,
      "ک": 386,
      "ڪ": 387,
      "گ": 388,
      "ہ": 389,
      "ی": 390,
      "ۡ": 391,
      "۰": 392,
      "۱": 393,
      "۲": 394,
      "۳": 395,
      "۵": 396,
      "۷": 397,
      "۸": 398,
      "۹": 399,
      "ं": 400,
      "अ": 401,
      "क": 402,
      "ग": 403,
      "च": 404,
      "ज": 405,
      "ट": 406,
      "त": 407,
      "द": 408,
      "न": 409,
      "प": 410,
      "ब": 411,
      "भ": 412,
      "म": 413,
      "य": 414,
      "र": 415,
      "ल": 416,
      "व": 417,
      "श": 418,
      "स": 419,
      "ह": 420,
      "ा": 421,
      "ि": 422,
      "ी": 423,
      "ु": 424,
      "ू": 425,
      "े": 426,
      "ै": 427,
      "ो": 428,
      "्": 429,
      "ॐ": 430,
      "।": 431,
      "॥": 432,
      "॰": 433,
      "ঁ": 434,
      "ং": 435,
      "ঃ": 436,
      "অ": 437,
      "আ": 438,
      "ই": 439,
      "ঈ": 440,
      "উ": 441,
      "ঊ": 442,
      "ঋ": 443,
      "এ": 444,
      "ঐ": 445,
      "ও": 446,
      "ঔ": 447,
      "ক": 448,
      "খ": 449,
      "গ": 450,
      "ঘ": 451,
      "ঙ": 452,
      "চ": 453,
      "ছ": 454,
      "জ": 455,
      "ঝ": 456,
      "ঞ": 457,
      "ট": 458,
      "ঠ": 459,
      "ড": 460,
      "ঢ": 461,
      "ণ": 462,
      "ত": 463,
      "থ": 464,
      "দ": 465,
      "ধ": 466,
      "ন": 467,
      "প": 468,
      "ফ": 469,
      "ব": 470,
      "ভ": 471,
      "ম": 472,
      "য": 473,
      "র": 474,
      "ল": 475,
      "শ": 476,
      "ষ": 477,
      "স": 478,
      "হ": 479,
      "়": 480,
      "ঽ": 481,
      "া": 482,
      "ি": 483,
      "ী": 484,
      "ু": 485,
      "ূ": 486,
      "ৃ": 487,
      "ৄ": 488,
      "ে": 489,
      "ৈ": 490,
      "ো": 491,
      "ৌ": 492,
      "্": 493,
      "ৎ": 494,
      "৐": 495,
      "ৗ": 496,
      "ৠ": 497,
      "৤": 498,
      "০": 499,
      "১": 500,
      "২": 501,
      "৩": 502,
      "৪": 503,
      "৫": 504,
      "৬": 505,
      "৭": 506,
      "৮": 507,
      "৯": 508,
      "ৰ": 509,
      "ৱ": 510,
      "৳": 511,
      "৷": 512,
      "৺": 513,
      "੔": 514,
      "ા": 515,
      "த": 516,
      "ம": 517,
      "ி": 518,
      "்": 519,
      "ు": 520,
      "ನ": 521,
      "ം": 522,
      "ക": 523,
      "ട": 524,
      "ത": 525,
      "ന": 526,
      "പ": 527,
      "മ": 528,
      "യ": 529,
      "ര": 530,
      "ല": 531,
      "ള": 532,
      "വ": 533,
      "ാ": 534,
      "ി": 535,
      "ു": 536,
      "്": 537,
      "ก": 538,
      "ง": 539,
      "ท": 540,
      "น": 541,
      "ม": 542,
      "ย": 543,
      "ร": 544,
      "ล": 545,
      "ว": 546,
      "อ": 547,
      "ั": 548,
      "า": 549,
      "เ": 550,
      "่": 551,
      "้": 552,
      "မ": 553,
      "ာ": 554,
      "်": 555,
      "ა": 556,
      "ი": 557,
      "្": 558,
      "ṭ": 559,
      "ạ": 560,
      "ả": 561,
      "ấ": 562,
      "ế": 563,
      "ệ": 564,
      "ố": 565,
      "ộ": 566,
      "ờ": 567,
      " ": 568,
      " ": 569,
      "​": 570,
      "‌": 571,
      "‍": 572,
      "‎": 573,
      "‏": 574,
      "–": 575,
      "—": 576,
      "―": 577,
      "‘": 578,
      "’": 579,
      "‚": 580,
      "“": 581,
      "”": 582,
      "†": 583,
      "‡": 584,
      "•": 585,
      "․": 586,
      "…": 587,
      "‪": 588,
      "‬": 589,
      "′": 590,
      "″": 591,
      "›": 592,
      "€": 593,
      "₹": 594,
      "℃": 595,
      "™": 596,
      "←": 597,
      "↑": 598,
      "→": 599,
      "↓": 600,
      "⇒": 601,
      "−": 602,
      "√": 603,
      "▁": 604,
      "■": 605,
      "►": 606,
      "◈": 607,
      "●": 608,
      "★": 609,
      "☐": 610,
      "♥": 611,
      "♦": 612,
      "❏": 613,
      "、": 614,
      "。": 615,
      "い": 616,
      "が": 617,
      "し": 618,
      "す": 619,
      "た": 620,
      "て": 621,
      "で": 622,
      "と": 623,
      "な": 624,
      "に": 625,
      "の": 626,
      "は": 627,
      "ま": 628,
      "る": 629,
      "を": 630,
      "イ": 631,
      "ス": 632,
      "ト": 633,
      "ル": 634,
      "ン": 635,
      "ー": 636,
      "一": 637,
      "三": 638,
      "不": 639,
      "中": 640,
      "么": 641,
      "乐": 642,
      "京": 643,
      "人": 644,
      "件": 645,
      "公": 646,
      "分": 647,
      "北": 648,
      "台": 649,
      "号": 650,
      "和": 651,
      "国": 652,
      "在": 653,
      "场": 654,
      "大": 655,
      "奖": 656,
      "娱": 657,
      "家": 658,
      "市": 659,
      "平": 660,
      "年": 661,
      "开": 662,
      "彩": 663,
      "快": 664,
      "技": 665,
      "新": 666,
      "方": 667,
      "日": 668,
      "时": 669,
      "是": 670,
      "月": 671,
      "有": 672,
      "法": 673,
      "注": 674,
      "澳": 675,
      "理": 676,
      "用": 677,
      "的": 678,
      "码": 679,
      "票": 680,
      "福": 681,
      "网": 682,
      "计": 683,
      "赛": 684,
      "车": 685,
      "软": 686,
      "金": 687,
      "门": 688,
      "": 689,
      "": 690,
      "": 691,
      "ﷺ": 692,
      "ﺍ": 693,
      "ﺎ": 694,
      "ﻟ": 695,
      "ﻠ": 696,
      "﻿": 697,
      "，": 698,
      "�": 699,
      "👉": 700,
      "😀": 701,
      "😛": 702,
      "🙁": 703,
      "🙂": 704,
      "য়": 705,
      "ার": 706,
      "▁ক": 707,
      "▁স": 708,
      "▁ব": 709,
      "ের": 710,
      "▁প": 711,
      "্র": 712,
      "্য": 713,
      "ান": 714,
      "▁আ": 715,
      "▁ম": 716,
      "▁এ": 717,
      "▁ন": 718,
      "▁হ": 719,
      "▁দ": 720,
      "্ত": 721,
      "▁ত": 722,
      "▁কর": 723,
      "য়ে": 724,
      "েন": 725,
      "▁অ": 726,
      "▁জ": 727,
      "কে": 728,
      "াল": 729,
      "িন": 730,
      "▁প্র": 731,
      "লা": 732,
      "▁র": 733,
      "তে": 734,
      "ায়": 735,
      "র্": 736,
      "িক": 737,
      "▁শ": 738,
      "ছে": 739,
      "▁বি": 740,
      "▁য": 741,
      "াম": 742,
      "।\n": 743,
      "▁গ": 744,
      "টি": 745,
      "ড়": 746,
      "লে": 747,
      "বে": 748,
      "▁চ": 749,
      "▁নি": 750,
      "▁ও": 751,
      "্ব": 752,
      "্ট": 753,
      "▁উ": 754,
      "তি": 755,
      "▁বা": 756,
      "▁ভ": 757,
      "াক": 758,
      "াদ": 759,
      "ুর": 760,
      "িত": 761,
      "াস": 762,
      "্ষ": 763,
      "▁পর": 764,
      "▁এক": 765,
      "ুল": 766,
      "াজ": 767,
      "িল": 768,
      "▁করে": 769,
      "াই": 770,
      "▁থ": 771,
      "াত": 772,
      "ন্": 773,
      "েশ": 774,
      "▁সম": 775,
      "ির": 776,
      "▁ই": 777,
      "িয়ে": 778,
      "▁ফ": 779,
      "য়া": 780,
      "্যা": 781,
      "▁\n": 782,
      "▁খ": 783,
      "্প": 784,
      "্থ": 785,
      "▁ছ": 786,
      "নে": 787,
      "াব": 788,
      "ঙ্": 789,
      "রা": 790,
      "▁আম": 791,
      "▁না": 792,
      "দের": 793,
      "ন্ত": 794,
      "▁হয়ে": 795,
      "▁দে": 796,
      "▁সে": 797,
      "ক্ষ": 798,
      "বার": 799,
      "িস": 800,
      "য়ার": 801,
      "▁ট": 802,
      "াহ": 803,
      "ঙ্গ": 804,
      "েকে": 805,
      "ছেন": 806,
      "▁ল": 807,
      "কার": 808,
      "▁জন": 809,
      "▁থেকে": 810,
      "▁কো": 811,
      "াপ": 812,
      "দ্": 813,
      "না": 814,
      "্ম": 815,
      "েল": 816,
      "োগ": 817,
      "ক্ত": 818,
      "নি": 819,
      "▁তার": 820,
      "▁তা": 821,
      "▁ড": 822,
      "▁এই": 823,
      "িনি": 824,
      "টা": 825,
      "নের": 826,
      "▁হয়": 827,
      "▁ঘ": 828,
      "▁অন": 829,
      "চ্": 830,
      "▁ধ": 831,
      "িশ": 832,
      "▁সং": 833,
      "ীর": 834,
      "▁আর": 835,
      "▁জান": 836,
      "াদের": 837,
      "বি": 838,
      "ধ্য": 839,
      "▁বল": 840,
      "ভা": 841,
      "ীয়": 842,
      "▁করা": 843,
      "ুন": 844,
      "▁পার": 845,
      "▁এব": 846,
      "▁নে": 847,
      "বা": 848,
      "▁যে": 849,
      "▁এবং": 850,
      "রে": 851,
      "ষ্": 852,
      "▁পা": 853,
      "▁উপ": 854,
      "▁দু": 855,
      "▁মু": 856,
      "▁সা": 857,
      "দ্ধ": 858,
      "দেশ": 859,
      "▁ব্য": 860,
      "তা": 861,
      "▁পরি": 862,
      "্ড": 863,
      "স্থ": 864,
      "▁কি": 865,
      "ানে": 866,
      "▁মা": 867,
      "ষ্ট": 868,
      "▁প্রতি": 869,
      "▁জন্য": 870,
      "ন্দ": 871,
      "▁কার": 872,
      "োর": 873,
      "▁নিয়ে": 874,
      "্রে": 875,
      "ঞ্": 876,
      "▁হয়েছে": 877,
      "▁যা": 878,
      "▁তিনি": 879,
      "্স": 880,
      "িম": 881,
      "▁নির্": 882,
      "াকা": 883,
      "জন": 884,
      "স্ত": 885,
      "খন": 886,
      "্ন": 887,
      "▁এর": 888,
      "কা": 889,
      "্রী": 890,
      "িতে": 891,
      "▁হবে": 892,
      "▁বিশ": 893,
      "ছিল": 894,
      "▁কা": 895,
      "▁মো": 896,
      "মান": 897,
      "▁দেখ": 898,
      "েম": 899,
      "ড়া": 900,
      "▁রা": 901,
      "▁বাং": 902,
      "্দ": 903,
      "▁আগ": 904,
      "▁বলে": 905,
      "▁আস": 906,
      "▁আল": 907,
      "্যান": 908,
      "▁কোন": 909,
      "র্ত": 910,
      "িয়া": 911,
      "▁সু": 912,
      "▁দিয়ে": 913,
      "িয়": 914,
      "ালে": 915,
      "▁বাংলা": 916,
      "মে": 917,
      "থা": 918,
      "▁অব": 919,
      "ড়ে": 920,
      "▁অভ": 921,
      "্ক": 922,
      "ওয়া": 923,
      "টে": 924,
      "▁স্ব": 925,
      "▁করতে": 926,
      "▁মে": 927,
      "িকে": 928,
      "জে": 929,
      "লাম": 930,
      "যোগ": 931,
      "ষ্ঠ": 932,
      "▁একটি": 933,
      "পুর": 934,
      "▁মান": 935,
      "▁সম্প": 936,
      "ৃত": 937,
      "▁অনু": 938,
      "িব": 939,
      "ধান": 940,
      "্ল": 941,
      "▁১": 942,
      "ঙ্গে": 943,
      "▁লা": 944,
      "েস": 945,
      "▁ছিল": 946,
      "▁সর": 947,
      "▁২": 948,
      "▁আপ": 949,
      "▁রাজ": 950,
      "▁শে": 951,
      "▁মধ্য": 952,
      "মা": 953,
      "▁বলেন": 954,
      "চ্ছে": 955,
      "▁সি": 956,
      "▁করেন": 957,
      "ুরু": 958,
      "ত্ত": 959,
      "▁সব": 960,
      "▁দেশ": 961,
      "▁বাংলাদেশ": 962,
      "িক্ষ": 963,
      "▁তাঁ": 964,
      "নার": 965,
      "▁কিন": 966,
      "ান্ত": 967,
      "পর": 968,
      "ুম": 969,
      "িজ": 970,
      "▁কম": 971,
      "▁ব্যব": 972,
      "য়ের": 973,
      "▁সঙ্গে": 974,
      "রের": 975,
      "মন": 976,
      "্রাম": 977,
      "ারা": 978,
      "▁থাক": 979,
      "ুক": 980,
      "গুল": 981,
      "্যাল": 982,
      "▁নাম": 983,
      "▁এস": 984,
      "্লা": 985,
      "▁মধ্যে": 986,
      "প্র": 987,
      "দিন": 988,
      "পি": 989,
      "লের": 990,
      "ন্ধ": 991,
      "▁বে": 992,
      "▁কাজ": 993,
      "্তু": 994,
      "ারে": 995,
      "ছু": 996,
      "▁যায়": 997,
      "▁ব্যা": 998,
      "▁সময়": 999,
      "াত্র": 1000,
      "াঁ": 1001,
      "ওয়ার": 1002,
      "ভাবে": 1003,
      "▁বছ": 1004,
      "কের": 1005,
      "▁বিশ্ব": 1006,
      "▁কিন্তু": 1007,
      "▁চে": 1008,
      "ুক্ত": 1009,
      "চার": 1010,
      "ছি": 1011,
      "▁দিন": 1012,
      "▁কে": 1013,
      "▁তাদের": 1014,
      "▁কথা": 1015,
      "রি": 1016,
      "ভাগ": 1017,
      "বাদ": 1018,
      "▁সরকার": 1019,
      "িং": 1020,
      "▁ঢ": 1021,
      "তো": 1022,
      "ীন": 1023,
      "▁কর্ম": 1024,
      "ুষ": 1025,
      "▁আই": 1026,
      "ঞ্জ": 1027,
      "▁‘": 1028,
      "▁শিক্ষ": 1029,
      "্বর": 1030,
      "▁কিছু": 1031,
      "োন": 1032,
      "ামী": 1033,
      "র্থ": 1034,
      "▁বিষ": 1035,
      "▁পে": 1036,
      "ুব": 1037,
      "োল": 1038,
      "ানের": 1039,
      "▁অনে": 1040,
      "োক": 1041,
      "ওয়": 1042,
      "টির": 1043,
      "▁(": 1044,
      "▁সহ": 1045,
      "▁ক্ষ": 1046,
      "াকে": 1047,
      "▁মহ": 1048,
      "দি": 1049,
      "ন্ত্র": 1050,
      "োট": 1051,
      "▁ইস": 1052,
      "▁পুল": 1053,
      "▁বেশ": 1054,
      "্ঞ": 1055,
      "বাচ": 1056,
      "ানা": 1057,
      "র্ব": 1058,
      "▁আমি": 1059,
      "ীব": 1060,
      "▁ভার": 1061,
      "াজার": 1062,
      "▁অভি": 1063,
      "ংশ": 1064,
      "▁গে": 1065,
      "ত্য": 1066,
      "▁পুলিশ": 1067,
      "▁ঘট": 1068,
      "োস": 1069,
      "▁সেই": 1070,
      "ুদ্ধ": 1071,
      "▁বিভাগ": 1072,
      "▁আজ": 1073,
      "ত্র": 1074,
      "ড়ি": 1075,
      "রণ": 1076,
      "▁তো": 1077,
      "▁সাম": 1078,
      "▁ভা": 1079,
      "থে": 1080,
      "▁প্রধান": 1081,
      "োধ": 1082,
      "▁আব": 1083,
      "খে": 1084,
      "থম": 1085,
      "▁স্থ": 1086,
      "▁নির্বাচ": 1087,
      "▁মানুষ": 1088,
      "ার্": 1089,
      "▁গত": 1090,
      "▁আমার": 1091,
      "▁করার": 1092,
      "▁হাস": 1093,
      "তার": 1094,
      "েলা": 1095,
      "চে": 1096,
      "▁সদ": 1097,
      "▁তবে": 1098,
      "▁ইউ": 1099,
      "▁এখন": 1100,
      "ূল": 1101,
      "চিত": 1102,
      "▁হল": 1103,
      "টার": 1104,
      "▁টি": 1105,
      "▁শুরু": 1106,
      "▁কেন": 1107,
      "হার": 1108,
      "কাশ": 1109,
      "েন্ট": 1110,
      "ন্ত্রী": 1111,
      "িড": 1112,
      "ক্র": 1113,
      "ীদের": 1114,
      "ধার": 1115,
      "▁আহ": 1116,
      "▁হিস": 1117,
      "▁রে": 1118,
      "▁রয়ে": 1119,
      "কাল": 1120,
      "খানে": 1121,
      "াতে": 1122,
      "ষণ": 1123,
      "▁প্রশ": 1124,
      "▁আমাদের": 1125,
      "িদ": 1126,
      "র্ণ": 1127,
      "ীগ": 1128,
      "ার্থ": 1129,
      "▁করেছে": 1130,
      "প্ত": 1131,
      "িন্ন": 1132,
      "▁শেষ": 1133,
      "বেন": 1134,
      "বর": 1135,
      "▁আগে": 1136,
      "▁কারণ": 1137,
      "তির": 1138,
      "▁বির": 1139,
      "ল্প": 1140,
      "াড়া": 1141,
      "▁আমরা": 1142,
      "▁তারা": 1143,
      "▁হচ্ছে": 1144,
      "▁রাখ": 1145,
      "▁কোনো": 1146,
      "স্য": 1147,
      "▁অনেক": 1148,
      "ক্ষে": 1149,
      "ানো": 1150,
      "ন্ন": 1151,
      "▁২০": 1152,
      "র্ম": 1153,
      "গুলো": 1154,
      "▁শু": 1155,
      "ানি": 1156,
      "▁ভাল": 1157,
      "ছিলেন": 1158,
      "্রহ": 1159,
      "িকা": 1160,
      "▁সভ": 1161,
      "▁অধ": 1162,
      "▁নয়": 1163,
      "োর্": 1164,
      "▁তাঁর": 1165,
      "নী": 1166,
      "▁বিভ": 1167,
      "িপ": 1168,
      "ব্য": 1169,
      "▁নিজ": 1170,
      "▁আছে": 1171,
      "▁চল": 1172,
      "▁ইসলাম": 1173,
      "▁ওই": 1174,
      "▁অন্য": 1175,
      "▁প্রথম": 1176,
      "ঞ্চ": 1177,
      "সা": 1178,
      "েবে": 1179,
      "▁পারে": 1180,
      "▁টাকা": 1181,
      "ক্তি": 1182,
      "▁রয়েছে": 1183,
      "▁দুই": 1184,
      "ন্ড": 1185,
      "▁এমন": 1186,
      "▁গো": 1187,
      "▁এলা": 1188,
      "▁লে": 1189,
      "▁পর্য": 1190,
      "▁প্রকাশ": 1191,
      "েক": 1192,
      "▁হলে": 1193,
      "▁ভারত": 1194,
      "িকার": 1195,
      "াদক": 1196,
      "▁চাল": 1197,
      "▁আদ": 1198,
      "েম্বর": 1199,
      "▁বছর": 1200,
      "▁দল": 1201,
      "▁করেছেন": 1202,
      "▁নেই": 1203,
      "এন": 1204,
      "▁সাল": 1205,
      "সে": 1206,
      "ুলে": 1207,
      "▁রহ": 1208,
      "লাই": 1209,
      "াগ": 1210,
      "তিক": 1211,
      "লার": 1212,
      "▁কাছে": 1213,
      "স্ট": 1214,
      "▁বিভিন্ন": 1215,
      "▁রো": 1216,
      "▁বাড়": 1217,
      "টের": 1218,
      "▁অপ": 1219,
      "▁বু": 1220,
      "▁লি": 1221,
      "েত": 1222,
      "সি": 1223,
      "▁বৃ": 1224,
      "জ্ঞ": 1225,
      "▁অনুষ্ঠ": 1226,
      "▁গিয়ে": 1227,
      "মন্ত্রী": 1228,
      "্রু": 1229,
      "▁মি": 1230,
      "েলার": 1231,
      "য়ো": 1232,
      "▁বার": 1233,
      "ন্ট": 1234,
      "▁বড়": 1235,
      "▁হিসেবে": 1236,
      "্রি": 1237,
      "▁হতে": 1238,
      "▁সো": 1239,
      "▁আশ": 1240,
      "েই": 1241,
      "▁পড়": 1242,
      "েষ": 1243,
      "▁ঠ": 1244,
      "য়ন": 1245,
      "ামলা": 1246,
      "▁মাস": 1247,
      "র্শ": 1248,
      "▁হাজার": 1249,
      "▁মনে": 1250,
      "▁জানান": 1251,
      "▁সাথে": 1252,
      "গর": 1253,
      "▁স্ট": 1254,
      "▁জাত": 1255,
      "নায়": 1256,
      "তুন": 1257,
      "জি": 1258,
      "▁ক্র": 1259,
      "স্থা": 1260,
      "াড়": 1261,
      "ধারণ": 1262,
      "▁তিন": 1263,
      "▁বলেন,": 1264,
      "ত্যা": 1265,
      "▁উত্ত": 1266,
      "▁নতুন": 1267,
      "ুদ": 1268,
      "▁নার": 1269,
      "▁একটা": 1270,
      "শ্": 1271,
      "▁যদি": 1272,
      "▁তাই": 1273,
      "▁অভিযোগ": 1274,
      "▁বিষয়": 1275,
      "শি": 1276,
      "▁দেখা": 1277,
      "▁উদ": 1278,
      "দ্যাল": 1279,
      "▁ঢাকা": 1280,
      "এস": 1281,
      "কি": 1282,
      "ষ্ট্র": 1283,
      "▁দ্ব": 1284,
      "▁আন": 1285,
      "্দ্র": 1286,
      "▁ছে": 1287,
      "▁মাধ্য": 1288,
      "ঠে": 1289,
      "ারের": 1290,
      "▁জাতীয়": 1291,
      "সহ": 1292,
      "র্ষ": 1293,
      "াপতি": 1294,
      "▁জানিয়ে": 1295,
      "ণ্ড": 1296,
      "লেন": 1297,
      "▁সম্পাদক": 1298,
      "▁পড়ে": 1299,
      "▁পরিচ": 1300,
      "ভাব": 1301,
      "▁পূ": 1302,
      "▁মন": 1303,
      "▁জেলা": 1304,
      "্লাহ": 1305,
      "▁বেশি": 1306,
      "▁অর্থ": 1307,
      "▁সক": 1308,
      "ীরা": 1309,
      "▁হোস": 1310,
      "ত্ব": 1311,
      "িউ": 1312,
      "ক্স": 1313,
      "ঁচ": 1314,
      "..": 1315,
      "▁গেছে": 1316,
      "বেশ": 1317,
      "্যু": 1318,
      "ুদ্ধে": 1319,
      "▁পুর": 1320,
      "▁এসে": 1321,
      "▁পর্যন্ত": 1322,
      "▁দাব": 1323,
      "▁ছিলেন": 1324,
      "▁ঝ": 1325,
      "▁দেশের": 1326,
      "▁সদস্য": 1327,
      "▁গ্রাম": 1328,
      "বেদ": 1329,
      "▁রহমান": 1330,
      "▁২০১": 1331,
      "▁সংস": 1332,
      "▁নিয়": 1333,
      "গ্রাম": 1334,
      "্যান্ড": 1335,
      "▁জু": 1336,
      "োপ": 1337,
      "্যাম": 1338,
      "▁উদ্": 1339,
      "দে": 1340,
      "▁জীব": 1341,
      "▁দিকে": 1342,
      "▁পরে": 1343,
      "▁বন্ধ": 1344,
      "▁সভাপতি": 1345,
      "▁মতো": 1346,
      "্যে": 1347,
      "র্জ": 1348,
      "সম": 1349,
      "▁ধরে": 1350,
      "▁আপনার": 1351,
      "▁শহ": 1352,
      "▁ছবি": 1353,
      "▁পাল": 1354,
      "▁হার": 1355,
      "▁দেওয়া": 1356,
      "▁তৈ": 1357,
      "াইল": 1358,
      "গঞ্জ": 1359,
      "বর্ত": 1360,
      "▁নেত": 1361,
      "িস্ত": 1362,
      "▁তথ": 1363,
      "মাণ": 1364,
      "▁ব্যবহার": 1365,
      "োচ": 1366,
      "ৎস": 1367,
      "বাস": 1368,
      "▁মুখ": 1369,
      "ষ্টি": 1370,
      "িও": 1371,
      "▁যোগ": 1372,
      "▁ম্যা": 1373,
      "▁পাশ": 1374,
      "দা": 1375,
      "ীক্ষ": 1376,
      "▁দিতে": 1377,
      "য়েক": 1378,
      "▁বিএন": 1379,
      "্লে": 1380,
      "▁ভালো": 1381,
      "▁প্রায়": 1382,
      "ায়ী": 1383,
      "▁হোসেন": 1384,
      "▁কী": 1385,
      "▁আরও": 1386,
      "▁অংশ": 1387,
      "▁থাকে": 1388,
      "▁সূ": 1389,
      "▁ধর": 1390,
      "▁মার": 1391,
      "▁তাকে": 1392,
      "▁বাস": 1393,
      "▁মৃত": 1394,
      "▁প্রা": 1395,
      "্যাপ": 1396,
      "▁সালে": 1397,
      "in": 1398,
      "▁তখন": 1399,
      "াধ": 1400,
      "▁আওয়": 1401,
      "▁এম": 1402,
      "ায়ের": 1403,
      "▁অবস্থ": 1404,
      "▁ঘো": 1405,
      "▁তথ্য": 1406,
      "পাত": 1407,
      "an": 1408,
      "▁৩": 1409,
      "জেলা": 1410,
      "▁ট্র": 1411,
      "মি": 1412,
      "াট": 1413,
      "▁ফে": 1414,
      "▁সাধারণ": 1415,
      "▁বিরুদ্ধে": 1416,
      "ুঁ": 1417,
      "চ্চ": 1418,
      "▁কয়েক": 1419,
      "▁মাধ্যমে": 1420,
      "▁সাহ": 1421,
      "▁প্রতিষ্ঠ": 1422,
      "▁বৈ": 1423,
      "াস্ত": 1424,
      "বাহ": 1425,
      "▁সাং": 1426,
      "▁উপজেলা": 1427,
      "্জ": 1428,
      "▁জানা": 1429,
      "▁স্ক": 1430,
      "▁ইউনি": 1431,
      "▁বিশেষ": 1432,
      "▁স্থান": 1433,
      "▁যাবে": 1434,
      "ীত": 1435,
      "িট": 1436,
      "শন": 1437,
      "ুজ": 1438,
      "ুণ": 1439,
      "▁না।\n": 1440,
      "er": 1441,
      "▁দি": 1442,
      "▁আওয়ামী": 1443,
      "চ্ছ": 1444,
      "▁লীগ": 1445,
      "মার": 1446,
      "▁খুব": 1447,
      "পার": 1448,
      "গে": 1449,
      "দী": 1450,
      "▁মূল": 1451,
      "▁শিশ": 1452,
      "▁পেয়ে": 1453,
      "▁পাঠ": 1454,
      "▁অফ": 1455,
      "ট্ট": 1456,
      "্যের": 1457,
      "▁গা": 1458,
      "টক": 1459,
      "▁চার": 1460,
      "িয়ার": 1461,
      "▁সর্ব": 1462,
      "্বে": 1463,
      "▁উল": 1464,
      "ধু": 1465,
      "▁লক্ষ": 1466,
      "▁পারেন": 1467,
      "ড়িয়ে": 1468,
      "কর্ত": 1469,
      "?\n": 1470,
      "্রম": 1471,
      "িতা": 1472,
      "▁উন্ন": 1473,
      "ূর্ণ": 1474,
      "▁কল": 1475,
      "▁পি": 1476,
      "▁একজন": 1477,
      "▁সংগ": 1478,
      "▁গণ": 1479,
      "হত": 1480,
      "▁বিক": 1481,
      "ছে।\n": 1482,
      "ুট": 1483,
      "াকার": 1484,
      "জার": 1485,
      "▁ছাত্র": 1486,
      "ভার": 1487,
      "▁লেখ": 1488,
      "লিম": 1489,
      "▁আবার": 1490,
      "▁বর": 1491,
      "▁তাহ": 1492,
      "্রহণ": 1493,
      "▁বাংলাদেশের": 1494,
      "দার": 1495,
      "▁সংবাদ": 1496,
      "বিদ্যাল": 1497,
      "▁আইন": 1498,
      "▁ডি": 1499,
      "▁চলে": 1500,
      "▁নির্বাচন": 1501,
      "▁সম্ম": 1502,
      "র্ক": 1503,
      "▁মাল": 1504,
      "▁পরিচাল": 1505,
      "▁কর্মকর্ত": 1506,
      "যুক্ত": 1507,
      "▁চাই": 1508,
      "▁কেন্দ্র": 1509,
      "▁দুর্": 1510,
      "কারী": 1511,
      "স্ব": 1512,
      "▁পরীক্ষ": 1513,
      "▁শেখ": 1514,
      "বন্ধ": 1515,
      "▁লোক": 1516,
      "▁আপনি": 1517,
      "▁প্রক": 1518,
      "য়োজন": 1519,
      "▁দলের": 1520,
      "▁বিশ্ববিদ্যাল": 1521,
      "▁কু": 1522,
      "▁ফির": 1523,
      "▁এবার": 1524,
      "▁মামলা": 1525,
      "▁ছাড়া": 1526,
      "▁স্প": 1527,
      "▁পৌ": 1528,
      "▁হা": 1529,
      "াতা": 1530,
      "▁কারণে": 1531,
      "উজ": 1532,
      "▁কেউ": 1533,
      "▁বস": 1534,
      "▁কাল": 1535,
      "▁নিজের": 1536,
      "▁খবর": 1537,
      "জা": 1538,
      "ষ্টা": 1539,
      "▁হয়।\n": 1540,
      "আই": 1541,
      "▁দেন": 1542,
      "▁বলা": 1543,
      "ৃতি": 1544,
      "ীল": 1545,
      "▁ঠিক": 1546,
      "্টি": 1547,
      "বল": 1548,
      "ম্প": 1549,
      "ন্ম": 1550,
      "▁পাক": 1551,
      "গত": 1552,
      "িন্দ": 1553,
      "সের": 1554,
      "্যার": 1555,
      "পির": 1556,
      "▁বিপ": 1557,
      "▁তৈরি": 1558,
      "▁যুক্ত": 1559,
      "▁ব্র": 1560,
      "ভব": 1561,
      "▁চৌ": 1562,
      "▁বিষয়ে": 1563,
      "▁আত": 1564,
      "▁ঘটনা": 1565,
      "লেও": 1566,
      "▁সম্": 1567,
      "▁পরিবার": 1568,
      "▁চেয়ার": 1569,
      "ন্ত্রণ": 1570,
      "ম্যান": 1571,
      "▁দেয়": 1572,
      "▁ভূ": 1573,
      "ক্ট": 1574,
      "▁সেখানে": 1575,
      "▁প্রত": 1576,
      "▁জাম": 1577,
      "▁গ্রে": 1578,
      "▁হাসপাত": 1579,
      "দিকে": 1580,
      "on": 1581,
      "▁ঐ": 1582,
      "সং": 1583,
      "▁চিক": 1584,
      "▁দাবি": 1585,
      "▁কর্ত": 1586,
      "ুখ": 1587,
      "▁কলে": 1588,
      "▁মানুষের": 1589,
      "▁ধার": 1590,
      "কায়": 1591,
      "▁উপস্থ": 1592,
      "▁এটা": 1593,
      "দান": 1594,
      "▁মত": 1595,
      "াস্থ": 1596,
      "▁পাওয়া": 1597,
      "▁তুলে": 1598,
      "কর": 1599,
      "▁আদাল": 1600,
      "ীতে": 1601,
      "ানোর": 1602,
      "ৈতিক": 1603,
      "িস্ট": 1604,
      "িনা": 1605,
      "▁বিজ্ঞ": 1606,
      "▁বক্ত": 1607,
      "▁শাহ": 1608,
      "▁কোনও": 1609,
      "এম": 1610,
      "▁মিল": 1611,
      "▁সালের": 1612,
      "াইন": 1613,
      "িয়ান": 1614,
      "▁বহ": 1615,
      "▁হয়েছে।\n": 1616,
      "▁ছেলে": 1617,
      "ষণা": 1618,
      "লো": 1619,
      "▁স্ত": 1620,
      "▁ব্যাং": 1621,
      "▁লাগ": 1622,
      "▁উপজ": 1623,
      "্যাক": 1624,
      "▁বছরের": 1625,
      "▁প্রধানমন্ত্রী": 1626,
      "ুগ": 1627,
      "ধা": 1628,
      "▁ভাই": 1629,
      "▁খান": 1630,
      "▁দায়": 1631,
      "▁রেখে": 1632,
      "▁ইন": 1633,
      "▁বো": 1634,
      "▁চট্ট": 1635,
      "▁তাল": 1636,
      "শ্য": 1637,
      "▁একই": 1638,
      "▁করছে": 1639,
      "▁হলো": 1640,
      "িল্প": 1641,
      "্যাস": 1642,
      "ধুর": 1643,
      "▁অফিস": 1644,
      "▁উপজেলার": 1645,
      "▁দেখে": 1646,
      "েত্রে": 1647,
      "▁৫": 1648,
      "ূপ": 1649,
      "▁কাম": 1650,
      "েনে": 1651,
      "▁থান": 1652,
      "শ্চ": 1653,
      "▁সার": 1654,
      "ডি": 1655,
      "▁লাখ": 1656,
      "▁ওপর": 1657,
      "▁মার্": 1658,
      "▁অর্": 1659,
      "▁জা": 1660,
      "য়ারি": 1661,
      "▁যখন": 1662,
      "▁দিল": 1663,
      "▁শুধু": 1664,
      "▁এটি": 1665,
      "▁কোটি": 1666,
      "▁ধর্ম": 1667,
      "▁অভিন": 1668,
      "িত্ব": 1669,
      "▁উত্তর": 1670,
      "▁বয়": 1671,
      "▁শিশু": 1672,
      "▁বর্ত": 1673,
      "িত্র": 1674,
      "▁কমি": 1675,
      "▁দূ": 1676,
      "কম": 1677,
      "বির": 1678,
      "ণের": 1679,
      "▁চিকি": 1680,
      "▁মাহ": 1681,
      "ঙ্গল": 1682,
      "▁৪": 1683,
      "▁গুরু": 1684,
      "স্প": 1685,
      "▁হওয়ার": 1686,
      "▁স্থানীয়": 1687,
      "▁শর": 1688,
      "▁ভোট": 1689,
      "▁বিদ": 1690,
      "নৈতিক": 1691,
      "▁আরো": 1692,
      "হাম": 1693,
      "ার্থী": 1694,
      "▁সামনে": 1695,
      ".\n": 1696,
      "ফল": 1697,
      "লি": 1698,
      "ডে": 1699,
      "ালী": 1700,
      "▁দক্ষ": 1701,
      "াপ্ত": 1702,
      "▁হাত": 1703,
      "বী": 1704,
      "▁নিহত": 1705,
      "গ্র": 1706,
      "▁দী": 1707,
      "▁খে": 1708,
      "▁গেল": 1709,
      "তেই": 1710,
      "েশন": 1711,
      "or": 1712,
      "ar": 1713,
      "▁আগামী": 1714,
      "▁দাঁ": 1715,
      "▁চা": 1716,
      "▁পদ": 1717,
      "▁নিজে": 1718,
      "▁বলেছেন": 1719,
      "▁ফলে": 1720,
      "▁সির": 1721,
      "▁বাই": 1722,
      "▁হাতে": 1723,
      "▁নামে": 1724,
      "▁পান": 1725,
      "▁উদ্ধ": 1726,
      "বেদন": 1727,
      "তম": 1728,
      "▁হয়েছিল": 1729,
      "▁করবে": 1730,
      "▁:": 1731,
      "নিক": 1732,
      "ধি": 1733,
      "▁বের": 1734,
      "▁আলোচ": 1735,
      "▁কলেজ": 1736,
      "▁দেশে": 1737,
      "▁ঈ": 1738,
      "▁ব্যাপ": 1739,
      "▁মুক্তি": 1740,
      "▁এসব": 1741,
      "দুল": 1742,
      "▁যান": 1743,
      "▁প্রস্ত": 1744,
      "িতি": 1745,
      "▁মাঝ": 1746,
      "▁চট্টগ্রাম": 1747,
      "▁নেতা": 1748,
      "্মদ": 1749,
      "▁মেয়ে": 1750,
      "▁S": 1751,
      "▁কার্য": 1752,
      "▁ছোট": 1753,
      "▁এলাকায়": 1754,
      "▁সাই": 1755,
      "রম": 1756,
      "es": 1757,
      "েরা": 1758,
      "▁প্রেস": 1759,
      "▁চৌধুর": 1760,
      "গা": 1761,
      "টু": 1762,
      "▁ওয়ে": 1763,
      "ালের": 1764,
      "▁বৃহ": 1765,
      "ায়ক": 1766,
      "▁উই": 1767,
      "▁t": 1768,
      "▁সরকারের": 1769,
      "স্": 1770,
      "▁এতে": 1771,
      "▁ডিস": 1772,
      "▁রু": 1773,
      "▁চো": 1774,
      "াক্ষ": 1775,
      "▁চেয়ে": 1776,
      "থায়": 1777,
      "োয়া": 1778,
      "াপা": 1779,
      "ন্দর": 1780,
      "▁যাচ্ছে": 1781,
      "তায়": 1782,
      "চ্ছেন": 1783,
      "▁গতকাল": 1784,
      "▁পাকিস্ত": 1785,
      "▁ইতি": 1786,
      "নীতি": 1787,
      "▁সেন": 1788,
      "▁কৃ": 1789,
      "▁চেষ্টা": 1790,
      "▁ক্ষেত্রে": 1791,
      "▁শতা": 1792,
      "▁আন্ত": 1793,
      "▁রাষ্ট্র": 1794,
      "▁যেন": 1795,
      "▁উঠে": 1796,
      "▁বিচার": 1797,
      "▁দেয়া": 1798,
      "▁নারী": 1799,
      "▁উঠ": 1800,
      "ালি": 1801,
      "▁অনুষ্ঠিত": 1802,
      "▁নভ": 1803,
      "▁প্রশ্ন": 1804,
      "en": 1805,
      "টাই": 1806,
      "ন্স": 1807,
      "▁ভাব": 1808,
      "▁সিদ্ধ": 1809,
      "তের": 1810,
      "াপন": 1811,
      "▁গুল": 1812,
      "▁শুক": 1813,
      "▁ফের": 1814,
      "▁হবে।\n": 1815,
      "▁নির": 1816,
      "▁ক্রিকে": 1817,
      "▁সিলে": 1818,
      "▁পাঁচ": 1819,
      "▁.": 1820,
      "▁চেয়ারম্যান": 1821,
      "▁ওয়": 1822,
      "at": 1823,
      "▁না।": 1824,
      "▁উপর": 1825,
      "▁আত্ম": 1826,
      "িলা": 1827,
      "▁যেতে": 1828,
      "▁বক্তব্য": 1829,
      "▁বাহ": 1830,
      "িণ": 1831,
      "▁হয়।": 1832,
      "▁স্ম": 1833,
      "▁ধরনের": 1834,
      "াউ": 1835,
      "রাষ্ট্র": 1836,
      "বেক": 1837,
      "▁তর": 1838,
      "▁এখানে": 1839,
      "খ্য": 1840,
      "খ্যা": 1841,
      "▁রান": 1842,
      "▁কর্তৃ": 1843,
      "াত্রী": 1844,
      "বের": 1845,
      "▁দর": 1846,
      "▁গ্র": 1847,
      "ম্ব": 1848,
      "দন্ত": 1849,
      "ৃষ্টি": 1850,
      "▁নিরা": 1851,
      "▁শিল্প": 1852,
      "াফ": 1853,
      "▁হন": 1854,
      "▁করছেন": 1855,
      "▁ব্যবস্থা": 1856,
      "েরে": 1857,
      "োর্ট": 1858,
      "তন": 1859,
      "▁সদর": 1860,
      "পে": 1861,
      "▁করি": 1862,
      "▁ঘোষণা": 1863,
      "িত্ত": 1864,
      "প্ট": 1865,
      "াশ": 1866,
      "!\n": 1867,
      "ঙ্ক": 1868,
      "▁নিরাপ": 1869,
      "▁যুব": 1870,
      "▁ভারতের": 1871,
      "র্ঘ": 1872,
      "ছাড়া": 1873,
      "▁কমিশ": 1874,
      "▁মাত্র": 1875,
      "▁জায়": 1876,
      "▁শিক্ষা": 1877,
      "লীগ": 1878,
      "▁নিতে": 1879,
      "▁বুঝ": 1880,
      "▁সুযোগ": 1881,
      "▁ঘটে": 1882,
      "সার": 1883,
      "হি": 1884,
      "টিতে": 1885,
      "▁১০": 1886,
      "ময়": 1887,
      "▁আলম": 1888,
      "▁দ্বিত": 1889,
      "▁লাই": 1890,
      "▁কর্মকর্তা": 1891,
      "▁অথ": 1892,
      "▁চি": 1893,
      "▁সৌ": 1894,
      "▁করুন": 1895,
      "্তা": 1896,
      "▁রাত": 1897,
      "▁গ্রহণ": 1898,
      "▁হত্যা": 1899,
      "▁খেল": 1900,
      "▁সড়": 1901,
      "ক্ষণ": 1902,
      "▁নির্দেশ": 1903,
      "▁তাহলে": 1904,
      "▁উল্লে": 1905,
      "▁সরকারি": 1906,
      "পক্ষ": 1907,
      "▁ব্যক্তি": 1908,
      "▁থাকা": 1909,
      "বান": 1910,
      "▁সোম": 1911,
      "াতিক": 1912,
      "▁লীগের": 1913,
      "▁পু": 1914,
      "▁হয়নি": 1915,
      "▁পৃ": 1916,
      "▁জীবন": 1917,
      "▁প্রতিনি": 1918,
      "▁চৌধুরী": 1919,
      "▁দিয়েছে": 1920,
      "বায়": 1921,
      "▁ম্যাচ": 1922,
      "▁বাড়ি": 1923,
      "▁নভেম্বর": 1924,
      "োঁ": 1925,
      "দ্র": 1926,
      "কেট": 1927,
      "▁আন্দ": 1928,
      "▁প্রশাস": 1929,
      "স্ক": 1930,
      "▁অতি": 1931,
      "▁রিপ": 1932,
      "▁সিদ্ধান্ত": 1933,
      "▁পরিষ": 1934,
      "হাম্মদ": 1935,
      "▁ক্ষম": 1936,
      "বু": 1937,
      "▁প্রয়োজন": 1938,
      "▁শিক্ষক": 1939,
      "▁শতাংশ": 1940,
      "▁দশ": 1941,
      "সু": 1942,
      "▁থেকেই": 1943,
      "ট্র": 1944,
      "▁যৌ": 1945,
      "▁ইং": 1946,
      "▁অন্ত": 1947,
      "▁দ্বিতীয়": 1948,
      "▁জানিয়েছেন": 1949,
      "সূ": 1950,
      "▁কোম্প": 1951,
      "েস্ক": 1952,
      "▁উদ্ধার": 1953,
      "িনী": 1954,
      "েস্ট": 1955,
      "▁সম্প্র": 1956,
      "▁কখন": 1957,
      "▁জয়": 1958,
      "বাদিক": 1959,
      "▁সত্য": 1960,
      "▁মঙ্গল": 1961,
      "াখ": 1962,
      "▁দিয়েছেন": 1963,
      "▁A": 1964,
      "হাস": 1965,
      "▁সকল": 1966,
      "টিং": 1967,
      "▁হক": 1968,
      "দর্শ": 1969,
      "▁এগ": 1970,
      "▁জানু": 1971,
      "ন্তব্য": 1972,
      "▁উপস্থিত": 1973,
      "▁উদ্য": 1974,
      "ক্টো": 1975,
      "েন্স": 1976,
      "▁সাংবাদিক": 1977,
      "▁তুল": 1978,
      "পুরে": 1979,
      "য়নের": 1980,
      "ঠন": 1981,
      "▁হামলা": 1982,
      "▁সম্পর্": 1983,
      "োদ": 1984,
      "ন্য": 1985,
      "▁বই": 1986,
      "▁B": 1987,
      "▁করলে": 1988,
      "▁C": 1989,
      "হা": 1990,
      "োজ": 1991,
      "▁মুস": 1992,
      "বাজার": 1993,
      "াধীন": 1994,
      "▁৬": 1995,
      "▁বিএনপি": 1996,
      "্যাম্প": 1997,
      "▁গ্রামের": 1998,
      "▁বান": 1999,
      "▁করবেন": 2000,
      "র্জাতিক": 2001,
      "▁ভিড": 2002,
      "▁সময়ে": 2003,
      "al": 2004,
      "▁সবাই": 2005,
      "▁টু": 2006,
      "▁ফুট": 2007,
      "শ্চিত": 2008,
      "চিত্র": 2009,
      "কেই": 2010,
      "▁আলী": 2011,
      "াক্ত": 2012,
      "ক্রম": 2013,
      "▁জন্ম": 2014,
      "▁সেপ্ট": 2015,
      "োভ": 2016,
      "▁সেটা": 2017,
      "▁ভাষ": 2018,
      "▁দক্ষিণ": 2019,
      "▁এত": 2020,
      "▁যারা": 2021,
      "স্পতি": 2022,
      "▁অক্টো": 2023,
      "▁সকাল": 2024,
      "াবার": 2025,
      "ত্রে": 2026,
      "▁সাবেক": 2027,
      "চিব": 2028,
      "▁বুধ": 2029,
      "▁আন্দোল": 2030,
      "র্তি": 2031,
      "খান": 2032,
      "▁পুলিশের": 2033,
      "▁কুম": 2034,
      "▁হয়েছে।": 2035,
      "▁সন্ত": 2036,
      "▁খেলা": 2037,
      "▁আন্তর্জাতিক": 2038,
      "▁স্কুল": 2039,
      "ক্ষা": 2040,
      "▁কন": 2041,
      "▁সমাজ": 2042,
      "▁গুরুত্ব": 2043,
      "▁নিউজ": 2044,
      "▁এরপর": 2045,
      "▁বৃহস্পতি": 2046,
      "ামলার": 2047,
      "▁জুলাই": 2048,
      "▁বিএনপির": 2049,
      "▁অবশ্য": 2050,
      "▁শুক্র": 2051,
      "▁তাঁদের": 2052,
      "াঙ্গ": 2053,
      "রাধ": 2054,
      "ডের": 2055,
      "▁বিষয়টি": 2056,
      "▁উচ্চ": 2057,
      "▁ব্ল": 2058,
      "▁বঙ্গ": 2059,
      "▁বুধবার": 2060,
      "▁রায়": 2061,
      "▁বাজ": 2062,
      "▁পরিস": 2063,
      "নিবার": 2064,
      "▁দীর্ঘ": 2065,
      "▁সোমবার": 2066,
      "▁পো": 2067,
      "▁বৃহস্পতিবার": 2068,
      "▁দেখতে": 2069,
      "▁মোট": 2070,
      "ফা": 2071,
      "▁উৎস": 2072,
      "▁কৃষ": 2073,
      "▁s": 2074,
      "▁গান": 2075,
      "য়র": 2076,
      "ক্রান্ত": 2077,
      "ন্দ্র": 2078,
      "▁সম্ভব": 2079,
      "্লি": 2080,
      "রত": 2081,
      "▁ভিডিও": 2082,
      "াবে": 2083,
      "▁কত": 2084,
      "চেয়ে": 2085,
      "য়োজ": 2086,
      "▁রাস্ত": 2087,
      "▁আল্লাহ": 2088,
      "▁মন্তব্য": 2089,
      "োম": 2090,
      "▁শী": 2091,
      "▁জে": 2092,
      "▁মঙ্গলবার": 2093,
      "▁১৯": 2094,
      "▁নানা": 2095,
      "▁নিশ্চিত": 2096,
      "▁থাকবে": 2097,
      "লায়": 2098,
      "▁জার": 2099,
      "▁আটক": 2100,
      "্ধ": 2101,
      "▁দায়িত্ব": 2102,
      "স্যা": 2103,
      "র্ষণ": 2104,
      "▁রাজনৈতিক": 2105,
      "▁ডেস্ক": 2106,
      "▁রাতে": 2107,
      "▁সিন": 2108,
      "রুল": 2109,
      "-এ": 2110,
      "▁চিন": 2111,
      "মিত": 2112,
      "মিক": 2113,
      "▁যেমন": 2114,
      "াপাশি": 2115,
      "▁নির্বাচনে": 2116,
      "▁ব্যাংক": 2117,
      "▁সেপ্টেম্বর": 2118,
      "▁পাশাপাশি": 2119,
      "▁কাউ": 2120,
      "▁অ্যা": 2121,
      "▁সবচেয়ে": 2122,
      "ুরি": 2123,
      "▁আব্দ": 2124,
      "সিং": 2125,
      "▁b": 2126,
      "▁শুক্রবার": 2127,
      "▁চাক": 2128,
      "▁অক্টোবর": 2129,
      "▁ক্লা": 2130,
      "াস্থ্য": 2131,
      "▁পাব": 2132,
      "▁M": 2133,
      "▁বাঁ": 2134,
      "▁P": 2135,
      "▁আমাকে": 2136,
      "▁মিনি": 2137,
      "ান্ড": 2138,
      "ণা": 2139,
      "ালা": 2140,
      "▁p": 2141,
      "▁রোগ": 2142,
      "পূর্ণ": 2143,
      "▁তদন্ত": 2144,
      "▁হওয়া": 2145,
      "ভূ": 2146,
      "ংস": 2147,
      "▁শনিবার": 2148,
      "▁অন্যান": 2149,
      "রাজ": 2150,
      "▁মার্চ": 2151,
      "▁৭": 2152,
      "ভি": 2153,
      "▁সংশ": 2154,
      "▁বিস্ত": 2155,
      "▁হাসপাতালে": 2156,
      "কদের": 2157,
      "it": 2158,
      "বাব": 2159,
      "▁খালে": 2160,
      "িসি": 2161,
      "▁বিজে": 2162,
      "িরা": 2163,
      "▁ভে": 2164,
      "▁ব্যবস": 2165,
      "তেন": 2166,
      "▁আহত": 2167,
      "০০": 2168,
      "▁ডিসেম্বর": 2169,
      "▁প্রস": 2170,
      "▁এছাড়া": 2171,
      "▁সার্": 2172,
      "াযোগ": 2173,
      "লেই": 2174,
      "▁হয়েছেন": 2175,
      "▁সম্পর্কে": 2176,
      "▁বসে": 2177,
      "▁হাই": 2178,
      "▁সমস্যা": 2179,
      "পত্র": 2180,
      "▁এন": 2181,
      "▁সাত": 2182,
      "▁সী": 2183,
      "▁যার": 2184,
      "▁অভিয": 2185,
      "আর": 2186,
      "ন্টার": 2187,
      "গুলোর": 2188,
      "▁হই": 2189,
      "▁আহমে": 2190,
      "▁মার্ক": 2191,
      "▁পরিবর্ত": 2192,
      "গু": 2193,
      "বাহী": 2194,
      "শাহ": 2195,
      "▁এলাকার": 2196,
      "▁আলোচনা": 2197,
      "ধ্যায়": 2198,
      "▁বলতে": 2199,
      "▁বাবা": 2200,
      "▁ঘটনায়": 2201,
      "▁তাঁকে": 2202,
      "▁জুন": 2203,
      "▁শ্রে": 2204,
      "▁একে": 2205,
      "▁শান্ত": 2206,
      "▁বাস্ত": 2207,
      "▁শো": 2208,
      "▁বৈঠ": 2209,
      "▁মৌ": 2210,
      "শীল": 2211,
      "বহ": 2212,
      "▁শেষে": 2213,
      "গম": 2214,
      "ীক": 2215,
      "ীতি": 2216,
      "▁আফ": 2217,
      "▁ওয়ার": 2218,
      "িজ্ঞ": 2219,
      "ফতার": 2220,
      "▁বিন": 2221,
      "▁ভাবে": 2222,
      "▁পূর্ব": 2223,
      "▁সংসদ": 2224,
      "▁প্রকাশিত": 2225,
      "▁একটু": 2226,
      "▁দাম": 2227,
      "▁স্ত্রী": 2228,
      "শা": 2229,
      "▁মৃত্যু": 2230,
      "▁আক": 2231,
      "াৎ": 2232,
      "চি": 2233,
      "▁অন্যান্য": 2234,
      "▁মাদ": 2235,
      "মূল": 2236,
      "▁রাজধান": 2237,
      "▁|": 2238,
      "▁সকালে": 2239,
      "▁নজ": 2240,
      "▁বিশ্বাস": 2241,
      "▁ভারতীয়": 2242,
      "▁আট": 2243,
      "তু": 2244,
      "▁নাই": 2245,
      "▁হলেও": 2246,
      "▁যাওয়ার": 2247,
      "▁শ্রম": 2248,
      "▁নেতৃত": 2249,
      "▁দুটি": 2250,
      "ওয়ায়": 2251,
      "▁বৃদ্ধ": 2252,
      "যায়ী": 2253,
      "ব্রু": 2254,
      "▁অনুষ্ঠানে": 2255,
      "▁পৃথ": 2256,
      "▁বন্দ": 2257,
      "▁মিড": 2258,
      "▁আয়": 2259,
      "▁নম": 2260,
      "▁বিরোধ": 2261,
      "▁আসে": 2262,
      "েমন": 2263,
      "▁উদ্দিন": 2264,
      "াতের": 2265,
      "▁গোল": 2266,
      "োহ": 2267,
      "▁এপ্র": 2268,
      "▁বিমান": 2269,
      "▁ফিরে": 2270,
      "▁নিরাপত্ত": 2271,
      "▁মর": 2272,
      "▁দেওয়ার": 2273,
      "he": 2274,
      "▁প্রকল্প": 2275,
      "▁বদ": 2276,
      "▁জাহ": 2277,
      "▁থানার": 2278,
      "▁পক্ষ": 2279,
      "ায": 2280,
      "িয়াম": 2281,
      "▁লেখা": 2282,
      "▁এগিয়ে": 2283,
      "▁রাখা": 2284,
      "▁স্বাস্থ্য": 2285,
      "▁উল্লেখ": 2286,
      "▁c": 2287,
      "▁জানান,": 2288,
      "লী": 2289,
      "▁পৌঁ": 2290,
      "ভে": 2291,
      "িকল্প": 2292,
      "▁ইম": 2293,
      "▁শেয়ার": 2294,
      "▁কিং": 2295,
      "▁ব্যাপারে": 2296,
      "▁উদ্যোগ": 2297,
      "▁সফ": 2298,
      "বর্তী": 2299,
      "▁আলো": 2300,
      "▁সিলেট": 2301,
      "▁প্রতিষ্ঠান": 2302,
      "▁অনুম": 2303,
      "▁বিশ্ববিদ্যালয়ের": 2304,
      "▁৮": 2305,
      "▁হে": 2306,
      "▁জল": 2307,
      "▁প্রতিনিধি": 2308,
      "সী": 2309,
      "▁স্বাধীন": 2310,
      "is": 2311,
      "▁নেওয়া": 2312,
      "▁বিল": 2313,
      "ড়াই": 2314,
      "▁মোহাম্মদ": 2315,
      "▁উন্নয়ন": 2316,
      "িফ": 2317,
      "▁যোগাযোগ": 2318,
      "▁সম্মেল": 2319,
      "সব": 2320,
      "▁ব্যক্ত": 2321,
      "িয়ায়": 2322,
      "▁প্রচার": 2323,
      "তর": 2324,
      "▁চিকিৎস": 2325,
      "▁কলক": 2326,
      "▁ফোন": 2327,
      "স্ত্র": 2328,
      "▁শিক্ষার্থ": 2329,
      "িখ": 2330,
      "▁ডে": 2331,
      "▁বিদেশ": 2332,
      "▁কাছ": 2333,
      "▁পক্ষে": 2334,
      "▁কেন্দ্রীয়": 2335,
      "▁সমা": 2336,
      "▁সংখ্যা": 2337,
      "▁অপর": 2338,
      "▁তাঁরা": 2339,
      "▁গু": 2340,
      "▁ফেব্রু": 2341,
      "ছে,": 2342,
      "সাই": 2343,
      "▁এপ্রিল": 2344,
      "▁পথ": 2345,
      "গুলি": 2346,
      "মানে": 2347,
      "▁দিব": 2348,
      "▁আহমেদ": 2349,
      "ছে।": 2350,
      "ারিত": 2351,
      "▁পরিবেশ": 2352,
      "্টার": 2353,
      "▁T": 2354,
      "▁পালন": 2355,
      "▁জনগ": 2356,
      "▁হবে।": 2357,
      "কেল": 2358,
      "টো": 2359,
      "▁জঙ্গ": 2360,
      "ীপুর": 2361,
      "ামা": 2362,
      "▁গবে": 2363,
      "▁যত": 2364,
      "ব্দ": 2365,
      "▁অনুযায়ী": 2366,
      "▁মুক্তিয": 2367,
      "▁মাঝে": 2368,
      "▁মোব": 2369,
      "▁সুর": 2370,
      "▁মানব": 2371,
      "▁জানতে": 2372,
      "▁“": 2373,
      "ানির": 2374,
      "োপা": 2375,
      "▁পায়": 2376,
      "▁উৎ": 2377,
      "▁পরীক্ষা": 2378,
      "▁ওয়েব": 2379,
      "ed": 2380,
      "ুমি": 2381,
      "▁দিনের": 2382,
      "▁কমিটির": 2383,
      "ক্য": 2384,
      "▁বিদ্যাল": 2385,
      "শ্চিম": 2386,
      "▁ছাড়": 2387,
      "▁বিভাগের": 2388,
      "থি": 2389,
      "▁খা": 2390,
      "▁প্রত্য": 2391,
      "▁শরীর": 2392,
      "্বাস": 2393,
      "▁পরিবারের": 2394,
      "▁ফেলে": 2395,
      "▁সমর্থ": 2396,
      "▁উদ্দেশ": 2397,
      "▁গল্প": 2398,
      "হের": 2399,
      "▁বিত": 2400,
      "▁ফ্র": 2401,
      "▁অপরাধ": 2402,
      "▁যাওয়া": 2403,
      "▁সৃষ্টি": 2404,
      "ংগ": 2405,
      "▁পরিকল্প": 2406,
      "▁শীর্ষ": 2407,
      "মিন": 2408,
      "ুত": 2409,
      "▁বাড়িতে": 2410,
      "▁ভাগ": 2411,
      "ুস": 2412,
      "থমিক": 2413,
      "ীকে": 2414,
      "▁টেক": 2415,
      "▁বেড়ে": 2416,
      "▁কব": 2417,
      "▁সপ্ত": 2418,
      "▁থাকতে": 2419,
      "▁কাজে": 2420,
      "মাত্র": 2421,
      "▁দো": 2422,
      "▁ভর্তি": 2423,
      "▁মনোন": 2424,
      "▁প্রেসিড": 2425,
      "জ্জ": 2426,
      "▁মহিলা": 2427,
      "▁তারপর": 2428,
      "▁বঙ্গবন্ধ": 2429,
      "জীব": 2430,
      "▁আগস্ট": 2431,
      "▁প্রাথমিক": 2432,
      "▁৯": 2433,
      "কাপ": 2434,
      "▁পরিচালক": 2435,
      "বাড়": 2436,
      "▁বিনি": 2437,
      "▁শ্রী": 2438,
      "▁সাক্ষ": 2439,
      "▁বাইরে": 2440,
      "▁গ্রেফতার": 2441,
      "▁বিজ": 2442,
      "▁অবস্থায়": 2443,
      "াদি": 2444,
      "▁জি": 2445,
      "▁আহম": 2446,
      "ামান": 2447,
      "▁প্রদান": 2448,
      "▁হাসান": 2449,
      "▁শুন": 2450,
      "য়োগ": 2451,
      "ছিলাম": 2452,
      "িকের": 2453,
      "▁রাখতে": 2454,
      "▁আবেদন": 2455,
      "▁যুগ": 2456,
      "জনের": 2457,
      "▁সুপার": 2458,
      "▁মহান": 2459,
      "▁প্রাণ": 2460,
      "▁পশ্চিম": 2461,
      "▁নিজেদের": 2462,
      "▁রবি": 2463,
      "পতি": 2464,
      "▁সহযোগ": 2465,
      "ডার": 2466,
      "▁নব": 2467,
      "▁নিষ": 2468,
      "▁শত": 2469,
      "▁পারবেন": 2470,
      "▁জম": 2471,
      "ad": 2472,
      "িশোর": 2473,
      "▁পুরু": 2474,
      "▁পরিস্থ": 2475,
      "▁জানুয়ারি": 2476,
      "▁N": 2477,
      "পের": 2478,
      "▁ইতিহাস": 2479,
      "▁বাংলাদেশে": 2480,
      "▁বন": 2481,
      "▁ফার": 2482,
      "িয়ন": 2483,
      "▁বর্তমান": 2484,
      "▁পানি": 2485,
      "ায়ে": 2486,
      "▁বললেন": 2487,
      "▁ফাঁ": 2488,
      "▁চান": 2489,
      "▁সড়ক": 2490,
      "▁করেন।\n": 2491,
      "▁ফেল": 2492,
      "▁প্রার্থী": 2493,
      "▁ফেস": 2494,
      "▁না,": 2495,
      "▁কাপ": 2496,
      "▁উদ্ব": 2497,
      "▁আলা": 2498,
      "▁খালেদা": 2499,
      "▁উপল": 2500,
      "▁গড়ে": 2501,
      "নাথ": 2502,
      "ৃণ": 2503,
      "হে": 2504,
      "▁নির্মাণ": 2505,
      "মের": 2506,
      "▁জেলার": 2507,
      "▁গোপ": 2508,
      "▁ঘটনার": 2509,
      "▁মার্কিন": 2510,
      "ন্ত্রণাল": 2511,
      "্রুত": 2512,
      "ল্যান্ড": 2513,
      "▁মিশ": 2514,
      "ফে": 2515,
      "▁লাল": 2516,
      "▁নাক": 2517,
      "▁প্রত্যা": 2518,
      "▁সম্পর্ক": 2519,
      "▁তে": 2520,
      "▁ম্যাচে": 2521,
      "▁খু": 2522,
      "▁প্রযুক্ত": 2523,
      "▁সৈ": 2524,
      "▁যাব": 2525,
      "িক্ত": 2526,
      "রণের": 2527,
      "▁জিয়া": 2528,
      "োয়ার": 2529,
      "্ৰ": 2530,
      "▁প্রচ": 2531,
      "প্রাপ্ত": 2532,
      "▁বাল": 2533,
      "▁স্বপ": 2534,
      "▁সাজ": 2535,
      "▁মস": 2536,
      "জিব": 2537,
      "▁পুরুষ": 2538,
      "▁ভিত্ত": 2539,
      "▁করেছিলেন": 2540,
      "▁কর্তৃপক্ষ": 2541,
      "ীকার": 2542,
      "▁কার্যাল": 2543,
      "▁বেগম": 2544,
      "▁চালিয়ে": 2545,
      "িটে": 2546,
      "ic": 2547,
      "▁জনপ্র": 2548,
      "▁টা": 2549,
      "্যাট": 2550,
      "াজিক": 2551,
      "▁পথে": 2552,
      "▁মুখে": 2553,
      "বন": 2554,
      "াবাদ": 2555,
      "▁মন্ত্রণাল": 2556,
      "েন্দ্র": 2557,
      "▁ইউনিয়নের": 2558,
      "▁সাড়ে": 2559,
      "ঘট": 2560,
      "বো": 2561,
      "▁আরেক": 2562,
      "▁গেলে": 2563,
      "▁সূত্র": 2564,
      "▁চর": 2565,
      "▁প্রেসিডেন্ট": 2566,
      "▁পারি": 2567,
      "▁এলাকা": 2568,
      "▁ইন্টার": 2569,
      "▁মেড": 2570,
      "▁মুছ": 2571,
      "▁মূল্য": 2572,
      "▁চোখ": 2573,
      "▁বিশ্বকাপ": 2574,
      "িনার": 2575,
      "ঞ্চল": 2576,
      "▁দ্রুত": 2577,
      "দ্দ": 2578,
      "▁নাগর": 2579,
      "▁ভুল": 2580,
      "▁তাতে": 2581,
      "▁অবস্থান": 2582,
      "▁প্রেম": 2583,
      "▁সংস্থা": 2584,
      "▁মোবাইল": 2585,
      "▁m": 2586,
      "▁শ্রেণ": 2587,
      "▁আয়োজ": 2588,
      "▁ওর": 2589,
      "িয়াল": 2590,
      "▁সাহায": 2591,
      "▁আছেন": 2592,
      "▁পুরো": 2593,
      "▁আদালত": 2594,
      "িনীর": 2595,
      "েব": 2596,
      "▁অনলাই": 2597,
      "▁মুক্ত": 2598,
      "গের": 2599,
      "▁কিশোর": 2600,
      "▁জর": 2601,
      "াসী": 2602,
      "▁টেস্ট": 2603,
      "▁চাপ": 2604,
      "াদা": 2605,
      "▁ঋ": 2606,
      "▁নম্বর": 2607,
      "▁বাণ": 2608,
      "লীগের": 2609,
      "▁চলছে": 2610,
      "েন।\n": 2611,
      "েসর": 2612,
      "▁চাঁ": 2613,
      "▁বর্তমানে": 2614,
      "দ্দিন": 2615,
      "▁রূপ": 2616,
      "▁লিখ": 2617,
      "▁মালিক": 2618,
      "▁অধিকার": 2619,
      "▁মুহ": 2620,
      "▁মহাস": 2621,
      "▁পত্র": 2622,
      "▁০": 2623,
      "রিক": 2624,
      "▁বাদ": 2625,
      "▁পুন": 2626,
      "শে": 2627,
      "▁লাভ": 2628,
      "গ্রহণ": 2629,
      "াবাহ": 2630,
      "▁তুমি": 2631,
      "েন্ড": 2632,
      "▁হত্য": 2633,
      "▁লক্ষ্য": 2634,
      "▁গ্রেপ্ত": 2635,
      "মধ্য": 2636,
      "▁হাজ": 2637,
      "উট": 2638,
      "ৌশ": 2639,
      "▁নং": 2640,
      "▁নামের": 2641,
      "▁গাড়ি": 2642,
      "▁গ্রু": 2643,
      "ুয়া": 2644,
      "▁চলা": 2645,
      "▁কিংবা": 2646,
      "ou": 2647,
      "▁সাব": 2648,
      "...\n": 2649,
      "▁ছেড়ে": 2650,
      "এফ": 2651,
      "▁নির্বাহী": 2652,
      "করা": 2653,
      "om": 2654,
      "▁খুঁ": 2655,
      "▁তরুণ": 2656,
      "▁আব্দুল": 2657,
      "্টা": 2658,
      "▁ফল": 2659,
      "▁যুদ্ধ": 2660,
      "▁যুক্তরাষ্ট্র": 2661,
      "le": 2662,
      "ফিক": 2663,
      "▁রক্ত": 2664,
      "ীদ": 2665,
      "▁এল": 2666,
      "▁১২": 2667,
      "▁বিব": 2668,
      "ন্ত্রীর": 2669,
      "▁বিয়ে": 2670,
      "▁সুন্দর": 2671,
      "র্ধ": 2672,
      "▁বিশ্ববিদ্যালয়": 2673,
      "▁সুবি": 2674,
      "ুকে": 2675,
      "▁টাকার": 2676,
      "▁সপ্তাহ": 2677,
      "re": 2678,
      "ুরে": 2679,
      "▁বোর্": 2680,
      "▁পাশে": 2681,
      "▁দৃ": 2682,
      "▁জানায়": 2683,
      "▁কঠ": 2684,
      "ানী": 2685,
      "▁বিস্তারিত": 2686,
      "▁ক্ল": 2687,
      "▁জাতি": 2688,
      "স্কার": 2689,
      "▁ওয়া": 2690,
      "▁আধ": 2691,
      "▁২০১৯": 2692,
      "▁মোঃ": 2693,
      "ড়ার": 2694,
      "ামি": 2695,
      "▁শ্রমিক": 2696,
      "▁মুছলিম": 2697,
      "▁ব্যবস্থ": 2698,
      "▁নৌ": 2699,
      "▁পার্": 2700,
      "শাহী": 2701,
      "▁ক্রিকেট": 2702,
      "াস্ট": 2703,
      "হিঙ্গ": 2704,
      "▁অথবা": 2705,
      "▁সংঘ": 2706,
      "▁মাঠে": 2707,
      "কর্ম": 2708,
      "য়াল": 2709,
      "▁আবদুল": 2710,
      "▁যেখানে": 2711,
      "▁ময়": 2712,
      "টিয়ে": 2713,
      "▁এক্স": 2714,
      "মুখ": 2715,
      "▁R": 2716,
      "▁কর্মসূ": 2717,
      "▁পৃথিব": 2718,
      "▁ডিজ": 2719,
      "▁রোহিঙ্গ": 2720,
      "▁বাজার": 2721,
      "▁ইউনিয়ন": 2722,
      "as": 2723,
      "▁আশা": 2724,
      "▁যৌন": 2725,
      "▁গুরুত্বপূর্ণ": 2726,
      "াকায়": 2727,
      "মনসিং": 2728,
      "▁যদিও": 2729,
      "▁শহরের": 2730,
      "▁ব্রি": 2731,
      "▁পৌর": 2732,
      "▁কক্স": 2733,
      "▁এদিকে": 2734,
      "াসের": 2735,
      "▁ক্ষতি": 2736,
      "▁ইন্ড": 2737,
      "শেষ": 2738,
      "▁সম্প্রতি": 2739,
      "▁পাহ": 2740,
      "জের": 2741,
      "▁আমের": 2742,
      "▁মারা": 2743,
      "পুরের": 2744,
      "ৃহ": 2745,
      "▁এখনও": 2746,
      "▁হারিয়ে": 2747,
      "মত": 2748,
      "▁সভায়": 2749,
      "▁মাসে": 2750,
      "ডেট": 2751,
      "-এর": 2752,
      "▁সন্ত্র": 2753,
      "▁লিম": 2754,
      "্রেস": 2755,
      "▁সচিব": 2756,
      "গাঁ": 2757,
      "▁রাজ্য": 2758,
      "▁দিনে": 2759,
      "ৎসা": 2760,
      "▁তৃণ": 2761,
      "▁ডলার": 2762,
      "▁ছু": 2763,
      "▁আনন্দ": 2764,
      "▁দাঁড়িয়ে": 2765,
      "▁হুম": 2766,
      "গান": 2767,
      "কারি": 2768,
      "▁মন্ত্রী": 2769,
      "▁সন্": 2770,
      "তিরিক্ত": 2771,
      "▁থাকার": 2772,
      "▁অত": 2773,
      "িরে": 2774,
      "▁মৃত্য": 2775,
      "ণ্য": 2776,
      "▁মনোনয়ন": 2777,
      "▁দোক": 2778,
      "েনি": 2779,
      "▁খুল": 2780,
      "পা": 2781,
      "▁রাম": 2782,
      "▁সারা": 2783,
      "▁অনুস": 2784,
      "চের": 2785,
      "▁করে।\n": 2786,
      "▁অভিযান": 2787,
      "ারি": 2788,
      "▁দর্শ": 2789,
      "াসন": 2790,
      "▁কংগ": 2791,
      "্নে": 2792,
      "টিকে": 2793,
      "▁যাতে": 2794,
      "▁তোম": 2795,
      "উল": 2796,
      "▁সামাজিক": 2797,
      "িশাল": 2798,
      "▁D": 2799,
      "▁f": 2800,
      "▁শক্ত": 2801,
      "▁বিক্রি": 2802,
      "বিষ": 2803,
      "▁ঘরে": 2804,
      "▁'": 2805,
      "▁টেল": 2806,
      "▁শব্দ": 2807,
      "▁নেমে": 2808,
      "▁বিদ্যু": 2809,
      "▁আগেই": 2810,
      "▁ছয়": 2811,
      "েনার": 2812,
      "▁সূত্রে": 2813,
      "▁চায়": 2814,
      "হীন": 2815,
      "▁নাগরিক": 2816,
      "র্ন": 2817,
      "▁তোমার": 2818,
      "▁পরিস্থিতি": 2819,
      "▁১১": 2820,
      "ভীর": 2821,
      "টন": 2822,
      "▁I": 2823,
      "▁বহু": 2824,
      "▁ম্য": 2825,
      "▁হাসিনা": 2826,
      "ুজ্জ": 2827,
      "▁বন্ধু": 2828,
      "িকায়": 2829,
      "েনের": 2830,
      "ণে": 2831,
      "▁হাল": 2832,
      "▁করলেন": 2833,
      "▁উৎপ": 2834,
      "▁অন্যতম": 2835,
      "নাকে": 2836,
      "▁মুসলিম": 2837,
      "▁রাস": 2838,
      "গ্ন": 2839,
      "▁ডাক": 2840,
      "গার": 2841,
      "▁সর্বো": 2842,
      "▁চিকিৎসা": 2843,
      "োলা": 2844,
      "▁আগের": 2845,
      "োস্ট": 2846,
      "▁ভেত": 2847,
      "▁আয়োজন": 2848,
      "▁রকম": 2849,
      "▁আপডেট": 2850,
      "▁পরিমাণ": 2851,
      "▁সন্তান": 2852,
      "ূর": 2853,
      "▁নিয়ন্ত্রণ": 2854,
      "▁অতিরিক্ত": 2855,
      "▁মাদক": 2856,
      "কৃত": 2857,
      "স্ট্র": 2858,
      "দ্ব": 2859,
      "ল,": 2860,
      "▁পেশ": 2861,
      "▁আসা": 2862,
      "ুই": 2863,
      "▁অধ্যাপ": 2864,
      "▁হিন্দ": 2865,
      "▁বোঝ": 2866,
      "▁ফেব্রুয়ারি": 2867,
      "▁শিব": 2868,
      "াতার": 2869,
      "▁বর্ণ": 2870,
      "মাধ্য": 2871,
      "▁শ্র": 2872,
      "্লিষ্ট": 2873,
      "ing": 2874,
      "শিয়া": 2875,
      "▁উচিত": 2876,
      "▁কোর": 2877,
      "il": 2878,
      "জিদ": 2879,
      "▁রেল": 2880,
      "যোগ্য": 2881,
      "▁১৫": 2882,
      "▁ক্যা": 2883,
      "▁উদ্বোধ": 2884,
      "▁সবার": 2885,
      "▁বিশ্বের": 2886,
      "▁জনপ্রিয়": 2887,
      "▁নিয়োগ": 2888,
      "▁সংগ্রহ": 2889,
      "▁দৈ": 2890,
      "▁তিনি।\n": 2891,
      "▁হয়তো": 2892,
      "ছি।\n": 2893,
      "▁গ্রেপ্তার": 2894,
      "▁কোম্পানি": 2895,
      "▁মাই": 2896,
      "▁H": 2897,
      "টায়": 2898,
      "▁সংস্ক": 2899,
      "িকভাবে": 2900,
      "▁জড়": 2901,
      "▁টাই": 2902,
      "▁দু’": 2903,
      "▁লো": 2904,
      "▁ইছ": 2905,
      "মুদ": 2906,
      "▁নিরাপত্তা": 2907,
      "▁আন্দোলন": 2908,
      "▁ফর": 2909,
      "▁দেব": 2910,
      "▁ঘণ": 2911,
      "▁-": 2912,
      "ৃত্ত": 2913,
      "▁জানানো": 2914,
      "▁লিমিটে": 2915,
      "রু": 2916,
      "▁প্রভাব": 2917,
      "িত্য": 2918,
      "▁d": 2919,
      "▁একা": 2920,
      "▁করেছিল": 2921,
      "▁প্রতিবাদ": 2922,
      "▁রোব": 2923,
      "▁কক্সবাজার": 2924,
      "▁আহ্ব": 2925,
      "▁কোর্": 2926,
      "▁হয়,": 2927,
      "▁সম্ভাব": 2928,
      "▁বিজেপি": 2929,
      "▁হিসাবে": 2930,
      "▁নদী": 2931,
      "▁সিনেম": 2932,
      "▁লিখে": 2933,
      "মন্ত্রীর": 2934,
      "▁দার": 2935,
      "▁চলচ্": 2936,
      "▁মামলায়": 2937,
      "▁সিটি": 2938,
      "▁থানায়": 2939,
      "ঘাত": 2940,
      "দ্ধা": 2941,
      "ব্র": 2942,
      "ূর্ত": 2943,
      "▁অ্যান্ড": 2944,
      "▁ইর": 2945,
      "▁রাজনীতি": 2946,
      "▁নির্বাচনের": 2947,
      "▁ঘর": 2948,
      "▁সভা": 2949,
      "▁মুখ্য": 2950,
      "ion": 2951,
      "▁প্রার্থ": 2952,
      "ধে": 2953,
      "▁প্রমাণ": 2954,
      "▁যায়।\n": 2955,
      "▁ফিল": 2956,
      "রী": 2957,
      "েশনের": 2958,
      "▁ভূম": 2959,
      "াভাব": 2960,
      "ফুল": 2961,
      "ভুক্ত": 2962,
      "▁o": 2963,
      "▁ভয়": 2964,
      "▁ফুল": 2965,
      "▁ধরা": 2966,
      "▁অধ্যাপক": 2967,
      "পু": 2968,
      "▁পরিবর্তন": 2969,
      "▁সংশ্লিষ্ট": 2970,
      "▁মামলার": 2971,
      "▁পাকিস্তান": 2972,
      "▁দুর্ঘট": 2973,
      "্কার": 2974,
      "▁কাঁ": 2975,
      "▁দূর": 2976,
      "ঠি": 2977,
      "▁চুক্ত": 2978,
      "▁থাকলে": 2979,
      "্যায়ে": 2980,
      "োয়": 2981,
      "▁অস্ত্র": 2982,
      "▁পড়া": 2983,
      "▁বছরে": 2984,
      "▁বিপক্ষে": 2985,
      "▁আদালতে": 2986,
      "▁ধর্ষণ": 2987,
      "▁কমিটি": 2988,
      "ড়ায়": 2989,
      "িনের": 2990,
      "▁প্রথ": 2991,
      "▁পঞ্চ": 2992,
      "am": 2993,
      "▁ডা": 2994,
      "▁তৃত": 2995,
      "▁কমে": 2996,
      "▁আবু": 2997,
      "্যাত": 2998,
      "্নের": 2999,
      "▁নাকি": 3000,
      "▁জায়গ": 3001,
      "▁নো": 3002,
      "▁সত": 3003,
      "▁প্রস্তাব": 3004,
      "▁নিক": 3005,
      "▁পেতে": 3006,
      "ফোর": 3007,
      "াধিক": 3008,
      "▁পরিকল্পনা": 3009,
      "িজ্য": 3010,
      "মনসিংহ": 3011,
      "▁গাজ": 3012,
      "ঙ্কা": 3013,
      "▁নেয়": 3014,
      "▁‘‘": 3015,
      "▁মাহমুদ": 3016,
      "▁।": 3017,
      "ছেন।\n": 3018,
      "▁পাই": 3019,
      "রোধ": 3020,
      "▁প্রতিবেদ": 3021,
      "▁মিয়া": 3022,
      "চা": 3023,
      "▁খাবার": 3024,
      "ৃতিক": 3025,
      "ষ্কার": 3026,
      "▁সিং": 3027,
      "▁জোর": 3028,
      "▁ব্যাট": 3029,
      "চ্ছা": 3030,
      "▁কয়েকটি": 3031,
      "তাম": 3032,
      "▁খাদ": 3033,
      "▁শাখ": 3034,
      "▁পুরস্কার": 3035,
      "▁অশ": 3036,
      "▁নর": 3037,
      "▁লাশ": 3038,
      "িভ": 3039,
      "▁বাজারে": 3040,
      "ঙে": 3041,
      "▁রং": 3042,
      "▁কুমার": 3043,
      "▁হলেন": 3044,
      "▁কাদের": 3045,
      "▁যাত্রী": 3046,
      "▁সীমান": 3047,
      "▁সংগঠন": 3048,
      "▁বাঙ": 3049,
      "▁এখনো": 3050,
      "▁নগর": 3051,
      "ক্ষেপ": 3052,
      "ান্দ": 3053,
      "য়েন্ট": 3054,
      "▁ড্র": 3055,
      "▁ওপ": 3056,
      "▁নেই।\n": 3057,
      "▁সর্বোচ্চ": 3058,
      "▁হোক": 3059,
      "▁দুপুরে": 3060,
      "ন্দে": 3061,
      "ুজ্জামান": 3062,
      "াদার": 3063,
      "টিশ": 3064,
      "মেন্ট": 3065,
      "▁করে।": 3066,
      "▁অবস্থা": 3067,
      "▁মাছ": 3068,
      "ীপ": 3069,
      "▁বিজ্ঞান": 3070,
      "ঠনের": 3071,
      "▁কথ": 3072,
      "▁পরিষদের": 3073,
      "৷\n": 3074,
      "▁কখনো": 3075,
      "▁তালিকা": 3076,
      "▁শিকার": 3077,
      "▁শার": 3078,
      "▁শির": 3079,
      "▁অনুষ্ঠান": 3080,
      "▁তৃতীয়": 3081,
      "▁স্বামী": 3082,
      "▁যে,": 3083,
      "▁উপলক্ষে": 3084,
      "▁পাস": 3085,
      "▁গাছ": 3086,
      "▁ক্যাম্প": 3087,
      "▁নেয়া": 3088,
      "▁প্রতিযোগ": 3089,
      "▁অস্ট্র": 3090,
      "কো": 3091,
      "▁আহমদ": 3092,
      "র্ড": 3093,
      "▁বঙ্গবন্ধু": 3094,
      "▁সময়ের": 3095,
      "▁প্রযুক্তি": 3096,
      "▁জমা": 3097,
      "▁দিক": 3098,
      "ান্স": 3099,
      "▁সাহায্য": 3100,
      "ইল": 3101,
      "▁অফিসার": 3102,
      "েলের": 3103,
      "▁আসলে": 3104,
      "চনা": 3105,
      "▁রবিবার": 3106,
      "▁নিজস্ব": 3107,
      "ভর": 3108,
      "▁গুলি": 3109,
      "▁সম্পূর্ণ": 3110,
      "▁জো": 3111,
      "য়েল": 3112,
      "▁প্রতিদিন": 3113,
      "▁থাকেন": 3114,
      "দীর": 3115,
      "কল": 3116,
      "▁প্রতিটি": 3117,
      "▁অতিথি": 3118,
      "্না": 3119,
      "োলার": 3120,
      "▁কামাল": 3121,
      "▁এসেছে": 3122,
      "▁পিছ": 3123,
      "▁খার": 3124,
      "্রয়": 3125,
      "▁জায়গা": 3126,
      "বুক": 3127,
      "▁দলীয়": 3128,
      "ফি": 3129,
      "▁কম্প": 3130,
      "ুদ্র": 3131,
      "২০": 3132,
      "িতার": 3133,
      "▁জ্ব": 3134,
      "▁প্রথমে": 3135,
      "▁খর": 3136,
      "▁রিপোর্": 3137,
      "▁গ্রামে": 3138,
      "▁কাজের": 3139,
      "▁অপে": 3140,
      "▁টার": 3141,
      "▁কার্যক্রম": 3142,
      "▁রাজধানীর": 3143,
      "▁বিক্ষ": 3144,
      "োদন": 3145,
      "▁রোববার": 3146,
      "▁মাসের": 3147,
      "▁সংর": 3148,
      "াও": 3149,
      "▁সেন্ট": 3150,
      "কু": 3151,
      "▁ট্রাম": 3152,
      "ang": 3153,
      "▁ঐক্য": 3154,
      "▁অভিনয়": 3155,
      "▁আপন": 3156,
      "▁অ্যাপ": 3157,
      "েম্ব": 3158,
      "োপাধ্যায়": 3159,
      "াসা": 3160,
      "ঙ্খ": 3161,
      "▁পারবে": 3162,
      "▁প্রবেশ": 3163,
      "▁সঙ্গ": 3164,
      "▁বাড়ির": 3165,
      "▁পাওয়ার": 3166,
      "শার": 3167,
      "▁কর্তৃক": 3168,
      "▁প্রতিবেদন": 3169,
      "▁আর্থ": 3170,
      "াণ": 3171,
      "্যাব": 3172,
      "▁নিন": 3173,
      "থাৎ": 3174,
      "▁পড়তে": 3175,
      "▁স্থানে": 3176,
      "র্য": 3177,
      "সভা": 3178,
      "▁পোস্ট": 3179,
      "▁সহকারী": 3180,
      "▁বাকি": 3181,
      "ইন": 3182,
      "▁মড": 3183,
      "▁মন্দ": 3184,
      "▁করেন।": 3185,
      "▁’": 3186,
      "সিক": 3187,
      "▁ষ": 3188,
      "▁ওয়েবসাই": 3189,
      "▁ঢাকার": 3190,
      "্যাশন": 3191,
      "▁সেবা": 3192,
      "▁শিক্ষার্থীদের": 3193,
      "▁মিডিয়া": 3194,
      "▁সম্মান": 3195,
      "▁ঘটন": 3196,
      "▁ইউর": 3197,
      "▁সহায়": 3198,
      "▁ট্রাম্প": 3199,
      "▁জায়গায়": 3200,
      "▁ইছলাম": 3201,
      "ot": 3202,
      "▁শুনে": 3203,
      "▁ধারণা": 3204,
      "▁বাস্তবায়": 3205,
      "▁মজ": 3206,
      "▁বর্ষ": 3207,
      "▁চালু": 3208,
      "া,": 3209,
      "▁চিত্র": 3210,
      "▁কোচ": 3211,
      "▁নেন": 3212,
      "চল": 3213,
      "▁ঐতি": 3214,
      "মূ": 3215,
      "▁পেছ": 3216,
      "▁প্ল": 3217,
      "▁গৃহ": 3218,
      "▁শহর": 3219,
      "▁বাণিজ্য": 3220,
      "▁দরকার": 3221,
      "ol": 3222,
      "▁অস্ট্রেল": 3223,
      "▁অর্থাৎ": 3224,
      "▁ইত্য": 3225,
      "ষ্ণ": 3226,
      "▁ওয়ার্ড": 3227,
      "▁দ্বারা": 3228,
      "▁উৎপাদ": 3229,
      "াসে": 3230,
      "▁শাস্ত": 3231,
      "▁চলচ্চিত্র": 3232,
      "ায়ণ": 3233,
      "▁সেরা": 3234,
      "সন": 3235,
      "▁জানিয়েছে": 3236,
      "▁মেয়র": 3237,
      "▁বলেছেন,": 3238,
      "▁নয়,": 3239,
      "▁অনেকেই": 3240,
      "▁সহজ": 3241,
      "▁পরিচয়": 3242,
      "ড়াতে": 3243,
      "র্বে": 3244,
      "ামের": 3245,
      "ুতি": 3246,
      "▁আবুল": 3247,
      "▁ইংরে": 3248,
      "িলের": 3249,
      "▁হাঁ": 3250,
      "▁জিন": 3251,
      "▁ভো": 3252,
      "▁হঠ": 3253,
      "কোন": 3254,
      "▁প্রক্র": 3255,
      "▁অম": 3256,
      "▁ক্ষমতা": 3257,
      "▁বিজয়": 3258,
      "▁প্রশিক্ষ": 3259,
      "নীয়": 3260,
      "▁সিরিজ": 3261,
      "▁পছ": 3262,
      "▁হওয়ায়": 3263,
      "ীরে": 3264,
      "য়ারী": 3265,
      "▁ভাঙ": 3266,
      "▁ছবির": 3267,
      "▁জিজ্ঞ": 3268,
      "িতির": 3269,
      "▁সংক্রান্ত": 3270,
      "▁a": 3271,
      "▁অনলাইন": 3272,
      "▁একাধিক": 3273,
      "দল": 3274,
      "াকিব": 3275,
      "ct": 3276,
      "▁তারিখ": 3277,
      "▁মাথায়": 3278,
      "▁খুবই": 3279,
      "▁লড়াই": 3280,
      "দর্শন": 3281,
      "▁অধিন": 3282,
      "তন্ত্র": 3283,
      "ি,": 3284,
      "▁ফাইন": 3285,
      "▁দেয়ার": 3286,
      "▁তেমন": 3287,
      "সর": 3288,
      "াভাবিক": 3289,
      "▁গাড়": 3290,
      "▁পরিচালনা": 3291,
      "▁সফল": 3292,
      "▁থানা": 3293,
      "▁in": 3294,
      "নি।\n": 3295,
      "কালীন": 3296,
      "▁উইকেট": 3297,
      "▁মসজিদ": 3298,
      "ন্থ": 3299,
      "▁পরিবহ": 3300,
      "▁ব্যাপার": 3301,
      "খালী": 3302,
      "▁আসতে": 3303,
      "▁সঠ": 3304,
      "▁ফেসবুক": 3305,
      "▁ভি": 3306,
      "▁দখ": 3307,
      "▁বেঁ": 3308,
      "▁অনুর": 3309,
      "▁ঘোষ": 3310,
      "▁ওঠ": 3311,
      "▁কমিশন": 3312,
      "▁দফ": 3313,
      "▁নেতৃত্ব": 3314,
      "▁একবার": 3315,
      "দায়": 3316,
      "▁নিউ": 3317,
      "▁পদে": 3318,
      "▁অনি": 3319,
      "ত্তি": 3320,
      "▁করেছি": 3321,
      "খা": 3322,
      "▁of": 3323,
      "▁ব্যবসায়": 3324,
      "▁হামলার": 3325,
      "▁পল": 3326,
      "▁বাসিন্দ": 3327,
      "▁ছড়িয়ে": 3328,
      "▁১৪": 3329,
      "▁মানে": 3330,
      "▁বিনিয়োগ": 3331,
      "▁রয়েছে।\n": 3332,
      "পূ": 3333,
      "▁জীবনের": 3334,
      "▁অসু": 3335,
      "▁রাখেন": 3336,
      "ান্তর": 3337,
      "▁E": 3338,
      "▁w": 3339,
      "▁ঘুম": 3340,
      "েজ": 3341,
      "▁নিজেকে": 3342,
      "▁ভেঙে": 3343,
      "la": 3344,
      "▁জনের": 3345,
      "দু": 3346,
      "▁পাকিস্তানের": 3347,
      "মতা": 3348,
      "▁নাজ": 3349,
      "▁বাতি": 3350,
      "▁সৌদি": 3351,
      "▁তিনটি": 3352,
      "▁গঠন": 3353,
      "▁পাঠানো": 3354,
      "▁পয়েন্ট": 3355,
      "▁পদ্ধ": 3356,
      "বে।\n": 3357,
      "▁এনে": 3358,
      "্যাক্স": 3359,
      "▁বিরোধী": 3360,
      "▁করছি": 3361,
      "▁‘আ": 3362,
      "র্গ": 3363,
      "▁জঙ্গি": 3364,
      "’\n": 3365,
      "▁অথচ": 3366,
      "▁সমস্ত": 3367,
      "▁বিধ": 3368,
      "▁ব্যবস্থাপ": 3369,
      "্কা": 3370,
      "▁ইয়া": 3371,
      "▁বেসর": 3372,
      "▁দিবস": 3373,
      "গুলোতে": 3374,
      "▁হিন্দু": 3375,
      "▁বার্তা": 3376,
      "ত্ত্ব": 3377,
      "বছ": 3378,
      "▁জোট": 3379,
      "▁অস": 3380,
      "কালে": 3381,
      "▁জ্ঞ": 3382,
      "▁কোথা": 3383,
      "▁ব্যাপক": 3384,
      "ামর্শ": 3385,
      "▁বলছেন": 3386,
      "▁বয়স": 3387,
      "ুলের": 3388,
      "▁চিন্তা": 3389,
      "em": 3390,
      "▁অভিযোগে": 3391,
      "▁নিয়মিত": 3392,
      "পাল": 3393,
      "▁তম": 3394,
      "and": 3395,
      "▁আইনজীব": 3396,
      "পাশ": 3397,
      "▁বৃদ্ধি": 3398,
      "▁আপনাকে": 3399,
      "▁ব্যাংকের": 3400,
      "কেলে": 3401,
      "▁নির্বাচিত": 3402,
      "▁পূর্ণ": 3403,
      "-১": 3404,
      "▁মাথা": 3405,
      "্যান্স": 3406,
      "ার্ট": 3407,
      "▁ভূমিকা": 3408,
      "▁স্টে": 3409,
      "▁শি": 3410,
      "মধ্যে": 3411,
      "▁পরামর্শ": 3412,
      "▁কান": 3413,
      "▁বিক্ষোভ": 3414,
      "),": 3415,
      "্ষিক": 3416,
      "ুরের": 3417,
      "▁স্বপ্ন": 3418,
      "▁অঞ্চ": 3419,
      "বৃ": 3420,
      "▁বিজ্ঞপ্ত": 3421,
      "হাট": 3422,
      "▁বুঝতে": 3423,
      "চাল": 3424,
      "▁সুবিধা": 3425,
      "▁অনুমতি": 3426,
      "▁বিদ্যুৎ": 3427,
      "▁রাখার": 3428,
      "াত্ম": 3429,
      "িকেল": 3430,
      "▁রোড": 3431,
      "বাধ": 3432,
      "▁আলাদা": 3433,
      "’র": 3434,
      "▁ফুটবল": 3435,
      "▁পর্যায়ে": 3436,
      "এই": 3437,
      "▁মুক্তিযো": 3438,
      "▁এমনকি": 3439,
      "▁–": 3440,
      "লিক": 3441,
      "রির": 3442,
      "▁২০১৮": 3443,
      "▁গভীর": 3444,
      "োঁজ": 3445,
      "▁অগ্র": 3446,
      "▁হঠাৎ": 3447,
      "▁বেলা": 3448,
      "▁শিক্ষার্থী": 3449,
      "▁পণ্য": 3450,
      "বিদ": 3451,
      "▁সীমান্ত": 3452,
      "্রেড": 3453,
      "▁L": 3454,
      "▁অবশ্যই": 3455,
      "▁ওঠে": 3456,
      "▁বাধ্য": 3457,
      "▁পরীক্ষার": 3458,
      "এল": 3459,
      "▁১৮": 3460,
      "চ্ছিল": 3461,
      "ফর": 3462,
      "ew": 3463,
      "▁দুঃ": 3464,
      "▁কাউন্স": 3465,
      "নীতির": 3466,
      "▁নীতি": 3467,
      "াসহ": 3468,
      "▁মুদ্র": 3469,
      "ওয়ে": 3470,
      "াতায়": 3471,
      "▁মিথ": 3472,
      "▁চলতি": 3473,
      "শী": 3474,
      "▁the": 3475,
      "▁সংস্থ": 3476,
      "াইট": 3477,
      "▁অস্ব": 3478,
      "্রিক": 3479,
      "▁সমাবেশ": 3480,
      "জু": 3481,
      "তী": 3482,
      "▁ব্যবসায়ী": 3483,
      "শিয়ার": 3484,
      "▁আসার": 3485,
      "▁অন্তত": 3486,
      "▁ফি": 3487,
      "▁ঘটনাস্থ": 3488,
      "▁কৃষি": 3489,
      "▁রিপোর্ট": 3490,
      "▁নাট": 3491,
      "▁কেবল": 3492,
      "▁বাজে": 3493,
      "▁পৌঁছ": 3494,
      "পাড়া": 3495,
      "▁যায়।": 3496,
      "▁শহীদ": 3497,
      "▁পোশ": 3498,
      "▁অধিনায়ক": 3499,
      "▁রেক": 3500,
      "▁পরিষদ": 3501,
      "▁খারাপ": 3502,
      "▁চাইলে": 3503,
      "ভিস": 3504,
      "▁আসছে": 3505,
      "▁নেওয়ার": 3506,
      "▁পরিণ": 3507,
      "▁বিষয়ক": 3508,
      "▁যাত্র": 3509,
      "▁রস": 3510,
      "▁এভাবে": 3511,
      "য়দ": 3512,
      "▁আও": 3513,
      "▁ইনি": 3514,
      "▁নেতৃত্বে": 3515,
      "ফার": 3516,
      "▁প্রিন": 3517,
      "ur": 3518,
      "▁জড়িত": 3519,
      "▁চাষ": 3520,
      "ুরা": 3521,
      "▁আগুন": 3522,
      "▁জার্ম": 3523,
      "▁সম্মেলনে": 3524,
      "বিষ্য": 3525,
      "▁ইত্যাদি": 3526,
      "ঞ্জে": 3527,
      "▁হেল": 3528,
      "▁যায়,": 3529,
      "▁দায়ের": 3530,
      "▁রাস্তা": 3531,
      "পরি": 3532,
      "▁টায়": 3533,
      "কারে": 3534,
      "▁হচ্ছে।\n": 3535,
      "দিনের": 3536,
      "▁কিল": 3537,
      "▁৩০": 3538,
      "▁দিলেন": 3539,
      "▁তাক": 3540,
      "▁আক্রম": 3541,
      "▁জনকে": 3542,
      "▁প্রিয়": 3543,
      "▁সমাল": 3544,
      "পথ": 3545,
      "ent": 3546,
      "▁জেনার": 3547,
      "▁কঠিন": 3548,
      "গো": 3549,
      "▁নিম": 3550,
      "▁হত": 3551,
      "দিষ্ট": 3552,
      "▁মধ্যেই": 3553,
      "সভ": 3554,
      "▁ভবিষ্য": 3555,
      "▁ভারপ্রাপ্ত": 3556,
      "ন্টি": 3557,
      "নগর": 3558,
      "▁খেলে": 3559,
      "▁দলে": 3560,
      "▁রয়েছেন": 3561,
      "▁F": 3562,
      "▁অ্যাড": 3563,
      "▁,": 3564,
      "▁পরিচিত": 3565,
      "▁নিশ্চ": 3566,
      "▁G": 3567,
      "▁অংশগ্রহণ": 3568,
      "▁কাশ": 3569,
      "▁স্বীকার": 3570,
      "▁১৩": 3571,
      "ুনিক": 3572,
      "▁h": 3573,
      "ষ্ঠান": 3574,
      "▁অনেকে": 3575,
      "চ্ছি": 3576,
      "▁বরং": 3577,
      "  ": 3578,
      "▁নয়।\n": 3579,
      "▁পৌঁছে": 3580,
      "াকর্ম": 3581,
      "▁কলেজের": 3582,
      "▁মুজিব": 3583,
      "▁মাঠ": 3584,
      "াসরি": 3585,
      "গঞ্জের": 3586,
      "▁ভাষা": 3587,
      "▁মিয়ান": 3588,
      "▁মেনে": 3589,
      "▁বিপর": 3590,
      "▁চী": 3591,
      "িক্যাল": 3592,
      "মু": 3593,
      "▁থাকায়": 3594,
      "▁সেটি": 3595,
      "▁আকাশ": 3596,
      "বারের": 3597,
      "lo": 3598,
      "▁অত্য": 3599,
      "দেশের": 3600,
      "▁প্রধানমন্ত্রীর": 3601,
      "▁বৃষ্টি": 3602,
      "▁১৬": 3603,
      "াদেশ": 3604,
      "▁কেটে": 3605,
      "ৃঙ্খ": 3606,
      "▁আগ্রহ": 3607,
      "▁কমিশনার": 3608,
      "বিত্র": 3609,
      "▁বৈঠক": 3610,
      "▁অন্যদিকে": 3611,
      "▁ইয়": 3612,
      "▁কোথাও": 3613,
      "▁পেরে": 3614,
      "▁মেডিকেল": 3615,
      "▁নির্যাত": 3616,
      "▁প্রশাসন": 3617,
      "বাল": 3618,
      "▁মহানগর": 3619,
      "▁কিছুই": 3620,
      "▁মুসল": 3621,
      "কারীদের": 3622,
      "▁পদ্ধতি": 3623,
      "বিশ": 3624,
      "▁সন্ধ": 3625,
      "ি।\n": 3626,
      "▁ভালোবাস": 3627,
      "সময়": 3628,
      "ক্ষিত": 3629,
      "▁আহ্বান": 3630,
      "▁চোখে": 3631,
      "▁আনা": 3632,
      "িক্স": 3633,
      "ভোগ": 3634,
      "▁ধ্ব": 3635,
      "▁মোস্ত": 3636,
      "▁সুন": 3637,
      "▁তৃণমূল": 3638,
      "করণ": 3639,
      "সান": 3640,
      "াদশ": 3641,
      "▁বাঁচ": 3642,
      "▁প্রমুখ": 3643,
      "▁যাই": 3644,
      "▁উদ্বোধন": 3645,
      "▁আর্থিক": 3646,
      "জন্য": 3647,
      "ূলক": 3648,
      "প্লে": 3649,
      "▁শুভ": 3650,
      "▁সঠিক": 3651,
      "▁জিয়ার": 3652,
      "চেতন": 3653,
      "▁সমস্য": 3654,
      "▁বেসরকারি": 3655,
      "▁অভিজ্ঞ": 3656,
      "▁কবি": 3657,
      "▁রাহ": 3658,
      "▁কলকাতা": 3659,
      "▁দ্য": 3660,
      "▁এন্ড": 3661,
      "ত্বে": 3662,
      "▁গ্রুপ": 3663,
      "▁মুহূর্ত": 3664,
      "▁চ্যাম্প": 3665,
      "▁লোকজন": 3666,
      "▁মেয়ের": 3667,
      "▁ব্যবসা": 3668,
      "▁বাহিনী": 3669,
      "▁কিছুটা": 3670,
      "▁এদের": 3671,
      "▁ভিন্ন": 3672,
      "▁ত্র": 3673,
      "▁খরচ": 3674,
      "ককে": 3675,
      "▁পারে।\n": 3676,
      "াবি": 3677,
      "ইট": 3678,
      "▁বাহিনীর": 3679,
      "▁সমালোচ": 3680,
      "উন্ড": 3681,
      "্প্র": 3682,
      "▁বিশাল": 3683,
      "▁একেবার": 3684,
      "মিটার": 3685,
      "▁কোথায়": 3686,
      "▁সমাধান": 3687,
      "▁খুলে": 3688,
      "▁মতে": 3689,
      "-র": 3690,
      "▁নুর": 3691,
      "ফ্র": 3692,
      "▁বৈঠকে": 3693,
      "▁সোহ": 3694,
      "▁সন্দে": 3695,
      "▁বেরিয়ে": 3696,
      "জনক": 3697,
      "ী,": 3698,
      "▁O": 3699,
      "▁সংঘর্ষ": 3700,
      "▁দুর্ব": 3701,
      "▁মিনিট": 3702,
      "রাহ": 3703,
      "▁খুঁজে": 3704,
      "োনাল": 3705,
      "▁মাদ্র": 3706,
      "▁সরব": 3707,
      "▁কাট": 3708,
      "নিয়া": 3709,
      "▁লিমিটেড": 3710,
      "বন্দ": 3711,
      "▁সৈয়দ": 3712,
      "▁মৃত্যুর": 3713,
      "▁আচ": 3714,
      "▁মডেল": 3715,
      "▁অবৈ": 3716,
      "▁থাকলেও": 3717,
      "▁যুক্তরাষ্ট্রের": 3718,
      "▁কবির": 3719,
      "▁নী": 3720,
      "▁ফু": 3721,
      "st": 3722,
      "ও।\n": 3723,
      "▁প্রশ্নের": 3724,
      "▁আর্": 3725,
      "তাব": 3726,
      "▁বিধান": 3727,
      "▁হতো": 3728,
      "▁২০০": 3729,
      "ুকু": 3730,
      "টর": 3731,
      "▁চাঁদ": 3732,
      "▁প্রস্তুতি": 3733,
      "▁এড": 3734,
      "▁জন্যে": 3735,
      "▁বিয়ের": 3736,
      "▁করব": 3737,
      "▁কষ্ট": 3738,
      "▁কেমন": 3739,
      "▁পড়েছে": 3740,
      "িশন": 3741,
      "েনা": 3742,
      "▁কিভাবে": 3743,
      "▁স্বাভাবিক": 3744,
      "▁পাহাড়": 3745,
      "▁শহরে": 3746,
      "▁জমি": 3747,
      "▁প্লা": 3748,
      "▁বেল": 3749,
      "▁সরাসরি": 3750,
      "▁অল": 3751,
      "▁অর্জন": 3752,
      "▁কখনও": 3753,
      "্যাপী": 3754,
      "▁প্রয়োজনীয়": 3755,
      "শ্বর": 3756,
      "ুল্লাহ": 3757,
      "▁সৃ": 3758,
      "▁আক্রান্ত": 3759,
      "নো": 3760,
      "▁আপডেট:": 3761,
      "▁একমাত্র": 3762,
      "▁ছাত্রী": 3763,
      "নির্": 3764,
      "ণ্": 3765,
      "▁নাস": 3766,
      "▁করেই": 3767,
      "▁অবৈধ": 3768,
      "▁ঢাকায়": 3769,
      "ামার": 3770,
      "▁অর": 3771,
      "ইউ": 3772,
      "ালেন": 3773,
      "▁কয়েকজন": 3774,
      "et": 3775,
      "▁কারাগ": 3776,
      "▁বীর": 3777,
      "▁জেনারেল": 3778,
      "▁আপনাদের": 3779,
      "▁লাগে": 3780,
      "▁রেকর্ড": 3781,
      "▁দিলে": 3782,
      "▁চন্দ্র": 3783,
      "▁নিয়েছে": 3784,
      "▁লেন": 3785,
      "▁জাল": 3786,
      "▁মাও": 3787,
      "শো": 3788,
      "▁উদ্যোগে": 3789,
      "▁সত্যি": 3790,
      "্যাগ": 3791,
      "▁অত্যন্ত": 3792,
      "▁n": 3793,
      "▁ঘুরে": 3794,
      "ফের": 3795,
      "▁রাজ্যের": 3796,
      "▁কীভাবে": 3797,
      "▁ওয়ান": 3798,
      "সির": 3799,
      "▁হৃ": 3800,
      "▁দেবে": 3801,
      "▁এমপি": 3802,
      "▁হাব": 3803,
      "▁পবিত্র": 3804,
      "▁ওসি": 3805,
      "▁হয়েছে,": 3806,
      "▁করল": 3807,
      "▁আনু": 3808,
      "▁বিবে": 3809,
      "ম্": 3810,
      "▁কিনা": 3811,
      "▁সংক": 3812,
      "্যাশনাল": 3813,
      "▁পোশাক": 3814,
      "বাসী": 3815,
      "▁এইচ": 3816,
      "ঘাট": 3817,
      "▁চক্র": 3818,
      "▁রি": 3819,
      "▁২৫": 3820,
      "▁খাদ্য": 3821,
      "▁চূ": 3822,
      "▁কাঠ": 3823,
      "▁শক্তি": 3824,
      "▁সাংবাদিকদের": 3825,
      "▁ক্যাম": 3826,
      "▁কাগ": 3827,
      "▁সিনি": 3828,
      "ন্ব": 3829,
      "▁কংগ্রেস": 3830,
      "বাজ": 3831,
      "▁...\n": 3832,
      "▁অঙ্গ": 3833,
      "▁অ্য": 3834,
      "▁জগ": 3835,
      "...": 3836,
      "▁ব্যক্তিগত": 3837,
      "▁অধ্য": 3838,
      "▁সাহিত্য": 3839,
      "▁হাদ": 3840,
      "▁দিচ্ছে": 3841,
      "▁নেতাকর্ম": 3842,
      "▁জীবনে": 3843,
      "▁আইস": 3844,
      "▁পরবর্তী": 3845,
      "▁বিকেলে": 3846,
      "▁মিনিটে": 3847,
      "▁রিপোর্টার": 3848,
      "গাঁও": 3849,
      "▁দৈনিক": 3850,
      "▁কোম্পানির": 3851,
      "লেট": 3852,
      "▁বোর্ড": 3853,
      "▁পরিশ": 3854,
      "ro": 3855,
      "▁সেখান": 3856,
      "▁মায়ের": 3857,
      "হ্ন": 3858,
      "▁ইন্টারনে": 3859,
      "খ্যাত": 3860,
      "শু": 3861,
      "▁স্বাধীনতা": 3862,
      "▁ভর": 3863,
      "▁জেনে": 3864,
      "বেল": 3865,
      "▁সার্ভিস": 3866,
      "মানের": 3867,
      "ড়ান্ত": 3868,
      "▁ভিত্তিতে": 3869,
      "▁মুখ্যমন্ত্রী": 3870,
      "▁কর্মী": 3871,
      "▁ইংল্যান্ড": 3872,
      "▁ঋণ": 3873,
      "▁নেই।": 3874,
      "ূহ": 3875,
      "▁ঝুঁ": 3876,
      "▁তাম": 3877,
      "িতায়": 3878,
      "▁জাতির": 3879,
      "্লাম": 3880,
      "ায়ন": 3881,
      "▁সংগঠনের": 3882,
      "▁চাহ": 3883,
      "▁দোকান": 3884,
      "▁সিনিয়র": 3885,
      "▁এদিন": 3886,
      "▁দেখিয়ে": 3887,
      "▁হত্যার": 3888,
      "্ডার": 3889,
      "ri": 3890,
      "▁১৭": 3891,
      "▁সভাপতিত্বে": 3892,
      "▁ছাড়াও": 3893,
      "▁W": 3894,
      "ামে": 3895,
      "্বল": 3896,
      "ch": 3897,
      "▁সতর্ক": 3898,
      "▁গতি": 3899,
      "▁রাজশাহী": 3900,
      "▁সন্ত্রাস": 3901,
      "▁চাম": 3902,
      "ায়ার": 3903,
      "ৌশল": 3904,
      "▁মানুষকে": 3905,
      "▁সাক্ষাৎ": 3906,
      "ডিও": 3907,
      "▁ফো": 3908,
      "▁গৌ": 3909,
      "▁জাপ": 3910,
      "▁ভব": 3911,
      "▁রক্ষা": 3912,
      "▁হাইক": 3913,
      "▁পছন্দ": 3914,
      "▁সুপ্র": 3915,
      "কাব": 3916,
      "▁৷": 3917,
      "▁g": 3918,
      "▁অসম": 3919,
      "▁বিদ্যালয়": 3920,
      "ছিল।\n": 3921,
      "▁নিচে": 3922,
      "▁মূলত": 3923,
      "▁দেশটির": 3924,
      "▁সেল": 3925,
      "▁নিকট": 3926,
      "▁রম": 3927,
      "▁তৎ": 3928,
      "শ্ব": 3929,
      "▁যুগ্ম": 3930,
      "▁দাবিতে": 3931,
      "স্থান": 3932,
      "▁লক্ষ্যে": 3933,
      "▁ব্যর্থ": 3934,
      "▁ছবিতে": 3935,
      "▁ডাক্ত": 3936,
      "সংঘ": 3937,
      "ত্তর": 3938,
      "ভাষ": 3939,
      "▁বয়সী": 3940,
      "োয়াড়": 3941,
      "▁নিয়ম": 3942,
      "▁পর্ব": 3943,
      "ঠিত": 3944,
      "রিদ": 3945,
      "ঢাকা": 3946,
      "ঙ্গের": 3947,
      "▁ইসলামী": 3948,
      "▁আদায়": 3949,
      "▁গুণ": 3950,
      "▁করায়": 3951,
      "▁বাচ্চ": 3952,
      "▁অধিদ": 3953,
      "্দ্রে": 3954,
      "িষ্ট": 3955,
      "▁সেনাবাহ": 3956,
      "াউন": 3957,
      "▁কার্যকর": 3958,
      "▁নারায়ণ": 3959,
      "▁কম্পিউ": 3960,
      "ল্লা": 3961,
      "▁ইউরোপ": 3962,
      "▁উভ": 3963,
      "▁জিতে": 3964,
      "▁আঁ": 3965,
      "▁খেয়ে": 3966,
      "ভো": 3967,
      "▁কৰ": 3968,
      "হিত": 3969,
      "▁হস্ত": 3970,
      "▁নজর": 3971,
      "▁আসন": 3972,
      "▁পাবেন": 3973,
      "▁গার": 3974,
      "▁ছি": 3975,
      "▁রোহিঙ্গা": 3976,
      "▁ফলা": 3977,
      "▁আসেন": 3978,
      "▁রেজ": 3979,
      "▁সমন্ব": 3980,
      "স্ম": 3981,
      "ন্দ্ব": 3982,
      "▁বিজ্ঞাপন": 3983,
      "ালো": 3984,
      "ডেম": 3985,
      "▁বাধা": 3986,
      "▁দৃষ্টি": 3987,
      "▁হাসপাতাল": 3988,
      "▁মো.": 3989,
      "▁দাস": 3990,
      "▁মুর": 3991,
      "▁ ": 3992,
      "ir": 3993,
      "▁বস্ত": 3994,
      "সভার": 3995,
      "▁তত": 3996,
      "▁২৪": 3997,
      "▁মির": 3998,
      "োমিটার": 3999,
      "▁চম": 4000,
      "▁মাম": 4001,
      "▁সম্পন্ন": 4002,
      "ার্জ": 4003,
      "েধ": 4004,
      "▁প্রজ": 4005,
      "▁খেলার": 4006,
      "▁খেলোয়াড়": 4007,
      "ষ্টির": 4008,
      "▁বিস্": 4009,
      "ামত": 4010,
      "��": 4011,
      "▁বজ": 4012,
      "▁মন্ত্র": 4013,
      "▁আল্লাহর": 4014,
      "খানা": 4015,
      "▁ইসলামের": 4016,
      "কুম": 4017,
      "▁অভিব": 4018,
      "য়নে": 4019,
      "▁আসনে": 4020,
      "▁কর্মসূচি": 4021,
      "▁ভিত": 4022,
      "াচার": 4023,
      "ীগঞ্জ": 4024,
      "▁বিতরণ": 4025,
      "সঙ্গে": 4026,
      "▁আছে।\n": 4027,
      "াদ্দ": 4028,
      "el": 4029,
      "▁কালো": 4030,
      "▁স্পষ্ট": 4031,
      "▁আমির": 4032,
      "▁রাস্তায়": 4033,
      "▁যেকোন": 4034,
      "▁মাত": 4035,
      "▁পৃথিবীর": 4036,
      "▁গবেষণা": 4037,
      "▁চুক্তি": 4038,
      "▁করতেন": 4039,
      "▁কার্ড": 4040,
      "▁মনো": 4041,
      "লিশ": 4042,
      "▁হো": 4043,
      "▁কুমিল": 4044,
      "▁ভারতে": 4045,
      "▁ধান": 4046,
      "▁জনগণের": 4047,
      "▁কাউন্সিল": 4048,
      "▁শীত": 4049,
      "▁২০১৭": 4050,
      "▁দুর্নীতি": 4051,
      "▁গ্রাহ": 4052,
      "▁প্রসঙ্গে": 4053,
      "▁কবিতা": 4054,
      "োড": 4055,
      "▁নদীর": 4056,
      "▁অগ": 4057,
      "▁স্থায়ী": 4058,
      "▁বুদ্ধ": 4059,
      "▁করেছে।\n": 4060,
      "উদ্দিন": 4061,
      "ব্যাপী": 4062,
      "▁সার্ব": 4063,
      "▁আয়োজিত": 4064,
      "▁অর্থনৈতিক": 4065,
      "▁চূড়ান্ত": 4066,
      "▁ভবন": 4067,
      "▁কমান": 4068,
      "▁করেছেন।\n": 4069,
      "▁মন্ত্রণালয়ের": 4070,
      "খুল": 4071,
      "▁আইনের": 4072,
      "▁দূরে": 4073,
      "▁অব্যা": 4074,
      "▁ঘণ্টা": 4075,
      "▁রহমানের": 4076,
      "▁ইঞ্জ": 4077,
      "▁বলেই": 4078,
      "▁শান্তি": 4079,
      "রান": 4080,
      "▁সম্ভাবনা": 4081,
      "▁কথায়": 4082,
      "▁সংস্থার": 4083,
      "▁বিস্ফোর": 4084,
      "▁প্রশিক্ষণ": 4085,
      "ধর": 4086,
      "্যাণ": 4087,
      "▁জামায়": 4088,
      "চু": 4089,
      "ংক": 4090,
      "▁নির্ম": 4091,
      "▁গড়": 4092,
      "▁নজরুল": 4093,
      "▁জানি": 4094,
      "▁অনুরোধ": 4095,
      "ul": 4096,
      "▁সুই": 4097,
      "াপুর": 4098,
      "▁ছিলো": 4099,
      "▁সিরাজ": 4100,
      "▁তবু": 4101,
      "▁পেয়েছে": 4102,
      "কেও": 4103,
      "▁স্মৃতি": 4104,
      "▁প্রাক": 4105,
      "▁শাম": 4106,
      "▁প্রতিক": 4107,
      "কে।\n": 4108,
      "▁পদক্ষেপ": 4109,
      "ছড়ি": 4110,
      "উর": 4111,
      "▁আদালতের": 4112,
      "▁বাংলার": 4113,
      "▁জিনিস": 4114,
      "▁করিম": 4115,
      "▁বলেও": 4116,
      "▁এসময়": 4117,
      "▁খুন": 4118,
      "ৃঙ্খলা": 4119,
      "▁উদ্দেশ্য": 4120,
      "▁হাজির": 4121,
      "া।\n": 4122,
      "▁বায়": 4123,
      "▁দৌ": 4124,
      "▁রক্ষ": 4125,
      "▁উঠেছে": 4126,
      "▁একাদশ": 4127,
      "▁তু": 4128,
      "াড়ি": 4129,
      "▁তেল": 4130,
      "▁মিস": 4131,
      "য়ান": 4132,
      "ধীন": 4133,
      "▁কুর": 4134,
      "▁গোটা": 4135,
      "▁চাকরি": 4136,
      "▁সমর্থন": 4137,
      "▁বেশির": 4138,
      "▁ঈদ": 4139,
      "▁বলিউ": 4140,
      "ফোন": 4141,
      "এসসি": 4142,
      "▁হাম": 4143,
      "▁মিলে": 4144,
      "▁হৃদ": 4145,
      "▁রঙ": 4146,
      "রাট": 4147,
      "চর": 4148,
      "্যালে": 4149,
      "্টর": 4150,
      "ক্ষম": 4151,
      "ানার": 4152,
      "▁দুপুর": 4153,
      "▁ছাত্রলীগের": 4154,
      "▁গ্যাস": 4155,
      "▁ডিজিট": 4156,
      "▁তথা": 4157,
      "▁আসামি": 4158,
      "এসই": 4159,
      "▁স্টাফ": 4160,
      "▁আধুনিক": 4161,
      "▁মমতা": 4162,
      "▁ট্রেন": 4163,
      "▁ভেতরে": 4164,
      "য়াজ": 4165,
      "▁উপরে": 4166,
      "▁উৎসব": 4167,
      "▁পার্টি": 4168,
      "▁চ্যাম্পিয়ন": 4169,
      "▁আমিন": 4170,
      "▁বুক": 4171,
      "ৃতির": 4172,
      "▁ভেবে": 4173,
      "▁আদেশ": 4174,
      "্সি": 4175,
      "▁সচেতন": 4176,
      "▁বিচারপতি": 4177,
      "▁জাতিসংঘ": 4178,
      "াগত": 4179,
      "▁সম্মেলন": 4180,
      "▁সেক": 4181,
      "▁লু": 4182,
      "▁অভিযুক্ত": 4183,
      "▁একদিন": 4184,
      "িনে": 4185,
      "য়াদ": 4186,
      "▁প্রণ": 4187,
      "▁অসুস্থ": 4188,
      "▁আক্ত": 4189,
      "▁গিয়েছে": 4190,
      "▁নাটক": 4191,
      "▁ব্যস্ত": 4192,
      "▁ভাষায়": 4193,
      "োধী": 4194,
      "▁পালিয়ে": 4195,
      "ভূত": 4196,
      "াপ্র": 4197,
      "▁আসবে": 4198,
      "▁সহায়তা": 4199,
      "▁২১": 4200,
      "▁স্থাপ": 4201,
      "▁পুত্র": 4202,
      "্যান্ট": 4203,
      "▁কিলোমিটার": 4204,
      "▁বললেন,": 4205,
      "▁পড়ুন": 4206,
      "▁পেয়েছেন": 4207,
      "▁J": 4208,
      "▁নির্ভর": 4209,
      "▁কাজী": 4210,
      "ন্দের": 4211,
      "▁সেক্স": 4212,
      "▁অভিনেত": 4213,
      "োষ": 4214,
      "▁প্রতিষ্ঠানের": 4215,
      "াল্লাহ": 4216,
      "▁হুমকি": 4217,
      "ুয়ে": 4218,
      "▁গেম": 4219,
      "▁বোধ": 4220,
      "▁প্রান্ত": 4221,
      "শের": 4222,
      "বন্ধন": 4223,
      "▁শ্রীল": 4224,
      "▁তারকা": 4225,
      "▁পরিণত": 4226,
      "▁উৎপাদন": 4227,
      "উন্ট": 4228,
      "▁দেখার": 4229,
      "▁ঠাক": 4230,
      "িদ্ধ": 4231,
      "ংলা": 4232,
      "▁ঘরের": 4233,
      "▁গরম": 4234,
      "বিধান": 4235,
      "▁সাম্প্র": 4236,
      "▁ম্যাচের": 4237,
      "▁হ্যা": 4238,
      "▁হামলায়": 4239,
      "রং": 4240,
      "▁মুক্তিযুদ্ধ": 4241,
      "▁বিদ্যালয়ের": 4242,
      "▁শিশুদের": 4243,
      "▁পুঁ": 4244,
      "▁হাসপাতালের": 4245,
      "▁ইক": 4246,
      "▁পার্টির": 4247,
      "▁যায়নি": 4248,
      "▁প্রত্যেক": 4249,
      "হর": 4250,
      "▁ব্লক": 4251,
      "▁সাফল": 4252,
      "▁রানে": 4253,
      "িদা": 4254,
      "ews": 4255,
      "▁ফুটব": 4256,
      "▁জরুরি": 4257,
      "un": 4258,
      "▁নারীর": 4259,
      "▁মন্ত্রণালয়": 4260,
      "▁হিসাব": 4261,
      "▁ধর্মীয়": 4262,
      "▁বদলে": 4263,
      "ুধ": 4264,
      "▁সন": 4265,
      "▁নীল": 4266,
      "▁সহজে": 4267,
      "▁উপজেলায়": 4268,
      "▁এজ": 4269,
      "টুকু": 4270,
      "▁বাব": 4271,
      "ia": 4272,
      "কেটে": 4273,
      "▁উন্নত": 4274,
      "▁।\n": 4275,
      "মাধ্যম": 4276,
      "▁শর্ত": 4277,
      "▁বাতিল": 4278,
      "▁নির্বাচনী": 4279,
      "কিছু": 4280,
      "▁নিষিদ্ধ": 4281,
      "▁যাদের": 4282,
      "▁আরব": 4283,
      "▁ক্রিকেটার": 4284,
      "▁ব্রিটিশ": 4285,
      "▁আইনজীবী": 4286,
      "ঢ়": 4287,
      "ুলত": 4288,
      "▁তালিকায়": 4289,
      "▁নবী": 4290,
      "▁অ্যাস": 4291,
      "▁দখল": 4292,
      "▁(১": 4293,
      "▁পরিবহন": 4294,
      "জ্ঞান": 4295,
      "▁দাঁড়": 4296,
      "ণ্ডের": 4297,
      "▁K": 4298,
      "▁রানের": 4299,
      "▁পার্ব": 4300,
      "েদ": 4301,
      "▁ব্যয়": 4302,
      "▁বাসায়": 4303,
      "▁মুসলমান": 4304,
      "▁করিয়া": 4305,
      "▁গর": 4306,
      "▁ক্লাব": 4307,
      "▁ট্রাক": 4308,
      "▁গেছেন": 4309,
      "▁খেলতে": 4310,
      "▁এফ": 4311,
      "▁ম্যানে": 4312,
      "▁বিজ্ঞপ্তি": 4313,
      "▁ছিল।\n": 4314,
      "▁and": 4315,
      "▁ডিগ": 4316,
      "ময়মনসিংহ": 4317,
      "বীর": 4318,
      "▁ব্যক্তির": 4319,
      "লানা": 4320,
      "▁প্রদ": 4321,
      "টিভ": 4322,
      "▁মোটর": 4323,
      "▁সিনেমা": 4324,
      "▁অপেক্ষা": 4325,
      "▁বসু": 4326,
      "▁ন্য": 4327,
      "▁নন": 4328,
      "▁বাগ": 4329,
      "id": 4330,
      "ut": 4331,
      "▁প্রতিরোধ": 4332,
      "▁গোয়ে": 4333,
      "▁ফরম": 4334,
      "রা।\n": 4335,
      "▁খুলনা": 4336,
      "▁তাদেরকে": 4337,
      "▁ফ্ল": 4338,
      "ড়ের": 4339,
      "▁মহাসচিব": 4340,
      "▁সুখ": 4341,
      "কেরা": 4342,
      "▁খোলা": 4343,
      "▁ইউপি": 4344,
      "▁নিখ": 4345,
      "▁সহযোগিতা": 4346,
      "▁অন্ধ": 4347,
      "▁তীব": 4348,
      "▁টিক": 4349,
      "▁মের": 4350,
      "▁লেগে": 4351,
      "▁প্রাপ্ত": 4352,
      "▁গাজীপুর": 4353,
      "▁খাত": 4354,
      "িরের": 4355,
      "▁ক্রী": 4356,
      "েফ": 4357,
      "ল।\n": 4358,
      "▁স্ন": 4359,
      "▁প্রক্রিয়া": 4360,
      "▁এছাড়াও": 4361,
      "▁সাপ": 4362,
      "▁বসবাস": 4363,
      "▁লেনদ": 4364,
      "▁মিছিল": 4365,
      "▁স্বার্থ": 4366,
      "▁রশ": 4367,
      "▁আনোয়ার": 4368,
      "য়েন্টি": 4369,
      "▁কর্মসূচ": 4370,
      "বাড়ী": 4371,
      "▁পাবে": 4372,
      "জান": 4373,
      "ভাই": 4374,
      "▁মানসিক": 4375,
      "▁তাপ": 4376,
      "ঘা": 4377,
      "▁প্রকল্পের": 4378,
      "▁চিঠি": 4379,
      "▁ইংরেজি": 4380,
      "▁বাঙালি": 4381,
      "▁ধীরে": 4382,
      "▁নেতারা": 4383,
      "▁চিহ্ন": 4384,
      "▁নিষেধ": 4385,
      "▁পেল": 4386,
      "▁ক্ষমতায়": 4387,
      "▁তোমাদের": 4388,
      "▁মুক্তিযোদ্ধা": 4389,
      "▁ক্যার": 4390,
      "▁কৃত": 4391,
      "▁বগু": 4392,
      "ওয়ান": 4393,
      "▁পরের": 4394,
      "▁নিশ্চয়": 4395,
      "▁গোয়েন্দ": 4396,
      "▁জ্ঞান": 4397,
      "▁সন্ধ্যায়": 4398,
      "▁উন্ম": 4399,
      "ফ্রন্ট": 4400,
      "▁যেসব": 4401,
      "সদ": 4402,
      "▁কম্পিউটার": 4403,
      "জনকে": 4404,
      "োমুখ": 4405,
      "▁চতু": 4406,
      "▁ভাড়া": 4407,
      "▁কাউকে": 4408,
      "ান্ত্রিক": 4409,
      "▁নগ": 4410,
      "▁জারি": 4411,
      "ার্স": 4412,
      "▁মদ": 4413,
      "াহ্ম": 4414,
      "▁গেছে।\n": 4415,
      "▁অবস্থিত": 4416,
      "▁তীব্র": 4417,
      "▁জিম": 4418,
      "▁রবী": 4419,
      "▁বিশেষজ্ঞ": 4420,
      "▁চির": 4421,
      "▁প্রস্তুত": 4422,
      "▁অভিনেত্রী": 4423,
      "▁পেছনে": 4424,
      "▁এয়ার": 4425,
      "▁দিয়েছিলেন": 4426,
      "▁হাসিনার": 4427,
      "▁বিদেশি": 4428,
      "▁২০১৬": 4429,
      "▁পের": 4430,
      "▁আখ": 4431,
      "▁মুখোমুখ": 4432,
      "খুলনা": 4433,
      "▁শিক্ষাব": 4434,
      "▁বন্দ্য": 4435,
      "▁সন্দেহ": 4436,
      "▁তোলা": 4437,
      "মূলক": 4438,
      "ই।\n": 4439,
      "▁হজ": 4440,
      "▁নিয়েছেন": 4441,
      "ড্ড": 4442,
      "▁আজকের": 4443,
      "▁শাস": 4444,
      "রংপুর": 4445,
      "ag": 4446,
      "▁২২": 4447,
      "▁বোন": 4448,
      "▁তুলনায়": 4449,
      "▁নারীদের": 4450,
      "▁ওবায়": 4451,
      "▁স্থাপন": 4452,
      "▁চু": 4453,
      "▁দশমিক": 4454,
      "▁সান": 4455,
      "লাপ": 4456,
      "▁সমিতির": 4457,
      "▁ব্যবস্থাপনা": 4458,
      "ধারিত": 4459,
      "টিউ": 4460,
      "▁জবাব": 4461,
      "▁পাঠিয়ে": 4462,
      "▁উল্লেখ্য": 4463,
      "▁সামরিক": 4464,
      "▁স্মার্ট": 4465,
      "▁মির্জ": 4466,
      "▁কার্যালয়ে": 4467,
      "▁আলাই": 4468,
      "▁কাহ": 4469,
      "▁রাজধানী": 4470,
      "▁ব্যবহ": 4471,
      "ডিয়াম": 4472,
      "▁নির্দিষ্ট": 4473,
      "▁অল্প": 4474,
      "▁অন্তর্": 4475,
      "▁অ্যাকা": 4476,
      "▁ওভ": 4477,
      "▁ফরিদ": 4478,
      "▁পত": 4479,
      "▁বিভাগ\n": 4480,
      "▁ভাস": 4481,
      "▁সংশোধ": 4482,
      "▁খেতে": 4483,
      "গতি": 4484,
      "▁U": 4485,
      "ুমাত্র": 4486,
      "বুব": 4487,
      "বণ": 4488,
      "▁সংস্কার": 4489,
      "ধানে": 4490,
      "▁ওষ": 4491,
      "▁বাম": 4492,
      "▁পড়ার": 4493,
      "▁রবীন্দ্র": 4494,
      "প্রে": 4495,
      "▁সম্পদ": 4496,
      "রাজশাহী": 4497,
      "ay": 4498,
      "▁প্রয": 4499,
      "▁আক্তার": 4500,
      "▁নির্ধারণ": 4501,
      "▁আন্দোলনের": 4502,
      "▁অ্যাল": 4503,
      "▁বিতর্ক": 4504,
      "হেত": 4505,
      "▁সাদ": 4506,
      "▁পারে।": 4507,
      "▁কারো": 4508,
      "▁ফ্রান্স": 4509,
      "▁মুখোমুখি": 4510,
      "▁কাটা": 4511,
      "▁হবেন": 4512,
      "▁যাঁ": 4513,
      "▁অভিনে": 4514,
      "দুর": 4515,
      "্টে": 4516,
      "▁সিক": 4517,
      "ুকুর": 4518,
      "▁আশ্রয়": 4519,
      "▁দুঃখ": 4520,
      "▁প্যা": 4521,
      "ৎকার": 4522,
      "▁অজ": 4523,
      "▁বলেছিলেন": 4524,
      "▁অব্যাহত": 4525,
      "▁বোল": 4526,
      "▁ঐতিহ": 4527,
      "▁খাল": 4528,
      "▁প্ৰ": 4529,
      "▁ধারা": 4530,
      "▁পাথ": 4531,
      "▁একাডেম": 4532,
      "▁গোপন": 4533,
      "▁লেখক": 4534,
      "▁বিবাহ": 4535,
      "▁জেল": 4536,
      "গুলির": 4537,
      "▁যোগ্য": 4538,
      "▁বাবার": 4539,
      "▁সিম": 4540,
      "▁উপায়": 4541,
      "▁ধারাবাহ": 4542,
      "▁ওয়েস্ট": 4543,
      "▁দৃশ্য": 4544,
      "▁রয়েছে।": 4545,
      "▁ওবায়দুল": 4546,
      "ামেন্ট": 4547,
      "▁মিলিয়ে": 4548,
      "▁ইমাম": 4549,
      "াউন্ড": 4550,
      "▁সাংস্ক": 4551,
      "াক্তন": 4552,
      "▁স্কুলে": 4553,
      "▁বিস্তারিত\n": 4554,
      "▁চরিত্র": 4555,
      "▁চরম": 4556,
      "ঠনিক": 4557,
      "াজন": 4558,
      "▁গাই": 4559,
      "গীর": 4560,
      "▁অধিদপ্ত": 4561,
      "▁উত": 4562,
      "▁দেবেন": 4563,
      "হল": 4564,
      "▁হায়": 4565,
      "▁মূ": 4566,
      "▁সাকিব": 4567,
      "▁বিভাগচ": 4568,
      "▁যাচ্ছেন": 4569,
      "▁বিভাগঢাকা": 4570,
      "▁বিভাগরাজশাহী": 4571,
      "▁বিভাগরংপুর": 4572,
      "▁বিভাগময়মনসিংহ": 4573,
      "▁শিখ": 4574,
      "▁স্কুলের": 4575,
      "▁আইনে": 4576,
      "▁কেন্দ্রে": 4577,
      "▁ঢুকে": 4578,
      "▁স্মরণ": 4579,
      "▁মিথ্যা": 4580,
      "িংস": 4581,
      "বদ্ধ": 4582,
      "▁যিনি": 4583,
      "্যানেল": 4584,
      "▁রাই": 4585,
      "▁সদস্যরা": 4586,
      "দেহ": 4587,
      "▁নয়।": 4588,
      "বাড়ি": 4589,
      "▁ওষুধ": 4590,
      "▁বোমা": 4591,
      "▁ঘিরে": 4592,
      "-ক": 4593,
      "▁খুশি": 4594,
      "▁ডিজিটাল": 4595,
      "▁কর্মচার": 4596,
      "▁টানা": 4597,
      "গণ": 4598,
      "▁মহাসড়": 4599,
      "বরিশাল": 4600,
      ":১": 4601,
      "শিল্প": 4602,
      "▁ঘটেছে": 4603,
      "▁দান": 4604,
      "িশালী": 4605,
      "▁মাহবুব": 4606,
      "▁হোট": 4607,
      "▁উপদে": 4608,
      "▁অর্থনীতি": 4609,
      "▁আফ্র": 4610,
      "▁আক্রমণ": 4611,
      "▁বিভাগখুলনা": 4612,
      "▁ট্রেড": 4613,
      "▁আওতায়": 4614,
      "যাত্র": 4615,
      "▁পিতা": 4616,
      "▁২৩": 4617,
      "তাস": 4618,
      "▁প্যার": 4619,
      "▁প্রাচ": 4620,
      "▁(২": 4621,
      "▁সরে": 4622,
      "▁সফর": 4623,
      "▁দেড়": 4624,
      "▁ফিরিয়ে": 4625,
      "▁অধিক": 4626,
      "শিক্ষ": 4627,
      "গুলোকে": 4628,
      "▁পাখ": 4629,
      "ক্রিয়": 4630,
      "ড়ির": 4631,
      "েন,": 4632,
      "▁অনুমোদন": 4633,
      "াচার্য": 4634,
      "▁নষ্ট": 4635,
      "▁জনগণ": 4636,
      "▁গোলাম": 4637,
      "েসে": 4638,
      "▁সবুজ": 4639,
      "▁পরীক্ষায়": 4640,
      "im": 4641,
      "▁ডায়": 4642,
      "▁সাংস্কৃতিক": 4643,
      "▁জাগ": 4644,
      "্লাল্লাহ": 4645,
      "▁এরই": 4646,
      "পণ": 4647,
      "▁খাওয়া": 4648,
      "▁পুজ": 4649,
      "▁সেনা": 4650,
      "▁ভোগ": 4651,
      "▁ওয়েবসাইট": 4652,
      "নাম": 4653,
      "্ণ": 4654,
      "▁ব্রাজ": 4655,
      "▁বিকেল": 4656,
      "▁কমিউ": 4657,
      "▁দেখুন": 4658,
      "▁রিজ": 4659,
      "▁পারেনি": 4660,
      "▁মেঘ": 4661,
      "ধিক": 4662,
      "▁দীর্ঘদিন": 4663,
      "▁চলাচল": 4664,
      "▁চিকিৎসক": 4665,
      "▁কমিশনের": 4666,
      "রাফ": 4667,
      "▁প্রাক্তন": 4668,
      "▁প্রে": 4669,
      "▁নাগ": 4670,
      "▁হাও": 4671,
      "▁স্টেডিয়াম": 4672,
      "▁বাস্তব": 4673,
      "▁সিবি": 4674,
      "▁দুর": 4675,
      "ভেল": 4676,
      "▁বরিশাল": 4677,
      "▁ধ্বংস": 4678,
      "-প": 4679,
      "লোড": 4680,
      "ুরুর": 4681,
      "▁ধাক": 4682,
      "▁কার্যালয়": 4683,
      "▁উন্নয়নের": 4684,
      "▁শক্তিশালী": 4685,
      "▁যথে": 4686,
      "▁সর্বশেষ": 4687,
      ":০": 4688,
      "▁নামাজ": 4689,
      "▁করলেও": 4690,
      "-ম": 4691,
      "▁জামাল": 4692,
      "ী।\n": 4693,
      "মাকে": 4694,
      "▁পরিষ্কার": 4695,
      "▁বলার": 4696,
      "▁অভ্য": 4697,
      "তেও": 4698,
      "ob": 4699,
      "▁চীন": 4700,
      "▁দারুণ": 4701,
      "িদুল": 4702,
      "▁পূরণ": 4703,
      "িগ": 4704,
      "-আ": 4705,
      "▁প্রশাসনের": 4706,
      "▁বাংলাদেশি": 4707,
      "▁গেছে,": 4708,
      "▁বিশিষ্ট": 4709,
      "▁ভক্ত": 4710,
      "▁কণ্": 4711,
      "▁প্রচুর": 4712,
      "▁চুল": 4713,
      "▁আলোক": 4714,
      "▁করেছে।": 4715,
      "ছা": 4716,
      "▁রাষ্ট্রপতি": 4717,
      "্লাল্লাহু": 4718,
      "টাকে": 4719,
      "▁ব্রাহ্ম": 4720,
      "▁বী": 4721,
      "▁অ্যান": 4722,
      "রাই": 4723,
      "িমা": 4724,
      "▁ধন্য": 4725,
      "িত্তিক": 4726,
      "ra": 4727,
      "▁নিরাপদ": 4728,
      "সাধারণ": 4729,
      "▁সাংগ": 4730,
      "▁ফলাফল": 4731,
      "▁আঘাত": 4732,
      "▁সংস্কৃতি": 4733,
      "ভাবেই": 4734,
      "▁জন্যই": 4735,
      "বাগ": 4736,
      "▁লন্ড": 4737,
      "▁বিজেপির": 4738,
      "হেতু": 4739,
      "▁আটকে": 4740,
      "▁কারাগারে": 4741,
      "▁সবাইকে": 4742,
      "াত্ত": 4743,
      "▁সন্ধ্যা": 4744,
      "িয়াস": 4745,
      "শাল": 4746,
      "▁প্রাই": 4747,
      ":৩": 4748,
      "▁সরবরাহ": 4749,
      "োক্ত": 4750,
      "▁বিভাগবরিশাল": 4751,
      "▁মাধ্যমিক": 4752,
      "…\n": 4753,
      "▁ডাক্তার": 4754,
      "িসের": 4755,
      "▁শোনা": 4756,
      "▁শাস্তি": 4757,
      "কারীরা": 4758,
      "▁সমস্যার": 4759,
      "▁নিঃ": 4760,
      "পোর": 4761,
      "▁চেয়ারপার": 4762,
      "▁জবা": 4763,
      "▁পররাষ্ট্র": 4764,
      "▁নান": 4765,
      "▁সোন": 4766,
      "▁ইলে": 4767,
      "▁শুধ": 4768,
      "▁উদ্দেশ্যে": 4769,
      "াদু": 4770,
      "▁মিন": 4771,
      "সম্যান": 4772,
      "▁অর্জ": 4773,
      "ck": 4774,
      "হান": 4775,
      "যন্ত্র": 4776,
      "▁প্রসঙ্গ": 4777,
      ":৫": 4778,
      "▁মাওলানা": 4779,
      "হন": 4780,
      "▁সাংগঠনিক": 4781,
      "▁কাগজ": 4782,
      "▁কারণেই": 4783,
      "▁জ্বাল": 4784,
      "সাম": 4785,
      ":৪": 4786,
      "ফিকুল": 4787,
      "▁নির্ধারিত": 4788,
      "▁ইন্টারনেট": 4789,
      "▁খ্রি": 4790,
      "▁জড়িয়ে": 4791,
      "▁সেতু": 4792,
      "▁স্ল": 4793,
      "▁শারীর": 4794,
      "▁যৌথ": 4795,
      "ান্তি": 4796,
      "ঞ্জন": 4797,
      "শোর": 4798,
      "▁বাড়িয়ে": 4799,
      "▁স্বীক": 4800,
      "▁2": 4801,
      "▁প্রকৃত": 4802,
      "▁বাসিন্দা": 4803,
      "কির": 4804,
      "▁এটাই": 4805,
      "ীম": 4806,
      "▁আদর্শ": 4807,
      "▁বিরাট": 4808,
      "ট্রগ্রাম": 4809,
      "▁সাদা": 4810,
      "জাত": 4811,
      "ঙ্কার": 4812,
      "▁জয়ের": 4813,
      "ঘর": 4814,
      "▁গোলে": 4815,
      "▁অধিকা": 4816,
      "▁l": 4817,
      "▁পুনর": 4818,
      "▁বলল,": 4819,
      "সংখ্য": 4820,
      "▁কের": 4821,
      "▁এবারের": 4822,
      "▁নেতাদের": 4823,
      "▁বিপুল": 4824,
      "জল": 4825,
      "▁রাখে": 4826,
      "কী": 4827,
      "▁নেট": 4828,
      "▁গোপাল": 4829,
      "ঙ্গা": 4830,
      "▁নিয়েই": 4831,
      "থার": 4832,
      "বাদী": 4833,
      "▁ইউন": 4834,
      "▁আশঙ্কা": 4835,
      "▁কুমিল্লা": 4836,
      "▁টাঙ্গ": 4837,
      "সম্প": 4838,
      "▁গবেষণ": 4839,
      "▁অধিকাংশ": 4840,
      "▁আনতে": 4841,
      "▁আপনারা": 4842,
      "▁একেবারে": 4843,
      "▁সংগ্রাম": 4844,
      "ন্দন": 4845,
      "▁আছে।": 4846,
      "▁সমাজের": 4847,
      "স্টি": 4848,
      "▁দুধ": 4849,
      "▁দিল্ল": 4850,
      "▁অনুষ্ঠানের": 4851,
      "োতে": 4852,
      "ow": 4853,
      "▁হু": 4854,
      "ig": 4855,
      "্নি": 4856,
      "▁প্রভ": 4857,
      "▁নুরুল": 4858,
      "▁পার্বত্য": 4859,
      "▁চলেছে": 4860,
      "হু": 4861,
      "▁সদস্যদের": 4862,
      "াব্দ": 4863,
      "▁জবাবে": 4864,
      "▁শাহজ": 4865,
      "রূপ": 4866,
      "ূন্য": 4867,
      "▁৫০": 4868,
      "▁গর্": 4869,
      "▁দিনাজ": 4870,
      "▁যুবক": 4871,
      "▁সেত": 4872,
      "▁মুহাম্মদ": 4873,
      "টিক": 4874,
      "▁স্বাক্ষ": 4875,
      "▁অ্যাকাউন্ট": 4876,
      "কত": 4877,
      "▁আজিজ": 4878,
      "▁সুস্থ": 4879,
      "▁জুড়ে": 4880,
      "▁জেলায়": 4881,
      "▁আচরণ": 4882,
      "▁সরিয়ে": 4883,
      "িলার": 4884,
      "▁সুলত": 4885,
      "▁জানে": 4886,
      "▁মেজ": 4887,
      "▁বার্ষিক": 4888,
      "▁উভয়": 4889,
      "▁যথেষ্ট": 4890,
      "▁এরা": 4891,
      "▁বাস্তবায়ন": 4892,
      "▁চালানো": 4893,
      "▁লিখেছেন": 4894,
      "▁মিজ": 4895,
      "▁মোদী": 4896,
      "▁জানেন": 4897,
      "▁ভোটার": 4898,
      "▁যাক": 4899,
      "ov": 4900,
      "▁খোঁজ": 4901,
      "▁আফগান": 4902,
      "দ্দিক": 4903,
      "▁অস্থ": 4904,
      "▁সক্ষম": 4905,
      "▁to": 4906,
      "বেগ": 4907,
      "শেষে": 4908,
      "▁দেখি": 4909,
      "▁প্রতিশ": 4910,
      "▁বিশ্ববিদ্যালয়ে": 4911,
      "▁মানিক": 4912,
      "▁মেশ": 4913,
      "পক্ষে": 4914,
      "▁মেয়েদের": 4915,
      "▁কারও": 4916,
      "মতো": 4917,
      "ফিল": 4918,
      "▁ধারণ": 4919,
      "▁তোমরা": 4920,
      "▁চ্যালে": 4921,
      "দম": 4922,
      "▁কাশ্ম": 4923,
      "ান্য": 4924,
      "▁আস্ত": 4925,
      "▁প্রের": 4926,
      "us": 4927,
      ")\n": 4928,
      "▁করিয়ে": 4929,
      "▁শ্যাম": 4930,
      "▁লাইন": 4931,
      "মারের": 4932,
      "▁দুর্ঘটনা": 4933,
      "▁গণতন্ত্র": 4934,
      "▁বলেছে": 4935,
      "▁তুলতে": 4936,
      "▁করে,": 4937,
      "গ্রস্ত": 4938,
      "▁টেলিভ": 4939,
      "▁শিশুর": 4940,
      "▁ফারুক": 4941,
      "াত্মক": 4942,
      "▁পরবর্ত": 4943,
      "তাল": 4944,
      "▁চলবে": 4945,
      "▁ঐতিহ্য": 4946,
      "▁দপ্ত": 4947,
      "ation": 4948,
      "▁গুরুতর": 4949,
      "াজ্ঞ": 4950,
      "▁ত্ব": 4951,
      "ামীর": 4952,
      "▁প্রতিবেদক": 4953,
      "▁হয়নি।\n": 4954,
      "পাড়": 4955,
      "▁যন্ত্র": 4956,
      "▁দোষ": 4957,
      "▁নিজেই": 4958,
      "▁আবেদ": 4959,
      "▁ভ্রম": 4960,
      "▁আউট": 4961,
      "▁কল্যাণ": 4962,
      "▁ফখ": 4963,
      "▁বেতন": 4964,
      "▁উপদেষ্টা": 4965,
      "কুল": 4966,
      "▁ছেলের": 4967,
      "▁প্রয়োগ": 4968,
      "▁শ্রেণির": 4969,
      "▁সুপ্রিম": 4970,
      "▁বিকল্প": 4971,
      "▁যথা": 4972,
      "▁পদ্": 4973,
      "▁প্রযোজ": 4974,
      "▁আসনের": 4975,
      "▁নির্যাতন": 4976,
      "▁ব্যবহারের": 4977,
      "▁শোক": 4978,
      "সাল": 4979,
      "▁ক্রে": 4980,
      "▁আইপি": 4981,
      "শনের": 4982,
      "ধন": 4983,
      "▁পরিচালিত": 4984,
      "▁সাংসদ": 4985,
      "▁বিপ্ল": 4986,
      "▁দুটো": 4987,
      "সুম": 4988,
      "▁উৎসাহ": 4989,
      "▁মামুন": 4990,
      "▁পয়": 4991,
      "িলি": 4992,
      "▁হবে,": 4993,
      "▁কাব": 4994,
      "ছিলেন।\n": 4995,
      "র্নামেন্ট": 4996,
      "▁বৌ": 4997,
      "▁সমান": 4998,
      "হাজ": 4999,
      "▁ধন্যবাদ": 5000,
      "▁থাকে।\n": 5001,
      "▁গিয়েছিল": 5002,
      "▁স্বরাষ্ট্র": 5003,
      "লভ": 5004,
      "▁তুর": 5005,
      "▁হোসেনের": 5006,
      "▁গায়ে": 5007,
      "▁হোম": 5008,
      "▁ডিম": 5009,
      "▁বলছে": 5010,
      "▁ওদের": 5011,
      "ভোকেট": 5012,
      "▁ব্যাটসম্যান": 5013,
      "▁চ্যালেঞ্জ": 5014,
      "▁শিক্ষার্থীরা": 5015,
      "▁শুধুমাত্র": 5016,
      "বাংলা": 5017,
      "োগ্রাম": 5018,
      "▁আনুষ্ঠান": 5019,
      "▁কঠোর": 5020,
      "▁চতুর্থ": 5021,
      "▁ওরা": 5022,
      "শান": 5023,
      "দাতা": 5024,
      "ীনে": 5025,
      "-ব": 5026,
      "▁লুক": 5027,
      "▁টুর্নামেন্ট": 5028,
      "▁পশ্চিমব": 5029,
      "▁রিয়": 5030,
      "▁বিকা": 5031,
      "▁র‌": 5032,
      "▁দীপ": 5033,
      "স্তি": 5034,
      "ail": 5035,
      "▁সত্ত": 5036,
      "▁প্রশাসক": 5037,
      "▁ঢুক": 5038,
      "▁টিম": 5039,
      "▁তেম": 5040,
      "▁যেকোনো": 5041,
      "▁কেজি": 5042,
      "▁অভিজ্ঞতা": 5043,
      "▁মুম্ব": 5044,
      "▁হচ্ছে।": 5045,
      "ায়া": 5046,
      "টকম": 5047,
      "▁করেন,": 5048,
      "▁বিবৃতি": 5049,
      "▁মুহূর্তে": 5050,
      "দীপ": 5051,
      "▁আরেকটি": 5052,
      "▁ভূমিক": 5053,
      "এইচ": 5054,
      "▁আবারও": 5055,
      "▁মালয়ে": 5056,
      "▁চিন্ত": 5057,
      "angla": 5058,
      "ছি।": 5059,
      "▁ভোর": 5060,
      "▁ময়মনসিংহ": 5061,
      "নির": 5062,
      "▁রেজা": 5063,
      "▁মাটি": 5064,
      "িংয়ের": 5065,
      "▁ক্যাল": 5066,
      "▁ব্রাহ্মণ": 5067,
      "▁য়": 5068,
      "▁জিত": 5069,
      "্লার": 5070,
      "▁ভূমি": 5071,
      "▁আবি": 5072,
      "▁পুরনো": 5073,
      "টিল": 5074,
      "▁বেড়েছে": 5075,
      "▁নিম্ন": 5076,
      "▁সামান্য": 5077,
      "াদান": 5078,
      "▁ফোর": 5079,
      "▁ঘুর": 5080,
      ")।\n": 5081,
      "▁বোর্ডের": 5082,
      "হত্যা": 5083,
      "▁করো": 5084,
      "▁থাকবেন": 5085,
      "▁করপোর": 5086,
      "▁বুল": 5087,
      "▁লিখিত": 5088,
      "▁চট্টগ্রামের": 5089,
      "াদে": 5090,
      "▁পারেননি": 5091,
      "▁গোয়েন্দা": 5092,
      "▁ফ্লা": 5093,
      "▁প্রতিবেদনে": 5094,
      "▁ভাইর": 5095,
      "রিয়ার": 5096,
      "চালক": 5097,
      "iv": 5098,
      "▁সমালোচনা": 5099,
      "্‌": 5100,
      "▁আকর্ষণ": 5101,
      "▁টিভি": 5102,
      "▁1": 5103,
      "▁কেন্দ্রের": 5104,
      "শ্যাল": 5105,
      "দূ": 5106,
      "▁ঠাকুর": 5107,
      "▁লক্ষ্ম": 5108,
      "▁চারটি": 5109,
      "▁মনের": 5110,
      "▁উজ্জ": 5111,
      "▁রংপুর": 5112,
      "▁শরীরের": 5113,
      "▁বাছ": 5114,
      "▁তৈরির": 5115,
      "▁বেঁচে": 5116,
      "▁মর্য": 5117,
      "রো": 5118,
      "▁ইব": 5119,
      "▁সাধারণত": 5120,
      "আন": 5121,
      "▁ভোটের": 5122,
      "▁ছিলেন।\n": 5123,
      "▁সঞ্চ": 5124,
      "▁শরীরে": 5125,
      ":২": 5126,
      "▁পূর্বে": 5127,
      "▁২০১৯,": 5128,
      "▁তেমনি": 5129,
      "▁খব": 5130,
      "▁অর্ধ": 5131,
      "▁ধরণের": 5132,
      "▁নেয়ার": 5133,
      "▁মেট্র": 5134,
      "বাই": 5135,
      "▁অঞ্চল": 5136,
      "▁সাইট": 5137,
      "তাই": 5138,
      "▁নরেন্দ্র": 5139,
      "▁কলকাতার": 5140,
      "▁বিভাগে": 5141,
      "দলের": 5142,
      "▁ঈদের": 5143,
      "▁টাইম": 5144,
      "▁হচ্ছেন": 5145,
      "▁ডাউন": 5146,
      "▁সপ্তাহে": 5147,
      "াবর": 5148,
      "▁ইমে": 5149,
      "▁পড়েন": 5150,
      "▁যেহেতু": 5151,
      "▁কর্মীদের": 5152,
      "▁সোশ্যাল": 5153,
      "দেশে": 5154,
      "▁[": 5155,
      "গঞ্জে": 5156,
      "িসহ": 5157,
      "▁কিছুদিন": 5158,
      "গিত": 5159,
      "চক": 5160,
      "▁পুলিশ।\n": 5161,
      "▁যাত্রা": 5162,
      "তান্ত্রিক": 5163,
      "▁ভেতর": 5164,
      "থির": 5165,
      "▁মুশ": 5166,
      "▁ইচ্ছা": 5167,
      "▁অধি": 5168,
      "▁সোনার": 5169,
      "▁বিভাগচট্রগ্রাম": 5170,
      "▁ঐক্যফ্রন্ট": 5171,
      "▁জাহাঙ্গ": 5172,
      "▁চালায়": 5173,
      "▁রাজা": 5174,
      "▁কংগ্রে": 5175,
      "▁সড়কের": 5176,
      "▁গেছে।": 5177,
      "▁সমুদ্র": 5178,
      "ৃদ্ধ": 5179,
      "▁রাজ্যে": 5180,
      "▁শারীরিক": 5181,
      "▁দুজন": 5182,
      "▁বান্দ": 5183,
      "▁অভাব": 5184,
      "▁স্ট্র": 5185,
      "▁তত্ত্ব": 5186,
      "▁ওপরে": 5187,
      "▁জানুয়ারী": 5188,
      "▁আর্জ": 5189,
      "▁সকলের": 5190,
      "▁কর্প": 5191,
      "ত,": 5192,
      "▁সিদ্দিক": 5193,
      "প্লেক্স": 5194,
      "▁উক্ত": 5195,
      "▁পার্থ": 5196,
      "▁গ্রহ": 5197,
      "র্ধ্ব": 5198,
      "▁বারবার": 5199,
      "▁অনেকের": 5200,
      "▁\"": 5201,
      "বাদের": 5202,
      "▁ধাপ": 5203,
      "▁বয়সে": 5204,
      "▁জের": 5205,
      "জির": 5206,
      "▁উঠতে": 5207,
      "নেই": 5208,
      "▁ক্রীড়া": 5209,
      "াবল": 5210,
      "▁জামিন": 5211,
      "▁জার্মান": 5212,
      "▁চোখের": 5213,
      "▁ফেরত": 5214,
      "▁মেহের": 5215,
      "▁শিল্পী": 5216,
      "▁মুদ্রিত": 5217,
      "োসিয়ে": 5218,
      "সঙ্গ": 5219,
      "▁ফ্যাক্স": 5220,
      "▁মেলা": 5221,
      "▁নূর": 5222,
      "▁ম্যান": 5223,
      "▁নামক": 5224,
      "ফত": 5225,
      "▁অট": 5226,
      "▁মেয়াদ": 5227,
      "▁ধারাবাহিক": 5228,
      "ফো": 5229,
      "▁ইত্ত": 5230,
      "▁হইয়া": 5231,
      "▁পরও": 5232,
      "▁গুগ": 5233,
      "▁দেহ": 5234,
      "ণী": 5235,
      "▁সিস্ট": 5236,
      "▁ব্যাটিং": 5237,
      "ভিত্তিক": 5238,
      "▁নৌকা": 5239,
      "▁ধর্ষণের": 5240,
      "▁দের": 5241,
      "▁টান": 5242,
      "▁অভিনেতা": 5243,
      "▁বিশ্লে": 5244,
      "গ্রহ": 5245,
      "▁বিনা": 5246,
      "▁ঘোষণ": 5247,
      "▁অধীনে": 5248,
      "▁শাখা": 5249,
      "াজিত": 5250,
      "▁শাখার": 5251,
      "▁মর্": 5252,
      "▁বন্দ্যোপাধ্যায়": 5253,
      "▁শাসন": 5254,
      "▁ত্যাগ": 5255,
      "▁পাশের": 5256,
      "▁সংরক্ষণ": 5257,
      "▁সেদিন": 5258,
      "▁টাকায়": 5259,
      "এক্স": 5260,
      "os": 5261,
      "▁থাকে।": 5262,
      "▁বোঝা": 5263,
      "▁করেছেন।": 5264,
      "▁জরিম": 5265,
      "▁বেন": 5266,
      "▁পরই": 5267,
      "▁মাসুদ": 5268,
      "▁কর্মকর্তারা": 5269,
      "তিক্রম": 5270,
      "▁পাতা": 5271,
      "▁স্থগিত": 5272,
      "ha": 5273,
      "▁কানা": 5274,
      "um": 5275,
      "বিরোধী": 5276,
      "▁ড.": 5277,
      "▁ষড়": 5278,
      "▁স্বর্ণ": 5279,
      "ন,": 5280,
      "িনিয়ার": 5281,
      "▁মঞ্জ": 5282,
      "▁জনসং": 5283,
      "▁বলি": 5284,
      "▁খানের": 5285,
      "▁অঞ্চলের": 5286,
      "েফাক": 5287,
      "▁ভাইস": 5288,
      "বুকে": 5289,
      "▁কৃষক": 5290,
      "▁জাহাঙ্গীর": 5291,
      "▁জানিয়েছেন,": 5292,
      "▁v": 5293,
      "▁খাতে": 5294,
      "▁মেরে": 5295,
      "▁ইকবাল": 5296,
      "▁বুঝে": 5297,
      "▁এগুলো": 5298,
      "▁যেভাবে": 5299,
      "▁তাজ": 5300,
      "▁সংরক্ষিত": 5301,
      "▁প্লে": 5302,
      "▁পৃষ্ঠ": 5303,
      "▁নক": 5304,
      "▁পরেই": 5305,
      "▁আলোকে": 5306,
      "্রেট": 5307,
      "▁এশিয়া": 5308,
      "▁সার্ক": 5309,
      "▁গবেষ": 5310,
      "▁সিল": 5311,
      "▁কিনে": 5312,
      "তুল": 5313,
      "▁মাশ": 5314,
      "▁ঘাট": 5315,
      "▁নিষেধাজ্ঞ": 5316,
      "▁ডু": 5317,
      "হারা": 5318,
      "▁ইত্তেফাক": 5319,
      "▁ক্ষে": 5320,
      "▁গুজ": 5321,
      "▁পার্ক": 5322,
      "▁প্রফ": 5323,
      "▁হতা": 5324,
      "▁দেন।\n": 5325,
      "▁তারেক": 5326,
      "য়ত": 5327,
      "▁মনির": 5328,
      "▁২৬": 5329,
      "াতক": 5330,
      "▁মির্জা": 5331,
      "▁আছে,": 5332,
      "▁হাবিব": 5333,
      "▁কয়": 5334,
      "▁রুম": 5335,
      "▁স্বাক্ষর": 5336,
      "মুক্ত": 5337,
      "nd": 5338,
      "শিয়ান": 5339,
      "▁ফখরুল": 5340,
      "ইয়া": 5341,
      "বাড়িয়া": 5342,
      "▁পিছিয়ে": 5343,
      "▁যথ": 5344,
      "▁এরকম": 5345,
      "ঞ্চে": 5346,
      "-অ": 5347,
      "বাধিকার": 5348,
      "▁সুষ্ঠ": 5349,
      "িস্টার": 5350,
      "▁ডটকম": 5351,
      "▁দ্র": 5352,
      "▁ফস": 5353,
      "▁হয": 5354,
      "▁অফিসে": 5355,
      "▁অপহ": 5356,
      "▁স্বে": 5357,
      "▁২৮": 5358,
      "দর": 5359,
      "▁চাহিদা": 5360,
      "▁আজাদ": 5361,
      "গির": 5362,
      "▁পারলে": 5363,
      "▁মো.\n": 5364,
      "▁তৃণমূ": 5365,
      "▁প্রেক্ষ": 5366,
      "▁ডেকে": 5367,
      "▁গানের": 5368,
      "▁চালক": 5369,
      "▁রাসূল": 5370,
      "িজের": 5371,
      "▁ডিগ্রি": 5372,
      "▁শুরুর": 5373,
      "দ্বন্দ্ব": 5374,
      "য়েড": 5375,
      "▁লাগিয়ে": 5376,
      "▁কন্যা": 5377,
      "▁মাস্টার": 5378,
      "▁প্রোগ্রাম": 5379,
      "▁শরী": 5380,
      "▁উপস্থিতি": 5381,
      "▁গেলেন": 5382,
      "▁পলা": 5383,
      "▁জটিল": 5384,
      "▁চর্": 5385,
      "্টিং": 5386,
      "▁সরকারী": 5387,
      "▁আলমগীর": 5388,
      "ড়ো": 5389,
      "▁যাবে।\n": 5390,
      "হো": 5391,
      "▁সেলিম": 5392,
      "▁কাউন্সিলর": 5393,
      "▁ত্রি": 5394,
      "আপ": 5395,
      "▁মল": 5396,
      "▁অনুসরণ": 5397,
      "▁প্রতিবাদে": 5398,
      "▁ঈশ্বর": 5399,
      "▁ফেন": 5400,
      "▁বাঁধ": 5401,
      "▁শিক্ষার": 5402,
      "▁ভিত্তি": 5403,
      "▁গাঁ": 5404,
      "▁বক্তব্যে": 5405,
      "▁বহি": 5406,
      "▁শত্র": 5407,
      "▁চীনের": 5408,
      "▁ছবিটি": 5409,
      "▁সংযোগ": 5410,
      "▁সংবিধান": 5411,
      "িদার": 5412,
      "্বেও": 5413,
      "▁হোটেল": 5414,
      "▁দোয়া": 5415,
      "▁বিনোদন": 5416,
      "ন্যাস": 5417,
      "▁লেনদেন": 5418,
      "াগড়া": 5419,
      "▁আবহা": 5420,
      "শাদ": 5421,
      "▁আর্জেন্ট": 5422,
      "▁কলেজে": 5423,
      "্রীর": 5424,
      "▁খ্রিষ্ট": 5425,
      "▁ফাইনালে": 5426,
      "োনাল্ড": 5427,
      "’।\n": 5428,
      "ফাজ": 5429,
      "যাপন": 5430,
      "াইজ": 5431,
      "▁প্রাকৃতিক": 5432,
      "▁খাব": 5433,
      "▁সুনাম": 5434,
      "▁টেকনা": 5435,
      "▁আলাইহি": 5436,
      "▁কাঁচ": 5437,
      "▁মাধ্যম": 5438,
      "▁মানবাধিকার": 5439,
      "তরা": 5440,
      "▁ঘটনাটি": 5441,
      "িল্যান্ড": 5442,
      "▁ওয়ানডে": 5443,
      "লাইন": 5444,
      "▁প্রতিষ্ঠা": 5445,
      "▁সিস্টেম": 5446,
      "ছি,": 5447,
      "বাচক": 5448,
      "▁২০১৫": 5449,
      "োনি": 5450,
      "▁রাজি": 5451,
      "▁হার্ড": 5452,
      "ce": 5453,
      "ers": 5454,
      "▁ঘন": 5455,
      "▁দায়ী": 5456,
      "▁দলকে": 5457,
      "▁প্রজন্ম": 5458,
      "ক্লা": 5459,
      "ুরী": 5460,
      "ু,": 5461,
      "▁নয়া": 5462,
      "▁কমপ্লেক্স": 5463,
      "▁মুন্": 5464,
      "▁অধ্যক্ষ": 5465,
      "▁দত্ত": 5466,
      "▁শ্রদ্ধা": 5467,
      "ণ্ডে": 5468,
      "▁ফাউন্ড": 5469,
      "নিষ্ঠ": 5470,
      "▁অঞ্চলে": 5471,
      "সেন্স": 5472,
      "▁ঘটনাস্থলে": 5473,
      "▁বিসি": 5474,
      "▁জানাতে": 5475,
      "▁রাস্তার": 5476,
      "▁পর্": 5477,
      "বেলা": 5478,
      "▁প্রতিক্র": 5479,
      "িদের": 5480,
      "▁২৭": 5481,
      "▁পেলে": 5482,
      "▁ভালবাস": 5483,
      "োগান": 5484,
      "▁নায়": 5485,
      "▁ইনস্টি": 5486,
      "▁অনেকটা": 5487,
      "▁সর্": 5488,
      "▁নোয়া": 5489,
      "▁একসঙ্গে": 5490,
      "সভায়": 5491,
      "ানুর": 5492,
      "▁বঙ্গবন্ধুর": 5493,
      "▁ভয়া": 5494,
      "▁গ্রুপের": 5495,
      "▁গোষ্ঠ": 5496,
      "▁হইতে": 5497,
      "▁গঠিত": 5498,
      "▁বিখ্যাত": 5499,
      "বোধ": 5500,
      "▁ইঞ্জিনিয়ার": 5501,
      "্লো": 5502,
      "▁ইস্যু": 5503,
      "টারি": 5504,
      "▁কারাদ": 5505,
      "▁বেশী": 5506,
      "▁ভুলে": 5507,
      "▁উনি": 5508,
      "▁বক্স": 5509,
      "▁মাইক্র": 5510,
      "▁দুর্বল": 5511,
      "শুর": 5512,
      "▁ওস": 5513,
      "▁মুজিবুর": 5514,
      "▁সাম্প্রতিক": 5515,
      "ে।\n": 5516,
      "▁মোড়": 5517,
      "▁ডাকা": 5518,
      "▁তাও": 5519,
      "▁নির্দেশনা": 5520,
      "ামো": 5521,
      "▁আরিফ": 5522,
      "িকর": 5523,
      "কারের": 5524,
      "মর": 5525,
      "▁গরু": 5526,
      "ঙ্ঘ": 5527,
      "▁ঊ": 5528,
      "▁পত্রিকা": 5529,
      "▁কৌশল": 5530,
      "▁সুদ": 5531,
      "▁অর্থবছ": 5532,
      "চাই": 5533,
      "▁রিম": 5534,
      "▁i": 5535,
      "▁সন্ত্রাসী": 5536,
      ")।": 5537,
      "od": 5538,
      "▁মন্দির": 5539,
      "ালাল": 5540,
      "▁বর্ণনা": 5541,
      "▁হাট": 5542,
      "▁ছাত্রলীগ": 5543,
      "▁প্রতিমন্ত্রী": 5544,
      "▁রহস্য": 5545,
      "▁রোহিঙ্গাদের": 5546,
      "▁সাহেব": 5547,
      "est": 5548,
      "চ্চার": 5549,
      "▁হেরে": 5550,
      "▁পেস": 5551,
      "াবু": 5552,
      "▁জাক": 5553,
      "টস": 5554,
      "ওয়াল": 5555,
      "▁ব্যবহৃত": 5556,
      "▁করছে।\n": 5557,
      "▁সেগুলো": 5558,
      "▁হাতি": 5559,
      "▁করলাম": 5560,
      "▁পানির": 5561,
      "▁হর": 5562,
      "▁চলতে": 5563,
      "গ্ধ": 5564,
      "ber": 5565,
      "▁ইউনিভার": 5566,
      "নিউজ": 5567,
      "ংসা": 5568,
      "াচ": 5569,
      "▁বার্স": 5570,
      "▁ভয়াবহ": 5571,
      "▁তাকিয়ে": 5572,
      "▁শুভে": 5573,
      "ist": 5574,
      "▁সাফল্য": 5575,
      "▁বিদায়": 5576,
      "▁অপেক্ষ": 5577,
      "▁আড়": 5578,
      "▁রীতি": 5579,
      "▁জানায়,": 5580,
      "ীহ": 5581,
      "▁গলা": 5582,
      "▁হযরত": 5583,
      "ঞ্চিত": 5584,
      "▁ইছলামী": 5585,
      "▁সবকিছু": 5586,
      "▁প্রত্যক্ষ": 5587,
      "▁প্রকাশের": 5588,
      "য়ায়": 5589,
      "▁সূর্য": 5590,
      "মাত্রা": 5591,
      "চ্ছিন্ন": 5592,
      "▁পর্যবে": 5593,
      "▁শের": 5594,
      "▁রাশিয়া": 5595,
      "▁অত্যা": 5596,
      "▁ইতো": 5597,
      "▁প্রদর্শ": 5598,
      "ওয়্যার": 5599,
      "ব্ব": 5600,
      "▁পুঁজিব": 5601,
      "▁অসহ": 5602,
      "▁কারা": 5603,
      "▁আবাস": 5604,
      "▁আনার": 5605,
      "বিক": 5606,
      "▁অনুপ্র": 5607,
      "▁নেতৃ": 5608,
      "প্রতি": 5609,
      "▁অসংখ্য": 5610,
      "▁বিশ্বকাপের": 5611,
      "▁সদস্যের": 5612,
      "গরে": 5613,
      "▁অভিভাব": 5614,
      "▁প্রচল": 5615,
      "য়েন": 5616,
      "▁এখান": 5617,
      "▁টুইট": 5618,
      "▁সুষ্ঠু": 5619,
      "▁রান্না": 5620,
      "য়ক": 5621,
      "াহান": 5622,
      "▁জাহাজ": 5623,
      "▁ইনিং": 5624,
      "▁সফরে": 5625,
      "রকম": 5626,
      "কুমার": 5627,
      "▁বেস": 5628,
      "▁রায়ের": 5629,
      "▁খো": 5630,
      "তীয়": 5631,
      "হাসিক": 5632,
      "▁নও": 5633,
      "▁মণ্ড": 5634,
      "শিষ্ট": 5635,
      "▁প্রতিনিধ": 5636,
      "▁হবার": 5637,
      "▁ডান": 5638,
      "শত": 5639,
      "▁বরাদ্দ": 5640,
      "▁বর্": 5641,
      "▁উত্তেজ": 5642,
      "▁প্রতিবেশ": 5643,
      "▁হাফ": 5644,
      "▁ইন্টারন": 5645,
      "▁কর্তৃপক্ষের": 5646,
      "▁টো": 5647,
      "মধ্যেই": 5648,
      "▁হাতের": 5649,
      "▁তিনি।": 5650,
      "কাঠ": 5651,
      "বর্ষ": 5652,
      "পুরি": 5653,
      "াইভ": 5654,
      "▁উপহার": 5655,
      "▁যাবেন": 5656,
      "▁বাণিজ্যিক": 5657,
      "াতন": 5658,
      "জুর": 5659,
      "েও": 5660,
      "▁গাড়ির": 5661,
      "▁প্রবাসী": 5662,
      "ঙ্কর": 5663,
      "▁বেঁধে": 5664,
      "▁জিজ্ঞাস": 5665,
      "▁যশোর": 5666,
      "▁অবশেষে": 5667,
      "▁আসাম": 5668,
      "▁রণ": 5669,
      "ধারন": 5670,
      "রব": 5671,
      "▁কমিউনি": 5672,
      "▁পৃথক": 5673,
      "▁প্রতিপক্ষ": 5674,
      "টিস": 5675,
      "ম্বা": 5676,
      "▁প্রকাশক": 5677,
      "▁পরিদর্শন": 5678,
      "▁চরিত": 5679,
      "▁নোট": 5680,
      "▁রোজ": 5681,
      "▁ষড়যন্ত্র": 5682,
      "▁চিহ্নিত": 5683,
      "▁দাখ": 5684,
      "পোর্ট": 5685,
      "লগ্ন": 5686,
      "-ই": 5687,
      "মাস": 5688,
      "খাল": 5689,
      "▁ইচ্ছে": 5690,
      "▁এক্ষ": 5691,
      "▁ফেরার": 5692,
      "্রুতি": 5693,
      "▁ছিল।": 5694,
      "▁৪০": 5695,
      "▁আলি": 5696,
      "▁প্রেসক্লা": 5697,
      "▁কংগ্রেসের": 5698,
      "োর্টের": 5699,
      "ate": 5700,
      "▁বলল": 5701,
      "বৃন্দ": 5702,
      "▁কণ্ঠ": 5703,
      "▁হান": 5704,
      "▁সম্ব": 5705,
      "াহার": 5706,
      "▁আমেরিকার": 5707,
      "ীণ": 5708,
      "▁সন্তানের": 5709,
      "াইয়া": 5710,
      "▁সেঞ্চ": 5711,
      "▁দিচ্ছেন": 5712,
      "▁ভয়ে": 5713,
      "▁জরিমানা": 5714,
      "ূন": 5715,
      "▁ইতিমধ্যে": 5716,
      "▁সিপি": 5717,
      "▁তোলার": 5718,
      "▁কলা": 5719,
      "▁হাউ": 5720,
      "িলে": 5721,
      "▁শিক্ষাবর্ষ": 5722,
      "▁আসন্ন": 5723,
      "▁আগু": 5724,
      "▁নারায়ণগঞ্জ": 5725,
      "▁পাথর": 5726,
      "▁ক্লিক": 5727,
      "▁নম্ব": 5728,
      "▁’’": 5729,
      "চারের": 5730,
      "▁যু": 5731,
      "▁বাছাই": 5732,
      "োরে": 5733,
      "▁ক্ষতিগ্রস্ত": 5734,
      "▁ইমরান": 5735,
      "▁সম্পাদ": 5736,
      "▁ওভারে": 5737,
      "▁হ্যাঁ": 5738,
      "▁কল্প": 5739,
      "▁আত্মীয়": 5740,
      "েশনে": 5741,
      "পিয়ে": 5742,
      "টাও": 5743,
      "ex": 5744,
      "▁মোস্তফা": 5745,
      "দ্য": 5746,
      "▁পাট": 5747,
      "ওয়ার্ড": 5748,
      "▁দরজা": 5749,
      "▁অভিষ": 5750,
      "▁মোর": 5751,
      "▁রাহুল": 5752,
      "▁স্বীকৃতি": 5753,
      "জুড়ে": 5754,
      "▁এজন্য": 5755,
      "্যাটে": 5756,
      "▁বাক": 5757,
      "▁থাম": 5758,
      "েক্টর": 5759,
      "▁অস্ট্রেলিয়া": 5760,
      "▁রিস": 5761,
      "বর্ধ": 5762,
      "▁সরকারকে": 5763,
      "▁বিজি": 5764,
      "▁সংগীত": 5765,
      "▁ব্যাখ্যা": 5766,
      "▁প্রয়োজ": 5767,
      "ধর্ম": 5768,
      "▁রচনা": 5769,
      "।’\n": 5770,
      "্রিস্ট": 5771,
      "▁সিংহ": 5772,
      "▁অবরোধ": 5773,
      "▁দিয়েছিল": 5774,
      "ন্দকার": 5775,
      "▁অ্যাক": 5776,
      "▁আলোচনায়": 5777,
      "্যো": 5778,
      "▁স্বেচ্ছ": 5779,
      "▁ৰ": 5780,
      "ীবাজার": 5781,
      "▁আমেরিকা": 5782,
      "▁মুক্তির": 5783,
      "▁অবদান": 5784,
      "▁ডাউনলোড": 5785,
      "▁বিদ্র": 5786,
      "▁ঐতিহাসিক": 5787,
      "জাম": 5788,
      "পেক্ষ": 5789,
      "▁আসাদ": 5790,
      "▁থেকেও": 5791,
      "▁প্রতিদ্বন্দ্ব": 5792,
      "▁দম": 5793,
      "াৰ": 5794,
      "▁ফেসবুকে": 5795,
      "▁উড়": 5796,
      "▁আইসিস": 5797,
      "▁ছিন": 5798,
      "▁অস্বীকার": 5799,
      "▁প্রাচীন": 5800,
      "▁হয়েছিল।\n": 5801,
      "ধারা": 5802,
      "াসি": 5803,
      "িজি": 5804,
      "চুর": 5805,
      "▁উদাহ": 5806,
      "▁প্রত্যাহার": 5807,
      "▁প্রতীক": 5808,
      "▁ফেলা": 5809,
      "▁হবি": 5810,
      "▁পানিতে": 5811,
      "▁পেঁ": 5812,
      "▁দেখানো": 5813,
      "▁ধর্মের": 5814,
      "িপূর্ণ": 5815,
      "▁গেলেও": 5816,
      "▁অনুপ": 5817,
      "টেড": 5818,
      "▁বেছে": 5819,
      "ৃত্তি": 5820,
      "▁পরিদর্শ": 5821,
      "▁অবাক": 5822,
      "▁ময়ন": 5823,
      "▁সাঁ": 5824,
      "▁সিঙ্গ": 5825,
      "▁গলায়": 5826,
      "ার্চ": 5827,
      "▁খাঁ": 5828,
      "বছর": 5829,
      "▁লাইসেন্স": 5830,
      "▁ভগ": 5831,
      "-২": 5832,
      "▁জানালেন": 5833,
      "▁প্রতিষ্ঠিত": 5834,
      "িডি": 5835,
      "ছেন।": 5836,
      "▁বাবু": 5837,
      "▁ব্যার": 5838,
      "ানায়": 5839,
      "▁ধরেই": 5840,
      "▁শরণ": 5841,
      "▁আফগানিস্ত": 5842,
      "▁শুটিং": 5843,
      "▁ক্ষুদ্র": 5844,
      "▁তৃণমূলের": 5845,
      "▁অক্ষ": 5846,
      "▁থাকছে": 5847,
      "▁মিটার": 5848,
      "▁ন্যায়": 5849,
      "▁গুলো": 5850,
      "▁দুর্গ": 5851,
      "ুতে": 5852,
      "বাবু": 5853,
      "▁ধাক্কা": 5854,
      "▁আয়োজনে": 5855,
      "ঞ্চলিক": 5856,
      "কালের": 5857,
      "▁কর্মীরা": 5858,
      "নেস": 5859,
      "▁পরিশোধ": 5860,
      "▁তখনই": 5861,
      "▁উপক": 5862,
      "▁উপাদান": 5863,
      "▁মসজিদে": 5864,
      "হাদ": 5865,
      "▁V": 5866,
      "ষা": 5867,
      "▁সমিতি": 5868,
      "পদ": 5869,
      "চাপ": 5870,
      "▁শিরোন": 5871,
      "▁পারিবার": 5872,
      "▁বিস্ম": 5873,
      "▁হত্যাকা": 5874,
      "ক্ষেত্রে": 5875,
      "▁রবীন্দ্রনাথ": 5876,
      "▁আলীর": 5877,
      "▁মাটিতে": 5878,
      "▁সিরিজের": 5879,
      "▁ক্ষোভ": 5880,
      "▁হিম": 5881,
      "▁বিশ্বকাপে": 5882,
      "▁ইন্দ": 5883,
      "▁দুর্দ": 5884,
      "▁নগরীর": 5885,
      "▁লিমিটেডের": 5886,
      "▁ধন": 5887,
      "▁বন্দুক": 5888,
      "▁অনুসারে": 5889,
      "টি।\n": 5890,
      "তরাং": 5891,
      "ীর্ণ": 5892,
      "েলে": 5893,
      "াকের": 5894,
      "▁করত": 5895,
      "▁বিভাগীয়": 5896,
      "▁উইকেটে": 5897,
      "▁মাদার": 5898,
      "▁কৌ": 5899,
      "▁ইয়াবা": 5900,
      "▁অপার": 5901,
      "▁খ্রিস্ট": 5902,
      "og": 5903,
      "রক্ষ": 5904,
      "ত্যাগ": 5905,
      "▁মতামত": 5906,
      "যথ": 5907,
      "▁শুভেচ্ছা": 5908,
      "▁ইস্ট": 5909,
      "▁চেক": 5910,
      "▁চিকিৎসার": 5911,
      "▁স্টেশন": 5912,
      "▁দাবি,": 5913,
      "▁দুদ": 5914,
      "▁কতটা": 5915,
      "▁মতি": 5916,
      "শৃঙ্খলা": 5917,
      "▁‘‌": 5918,
      "▁বাড়তি": 5919,
      "▁দা": 5920,
      "▁জনাব": 5921,
      "▁সক্রিয়": 5922,
      "সুল": 5923,
      "▁এলাকাব": 5924,
      "▁উপন্যাস": 5925,
      "▁(৩": 5926,
      "তনে": 5927,
      "▁শুরুতে": 5928,
      "▁২৯": 5929,
      "দানি": 5930,
      "▁...": 5931,
      "▁প্রতিবন্ধ": 5932,
      "বন্দর": 5933,
      "▁আঞ্চলিক": 5934,
      "▁বিশ্বে": 5935,
      "▁তাহার": 5936,
      "▁ইউনিভার্সি": 5937,
      "▁কৃষ্ণ": 5938,
      "▁সংখ্য": 5939,
      "ফস": 5940,
      "▁সংকট": 5941,
      "▁আইএস": 5942,
      "▁কর্ণ": 5943,
      "▁সমৃদ্ধ": 5944,
      "▁জহ": 5945,
      "▁সৌন্দর": 5946,
      "▁তোমাকে": 5947,
      "▁রপ্ত": 5948,
      "চন্দ্র": 5949,
      "▁ডিএসই": 5950,
      "্নার": 5951,
      "টেই": 5952,
      "▁তাড়": 5953,
      "▁মেডিক্যাল": 5954,
      "▁বেআই": 5955,
      "▁প্রবল": 5956,
      "▁ক্লাবের": 5957,
      "পাশে": 5958,
      "▁সুতরাং": 5959,
      "্সের": 5960,
      "▁পাপ": 5961,
      "▁যুক্তরাজ": 5962,
      "খ্যান": 5963,
      "পন্থ": 5964,
      "খার": 5965,
      "▁প্রতিযোগিতা": 5966,
      "▁রিক": 5967,
      "▁ইনিংস": 5968,
      "▁ম্যাজ": 5969,
      "▁সঙ্গীত": 5970,
      "ব্": 5971,
      "▁স্বাধীনতার": 5972,
      "ধাব": 5973,
      "▁অপারে": 5974,
      "▁সার্বিক": 5975,
      "▁রাতের": 5976,
      "▁লিগ": 5977,
      "▁পুরোপুরি": 5978,
      "েলো": 5979,
      "▁বিদ্রোহ": 5980,
      "ক্ক": 5981,
      "▁রশিদ": 5982,
      "▁আপাত": 5983,
      "োর্ড": 5984,
      "▁অনলাইনে": 5985,
      "▁টেনে": 5986,
      "▁চ্যানেল": 5987,
      "মুল": 5988,
      "▁পাত": 5989,
      "▁নির্মিত": 5990,
      "বিন্দ": 5991,
      "▁ব্যাক": 5992,
      "▁সবসময়": 5993,
      "▁অভিযানে": 5994,
      "▁সাল্লাল্লাহু": 5995,
      "▁মহাপ": 5996,
      "▁ভবনের": 5997,
      "▁ওয়াল": 5998,
      "্যমান": 5999,
      "▁সত্ত্বেও": 6000,
      "ore": 6001,
      "▁অতিথির": 6002,
      "▁পরবর্তীতে": 6003,
      "▁কাশ্মীর": 6004,
      "▁নিখোঁজ": 6005,
      "▁শৈ": 6006,
      "▁ভিস": 6007,
      "▁কুল": 6008,
      "িকেট": 6009,
      "কারীর": 6010,
      "▁যথাযথ": 6011,
      "▁দেয়।\n": 6012,
      "▁বললাম": 6013,
      "▁স্বামীর": 6014,
      "▁করবো": 6015,
      "িয়াক": 6016,
      "▁উদ্দেশে": 6017,
      "▁৩১": 6018,
      "▁টিউ": 6019,
      "তলা": 6020,
      "▁পৌরসভার": 6021,
      "▁পাচ্ছে": 6022,
      "▁ছাপ": 6023,
      "▁চলমান": 6024,
      "▁ফেডার": 6025,
      "কান": 6026,
      "▁মিলন": 6027,
      "▁on": 6028,
      "ৌশলী": 6029,
      "িপ্ত": 6030,
      "▁ফাঁস": 6031,
      "▁বগুড়া": 6032,
      "ডাঙ্গ": 6033,
      "▁হুমায়": 6034,
      "▁বাড়ছে": 6035,
      "▁শূন্য": 6036,
      "▁করিতে": 6037,
      "▁সহযোগী": 6038,
      "▁এলে": 6039,
      "▁একক": 6040,
      "োর্স": 6041,
      "▁কর্পোর": 6042,
      "▁উন্নয়নে": 6043,
      "▁টে": 6044,
      "▁বসুন্ধ": 6045,
      "-স": 6046,
      "ণি": 6047,
      "▁বেশিরভাগ": 6048,
      "▁নিরাপত্তার": 6049,
      "পথে": 6050,
      "▁বিচারক": 6051,
      "▁ওজন": 6052,
      "▁পঞ্চায়ে": 6053,
      "▁The": 6054,
      "▁দিয়েই": 6055,
      "▁করেনি": 6056,
      "▁মোটরসাই": 6057,
      "▁টের": 6058,
      "▁অন্তর্ভুক্ত": 6059,
      "▁ধরতে": 6060,
      "ম্ভ": 6061,
      "▁টেব": 6062,
      "পূর্ব": 6063,
      "পরে": 6064,
      "▁সংযুক্ত": 6065,
      "▁ফুটবলার": 6066,
      "ব্যব": 6067,
      "▁সহিংস": 6068,
      "▁বাজারের": 6069,
      "▁স্ত্রীর": 6070,
      "▁উদাহরণ": 6071,
      "▁ক্ষমা": 6072,
      "িংয়ে": 6073,
      "▁ছুঁ": 6074,
      "▁তান": 6075,
      "▁কর্মকর্তাদের": 6076,
      "▁ইজ": 6077,
      "▁‌": 6078,
      "্যব": 6079,
      "ম্য": 6080,
      "▁শামী": 6081,
      "▁অ্যাম": 6082,
      "▁অনিয়": 6083,
      "▁দুর্ঘটনায়": 6084,
      "▁সফট": 6085,
      "গামী": 6086,
      "▁ভী": 6087,
      "▁শুনতে": 6088,
      "▁রেজিস্ট": 6089,
      "▁চুরি": 6090,
      "▁হাক": 6091,
      "▁লাগবে": 6092,
      "▁ক্যারিয়ার": 6093,
      "▁রাজনীতির": 6094,
      "শক": 6095,
      "▁কলকাতায়": 6096,
      "▁ছুটে": 6097,
      "ছুর": 6098,
      "▁পক্ষের": 6099,
      "▁খাগড়া": 6100,
      "▁পায়ে": 6101,
      "▁ফায়ার": 6102,
      "▁মেল": 6103,
      "মহ": 6104,
      "▁ন্যাশনাল": 6105,
      "01": 6106,
      "▁স্টক": 6107,
      "হিদ": 6108,
      "▁নিয়ন্ত্রণে": 6109,
      "▁হাদী": 6110,
      "▁মোতা": 6111,
      "িবির": 6112,
      "াফিজ": 6113,
      "▁মিয়ানমারের": 6114,
      "▁তারি": 6115,
      "ত্রী": 6116,
      "▁সালাম": 6117,
      "▁ট্রাম্পের": 6118,
      "▁করেননি": 6119,
      "ছাত্রী": 6120,
      "এর": 6121,
      "▁তুরস্ক": 6122,
      "▁বিবেচনা": 6123,
      "টিফ": 6124,
      "▁শুনানি": 6125,
      "▁এক্ষেত্রে": 6126,
      "▁পারিবারিক": 6127,
      "ওয়ার্ক": 6128,
      "▁টুক": 6129,
      "▁ইট": 6130,
      "▁জিয়াকে": 6131,
      "▁বন্দর": 6132,
      "▁সিলেটের": 6133,
      "▁হচ্ছিল": 6134,
      "▁স্বাগত": 6135,
      "▁বেআইনি": 6136,
      "▁নিষেধাজ্ঞা": 6137,
      "নিং": 6138,
      "▁প্রতিক্রিয়া": 6139,
      "্রমে": 6140,
      "▁রানা": 6141,
      "▁ভিড়": 6142,
      "এক": 6143,
      "▁ইলেক": 6144,
      "▁সড়কে": 6145,
      "▁Ch": 6146,
      "▁ঘন্ট": 6147,
      "গ্রী": 6148,
      "▁পল্ল": 6149,
      "▁বিচ": 6150,
      "▁শতাধিক": 6151,
      "▁টাঙ্গাইল": 6152,
      "▁ক্যাপ": 6153,
      "▁অস্ত": 6154,
      "▁বৈধ": 6155,
      "▁শর্": 6156,
      "▁যানবাহ": 6157,
      "শিপ": 6158,
      "▁তামিম": 6159,
      "▁বংশ": 6160,
      "▁জন্মদিন": 6161,
      "াকু": 6162,
      "২০১": 6163,
      "▁সংসদের": 6164,
      "াস্ত্র": 6165,
      "▁ইন্টারন্যাশনাল": 6166,
      "ৃষ্ট": 6167,
      "শির": 6168,
      "▁প্রদর্শন": 6169,
      "▁ক্লাস": 6170,
      "্নান": 6171,
      "সুমে": 6172,
      "য়িক": 6173,
      "▁আড়াই": 6174,
      "▁ঝুঁকি": 6175,
      "▁তাছাড়া": 6176,
      "ামু": 6177,
      "▁সাল্লাম": 6178,
      "▁তালুক": 6179,
      "▁সেন্টার": 6180,
      "ায়।\n": 6181,
      "▁ঝুল": 6182,
      "▁আসল": 6183,
      "▁লেখার": 6184,
      "▁th": 6185,
      "▁প্রফেসর": 6186,
      "▁বিক্র": 6187,
      "▁উন্নতি": 6188,
      "▁প্রচে": 6189,
      "▁তারিখে": 6190,
      "▁ব্রাজিল": 6191,
      "▁বহন": 6192,
      "▁মুক্তিযুদ্ধের": 6193,
      "▁নিউজিল্যান্ড": 6194,
      "য়ং": 6195,
      "▁গাছের": 6196,
      "▁মিয়ার": 6197,
      "টাতে": 6198,
      "▁ছিলাম": 6199,
      "▁দমন": 6200,
      "]\n": 6201,
      "াতেই": 6202,
      "▁বানিয়ে": 6203,
      "রিদ্র": 6204,
      "▁ব্রিট": 6205,
      "▁হয়েছিলেন": 6206,
      "ফু": 6207,
      "ঘু": 6208,
      "th": 6209,
      "▁প্রশংসা": 6210,
      "▁চরিত্রে": 6211,
      "িকেশন": 6212,
      "▁জেরে": 6213,
      "▁জমির": 6214,
      "▁প্রতার": 6215,
      "▁আব্দুর": 6216,
      "▁মতোই": 6217,
      "তল": 6218,
      "▁জেলে": 6219,
      "▁কেননা": 6220,
      "▁সেনাবাহিনী": 6221,
      "▁রুশ": 6222,
      "▁ফেব্রুয়ারী": 6223,
      "▁অগ্ন": 6224,
      "▁লম্বা": 6225,
      "▁পত্রিকার": 6226,
      "▁ঝাঁ": 6227,
      "▁মিলিয়ন": 6228,
      "য়ী": 6229,
      "▁ঘা": 6230,
      "াইদ": 6231,
      "যোগী": 6232,
      "▁ভিতরে": 6233,
      "▁অস্ট্রেলিয়ার": 6234,
      "▁মাংস": 6235,
      "▁সংস্করণ": 6236,
      "সভাপতি": 6237,
      "▁বাজেট": 6238,
      "▁আগেও": 6239,
      "ময়ে": 6240,
      "ub": 6241,
      "▁মঞ্চ": 6242,
      "মল": 6243,
      "▁ছুটি": 6244,
      "▁ডিপ": 6245,
      "▁ফ্রি": 6246,
      "▁নিবন্ধ": 6247,
      "▁বসুন্ধরা": 6248,
      "▁খাতের": 6249,
      "▁রুহ": 6250,
      "্যাং": 6251,
      "▁কর্মকা": 6252,
      "▁বিদেশে": 6253,
      "▁এসআই": 6254,
      "▁বৌদ্ধ": 6255,
      "▁নিয়ন্ত্র": 6256,
      "▁কোহ": 6257,
      "▁নেই,": 6258,
      "ভাস": 6259,
      "▁আওয়ামীলীগের": 6260,
      "▁সাড়া": 6261,
      "▁ওরফে": 6262,
      "ম্মদ": 6263,
      "▁সামনের": 6264,
      "▁পিছনে": 6265,
      "▁মিয়ানমার": 6266,
      "op": 6267,
      "▁কাটিয়ে": 6268,
      "▁সংখ": 6269,
      "▁শ্রেষ্ঠ": 6270,
      "ঘাতী": 6271,
      "▁এতো": 6272,
      "াসার": 6273,
      "▁বাঘ": 6274,
      "▁আপিল": 6275,
      "▁চামচ": 6276,
      "▁গান্ধ": 6277,
      "▁সের": 6278,
      "ছেন,": 6279,
      "টল": 6280,
      "▁মাত্রা": 6281,
      "▁ঘোষণার": 6282,
      "▁সাধারন": 6283,
      "▁তলা": 6284,
      "অন": 6285,
      "▁রাশিয়ার": 6286,
      "▁লজ্জ": 6287,
      "▁সুপারিশ": 6288,
      "▁বর্ধ": 6289,
      "▁মেন": 6290,
      "▁উজ্জ্বল": 6291,
      "▁প্রিম": 6292,
      "▁হচ্ছে,": 6293,
      "▁খন্দকার": 6294,
      "▁মজুম": 6295,
      "ember": 6296,
      "্রান্ত": 6297,
      "▁ঠিকানা": 6298,
      "▁অভ্যন্ত": 6299,
      "▁হাসি": 6300,
      "▁কারখান": 6301,
      "▁প্রকৌশলী": 6302,
      "▁ডেস্ক:": 6303,
      "▁রহিম": 6304,
      "কোর": 6305,
      "বৃদ্ধ": 6306,
      "▁বাঙাল": 6307,
      "▁স্টেডিয়ামে": 6308,
      "▁নিশ্চয়ই": 6309,
      "▁কাক": 6310,
      "▁আলোচনার": 6311,
      "ষ্টার": 6312,
      "▁সহজেই": 6313,
      "িংক": 6314,
      "▁টেস্টে": 6315,
      "▁জোটের": 6316,
      "র্বা": 6317,
      "চ্ছেদ": 6318,
      "▁বজায়": 6319,
      "▁কাপড়": 6320,
      "▁খাওয়ার": 6321,
      "▁যাঁরা": 6322,
      "িকান": 6323,
      "ab": 6324,
      "দ্দীন": 6325,
      "▁দণ্ড": 6326,
      "▁ইংরেজ": 6327,
      "▁ভর্ত": 6328,
      "ভিল": 6329,
      "’,": 6330,
      "▁সত্যিই": 6331,
      "▁গিয়েছে।\n": 6332,
      "▁হিজ": 6333,
      "▁অর্থমন্ত্রী": 6334,
      "ডা": 6335,
      "▁নেবে": 6336,
      "▁চালা": 6337,
      "রাতে": 6338,
      "গরের": 6339,
      "▁তৈরী": 6340,
      "▁পণ": 6341,
      "▁উম": 6342,
      "▁বিবৃতিতে": 6343,
      "▁গণমাধ্যম": 6344,
      "▁সংবাদদাতা": 6345,
      "▁সেটাই": 6346,
      "▁খোঁ": 6347,
      "▁পাচ্ছেন": 6348,
      "ৎস্য": 6349,
      "▁মুখের": 6350,
      "▁অফিসের": 6351,
      "ো,": 6352,
      "▁চেয়ারপারসন": 6353,
      "পাশের": 6354,
      "▁ঘু": 6355,
      "▁কামনা": 6356,
      "▁উঁচ": 6357,
      "▁কপ": 6358,
      "েমে": 6359,
      "▁কাত": 6360,
      "▁কোর্ট": 6361,
      "▁নেতার": 6362,
      "ভূতি": 6363,
      "▁পৰ": 6364,
      "▁সারাদেশ": 6365,
      "▁তরফে": 6366,
      "▁পড়বে": 6367,
      "▁আমদানি": 6368,
      "▁পেন": 6369,
      "▁একের": 6370,
      "ত্বের": 6371,
      "▁রেস": 6372,
      "▁উল্লেখযোগ্য": 6373,
      "▁বাসা": 6374,
      "▁প্রার্থনা": 6375,
      "▁বিকাশ": 6376,
      "▁চৌধুরীর": 6377,
      "▁re": 6378,
      "▁যুক্তি": 6379,
      "▁গুঁ": 6380,
      "য়েম": 6381,
      "▁অজ্ঞ": 6382,
      "▁রেখেছেন": 6383,
      "▁স্টি": 6384,
      "▁রফিকুল": 6385,
      "▁মীর": 6386,
      "▁ম্যানেজ": 6387,
      "▁অভিযোগের": 6388,
      "▁ওকে": 6389,
      "▁সংঘর্ষে": 6390,
      "েন্ডার": 6391,
      "▁মিডিয়ায়": 6392,
      "বিল": 6393,
      "▁দায়িত": 6394,
      "ালার": 6395,
      "▁রও": 6396,
      "▁১৯৯": 6397,
      "সুর": 6398,
      "▁প্রবাস": 6399,
      "শেদ": 6400,
      "▁বরাবর": 6401,
      "▁খোক": 6402,
      "ht": 6403,
      "▁সন্ধান": 6404,
      "▁সিরি": 6405,
      "▁বিমানবন্দ": 6406,
      "▁নিয়েও": 6407,
      "ানু": 6408,
      "তপুর": 6409,
      "▁যেত": 6410,
      "▁মেয়েকে": 6411,
      "▁সূত্রের": 6412,
      "ন্ধান": 6413,
      "▁ধর্": 6414,
      "দানের": 6415,
      "▁ক্যান": 6416,
      "দিক": 6417,
      "চার্জ": 6418,
      "াবেন": 6419,
      "▁রাষ্ট্রীয়": 6420,
      "মন্ড": 6421,
      "▁তাৎ": 6422,
      "▁আহসান": 6423,
      "▁বৃদ্ধির": 6424,
      "▁বিপরীতে": 6425,
      "▁প্রো": 6426,
      "ভী": 6427,
      "▁দফা": 6428,
      "▁স্পোর্ট": 6429,
      "▁গিয়েছিলেন": 6430,
      "াবাদী": 6431,
      "▁মৌসুম": 6432,
      "▁গ্রন্থ": 6433,
      "▁মধু": 6434,
      "▁সালমান": 6435,
      "ভেন": 6436,
      "▁পরপর": 6437,
      "▁সূরা": 6438,
      "▁নরসিং": 6439,
      "▁স্যার": 6440,
      "▁আগষ্ট": 6441,
      "▁ক্যামেরা": 6442,
      "▁গুগল": 6443,
      "েম্বরে": 6444,
      "▁ইল": 6445,
      "▁এমনি": 6446,
      "▁পতাকা": 6447,
      "বিস্ত": 6448,
      "▁বলছেন,": 6449,
      "▁কারখানা": 6450,
      "▁ব্যবধানে": 6451,
      "▁রিয়াল": 6452,
      "ামাটি": 6453,
      "▁খতি": 6454,
      "▁কাছাকা": 6455,
      "োষ্ঠ": 6456,
      "▁দিত": 6457,
      "▁যাচাই": 6458,
      "▁কোটা": 6459,
      "▁জাহান": 6460,
      "ন্ধে": 6461,
      "▁বাংলায়": 6462,
      "▁তিনজন": 6463,
      "▁উত্তম": 6464,
      "▁ভাষণ": 6465,
      "▁হেড": 6466,
      "ো।\n": 6467,
      "▁মানববন্ধন": 6468,
      "▁ছাড়াই": 6469,
      "▁সমাবেশে": 6470,
      "▁পেঁয়াজ": 6471,
      "▁জানান।\n": 6472,
      "ফর্ম": 6473,
      "ess": 6474,
      "▁প্রকাশ্যে": 6475,
      "াকারী": 6476,
      "▁দিল্লি": 6477,
      "ামূল": 6478,
      "▁ব্লগ": 6479,
      "▁মনি": 6480,
      "দায়ের": 6481,
      "▁সল": 6482,
      "▁ছোট্ট": 6483,
      "▁সংসদে": 6484,
      "▁কন্ট": 6485,
      "▁করেও": 6486,
      "▁আদিব": 6487,
      "কাম": 6488,
      "▁চক্রবর্তী": 6489,
      "▁কূ": 6490,
      "▁তৎপর": 6491,
      "▁বিছ": 6492,
      "্গ": 6493,
      "বিন": 6494,
      "▁সেখানেই": 6495,
      "াজারে": 6496,
      "সমূহ": 6497,
      "▁মৎস্য": 6498,
      "্টন": 6499,
      "▁নারীকে": 6500,
      "▁মৌলভ": 6501,
      "▁আলহাজ": 6502,
      "▁প্রকার": 6503,
      "▁থাকি": 6504,
      "▁এমনই": 6505,
      "ায়িত": 6506,
      "ষ্ট্রে": 6507,
      "িউল": 6508,
      "্চ": 6509,
      "▁গার্ড": 6510,
      "এবি": 6511,
      "▁জানার": 6512,
      "▁মিলনায়": 6513,
      "▁সদ্য": 6514,
      "▁হাইকোর্ট": 6515,
      "▁দৃষ্ট": 6516,
      "▁হাঁট": 6517,
      "▁দাখিল": 6518,
      "▁র্যা": 6519,
      "ঙ্গি": 6520,
      "পিং": 6521,
      "জিদের": 6522,
      "▁গ্রহণের": 6523,
      "▁ঔ": 6524,
      "▁ঝড়": 6525,
      "▁১৯৭": 6526,
      "▁ডিভ": 6527,
      "টেক": 6528,
      "সম্ম": 6529,
      "▁সাগর": 6530,
      "দাদ": 6531,
      "▁টাকা।\n": 6532,
      "▁তেজ": 6533,
      "▁খুঁজ": 6534,
      "▁অন্যদের": 6535,
      "▁সেনাবাহিনীর": 6536,
      "▁পাগ": 6537,
      "▁১০০": 6538,
      "▁দেখেন": 6539,
      "▁নিচ্ছে": 6540,
      "▁ক্যামের": 6541,
      "▁ইতিহাসে": 6542,
      "▁খ্রিষ্টান": 6543,
      "টিউট": 6544,
      "▁টিকিট": 6545,
      "াজা": 6546,
      "▁জিম্ব": 6547,
      "▁প্রয়": 6548,
      "াজের": 6549,
      "▁হেফাজ": 6550,
      "▁k": 6551,
      "▁ch": 6552,
      "▁আগামীকাল": 6553,
      "▁টিপ": 6554,
      "▁ব্যক্তিদের": 6555,
      "▁আলোচিত": 6556,
      "▁অসাধারণ": 6557,
      "▁পারছেন": 6558,
      "▁পয়সা": 6559,
      "▁ট্রাই": 6560,
      "▁এরশাদ": 6561,
      "▁খাতুন": 6562,
      "▁দাগ": 6563,
      "▁ব্যক্তিকে": 6564,
      "▁পঞ্চম": 6565,
      "▁বিডি": 6566,
      "▁এসেছেন": 6567,
      "ীবন": 6568,
      "▁স্টার": 6569,
      "▁তল": 6570,
      "াইলে": 6571,
      "▁বিচ্ছিন্ন": 6572,
      "▁হালকা": 6573,
      "az": 6574,
      "▁করছে।": 6575,
      "▁মুন": 6576,
      "▁সাফ": 6577,
      "▁পর্যায়ের": 6578,
      "▁জিজ্ঞেস": 6579,
      "▁ইরানের": 6580,
      "▁ডাল": 6581,
      "▁ক্রিকেটে": 6582,
      "▁ক্ষমতাস": 6583,
      "▁পাল্টা": 6584,
      "▁পুলিশকে": 6585,
      "▁দফত": 6586,
      "▁প্রচলিত": 6587,
      "▁বউ": 6588,
      "▁চেত": 6589,
      "▁জামায়াত": 6590,
      "▁অ্যাট": 6591,
      "▁বুকে": 6592,
      "শাস": 6593,
      "কেন্দ্র": 6594,
      "▁সোনা": 6595,
      "▁Re": 6596,
      "শাখ": 6597,
      "▁আইনশৃঙ্খলা": 6598,
      "▁চার্জ": 6599,
      "▁শত্রু": 6600,
      "▁st": 6601,
      "বধ": 6602,
      "▁নেত্রী": 6603,
      "▁কার্যালয়ের": 6604,
      "▁খায়": 6605,
      "▁করতেই": 6606,
      "▁কর্মরত": 6607,
      "▁তালিকাভুক্ত": 6608,
      "▁ছিল,": 6609,
      "▁ইতিমধ্যেই": 6610,
      "▁দাশ": 6611,
      "▁বিজয়ী": 6612,
      "▁ভ্রমণ": 6613,
      "▁জমিতে": 6614,
      "▁ভাবনা": 6615,
      "▁কৃতজ্ঞ": 6616,
      "▁অডিও": 6617,
      "▁নিন্দ": 6618,
      "▁প্লট": 6619,
      "▁হামিদ": 6620,
      "▁সমাপ্ত": 6621,
      "▁খালি": 6622,
      "▁জাতিসংঘের": 6623,
      "▁কপির": 6624,
      "▁প্রয়োজনে": 6625,
      "াধিকার": 6626,
      "▁আলে": 6627,
      "তাকে": 6628,
      "ভেট": 6629,
      "গাজ": 6630,
      "▁শাসক": 6631,
      "ভুত": 6632,
      "▁খেলায়": 6633,
      "▁ইলেকট্র": 6634,
      "▁আবহাওয়া": 6635,
      "▁গ্রামীণ": 6636,
      "▁ঝিন": 6637,
      "▁রেখেছে": 6638,
      "▁স্বল্প": 6639,
      "টপ": 6640,
      "াজে": 6641,
      "াফিক": 6642,
      "▁রাউন্ড": 6643,
      "▁আপাতত": 6644,
      "ব।\n": 6645,
      "বিজ্ঞান": 6646,
      "▁পুনরায়": 6647,
      "▁উদ্যোক্ত": 6648,
      "▁দোকানে": 6649,
      "▁সপ্তাহের": 6650,
      "▁প্রতিশ্রুতি": 6651,
      "▁নাসির": 6652,
      "▁দাবী": 6653,
      "▁উপাচার্য": 6654,
      "▁ইচ্ছ": 6655,
      "▁টেলিভিশন": 6656,
      "▁আহ্বায়ক": 6657,
      "প্রকাশ": 6658,
      "শ্রী": 6659,
      "▁সমাজে": 6660,
      "পল": 6661,
      "▁ইমেইল": 6662,
      "মালা": 6663,
      "কর্মী": 6664,
      "ড্র": 6665,
      "▁সাইফুল": 6666,
      "▁চিঠ": 6667,
      "▁জুটি": 6668,
      "▁পাকিস্তানি": 6669,
      "▁শপথ": 6670,
      "▁মিত্র": 6671,
      "▁রিট": 6672,
      "বুল": 6673,
      "শালী": 6674,
      "তারা": 6675,
      "▁সশ": 6676,
      "▁মিজানুর": 6677,
      "▁পড়াশো": 6678,
      "▁রাব": 6679,
      "ঙ্কের": 6680,
      "▁মরদেহ": 6681,
      "▁ইন্স": 6682,
      "গাছ": 6683,
      "▁পাঁচটি": 6684,
      "▁দর্শক": 6685,
      "▁আলাপ": 6686,
      "▁মাগ": 6687,
      "বস্ত": 6688,
      "▁সম্প্রদায়ের": 6689,
      "▁আইসি": 6690,
      "▁বিগত": 6691,
      "▁ভট্ট": 6692,
      "▁ডেম": 6693,
      "▁ইনিংসে": 6694,
      "পিএস": 6695,
      "▁২০১৮,": 6696,
      "ap": 6697,
      "ক্রমে": 6698,
      "ামুল": 6699,
      "▁একর": 6700,
      "▁সম্ভবত": 6701,
      "▁নেটওয়ার্ক": 6702,
      "▁পর্যটন": 6703,
      "ড়িতে": 6704,
      "▁ওসমান": 6705,
      "▁হোসেন,": 6706,
      "▁বললে": 6707,
      "▁ট্রাস্ট": 6708,
      "▁কুষ্টি": 6709,
      "▁প্রথমবারের": 6710,
      "▁পাবলিক": 6711,
      "▁পর্যটক": 6712,
      "্লীল": 6713,
      "▁নাগাদ": 6714,
      "▁মৃ": 6715,
      "িদ্র": 6716,
      "▁অভিযোগ,": 6717,
      "▁আত্মঘাতী": 6718,
      "▁শ্রমিকদের": 6719,
      "▁পূজা": 6720,
      "▁ভরসা": 6721,
      "    ": 6722,
      "ুরির": 6723,
      "▁নৈ": 6724,
      "ter": 6725,
      "▁নোটিশ": 6726,
      "▁ফোনে": 6727,
      "▁স্পোর্টস": 6728,
      "▁কমপক্ষে": 6729,
      "▁মেসি": 6730,
      "▁বিএস": 6731,
      "▁তালুকদার": 6732,
      "▁ব্যথা": 6733,
      "▁উপভোগ": 6734,
      "▁চট্টগ্রামে": 6735,
      "▁তোল": 6736,
      "▁নূ": 6737,
      "ব্ল": 6738,
      "▁রাখুন": 6739,
      "▁নিচের": 6740,
      "গুলিতে": 6741,
      "েম্বার": 6742,
      "▁মর্যাদা": 6743,
      "▁ডোনাল্ড": 6744,
      "▁ইসি": 6745,
      "▁ভালোবাসা": 6746,
      "ফট": 6747,
      "▁চাকমা": 6748,
      "▁লোকের": 6749,
      "▁আনিস": 6750,
      "▁মিশ্র": 6751,
      "▁টন": 6752,
      "ষে": 6753,
      "▁গাড়িতে": 6754,
      "▁যেটা": 6755,
      "ok": 6756,
      "লোক": 6757,
      "▁সৌর": 6758,
      "্যাড": 6759,
      "▁মৌসুমে": 6760,
      "ঁটে": 6761,
      "▁নাট্য": 6762,
      "রাত": 6763,
      "▁শীর্ষক": 6764,
      "▁ক্রম": 6765,
      "▁সোহেল": 6766,
      "▁মও": 6767,
      "▁শাহর": 6768,
      "▁গণতান্ত্রিক": 6769,
      "▁প্রচারিত": 6770,
      "▁বাদী": 6771,
      "বিনি": 6772,
      "▁r": 6773,
      "▁লাইফ": 6774,
      "দূত": 6775,
      "▁মজুমদার": 6776,
      "▁ঘণ্টার": 6777,
      "ال": 6778,
      "esh": 6779,
      "▁গেল।\n": 6780,
      "▁আন্দোলনে": 6781,
      "েন্দ": 6782,
      "▁প্রেমের": 6783,
      "▁রঙের": 6784,
      "▁নদীতে": 6785,
      "ামিন": 6786,
      "▁হারে": 6787,
      "ভূমি": 6788,
      "▁রেজিস্ট্র": 6789,
      "পাত্র": 6790,
      "▁পরেও": 6791,
      "▁ব্রে": 6792,
      "▁নীর": 6793,
      "▁পৃথিবীতে": 6794,
      "▁ইতোমধ্যে": 6795,
      "▁ওয়ার্ডের": 6796,
      "▁উপস্থাপন": 6797,
      "▁মোল্লা": 6798,
      "▁দিয়া": 6799,
      "▁সঞ্জ": 6800,
      "▁২০১৪": 6801,
      "▁গল": 6802,
      "▁কর্তব্য": 6803,
      "▁দ্বীপ": 6804,
      "▁ক্রয়": 6805,
      "▁ভোটে": 6806,
      "▁কাছাকাছি": 6807,
      "▁মাদ্রাসা": 6808,
      "ীড়": 6809,
      "▁গোলা": 6810,
      "▁ইসলাম,": 6811,
      "▁ফুটে": 6812,
      "▁বয়ে": 6813,
      "্যোগ": 6814,
      "▁স্বজন": 6815,
      "▁ট্রেডিং": 6816,
      "্যাতি": 6817,
      "▁যুদ্ধে": 6818,
      "▁টেক্স": 6819,
      "▁পাচার": 6820,
      "▁আঙ": 6821,
      "▁অনুসন্ধান": 6822,
      "▁সেমি": 6823,
      "▁বিস": 6824,
      "▁কালের": 6825,
      "কাতে": 6826,
      "ড্ডা": 6827,
      "▁রাঙ": 6828,
      "▁করবে।\n": 6829,
      "▁উদ্বোধনী": 6830,
      "▁বিশ্লেষণ": 6831,
      "▁কপিরাইট": 6832,
      "▁ইঙ্গ": 6833,
      "▁দিনাজপুর": 6834,
      "▁ক্যান্স": 6835,
      "▁নির্মাণের": 6836,
      "▁হাদিস": 6837,
      "▁মোশার": 6838,
      "▁তৎকালীন": 6839,
      "▁দাও": 6840,
      "▁অ্যাডভোকেট": 6841,
      "গড়": 6842,
      "▁ফার্ম": 6843,
      "▁চাপা": 6844,
      "▁বিপর্য": 6845,
      "্বার": 6846,
      "টিয়া": 6847,
      "▁রহমান,": 6848,
      "▁চালানোর": 6849,
      "▁ইবনে": 6850,
      "▁ফজল": 6851,
      "▁সিরিজে": 6852,
      "▁ম্যাজিস্ট": 6853,
      "▁সাধ": 6854,
      "বিদ্ধ": 6855,
      "▁সংলগ্ন": 6856,
      "▁পায়ের": 6857,
      "ত্তম": 6858,
      "▁এলো": 6859,
      "▁অধিদপ্তরের": 6860,
      "▁বদল": 6861,
      "তিন": 6862,
      "▁”": 6863,
      "▁অবসর": 6864,
      "্টো": 6865,
      "▁মানের": 6866,
      "▁বিনামূল": 6867,
      "জিৎ": 6868,
      "▁একমত": 6869,
      "▁বিকাল": 6870,
      "▁অধিবেশ": 6871,
      "বিস্তারিত": 6872,
      "▁পেরিয়ে": 6873,
      "শিল্পী": 6874,
      "▁পিস": 6875,
      "▁জরি": 6876,
      "▁ম্যানেজার": 6877,
      "▁আনুষ্ঠানিক": 6878,
      "▁ক্রিস": 6879,
      "▁নিহতের": 6880,
      "▁শিক্ষকদের": 6881,
      "▁আবাসিক": 6882,
      "▁রাজস্ব": 6883,
      "▁বৈশিষ্ট": 6884,
      "▁সাহস": 6885,
      "ারক": 6886,
      "ওয়াত": 6887,
      "▁সৌন্দর্য": 6888,
      "▁রাঙ্গ": 6889,
      "্যানে": 6890,
      "▁সুমন": 6891,
      "▁ইউনিট": 6892,
      "▁অপরাধে": 6893,
      "▁ওভার": 6894,
      "▁মিষ্টি": 6895,
      "তাদের": 6896,
      "▁তারা।\n": 6897,
      "▁বাংলাদেশকে": 6898,
      "▁পেট্র": 6899,
      "▁পশু": 6900,
      "▁ভবিষ্যতে": 6901,
      "মরা": 6902,
      "▁উত্থ": 6903,
      "▁ওয়াস": 6904,
      "▁বিজিবি": 6905,
      "▁ভেসে": 6906,
      "▁মেহেরপুর": 6907,
      "▁উত্তরা": 6908,
      "▁অ্যাসোসিয়ে": 6909,
      "▁পরিবর্তে": 6910,
      "▁গর্ব": 6911,
      "▁পির": 6912,
      "▁আলোর": 6913,
      "▁তল্লা": 6914,
      "▁মেইল": 6915,
      "▁অনুবাদ": 6916,
      "▁নিরপেক্ষ": 6917,
      "▁for": 6918,
      "▁‘অ": 6919,
      "▁শামীম": 6920,
      "▁জনগোষ্ঠ": 6921,
      "▁খবর,": 6922,
      "▁ফরিদপুর": 6923,
      "▁ইলিশ": 6924,
      "পান": 6925,
      "▁পোর্ট": 6926,
      "▁কড়া": 6927,
      "▁অনুশীল": 6928,
      "▁প্রেরণ": 6929,
      "▁টেকনাফ": 6930,
      "▁মিউজ": 6931,
      "ak": 6932,
      "▁পালিত": 6933,
      "▁যাকে": 6934,
      "▁ভাইয়ের": 6935,
      "▁উন্মুক্ত": 6936,
      "▁মেশিন": 6937,
      "▁হৃদয়": 6938,
      "▁বোলার": 6939,
      "দেব": 6940,
      "▁করছিল": 6941,
      "▁খানিক": 6942,
      "▁অভিষেক": 6943,
      "▁ভাষার": 6944,
      "▁কুক": 6945,
      "▁সম্পর্কিত": 6946,
      "▁ইংল্যান্ডের": 6947,
      "▁মহাপরি": 6948,
      "▁আৰ": 6949,
      "টেলে": 6950,
      "00": 6951,
      "যাত্রা": 6952,
      "▁সংসার": 6953,
      "মাধ্যমে": 6954,
      "▁কক্ষে": 6955,
      "▁চোর": 6956,
      "▁প্রতিষ্ঠাতা": 6957,
      "▁e": 6958,
      "▁হাকিম": 6959,
      "▁পাঠক": 6960,
      "৫০": 6961,
      "েন্টের": 6962,
      "▁দম্প": 6963,
      "▁বোর": 6964,
      "▁মেহে": 6965,
      "প্রেস": 6966,
      "▁ক্ষমতাসীন": 6967,
      "▁অবস্থার": 6968,
      "▁টুই": 6969,
      "পো": 6970,
      "▁বলিউড": 6971,
      "▁গ্যাল": 6972,
      "▁দুর্বৃত্ত": 6973,
      "▁নির্যাতনের": 6974,
      "▁গোস": 6975,
      "▁প্রতিযোগিতায়": 6976,
      "▁অমিত": 6977,
      "▁সীম": 6978,
      "▁কারাদণ্ড": 6979,
      "ডিস": 6980,
      "▁ভু": 6981,
      "াবাদের": 6982,
      "নির্বাচ": 6983,
      "▁জনতা": 6984,
      "▁নন্দ": 6985,
      "▁রাসেল": 6986,
      "▁বাসের": 6987,
      "▁কূট": 6988,
      "▁অদ্": 6989,
      "▁তোর": 6990,
      "▁যাওয়ায়": 6991,
      "▁ফিল্ম": 6992,
      "▁পর্বে": 6993,
      "▁ক্ষমতার": 6994,
      "qu": 6995,
      "প্রযুক্ত": 6996,
      "▁স্বয়ং": 6997,
      "▁মারধর": 6998,
      "▁এক্সচে": 6999,
      "পিএ": 7000,
      "▁তফস": 7001,
      "▁নিল": 7002,
      "▁মুম্বই": 7003,
      "ুদা": 7004,
      "▁বিবি": 7005,
      "▁দেয়।": 7006,
      "▁ইতিহাসের": 7007,
      "▁প্রবাহ": 7008,
      "সারণ": 7009,
      "▁উত্তোল": 7010,
      "উল্লাহ": 7011,
      "▁ভারী": 7012,
      "▁মায়": 7013,
      "িপি": 7014,
      "▁উদযাপন": 7015,
      "▁ফান্ড": 7016,
      "▁আস্তে": 7017,
      "▁সত্যতা": 7018,
      "▁মিলনায়তনে": 7019,
      "▁সম্পর্কের": 7020,
      "▁প্রায়ই": 7021,
      "▁বাড়াতে": 7022,
      "▁কালাম": 7023,
      "▁বিকালে": 7024,
      "▁সিনেমার": 7025,
      "▁জ্যো": 7026,
      "▁দফায়": 7027,
      "▁লোকে": 7028,
      "্টের": 7029,
      "▁বিপদ": 7030,
      "▁নগদ": 7031,
      "▁Bangla": 7032,
      "▁এসএম": 7033,
      "▁সবই": 7034,
      "▁ফাইনাল": 7035,
      "▁গুপ্ত": 7036,
      "▁কবর": 7037,
      "▁আপত্তি": 7038,
      "▁তারই": 7039,
      "পন": 7040,
      "▁কিছুক্ষণ": 7041,
      "যা": 7042,
      "▁বাংলাদেশী": 7043,
      "▁কিনতে": 7044,
      "দায়িক": 7045,
      "ine": 7046,
      "▁র্যাব": 7047,
      "এব": 7048,
      "▁খবরে": 7049,
      "▁ইহ": 7050,
      "াইলের": 7051,
      "▁যুদ্ধের": 7052,
      "মো": 7053,
      "▁মেয়েরা": 7054,
      "▁Nov": 7055,
      "▁চাওয়া": 7056,
      "▁অনুভব": 7057,
      "▁মৃত্যুদ": 7058,
      "ধ্যায়ের": 7059,
      "▁সিগ": 7060,
      "িরো": 7061,
      "▁হ্র": 7062,
      "▁সিই": 7063,
      "▁ব্র্যান্ড": 7064,
      "শনে": 7065,
      "▁বৃষ্টির": 7066,
      "▁সমন্বয়": 7067,
      "▁আমন্ত্রণ": 7068,
      "▁টেকন": 7069,
      "লিম্প": 7070,
      "্বস্ত": 7071,
      "▁শাক": 7072,
      "▁সিএন": 7073,
      "▁পড়ছে": 7074,
      "▁জানিয়েছে,": 7075,
      "▁নেতৃবৃন্দ": 7076,
      "বাজারে": 7077,
      "▁আত্মহত্যা": 7078,
      "নিয়ার": 7079,
      "চ্ছিলেন": 7080,
      "▁রিভ": 7081,
      "▁তহ": 7082,
      "▁দরিদ্র": 7083,
      "▁আবদুর": 7084,
      "▁উইন্ড": 7085,
      "▁জাফর": 7086,
      "▁মোহন": 7087,
      "▁ঘনিষ্ঠ": 7088,
      "▁নেতাকর্মীদের": 7089,
      "▁নাজমুল": 7090,
      "লাল": 7091,
      "ইয়": 7092,
      "▁ফিচার": 7093,
      "শিয়ায়": 7094,
      "▁মঞ্চে": 7095,
      "▁শিশুকে": 7096,
      "▁ধানের": 7097,
      "▁প্রবন্ধ": 7098,
      "▁তত্ত্বাব": 7099,
      "োচনা": 7100,
      "তা,": 7101,
      "▁ইসলামিক": 7102,
      "▁একদল": 7103,
      "ফারেন্স": 7104,
      "▁মনোনয়নপত্র": 7105,
      "স্টার": 7106,
      "▁পারেন।\n": 7107,
      "▁আজকে": 7108,
      "▁হতাশ": 7109,
      "ম্বে": 7110,
      "▁আশ্বাস": 7111,
      "▁চাঁদপুর": 7112,
      "মাতে": 7113,
      "▁মতবিনি": 7114,
      "▁অতীত": 7115,
      "▁ইন্ডিয়া": 7116,
      "▁ফেলতে": 7117,
      "▁ইরান": 7118,
      "▁তবুও": 7119,
      "মোহ": 7120,
      "▁জনক": 7121,
      "▁কিশোরগঞ্জ": 7122,
      "▁অস্তিত্ব": 7123,
      "▁হন।\n": 7124,
      "▁মুক্তিযোদ্ধ": 7125,
      "▁খস": 7126,
      "▁গঠনের": 7127,
      "▁স্মার্টফোন": 7128,
      "▁অংশে": 7129,
      "▁ফয়": 7130,
      "▁বাত": 7131,
      "▁ইভ": 7132,
      "▁রুহুল": 7133,
      "োপাধ্যায়ের": 7134,
      "▁অলিম্প": 7135,
      "▁বিনামূল্যে": 7136,
      "▁হোটেলে": 7137,
      "▁যাচ্ছিল": 7138,
      "▁আগ্রহী": 7139,
      "ুব্ধ": 7140,
      "রিটি": 7141,
      "▁মুখপাত্র": 7142,
      "▁গ্রী": 7143,
      "▁ভবনে": 7144,
      "▁আজও": 7145,
      "our": 7146,
      "▁আইনি": 7147,
      "▁হলেই": 7148,
      "▁ঘন্টা": 7149,
      "’।": 7150,
      "▁ইব্র": 7151,
      "its": 7152,
      "▁প্রজা": 7153,
      "ip": 7154,
      "▁০১": 7155,
      "▁হয়নি।": 7156,
      "যুদ্ধ": 7157,
      "▁শরীয়": 7158,
      "▁জয়ী": 7159,
      "▁হয়ত": 7160,
      "▁দৃঢ়": 7161,
      "▁নিবন্ধন": 7162,
      "▁নেপ": 7163,
      "▁লোকসভা": 7164,
      "▁এঁ": 7165,
      "ক্টর": 7166,
      "▁নম্বরে": 7167,
      "ঙ্গার": 7168,
      "▁ভিট": 7169,
      "▁আছ": 7170,
      "▁ইঙ্গিত": 7171,
      "কলা": 7172,
      "▁কায়": 7173,
      "▁সম্ভাব্য": 7174,
      "▁নায়ক": 7175,
      "▁যাদ": 7176,
      "ঝো": 7177,
      "▁সন্তু": 7178,
      "▁যান।\n": 7179,
      "▁দুর্নীতির": 7180,
      "▁যি": 7181,
      "▁বিবিসি": 7182,
      "ষ্ক": 7183,
      "▁চেন": 7184,
      "▁হৈ": 7185,
      "▁দেশকে": 7186,
      "▁চিকিৎসাধীন": 7187,
      "▁কমিয়ে": 7188,
      "▁আছি": 7189,
      "্ল্ড": 7190,
      "art": 7191,
      "▁প্রযুক্তির": 7192,
      "▁তদন্তের": 7193,
      "▁ঢাক": 7194,
      "লাব": 7195,
      "াজি": 7196,
      "▁সেতুম": 7197,
      "োজন": 7198,
      "▁উল্লাহ": 7199,
      "▁বিদ্যালয়ে": 7200,
      "▁মারাত্মক": 7201,
      "▁পর্যাল": 7202,
      "▁আমলে": 7203,
      "ছার": 7204,
      "▁যুবলীগের": 7205,
      "▁ফা": 7206,
      "▁গুন": 7207,
      "▁নেবেন": 7208,
      "▁মার্কেট": 7209,
      "▁পারে,": 7210,
      "▁মহিলাদের": 7211,
      "▁মুস্ত": 7212,
      "▁জুম": 7213,
      "▁সই": 7214,
      "্ভব": 7215,
      "ীক্ষা": 7216,
      "লাইট": 7217,
      "▁যাচ্ছে।\n": 7218,
      "▁পারব": 7219,
      "▁বিনিময়ে": 7220,
      "▁দায়ে": 7221,
      "▁বিপ্লব": 7222,
      "▁প্রাইভেট": 7223,
      "▁হয়র": 7224,
      "▁পদ্ধতিতে": 7225,
      "▁আবিষ্কার": 7226,
      "▁করলো": 7227,
      "মী": 7228,
      "দির": 7229,
      "জাল": 7230,
      "▁মার্কে": 7231,
      "-বি": 7232,
      "▁বিষয়ের": 7233,
      "▁মসজিদের": 7234,
      "▁দায়িত্বে": 7235,
      "▁অপহরণ": 7236,
      "▁ব্যাগ": 7237,
      "▁রাষ্ট্রের": 7238,
      "▁সার্টিফ": 7239,
      "▁পদার্থ": 7240,
      "▁সেঞ্চুরি": 7241,
      "ক্ল": 7242,
      "হাল": 7243,
      "▁পেট": 7244,
      "▁সেতুমন্ত্রী": 7245,
      "▁টেন": 7246,
      "▁ব্রাহ্মণবাড়িয়া": 7247,
      "না,": 7248,
      "চ্যু": 7249,
      "▁গিয়েছে,": 7250,
      "▁উঁচু": 7251,
      "▁জলা": 7252,
      "▁সাঈ": 7253,
      "▁ডট": 7254,
      "িল,": 7255,
      "▁রয়": 7256,
      "▁সাতক্ষ": 7257,
      "▁পরিস্থিতির": 7258,
      "▁একেবারেই": 7259,
      "▁ওঠা": 7260,
      "জমিন": 7261,
      "▁দিয়েছে।\n": 7262,
      "লামে": 7263,
      "▁প্রিন্ট": 7264,
      "▁পড়েছেন": 7265,
      "ক্ষণের": 7266,
      "▁মিনিটের": 7267,
      "▁আতঙ্ক": 7268,
      "▁সেট": 7269,
      "▁পাখি": 7270,
      ": ": 7271,
      "▁পরিস্থিতিতে": 7272,
      "▁নাব": 7273,
      "▁ভোরে": 7274,
      "▁কর্মসূচির": 7275,
      "ড়ানো": 7276,
      "ment": 7277,
      "▁সফটওয়্যার": 7278,
      "শক্তি": 7279,
      "▁প্রিয়া": 7280,
      "▁মাতৃ": 7281,
      "▁অপ্র": 7282,
      "য়েন্টিফোর": 7283,
      "▁সঞ্চাল": 7284,
      "▁শরীফ": 7285,
      "▁পাসপোর্ট": 7286,
      "▁প্রিমিয়ার": 7287,
      "▁উপযুক্ত": 7288,
      "▁মানবিক": 7289,
      "▁জুল": 7290,
      "▁হারুন": 7291,
      "▁ওঁ": 7292,
      "▁বক্তব্যের": 7293,
      "▁যানজ": 7294,
      "▁স্পর্শ": 7295,
      "ার্থীদের": 7296,
      "▁খেয়াল": 7297,
      "ঘরে": 7298,
      "▁মতে,": 7299,
      "▁উৎসবের": 7300,
      "▁দেবী": 7301,
      "▁স্ক্র": 7302,
      "▁ভাবতে": 7303,
      "চ্ছন্ন": 7304,
      "▁পদত্যাগ": 7305,
      "▁সেসব": 7306,
      "য়েত": 7307,
      "রিতে": 7308,
      "▁প্রত্যাশা": 7309,
      "োরা": 7310,
      "▁y": 7311,
      "ুলেশন": 7312,
      "▁জাকির": 7313,
      "আরসি": 7314,
      "▁হরি": 7315,
      "▁যুগে": 7316,
      "্যাপ্ত": 7317,
      "▁চুপ": 7318,
      "▁ফাইল": 7319,
      "▁অসহায়": 7320,
      "▁মতবিনিময়": 7321,
      "▁পণ্যের": 7322,
      "▁সেকেন্ড": 7323,
      "out": 7324,
      "▁শ্ব": 7325,
      "▁মুশফিক": 7326,
      "▁ওঠার": 7327,
      "▁যাবতীয়": 7328,
      "মনির": 7329,
      "▁গভ": 7330,
      "রবান": 7331,
      "▁সভ্য": 7332,
      "▁ভাগ্য": 7333,
      "▁ফিলিস্ত": 7334,
      "▁ওয়াশ": 7335,
      "গুন": 7336,
      "▁সাক্ষাৎকার": 7337,
      "াবের": 7338,
      "▁অবল": 7339,
      "▁দুল": 7340,
      "▁সভার": 7341,
      "ংকার": 7342,
      "▁পরিশ্রম": 7343,
      "▁সুলতান": 7344,
      "▁শুল": 7345,
      "▁আমিও": 7346,
      "োনো": 7347,
      "▁চক": 7348,
      "▁ট্রান্স": 7349,
      "▁কমান্ডার": 7350,
      "▁ইতাল": 7351,
      "থের": 7352,
      "▁বেদ": 7353,
      "▁কর্মকর্তার": 7354,
      "▁২০১৭,": 7355,
      "▁পারছে": 7356,
      "▁চমৎকার": 7357,
      "্বির": 7358,
      "▁রাজনীতিতে": 7359,
      "▁জব্দ": 7360,
      "▁কালে": 7361,
      "▁নিলেন": 7362,
      "▁পৃথিবী": 7363,
      "প্ল": 7364,
      "▁আধিকার": 7365,
      "▁বীজ": 7366,
      "পন্থী": 7367,
      "েন্টে": 7368,
      "▁কানে": 7369,
      "▁চলছে।\n": 7370,
      "▁জমে": 7371,
      "▁মঞ্জুর": 7372,
      "▁হারাম": 7373,
      "ভবনে": 7374,
      "্রো": 7375,
      "▁November": 7376,
      "▁বারি": 7377,
      "▁মোটরসাইকেল": 7378,
      "▁কোরিয়ার": 7379,
      "ud": 7380,
      "▁টাইগার": 7381,
      "পতির": 7382,
      "াদির": 7383,
      "▁নিপ": 7384,
      "▁কথাও": 7385,
      "▁যাবে।": 7386,
      "▁ত্রিপুর": 7387,
      "▁পুরুষের": 7388,
      "ীরা।\n": 7389,
      "জিত": 7390,
      "▁বাসে": 7391,
      "▁কারনে": 7392,
      "ect": 7393,
      "▁আজকাল": 7394,
      "▁সময়ই": 7395,
      "▁বিবেচ": 7396,
      "চাঁ": 7397,
      "র্দ": 7398,
      "▁পরিচালনায়": 7399,
      "▁লক্ষ্মীপুর": 7400,
      "▁খাগড়াছড়ি": 7401,
      "▁ঘটে।\n": 7402,
      "▁পড়লে": 7403,
      "▁শতাব্দ": 7404,
      "▁মৌলভীবাজার": 7405,
      "▁কয়েকদিন": 7406,
      "▁বিনিময়": 7407,
      "▁ইন্ডাস্ট": 7408,
      "▁ইফতার": 7409,
      "ামূলক": 7410,
      "▁বিধায়ক": 7411,
      "ফাইন": 7412,
      "▁ডিভাই": 7413,
      "▁কমিউনিটি": 7414,
      "▁মাটির": 7415,
      "▁মুঠ": 7416,
      "হাম্ম": 7417,
      "▁পরিবর্তনের": 7418,
      "হাত": 7419,
      "▁বিহার": 7420,
      "▁লিটন": 7421,
      "▁রাজবাড়ী": 7422,
      "eng": 7423,
      "কট": 7424,
      "▁দুর্যোগ": 7425,
      "▁রাগ": 7426,
      "▁ম্যাজিস্ট্রেট": 7427,
      "াড়ে": 7428,
      "াপনের": 7429,
      "বাসীর": 7430,
      "▁চেপে": 7431,
      "▁বইয়ের": 7432,
      "▁আস্থা": 7433,
      "রাফি": 7434,
      "▁বাড়ানোর": 7435,
      "াইড": 7436,
      "▁ঝাল": 7437,
      "▁যাতায়": 7438,
      "▁জয়ন": 7439,
      "জো": 7440,
      "▁প্রশাসনিক": 7441,
      "▁একথা": 7442,
      "▁আসছেন": 7443,
      "are": 7444,
      "ষ্কৃত": 7445,
      "▁শিরোপা": 7446,
      "-প্র": 7447,
      "▁দুর্দান্ত": 7448,
      "ort": 7449,
      "▁অনেকটাই": 7450,
      "কৃ": 7451,
      "▁মাথার": 7452,
      "র্কের": 7453,
      "▁পিএবি": 7454,
      "▁দেখাতে": 7455,
      "গেট": 7456,
      "ক,": 7457,
      "ব্রত": 7458,
      "▁সাইটে": 7459,
      "▁শ্রেণীর": 7460,
      "▁পূর্বা": 7461,
      "▁অসম্ভব": 7462,
      "রীণ": 7463,
      "বাগত": 7464,
      "নি।": 7465,
      "োয়ে": 7466,
      "▁বঞ্চিত": 7467,
      "▁আফ্রিকার": 7468,
      "▁আয়ের": 7469,
      "▁জিজ্ঞাসাবাদ": 7470,
      "▁পিএবিএক্স": 7471,
      "ৰে": 7472,
      "▁দফতর": 7473,
      "▁নোয়াখালী": 7474,
      "বার্ষিক": 7475,
      "▁রোধ": 7476,
      "রাও": 7477,
      "▁নাচ": 7478,
      "▁হলুদ": 7479,
      "▁উঠল": 7480,
      "▁কক্ষ": 7481,
      "▁মাদর": 7482,
      "েরও": 7483,
      "▁পরাজিত": 7484,
      "বিশ্বাস": 7485,
      "▁আসামী": 7486,
      "▁বলে,": 7487,
      "▁উদ্দ": 7488,
      "▁সোস": 7489,
      "▁খাবারের": 7490,
      "ve": 7491,
      "▁মক": 7492,
      "▁ভূমিকম্প": 7493,
      "▁শেয়ারবাজার": 7494,
      "ছিল,": 7495,
      "ালয়": 7496,
      "▁লুট": 7497,
      "▁বাচ্চা": 7498,
      "▁তাস": 7499,
      "াহা": 7500,
      "▁আন্তরিক": 7501,
      "বারে": 7502,
      "▁দূতাব": 7503,
      "▁সমঝো": 7504,
      "▁অদ্ভুত": 7505,
      "াসীদের": 7506,
      "▁একদম": 7507,
      "▁কাজেই": 7508,
      "▁বাড়তে": 7509,
      "▁উত্তরে": 7510,
      "দারের": 7511,
      "▁নেত্র": 7512,
      "▁চালাতে": 7513,
      "▁অভিম": 7514,
      "▁ভদ্র": 7515,
      "▁পিত": 7516,
      "▁ওয়ার্ল্ড": 7517,
      "টিও": 7518,
      "▁অষ্ট": 7519,
      "▁সাময়িক": 7520,
      "▁যাবার": 7521,
      "▁পাঠানোর": 7522,
      "িন্ত": 7523,
      "▁News": 7524,
      "▁দেখলাম": 7525,
      "▁নই": 7526,
      "▁নিলে": 7527,
      "সেন": 7528,
      "▁রাজশাহ": 7529,
      "▁ডিজাইন": 7530,
      "▁পরিসং": 7531,
      "-০": 7532,
      "▁প্রদানের": 7533,
      "▁Se": 7534,
      "ST": 7535,
      "চী": 7536,
      "▁ডেল": 7537,
      "▁প্রার্থীর": 7538,
      "▁ব্যান": 7539,
      "▁কুড়ি": 7540,
      "শ্বরের": 7541,
      "▁মাইল": 7542,
      "▁সমাধ": 7543,
      "▁অন্যায়": 7544,
      "ামন্ত্রী": 7545,
      "▁বাগান": 7546,
      "▁দলটির": 7547,
      "▁পরিষে": 7548,
      "▁ডাকাত": 7549,
      "▁ক্লিন": 7550,
      "▁করছেন।\n": 7551,
      "▁ছাড়িয়ে": 7552,
      "▁কর্মসং": 7553,
      "▁হবিগঞ্জ": 7554,
      "▁নেতৃত্বাধীন": 7555,
      "▁লড়": 7556,
      "ওয়াজ": 7557,
      "”\n": 7558,
      "▁রোগী": 7559,
      "▁বিক্রে": 7560,
      "▁থেমে": 7561,
      "জেক্ট": 7562,
      "▁দিলাম": 7563,
      "▁তদন্তে": 7564,
      "▁ডুবে": 7565,
      "com": 7566,
      "▁কবে": 7567,
      "▁ছাল": 7568,
      "▁ইউএন": 7569,
      "▁শরি": 7570,
      "▁মধ্যপ্র": 7571,
      "▁মাশরাফি": 7572,
      "ক।\n": 7573,
      "▁St": 7574,
      "▁করণ": 7575,
      "▁কপি": 7576,
      "▁শোভা": 7577,
      "কিন": 7578,
      "▁দিল্লির": 7579,
      "▁বাড়ানো": 7580,
      "পর্য": 7581,
      "▁ইউনিয়নে": 7582,
      "▁পোল": 7583,
      "তিনি": 7584,
      "ত্রের": 7585,
      "▁ঝাম": 7586,
      "▁ভ্রাম": 7587,
      "▁পেলেন": 7588,
      "▁জেন": 7589,
      "▁অবি": 7590,
      "▁বন্য": 7591,
      "▁দেখলে": 7592,
      "ান্ডা": 7593,
      "▁প্রার্থীদের": 7594,
      "▁বোলিং": 7595,
      "▁প্রকৃতি": 7596,
      "▁উত্তেজনা": 7597,
      "▁প্রতিষ্ঠানে": 7598,
      "▁মেজর": 7599,
      "াতাড়ি": 7600,
      "▁অচ": 7601,
      "েনি।\n": 7602,
      "▁দপ্তর": 7603,
      "▁কোর্টের": 7604,
      "▁থাকে,": 7605,
      "োলজি": 7606,
      "▁সম্পত্তি": 7607,
      "-৩": 7608,
      "▁পড়ল": 7609,
      "▁শন": 7610,
      "▁করছিলেন": 7611,
      "▁অসুবি": 7612,
      "▁আবেদনের": 7613,
      "েম্বরের": 7614,
      "নকে": 7615,
      "গোল": 7616,
      "▁উইল": 7617,
      "▁স্থানীয়রা": 7618,
      "▁চিৎকার": 7619,
      "ৃক্ত": 7620,
      "▁pr": 7621,
      "▁প্রমাণিত": 7622,
      "▁হাফিজ": 7623,
      "▁ছিনতাই": 7624,
      "▁ক্রিকেটের": 7625,
      "▁কিউ": 7626,
      "দৌ": 7627,
      "▁পিক": 7628,
      "▁সামগ্রী": 7629,
      "▁বিবরণ": 7630,
      "▁সাউ": 7631,
      "▁ডেভেল": 7632,
      "▁উল্লেখ্য,": 7633,
      "ুলার": 7634,
      "সনের": 7635,
      "▁মাদারীপুর": 7636,
      "▁•": 7637,
      "োগ্র": 7638,
      "▁ছো": 7639,
      "▁সম্বন্ধে": 7640,
      "▁স্বচ্ছ": 7641,
      "▁রুপি": 7642,
      "ah": 7643,
      "স্টিক": 7644,
      "▁নৃ": 7645,
      "▁ঘটনাস্থল": 7646,
      "▁মন্ড": 7647,
      "▁আমান": 7648,
      "▁বৈশাখ": 7649,
      "▁ফেনী": 7650,
      "▁ভিত্তিক": 7651,
      "▁ব্যক্তিত্ব": 7652,
      "▁কির": 7653,
      "▁বর্ণিত": 7654,
      "▁কাঁদ": 7655,
      "▁এলাকাবাসী": 7656,
      "▁কোড": 7657,
      "▁আয": 7658,
      "নিম": 7659,
      "▁তাপমাত্রা": 7660,
      "▁রক্ষণ": 7661,
      "মুনা": 7662,
      "োদিত": 7663,
      "▁is": 7664,
      "▁তফসিল": 7665,
      "▁শুল্ক": 7666,
      "▁বয়সের": 7667,
      "▁ধর্ষ": 7668,
      "▁ইব্রাহ": 7669,
      "▁রিমান্ড": 7670,
      "▁স্বাগ": 7671,
      "▁ফট": 7672,
      "▁সাহিত": 7673,
      "েশ্বর": 7674,
      "▁নিষ্প": 7675,
      "▁নিত্য": 7676,
      "▁সংখ্যক": 7677,
      "▁শাহরুখ": 7678,
      "শাসন": 7679,
      "▁পাবল": 7680,
      "▁চেহারা": 7681,
      "▁একাংশ": 7682,
      "▁জানুয়ারি,": 7683,
      "োর্টে": 7684,
      "▁লাইভ": 7685,
      "▁নামিয়ে": 7686,
      "▁জোগ": 7687,
      "рж": 7688,
      "ুনা": 7689,
      "▁৬০": 7690,
      "▁খুনের": 7691,
      "তিকর": 7692,
      "▁নিযুক্ত": 7693,
      "▁টপ": 7694,
      "ঃ)": 7695,
      "▁ভবিষ্যৎ": 7696,
      "ান।\n": 7697,
      "বর্ণ": 7698,
      "▁সম্মুখ": 7699,
      "▁পদ্মা": 7700,
      "▁মজার": 7701,
      "▁বাবুল": 7702,
      "▁ভীষণ": 7703,
      "কতা": 7704,
      "▁কথাই": 7705,
      "▁সভাপতিত্ব": 7706,
      "▁অনুভূতি": 7707,
      "▁হয়েছেন।\n": 7708,
      "▁মন্ত্রিস": 7709,
      "▁শাহাদ": 7710,
      "▁লঙ্ঘ": 7711,
      "▁রাষ্ট্রদূত": 7712,
      "▁পাড়া": 7713,
      "▁বাইরের": 7714,
      "▁মুন্স": 7715,
      "▁সৃষ্ট": 7716,
      "▁ইতিবাচক": 7717,
      "▁ধারায়": 7718,
      "����": 7719,
      "▁রাজীব": 7720,
      "▁লিখতে": 7721,
      "▁ব্যবসায়ীদের": 7722,
      "▁সমগ্র": 7723,
      "▁ইউটিউ": 7724,
      "▁মেলায়": 7725,
      "▁ম্যাক": 7726,
      "▁সাহায্যে": 7727,
      "▁পার্শ্ব": 7728,
      "▁একসময়": 7729,
      "▁কারন": 7730,
      "▁সাজা": 7731,
      "হত্য": 7732,
      "▁রোগীর": 7733,
      "▁নওগাঁ": 7734,
      "লাস": 7735,
      "▁তোলে": 7736,
      "▁খাই": 7737,
      "বিষয়ক": 7738,
      "▁মৌলিক": 7739,
      "▁চাকরির": 7740,
      "কামী": 7741,
      "▁বিমানবন্দর": 7742,
      "▁আবদুল্লাহ": 7743,
      "▁করেছেন,": 7744,
      "জায়": 7745,
      "▁আকবর": 7746,
      "▁উড়িয়ে": 7747,
      "▁সেমিন": 7748,
      "বিস্তারিত\n": 7749,
      "▁সকলেই": 7750,
      "মির": 7751,
      "▁টাইমস": 7752,
      "▁ঝুঁক": 7753,
      "সঙ্গম": 7754,
      "if": 7755,
      "বে।": 7756,
      "ঙ্গাল": 7757,
      "▁ব্যাব": 7758,
      "▁রোডের": 7759,
      "▁হস্তান্তর": 7760,
      "▁পঞ্চায়েত": 7761,
      "▁পাইল": 7762,
      "▁কারণ,": 7763,
      "োঁয়া": 7764,
      "▁অশ্লীল": 7765,
      "▁বন্যা": 7766,
      "ory": 7767,
      "▁অক্স": 7768,
      "াবলী": 7769,
      "▁অবলম্ব": 7770,
      "▁মনোনীত": 7771,
      "াইয়ের": 7772,
      "াবাড়": 7773,
      "▁নরসিংদী": 7774,
      "▁ভুগ": 7775,
      "▁স্মারক": 7776,
      "শ্বাস": 7777,
      "▁শ্বাস": 7778,
      "▁আলহাজ্ব": 7779,
      "▁যানবাহন": 7780,
      "▁জিজ্ঞাসা": 7781,
      "▁নির্বি": 7782,
      "▁যুবকের": 7783,
      "▁দিয়েছেন।\n": 7784,
      "▁সংগ্রহের": 7785,
      "▁পর্যবেক্ষণ": 7786,
      "▁মহিলার": 7787,
      "▁মিশিয়ে": 7788,
      "▁লিও": 7789,
      "রফ": 7790,
      "▁তারপরও": 7791,
      "▁বলেন।\n": 7792,
      "▁একু": 7793,
      "▁গোপালগঞ্জ": 7794,
      "চিত্রে": 7795,
      "▁জাদু": 7796,
      "▁পার্লাম": 7797,
      "▁করেছিলাম": 7798,
      "▁সিকিউ": 7799,
      "▁প্রাণী": 7800,
      "▁j": 7801,
      "▁প্রিন্টিং": 7802,
      "▁ধা": 7803,
      "▁৩৫": 7804,
      "▁পারেন।": 7805,
      "▁আরোপ": 7806,
      "▁ব্যারিস্টার": 7807,
      "▁২০২০": 7808,
      "কিল": 7809,
      "▁কই": 7810,
      "ীয়া": 7811,
      "▁গন্ধ": 7812,
      "▁হেন": 7813,
      "▁সনদ": 7814,
      "▁মোদি": 7815,
      "▁দেন।": 7816,
      "▁ডাই": 7817,
      "▁‘স": 7818,
      "▁পর্যাপ্ত": 7819,
      "▁ইংলিশ": 7820,
      "▁স্বার্থে": 7821,
      "▁টেম": 7822,
      "▁শিবির": 7823,
      "▁সিপিএম": 7824,
      "▁টেবিল": 7825,
      "▁ভ্যান": 7826,
      "▁মুসলমানদের": 7827,
      "▁সঙ্গী": 7828,
      "▁প্রাঙ্গ": 7829,
      "▁বিক্রির": 7830,
      "▁Al": 7831,
      "▁শিক": 7832,
      "▁অন্তর": 7833,
      "র্কে": 7834,
      "▁চট্টোপাধ্যায়": 7835,
      "▁করানো": 7836,
      "লস": 7837,
      "▁যৌনসঙ্গম": 7838,
      "ীর্ত": 7839,
      "▁সেবার": 7840,
      "▁রোনাল": 7841,
      "▁মাঠের": 7842,
      "্রয়েড": 7843,
      "▁by": 7844,
      "য়াম": 7845,
      "▁ত্রাণ": 7846,
      "▁পরিদর্শক": 7847,
      "▁হাইকোর্টের": 7848,
      "লীর": 7849,
      "▁অধিদপ্তর": 7850,
      "ভের": 7851,
      "তক": 7852,
      "▁আউ": 7853,
      "▁সেমিফাইন": 7854,
      "▁জোড়া": 7855,
      "েকের": 7856,
      "▁গাজী": 7857,
      "্ধব": 7858,
      "▁খিল": 7859,
      "▁কোহলি": 7860,
      "▁ঐক্যফ্রন্টের": 7861,
      "▁রেড": 7862,
      "▁থাকুন": 7863,
      "▁আওয়ামীলীগ": 7864,
      "▁হতেই": 7865,
      "ঙ্কে": 7866,
      "ডেস্ক": 7867,
      "▁হোসাইন": 7868,
      "র্মে": 7869,
      "▁জজ": 7870,
      "▁বিচারের": 7871,
      "▁যোগদান": 7872,
      "▁ট্রে": 7873,
      "▁করপোরেশন": 7874,
      "বয়": 7875,
      "্লাস": 7876,
      "রা।": 7877,
      "ন্ঠ": 7878,
      "▁ভরে": 7879,
      "▁কাহিনী": 7880,
      "▁বার্সেলো": 7881,
      "▁এখনই": 7882,
      "▁মাকে": 7883,
      "-সহ": 7884,
      "▁ভঙ্গ": 7885,
      "▁সম্পৃক্ত": 7886,
      "▁সংখ্যাল": 7887,
      "▁ধরার": 7888,
      "▁ال": 7889,
      "▁ইনস্টিটিউট": 7890,
      "▁বৈশিষ্ট্য": 7891,
      "েক্স": 7892,
      "▁আয়াত": 7893,
      "▁মাছের": 7894,
      "ছিলেন,": 7895,
      "▁পারছি": 7896,
      "ont": 7897,
      "ুপ": 7898,
      "▁তুই": 7899,
      "▁একান্ত": 7900,
      "▁অপেক্ষায়": 7901,
      "▁ব্যান্ড": 7902,
      "▁স্বরাষ্ট্রমন্ত্রী": 7903,
      "▁ভেঙ্গে": 7904,
      "▁ব্রাউ": 7905,
      "▁ছিলেন।": 7906,
      "▁পছন্দের": 7907,
      "িকো": 7908,
      "▁ঈশ্বরের": 7909,
      "▁শাকিব": 7910,
      "▁বটে": 7911,
      "▁যোগ্যতা": 7912,
      "▁আশরা": 7913,
      "ন।\n": 7914,
      "জিও": 7915,
      "▁দেশীয়": 7916,
      "ink": 7917,
      "▁ইউসু": 7918,
      "▁বিমানবন্দরে": 7919,
      "▁মান্নান": 7920,
      "▁কোর্স": 7921,
      "▁ট্রাফিক": 7922,
      "▁সংক্ষ": 7923,
      "▁দারিদ্র": 7924,
      "ind": 7925,
      "▁আধিকারিক": 7926,
      "▁যমুনা": 7927,
      "িবাদ": 7928,
      "▁দুর্ঘটনার": 7929,
      "ত।\n": 7930,
      "৫)": 7931,
      "▁জহির": 7932,
      "▁ইশ": 7933,
      "যুদ্ধে": 7934,
      "▁কমল": 7935,
      "▁শুরুতেই": 7936,
      "▁কামরুল": 7937,
      "▁কৌশ": 7938,
      "▁উদ্ভাব": 7939,
      "▁স্যাম": 7940,
      "▁বিক্রয়": 7941,
      "▁কাস্ট": 7942,
      "▁In": 7943,
      "▁মহাসড়কের": 7944,
      "▁পররাষ্ট্রমন্ত্রী": 7945,
      "▁স্বাদ": 7946,
      "গি": 7947,
      "▁সৃষ্টির": 7948,
      "▁পুনর্ব": 7949,
      "▁পাও": 7950,
      "ঞ্চলের": 7951,
      "▁ইনচার্জ": 7952,
      "▁দেরি": 7953,
      "▁যাত্রীদের": 7954,
      "▁ফিট": 7955,
      "পাট": 7956,
      "টিই": 7957,
      "▁মোস্তাফিজ": 7958,
      "▁নার্স": 7959,
      "▁বান্দরবান": 7960,
      "▁ঝিনাইদ": 7961,
      "▁স্যাটে": 7962,
      "্টু": 7963,
      "▁প্রবণ": 7964,
      "▁পাঞ্জ": 7965,
      "▁প্রকৌশল": 7966,
      "▁কেনার": 7967,
      "▁নকল": 7968,
      "▁স্": 7969,
      "▁মাজ": 7970,
      "▁সঙ্গেই": 7971,
      "▁চুম": 7972,
      "▁আবেগ": 7973,
      "▁ভট্টাচার্য": 7974,
      "\t\n": 7975,
      "▁শীর্ষে": 7976,
      "▁পশ্চিমা": 7977,
      "ঞ্চি": 7978,
      "▁চৌধুরী,": 7979,
      "▁টাকা।": 7980,
      "▁—": 7981,
      "▁হানি": 7982,
      "েন।": 7983,
      "▁হারা": 7984,
      "▁||": 7985,
      "ামাল": 7986,
      "ংকর": 7987,
      "▁প্রমুখ।\n": 7988,
      "▁গেলাম": 7989,
      "▁চিনি": 7990,
      "▁পুজো": 7991,
      "▁সার্টিফিকেট": 7992,
      "ব্যুন": 7993,
      "▁নিচ্ছেন": 7994,
      "▁মিরপুর": 7995,
      "▁অদ": 7996,
      "▁মিঠ": 7997,
      "▁পার্থক্য": 7998,
      "রক্ষা": 7999,
      "▁বাঁধা": 8000,
      "▁আকার": 8001,
      "▁প্রচণ্ড": 8002,
      "▁হার্ডকোর": 8003,
      "▁শুয়ে": 8004,
      "▁সরকার।\n": 8005,
      "▁(৪": 8006,
      "▁দেখবেন": 8007,
      "▁এতদিন": 8008,
      "▁হি": 8009,
      "▁শিগ": 8010,
      "▁/": 8011,
      "ানিতে": 8012,
      "▁সেক্রে": 8013,
      "▁অন্ধকার": 8014,
      "ারেট": 8015,
      "▁মেলে": 8016,
      "▁প্রদর্শনী": 8017,
      "কেলের": 8018,
      "▁আনসার": 8019,
      "▁কর্মচারী": 8020,
      "▁গ্রহণযোগ্য": 8021,
      "▁পাহাড়ি": 8022,
      "▁কুপিয়ে": 8023,
      "ডো": 8024,
      "▁সশস্ত্র": 8025,
      "▁লক্ষণ": 8026,
      "iz": 8027,
      "▁ইউনাই": 8028,
      "ঘাতে": 8029,
      "▁দুজনের": 8030,
      "▁ওপেন": 8031,
      "▁এড়িয়ে": 8032,
      "▁পুড়ে": 8033,
      "ষদ": 8034,
      "▁ইনফ": 8035,
      "▁যুক্তরা": 8036,
      "ick": 8037,
      "▁‘ম": 8038,
      "▁অটোর": 8039,
      "▁শিম": 8040,
      "▁সংবর্ধ": 8041,
      "▁তথ্যপ্রযুক্ত": 8042,
      "▁ট্রাইব্যুন": 8043,
      "▁জৈ": 8044,
      "all": 8045,
      "▁জগত": 8046,
      "▁বলব": 8047,
      "▁নিউইয়": 8048,
      "▁স্ত্রীকে": 8049,
      "্মা": 8050,
      "▁চত্ব": 8051,
      "▁গবেষণায়": 8052,
      "▁‘এ": 8053,
      "ৃতা": 8054,
      "ান,": 8055,
      "নীতিক": 8056,
      "▁সিবিএন": 8057,
      "▁স্টু": 8058,
      "▁মুন্সি": 8059,
      "▁মোকা": 8060,
      "▁উচ্চার": 8061,
      "▁পাহাড়ের": 8062,
      "▁ছিট": 8063,
      "▁ঘূর্ণ": 8064,
      "▁মিশন": 8065,
      "▁কাস": 8066,
      "▁ব্যাপারটা": 8067,
      "▁তারাই": 8068,
      "াতদন্ত": 8069,
      "▁শান্তির": 8070,
      "▁ইন্": 8071,
      "আমি": 8072,
      "▁মগ": 8073,
      "▁আবারো": 8074,
      "কন": 8075,
      "▁ভাইরাল": 8076,
      "▁এশিয়ান": 8077,
      "▁শোন": 8078,
      "▁পুঁজিবাজারে": 8079,
      "াতো": 8080,
      "▁উল্টো": 8081,
      "▁দলটি": 8082,
      "▁সংবাদমাধ্যম": 8083,
      "▁নির্মাতা": 8084,
      "বাবগঞ্জ": 8085,
      "▁দাঁড়িয়েছে": 8086,
      "▁অভাবে": 8087,
      "▁রোগের": 8088,
      "▁পড়াশোনা": 8089,
      "▁ফসল": 8090,
      "▁স্নাতক": 8091,
      "▁ডেভ": 8092,
      "েট": 8093,
      "পক্ষের": 8094,
      "▁(ই": 8095,
      "▁টি-": 8096,
      "▁লুকিয়ে": 8097,
      "▁ওয়েবসাইটের": 8098,
      "▁উদ্বেগ": 8099,
      "▁মহাপরিচালক": 8100,
      "িকাকে": 8101,
      "মেট": 8102,
      "▁সংলা": 8103,
      "ড়িয়া": 8104,
      "ান্দি": 8105,
      "া।": 8106,
      "ও।": 8107,
      "সাথে": 8108,
      "টুয়া": 8109,
      "low": 8110,
      "পিকে": 8111,
      "দারি": 8112,
      "▁ব্যাঙ্ক": 8113,
      "িজীব": 8114,
      "▁আহবান": 8115,
      "▁নির্দেশে": 8116,
      "▁বন্ধুদের": 8117,
      "▁কৰি": 8118,
      "▁রোনালদ": 8119,
      "▁ময়নাতদন্ত": 8120,
      "টেন্ট": 8121,
      "পাইন": 8122,
      "বে,": 8123,
      "▁বলিউডের": 8124,
      "▁নীচে": 8125,
      "▁হাওয়া": 8126,
      "▁চোট": 8127,
      "▁বিদ্যমান": 8128,
      "▁আসুন": 8129,
      "▁আরবের": 8130,
      "▁প্রতিবেশী": 8131,
      "টিত": 8132,
      "▁করতো": 8133,
      "▁ভিতর": 8134,
      "ুনের": 8135,
      "angl": 8136,
      "াজ্য": 8137,
      "▁সিলেটে": 8138,
      "▁পদক": 8139,
      "▁সীমান্তে": 8140,
      "▁ভিটামিন": 8141,
      "▁রেজাউল": 8142,
      "াসেব": 8143,
      "▁অবহ": 8144,
      "বিশেষ": 8145,
      "▁ব্যবসায়ীরা": 8146,
      "▁ফ্রান্সের": 8147,
      "▁সংয": 8148,
      "▁শিগগির": 8149,
      "▁বস্তু": 8150,
      "▁বিজ্ঞপ্তিতে": 8151,
      "▁দাঁড়ায়": 8152,
      "ৈর": 8153,
      "▁অবস": 8154,
      "▁কর্নে": 8155,
      "োরিয়াল": 8156,
      "▁নেশ": 8157,
      "মাধ্যমের": 8158,
      "▁রাজ্জ": 8159,
      "▁ঝাড়": 8160,
      "▁খতিয়ে": 8161,
      "▁পল্লী": 8162,
      "▁ডো": 8163,
      "▁ভিজ": 8164,
      "▁ফজ": 8165,
      "▁রাসূলুল্লাহ": 8166,
      "▁প্রোড": 8167,
      "রার": 8168,
      "ার্জি": 8169,
      "োন্ন": 8170,
      "▁সবজি": 8171,
      "▁ইউনিভার্সিটি": 8172,
      "▁ব্রাউজার": 8173,
      "▁যুক্তরাষ্ট্রে": 8174,
      "▁যিহো": 8175,
      "হাই": 8176,
      "▁তৌ": 8177,
      "▁অহ": 8178,
      "▁আমেরিকান": 8179,
      "▁হোয়": 8180,
      "▁জর্জ": 8181,
      "▁ব্যাংকিং": 8182,
      "▁জামায়াতের": 8183,
      "দাস": 8184,
      "▁রেডিও": 8185,
      "▁সমস্যায়": 8186,
      "▁অমান": 8187,
      "▁অন্যের": 8188,
      "পিট": 8189,
      "▁বৈঠকের": 8190,
      "▁০০": 8191,
      "ওয়াই": 8192,
      "ক্ষমতা": 8193,
      "িশনের": 8194,
      "▁স্বত্ব": 8195,
      "▁বাণী": 8196,
      "▁অফার": 8197,
      "▁টুয়েন্টিফোর": 8198,
      "▁মহা": 8199,
      "▁বিগ": 8200,
      "▁নিন্দা": 8201,
      "▁ব্যতিক্রম": 8202,
      "▁অভ্যন্তরীণ": 8203,
      "▁আদিবাসী": 8204,
      "ৃত্য": 8205,
      "▁মহাকা": 8206,
      "▁সকলকে": 8207,
      "▁স্লোগান": 8208,
      "▁সংশোধন": 8209,
      "▁অভ্যাস": 8210,
      "▁চর্চা": 8211,
      "▁প্রতিষ্ঠার": 8212,
      "▁পরিসংখ্যান": 8213,
      "ডির": 8214,
      "▁এশিয়ার": 8215,
      "▁অবস্থানে": 8216,
      "▁পরদিন": 8217,
      "▁দ্বি": 8218,
      "▁অগ্রগতি": 8219,
      "জনে": 8220,
      "▁কুরআন": 8221,
      "▁মানুষদের": 8222,
      "▁টেলি": 8223,
      "▁যায়নি।\n": 8224,
      "ণার": 8225,
      "হাজার": 8226,
      "▁কক্সবাজারের": 8227,
      "▁সংক্ষিপ্ত": 8228,
      "▁ধূ": 8229,
      "▁দক্ষতা": 8230,
      "▁কমেছে": 8231,
      "▁বেড়া": 8232,
      "টিভি": 8233,
      "▁কেম": 8234,
      "▁মোটা": 8235,
      "▁(আ": 8236,
      "▁সায়": 8237,
      "▁তিনিই": 8238,
      "▁দশম": 8239,
      "তলী": 8240,
      "▁ফিলিপ": 8241,
      "▁লাগানো": 8242,
      "ুলিয়া": 8243,
      "▁পরস্প": 8244,
      "াবদ্ধ": 8245,
      "▁বারিধারা": 8246,
      "▁অপারেশন": 8247,
      "▁ডির": 8248,
      "জিং": 8249,
      "▁প্রেসক্লাবের": 8250,
      "▁আশরাফুল": 8251,
      "▁পশ্চিমবঙ্গের": 8252,
      "▁থেকে।\n": 8253,
      "▁আগুনে": 8254,
      "▁উম্ম": 8255,
      "▁পুলিশ।": 8256,
      "▁প্রশ্নে": 8257,
      "স্বর": 8258,
      "▁বাঁশ": 8259,
      "ity": 8260,
      "▁করলেই": 8261,
      "▁টেলিফ": 8262,
      "▁হল,": 8263,
      "▁গোল্ড": 8264,
      "▁২০১৬,": 8265,
      "▁সূচনা": 8266,
      "▁ঐক্যবদ্ধ": 8267,
      "▁উদ্দীন": 8268,
      "▁কুকুর": 8269,
      "ন্নাথ": 8270,
      "▁বিদেশী": 8271,
      "▁গ্রাহক": 8272,
      "▁কেন?\n": 8273,
      "য়েজ": 8274,
      "▁অতএব": 8275,
      "▁আসর": 8276,
      "▁সহ-": 8277,
      "▁শৃঙ্খলা": 8278,
      "▁ওয়েবসাইটে": 8279,
      "েন্সি": 8280,
      "▁দ্বী": 8281,
      "oc": 8282,
      "▁ঘটিয়ে": 8283,
      "▁হিল": 8284,
      "াবা": 8285,
      "▁সিকিউরিটি": 8286,
      "▁সাইফ": 8287,
      "▁পর্ষ": 8288,
      "▁ইউরোপীয়": 8289,
      "▁মজা": 8290,
      "মাল": 8291,
      "▁শহিদুল": 8292,
      "ব্লিউ": 8293,
      "ফির": 8294,
      "▁মনোভাব": 8295,
      "▁থাকবে।\n": 8296,
      "▁ফাল": 8297,
      "িসে": 8298,
      "াজনক": 8299,
      "▁ওয়াশিং": 8300,
      "ik": 8301,
      "স,": 8302,
      "রন": 8303,
      "ল্যান্ডের": 8304,
      "স্র": 8305,
      "▁সেজন্য": 8306,
      "হয়": 8307,
      "▁প্রত্যক্ষদর্শ": 8308,
      "মুখী": 8309,
      "▁চাপে": 8310,
      "▁পরিবেশন": 8311,
      "▁ঝামেলা": 8312,
      "▁পাকা": 8313,
      "▁ভিসা": 8314,
      "প্রধান": 8315,
      "▁পৌরসভা": 8316,
      "▁ঈদুল": 8317,
      "▁জ্বালানি": 8318,
      "▁তুরস্কের": 8319,
      "▁জলে": 8320,
      "▁চলার": 8321,
      "▁ইসরা": 8322,
      "▁ইউসুফ": 8323,
      "্যেষ্ঠ": 8324,
      "বিহীন": 8325,
      "▁কর্নেল": 8326,
      "▁মোকাব": 8327,
      "▁ইউনিটের": 8328,
      "▁tits": 8329,
      "নাল": 8330,
      "▁টার্": 8331,
      "স্থানে": 8332,
      "ish": 8333,
      "ো।": 8334,
      "▁রক": 8335,
      "▁জলের": 8336,
      "▁তালে": 8337,
      "▁তেমনই": 8338,
      "▁মাহফ": 8339,
      "▁সর্বস্ব": 8340,
      "▁মুনা": 8341,
      "▁বৈষ": 8342,
      "▁জ্যোতি": 8343,
      "▁অজ্ঞাত": 8344,
      "▁রুবেল": 8345,
      "▁উপকার": 8346,
      "▁প্রিন্স": 8347,
      "▁পরিপ্রে": 8348,
      "▁শনাক্ত": 8349,
      "▁পুরুষদের": 8350,
      "ামপুর": 8351,
      "▁করপোরেশনের": 8352,
      "▁অভিনন্দন": 8353,
      "▁প্রোডাক": 8354,
      "▁যাচ্ছি": 8355,
      "▁প্রজন্মের": 8356,
      "▁বোনের": 8357,
      "▁দফতরের": 8358,
      "▁এসএসসি": 8359,
      "▁সেতুর": 8360,
      "▁কখনোই": 8361,
      "▁সঙ্ক": 8362,
      "▁বিতর্কিত": 8363,
      "▁চাইতে": 8364,
      "adesh": 8365,
      "▁নৈতিক": 8366,
      "▁মাইক্রো": 8367,
      "ছিল।": 8368,
      "▁ফিরতে": 8369,
      "ালীন": 8370,
      "▁ঊর্ধ্ব": 8371,
      "ain": 8372,
      "▁ওয়াজ": 8373,
      "▁সৈন্য": 8374,
      "▁অতিক্রম": 8375,
      "▁ব্যাল": 8376,
      "▁নাইজের": 8377,
      "▁হেঁটে": 8378,
      "▁লঞ্চ": 8379,
      "যে": 8380,
      "▁সিআই": 8381,
      "▁ব্যুর": 8382,
      "▁অপরাধের": 8383,
      "▁তাড়াতাড়ি": 8384,
      "▁৷\n": 8385,
      "▁আফ্রিকা": 8386,
      "▁ন্যা": 8387,
      "▁বেঞ্চ": 8388,
      "▁ভিক": 8389,
      "▁সহযোগিতায়": 8390,
      "▁ইন্ডিয়ান": 8391,
      "হী": 8392,
      "pp": 8393,
      "াকি": 8394,
      "▁নাগরিকত্ব": 8395,
      "▁গুদ": 8396,
      "▁মুকুল": 8397,
      "ই।": 8398,
      "▁তির": 8399,
      "্ডিং": 8400,
      "▁পুড়িয়ে": 8401,
      "▁সেখানকার": 8402,
      "▁যুবলীগ": 8403,
      "▁টাওয়ার": 8404,
      "▁পারিনি": 8405,
      "▁লিঃ": 8406,
      "▁বার্ত": 8407,
      "▁সায়ে": 8408,
      "▁সিবিআই": 8409,
      "▁লড়াইয়ে": 8410,
      "▁আব্দুল্লাহ": 8411,
      "াকিস্ত": 8412,
      "▁পরিবারকে": 8413,
      "▁উঠছে": 8414,
      "ঃপর": 8415,
      "▁বাপ": 8416,
      "▁বেকার": 8417,
      "▁Y": 8418,
      "▁বসিয়ে": 8419,
      "▁নবীন": 8420,
      "▁চেয়েও": 8421,
      "ক্তিক": 8422,
      "▁কাজটি": 8423,
      "গরি": 8424,
      "ষের": 8425,
      "েপ": 8426,
      "▁গুলিতে": 8427,
      "াক্রমে": 8428,
      "▁কক্সবাজারনিউজ": 8429,
      "▁মহল": 8430,
      "ুখী": 8431,
      "মেন": 8432,
      "▁সাইকেল": 8433,
      "দিয়া": 8434,
      "▁ল্যাপ": 8435,
      "▁শান্তিপূর্ণ": 8436,
      "▁এমনটা": 8437,
      "▁ডেন": 8438,
      "▁রেশ": 8439,
      "হতি": 8440,
      "▁ওমর": 8441,
      "▁জাপান": 8442,
      "▁ব্যবস্থার": 8443,
      "ars": 8444,
      "▁পড়ে।\n": 8445,
      "▁চালান": 8446,
      "▁টিভ": 8447,
      "▁ইয়াস": 8448,
      "▁এভাবেই": 8449,
      "▁জন্": 8450,
      "সীম": 8451,
      "▁তল্লাশি": 8452,
      "সিন": 8453,
      "▁ইবন": 8454,
      "▁পিপ": 8455,
      "▁সম্মেলনের": 8456,
      "▁রোমান": 8457,
      "ংকা": 8458,
      "▁(বি": 8459,
      "▁দর্শকদের": 8460,
      "▁শফ": 8461,
      "▁ব্লা": 8462,
      "▁দু’টি": 8463,
      "▁ওখানে": 8464,
      "▁স্পিকার": 8465,
      "▁রণবীর": 8466,
      "▁৩২": 8467,
      "▁আসাদুজ্জামান": 8468,
      "▁মস্তি": 8469,
      "▁অপু": 8470,
      "▁করবে।": 8471,
      "োনেশ": 8472,
      "▁পর্যায়": 8473,
      "▁অ্যান্টি": 8474,
      "যোগে": 8475,
      "বেলায়": 8476,
      "▁রপ্তানি": 8477,
      "▁শক্তির": 8478,
      "▁সাম্প্রদায়িক": 8479,
      "▁স্বপ্নের": 8480,
      "▁গ্লো": 8481,
      "▁করুন।": 8482,
      "পুটি": 8483,
      "▁সংখ্যালঘু": 8484,
      "▁নায়িকা": 8485,
      "ক্ষিতে": 8486,
      "▁201": 8487,
      "▁বক্তারা": 8488,
      "▁মেলার": 8489,
      "▁রাখবেন": 8490,
      "ডাঙ্গা": 8491,
      "পমেন্ট": 8492,
      "▁সম্মিল": 8493,
      "ant": 8494,
      "▁সুন্ন": 8495,
      "▁মেট": 8496,
      "▁হ্য": 8497,
      "▁লিগের": 8498,
      "াপ্রতি": 8499,
      "িয়েল": 8500,
      "▁চীনা": 8501,
      "▁মোশাররফ": 8502,
      "▁অস্থায়ী": 8503,
      "▁বললো": 8504,
      "▁মুখোপাধ্যায়": 8505,
      "▁দৃষ্টান্ত": 8506,
      "▁প্রবৃদ্ধ": 8507,
      "িমের": 8508,
      "্তিক": 8509,
      "ফামার": 8510,
      "▁উপস্থাপ": 8511,
      "▁ডিফ": 8512,
      "▁শট": 8513,
      "মার্ক": 8514,
      "▁পালনের": 8515,
      "▁সৃজন": 8516,
      "angladesh": 8517,
      "▁চুক্তির": 8518,
      "eb": 8519,
      "▁গোলের": 8520,
      "সই": 8521,
      "▁৭০": 8522,
      "▁রমজান": 8523,
      "▁পরিচিতি": 8524,
      "▁ডুব": 8525,
      "▁উদ্ধৃতি": 8526,
      "▁স্বতন্ত্র": 8527,
      "▁জিয়াউর": 8528,
      "▁প্রেক্ষিতে": 8529,
      "▁ভাত": 8530,
      "▁এখানকার": 8531,
      "▁প্রভৃতি": 8532,
      "▁ত্রু": 8533,
      "▁স্টেট": 8534,
      "▁সহ্য": 8535,
      "নাট": 8536,
      "▁বাঁচাতে": 8537,
      "▁ইন্ডাস্ট্র": 8538,
      "▁শর্মা": 8539,
      "পর্যায়ে": 8540,
      "▁জেগে": 8541,
      "▁চার্": 8542,
      "▁বাস্তবায়নের": 8543,
      "▁লিগে": 8544,
      "স্তা": 8545,
      "▁যন্ত্রণ": 8546,
      "▁রাজার": 8547,
      "ধারী": 8548,
      "▁কট": 8549,
      "লোয়ার": 8550,
      "▁কোরিয়া": 8551,
      "▁উপকরণ": 8552,
      "▁না?\n": 8553,
      "▁জানাই": 8554,
      "▁প্রগতি": 8555,
      "▁একজনের": 8556,
      "▁সমাপ": 8557,
      "হত্যার": 8558,
      "▁বিরক্ত": 8559,
      "▁বাধ": 8560,
      "▁মন্তব্য\n": 8561,
      "▁বন্ধুর": 8562,
      "▁বিরাজ": 8563,
      "▁ভাবেই": 8564,
      "▁সুইড": 8565,
      "▁মুফ": 8566,
      "▁আখতার": 8567,
      "নু": 8568,
      "▁স্বভাব": 8569,
      "▁এসেছিলেন": 8570,
      "▁হয়েছেন।": 8571,
      "▁সাব্বির": 8572,
      "▁লিংক": 8573,
      "ff": 8574,
      "▁ট্যা": 8575,
      "▁মুঠো": 8576,
      "▁চামড়া": 8577,
      "▁মোহ": 8578,
      "▁দেখেছি": 8579,
      "সাং": 8580,
      "▁আপনিও": 8581,
      "▁যোগাযোগের": 8582,
      "▁পরিষেবা": 8583,
      "▁রওনা": 8584,
      "খি": 8585,
      "▁মুগ্ধ": 8586,
      "▁ডেপুটি": 8587,
      "▁অলি": 8588,
      "বান্": 8589,
      "▁স্পেশ": 8590,
      "▁হেম": 8591,
      "সি)": 8592,
      "▁এএফ": 8593,
      "▁কোল": 8594,
      "’-এর": 8595,
      "▁কথা।\n": 8596,
      "ies": 8597,
      "▁জন্য।\n": 8598,
      "▁টিকে": 8599,
      "▁হাউজ": 8600,
      "▁হরত": 8601,
      "▁মূর্তি": 8602,
      "▁পেসার": 8603,
      "ঙ্গু": 8604,
      "▁লোভ": 8605,
      ".com": 8606,
      "▁অয": 8607,
      "খম": 8608,
      "▁হাদীস": 8609,
      "▁এবারও": 8610,
      "▁জগন্নাথ": 8611,
      "রাইল": 8612,
      "▁অতঃপর": 8613,
      "চর্": 8614,
      "▁ভরা": 8615,
      "কেয়া": 8616,
      "রিত": 8617,
      "▁গৃহবধ": 8618,
      "▁বিলিয়ন": 8619,
      "দেরকে": 8620,
      "▁পরিপ্রেক্ষিতে": 8621,
      "▁চত্বরে": 8622,
      "ড়াল": 8623,
      "াম্প": 8624,
      "▁ভুয়া": 8625,
      "▁মৃতদেহ": 8626,
      "▁দ্বার": 8627,
      "টি।": 8628,
      "▁নেতাকর্মীরা": 8629,
      "▁কথায়,": 8630,
      "যান": 8631,
      "▁সোসাই": 8632,
      "▁জাহিদ": 8633,
      "▁শিক্ষকের": 8634,
      "▁সংসদীয়": 8635,
      "▁সৎ": 8636,
      "▁কিড": 8637,
      "▁বিবেচনায়": 8638,
      "▁দিনব্যাপী": 8639,
      "িসির": 8640,
      "▁করাই": 8641,
      "▁ভাঁ": 8642,
      "ঞ্জের": 8643,
      "▁ইনস্ট": 8644,
      "▁১৯৮": 8645,
      "▁বলছে,": 8646,
      "▁জন্যও": 8647,
      "▁মন্দিরে": 8648,
      "টি,": 8649,
      "▁হল।\n": 8650,
      "▁রুট": 8651,
      "▁জ্যেষ্ঠ": 8652,
      "▁জানুয়ার": 8653,
      "▁কেড়ে": 8654,
      "িউদ্দিন": 8655,
      "▁আলোকচিত্র": 8656,
      "▁বিধানসভা": 8657,
      "▁কোয়ার": 8658,
      "ট্টগ্রাম": 8659,
      "▁ধোন": 8660,
      "▁ঠে": 8661,
      "▁পূর্ণাঙ্গ": 8662,
      "▁মুল": 8663,
      "▁লবণ": 8664,
      "▁মশ": 8665,
      "▁সিঁ": 8666,
      "▁নোবেল": 8667,
      "▁সংবাদের": 8668,
      "মেলা": 8669,
      "মানিক": 8670,
      "।’": 8671,
      "▁আসরে": 8672,
      "ুমের": 8673,
      "▁সিভিল": 8674,
      "▁পরিমাণে": 8675,
      "▁ছেলেকে": 8676,
      "▁ত্বকের": 8677,
      "▁আসে।\n": 8678,
      "▁পাত্র": 8679,
      "ব্যা": 8680,
      "▁পিঠ": 8681,
      "▁সাজানো": 8682,
      "▁শ্রীলঙ্কা": 8683,
      "ান্ট": 8684,
      "▁রীতিমতো": 8685,
      "বদন্ত": 8686,
      "▁ডিসেম্বর,": 8687,
      "▁অনন্য": 8688,
      "▁সমর্থকদের": 8689,
      "▁মুছে": 8690,
      "▁পাকিস্তানে": 8691,
      "ীকরণ": 8692,
      "▁শাহজালাল": 8693,
      "▁সোজা": 8694,
      "▁ডলারের": 8695,
      "▁চমক": 8696,
      "▁বুঝিয়ে": 8697,
      "▁দিলীপ": 8698,
      "▁ঘোষিত": 8699,
      "▁ফাউন্ডেশন": 8700,
      "▁কৃতি": 8701,
      "▁Ind": 8702,
      "ান্ডার": 8703,
      "▁পারফর": 8704,
      "▁নাস্ত": 8705,
      "▁অনুপস্থ": 8706,
      "▁দর্শন": 8707,
      "▁রয়েছে,": 8708,
      "ost": 8709,
      "▁বানানো": 8710,
      "▁স্বেচ্ছাসেব": 8711,
      "▁মাননীয়": 8712,
      "▁এজেন্ট": 8713,
      "কাজ": 8714,
      "▁আমাদেরকে": 8715,
      "▁এমনটাই": 8716,
      "▁লেখাপ": 8717,
      "বাণ": 8718,
      "▁শিল্পের": 8719,
      "রিচ": 8720,
      "▁ফাউন্ডেশনের": 8721,
      "▁হেসে": 8722,
      "▁মিউ": 8723,
      "▁উত্তোলন": 8724,
      "▁বড়ো": 8725,
      "▁শ্রেণি": 8726,
      "য়ালি": 8727,
      "▁অবকাঠ": 8728,
      "োগ্রাফ": 8729,
      "▁রকমের": 8730,
      "▁আঙ্গ": 8731,
      "▁বিস্তার": 8732,
      "ভাগ্য": 8733,
      "▁হ্যান্ড": 8734,
      "▁নারীরা": 8735,
      "▁মেহেদী": 8736,
      "▁শেষের": 8737,
      "▁বিরোধিতা": 8738,
      "▁ফটো": 8739,
      "▁ঠিকই": 8740,
      "▁পরাজ": 8741,
      "▁কিংবদন্ত": 8742,
      "▁ক্ষতিপূ": 8743,
      "▁এইসব": 8744,
      "ডিএ": 8745,
      "▁হাড়": 8746,
      "বাক": 8747,
      "▁ভাতা": 8748,
      "▁ইছলামের": 8749,
      "াহী": 8750,
      "▁লগ": 8751,
      "▁আমদান": 8752,
      "▁মল্ল": 8753,
      "engal": 8754,
      "শ্রে": 8755,
      "▁গঙ্গ": 8756,
      "ব্দের": 8757,
      "▁কোলে": 8758,
      "সমূ": 8759,
      "▁অনুমান": 8760,
      "শালা": 8761,
      "ুদের": 8762,
      "▁নীতিমালা": 8763,
      "াইনের": 8764,
      "ষ্টায়": 8765,
      "্বিক": 8766,
      "▁এক্সপ্রেস": 8767,
      "▁প্রভাবশালী": 8768,
      "দানে": 8769,
      "▁পাঠান": 8770,
      "▁ফোনের": 8771,
      "▁আদায়ের": 8772,
      "▁আব্বাস": 8773,
      "▁উৎসবে": 8774,
      "▁ঋণের": 8775,
      "▁সার্চ": 8776,
      "োচন": 8777,
      "▁গোষ্ঠী": 8778,
      "ুনি": 8779,
      "▁সর্বাধ": 8780,
      "▁ট্যাক্স": 8781,
      "▁গোলাপ": 8782,
      "▁আধা": 8783,
      "দ্রব্য": 8784,
      "▁হুমায়ুন": 8785,
      "চারী": 8786,
      "▁কাছেই": 8787,
      "▁চারজন": 8788,
      "▁রফিক": 8789,
      "▁তুলনা": 8790,
      "▁রুপ": 8791,
      "▁মুজ": 8792,
      "াইম": 8793,
      "▁হকের": 8794,
      "▁ডাঃ": 8795,
      "▁মেধাব": 8796,
      "▁অভিবাসন": 8797,
      "▁পুরাতন": 8798,
      "সম্মত": 8799,
      "▁গুলশান": 8800,
      "▁০২": 8801,
      "▁news": 8802,
      "▁ছড়া": 8803,
      "▁নাগরিকদের": 8804,
      "▁কাঁচা": 8805,
      "▁যাচ্ছে।": 8806,
      "▁কৈ": 8807,
      "▁ভ্র": 8808,
      "▁আকারে": 8809,
      "▁ভর্তির": 8810,
      "▁আব্দুস": 8811,
      "▁করবেন।\n": 8812,
      "▁ষষ্ঠ": 8813,
      "কে।": 8814,
      "সাহ": 8815,
      "াল্লাম": 8816,
      "▁মহাব": 8817,
      "▁পত্রিকায়": 8818,
      "▁জোরে": 8819,
      "▁কথার": 8820,
      "–‌": 8821,
      "লাভ": 8822,
      "▁আনুষ্ঠানিকভাবে": 8823,
      "▁একদিকে": 8824,
      "▁বলছি": 8825,
      "▁প্রদেশের": 8826,
      "▁ফ্যাক": 8827,
      "▁খাম": 8828,
      "শিক্ষা": 8829,
      "▁ইন্দোনেশ": 8830,
      "দ্বে": 8831,
      "▁উচ্ছ": 8832,
      "▁ঈদে": 8833,
      "▁বুকের": 8834,
      "lect": 8835,
      "▁শয়ত": 8836,
      "▁(অ": 8837,
      "▁মহেশ": 8838,
      "তামূলক": 8839,
      "▁মেসে": 8840,
      "▁গভর্ন": 8841,
      "▁পরিবারে": 8842,
      "ণ্ডা": 8843,
      "▁বাগের": 8844,
      "▁স্থির": 8845,
      "▁সংলাপ": 8846,
      "মাদের": 8847,
      "▁এসেছিল": 8848,
      "▁অর্ধেক": 8849,
      "ডিয়া": 8850,
      "পত্রের": 8851,
      "▁অবিশ": 8852,
      "▁এখানেই": 8853,
      "▁আকাশে": 8854,
      "লাতে": 8855,
      "▁রফত": 8856,
      "▁আচার": 8857,
      "তুক": 8858,
      "▁ট্রেনের": 8859,
      "▁হ্যার": 8860,
      "▁কনফারেন্স": 8861,
      "▁প্রজ্ঞ": 8862,
      "খাস্ত": 8863,
      "িলম্বে": 8864,
      "▁শাহজাহান": 8865,
      "▁ছায়া": 8866,
      "▁কমপ্লেক্সে": 8867,
      "▁অপরদিকে": 8868,
      "▁মাসিক": 8869,
      "▁মাধ": 8870,
      "▁২০১৩": 8871,
      "মকে": 8872,
      "▁আরা": 8873,
      "▁স্প্যান": 8874,
      ":০০": 8875,
      "▁হন।": 8876,
      "▁মেহ": 8877,
      "▁ঘাঁ": 8878,
      "▁গল্পের": 8879,
      "▁পরিবেশে": 8880,
      "▁ডায়াবে": 8881,
      "--": 8882,
      "পাই": 8883,
      "▁আহব": 8884,
      "▁স্বাগতিক": 8885,
      "▁সাম্র": 8886,
      "▁inf": 8887,
      "▁অবন": 8888,
      "▁গবেষক": 8889,
      "▁বরাত": 8890,
      "▁অপরি": 8891,
      "বন্দি": 8892,
      "▁তৃ": 8893,
      "▁রেলওয়ে": 8894,
      "▁ছুটির": 8895,
      "▁সাঈদ": 8896,
      "খালীর": 8897,
      "▁ওয়াসাল্লাম": 8898,
      "▁গর্ভ": 8899,
      "▁ঘাটতি": 8900,
      "▁প্রকৃতির": 8901,
      "▁শিল": 8902,
      "▁০৩": 8903,
      "▁নানান": 8904,
      "▁ভাঙচুর": 8905,
      "চয়": 8906,
      "▁বক্তৃতা": 8907,
      "▁ছেলেমে": 8908,
      "▁দম্পতি": 8909,
      "০০০": 8910,
      "▁অবিলম্বে": 8911,
      "▁হিউ": 8912,
      "ার্ভ": 8913,
      "াহীন": 8914,
      "▁পয়েন্টে": 8915,
      "▁পারফরম্যান": 8916,
      "▁চালাচ্ছে": 8917,
      "▁অর্থবছরের": 8918,
      "▁ফেলার": 8919,
      "▁বাঙালির": 8920,
      "▁সারাদেশে": 8921,
      "▁জালাল": 8922,
      "▁দশকের": 8923,
      "▁ছাত্রদলের": 8924,
      "▁দাপ": 8925,
      "▁প্রতিরক্ষা": 8926,
      "▁মিউজিক": 8927,
      "▁সূচক": 8928,
      "▁সিসি": 8929,
      "▁সম্র": 8930,
      "▁সার্কুলেশন": 8931,
      "▁পর্যালোচনা": 8932,
      "-চ": 8933,
      "গুপ্ত": 8934,
      "▁রোগে": 8935,
      "▁ছাত্রদের": 8936,
      "▁ইনকি": 8937,
      "োরের": 8938,
      "ive": 8939,
      "▁আর্ম": 8940,
      "▁পাড়ি": 8941,
      "▁নাই।\n": 8942,
      "কর্মীদের": 8943,
      "▁ডেমোক": 8944,
      "▁ভূমিকায়": 8945,
      "▁পরমাণ": 8946,
      "▁গ্রাহকদের": 8947,
      "▁কনটেন্ট": 8948,
      "নি,": 8949,
      "হাতে": 8950,
      "▁বিস্ময়": 8951,
      "স্থায়": 8952,
      "▁মফ": 8953,
      "▁অর্থবছরে": 8954,
      "▁ধরেন": 8955,
      "▁উপলক্ষ": 8956,
      "▁কলাম": 8957,
      "▁সার্ভিসের": 8958,
      "▁পোস": 8959,
      "টনের": 8960,
      "▁হায়দার": 8961,
      "▁সেরে": 8962,
      "▁জোরদার": 8963,
      "▁আশরাফ": 8964,
      "-শ": 8965,
      "্যালি": 8966,
      "-উ": 8967,
      "▁গি": 8968,
      "▁১.": 8969,
      "▁আইয়": 8970,
      "▁কর্পোরেশন": 8971,
      "্মু": 8972,
      "ুড়ি": 8973,
      "ass": 8974,
      "পুরুষ": 8975,
      "▁হাবিবুর": 8976,
      "▁বিপরীত": 8977,
      "▁সন্তানদের": 8978,
      "মণ্ড": 8979,
      "▁পুনঃ": 8980,
      "▁স্যাটেলাইট": 8981,
      "▁দূষণ": 8982,
      "▁ইউএস": 8983,
      "▁অংশের": 8984,
      "▁ঠা": 8985,
      "▁পুকুর": 8986,
      "▁আইডি": 8987,
      "▁প্রয়াত": 8988,
      "▁মোতায়েন": 8989,
      "▁নাও": 8990,
      "ীর্থ": 8991,
      "▁লন্ডন": 8992,
      "▁আমল": 8993,
      "▁অস্থির": 8994,
      "oti": 8995,
      "▁পুষ": 8996,
      "▁চকর": 8997,
      "ষ্ণু": 8998,
      "▁ওপেনার": 8999,
      "াগার": 9000,
      "▁মৃত্যুদণ্ড": 9001,
      "▁ঢো": 9002,
      "▁ঘটে।": 9003,
      "▁করুন।\n": 9004,
      "▁জখম": 9005,
      "▁জেম": 9006,
      "য়োজিত": 9007,
      "▁আশপাশের": 9008,
      "▁বানা": 9009,
      "শায়": 9010,
      "▁সাহা": 9011,
      "▁প্রতিনিয়ত": 9012,
      "▁ব্রিজ": 9013,
      "▁দিলেও": 9014,
      "▁জগতে": 9015,
      "▁উপে": 9016,
      "▁পলাতক": 9017,
      "▁বৃহত্তম": 9018,
      "▁প্রতিযোগিতার": 9019,
      "▁রিভিউ": 9020,
      "িনাকে": 9021,
      "▁প্রেমিক": 9022,
      "ুখে": 9023,
      "্রিম": 9024,
      "এসআই": 9025,
      "▁অনুযায়ী,": 9026,
      "▁রাজ্জাক": 9027,
      "খানি": 9028,
      "▁ওয়ার্ডে": 9029,
      "▁আবদ": 9030,
      "▁ভেন": 9031,
      "▁(রা": 9032,
      "▁স্টেশনে": 9033,
      "▁প্রতিবছর": 9034,
      "ভিন": 9035,
      "▁শরীয়তপুর": 9036,
      "▁ভৌ": 9037,
      "▁সহায়ক": 9038,
      "▁নাজিম": 9039,
      "▁মোমিন": 9040,
      "▁এলেন": 9041,
      "▁যো": 9042,
      "হারে": 9043,
      "্তুগ": 9044,
      "▁কেউই": 9045,
      "▁মোকাবিলা": 9046,
      "▁কথাটা": 9047,
      "সিম": 9048,
      "▁জরুরী": 9049,
      "হুদি": 9050,
      "▁রিল": 9051,
      "▁নিয়েছিলেন": 9052,
      "▁দশক": 9053,
      "▁সুলতানা": 9054,
      "▁বাক্য": 9055,
      "▁বর্জ": 9056,
      "▁কেনা": 9057,
      "্রহ্ম": 9058,
      "▁আরাম": 9059,
      "নং": 9060,
      "▁সিদ্ধান্তের": 9061,
      "▁চলেছেন": 9062,
      "▁বিস্ফোরক": 9063,
      "▁সমাপনী": 9064,
      "▁শিক্ষার্থীর": 9065,
      "▁শ্রীলঙ্কার": 9066,
      "▁বলবেন": 9067,
      "স্থার": 9068,
      "নন্দ": 9069,
      "▁তাড়া": 9070,
      "▁চলচ্চিত্রের": 9071,
      "▁অনূ": 9072,
      "▁গাল": 9073,
      "▁জনপ্রিয়তা": 9074,
      "পুল": 9075,
      "কাঠি": 9076,
      "▁৮০": 9077,
      "▁ii": 9078,
      "▁অজানা": 9079,
      "▁চলাচ": 9080,
      "ত্তির": 9081,
      "▁ক্ষেত্রেই": 9082,
      "▁শব্দের": 9083,
      "▁করুণ": 9084,
      "েড": 9085,
      "▁বুঝি": 9086,
      "▁একজনকে": 9087,
      "▁বিরত": 9088,
      "▁ছক": 9089,
      "▁বেলজ": 9090,
      "▁সাক্ষী": 9091,
      "্যকর": 9092,
      "▁em": 9093,
      "▁ডিবি": 9094,
      "▁ব্যবসার": 9095,
      "▁ফর্ম": 9096,
      "▁ডেই": 9097,
      "▁করি।\n": 9098,
      "▁কারিগ": 9099,
      "াকী": 9100,
      "▁সাফল্যের": 9101,
      "াপরাধ": 9102,
      "▁নেইমার": 9103,
      "ice": 9104,
      "দুদ": 9105,
      "ly": 9106,
      "▁বলবে": 9107,
      "▁ভিক্ষ": 9108,
      "▁টিপস": 9109,
      "’‌": 9110,
      "গুলিকে": 9111,
      "▁সুনামগঞ্জ": 9112,
      "▁প্রতিবন্ধী": 9113,
      "▁খানিকটা": 9114,
      ",\n": 9115,
      "▁কল্পনা": 9116,
      "▁ক্যান্সার": 9117,
      "▁চাঁপাইন": 9118,
      "▁জুনি": 9119,
      "▁বালিকা": 9120,
      "▁নিয়োগের": 9121,
      "▁নিয়োজিত": 9122,
      "▁অভিবাসী": 9123,
      "▁হোল": 9124,
      "▁যাদব": 9125,
      "▁ছাত্রছাত্রী": 9126,
      "▁বলুন": 9127,
      "▁নীরব": 9128,
      "▁.\n": 9129,
      "▁পর্তুগ": 9130,
      "িষ": 9131,
      "▁প্রযোজ্য": 9132,
      "▁অর্ডার": 9133,
      "▁অটো": 9134,
      "▁দয়া": 9135,
      "▁খান,": 9136,
      "▁ময়মনসিং": 9137,
      "pt": 9138,
      "▁ঘণ্ট": 9139,
      "▁bangla": 9140,
      "▁পিতার": 9141,
      "▁আহমেদের": 9142,
      "সংগ": 9143,
      "▁সন্ধ্য": 9144,
      "ওর": 9145,
      "তাবাদী": 9146,
      "end": 9147,
      "▁দ্রব্য": 9148,
      "▁শ্বশুর": 9149,
      "▁খল": 9150,
      "▁অঙ্ক": 9151,
      "▁মম": 9152,
      "▁সফরের": 9153,
      "▁বাইক": 9154,
      "ষিত": 9155,
      "▁রক্তের": 9156,
      "ানীর": 9157,
      "▁ইউনাইটেড": 9158,
      "▁দশকে": 9159,
      "শিত": 9160,
      "▁বন্ধের": 9161,
      "▁সাক্ষাৎকারে": 9162,
      "▁রক্ষার": 9163,
      "▁শীতের": 9164,
      "▁দখলে": 9165,
      "▁দোকানের": 9166,
      "▁কুষ্টিয়া": 9167,
      "ুয়ার": 9168,
      "▁নির্বাচনকে": 9169,
      "▁সাক্ষ্য": 9170,
      "ব্ধ": 9171,
      "▁সাইটের": 9172,
      "▁সকলে": 9173,
      "▁আদম": 9174,
      "▁নল": 9175,
      "ানন্দ": 9176,
      "▁পীর": 9177,
      "▁জামান": 9178,
      "▁জাস": 9179,
      "▁জোন": 9180,
      "▁মালিকানা": 9181,
      "ায়।": 9182,
      "মতে": 9183,
      "▁বিধি": 9184,
      "▁ধাপে": 9185,
      "▁শিক্ষিত": 9186,
      "▁অভিযানের": 9187,
      "▁লাভের": 9188,
      "▁বজ্র": 9189,
      "বক": 9190,
      "▁তলায়": 9191,
      "▁ঐতিহ্যবাহী": 9192,
      "▁বিদ্যুতের": 9193,
      "▁বারের": 9194,
      "▁মাক": 9195,
      "▁মানিকগঞ্জ": 9196,
      "▁সময়সূ": 9197,
      "▁সদরের": 9198,
      "▁ট্যাব": 9199,
      "▁আত্মবিশ্বাস": 9200,
      "▁করাতে": 9201,
      "▁দাদা": 9202,
      "▁ইভি": 9203,
      "▁de": 9204,
      "▁প্রচেষ্টা": 9205,
      "▁ঘুষ": 9206,
      "▁কবিতার": 9207,
      "▁সেক্ষেত্রে": 9208,
      "▁উস": 9209,
      "▁শ্রদ্ধ": 9210,
      "▁মানেই": 9211,
      "▁মাদ্রাসার": 9212,
      "▁স্কোর": 9213,
      "▁জন্মগ্রহণ": 9214,
      "টারে": 9215,
      "▁বৃহত্তর": 9216,
      "▁হোয়াইট": 9217,
      "▁নেপাল": 9218,
      "▁অভিভাবক": 9219,
      "াপতির": 9220,
      "▁কমাতে": 9221,
      "▁তীর": 9222,
      "▁দুদক": 9223,
      "▁দুইটি": 9224,
      "▁উড়ে": 9225,
      "▁সংবর্ধনা": 9226,
      "▁মোদীর": 9227,
      "▁দিবাগত": 9228,
      "▁কবীর": 9229,
      "ীক্ষিত": 9230,
      "▁দিয়েছি": 9231,
      "কিং": 9232,
      "ill": 9233,
      "োত্তর": 9234,
      "▁গুলিবিদ্ধ": 9235,
      "▁ডা.": 9236,
      "ith": 9237,
      "াদন": 9238,
      "▁দেশি": 9239,
      "▁আর্জেন্টিনা": 9240,
      "▁বিমানের": 9241,
      "▁নাশক": 9242,
      "▁অটোরিক": 9243,
      "▁আনে": 9244,
      "▁টিউট": 9245,
      "্ডের": 9246,
      "▁পুলিশে": 9247,
      "▁সুম": 9248,
      "▁বর্ষের": 9249,
      "বাবুর": 9250,
      "▁ইনস্টিটিউ": 9251,
      "▁গুজব": 9252,
      "▁সমর্থক": 9253,
      "্বুল": 9254,
      "▁ধারে": 9255,
      "▁অপারেটর": 9256,
      "সেবা": 9257,
      "য়েদ": 9258,
      "▁মনোযোগ": 9259,
      "▁গান্ধী": 9260,
      "▁আওয়াজ": 9261,
      "▁বয়স্ক": 9262,
      "▁শিক্ষাবর্ষে": 9263,
      "জয়": 9264,
      "▁তুম": 9265,
      "▁আলু": 9266,
      "▁প্রবণতা": 9267,
      "পাতি": 9268,
      "িঝ": 9269,
      "নিবেশ": 9270,
      "▁ব্রা": 9271,
      "▁Pre": 9272,
      "▁যুদ্ধাপরাধ": 9273,
      "-কে": 9274,
      "াদিল": 9275,
      "▁৩৭": 9276,
      "ঃ\n": 9277,
      "▁ভ্যাট": 9278,
      "▁নড়": 9279,
      "াতুল": 9280,
      "▁উদ্ভ": 9281,
      "▁গ্রহন": 9282,
      "▁Com": 9283,
      "▁আগাম": 9284,
      "▁সিরাজুল": 9285,
      "বীণ": 9286,
      "▁শাড়ি": 9287,
      "াপে": 9288,
      "▁ইস্যুতে": 9289,
      "▁ওয়েবডেস্ক": 9290,
      "স্থানের": 9291,
      "▁ছয়টি": 9292,
      "▁3": 9293,
      "িতিশীল": 9294,
      "▁তারপরে": 9295,
      "▁বিশ্রাম": 9296,
      "য্য": 9297,
      "▁ক্ষয়": 9298,
      "ঞ্চলে": 9299,
      "▁বেঙ্গল": 9300,
      "▁উনার": 9301,
      "▁পট": 9302,
      "▁শাহীন": 9303,
      "▁শহী": 9304,
      "ong": 9305,
      "▁নিজেও": 9306,
      "▁নির্বিঘ": 9307,
      "ওয়ের": 9308,
      "▁মেয়েটি": 9309,
      "▁আকর্ষণীয়": 9310,
      "▁আহবায়ক": 9311,
      "▁তাহা": 9312,
      "▁টুকরো": 9313,
      "াসীর": 9314,
      "রিন": 9315,
      "▁দাউ": 9316,
      "▁প্রত্যাশী": 9317,
      "াহত": 9318,
      "▁জান্ন": 9319,
      "্স্ট": 9320,
      "▁হুঁ": 9321,
      "▁নিঃস": 9322,
      "▁নগরের": 9323,
      "▁সাউথ": 9324,
      "ie": 9325,
      "▁রব": 9326,
      "▁প্যানেল": 9327,
      "▁আয়ে": 9328,
      "▁মণ্ডল": 9329,
      "▁পুরোনো": 9330,
      "দাদুল": 9331,
      "িপির": 9332,
      "▁সমাধানের": 9333,
      "▁চলচ্চিত্রে": 9334,
      "▁গ্ল": 9335,
      "▁সচেতনতা": 9336,
      "▁পরম": 9337,
      "▁লিড": 9338,
      "▁প্রজাতির": 9339,
      "▁(র": 9340,
      "াদুর": 9341,
      "▁জলবায়": 9342,
      "▁জাপানের": 9343,
      "▁খনি": 9344,
      "▁অনুশীলন": 9345,
      "▁যত্ন": 9346,
      "▁লিঙ্ক": 9347,
      "▁ফেরদৌ": 9348,
      "▁গানে": 9349,
      "▁কাই": 9350,
      "েন্দু": 9351,
      "▁৪৫": 9352,
      "▁অপরাজিত": 9353,
      "▁গরুর": 9354,
      "▁অবহিত": 9355,
      "▁প্রচারণা": 9356,
      "▁কাদেরের": 9357,
      "▁রাতেই": 9358,
      "▁দুবাই": 9359,
      "▁আনন্দবাজার": 9360,
      "▁গেলো": 9361,
      "▁মালে": 9362,
      "ালয়ে": 9363,
      "▁ইলেকট্রনিক": 9364,
      "▁শফিকুল": 9365,
      "▁An": 9366,
      "▁টার্ম": 9367,
      "েঁ": 9368,
      "▁পরিবহনের": 9369,
      "▁নয়াদিল": 9370,
      "▁ম্যানেজমেন্ট": 9371,
      "▁উত্তরপ্র": 9372,
      "▁থিয়ে": 9373,
      "▁পর্ন": 9374,
      "র্পণ": 9375,
      "▁নথি": 9376,
      "▁লাগল": 9377,
      "▁বাড়বে": 9378,
      "▁ঈমান": 9379,
      "▁কিছুতেই": 9380,
      "▁গ্রন্": 9381,
      "▁পরিচালনার": 9382,
      "▁ইয়েম": 9383,
      "▁সহায়তায়": 9384,
      "▁উপযোগী": 9385,
      "িমান": 9386,
      "▁রূপান্তর": 9387,
      "▁কারিগরি": 9388,
      "ৃত্ব": 9389,
      "▁২.": 9390,
      "▁খোদ": 9391,
      "ফায়েল": 9392,
      "▁পুজোর": 9393,
      "ুমতি": 9394,
      "▁পৌনে": 9395,
      "ুপ্ত": 9396,
      "▁হ্যাক": 9397,
      "▁মধ্যেও": 9398,
      "▁মূল্যায়ন": 9399,
      "▁মৃত্যুতে": 9400,
      "▁অগ্নি": 9401,
      "▁মাহফিল": 9402,
      "▁ইহুদি": 9403,
      "▁ক্রমে": 9404,
      "▁সর্বত্র": 9405,
      "▁অধিকারী": 9406,
      "▁সেন্টারে": 9407,
      "ook": 9408,
      "▁ইঞ্জিন": 9409,
      "▁হয়েছিল।": 9410,
      "▁আতিক": 9411,
      "▁জিম্বাব": 9412,
      "▁নভেম্বর,": 9413,
      "▁অর্থের": 9414,
      "▁ক্রমশ": 9415,
      "▁জার্মানির": 9416,
      "▁নবম": 9417,
      "▁রেখা": 9418,
      "▁অধীন": 9419,
      "▁মর্গে": 9420,
      "▁রোহিত": 9421,
      "্মেদ": 9422,
      "▁সম্প্রদায়": 9423,
      "ি।": 9424,
      "নাজ": 9425,
      "▁মিলা": 9426,
      "▁রোজা": 9427,
      "িল।\n": 9428,
      "▁র‌্যাব": 9429,
      "▁ইঞ্চি": 9430,
      "▁মুক": 9431,
      "িনাল": 9432,
      "▁লাফ": 9433,
      "▁আশ্চ": 9434,
      "ঠাক": 9435,
      "৫\n": 9436,
      "ংসের": 9437,
      "▁ব্যাংকে": 9438,
      "▁ম্যাগাজ": 9439,
      "▁ক্ষেত্র": 9440,
      "▁গণতন্ত্রের": 9441,
      "▁ফ্লাইট": 9442,
      "তীত": 9443,
      "্যাশ": 9444,
      "▁রেস্ট": 9445,
      "▁কয়লা": 9446,
[...]
